{"version":"1.0","truncation":null,"padding":null,"added_tokens":[{"id":0,"special":true,"content":"[UNK]","single_word":false,"lstrip":false,"rstrip":false,"normalized":false},{"id":1,"special":true,"content":"[CLS]","single_word":false,"lstrip":false,"rstrip":false,"normalized":false},{"id":2,"special":true,"content":"[SEP]","single_word":false,"lstrip":false,"rstrip":false,"normalized":false},{"id":3,"special":true,"content":"[PAD]","single_word":false,"lstrip":false,"rstrip":false,"normalized":false},{"id":4,"special":true,"content":"[MASK]","single_word":false,"lstrip":false,"rstrip":false,"normalized":false}],"normalizer":{"type":"Sequence","normalizers":[{"type":"Replace","pattern":{"Regex":"[\\[\\]{}\\(\\);]|[=<>\",_.&*\\'\\\\]|::|->"},"content":" "},{"type":"Replace","pattern":{"Regex":"(?<=[a-z])(?=[A-Z])|(?<=[A-Z])(?=[A-Z][a-z])"},"content":" "},{"type":"Lowercase"},{"type":"Replace","pattern":{"Regex":"let|const|fn|if|else|self|println"},"content":" "},{"type":"Replace","pattern":{"Regex":"\\b(\\w{1})\\b\\s?"},"content":" "}]},"pre_tokenizer":{"type":"Sequence","pretokenizers":[{"type":"Punctuation"},{"type":"Whitespace"}]},"post_processor":null,"decoder":null,"model":{"type":"BPE","dropout":null,"unk_token":"[UNK]","continuing_subword_prefix":null,"end_of_word_suffix":null,"fuse_unk":false,"vocab":{"[UNK]":0,"[CLS]":1,"[SEP]":2,"[PAD]":3,"[MASK]":4,"!":5,"#":6,"$":7,"%":8,"+":9,"-":10,"/":11,"0":12,"1":13,"2":14,"3":15,"4":16,"5":17,"6":18,"7":19,"8":20,"9":21,":":22,"?":23,"@":24,"^":25,"`":26,"a":27,"b":28,"c":29,"d":30,"e":31,"f":32,"g":33,"h":34,"i":35,"j":36,"k":37,"l":38,"m":39,"n":40,"o":41,"p":42,"q":43,"r":44,"s":45,"t":46,"u":47,"v":48,"w":49,"x":50,"y":51,"z":52,"|":53,"~":54,"£":55,"¥":56,"¦":57,"§":58,"©":59,"«":60,"¬":61,"°":62,"±":63,"²":64,"³":65,"´":66,"µ":67,"¶":68,"·":69,"¹":70,"»":71,"¿":72,"×":73,"ß":74,"á":75,"â":76,"ã":77,"ä":78,"å":79,"ç":80,"è":81,"é":82,"ë":83,"í":84,"ï":85,"ð":86,"ó":87,"ô":88,"ö":89,"ø":90,"ù":91,"ü":92,"ÿ":93,"ă":94,"ą":95,"ć":96,"ē":97,"ę":98,"ı":99,"ĺ":100,"ļ":101,"ł":102,"ń":103,"ś":104,"ź":105,"ż":106,"ɔ":107,"ɪ":108,"ˆ":109,"ˢ":110,"́":111,"̃":112,"̆":113,"̇":114,"̈":115,"̐":116,"̖":117,"̜":118,"̠":119,"̤":120,"̪":121,"̭":122,"̮":123,"̯":124,"̲":125,"̷":126,"̸":127,"̹":128,"̻":129,"̼":130,"ͅ":131,"͉":132,"͍":133,"͕":134,"͜":135,"ά":136,"έ":137,"ή":138,"α":139,"γ":140,"ε":141,"η":142,"θ":143,"ι":144,"κ":145,"λ":146,"μ":147,"ν":148,"ο":149,"ρ":150,"ς":151,"σ":152,"τ":153,"υ":154,"φ":155,"ό":156,"а":157,"в":158,"г":159,"д":160,"е":161,"ж":162,"з":163,"и":164,"й":165,"к":166,"л":167,"м":168,"н":169,"о":170,"п":171,"р":172,"с":173,"т":174,"у":175,"ф":176,"ч":177,"щ":178,"ю":179,"ѡ":180,"ѳ":181,"ҹ":182,"آ":183,"ا":184,"ب":185,"ت":186,"ث":187,"ج":188,"ح":189,"خ":190,"د":191,"ر":192,"ز":193,"س":194,"ش":195,"ظ":196,"ع":197,"غ":198,"ف":199,"ق":200,"ك":201,"ل":202,"م":203,"ن":204,"ه":205,"و":206,"ي":207,"گ":208,"ی":209,"߿":210,"त":211,"न":212,"म":213,"स":214,"े":215,"्":216,"་":217,"ད":218,"བ":219,"ས":220,"ོ":221,"ྐ":222,"ᄅ":223,"ᅳ":224,"ᆯ":225,"ᵈ":226,"ḿ":227,"ṕ":228,"​":229,"‌":230,"–":231,"—":232,"‘":233,"’":234,"“":235,"”":236,"†":237,"•":238,"‣":239,"…":240,"‬":241,"′":242,"›":243,"‾":244,"⁡":245,"⁨":246,"⁩":247,"⁰":248,"⁴":249,"⁵":250,"⁶":251,"⁷":252,"⁸":253,"⁹":254,"⁼":255,"ⁿ":256,"₀":257,"₁":258,"₂":259,"₉":260,"€":261,"ℹ":262,"←":263,"→":264,"↓":265,"↵":266,"⇽":267,"∀":268,"∃":269,"∈":270,"−":271,"√":272,"≈":273,"≠":274,"≤":275,"≥":276,"⊆":277,"⏎":278,"─":279,"│":280,"┃":281,"┆":282,"┌":283,"┐":284,"└":285,"┘":286,"├":287,"┝":288,"┤":289,"┬":290,"┴":291,"┼":292,"╌":293,"═":294,"║":295,"╞":296,"╡":297,"╪":298,"╫":299,"╭":300,"╮":301,"╯":302,"╰":303,"╴":304,"╵":305,"╶":306,"╷":307,"█":308,"░":309,"■":310,"▶":311,"◌":312,"●":313,"◻":314,"◼":315,"☃":316,"☐":317,"☑":318,"☹":319,"☺":320,"♠":321,"♣":322,"♥":323,"♦":324,"⚙":325,"⚡":326,"✓":327,"✔":328,"✖":329,"✗":330,"✦":331,"❌":332,"❤":333,"❯":334,"➜":335,"➥":336,"⟨":337,"⟩":338,"⟪":339,"⟫":340,"⤵":341,"い":342,"が":343,"こ":344,"し":345,"す":346,"た":347,"ち":348,"で":349,"と":350,"の":351,"は":352,"び":353,"ゃ":354,"る":355,"ん":356,"ウ":357,"ク":358,"グ":359,"ス":360,"ズ":361,"チ":362,"ッ":363,"テ":364,"ト":365,"ハ":366,"プ":367,"ボ":368,"マ":369,"ラ":370,"ル":371,"ロ":372,"ー":373,"㎒":374,"一":375,"七":376,"三":377,"世":378,"九":379,"二":380,"五":381,"优":382,"你":383,"保":384,"克":385,"八":386,"公":387,"六":388,"分":389,"别":390,"十":391,"号":392,"名":393,"哈":394,"嘻":395,"四":396,"好":397,"姓":398,"字":399,"小":400,"年":401,"德":402,"忠":403,"性":404,"態":405,"持":406,"数":407,"日":408,"未":409,"本":410,"殻":411,"漢":412,"犬":413,"状":414,"甲":415,"界":416,"的":417,"知":418,"神":419,"秀":420,"秘":421,"符":422,"等":423,"级":424,"纪":425,"老":426,"自":427,"良":428,"虎":429,"語":430,"車":431,"転":432,"里":433,"鋨":434,"錆":435,"難":436,"類":437,"駨":438,"麒":439,"麟":440,"강":441,"동":442,"를":443,"윤":444,"ﬁ":445,"️":446,"﻿":447,"！":448,"：":449,"｢":450,"｣":451,"�":452,"in":453,"st":454,"er":455,"gt":456,"re":457,"lt":458,"at":459,"mp":460,"or":461,"on":462,"ut":463,"it":464,"en":465,"amp":466,"ar":467,"ec":468,"str":469,"al":470,"le":471,"de":472,"th":473,"me":474,"an":475,"se":476,"un":477,"ot":478,"ing":479,"ma":480,"ro":481,"mut":482,"co":483,"ion":484,"as":485,"qu":486,"ra":487,"ex":488,"to":489,"ce":490,"ch":491,"ct":492,"ed":493,"li":494,"lo":495,"ad":496,"vec":497,"ge":498,"ent":499,"ne":500,"ru":501,"for":502,"quot":503,"std":504,"err":505,"00":506,"is":507,"res":508,"string":509,"fi":510,"int":511,"ser":512,"pe":513,"fo":514,"id":515,"ur":516,"bo":517,"ate":518,"32":519,"rust":520,"new":521,"ty":522,"val":523,"so":524,"pu":525,"iz":526,"use":527,"con":528,"iter":529,"error":530,"ect":531,"imp":532,"op":533,"main":534,"uct":535,"bu":536,"type":537,"the":538,"um":539,"ke":540,"struct":541,"ult":542,"ue":543,"te":544,"ve":545,"ic":546,"ize":547,"ll":548,"ame":549,"get":550,"ext":551,"and":552,"ld":553,"not":554,"ab":555,"impl":556,"pub":557,"foo":558,"one":559,"no":560,"mo":561,"read":562,"rc":563,"dat":564,"rs":565,"value":566,"mat":567,"map":568,"do":569,"cl":570,"us":571,"rap":572,"ss":573,"data":574,"some":575,"po":576,"tr":577,"ite":578,"ti":579,"ap":580,"name":581,"result":582,"ck":583,"rom":584,"tra":585,"lib":586,"from":587,"wrap":588,"64":589,"end":590,"ig":591,"box":592,"ver":593,"my":594,"sh":595,"la":596,"i32":597,"of":598,"ref":599,"out":600,"ere":601,"par":602,"arg":603,"tion":604,"lin":605,"src":606,"able":607,"exp":608,"pro":609,"io":610,"ator":611,"fa":612,"unwrap":613,"he":614,"trait":615,"test":616,"ht":617,"ure":618,"thrust":619,"row":620,"file":621,"be":622,"put":623,"di":624,"am":625,"yn":626,"vi":627,"wh":628,"es":629,"pa":630,"ret":631,"has":632,"time":633,"ation":634,"ment":635,"ok":636,"option":637,"cont":638,"match":639,"10":640,"key":641,"pat":642,"all":643,"per":644,"add":645,"stat":646,"pr":647,"set":648,"by":649,"ith":650,"iterator":651,"il":652,"u8":653,"der":654,"ol":655,"up":656,"wn":657,"item":658,"0000":659,"cr":660,"urn":661,"num":662,"ild":663,"buf":664,"return":665,"path":666,"bor":667,"node":668,"ive":669,"hash":670,"wor":671,"len":672,"borrow":673,"ho":674,"fun":675,"ba":676,"into":677,"com":678,"ort":679,"und":680,"fe":681,"ial":682,"comp":683,"static":684,"ter":685,"ta":686,"vice":687,"bar":688,"usize":689,"clone":690,"with":691,"cur":692,"ip":693,"ction":694,"12":695,"size":696,"sert":697,"list":698,"fut":699,"stre":700,"stream":701,"age":702,"none":703,"ren":704,"requ":705,"app":706,"su":707,"tor":708,"py":709,"hel":710,"can":711,"ca":712,"char":713,"we":714,"u32":715,"sion":716,"ern":717,"tp":718,"expect":719,"thread":720,"e0":721,"this":722,"lement":723,"bug":724,"note":725,"vector":726,"cu":727,"coll":728,"tok":729,"debug":730,"ind":731,"move":732,"line":733,"sp":734,"ity":735,"ob":736,"loc":737,"inde":738,"collect":739,"user":740,"index":741,"http":742,"sa":743,"run":744,"device":745,"red":746,"ile":747,"wr":748,"build":749,"20":750,"hand":751,"argo":752,"cargo":753,"coun":754,"lock":755,"point":756,"ptr":757,"crate":758,"16":759,"input":760,"son":761,"cli":762,"serial":763,"ude":764,"cre":765,"conn":766,"ync":767,"push":768,"ray":769,"here":770,"next":771,"extern":772,"tar":773,"ject":774,"pla":775,"sy":776,"byte":777,"output":778,"eq":779,"sto":780,"target":781,"where":782,"thing":783,"win":784,"ass":785,"ac":786,"ly":787,"im":788,"fer":789,"state":790,"flo":791,"array":792,"fault":793,"enum":794,"ain":795,"default":796,"sec":797,"incl":798,"mod":799,"var":800,"call":801,"gin":802,"function":803,"found":804,"est":805,"wa":806,"act":807,"client":808,"derive":809,"dyn":810,"copy":811,"ight":812,"art":813,"cell":814,"ste":815,"lic":816,"rent":817,"ign":818,"count":819,"f64":820,"print":821,"include":822,"0x":823,"send":824,"av":825,"nu":826,"gen":827,"ix":828,"code":829,"11":830,"ket":831,"float":832,"bool":833,"cro":834,"ev":835,"da":836,"hello":837,"write":838,"cket":839,"future":840,"mem":841,"ger":842,"ssl":843,"serialize":844,"ber":845,"connect":846,"safe":847,"lice":848,"slice":849,"cess":850,"ther":851,"od":852,"fin":853,"tru":854,"vo":855,"true":856,"expected":857,"pre":858,"core":859,"ory":860,"ence":861,"bytes":862,"macro":863,"json":864,"back":865,"man":866,"spa":867,"mt":868,"col":869,"other":870,"ary":871,"19":872,"86":873,"cer":874,"resp":875,"ree":876,"ms":877,"ou":878,"13":879,"host":880,"start":881,"mess":882,"play":883,"request":884,"cannot":885,"trust":886,"bin":887,"ff":888,"format":889,"unsafe":890,"ample":891,"rst":892,"unk":893,"parse":894,"token":895,"implement":896,"insert":897,"object":898,"14":899,"message":900,"raw":901,"clo":902,"number":903,"assert":904,"first":905,"event":906,"tran":907,"ures":908,"reader":909,"reg":910,"arc":911,"15":912,"ws":913,"create":914,"respon":915,"work":916,"comm":917,"serde":918,"18":919,"windo":920,"ava":921,"store":922,"cert":923,"ci":924,"begin":925,"open":926,"init":927,"handle":928,"context":929,"server":930,"version":931,"pan":932,"buffer":933,"dy":934,"ml":935,"25":936,"fmt":937,"ub":938,"panic":939,"but":940,"mutable":941,"text":942,"ant":943,"17":944,"confi":945,"30":946,"try":947,"ized":948,"dep":949,"ong":950,"27":951,"void":952,"etime":953,"dis":954,"requi":955,"config":956,"ph":957,"ord":958,"cuda":959,"──":960,"pos":961,"inst":962,"java":963,"syste":964,"eld":965,"response":966,"iv":967,"min":968,"meth":969,"system":970,"method":971,"ner":972,"socket":973,"log":974,"db":975,"null":976,"args":977,"date":978,"valid":979,"ry":980,"urce":981,"rustc":982,"borrowed":983,"word":984,"sub":985,"ange":986,"content":987,"web":988,"dec":989,"temp":990,"make":991,"fal":992,"ang":993,"50":994,"example":995,"async":996,"child":997,"sum":998,"f32":999,"head":1000,"field":1001,"sha":1002,"refer":1003,"ard":1004,"does":1005,"false":1006,"sure":1007,"load":1008,"ker":1009,"nown":1010,"sign":1011,"el":1012,"rand":1013,"current":1014,"mis":1015,"max":1016,"ase":1017,"ions":1018,"own":1019,"body":1020,"element":1021,"alloc":1022,"x86":1023,"ers":1024,"23":1025,"dir":1026,"24":1027,"dro":1028,"ft":1029,"u64":1030,"drop":1031,"trans":1032,"block":1033,"filt":1034,"000":1035,"tokio":1036,"00000000":1037,"url":1038,"aut":1039,"low":1040,"cep":1041,"filter":1042,"sync":1043,"gener":1044,"80":1045,"reference":1046,"loop":1047,"curs":1048,"closure":1049,"che":1050,"long":1051,"net":1052,"info":1053,"les":1054,"gl":1055,"wait":1056,"tree":1057,"ux":1058,"types":1059,"entry":1060,"inner":1061,"class":1062,"local":1063,"chec":1064,"process":1065,"any":1066,"command":1067,"mu":1068,"om":1069,"contain":1070,"env":1071,"func":1072,"ated":1073,"cc":1074,"feat":1075,"connection":1076,"are":1077,"that":1078,"99":1079,"iled":1080,"lit":1081,"defin":1082,"ance":1083,"fact":1084,"values":1085,"cf":1086,"42":1087,"check":1088,"andro":1089,"mutex":1090,"futures":1091,"unknown":1092,"sort":1093,"v0":1094,"while":1095,"ident":1096,"ima":1097,"ition":1098,"spawn":1099,"vari":1100,"world":1101,"ops":1102,"link":1103,"something":1104,"ler":1105,"android":1106,"deserialize":1107,"ng":1108,"ir":1109,"sel":1110,"parti":1111,"cap":1112,"form":1113,"sized":1114,"idx":1115,"os":1116,"image":1117,"ded":1118,"take":1119,"ause":1120,"sco":1121,"bec":1122,"partial":1123,"rec":1124,"left":1125,"right":1126,"tail":1127,"base":1128,"split":1129,"linux":1130,"cal":1131,"find":1132,"because":1133,"https":1134,"mov":1135,"tup":1136,"vert":1137,"failed":1138,"i64":1139,"home":1140,"jo":1141,"exec":1142,"chain":1143,"lat":1144,"range":1145,"root":1146,"mar":1147,"tool":1148,"help":1149,"wid":1150,"tc":1151,"bit":1152,"addr":1153,"mana":1154,"table":1155,"bind":1156,"34":1157,"ack":1158,"sq":1159,"display":1160,"tx":1161,"once":1162,"22":1163,"public":1164,"last":1165,"ument":1166,"nel":1167,"owned":1168,"bound":1169,"port":1170,"users":1171,"was":1172,"oc":1173,"order":1174,"gth":1175,"used":1176,"ameter":1177,"live":1178,"manager":1179,"ach":1180,"parameter":1181,"icate":1182,"ide":1183,"arch":1184,"quer":1185,"ak":1186,"doc":1187,"regi":1188,"ute":1189,"anon":1190,"source":1191,"window":1192,"rect":1193,"ill":1194,"required":1195,"length":1196,"chars":1197,"tuple":1198,"fs":1199,"vie":1200,"req":1201,"builder":1202,"lines":1203,"expr":1204,"auth":1205,"urity":1206,"query":1207,"uration":1208,"oper":1209,"gra":1210,"factory":1211,"40":1212,"que":1213,"security":1214,"handler":1215,"excep":1216,"28":1217,"late":1218,"post":1219,"dev":1220,"cat":1221,"grap":1222,"scope":1223,"war":1224,"collections":1225,"prev":1226,"tmp":1227,"21":1228,"org":1229,"implemented":1230,"join":1231,"part":1232,"obj":1233,"ha":1234,"33":1235,"exception":1236,"then":1237,"rng":1238,"ask":1239,"service":1240,"tri":1241,"stack":1242,"pl":1243,"view":1244,"gu":1245,"pack":1246,"dere":1247,"await":1248,"sys":1249,"pass":1250,"af":1251,"100":1252,"doub":1253,"status":1254,"parent":1255,"go":1256,"graph":1257,"mode":1258,"pi":1259,"lease":1260,"uint":1261,"zip":1262,"scr":1263,"ond":1264,"inter":1265,"double":1266,"lag":1267,"26":1268,"ls":1269,"cfg":1270,"task":1271,"ning":1272,"matr":1273,"vis":1274,"stdin":1275,"tw":1276,"ped":1277,"v1":1278,"gh":1279,"├──":1280,"depend":1281,"matrix":1282,"windows":1283,"cast":1284,"gro":1285,"second":1286,"trace":1287,"pool":1288,"arr":1289,"sql":1290,"api":1291,"sc":1292,"compil":1293,"feature":1294,"56":1295,"pointer":1296,"38":1297,"param":1298,"space":1299,"more":1300,"occurs":1301,"fra":1302,"now":1303,"ider":1304,"rt":1305,"emp":1306,"proper":1307,"def":1308,"sw":1309,"msg":1310,"pt":1311,"modu":1312,"lang":1313,"import":1314,"xx":1315,"cout":1316,"ron":1317,"mer":1318,"rules":1319,"flag":1320,"dependen":1321,"55":1322,"pri":1323,"place":1324,"release":1325,"width":1326,"keys":1327,"usr":1328,"ble":1329,"ress":1330,"tcp":1331,"listen":1332,"35":1333,"instance":1334,"29":1335,"libc":1336,"convert":1337,"sk":1338,"inte":1339,"hy":1340,"rece":1341,"chan":1342,"down":1343,"ces":1344,"person":1345,"deref":1346,"case":1347,"37":1348,"ns":1349,"02":1350,"two":1351,"gnu":1352,"signed":1353,"ep":1354,"marker":1355,"custo":1356,"off":1357,"pin":1358,"update":1359,"color":1360,"duration":1361,"defined":1362,"items":1363,"ww":1364,"ies":1365,"gith":1366,"bb":1367,"big":1368,"github":1369,"may":1370,"action":1371,"sed":1372,"tt":1373,"scrip":1374,"cies":1375,"callback":1376,"36":1377,"each":1378,"project":1379,"initial":1380,"bre":1381,"e027":1382,"boxed":1383,"opt":1384,"registr":1385,"dependencies":1386,"mismatch":1387,"game":1388,"must":1389,"only":1390,"channel":1391,"ich":1392,"stu":1393,"ious":1394,"transform":1395,"tag":1396,"gram":1397,"you":1398,"tom":1399,"md":1400,"44":1401,"property":1402,"cmp":1403,"fix":1404,"wrapper":1405,"module":1406,"hyper":1407,"ough":1408,"baz":1409,"cache":1410,"integer":1411,"detail":1412,"compile":1413,"u16":1414,"using":1415,"container":1416,"exit":1417,"empty":1418,"binary":1419,"frame":1420,"pc":1421,"spec":1422,"f8":1423,"lay":1424,"kind":1425,"poll":1426,"ould":1427,"31":1428,"enough":1429,"due":1430,"wasm":1431,"chunk":1432,"sin":1433,"cons":1434,"prod":1435,"position":1436,"led":1437,"which":1438,"ments":1439,"height":1440,"zer":1441,"rustup":1442,"48":1443,"59":1444,"record":1445,"hs":1446,"39":1447,"ster":1448,"previous":1449,"package":1450,"registry":1451,"remove":1452,"rary":1453,"sing":1454,"aa":1455,"orig":1456,"toml":1457,"variable":1458,"iver":1459,"ource":1460,"e0277":1461,"break":1462,"phan":1463,"counter":1464,"player":1465,"resource":1466,"die":1467,"header":1468,"fail":1469,"mult":1470,"applic":1471,"ations":1472,"writer":1473,"lob":1474,"select":1475,"our":1476,"ist":1477,"variant":1478,"onent":1479,"fu":1480,"stable":1481,"diesel":1482,"backtrace":1483,"address":1484,"49":1485,"lex":1486,"sender":1487,"prot":1488,"cou":1489,"js":1490,"non":1491,"git":1492,"could":1493,"308":1494,"immutable":1495,"program":1496,"argument":1497,"flat":1498,"cb":1499,"08":1500,"offset":1501,"cy":1502,"orm":1503,"deps":1504,"rlib":1505,"vel":1506,"password":1507,"listener":1508,"endl":1509,"parser":1510,"unsigned":1511,"intern":1512,"access":1513,"ek":1514,"et":1515,"mb":1516,"search":1517,"html":1518,"have":1519,"util":1520,"operator":1521,"sm":1522,"xml":1523,"ally":1524,"zero":1525,"sat":1526,"runtime":1527,"cs":1528,"direct":1529,"46":1530,"fd":1531,"mid":1532,"stuff":1533,"01":1534,"group":1535,"ression":1536,"mit":1537,"izer":1538,"files":1539,"abort":1540,"e0308":1541,"step":1542,"application":1543,"component":1544,"syn":1545,"stdout":1546,"rows":1547,"zy":1548,"library":1549,"random":1550,"ag":1551,"actix":1552,"ow":1553,"gle":1554,"cle":1555,"sun":1556,"mismatched":1557,"replace":1558,"fold":1559,"i8":1560,"custom":1561,"her":1562,"origin":1563,"phantom":1564,"dim":1565,"ben":1566,"78":1567,"expression":1568,"ics":1569,"require":1570,"over":1571,"priv":1572,"uni":1573,"its":1574,"ctor":1575,"render":1576,"assign":1577,"template":1578,"mission":1579,"glob":1580,"allow":1581,"regex":1582,"panick":1583,"need":1584,"bench":1585,"proc":1586,"v2":1587,"internal":1588,"gr":1589,"top":1590,"imal":1591,"na":1592,"guard":1593,"satis":1594,"200":1595,"attri":1596,"pair":1597,"will":1598,"utf8":1599,"shared":1600,"level":1601,"contains":1602,"ffi":1603,"permission":1604,"memory":1605,"moved":1606,"pix":1607,"fore":1608,"filen":1609,"s1":1610,"pop":1611,"509":1612,"45":1613,"pk":1614,"47":1615,"capac":1616,"ting":1617,"private":1618,"install":1619,"children":1620,"0000000000000000":1621,"ier":1622,"lazy":1623,"capacity":1624,"colum":1625,"acc":1626,"bl":1627,"abc":1628,"ins":1629,"execut":1630,"filename":1631,"change":1632,"named":1633,"resol":1634,"cry":1635,"stor":1636,"90":1637,"after":1638,"cmd":1639,"dist":1640,"256":1641,"ju":1642,"deco":1643,"toolchain":1644,"prov":1645,"62":1646,"rx":1647,"contro":1648,"printf":1649,"rustlib":1650,"params":1651,"should":1652,"uce":1653,"66":1654,"ordering":1655,"attribut":1656,"document":1657,"2d":1658,"invalid":1659,"vc":1660,"visit":1661,"atom":1662,"mail":1663,"x509":1664,"88":1665,"ele":1666,"03":1667,"satisfi":1668,"sup":1669,"suc":1670,"tests":1671,"features":1672,"norm":1673,"gest":1674,"full":1675,"satisfied":1676,"108":1677,"threads":1678,"lar":1679,"flags":1680,"your":1681,"receiver":1682,"rw":1683,"activ":1684,"warning":1685,"append":1686,"pen":1687,"expan":1688,"sizeof":1689,"gue":1690,"enco":1691,"edge":1692,"serializer":1693,"queue":1694,"ctx":1695,"sle":1696,"tls":1697,"arm":1698,"ish":1699,"storage":1700,"stamp":1701,"span":1702,"execute":1703,"polic":1704,"└──":1705,"face":1706,"mul":1707,"chron":1708,"ative":1709,"elements":1710,"ible":1711,"generate":1712,"57":1713,"night":1714,"ready":1715,"dr":1716,"aborting":1717,"indi":1718,"global":1719,"policy":1720,"mm":1721,"compiling":1722,"uid":1723,"ys":1724,"product":1725,"77":1726,"nightly":1727,"sleep":1728,"58":1729,"provider":1730,"apple":1731,"equ":1732,"maybe":1733,"malloc":1734,"lude":1735,"prelude":1736,"prime":1737,"pixel":1738,"success":1739,"hi":1740,"ection":1741,"contents":1742,"sess":1743,"hold":1744,"options":1745,"128":1746,"gcc":1747,"mon":1748,"draw":1749,"sche":1750,"br":1751,"generic":1752,"sample":1753,"coord":1754,"points":1755,"sd":1756,"s2":1757,"vm":1758,"cond":1759,"boo":1760,"ors":1761,"ick":1762,"rhs":1763,"openssl":1764,"entity":1765,"model":1766,"requirements":1767,"t1":1768,"formatter":1769,"cpu":1770,"running":1771,"proto":1772,"indices":1773,"auto":1774,"datab":1775,"04":1776,"1000":1777,"capt":1778,"lab":1779,"compat":1780,"trusted":1781,"super":1782,"book":1783,"ee":1784,"database":1785,"sequ":1786,"conf":1787,"extend":1788,"final":1789,"expansion":1790,"scan":1791,"show":1792,"support":1793,"column":1794,"elem":1795,"f1":1796,"numbers":1797,"cursor":1798,"nd":1799,"recv":1800,"reduce":1801,"javax":1802,"trim":1803,"errors":1804,"cpy":1805,"enumer":1806,"ension":1807,"67":1808,"mil":1809,"60":1810,"tot":1811,"abi":1812,"patter":1813,"tools":1814,"peek":1815,"normal":1816,"free":1817,"ud":1818,"127":1819,"works":1820,"traits":1821,"2019":1822,"rout":1823,"sume":1824,"guess":1825,"define":1826,"see":1827,"role":1828,"toolchains":1829,"e050":1830,"nodes":1831,"gpu":1832,"location":1833,"ual":1834,"animal":1835,"tit":1836,"extra":1837,"consider":1838,"session":1839,"actor":1840,"41":1841,"43":1842,"123":1843,"board":1844,"binding":1845,"abo":1846,"fl":1847,"fol":1848,"atomic":1849,"unit":1850,"simp":1851,"angle":1852,"txt":1853,"seg":1854,"cow":1855,"activity":1856,"dle":1857,"kernel":1858,"outer":1859,"ference":1860,"common":1861,"rep":1862,"ks":1863,"repe":1864,"alt":1865,"xy":1866,"www":1867,"real":1868,"follow":1869,"ature":1870,"alg":1871,"rb":1872,"shad":1873,"contin":1874,"headers":1875,"plu":1876,"returns":1877,"ali":1878,"skip":1879,"enumerate":1880,"dig":1881,"total":1882,"doesn":1883,"names":1884,"packet":1885,"ton":1886,"seq":1887,"complex":1888,"title":1889,"finish":1890,"mpsc":1891,"10880":1892,"repr":1893,"equal":1894,"alph":1895,"ates":1896,"97":1897,"cd":1898,"shape":1899,"squ":1900,"dynam":1901,"simple":1902,"another":1903,"accep":1904,"dynamic":1905,"xs":1906,"ping":1907,"than":1908,"memcpy":1909,"done":1910,"pay":1911,"bla":1912,"cor":1913,"attribute":1914,"isize":1915,"also":1916,"timer":1917,"label":1918,"ware":1919,"old":1920,"fill":1921,"implementation":1922,"oned":1923,"05":1924,"dum":1925,"unch":1926,"dropped":1927,"white":1928,"ata":1929,"div":1930,"term":1931,"7f":1932,"twa":1933,"swap":1934,"multip":1935,"ts":1936,"000000":1937,"transmut":1938,"what":1939,"sequence":1940,"ten":1941,"middle":1942,"close":1943,"pattern":1944,"uuid":1945,"98":1946,"curl":1947,"west":1948,"met":1949,"ie":1950,"igh":1951,"exist":1952,"54":1953,"ds":1954,"xmm":1955,"parts":1956,"descrip":1957,"asso":1958,"generator":1959,"like":1960,"compiler":1961,"just":1962,"transmute":1963,"t2":1964,"inline":1965,"site":1966,"results":1967,"ied":1968,"same":1969,"got":1970,"incre":1971,"align":1972,"libstd":1973,"words":1974,"button":1975,"there":1976,"bas":1977,"f2":1978,"ateg":1979,"fields":1980,"53":1981,"dar":1982,"plugin":1983,"e04":1984,"52":1985,"functor":1986,"invo":1987,"calcu":1988,"page":1989,"bits":1990,"stop":1991,"stri":1992,"ived":1993,"layout":1994,"prim":1995,"script":1996,"gn":1997,"gtk":1998,"uri":1999,"heap":2000,"itive":2001,"nv":2002,"encode":2003,"warp":2004,"06":2005,"consume":2006,"postg":2007,"cloned":2008,"rem":2009,"tim":2010,"darwin":2011,"register":2012,"clear":2013,"96":2014,"enable":2015,"ved":2016,"1234":2017,"timestamp":2018,"matches":2019,"collection":2020,"following":2021,"asse":2022,"ea":2023,"launch":2024,"tokens":2025,"called":2026,"sn":2027,"cols":2028,"operation":2029,"card":2030,"before":2031,"p1":2032,"leg":2033,"dummy":2034,"vals":2035,"widget":2036,"postgres":2037,"how":2038,"formation":2039,"car":2040,"lation":2041,"ication":2042,"gre":2043,"dog":2044,"circ":2045,"don":2046,"email":2047,"rev":2048,"fib":2049,"payload":2050,"ens":2051,"hex":2052,"typen":2053,"signature":2054,"chrono":2055,"typedef":2056,"when":2057,"typename":2058,"sole":2059,"3d":2060,"frust":2061,"side":2062,"sym":2063,"bindgen":2064,"sink":2065,"exe":2066,"panicking":2067,"frustum":2068,"aded":2069,"console":2070,"setting":2071,"known":2072,"zn":2073,"til":2074,"lower":2075,"macros":2076,"rocket":2077,"51":2078,"tax":2079,"cx":2080,"ating":2081,"short":2082,"flow":2083,"unt":2084,"strings":2085,"domain":2086,"directory":2087,"wind":2088,"counting":2089,"export":2090,"transa":2091,"parameters":2092,"reqwest":2093,"until":2094,"aml":2095,"transaction":2096,"76":2097,"bounds":2098,"ilt":2099,"account":2100,"want":2101,"information":2102,"schema":2103,"ted":2104,"ends":2105,"mangle":2106,"outlive":2107,"stdio":2108,"abs":2109,"associ":2110,"limit":2111,"very":2112,"pear":2113,"cam":2114,"rg":2115,"orith":2116,"asci":2117,"ization":2118,"projects":2119,"algorith":2120,"pow":2121,"missing":2122,"owner":2123,"patch":2124,"helper":2125,"even":2126,"continue":2127,"infer":2128,"anch":2129,"encod":2130,"less":2131,"grid":2132,"wl":2133,"adata":2134,"logger":2135,"metadata":2136,"0f":2137,"route":2138,"scal":2139,"graphics":2140,"shader":2141,"built":2142,"rain":2143,"msvc":2144,"llvm":2145,"keystore":2146,"df":2147,"unwind":2148,"70":2149,"c1":2150,"unable":2151,"ni":2152,"ched":2153,"upper":2154,"plan":2155,"username":2156,"gine":2157,"tempor":2158,"img":2159,"ground":2160,"pg":2161,"ans":2162,"vec3":2163,"created":2164,"unique":2165,"a1":2166,"certs":2167,"configuration":2168,"repeat":2169,"linked":2170,"middleware":2171,"native":2172,"eval":2173,"pp":2174,"network":2175,"area":2176,"section":2177,"v4":2178,"about":2179,"bat":2180,"goo":2181,"apply":2182,"ffff":2183,"823":2184,"ib":2185,"crates":2186,"capture":2187,"texture":2188,"compute":2189,"temporary":2190,"catch":2191,"ascii":2192,"61":2193,"appear":2194,"rest":2195,"deserializer":2196,"db9":2197,"mi":2198,"radi":2199,"decode":2200,"cent":2201,"ote":2202,"ecc":2203,"engine":2204,"iron":2205,"description":2206,"within":2207,"ache":2208,"prefix":2209,"x509cert":2210,"digit":2211,"bra":2212,"still":2213,"namespace":2214,"meta":2215,"unused":2216,"lon":2217,"ps":2218,"1ecc":2219,"scre":2220,"cho":2221,"charact":2222,"algorithm":2223,"ul":2224,"alpha":2225,"intent":2226,"db9ec":2227,"localhost":2228,"99db9ec":2229,"csv":2230,"6299db9ec":2231,"1ecc6299db9ec":2232,"1ecc6299db9ec823":2233,"bad":2234,"p2":2235,"fet":2236,"09":2237,"force":2238,"statement":2239,"ller":2240,"apache":2241,"curr":2242,"screen":2243,"hal":2244,"circle":2245,"google":2246,"bot":2247,"ipher":2248,"07":2249,"settings":2250,"65":2251,"attr":2252,"multi":2253,"holder":2254,"etc":2255,"todo":2256,"vertex":2257,"increment":2258,"lain":2259,"digest":2260,"author":2261,"crypt":2262,"pred":2263,"bet":2264,"hasher":2265,"member":2266,"itertools":2267,"2018":2268,"licit":2269,"fetch":2270,"mus":2271,"ility":2272,"job":2273,"spr":2274,"atta":2275,"events":2276,"associated":2277,"ov":2278,"appro":2279,"panicked":2280,"termin":2281,"sol":2282,"optim":2283,"symbo":2284,"ine":2285,"74":2286,"fc":2287,"milli":2288,"0b":2289,"thon":2290,"proxy":2291,"failure":2292,"alias":2293,"hf":2294,"rection":2295,"prints":2296,"proble":2297,"weak":2298,"dot":2299,"elap":2300,"68":2301,"nil":2302,"dispatch":2303,"unimplemented":2304,"quote":2305,"concat":2306,"cting":2307,"posit":2308,"du":2309,"extension":2310,"e059":2311,"arguments":2312,"timeout":2313,"1024":2314,"ither":2315,"whitespace":2316,"pipe":2317,"ast":2318,"den":2319,"things":2320,"instant":2321,"small":2322,"assemb":2323,"checked":2324,"cryp":2325,"loaded":2326,"dd":2327,"weight":2328,"ward":2329,"75":2330,"a2":2331,"bus":2332,"rsp":2333,"interface":2334,"categ":2335,"enc":2336,"mount":2337,"save":2338,"ities":2339,"echo":2340,"igno":2341,"verse":2342,"ise":2343,"comput":2344,"worker":2345,"chunks":2346,"explain":2347,"three":2348,"look":2349,"without":2350,"controller":2351,"101":2352,"objects":2353,"confli":2354,"allocator":2355,"63":2356,"nums":2357,"identity":2358,"either":2359,"active":2360,"connector":2361,"secret":2362,"day":2363,"naive":2364,"dst":2365,"setup":2366,"protocol":2367,"elapsed":2368,"resh":2369,"endpoint":2370,"dylib":2371,"e05":2372,"primitive":2373,"ship":2374,"overflow":2375,"72":2376,"ye":2377,"distance":2378,"square":2379,"utc":2380,"lean":2381,"handsha":2382,"later":2383,"unix":2384,"ical":2385,"pkg":2386,"cook":2387,"secs":2388,"control":2389,"b1":2390,"vide":2391,"00000000000000000000000000000000":2392,"boolean":2393,"ype":2394,"initialized":2395,"b2":2396,"c8":2397,"sim":2398,"invoke":2399,"mac":2400,"vec2":2401,"character":2402,"math":2403,"69":2404,"admin":2405,"mysql":2406,"plus":2407,"cn":2408,"ene":2409,"python":2410,"cross":2411,"basic":2412,"ential":2413,"visitor":2414,"medi":2415,"rsa":2416,"many":2417,"permut":2418,"spe":2419,"say":2420,"nth":2421,"direction":2422,"category":2423,"conflicting":2424,"stderr":2425,"factor":2426,"eric":2427,"0x0000":2428,"cred":2429,"pret":2430,"sig":2431,"finished":2432,"overr":2433,"rax":2434,"255":2435,"millis":2436,"fron":2437,"problem":2438,"ax":2439,"did":2440,"ece":2441,"dest":2442,"undefined":2443,"would":2444,"gts":2445,"answ":2446,"clock":2447,"tm":2448,"runner":2449,"resources":2450,"requires":2451,"resolve":2452,"inc":2453,"exists":2454,"zz":2455,"calc":2456,"signal":2457,"foobar":2458,"ush":2459,"89":2460,"geo":2461,"single":2462,"c0":2463,"front":2464,"10000":2465,"ice":2466,"ui":2467,"combin":2468,"external":2469,"validator":2470,"lbb":2471,"sqlite":2472,"79":2473,"sha256":2474,"initialize":2475,"1f":2476,"rcgu":2477,"cost":2478,"loy":2479,"desk":2480,"ween":2481,"way":2482,"partic":2483,"between":2484,"sty":2485,"coming":2486,"dt":2487,"backend":2488,"executor":2489,"686":2490,"since":2491,"primes":2492,"accept":2493,"rot":2494,"v7":2495,"f3":2496,"deleg":2497,"exact":2498,"dll":2499,"rdi":2500,"deque":2501,"nothing":2502,"again":2503,"8080":2504,"ged":2505,"wd":2506,"ids":2507,"rbp":2508,"crypto":2509,"never":2510,"syntax":2511,"tid":2512,"ank":2513,"functions":2514,"branch":2515,"ndarray":2516,"eded":2517,"optional":2518,"appears":2519,"symbol":2520,"assembly":2521,"override":2522,"jar":2523,"quest":2524,"she":2525,"received":2526,"incoming":2527,"era":2528,"leaf":2529,"utils":2530,"iss":2531,"sorted":2532,"sl":2533,"seed":2534,"stead":2535,"e7":2536,"iostream":2537,"good":2538,"answer":2539,"soft":2540,"explicit":2541,"playground":2542,"flush":2543,"neigh":2544,"original":2545,"segment":2546,"musl":2547,"92":2548,"dl":2549,"mean":2550,"near":2551,"canv":2552,"fr":2553,"execution":2554,"x1":2555,"emit":2556,"envi":2557,"remote":2558,"stand":2559,"stride":2560,"nom":2561,"merge":2562,"permutation":2563,"cipher":2564,"structure":2565,"mous":2566,"b9":2567,"si":2568,"ymous":2569,"compare":2570,"encoding":2571,"xor":2572,"e038":2573,"docs":2574,"anonymous":2575,"great":2576,"camera":2577,"bc":2578,"instead":2579,"boun":2580,"abihf":2581,"canvas":2582,"ming":2583,"avail":2584,"priate":2585,"appropriate":2586,"forward":2587,"poss":2588,"sport":2589,"i686":2590,"uc":2591,"codec":2592,"libcore":2593,"sets":2594,"mark":2595,"download":2596,"encoder":2597,"desktop":2598,"95":2599,"sent":2600,"environ":2601,"login":2602,"contra":2603,"evalu":2604,"ses":2605,"unary":2606,"inate":2607,"tile":2608,"prog":2609,"remain":2610,"redis":2611,"counts":2612,"renderer":2613,"adding":2614,"inside":2615,"gree":2616,"mask":2617,"ways":2618,"environment":2619,"seconds":2620,"85":2621,"irs":2622,"reach":2623,"e0597":2624,"fresh":2625,"eu":2626,"why":2627,"cursive":2628,"123456":2629,"style":2630,"parsed":2631,"actual":2632,"ending":2633,"methods":2634,"warn":2635,"vec1":2636,"drain":2637,"resent":2638,"nvcc":2639,"ually":2640,"xxx":2641,"peekable":2642,"available":2643,"dc":2644,"ose":2645,"were":2646,"edit":2647,"gc":2648,"issu":2649,"chang":2650,"issue":2651,"functional":2652,"ef":2653,"profile":2654,"dx":2655,"eb":2656,"topt":2657,"dereference":2658,"i16":2659,"onig":2660,"condition":2661,"e0507":2662,"repo":2663,"mock":2664,"e2":2665,"jks":2666,"cation":2667,"dbg":2668,"subject":2669,"vol":2670,"cand":2671,"jni":2672,"ln":2673,"instruct":2674,"wrapped":2675,"extract":2676,"hm":2677,"delt":2678,"handl":2679,"decoder":2680,"utf":2681,"delay":2682,"needed":2683,"int32":2684,"94":2685,"customer":2686,"under":2687,"c2":2688,"references":2689,"rectangle":2690,"scene":2691,"alle":2692,"cker":2693,"greater":2694,"73":2695,"authent":2696,"gnue":2697,"argv":2698,"5c":2699,"512":2700,"php":2701,"sqrt":2702,"special":2703,"itch":2704,"sertion":2705,"verbo":2706,"enter":2707,"winapi":2708,"transport":2709,"icates":2710,"attach":2711,"b8":2712,"rm":2713,"tv":2714,"usive":2715,"allocate":2716,"authors":2717,"router":2718,"lowercase":2719,"always":2720,"seek":2721,"adv":2722,"foos":2723,"validate":2724,"fully":2725,"wrong":2726,"downcast":2727,"ties":2728,"libs":2729,"dimension":2730,"compatible":2731,"correct":2732,"pas":2733,"reposit":2734,"uses":2735,"caller":2736,"delegate":2737,"verbose":2738,"l2":2739,"copi":2740,"blocking":2741,"uninitialized":2742,"delta":2743,"dead":2744,"cookie":2745,"edition":2746,"entrust":2747,"hook":2748,"blah":2749,"multiple":2750,"sprite":2751,"6c":2752,"ia":2753,"ason":2754,"both":2755,"cach":2756,"base64":2757,"throws":2758,"master":2759,"handshake":2760,"reactor":2761,"annot":2762,"expand":2763,"500":2764,"lish":2765,"bf":2766,"throw":2767,"e0502":2768,"71":2769,"b3":2770,"ferent":2771,"connected":2772,"allowed":2773,"6f":2774,"already":2775,"responder":2776,"archive":2777,"mic":2778,"desc":2779,"anti":2780,"rgb":2781,"far":2782,"high":2783,"5e":2784,"d2":2785,"gdb":2786,"png":2787,"rel":2788,"120":2789,"takes":2790,"variables":2791,"flatten":2792,"s3":2793,"sock":2794,"synchron":2795,"calculate":2796,"half":2797,"question":2798,"va":2799,"yi":2800,"0x7":2801,"0u8":2802,"sur":2803,"score":2804,"recursive":2805,"blas":2806,"credential":2807,"amount":2808,"v3":2809,"vector3":2810,"radius":2811,"2f":2812,"nan":2813,"lea":2814,"routes":2815,"h3":2816,"ik":2817,"lared":2818,"instanti":2819,"black":2820,"gg":2821,"micro":2822,"iving":2823,"asis":2824,"ected":2825,"caused":2826,"e1":2827,"oasis":2828,"12345678":2829,"transfer":2830,"reco":2831,"resolved":2832,"reverse":2833,"abstr":2834,"mutate":2835,"interval":2836,"driver":2837,"copied":2838,"x2":2839,"uninit":2840,"paralle":2841,"times":2842,"buffered":2843,"a0":2844,"ire":2845,"ian":2846,"commit":2847,"price":2848,"dup":2849,"workspace":2850,"xxxx":2851,"saml":2852,"too":2853,"crete":2854,"abstract":2855,"oy":2856,"decod":2857,"cpp":2858,"bob":2859,"linker":2860,"paths":2861,"uint32":2862,"ters":2863,"aud":2864,"ram":2865,"implements":2866,"fixed":2867,"records":2868,"repository":2869,"b0":2870,"d0":2871,"fre":2872,"reset":2873,"neg":2874,"concrete":2875,"such":2876,"reply":2877,"fat":2878,"lan":2879,"captures":2880,"nl":2881,"attemp":2882,"reading":2883,"websocket":2884,"loader":2885,"candid":2886,"ont":2887,"d1":2888,"separ":2889,"assertion":2890,"boot":2891,"largest":2892,"aes":2893,"asm":2894,"adap":2895,"switch":2896,"e0599":2897,"liter":2898,"yaml":2899,"ash":2900,"perform":2901,"atch":2902,"unc":2903,"properties":2904,"scheme":2905,"gnueabihf":2906,"f4":2907,"ging":2908,"inv":2909,"clip":2910,"dsl":2911,"snip":2912,"unresolved":2913,"blocks":2914,"movq":2915,"e0382":2916,"mingw":2917,"contract":2918,"84":2919,"dsize":2920,"meas":2921,"verti":2922,"blue":2923,"parallel":2924,"come":2925,"beh":2926,"phone":2927,"give":2928,"k1":2929,"returned":2930,"ended":2931,"inters":2932,"writ":2933,"depth":2934,"attributes":2935,"shell":2936,"literal":2937,"ring":2938,"sudo":2939,"starting":2940,"tasks":2941,"serv":2942,"n1":2943,"pthread":2944,"deta":2945,"87":2946,"city":2947,"ql":2948,"tex":2949,"ink":2950,"lear":2951,"consum":2952,"downloaded":2953,"81":2954,"93":2955,"ostream":2956,"sect":2957,"demo":2958,"unstable":2959,"soap":2960,"ignore":2961,"82":2962,"asy":2963,"e4":2964,"oto":2965,"clang":2966,"fast":2967,"2015":2968,"grade":2969,"fails":2970,"uppercase":2971,"ructor":2972,"gp":2973,"mater":2974,"udp":2975,"vertices":2976,"ruct":2977,"itions":2978,"rus":2979,"these":2980,"updat":2981,"moves":2982,"hostname":2983,"clean":2984,"enabled":2985,"test2":2986,"beta":2987,"requests":2988,"────":2989,"dump":2990,"neighbor":2991,"wss":2992,"quick":2993,"velo":2994,"proj":2995,"famil":2996,"scoped":2997,"495":2998,"components":2999,"agent":3000,"reachable":3001,"family":3002,"mach":3003,"cublas":3004,"region":3005,"handles":3006,"xmlns":3007,"needs":3008,"hint":3009,"ii":3010,"lu":3011,"uminate":3012,"who":3013,"buff":3014,"illuminate":3015,"e0499":3016,"testing":3017,"00000":3018,"remaining":3019,"changed":3020,"docker":3021,"trie":3022,"receive":3023,"large":3024,"bro":3025,"ght":3026,"unchecked":3027,"resize":3028,"test1":3029,"secure":3030,"encoded":3031,"plane":3032,"hn":3033,"vs":3034,"standard":3035,"synchronize":3036,"oid":3037,"roles":3038,"hashmap":3039,"observer":3040,"avr":3041,"smtp":3042,"bs":3043,"ugh":3044,"unreachable":3045,"couldn":3046,"supported":3047,"ay":3048,"e00":3049,"icon":3050,"r1":3051,"mag":3052,"ldap":3053,"ability":3054,"usage":3055,"pairs":3056,"numeric":3057,"ird":3058,"predicate":3059,"kit":3060,"refl":3061,"bars":3062,"ipv4":3063,"implementations":3064,"successfully":3065,"material":3066,"qt":3067,"forget":3068,"shot":3069,"acci":3070,"scalar":3071,"handlers":3072,"a9":3073,"cmake":3074,"cacerts":3075,"0x00":3076,"evented":3077,"wasm32":3078,"onacci":3079,"ution":3080,"e06":3081,"e028":3082,"6d":3083,"sched":3084,"ven":3085,"ae":3086,"peer":3087,"comment":3088,"dependency":3089,"layer":3090,"yield":3091,"audio":3092,"please":3093,"tl":3094,"click":3095,"17h":3096,"longer":3097,"je":3098,"destr":3099,"models":3100,"lhs":3101,"lives":3102,"visible":3103,"91":3104,"aren":3105,"fx":3106,"sz":3107,"stock":3108,"decimal":3109,"glm":3110,"units":3111,"2020":3112,"allocated":3113,"bounded":3114,"e8":3115,"every":3116,"examples":3117,"unicode":3118,"permissions":3119,"scale":3120,"stmt":3121,"e0495":3122,"ibility":3123,"learn":3124,"destroy":3125,"r2":3126,"chr":3127,"ably":3128,"compilation":3129,"employ":3130,"stud":3131,"pic":3132,"aler":3133,"fire":3134,"clap":3135,"frag":3136,"captured":3137,"sections":3138,"3c":3139,"pil":3140,"atever":3141,"kel":3142,"beam":3143,"whatever":3144,"suite":3145,"0x10":3146,"configure":3147,"cacher":3148,"0m":3149,"easy":3150,"n2":3151,"loss":3152,"pem":3153,"inclusive":3154,"employee":3155,"b4":3156,"eff":3157,"hist":3158,"rename":3159,"calculation":3160,"optimized":3161,"crossbeam":3162,"gst":3163,"cxf":3164,"cv":3165,"hid":3166,"px":3167,"yes":3168,"vk":3169,"allo":3170,"iterate":3171,"derived":3172,"sdk":3173,"measure":3174,"prop":3175,"launcher":3176,"ownership":3177,"bson":3178,"c4":3179,"ze":3180,"iteration":3181,"dict":3182,"advance":3183,"machine":3184,"med":3185,"arch64":3186,"instruction":3187,"x0":3188,"round":3189,"ints":3190,"0x7f":3191,"float3":3192,"particle":3193,"pip":3194,"alk":3195,"outside":3196,"crt":3197,"strict":3198,"happ":3199,"watch":3200,"explan":3201,"processing":3202,"detailed":3203,"aarch64":3204,"nic":3205,"keep":3206,"debuginfo":3207,"0c":3208,"c9":3209,"occ":3210,"lip":3211,"reser":3212,"them":3213,"argc":3214,"logic":3215,"microsoft":3216,"83":3217,"del":3218,"calling":3219,"lookup":3220,"decodable":3221,"pilot":3222,"7e":3223,"font":3224,"106":3225,"sha1":3226,"├───":3227,"framework":3228,"bd":3229,"i1":3230,"usec":3231,"prec":3232,"john":3233,"managers":3234,"piece":3235,"edges":3236,"sr":3237,"rupt":3238,"popu":3239,"ordered":3240,"x509trust":3241,"1234567890":3242,"made":3243,"invocation":3244,"a8":3245,"rpc":3246,"mpt":3247,"entities":3248,"their":3249,"arena":3250,"bund":3251,"virt":3252,"goes":3253,"columns":3254,"accum":3255,"rl":3256,"att":3257,"trustpilot":3258,"signer":3259,"glut":3260,"documents":3261,"cg":3262,"whe":3263,"entr":3264,"decl":3265,"generated":3266,"processor":3267,"possible":3268,"being":3269,"107":3270,"field1":3271,"bencher":3272,"fatal":3273,"struc":3274,"apt":3275,"well":3276,"theme":3277,"refs":3278,"serialized":3279,"squa":3280,"pretty":3281,"consumer":3282,"i2":3283,"pid":3284,"tle":3285,"unexpected":3286,"suf":3287,"encodable":3288,"didn":3289,"passed":3290,"mong":3291,"stage":3292,"0x55":3293,"encing":3294,"explanation":3295,"structopt":3296,"300":3297,"ather":3298,"assignment":3299,"above":3300,"develo":3301,"fibonacci":3302,"effect":3303,"d6":3304,"oo":3305,"pad":3306,"ving":3307,"urs":3308,"0000000":3309,"prepa":3310,"aaa":3311,"latest":3312,"dur":3313,"rdr":3314,"tun":3315,"val1":3316,"rsi":3317,"arg1":3318,"schedu":3319,"nickel":3320,"might":3321,"strateg":3322,"retain":3323,"arrays":3324,"0x1":3325,"bindings":3326,"eax":3327,"bottom":3328,"lossy":3329,"ume":3330,"zone":3331,"cla":3332,"annotations":3333,"7d":3334,"a5":3335,"quit":3336,"serve":3337,"addition":3338,"168":3339,"truststore":3340,"suffix":3341,"o3":3342,"sdata":3343,"third":3344,"asset":3345,"sound":3346,"cycle":3347,"fru":3348,"h1":3349,"sna":3350,"u128":3351,"deli":3352,"distri":3353,"odd":3354,"intercep":3355,"lexer":3356,"qt5":3357,"distribut":3358,"mk":3359,"men":3360,"nop":3361,"plat":3362,"checkout":3363,"center":3364,"year":3365,"surface":3366,"entries":3367,"borrows":3368,"cade":3369,"datetime":3370,"selector":3371,"cus":3372,"piv":3373,"itude":3374,"endian":3375,"shut":3376,"adder":3377,"cached":3378,"messages":3379,"snake":3380,"pivot":3381,"d4":3382,"f5":3383,"know":3384,"prom":3385,"cel":3386,"ssh":3387,"healt":3388,"waker":3389,"trib":3390,"coords":3391,"altern":3392,"nix":3393,"ato":3394,"locked":3395,"states":3396,"cells":3397,"1111":3398,"pixels":3399,"sdl2":3400,"speed":3401,"nt":3402,"sx":3403,"inl":3404,"foo2":3405,"building":3406,"safely":3407,"cbc":3408,"lied":3409,"wnd":3410,"spect":3411,"country":3412,"modules":3413,"details":3414,"a4":3415,"au":3416,"b7":3417,"giv":3418,"mq":3419,"light":3420,"apk":3421,"keyword":3422,"cause":3423,"starts":3424,"deck":3425,"interrupt":3426,"foreach":3427,"xmm0":3428,"0x7ff":3429,"strategy":3430,"3000":3431,"bal":3432,"pending":3433,"tz":3434,"eri":3435,"metr":3436,"they":3437,"food":3438,"given":3439,"9d":3440,"king":3441,"ling":3442,"sens":3443,"stm":3444,"mesh":3445,"ani":3446,"192":3447,"armv7":3448,"month":3449,"dv":3450,"experi":3451,"been":3452,"queryable":3453,"ypes":3454,"nx":3455,"p0":3456,"sta":3457,"alge":3458,"rough":3459,"stdlib":3460,"pipeline":3461,"mediate":3462,"rusoto":3463,"bundle":3464,"algebra":3465,"lk":3466,"m2":3467,"redirect":3468,"pull":3469,"conversion":3470,"definition":3471,"steps":3472,"credentials":3473,"fw":3474,"href":3475,"mmap":3476,"og":3477,"returning":3478,"rayon":3479,"imum":3480,"jobs":3481,"ga":3482,"ound":3483,"ano":3484,"veloc":3485,"calls":3486,"printer":3487,"requested":3488,"creates":3489,"excl":3490,"digits":3491,"issuer":3492,"fp":3493,"hit":3494,"rle":3495,"report":3496,"mouse":3497,"curand":3498,"logging":3499,"referencing":3500,"hen":3501,"uage":3502,"unpin":3503,"stats":3504,"services":3505,"language":3506,"groups":3507,"folder":3508,"bng":3509,"c3":3510,"ken":3511,"reason":3512,"ecd":3513,"rcx":3514,"921":3515,"loading":3516,"green":3517,"gets":3518,"lamb":3519,"2017":3520,"framed":3521,"health":3522,"emb":3523,"np":3524,"tab":3525,"incompatible":3526,"structs":3527,"trunc":3528,"0x4":3529,"cnt":3530,"rotation":3531,"magic":3532,"2e":3533,"5f":3534,"em":3535,"recur":3536,"diction":3537,"104":3538,"deriving":3539,"indent":3540,"0x8":3541,"omit":3542,"alphab":3543,"candidate":3544,"prepare":3545,"tick":3546,"union":3547,"pose":3548,"insertable":3549,"scri":3550,"protected":3551,"radix":3552,"ecess":3553,"experiment":3554,"d8":3555,"cub":3556,"commands":3557,"occur":3558,"pkix":3559,"a6":3560,"reject":3561,"arbit":3562,"prompt":3563,"111":3564,"hidden":3565,"metric":3566,"alphabet":3567,"9c":3568,"cing":3569,"dp":3570,"flip":3571,"lm":3572,"wise":3573,"primary":3574,"history":3575,"dk":3576,"encrypt":3577,"vector2":3578,"partition":3579,"midi":3580,"2d2":3581,"dimensions":3582,"cgu":3583,"pfe":3584,"prob":3585,"keytool":3586,"uint8":3587,"channels":3588,"ignored":3589,"menu":3590,"pfemidi":3591,"eof":3592,"nalgebra":3593,"r2d2":3594,"v6":3595,"through":3596,"opa":3597,"below":3598,"represent":3599,"batik":3600,"arbitrary":3601,"a3":3602,"han":3603,"present":3604,"vp":3605,"yy":3606,"enger":3607,"stored":3608,"integr":3609,"produ":3610,"duplic":3611,"allows":3612,"shutdown":3613,"dw":3614,"mc":3615,"value1":3616,"facade":3617,"creating":3618,"visual":3619,"balance":3620,"sted":3621,"ency":3622,"bar2":3623,"vectors":3624,"working":3625,"lags":3626,"condvar":3627,"scanner":3628,"greeting":3629,"blob":3630,"mig":3631,"tre":3632,"ios":3633,"ful":3634,"segments":3635,"0000000000000000000000000000000000000000000000000000000000000000":3636,"gly":3637,"sla":3638,"unoptimized":3639,"ents":3640,"five":3641,"odb":3642,"coordin":3643,"migr":3644,"3f":3645,"filepath":3646,"fine":3647,"substr":3648,"cflags":3649,"fri":3650,"adapter":3651,"ipv4addr":3652,"velocity":3653,"1d":3654,"7b":3655,"necess":3656,"inflat":3657,"eclared":3658,"ctl":3659,"best":3660,"closed":3661,"computer":3662,"whole":3663,"interceptor":3664,"opaque":3665,"inflater":3666,"djavax":3667,"ular":3668,"w3":3669,"det":3670,"started":3671,"jump":3672,"claim":3673,"forms":3674,"most":3675,"nullable":3676,"spring":3677,"imap":3678,"lc":3679,"lot":3680,"ral":3681,"codon":3682,"asp":3683,"lies":3684,"pet":3685,"lbb0":3686,"mingw32":3687,"embed":3688,"hmac":3689,"nat":3690,"w64":3691,"za":3692,"star":3693,"dequ":3694,"rule":3695,"matic":3696,"undeclared":3697,"actions":3698,"choose":3699,"e6":3700,"fb":3701,"wall":3702,"deploy":3703,"pkcs":3704,"resolving":3705,"packets":3706,"gpio":3707,"920":3708,"ants":3709,"destin":3710,"tmf":3711,"platform":3712,"brow":3713,"sures":3714,"0x0":3715,"writeln":3716,"stm32":3717,"lambda":3718,"mix":3719,"rdx":3720,"mutably":3721,"paren":3722,"produce":3723,"ient":3724,"nable":3725,"isdequ":3726,"boisdequ":3727,"aps":3728,"runnable":3729,"ryboisdequ":3730,"henryboisdequ":3731,"henryboisdequin":3732,"c6":3733,"sal":3734,"ensure":3735,"key1":3736,"cube":3737,"disable":3738,"opts":3739,"drive":3740,"multiply":3741,"gz":3742,"sv":3743,"uff":3744,"cos":3745,"quux":3746,"instal":3747,"urls":3748,"hum":3749,"td":3750,"adj":3751,"mation":3752,"103":3753,"sphere":3754,"buffers":3755,"linking":3756,"attempt":3757,"ball":3758,"t0":3759,"dirs":3760,"bye":3761,"384":3762,"samples":3763,"xyz":3764,"typ":3765,"data2":3766,"tags":3767,"choice":3768,"coordinates":3769,"9e":3770,"vv":3771,"mutated":3772,"ressed":3773,"background":3774,"messenger":3775,"scores":3776,"bash":3777,"rgba":3778,"aries":3779,"alog":3780,"publish":3781,"extensions":3782,"intersection":3783,"alert":3784,"12345678901234567890":3785,"chip":3786,"solution":3787,"evaluate":3788,"freed":3789,"human":3790,"5d":3791,"ous":3792,"smo":3793,"actually":3794,"connections":3795,"links":3796,"moving":3797,"dictionary":3798,"2000":3799,"bg":3800,"juni":3801,"sts":3802,"ories":3803,"ness":3804,"players":3805,"packed":3806,"video":3807,"juniper":3808,"3e":3809,"aw":3810,"bst":3811,"lp":3812,"upgrade":3813,"copyable":3814,"manage":3815,"pist":3816,"monster":3817,"squared":3818,"fruit":3819,"installed":3820,"a7":3821,"c7":3822,"destruct":3823,"bucket":3824,"igger":3825,"3333":3826,"e0271":3827,"descriptor":3828,"strided":3829,"legal":3830,"ensive":3831,"authentication":3832,"b6":3833,"rank":3834,"contrib":3835,"track":3836,"lax":3837,"109":3838,"streams":3839,"extends":3840,"asses":3841,"authorization":3842,"reflect":3843,"9f":3844,"cult":3845,"ncols":3846,"pal":3847,"quad":3848,"val2":3849,"provide":3850,"glfw":3851,"bitmap":3852,"bbb":3853,"originates":3854,"mime":3855,"axis":3856,"mongodb":3857,"fla":3858,"pick":3859,"wsp":3860,"oring":3861,"streaming":3862,"etimes":3863,"dotenv":3864,"truncate":3865,"1e":3866,"4f":3867,"hor":3868,"o2":3869,"inf":3870,"rag":3871,"parsing":3872,"divis":3873,"general":3874,"pages":3875,"longest":3876,"factorial":3877,"piston":3878,"456":3879,"jan":3880,"rins":3881,"rates":3882,"sf":3883,"rome":3884,"four":3885,"oneshot":3886,"liballoc":3887,"matched":3888,"indexes":3889,"9999":3890,"factors":3891,"alternative":3892,"600":3893,"ned":3894,"strip":3895,"anal":3896,"ctrl":3897,"117":3898,"caps":3899,"accepted":3900,"fragment":3901,"fit":3902,"room":3903,"crip":3904,"floor":3905,"closures":3906,"acceptor":3907,"attrs":3908,"adjac":3909,"1000000":3910,"fy":3911,"nor":3912,"rp":3913,"alive":3914,"type1":3915,"expensive":3916,"phi":3917,"virtual":3918,"during":3919,"destination":3920,"800":3921,"slow":3922,"thre":3923,"thum":3924,"subscri":3925,"cessed":3926,"dart":3927,"mmu":3928,"ctypes":3929,"ets":3930,"installing":3931,"limited":3932,"bootstr":3933,"omitted":3934,"cp":3935,"seen":3936,"added":3937,"boss":3938,"foo1":3939,"endor":3940,"builds":3941,"ignoring":3942,"159":3943,"rypt":3944,"batch":3945,"optimize":3946,"producer":3947,"bootstrap":3948,"rate":3949,"t3":3950,"assume":3951,"vec4":3952,"rss":3953,"poly":3954,"upload":3955,"vars":3956,"slices":3957,"manually":3958,"css":3959,"iro":3960,"thunk":3961,"nested":3962,"value2":3963,"array2":3964,"655":3965,"awe":3966,"f6":3967,"mary":3968,"ny":3969,"r0":3970,"matching":3971,"borrowing":3972,"compar":3973,"targets":3974,"field2":3975,"thumb":3976,"8d":3977,"bi":3978,"pend":3979,"pdf":3980,"vendor":3981,"quant":3982,"trying":3983,"variants":3984,"particles":3985,"e0282":3986,"wheel":3987,"sensor":3988,"c5e":3989,"dns":3990,"hr":3991,"mio":3992,"infin":3993,"mes":3994,"criter":3995,"statements":3996,"increase":3997,"scheduler":3998,"delim":3999,"awesome":4000,"nb":4001,"walk":4002,"unbounded":4003,"getter":4004,"dom":4005,"102":4006,"cancel":4007,"waiting":4008,"triangle":4009,"packages":4010,"0x00007f":4011,"0f64":4012,"364":4013,"ai":4014,"pd":4015,"instr":4016,"relation":4017,"neut":4018,"mapping":4019,"suit":4020,"ieve":4021,"glyph":4022,"4e7":4023,"mv":4024,"oct":4025,"lib64":4026,"win32":4027,"days":4028,"cloud":4029,"bigint":4030,"bt":4031,"k2":4032,"assets":4033,"rustflags":4034,"readable":4035,"avoid":4036,"shadow":4037,"speak":4038,"negative":4039,"slave":4040,"culture":4041,"d7":4042,"land":4043,"really":4044,"relax":4045,"sep":4046,"cls":4047,"cairo":4048,"submit":4049,"declared":4050,"hay":4051,"drawable":4052,"combined":4053,"recogn":4054,"f0":4055,"gfx":4056,"pwd":4057,"around":4058,"leak":4059,"ana":4060,"unsupported":4061,"series":4062,"codegen":4063,"float2":4064,"phase":4065,"callbacks":4066,"planes":4067,"progress":4068,"instantiation":4069,"piped":4070,"quantity":4071,"neutral":4072,"8000":4073,"b5":4074,"qword":4075,"strong":4076,"doit":4077,"data1":4078,"compiled":4079,"clients":4080,"little":4081,"boost":4082,"normalize":4083,"handshaker":4084,"2a":4085,"2c":4086,"gs":4087,"hd":4088,"lv":4089,"nonce":4090,"als":4091,"idia":4092,"trigger":4093,"spi":4094,"2016":4095,"avio":4096,"certpath":4097,"zn4":4098,"rotate":4099,"behavio":4100,"broad":4101,"mqtt":4102,"c5e5c":4103,"4e7c5e5c":4104,"214":4105,"dn":4106,"grand":4107,"removed":4108,"doing":4109,"crit":4110,"wel":4111,"interpret":4112,"rbx":4113,"nvidia":4114,"anchor":4115,"combine":4116,"neighbors":4117,"broadcast":4118,"m1":4119,"sieve":4120,"wtr":4121,"ines":4122,"vecs":4123,"ision":4124,"mat4":4125,"versed":4126,"addrs":4127,"house":4128,"bag":4129,"byteorder":4130,"otherwise":4131,"abcdef":4132,"executable":4133,"leave":4134,"review":4135,"peter":4136,"focus":4137,"shuff":4138,"props":4139,"vided":4140,"peripher":4141,"cant":4142,"movl":4143,"5555":4144,"sine":4145,"dut":4146,"h2":4147,"mf":4148,"turn":4149,"roll":4150,"saved":4151,"validation":4152,"decrypt":4153,"downloading":4154,"updated":4155,"threaded":4156,"ime":4157,"jon":4158,"itr":4159,"typed":4160,"feed":4161,"prior":4162,"needle":4163,"100000":4164,"occup":4165,"relaxed":4166,"3a":4167,"4c":4168,"4e":4169,"oth":4170,"yet":4171,"applied":4172,"startup":4173,"referenced":4174,"443":4175,"compiles":4176,"compatibility":4177,"power":4178,"written":4179,"glib":4180,"pot":4181,"rip":4182,"dataset":4183,"bincode":4184,"subscrip":4185,"checking":4186,"castle":4187,"expanded":4188,"e0432":4189,"schemas":4190,"subscription":4191,"6b":4192,"f7":4193,"jre":4194,"jboss":4195,"pong":4196,"wide":4197,"shr":4198,"tain":4199,"based":4200,"issuers":4201,"duplicate":4202,"d3":4203,"nrows":4204,"ust":4205,"y1":4206,"ablish":4207,"establish":4208,"share":4209,"going":4210,"convertbng":4211,"aco":4212,"kill":4213,"mand":4214,"pb":4215,"rv":4216,"reversed":4217,"atile":4218,"intrins":4219,"beha":4220,"119":4221,"mtabs":4222,"declar":4223,"intermediate":4224,"important":4225,"customtabs":4226,"crypt32":4227,"possib":4228,"volatile":4229,"clipboard":4230,"distribution":4231,"behavi":4232,"400":4233,"dword":4234,"mx":4235,"p3":4236,"rd":4237,"inspect":4238,"revo":4239,"traverse":4240,"implementor":4241,"sqlx":4242,"pixbuf":4243,"changeit":4244,"brace":4245,"media":4246,"neighbo":4247,"behind":4248,"ense":4249,"coer":4250,"bulk":4251,"180":4252,"organ":4253,"ulk":4254,"lua":4255,"jonat":4256,"7c":4257,"eye":4258,"won":4259,"qux":4260,"contact":4261,"keyboard":4262,"company":4263,"dao":4264,"189":4265,"decre":4266,"summary":4267,"dropping":4268,"eps":4269,"2005":4270,"terminated":4271,"computing":4272,"12042":4273,"press":4274,"alphan":4275,"unnamed":4276,"cover":4277,"type2":4278,"rency":4279,"spinner":4280,"codes":4281,"float4":4282,"automatic":4283,"authentic":4284,"evented2":4285,"substrate":4286,"necessary":4287,"duty":4288,"alphanum":4289,"unordered":4290,"bear":4291,"combo":4292,"phys":4293,"sorting":4294,"sdl":4295,"repeated":4296,"alphanumeric":4297,"2b":4298,"6e":4299,"f9":4300,"rer":4301,"x4":4302,"onto":4303,"metry":4304,"cool":4305,"rase":4306,"fizz":4307,"cape":4308,"plain":4309,"win64":4310,"150":4311,"operations":4312,"4096":4313,"accessor":4314,"mixed":4315,"ace":4316,"gi":4317,"s0":4318,"tq":4319,"vulk":4320,"mass":4321,"fork":4322,"peop":4323,"absol":4324,"wrapping":4325,"arg2":4326,"avl":4327,"terminal":4328,"people":4329,"absolute":4330,"cst":4331,"gy":4332,"gli":4333,"haps":4334,"ival":4335,"pur":4336,"rte":4337,"wint":4338,"inp":4339,"ech":4340,"ecx":4341,"lier":4342,"struct1":4343,"impls":4344,"lible":4345,"via":4346,"perhaps":4347,"currency":4348,"e0106":4349,"discard":4350,"generics":4351,"999":4352,"advanced":4353,"develop":4354,"behaviour":4355,"jonathan":4356,"hig":4357,"oh":4358,"thr":4359,"positive":4360,"fallible":4361,"funcs":4362,"definitions":4363,"imports":4364,"rained":4365,"positions":4366,"wintrust":4367,"freq":4368,"hard":4369,"ka":4370,"tic":4371,"vy":4372,"vtable":4373,"seh":4374,"unpack":4375,"rusty":4376,"rustfmt":4377,"mapped":4378,"illegal":4379,"avg":4380,"formatted":4381,"ulator":4382,"bouncy":4383,"separator":4384,"440":4385,"ding":4386,"kv":4387,"u20":4388,"ziz":4389,"least":4390,"librustc":4391,"shown":4392,"105":4393,"outputs":4394,"191":4395,"checks":4396,"selected":4397,"ndk":4398,"greet":4399,"writing":4400,"claims":4401,"delimiter":4402,"possibly":4403,"cut":4404,"cfi":4405,"xr":4406,"quack":4407,"ceed":4408,"provided":4409,"fake":4410,"elf":4411,"managed":4412,"listeners":4413,"projection":4414,"priority":4415,"zizaco":4416,"eal":4417,"frequ":4418,"gate":4419,"hu":4420,"001":4421,"implicit":4422,"myapp":4423,"satisfy":4424,"decoded":4425,"editor":4426,"behavior":4427,"e9":4428,"fuse":4429,"grep":4430,"vb":4431,"xp":4432,"ones":4433,"libr":4434,"probe":4435,"expecting":4436,"subset":4437,"members":4438,"computation":4439,"promise":4440,"atoms":4441,"occupied":4442,"rerun":4443,"d9":4444,"eh":4445,"ices":4446,"atable":4447,"tracing":4448,"bert":4449,"ubunt":4450,"allocation":4451,"verts":4452,"posts":4453,"patterns":4454,"attack":4455,"intersect":4456,"ubuntu":4457,"cord":4458,"d5":4459,"e5":4460,"ij":4461,"nr":4462,"str1":4463,"thres":4464,"buzz":4465,"ioctl":4466,"ilar":4467,"160":4468,"colon":4469,"cise":4470,"vacant":4471,"additional":4472,"linear":4473,"indexed":4474,"minimum":4475,"decla":4476,"sums":4477,"grams":4478,"widgets":4479,"carry":4480,"ffffffff":4481,"multipart":4482,"similar":4483,"volume":4484,"recovery":4485,"0m0":4486,"happen":4487,"y2":4488,"des":4489,"2014":4490,"macro2":4491,"hosts":4492,"mine":4493,"graphe":4494,"fixt":4495,"zeros":4496,"continent":4497,"accounts":4498,"software":4499,"measured":4500,"analy":4501,"season":4502,"chk":4503,"foun":4504,"processed":4505,"125":4506,"succ":4507,"250":4508,"movd":4509,"protect":4510,"foreign":4511,"fluid":4512,"euler":4513,"chip8":4514,"vulkano":4515,"threshold":4516,"110":4517,"ban":4518,"c5":4519,"tin":4520,"meet":4521,"parity":4522,"pyo3":4523,"acqu":4524,"others":4525,"handlebars":4526,"logy":4527,"239":4528,"placeholder":4529,"git2":4530,"searcher":4531,"books":4532,"e0425":4533,"studio":4534,"destructor":4535,"1u8":4536,"4a":4537,"cxx":4538,"dbacktrace":4539,"rat":4540,"rustling":4541,"struct2":4542,"tee":4543,"getting":4544,"twice":4545,"overl":4546,"assignable":4547,"rbt":4548,"criterion":4549,"libraries":4550,"cdylib":4551,"e3":4552,"r14":4553,"ison":4554,"exponent":4555,"num1":4556,"observ":4557,"115":4558,"prevent":4559,"dynamically":4560,"geometry":4561,"candidates":4562,"glutin":4563,"hide":4564,"padding":4565,"slog":4566,"tabs":4567,"strs":4568,"lead":4569,"icle":4570,"mapper":4571,"refm":4572,"divide":4573,"hours":4574,"stores":4575,"coded":4576,"114":4577,"401":4578,"visibility":4579,"md5":4580,"leaq":4581,"0a":4582,"epo":4583,"fing":4584,"fish":4585,"gil":4586,"oops":4587,"x64":4588,"inher":4589,"restrict":4590,"iders":4591,"team":4592,"expi":4593,"sizes":4594,"song":4595,"thingy":4596,"array1":4597,"toolkit":4598,"abcd":4599,"coordinate":4600,"cpus":4601,"development":4602,"1i32":4603,"lion":4604,"nav":4605,"qa":4606,"uv":4607,"conv":4608,"dialog":4609,"gene":4610,"opengl":4611,"webpack":4612,"tagged":4613,"directly":4614,"equality":4615,"alignment":4616,"slot":4617,"instructions":4618,"0x7fb9":4619,"haystack":4620,"epoch":4621,"svc":4622,"means":4623,"semi":4624,"concurrent":4625,"iters":4626,"devices":4627,"handled":4628,"stackoverflow":4629,"exports":4630,"appearance":4631,"stairs":4632,"intrinsics":4633,"revocation":4634,"declare":4635,"1b":4636,"4d":4637,"cort":4638,"lled":4639,"uit":4640,"firstname":4641,"sha2":4642,"arr2":4643,"hero":4644,"changes":4645,"powf":4646,"reserved":4647,"detected":4648,"shuffle":4649,"bearer":4650,"foundat":4651,"1i":4652,"gather":4653,"ri":4654,"simpl":4655,"sv1":4656,"trip":4657,"escape":4658,"creation":4659,"da9":4660,"helloworld":4661,"transpa":4662,"decor":4663,"listening":4664,"brew":4665,"agg":4666,"2004":4667,"equival":4668,"xmm1":4669,"calcul":4670,"consumed":4671,"builtins":4672,"symbols":4673,"foundation":4674,"btree":4675,"gmt":4676,"ric":4677,"vor":4678,"colo":4679,"lived":4680,"izing":4681,"shl":4682,"perio":4683,"num2":4684,"triang":4685,"guid":4686,"uint64":4687,"blank":4688,"finalize":4689,"extractor":4690,"snap":4691,"shorter":4692,"xxxxxxxx":4693,"invok":4694,"reflection":4695,"developer":4696,"132":4697,"pw":4698,"prefer":4699,"vd":4700,"removing":4701,"ital":4702,"ecs":4703,"edx":4704,"errchk":4705,"gettime":4706,"bean":4707,"compos":4708,"167":4709,"var1":4710,"nul":4711,"issues":4712,"separated":4713,"reserve":4714,"precision":4715,"effects":4716,"occurred":4717,"tf":4718,"ality":4719,"key2":4720,"cact":4721,"disconnected":4722,"boundary":4723,"topic":4724,"visited":4725,"drawing":4726,"zn8":4727,"ffffff":4728,"student":4729,"cortex":4730,"cwd":4731,"lint":4732,"pwa":4733,"cour":4734,"raint":4735,"adjust":4736,"formed":4737,"fibo":4738,"trail":4739,"20h":4740,"194":4741,"disk":4742,"androide":4743,"tables":4744,"bracket":4745,"e0515":4746,"h3index":4747,"────────":4748,"integral":4749,"welcome":4750,"observable":4751,"transparent":4752,"5a":4753,"dtime":4754,"eabi":4755,"jmp":4756,"ko":4757,"pressed":4758,"resume":4759,"lists":4760,"callq":4761,"finally":4762,"images":4763,"alice":4764,"multiplier":4765,"goodbye":4766,"uncrust":4767,"clippy":4768,"greetings":4769,"0x7fb935":4770,"androideabi":4771,"1c":4772,"aver":4773,"determin":4774,"desi":4775,"unsized":4776,"clause":4777,"okhttp":4778,"ily":4779,"207":4780,"lying":4781,"contained":4782,"cmds":4783,"labels":4784,"goto":4785,"better":4786,"populate":4787,"infinite":4788,"fixture":4789,"finger":4790,"equivalent":4791,"bid":4792,"nc":4793,"slen":4794,"vt":4795,"w1":4796,"incorrect":4797,"edi":4798,"isn":4799,"lld":4800,"bins":4801,"filtered":4802,"lative":4803,"istics":4804,"grant":4805,"animals":4806,"plugins":4807,"zn3":4808,"changing":4809,"automatically":4810,"8b":4811,"mart":4812,"nz":4813,"p12":4814,"coup":4815,"chrome":4816,"belong":4817,"runs":4818,"pointers":4819,"defaults":4820,"dae":4821,"184":4822,"subtra":4823,"checker":4824,"tuples":4825,"12345":4826,"cactus":4827,"m64":4828,"v8":4829,"sth":4830,"stenc":4831,"enite":4832,"maj":4833,"rusqlite":4834,"crl":4835,"memset":4836,"idxs":4837,"marsh":4838,"keys1":4839,"pinned":4840,"369":4841,"frames":4842,"instantiated":4843,"gstenite":4844,"tungstenite":4845,"exclusive":4846,"critical":4847,"declaration":4848,"period":4849,"stencil":4850,"116":4851,"7a":4852,"aux":4853,"cvar":4854,"ku":4855,"por":4856,"uru":4857,"arb":4858,"deprec":4859,"imper":4860,"tell":4861,"sho":4862,"varchar":4863,"hosting":4864,"0000000000":4865,"gues":4866,"74c8":4867,"handling":4868,"updating":4869,"jemalloc":4870,"migration":4871,"friend":4872,"instrument":4873,"acquire":4874,"martin":4875,"deprecated":4876,"5000":4877,"n3":4878,"nm":4879,"vin":4880,"x3":4881,"reci":4882,"uth":4883,"itter":4884,"setopt":4885,"ascrip":4886,"iterable":4887,"uction":4888,"vegg":4889,"nope":4890,"outcome":4891,"profe":4892,"iterators":4893,"statically":4894,"creator":4895,"precise":4896,"234":4897,"transpose":4898,"keys2":4899,"downgrade":4900,"utf8error":4901,"pop3":4902,"dispatcher":4903,"e0596":4904,"firebase":4905,"0x5574c8":4906,"average":4907,"profess":4908,"0f32":4909,"5b":4910,"bv":4911,"hwnd":4912,"r4":4913,"zlib":4914,"retq":4915,"colli":4916,"storepass":4917,"versions":4918,"sockets":4919,"matrix4":4920,"converted":4921,"layers":4922,"462":4923,"characters":4924,"solve":4925,"oniguru":4926,"desired":4927,"oniguruma":4928,"1a":4929,"480":4930,"gmail":4931,"jvm":4932,"chap":4933,"resses":4934,"park":4935,"124":4936,"workdir":4937,"logged":4938,"currently":4939,"jsse":4940,"existing":4941,"weighted":4942,"chapter":4943,"0d":4944,"0u":4945,"xc":4946,"x00":4947,"unlock":4948,"took":4949,"pump":4950,"timed":4951,"sett":4952,"122":4953,"e03":4954,"206":4955,"inputs":4956,"maximum":4957,"anything":4958,"graphql":4959,"initialization":4960,"providers":4961,"ctxt":4962,"springframework":4963,"pkcs12":4964,"browser":4965,"210":4966,"cass":4967,"cms":4968,"d64":4969,"hb":4970,"hol":4971,"wire":4972,"arith":4973,"chat":4974,"newline":4975,"lldb":4976,"taken":4977,"0x01":4978,"arr1":4979,"merch":4980,"templates":4981,"solver":4982,"segmentation":4983,"assertions":4984,"cleanup":4985,"recursion":4986,"az":4987,"fdata":4988,"gb":4989,"i3":4990,"pref":4991,"six":4992,"tst":4993,"incomp":4994,"infallible":4995,"deserialized":4996,"thy":4997,"rustd":4998,"readline":4999,"weather":5000,"stogram":5001,"prepend":5002,"197":5003,"bitflags":5004,"queries":5005,"halt":5006,"zipped":5007,"updates":5008,"elems":5009,"histogram":5010,"terminate":5011,"python3":5012,"snapshot":5013,"0e":5014,"aab":5015,"elt":5016,"eli":5017,"jax":5018,"uchar":5019,"atme":5020,"orange":5021,"memo":5022,"arg0":5023,"heart":5024,"ambig":5025,"debugger":5026,"included":5027,"113":5028,"fft":5029,"kernel32":5030,"equals":5031,"east":5032,"simu":5033,"medium":5034,"clicked":5035,"deployment":5036,"lvl":5037,"major":5038,"ambigu":5039,"4b":5040,"dhe":5041,"iable":5042,"retrie":5043,"relative":5044,"encryp":5045,"arms":5046,"mable":5047,"rsize":5048,"matcher":5049,"apping":5050,"imate":5051,"printable":5052,"0x90":5053,"loops":5054,"osx":5055,"objs":5056,"haha":5057,"afu":5058,"scen":5059,"benchmark":5060,"aliase":5061,"corner":5062,"e0433":5063,"snafu":5064,"deny":5065,"pretend":5066,"dereferenced":5067,"gives":5068,"organization":5069,"higher":5070,"subtract":5071,"settlement":5072,"nthreads":5073,"sters":5074,"ltmp":5075,"sever":5076,"racer":5077,"chall":5078,"libus":5079,"urer":5080,"posed":5081,"name1":5082,"hood":5083,"staticlib":5084,"2012":5085,"0x000":5086,"868":5087,"workers":5088,"minmax":5089,"sha384":5090,"capital":5091,"views":5092,"373":5093,"ensity":5094,"nice":5095,"preds":5096,"sheet":5097,"sentence":5098,"animation":5099,"north":5100,"3b":5101,"came":5102,"eat":5103,"hv":5104,"van":5105,"ves":5106,"clu":5107,"liblibc":5108,"mytype":5109,"conns":5110,"acle":5111,"wake":5112,"0x2":5113,"sources":5114,"guards":5115,"bling":5116,"powi":5117,"helpers":5118,"builtin":5119,"authorized":5120,"utf16":5121,"population":5122,"418":5123,"eg":5124,"ej":5125,"ior":5126,"las":5127,"sid":5128,"wsa":5129,"wow":5130,"ymd":5131,"restore":5132,"repos":5133,"unfold":5134,"esi":5135,"e07":5136,"modbus":5137,"118":5138,"phrase":5139,"operand":5140,"265":5141,"eee":5142,"cards":5143,"exported":5144,"duck":5145,"alphabetic":5146,"subscribe":5147,"frequency":5148,"libusb":5149,"cluster":5150,"0u32":5151,"fall":5152,"ffunction":5153,"giving":5154,"marg":5155,"depart":5156,"amethy":5157,"myvec":5158,"shar":5159,"keypair":5160,"node1":5161,"apps":5162,"threadpool":5163,"2048":5164,"connecting":5165,"tokenize":5166,"wsdl":5167,"registration":5168,"cyg":5169,"warnings":5170,"trimmed":5171,"questions":5172,"specialization":5173,"exclude":5174,"brown":5175,"peripheral":5176,"amethyst":5177,"ki":5178,"swe":5179,"ulong":5180,"arti":5181,"ce2":5182,"0010":5183,"rust1":5184,"travis":5185,"mypwa":5186,"recip":5187,"directed":5188,"xmm3":5189,"encrypted":5190,"okhttp3":5191,"mypwaapp":5192,"fprintf":5193,"jav":5194,"kd":5195,"sam":5196,"inject":5197,"oracle":5198,"mex":5199,"rad":5200,"izable":5201,"iterations":5202,"typeof":5203,"clamp":5204,"lam":5205,"addq":5206,"addresses":5207,"121":5208,"0xff":5209,"floating":5210,"containing":5211,"gui":5212,"parents":5213,"rendering":5214,"activate":5215,"sequent":5216,"timing":5217,"fibs":5218,"glium":5219,"daemon":5220,"6a":5221,"748":5222,"hat":5223,"omp":5224,"ole":5225,"oms":5226,"pq":5227,"tsw":5228,"z0":5229,"ala":5230,"demand":5231,"ch19":5232,"rcc":5233,"classes":5234,"dice":5235,"percent":5236,"sending":5237,"latitude":5238,"lengths":5239,"instances":5240,"200512":5241,"holders":5242,"monit":5243,"centro":5244,"p2align":5245,"concat2":5246,"happens":5247,"whether":5248,"rejection":5249,"petgraph":5250,"management":5251,"thumbv7":5252,"navig":5253,"department":5254,"213":5255,"ius":5256,"ja":5257,"kt":5258,"kmf":5259,"ris":5260,"samp":5261,"xmax":5262,"invariant":5263,"stdweb":5264,"bub":5265,"noun":5266,"dies":5267,"statistics":5268,"compose":5269,"129":5270,"tpb":5271,"143":5272,"opening":5273,"partials":5274,"hib":5275,"remainder":5276,"accumulator":5277,"coerce":5278,"movdqa":5279,"cors":5280,"ili":5281,"lsize":5282,"mone":5283,"mgr":5284,"san":5285,"orwell":5286,"busine":5287,"pers":5288,"derick":5289,"ernate":5290,"spl":5291,"tokenizer":5292,"140":5293,"252":5294,"dept":5295,"minus":5296,"tailq":5297,"cases":5298,"aging":5299,"ffici":5300,"products":5301,"underlying":5302,"frederick":5303,"everything":5304,"philo":5305,"camel":5306,"hibernate":5307,"business":5308,"432":5309,"8e":5310,"fed":5311,"har":5312,"junit":5313,"qr":5314,"ril":5315,"sor":5316,"str2":5317,"seal":5318,"magn":5319,"qual":5320,"doe":5321,"collat":5322,"winit":5323,"cellar":5324,"14159":5325,"validity":5326,"240":5327,"translation":5328,"345":5329,"merged":5330,"dim3":5331,"pki":5332,"cookies":5333,"10000000":5334,"sibling":5335,"gcm":5336,"attachment":5337,"e0658":5338,"mkdir":5339,"adjacent":5340,"decrement":5341,"covered":5342,"ontology":5343,"rustdoc":5344,"money":5345,"aws":5346,"drag":5347,"ear":5348,"gar":5349,"hsets":5350,"l1":5351,"lus":5352,"passes":5353,"prag":5354,"t8":5355,"wer":5356,"wsu":5357,"╌╌":5358,"dealloc":5359,"movie":5360,"tracer":5361,"1010":5362,"comma":5363,"compet":5364,"e0119":5365,"immediate":5366,"artis":5367,"172":5368,"makes":5369,"404":5370,"obj1":5371,"interior":5372,"modulus":5373,"requirement":5374,"attrib":5375,"activation":5376,"authority":5377,"understand":5378,"instantiate":5379,"mcw":5380,"division":5381,"veggie":5382,"aliases":5383,"magnitude":5384,"0usize":5385,"100000000":5386,"766":5387,"b77":5388,"fur":5389,"tsp":5390,"vic":5391,"inet":5392,"thoth":5393,"coin":5394,"stdint":5395,"servo":5396,"diag":5397,"winuser":5398,"evt":5399,"130":5400,"134":5401,"270":5402,"000000000000":5403,"partially":5404,"lastname":5405,"tried":5406,"plot":5407,"supp":5408,"embedded":5409,"tiny":5410,"pragma":5411,"blog":5412,"dra":5413,"dna":5414,"ran":5415,"rfc":5416,"tbl":5417,"u1":5418,"yo":5419,"reload":5420,"defer":5421,"untagged":5422,"rooms":5423,"mutability":5424,"exchange":5425,"ural":5426,"328":5427,"ender":5428,"hour":5429,"comments":5430,"debugging":5431,"floats":5432,"144":5433,"substring":5434,"subsequent":5435,"twitter":5436,"fraction":5437,"rtn":5438,"placeholders":5439,"initializer":5440,"framebuffer":5441,"xmlsoap":5442,"resolution":5443,"rwlock":5444,"appender":5445,"brid":5446,"forced":5447,"nanos":5448,"e0038":5449,"i2c":5450,"promote":5451,"overlapping":5452,"bubble":5453,"collatz":5454,"517":5455,"crc":5456,"dma":5457,"ftype":5458,"mal":5459,"piz":5460,"vid":5461,"ying":5462,"seat":5463,"lopt":5464,"vect":5465,"rustbox":5466,"nocapture":5467,"curlopt":5468,"tpm":5469,"spin":5470,"subcommand":5471,"filters":5472,"anyhow":5473,"defines":5474,"registers":5475,"applicable":5476,"aligned":5477,"c1e0":5478,"chris":5479,"watcher":5480,"lcpi":5481,"cygwin64":5482,"pizza":5483,"9a":5484,"cz":5485,"dgram":5486,"dbus":5487,"hot":5488,"hack":5489,"tles":5490,"mep":5491,"bodies":5492,"street":5493,"salt":5494,"2013":5495,"safety":5496,"closing":5497,"discord":5498,"expressions":5499,"0399":5500,"holds":5501,"decoding":5502,"srv":5503,"soundio":5504,"friends":5505,"pickle":5506,"monitor":5507,"artisan":5508,"9b":5509,"ama":5510,"eth":5511,"fg":5512,"jne":5513,"mdb":5514,"ox":5515,"rn":5516,"maven":5517,"exha":5518,"fov":5519,"idle":5520,"oppos":5521,"moo":5522,"value3":5523,"libunwind":5524,"mylib":5525,"refresh":5526,"ignite":5527,"0x5":5528,"136":5529,"142":5530,"linux64":5531,"prevents":5532,"guar":5533,"colors":5534,"tomcat":5535,"smart":5536,"popq":5537,"vcpkg":5538,"8888":5539,"hibit":5540,"smaller":5541,"0x0000000":5542,"creds":5543,"ecdsa":5544,"fitness":5545,"guessed":5546,"bridge":5547,"164":5548,"764":5549,"ah":5550,"ddata":5551,"hms":5552,"jpg":5553,"mich":5554,"nsec":5555,"ome":5556,"tect":5557,"uation":5558,"u7d":5559,"u7b":5560,"wextra":5561,"ltest":5562,"eng":5563,"deep":5564,"ce3":5565,"gether":5566,"int4":5567,"bar1":5568,"ipv6":5569,"vector3d":5570,"httpbin":5571,"point2":5572,"regexp":5573,"170":5574,"spaces":5575,"02x":5576,"2001":5577,"conduit":5578,"e0506":5579,"facades":5580,"smol":5581,"adjacency":5582,"subscriber":5583,"optimizely":5584,"course":5585,"ascript":5586,"javascript":5587,"0i32":5588,"8c":5589,"dfs":5590,"gas":5591,"gray":5592,"lsum":5593,"oauth":5594,"rpath":5595,"u2":5596,"retry":5597,"mps":5598,"orient":5599,"utes":5600,"arily":5601,"meters":5602,"unset":5603,"quat":5604,"iter1":5605,"proceed":5606,"fee":5607,"barr":5608,"care":5609,"movement":5610,"pushq":5611,"opened":5612,"owning":5613,"func1":5614,"func2":5615,"ccc":5616,"ranges":5617,"348":5618,"229":5619,"personality":5620,"37d0":5621,"consist":5622,"selection":5623,"syntect":5624,"circular":5625,"transactions":5626,"algorithms":5627,"0x00007":5628,"annotation":5629,"attempted":5630,"separate":5631,"broken":5632,"representation":5633,"provides":5634,"inflate":5635,"recognize":5636,"fficient":5637,"further":5638,"opposite":5639,"112":5640,"430":5641,"gon":5642,"istr":5643,"mir":5644,"sb":5645,"sg":5646,"wst":5647,"erature":5648,"eces":5649,"semap":5650,"intro":5651,"soph":5652,"libfoo":5653,"mystruct":5654,"outgoing":5655,"fac":5656,"hes":5657,"hey":5658,"dims":5659,"tery":5660,"cudart":5661,"accu":5662,"aving":5663,"145":5664,"rawlink":5665,"temperature":5666,"00000000000":5667,"pieces":5668,"addressing":5669,"offsets":5670,"zygot":5671,"2007":5672,"pkt":5673,"sides":5674,"cents":5675,"assembler":5676,"explicitly":5677,"libswe":5678,"migrations":5679,"typenum":5680,"comparison":5681,"graphemes":5682,"ratio":5683,"expires":5684,"marshal":5685,"merchant":5686,"simulation":5687,"philosoph":5688,"orientation":5689,"semapho":5690,"zygote":5691,"1u32":5692,"away":5693,"e35":5694,"fps":5695,"rrp":5696,"tend":5697,"talk":5698,"inhibit":5699,"eco":5700,"unboxed":5701,"intext":5702,"rustls":5703,"usable":5704,"shim":5705,"proguard":5706,"amd64":5707,"compact":5708,"bark":5709,"plaintext":5710,"senders":5711,"137":5712,"respond":5713,"idea":5714,"postfix":5715,"joined":5716,"swis":5717,"aaaa":5718,"463":5719,"termion":5720,"lbb6":5721,"ecdhe":5722,"banana":5723,"composite":5724,"retrieve":5725,"egl":5726,"hpp":5727,"mot":5728,"mvc":5729,"sus":5730,"t6":5731,"tbs":5732,"wm":5733,"��":5734,"reinterpret":5735,"strct":5736,"together":5737,"tip":5738,"mystring":5739,"obtain":5740,"166":5741,"serializing":5742,"stephan":5743,"199":5744,"responses":5745,"graphy":5746,"ressani":5747,"applications":5748,"documentation":5749,"xmm5":5750,"battery":5751,"reached":5752,"0c27":5753,"probably":5754,"palind":5755,"margin":5756,"thumbv7em":5757,"230":5758,"380":5759,"5i32":5760,"epoll":5761,"gam":5762,"had":5763,"ised":5764,"luint":5765,"rnd":5766,"sand":5767,"scat":5768,"tut":5769,"ario":5770,"those":5771,"seven":5772,"ceil":5773,"isy":5774,"urlen":5775,"south":5776,"roman":5777,"libgcc":5778,"tester":5779,"applies":5780,"charset":5781,"minutes":5782,"elm":5783,"fds":5784,"assigned":5785,"topics":5786,"sessions":5787,"7f7f":5788,"assoc":5789,"anchors":5790,"bottles":5791,"multirust":5792,"dispatchprice":5793,"zzz":5794,"exactly":5795,"evaluated":5796,"ebressani":5797,"2f2d":5798,"phones":5799,"observers":5800,"3c10":5801,"squares":5802,"distributions":5803,"staff":5804,"neighbour":5805,"trailing":5806,"zn3std":5807,"scenario":5808,"challen":5809,"recipient":5810,"splash":5811,"stephanebressani":5812,"scatter":5813,"dispatchprice0":5814,"186":5815,"2u8":5816,"8f":5817,"ao":5818,"cm":5819,"fv":5820,"o1":5821,"qy":5822,"spo":5823,"ini":5824,"stub":5825,"ener":5826,"ley":5827,"seph":5828,"opcode":5829,"api32":5830,"libpanic":5831,"126c":5832,"rend":5833,"208":5834,"winrm":5835,"0x12":5836,"146":5837,"regular":5838,"panics":5839,"minimal":5840,"sha512":5841,"roots":5842,"288":5843,"zipper":5844,"ciphertext":5845,"advapi32":5846,"cusp":5847,"zn4core":5848,"triple":5849,"triangles":5850,"competitions":5851,"c1e0d4":5852,"2f2d126c":5853,"3c102f2d126c":5854,"3c102f2d126c37d0":5855,"232":5856,"bct":5857,"flate":5858,"lf":5859,"lli":5860,"mr":5861,"ltype":5862,"mpf":5863,"strum":5864,"unzip":5865,"ada":5866,"gete":5867,"train":5868,"derp":5869,"canon":5870,"e0369":5871,"13d":5872,"commun":5873,"classpath":5874,"archit":5875,"except":5876,"programming":5877,"monic":5878,"supports":5879,"routing":5880,"administr":5881,"caches":5882,"blueprint":5883,"measurement":5884,"experimental":5885,"1234567890123456789012345678901234567890":5886,"horse":5887,"recognized":5888,"neighbours":5889,"criticality":5890,"administrator":5891,"746":5892,"dit":5893,"eating":5894,"fab":5895,"iers":5896,"o0":5897,"sli":5898,"went":5899,"xm":5900,"xcb":5901,"y0":5902,"relocation":5903,"ec03":5904,"think":5905,"muta":5906,"asd":5907,"intere":5908,"noalias":5909,"readonly":5910,"file2":5911,"paint":5912,"aller":5913,"indexer":5914,"acy":5915,"incline":5916,"preview":5917,"178":5918,"decltype":5919,"transformed":5920,"packing":5921,"frac":5922,"released":5923,"exited":5924,"breakpoint":5925,"zeroed":5926,"overlay":5927,"controls":5928,"guest":5929,"autoref":5930,"doesnt":5931,"choices":5932,"against":5933,"quickcheck":5934,"alerts":5935,"mongo":5936,"lots":5937,"natvis":5938,"leading":5939,"462ce3":5940,"aabb":5941,"868462ce3":5942,"ce2ec03":5943,"barrier":5944,"tendril":5945,"urlencoded":5946,"challenge":5947,"c1e0d450":5948,"ce2ec03868462ce3":5949,"avel":5950,"eper":5951,"egg":5952,"gender":5953,"jdk":5954,"nw":5955,"oi":5956,"vga":5957,"wc":5958,"wtd":5959,"xz":5960,"stic":5961,"rele":5962,"lto":5963,"unhandled":5964,"making":5965,"forman":5966,"00z":5967,"maps":5968,"till":5969,"programs":5970,"okay":5971,"keyed":5972,"performan":5973,"bac":5974,"complic":5975,"pyfunction":5976,"cuh":5977,"point3":5978,"169":5979,"147":5980,"wsl":5981,"system32":5982,"242":5983,"33e4":5984,"56ad":5985,"defect":5986,"laravel":5987,"sequential":5988,"associations":5989,"psz":5990,"eugene":5991,"hmhs":5992,"123456789":5993,"e0283":5994,"cvt":5995,"stm32f3":5996,"artist":5997,"swisseph":5998,"palindrome":5999,"architect":6000,"performance":6001,"220":6002,"8a":6003,"cstr":6004,"gm":6005,"hz":6006,"mip":6007,"tan":6008,"wo":6009,"wal":6010,"xsd":6011,"inbounds":6012,"eration":6013,"econ":6014,"meow":6015,"unavailable":6016,"copt":6017,"isoned":6018,"map2":6019,"offi":6020,"taking":6021,"says":6022,"imm":6023,"var2":6024,"copyright":6025,"printing":6026,"305":6027,"discr":6028,"systems":6029,"web3":6030,"idents":6031,"passwd":6032,"390":6033,"utility":6034,"satur":6035,"grind":6036,"6790":6037,"xmmword":6038,"chool":6039,"milliseconds":6040,"deno":6041,"dcmake":6042,"recover":6043,"suites":6044,"octets":6045,"214748":6046,"complicated":6047,"224":6048,"912":6049,"986":6050,"aac":6051,"bank":6052,"fst":6053,"lated":6054,"nid":6055,"siv":6056,"yml":6057,"alex":6058,"degree":6059,"uring":6060,"pus":6061,"teach":6062,"ldd":6063,"noisy":6064,"poisoned":6065,"beat":6066,"princ":6067,"upsert":6068,"list2":6069,"spider":6070,"secp":6071,"license":6072,"gencode":6073,"internet":6074,"26e":6075,"transformer":6076,"kinds":6077,"31bf":6078,"477":6079,"executed":6080,"cars":6081,"chronous":6082,"zn6":6083,"768":6084,"incremental":6085,"lbb1":6086,"flip3d":6087,"corners":6088,"flate2":6089,"canonical":6090,"princip":6091,"225":6092,"bib":6093,"cfa":6094,"flt":6095,"hg":6096,"ham":6097,"klm":6098,"tue":6099,"deb":6100,"unless":6101,"robot":6102,"tou":6103,"readme":6104,"clon":6105,"ofday":6106,"perm":6107,"ups":6108,"node2":6109,"appassembler":6110,"lementptr":6111,"collect2":6112,"collected":6113,"161":6114,"serialization":6115,"win10":6116,"198":6117,"1337":6118,"omic":6119,"3856ad":6120,"internals":6121,"98e":6122,"delegating":6123,"related":6124,"cgmath":6125,"treat":6126,"364e35":6127,"gettimeofday":6128,"belongs":6129,"energy":6130,"c1e0d45051":6131,"architecture":6132,"discrim":6133,"31bf3856ad":6134,"31bf3856ad364e35":6135,"0s":6136,"330":6137,"a5c":6138,"bx":6139,"bed":6140,"dto":6141,"dude":6142,"fvec":6143,"glibc":6144,"jd":6145,"lfloat":6146,"nick":6147,"plt":6148,"restri":6149,"tho":6150,"idata":6151,"320":6152,"docopt":6153,"apr":6154,"name2":6155,"heav":6156,"file1":6157,"puts":6158,"aming":6159,"ilities":6160,"compressed":6161,"streamer":6162,"e089":6163,"splice":6164,"redux":6165,"165":6166,"actors":6167,"article":6168,"0x02":6169,"avid":6170,"implementing":6171,"148":6172,"179":6173,"log4":6174,"translate":6175,"syncthreads":6176,"cheap":6177,"catalog":6178,"shapes":6179,"problems":6180,"primitives":6181,"10737":6182,"npm":6183,"00000000000000000000000000000000000000000000000000000000000000000000000000000000000000000000000000000000000000000000000000000000":6184,"restricted":6185,"colour":6186,"guaran":6187,"getelementptr":6188,"214748364":6189,"heavy":6190,"011":6191,"212":6192,"bn":6193,"hp":6194,"i128":6195,"kil":6196,"lse":6197,"mne":6198,"nio":6199,"r3":6200,"r8":6201,"rf":6202,"smp":6203,"zv":6204,"infix":6205,"uncomment":6206,"coins":6207,"ceeded":6208,"iso":6209,"string2":6210,"pulse":6211,"shop":6212,"test3":6213,"week":6214,"point3d":6215,"0x56":6216,"190":6217,"1934":6218,"messaging":6219,"photo":6220,"248":6221,"bitfield":6222,"interpo":6223,"561934":6224,"module1":6225,"nonoverlapping":6226,"200401":6227,"segs":6228,"swapchain":6229,"signals":6230,"gnueabi":6231,"regionid":6232,"d633e4":6233,"awc":6234,"polygon":6235,"i386":6236,"settlementdate":6237,"persist":6238,"immediately":6239,"b77a5c":6240,"vic1":6241,"semaphore":6242,"principal":6243,"killed":6244,"561934e089":6245,"b77a5c561934e089":6246,"1usize":6247,"2i32":6248,"ael":6249,"carr":6250,"cities":6251,"cql":6252,"ei":6253,"eight":6254,"g2":6255,"snd":6256,"school":6257,"tsa":6258,"t11":6259,"xel":6260,"revis":6261,"deallocate":6262,"unsize":6263,"conver":6264,"keeper":6265,"ications":6266,"foo3":6267,"apis":6268,"result2":6269,"linq":6270,"proof":6271,"000001":6272,"e0463":6273,"209":6274,"codewords":6275,"195":6276,"153":6277,"misc":6278,"scratch":6279,"dependent":6280,"rtsp":6281,"295":6282,"operators":6283,"attached":6284,"combinations":6285,"progbits":6286,"relations":6287,"schedule":6288,"represents":6289,"necessarily":6290,"subscriptions":6291,"determine":6292,"couple":6293,"collision":6294,"encryption":6295,"sampler":6296,"diagno":6297,"michael":6298,"sandbox":6299,"10737418":6300,"1f64":6301,"737":6302,"798":6303,"dun":6304,"dba":6305,"david":6306,"ems":6307,"psec":6308,"vant":6309,"repro":6310,"alone":6311,"descr":6312,"demon":6313,"though":6314,"raise":6315,"lost":6316,"errno":6317,"peano":6318,"iter2":6319,"extended":6320,"libssl":6321,"libsoundio":6322,"640":6323,"mywork":6324,"ref1":6325,"testwsl":6326,"amt":6327,"retval":6328,"compress":6329,"causes":6330,"e0373":6331,"0x108":6332,"196":6333,"151":6334,"initi":6335,"confir":6336,"3030":6337,"operate":6338,"339":6339,"sysroot":6340,"gold":6341,"milk":6342,"routines":6343,"xmm4":6344,"consumes":6345,"radians":6346,"denied":6347,"a2b":6348,"overflowed":6349,"downloads":6350,"configured":6351,"cripten":6352,"authenticated":6353,"interest":6354,"relevant":6355,"economic":6356,"discrimin":6357,"emscripten":6358,"223":6359,"6detail":6360,"fon":6361,"lpsz":6362,"rk":6363,"rr":6364,"r15":6365,"t13":6366,"wt":6367,"envelo":6368,"asdf":6369,"exc":6370,"loper":6371,"ention":6372,"filled":6373,"upstream":6374,"terms":6375,"204":6376,"creature":6377,"stem":6378,"eved":6379,"138":6380,"185":6381,"789":6382,"executing":6383,"globals":6384,"3d7":6385,"musle":6386,"b2e":6387,"sqlite3":6388,"emitter":6389,"conditional":6390,"mockers":6391,"volley":6392,"snipsco":6393,"interrupted":6394,"svg":6395,"smooth":6396,"65536":6397,"peripherals":6398,"decrypted":6399,"bouncycastle":6400,"aggreg":6401,"mnemonic":6402,"demonstr":6403,"858":6404,"bstr":6405,"dash":6406,"fbb":6407,"frus":6408,"jj":6409,"mies":6410,"t4":6411,"tur":6412,"uk":6413,"uw":6414,"zl":6415,"utter":6416,"unauthorized":6417,"libo":6418,"entire":6419,"uming":6420,"reads":6421,"cks":6422,"parking":6423,"vim":6424,"timezone":6425,"przv":6426,"hashbrown":6427,"apped":6428,"tarpc":6429,"131":6430,"longitude":6431,"movable":6432,"rtl":6433,"replacement":6434,"vcx":6435,"zn10":6436,"approx":6437,"neighborhood":6438,"usecpsec":6439,"occurren":6440,"physical":6441,"inherent":6442,"e0310":6443,"heartbeat":6444,"ambiguous":6445,"supplied":6446,"exhaust":6447,"gamma":6448,"officer":6449,"touch":6450,"0u64":6451,"211":6452,"4s":6453,"780":6454,"736":6455,"aho":6456,"hc":6457,"kines":6458,"mill":6459,"oss":6460,"padd":6461,"tb":6462,"vg":6463,"lef":6464,"unmovable":6465,"maker":6466,"rou":6467,"002":6468,"int64":6469,"326":6470,"tracker":6471,"libpath":6472,"verb":6473,"out1":6474,"party":6475,"esc":6476,"paste":6477,"curses":6478,"stream2":6479,"e0107":6480,"thing2":6481,"acro":6482,"prebuilt":6483,"backward":6484,"135":6485,"playpen":6486,"154":6487,"wsse":6488,"174":6489,"175":6490,"176":6491,"dedup":6492,"market":6493,"222":6494,"bounding":6495,"devloper":6496,"358":6497,"cycl":6498,"axes":6499,"contravariant":6500,"evaluation":6501,"alloca":6502,"months":6503,"nxt":6504,"ecdh":6505,"gpioa":6506,"invoked":6507,"e0716":6508,"exhaustive":6509,"kinesis":6510,"dvec":6511,"fm":6512,"i0":6513,"jn":6514,"pf":6515,"sch":6516,"xlib":6517,"infl":6518,"erase":6519,"sem":6520,"uninstall":6521,"adb":6522,"vec2d":6523,"negot":6524,"fig":6525,"soup":6526,"veh":6527,"extre":6528,"matth":6529,"libpq":6530,"profi":6531,"faces":6532,"americ":6533,"adds":6534,"fut1":6535,"stream1":6536,"e060":6537,"user32":6538,"indexing":6539,"thing1":6540,"0x9":6541,"memcheck":6542,"memchr":6543,"149":6544,"antic":6545,"logical":6546,"243":6547,"anymore":6548,"much":6549,"portal":6550,"pedantic":6551,"depends":6552,"bigdecimal":6553,"39a":6554,"failures":6555,"resolver":6556,"675":6557,"5432":6558,"thereum":6559,"approach":6560,"runners":6561,"btn":6562,"semicolon":6563,"fabric":6564,"d633e4c1e0d45051":6565,"1073741824":6566,"negoti":6567,"3u8":6568,"bon":6569,"bdynamic":6570,"hub":6571,"hdr":6572,"jun":6573,"jad":6574,"n4":6575,"nn":6576,"nll":6577,"oled":6578,"r9":6579,"trend":6580,"insertion":6581,"erro":6582,"arrow":6583,"strlen":6584,"deposit":6585,"ctype":6586,"useful":6587,"main17":6588,"fooer":6589,"somewhere":6590,"pooled":6591,"timespec":6592,"10f64":6593,"compression":6594,"126":6595,"reduction":6596,"assuming":6597,"prece":6598,"formats":6599,"dates":6600,"refers":6601,"orders":6602,"tries":6603,"scrap":6604,"bignum":6605,"ttf":6606,"cpython":6607,"flutter":6608,"plug":6609,"likely":6610,"predicates":6611,"pkgs":6612,"0x00005555":6613,"clocks":6614,"frank":6615,"delivery":6616,"qt5widgets":6617,"ssh2":6618,"atoi":6619,"stm32f":6620,"divisor":6621,"shrink":6622,"physics":6623,"friendly":6624,"mipmap":6625,"discriminant":6626,"vehicle":6627,"cbegin":6628,"cstdlib":6629,"dz":6630,"fan":6631,"gw":6632,"gap":6633,"kb":6634,"nim":6635,"ras":6636,"sse":6637,"twe":6638,"v5":6639,"vx":6640,"vity":6641,"wbe":6642,"wmissing":6643,"inch":6644,"inct":6645,"stro":6646,"delimited":6647,"exer":6648,"adf":6649,"neon":6650,"erry":6651,"008":6652,"iterexample":6653,"imposs":6654,"uel":6655,"notice":6656,"noise":6657,"moment":6658,"somehow":6659,"poop":6660,"trade":6661,"beet":6662,"vil":6663,"escap":6664,"ilon":6665,"crash":6666,"cabu":6667,"threading":6668,"e039":6669,"vocabu":6670,"ceries":6671,"certain":6672,"152":6673,"173":6674,"logo":6675,"nullptr":6676,"subst":6677,"0001":6678,"splitn":6679,"homebrew":6680,"obj2":6681,"groceries":6682,"385":6683,"ptrs":6684,"imported":6685,"hygi":6686,"integers":6687,"accessible":6688,"installation":6689,"blab":6690,"shouldn":6691,"reduced":6692,"simd":6693,"entered":6694,"tunnel":6695,"recurse":6696,"bitmapdata":6697,"flavor":6698,"0x00007f2d":6699,"epsilon":6700,"imperson":6701,"uchar4":6702,"centroids":6703,"envelope":6704,"wbem":6705,"hygiene":6706,"1s":6707,"696":6708,"air":6709,"eta":6710,"ftp":6711,"fuel":6712,"glo":6713,"hw":6714,"having":6715,"oa":6716,"oser":6717,"odata":6718,"pun":6719,"tro":6720,"xpath":6721,"─┼":6722,"reuse":6723,"adfs":6724,"325":6725,"329":6726,"tea":6727,"notes":6728,"libcrypto":6729,"law1":6730,"referr":6731,"fah":6732,"timeval":6733,"sulli":6734,"chart":6735,"201":6736,"203":6737,"callable":6738,"finder":6739,"309":6740,"subprocess":6741,"website":6742,"illa":6743,"grace":6744,"sinc":6745,"788":6746,"forecast":6747,"6666":6748,"└───":6749,"sleeping":6750,"sample1":6751,"routine":6752,"flash":6753,"payment":6754,"looking":6755,"eucli":6756,"authenticate":6757,"vector3f":6758,"luma":6759,"uint8array":6760,"detect":6761,"stars":6762,"dndebug":6763,"davidsulli":6764,"vcxproj":6765,"figure":6766,"davidsullivan":6767,"bstatic":6768,"bill":6769,"cas":6770,"elo":6771,"hurl":6772,"m3":6773,"pxor":6774,"qml":6775,"tk":6776,"w2":6777,"incr":6778,"inverse":6779,"rodata":6780,"quent":6781,"pep":6782,"conc":6783,"llers":6784,"abilities":6785,"map1":6786,"libcurl":6787,"libcompiler":6788,"6448":6789,"fun2":6790,"feb":6791,"ips":6792,"apples":6793,"arrayvec":6794,"jsonrpc":6795,"139":6796,"155":6797,"ws2":6798,"188":6799,"254":6800,"273":6801,"minor":6802,"997":6803,"grad":6804,"goal":6805,"scrt1":6806,"bigger":6807,"registrar":6808,"prodsearch":6809,"directories":6810,"ague":6811,"controllers":6812,"production":6813,"cdll":6814,"hallo":6815,"music":6816,"f3ce":6817,"pascal":6818,"fruits":6819,"0x7fff":6820,"aspect":6821,"vvvv":6822,"infinity":6823,"anagrams":6824,"jbossweb":6825,"fffffff":6826,"bidi":6827,"instrumentation":6828,"elided":6829,"teacher":6830,"musleabihf":6831,"jaden":6832,"eloquent":6833,"725":6834,"840":6835,"aand":6836,"blast":6837,"dss":6838,"gio":6839,"gflip3d":6840,"hang":6841,"ool":6842,"qi":6843,"wing":6844,"x11":6845,"argt":6846,"debe":6847,"univer":6848,"lid":6849,"getopt":6850,"int2":6851,"peak":6852,"news":6853,"kela":6854,"tiles":6855,"be5":6856,"dience":6857,"numer":6858,"lens":6859,"http11":6860,"ac88":6861,"177":6862,"minima":6863,"method2":6864,"transformation":6865,"429":6866,"spawner":6867,"recent":6868,"groov":6869,"296":6870,"448":6871,"fixme":6872,"distinct":6873,"faceblast":6874,"holding":6875,"conditions":6876,"termination":6877,"flushed":6878,"uckela":6879,"downloader":6880,"dereferenceable":6881,"correctly":6882,"invit":6883,"happy":6884,"audience":6885,"disabled":6886,"alternatives":6887,"65535":6888,"gateway":6889,"main17hf":6890,"escaped":6891,"debeuckela":6892,"groovy":6893,"faceblaster":6894,"debeuckelaer":6895,"3bb":6896,"797":6897,"9t8":6898,"cum":6899,"cnv":6900,"hra":6901,"kaf":6902,"ntl":6903,"pse":6904,"sfa":6905,"trap":6906,"wcast":6907,"rex":6908,"reli":6909,"itto":6910,"ename":6911,"asize":6912,"raints":6913,"love":6914,"boat":6915,"icant":6916,"extras":6917,"mosqu":6918,"libloading":6919,"mymap":6920,"addsd":6921,"howe":6922,"163":6923,"enums":6924,"dyna":6925,"0x40":6926,"binaries":6927,"objective":6928,"wsign":6929,"dyld":6930,"makefile":6931,"2398e":6932,"246":6933,"809":6934,"99r4":6935,"sorts":6936,"vertical":6937,"34main17hf":6938,"txn":6939,"sysinfo":6940,"pi2":6941,"keysv":6942,"person1":6943,"367":6944,"368":6945,"4444":6946,"player2":6947,"accord":6948,"juli":6949,"successful":6950,"realm":6951,"stopped":6952,"c1bac":6953,"fran":6954,"bc6":6955,"euro":6956,"b06448":6957,"consuming":6958,"wssec":6959,"pkcs7":6960,"flam":6961,"purp":6962,"zn8chapter":6963,"0x5574c8a":6964,"hotel":6965,"zn3std2":6966,"9t899r4":6967,"kafka":6968,"mosquitto":6969,"however":6970,"34main17hfb06448":6971,"c1bac2398e":6972,"zn8chapter34main17hfb06448":6973,"9t899r4h":6974,"zn8chapter34main17hfb06448c1bac2398e":6975,"1u":6976,"2aa":6977,"gla":6978,"h0":6979,"iet":6980,"jmat":6981,"jack":6982,"kr":6983,"lary":6984,"mg":6985,"naming":6986,"pres":6987,"rls":6988,"rasp":6989,"sans":6990,"udo":6991,"xe":6992,"xproto":6993,"orial":6994,"sexp":6995,"asia":6996,"rame":6997,"lorem":6998,"urin":6999,"valgrind":7000,"moid":7001,"moder":7002,"datat":7003,"maturin":7004,"tia":7005,"tiber":7006,"myvar":7007,"filesystem":7008,"perspect":7009,"item1":7010,"hashed":7011,"fun1":7012,"barry":7013,"cance":7014,"redund":7015,"printme":7016,"printed":7017,"0x23":7018,"manu":7019,"862":7020,"responding":7021,"miniz":7022,"231":7023,"movb":7024,"266":7025,"matrices":7026,"previously":7027,"variant1":7028,"replaced":7029,"9736":7030,"metal":7031,"metic":7032,"therefore":7033,"dont":7034,"scaled":7035,"braces":7036,"edited":7037,"ebx":7038,"snipped":7039,"7eac88":7040,"11111111":7041,"huge":7042,"happened":7043,"grapheme":7044,"arithmetic":7045,"fallback":7046,"draft":7047,"carrier":7048,"uwtable":7049,"frankjmat":7050,"europe":7051,"tiberius":7052,"perspective":7053,"7eac88ab":7054,"frankjmattia":7055,"700":7056,"bss":7057,"brain":7058,"cin":7059,"dpkg":7060,"ftime":7061,"gim":7062,"hun":7063,"ially":7064,"ky":7065,"lst":7066,"tty":7067,"t14":7068,"uh":7069,"z2":7070,"unlocked":7071,"celer":7072,"entory":7073,"intensity":7074,"uris":7075,"optail":7076,"dol":7077,"clink":7078,"fair":7079,"tera":7080,"wee":7081,"202":7082,"copying":7083,"mani":7084,"inserted":7085,"141":7086,"dyon":7087,"posix":7088,"subs":7089,"decks":7090,"looper":7091,"infos":7092,"capability":7093,"osen":7094,"interop":7095,"ghij":7096,"379":7097,"biguint":7098,"grammar":7099,"xmlgraphics":7100,"customers":7101,"666":7102,"succeeded":7103,"protocols":7104,"corout":7105,"asciis":7106,"planet":7107,"sigmoid":7108,"combination":7109,"seeder":7110,"sian":7111,"s3client":7112,"synchronized":7113,"inventory":7114,"students":7115,"vpn":7116,"horiz":7117,"convention":7118,"atmel":7119,"atmega":7120,"philosopher":7121,"log4rs":7122,"vocabulary":7123,"punct":7124,"getopts":7125,"according":7126,"420":7127,"bing":7128,"fmin":7129,"gstreamer":7130,"kw":7131,"u27":7132,"ina":7133,"eno":7134,"uname":7135,"unmap":7136,"undef":7137,"mutation":7138,"cores":7139,"ce8":7140,"contr":7141,"lling":7142,"libm":7143,"unwrapped":7144,"keywords":7145,"hashset":7146,"acceler":7147,"0x08":7148,"0x000000":7149,"cros":7150,"156":7151,"method1":7152,"subq":7153,"244":7154,"locale":7155,"2222":7156,"passing":7157,"matrix2":7158,"555":7159,"receiving":7160,"3913d":7161,"gitlab":7162,"directive":7163,"abcabc":7164,"insens":7165,"autocfg":7166,"alter":7167,"multiplic":7168,"dust":7169,"controlled":7170,"answers":7171,"wayland":7172,"seedable":7173,"contracts":7174,"cubes":7175,"spheres":7176,"interpreter":7177,"ticker":7178,"seasonals":7179,"btreemap":7180,"194bc6":7181,"184af":7182,"14159265":7183,"328p":7184,"saturating":7185,"occurrences":7186,"america":7187,"tweet":7188,"pseudo":7189,"wssecurity":7190,"glade":7191,"canceled":7192,"redundant":7193,"atmega328p":7194,"3913d194bc6":7195,"3913d194bc6184af":7196,"0123456789":7197,"ail":7198,"cion":7199,"cutil":7200,"density":7201,"ever":7202,"jh":7203,"jim":7204,"khr":7205,"lb":7206,"lpthread":7207,"mali":7208,"pm":7209,"pv":7210,"ug":7211,"vlog":7212,"wstr":7213,"yel":7214,"zf":7215,"designer":7216,"ane":7217,"rod":7218,"rocks":7219,"asn1":7220,"ford":7221,"00ms":7222,"sodi":7223,"ssp":7224,"testlib":7225,"hashvalue":7226,"tpl":7227,"spot":7228,"locations":7229,"accessed":7230,"15f":7231,"texts":7232,"confirm":7233,"302f":7234,"summar":7235,"f32x4":7236,"glue":7237,"426":7238,"340":7239,"ocsp":7240,"part1":7241,"02be5":7242,"398":7243,"cb2":7244,"aborted":7245,"hermes":7246,"unistd":7247,"insur":7248,"57e7":7249,"enumerable":7250,"blake":7251,"xmm2":7252,"e0412":7253,"52f3":7254,"domains":7255,"simulator":7256,"meaning":7257,"evaluator":7258,"nano":7259,"dumped":7260,"e0281":7261,"salary":7262,"4c46":7263,"inherit":7264,"decorator":7265,"professor":7266,"sharpen":7267,"3d7adf":7268,"b2e57e7":7269,"across":7270,"impossible":7271,"blabla":7272,"f3ce3d7adf":7273,"7eac88abb2e57e7":7274,"insensitive":7275,"yellow":7276,"sodium":7277,"302f02be5":7278,"52f3302f02be5":7279,"f3ce3d7adfb4":7280,"7eac88abb2e57e752f3302f02be5":7281,"7eac88abb2e57e752f3302f02be5f3ce3d7adfb4":7282,"299":7283,"727":7284,"cend":7285,"e000":7286,"gcry":7287,"jl":7288,"t12":7289,"xi":7290,"deg":7291,"descri":7292,"thu":7293,"coding":7294,"expose":7295,"town":7296,"loye":7297,"ruby":7298,"006":7299,"intel":7300,"peg":7301,"datum":7302,"clf":7303,"tr1":7304,"tray":7305,"liborwell":7306,"endproc":7307,"myfile":7308,"myfunc":7309,"offer":7310,"testnet":7311,"pagin":7312,"ational":7313,"holo":7314,"bare":7315,"ernion":7316,"line2":7317,"state1":7318,"callers":7319,"includes":7320,"ff8":7321,"301":7322,"237":7323,"238":7324,"249":7325,"translat":7326,"808":7327,"identities":7328,"graphs":7329,"interact":7330,"matrix1":7331,"568":7332,"employe":7333,"downstream":7334,"pine":7335,"365":7336,"nonblocking":7337,"agon":7338,"benches":7339,"individ":7340,"979":7341,"corpor":7342,"unchang":7343,"launching":7344,"761":7345,"digital":7346,"dd7":7347,"underscore":7348,"adaptor":7349,"clickable":7350,"destroyed":7351,"treas":7352,"sale":7353,"vincent":7354,"quaternion":7355,"zn4core3":7356,"guarante":7357,"converter":7358,"jndi":7359,"zn3std2rt":7360,"2aa4c46":7361,"raspb":7362,"describe":7363,"2aa4c46cf":7364,"1b8":7365,"3i":7366,"7fe":7367,"cerr":7368,"cstdio":7369,"dal":7370,"ede":7371,"ess":7372,"eig":7373,"g1":7374,"gent":7375,"hrase":7376,"ico":7377,"lum":7378,"lite":7379,"npp":7380,"oom":7381,"pfx":7382,"sit":7383,"tn":7384,"t10":7385,"tech":7386,"wat":7387,"xls":7388,"regen":7389,"atan":7390,"atag":7391,"onic":7392,"encounter":7393,"asyn":7394,"chosen":7395,"lopen":7396,"ado":7397,"newtype":7398,"consu":7399,"mob":7400,"dox":7401,"lains":7402,"bevy":7403,"perf":7404,"item2":7405,"nodefault":7406,"sphrase":7407,"obs":7408,"obv":7409,"wrote":7410,"counted":7411,"voxel":7412,"193":7413,"trustcacerts":7414,"subsec":7415,"subsystem":7416,"subclass":7417,"decide":7418,"decider":7419,"504":7420,"owns":7421,"245":7422,"8027":7423,"joint":7424,"289":7425,"562":7426,"bbbb":7427,"470":7428,"887":7429,"rwxr":7430,"seems":7431,"registered":7432,"cryptography":7433,"emitted":7434,"passphrase":7435,"measurer":7436,"del3d":7437,"nopro":7438,"sales":7439,"decrease":7440,"capitalized":7441,"inches":7442,"holochain":7443,"translatable":7444,"employees":7445,"regenc":7446,"nodefaultlibs":7447,"0o":7448,"014":7449,"1u64":7450,"315":7451,"350":7452,"543":7453,"720":7454,"jb":7455,"jt":7456,"mss":7457,"nbr":7458,"ncurses":7459,"p6":7460,"svm":7461,"t17":7462,"tition":7463,"ugly":7464,"wchar":7465,"zi":7466,"reaction":7467,"reviews":7468,"enm":7469,"unspec":7470,"toc":7471,"chach":7472,"lime":7473,"geon":7474,"gemv":7475,"neare":7476,"forwar":7477,"003":7478,"isaac":7479,"newer":7480,"matter":7481,"result1":7482,"shep":7483,"refused":7484,"arg3":7485,"hest":7486,"perms":7487,"deriv":7488,"expectation":7489,"bugs":7490,"saux":7491,"wav":7492,"0x00000000":7493,"colas":7494,"1500":7495,"271":7496,"javaws":7497,"mins":7498,"sublime":7499,"weblogic":7500,"signing":7501,"defining":7502,"407":7503,"pict":7504,"interactive":7505,"567":7506,"nsurl":7507,"scripts":7508,"4467":7509,"chunked":7510,"smth":7511,"director":7512,"penssl":7513,"ysis":7514,"monot":7515,"protobuf":7516,"freedesktop":7517,"e0505":7518,"repetition":7519,"continuation":7520,"correction":7521,"dummies":7522,"whitelist":7523,"nicolas":7524,"sigint":7525,"sigaction":7526,"descend":7527,"delsaux":7528,"stage2":7529,"qt5core":7530,"analyze":7531,"ulonglong":7532,"risp":7533,"early":7534,"crc32":7535,"secp256":7536,"debian":7537,"jdk1":7538,"interpolate":7539,"diagnostic":7540,"libopenssl":7541,"semver":7542,"xlsx":7543,"obvious":7544,"noprompt":7545,"mssql":7546,"chacha":7547,"nearest":7548,"314":7549,"4000":7550,"718":7551,"bur":7552,"craw":7553,"dpt":7554,"gzip":7555,"hresult":7556,"hil":7557,"hir":7558,"hier":7559,"lfunc":7560,"pty":7561,"pig":7562,"qe":7563,"qrst":7564,"tmove":7565,"tics":7566,"vcs":7567,"wformat":7568,"ycle":7569,"z1":7570,"zend":7571,"══":7572,"inot":7573,"retri":7574,"mpi":7575,"utili":7576,"albu":7577,"league":7578,"announ":7579,"rog":7580,"coo":7581,"today":7582,"chd":7583,"chmod":7584,"rush":7585,"idr":7586,"val3":7587,"structures":7588,"abr":7589,"rc4":7590,"dored":7591,"librand":7592,"644":7593,"out2":7594,"10lang":7595,"pathbuf":7596,"compound":7597,"cloneable":7598,"expects":7599,"observe":7600,"user1":7601,"16384":7602,"rental":7603,"0x100":7604,"0x1000":7605,"sslsocket":7606,"manual":7607,"mtx":7608,"133":7609,"binder":7610,"disjoint":7611,"logs":7612,"logfile":7613,"subkey":7614,"subslice":7615,"surefire":7616,"variance":7617,"capnp":7618,"movups":7619,"march":7620,"403":7621,"objdump":7622,"uint16":7623,"games":7624,"gamedata":7625,"frameworks":7626,"istic":7627,"renderable":7628,"forever":7629,"visitable":7630,"fullscreen":7631,"123123":7632,"repeating":7633,"skipped":7634,"older":7635,"nvs":7636,"postgresql":7637,"countings":7638,"planets":7639,"0b0":7640,"categories":7641,"many1":7642,"slash":7643,"repositories":7644,"duplex":7645,"vendored":7646,"aeabi":7647,"0x109":7648,"sha1with":7649,"ooo":7650,"years":7651,"tribonacci":7652,"jane":7653,"analysis":7654,"abcdefghij":7655,"authenticator":7656,"analyzer":7657,"fingerprint":7658,"shoot":7659,"jaxws":7660,"capitalize":7661,"kdtree":7662,"confirmation":7663,"flammable":7664,"horizont":7665,"treasure":7666,"eigen":7667,"monotonic":7668,"hierarch":7669,"1c8":7670,"227":7671,"544":7672,"bir":7673,"cstring":7674,"cart":7675,"dan":7676,"efficient":7677,"ethereum":7678,"fmax":7679,"jpeg":7680,"mn":7681,"n0":7682,"obytes":7683,"qs":7684,"s4":7685,"sil":7686,"zx":7687,"utive":7688,"destructure":7689,"maint":7690,"exam":7691,"adoption":7692,"0020":7693,"so2":7694,"useless":7695,"consec":7696,"tesian":7697,"poses":7698,"poison":7699,"libssh2":7700,"boxable":7701,"express":7702,"procycl":7703,"ureq":7704,"beans":7705,"hashes":7706,"complains":7707,"listing":7708,"ages":7709,"indic":7710,"spire":7711,"locate":7712,"162":7713,"includ":7714,"estimate":7715,"worked":7716,"beginning":7717,"minator":7718,"dbc":7719,"503":7720,"236":7721,"generation":7722,"net2":7723,"bitcast":7724,"284":7725,"trivi":7726,"388":7727,"rts":7728,"swapped":7729,"3515":7730,"35aa":7731,"bb7":7732,"cmpq":7733,"player1":7734,"utilities":7735,"cmd1":7736,"juke":7737,"576":7738,"equiv":7739,"xmm6":7740,"generators":7741,"cartesian":7742,"fetcher":7743,"simon":7744,"simul":7745,"problem3":7746,"8547":7747,"sprites":7748,"thrown":7749,"5ever":7750,"microsystems":7751,"father":7752,"soapenv":7753,"ipv4network":7754,"platforms":7755,"sensitive":7756,"aniel":7757,"fulfill":7758,"parenthe":7759,"publisher":7760,"criteria":7761,"implicitly":7762,"rica":7763,"consistent":7764,"tutorial":7765,"klmnop":7766,"describ":7767,"extrema":7768,"secp256k1":7769,"album":7770,"horizontal":7771,"consecutive":7772,"procyclinsur":7773,"including":7774,"010":7775,"1f32":7776,"317":7777,"518":7778,"526":7779,"755":7780,"7c9":7781,"900":7782,"b6c":7783,"cles":7784,"ely":7785,"eabihf":7786,"fbo":7787,"grow":7788,"gvt":7789,"jk":7790,"lz":7791,"rational":7792,"sense":7793,"ura":7794,"ught":7795,"vio":7796,"wed":7797,"woo":7798,"rea":7799,"online":7800,"strat":7801,"strftime":7802,"deal":7803,"tham":7804,"seper":7805,"unroll":7806,"cov":7807,"quid":7808,"toast":7809,"liquid":7810,"isable":7811,"isation":7812,"fil":7813,"324":7814,"327":7815,"izers":7816,"exti":7817,"nologo":7818,"usually":7819,"travel":7820,"endar":7821,"vers":7822,"shy":7823,"dia":7824,"pac":7825,"baltest":7826,"sug":7827,"spice":7828,"bools":7829,"13xor":7830,"157":7831,"158":7832,"183":7833,"306":7834,"decision":7835,"angent":7836,"247":7837,"24480":7838,"000000000000000":7839,"spawned":7840,"image2d":7841,"beco":7842,"movaps":7843,"cats":7844,"partner":7845,"331":7846,"viewport":7847,"gotham":7848,"double2":7849,"brevity":7850,"lexical":7851,"programing":7852,"programmer":7853,"parsers":7854,"folders":7855,"fileno":7856,"7777":7857,"ud2":7858,"alg1":7859,"corro":7860,"looks":7861,"c858":7862,"combinator":7863,"lbb2":7864,"costs":7865,"standalone":7866,"onigenc":7867,"allest":7868,"comes":7869,"writable":7870,"e8c858":7871,"3c24480":7872,"c435":7873,"occure":7874,"trees":7875,"comparable":7876,"calculator":7877,"preferred":7878,"fingerprints":7879,"kuba":7880,"profession":7881,"azul":7882,"federation":7883,"1000000000":7884,"764986":7885,"34835aa":7886,"0c2734835aa":7887,"3801b8":7888,"denominator":7889,"26e9736":7890,"dbax":7891,"stm32f103":7892,"substit":7893,"globaltest":7894,"rexchange":7895,"gimme":7896,"manipu":7897,"dd726e9736":7898,"zn3std2rt10lang":7899,"raspberry":7900,"2aa4c46cfdd726e9736":7901,"consumable":7902,"announce":7903,"3515e8c858":7904,"3c24480675":7905,"764986252":7906,"0c2734835aa3515e8c858":7907,"3801b83c24480675":7908,"2aa4c46cfdd726e97360c2734835aa3515e8c858":7909,"2nd":7910,"2p0":7911,"334":7912,"614":7913,"ajax":7914,"brows":7915,"cde":7916,"dg":7917,"dnd":7918,"hrust":7919,"ired":7920,"lr":7921,"opus":7922,"pent":7923,"pitch":7924,"qq":7925,"r10":7926,"xid":7927,"xcompiler":7928,"reborrow":7929,"remember":7930,"lem":7931,"leve":7932,"unic":7933,"macos":7934,"asc":7935,"as03":7936,"lio":7937,"pest":7938,"fox":7939,"fopen":7940,"newslice":7941,"solid":7942,"buy":7943,"club":7944,"pout":7945,"apon":7946,"libcollections":7947,"perman":7948,"add1":7949,"border":7950,"few":7951,"cacert":7952,"weapon":7953,"0x11":7954,"0x34":7955,"1313":7956,"14a":7957,"1499":7958,"276":7959,"disp":7960,"db0c":7961,"example2":7962,"child2":7963,"facturer":7964,"ports":7965,"405":7966,"tmpx":7967,"africa":7968,"pie":7969,"interleave":7970,"597":7971,"aa2a":7972,"fuck":7973,"cylon":7974,"html5":7975,"html5ever":7976,"smallest":7977,"01as03":7978,"storable":7979,"x509v3":7980,"succeed":7981,"compat01as03":7982,"normalization":7983,"actor1":7984,"069":7985,"outlives":7986,"aliasing":7987,"weights":7988,"overflowing":7989,"distances":7990,"videos":7991,"25519":7992,"attachments":7993,"vao":7994,"mingw64":7995,"updater":7996,"e0053":7997,"materials":7998,"intercept":7999,"produces":8000,"33333333":8001,"relationship":8002,"potter":8003,"coercion":8004,"highest":8005,"ecode":8006,"errored":8007,"reliability":8008,"manufacturer":8009,"multiplication":8010,"lumin":8011,"encountered":8012,"fmaxf":8013,"corrode":8014,"cylon2p0":8015,"7q":8016,"bzip":8017,"cru":8018,"calloc":8019,"ey":8020,"eas":8021,"fk":8022,"gd":8023,"kar":8024,"mor":8025,"pkey":8026,"ull":8027,"vn":8028,"wol":8029,"itoa":8030,"along":8031,"alina":8032,"alpine":8033,"demangle":8034,"de543":8035,"unsorted":8036,"unrecognized":8037,"mage":8038,"ques":8039,"ced":8040,"cels":8041,"lie":8042,"ad8":8043,"vec0":8044,"fort":8045,"string1":8046,"idio":8047,"32e038":8048,"soon":8049,"izations":8050,"moz":8051,"usion":8052,"poke":8053,"libbacktrace":8054,"libpthread":8055,"645":8056,"648":8057,"shor":8058,"dias":8059,"pause":8060,"timessp":8061,"caught":8062,"acts":8063,"11c435":8064,"preorder":8065,"backup":8066,"19c":8067,"panel":8068,"257":8069,"259":8070,"subtree":8071,"dec28":8072,"temp2":8073,"child1":8074,"currentchar":8075,"miss":8076,"235":8077,"8088":8078,"sorter":8079,"osity":8080,"catalina":8081,"syscall":8082,"casting":8083,"privi":8084,"3549":8085,"tts":8086,"360":8087,"opt2":8088,"396":8089,"variant2":8090,"xmlpull":8091,"pair2":8092,"normally":8093,"spanned":8094,"brot":8095,"fc11c435":8096,"concaten":8097,"conflict":8098,"issued":8099,"dxdt":8100,"b3dec28":8101,"ika":8102,"workspaces":8103,"literals":8104,"yields":8105,"populated":8106,"declspec":8107,"lmdb":8108,"9e32e038":8109,"flare":8110,"cloudflare":8111,"protector":8112,"simply":8113,"da9fc11c435":8114,"colored":8115,"0x7fb935ad":8116,"couples":8117,"several":8118,"injection":8119,"lsizei":8120,"oxide":8121,"motive":8122,"treatment":8123,"revision":8124,"dungeon":8125,"aggregate":8126,"3bb1313":8127,"coroutine":8128,"fminf":8129,"ce8c0":8130,"8027da9fc11c435":8131,"picture":8132,"abcdefghijklmnop":8133,"db0cce8c0":8134,"aa2a8027da9fc11c435":8135,"de543aa2a8027da9fc11c435":8136,"b3dec289e32e038":8137,"3bb1313de543aa2a8027da9fc11c435":8138,"b3dec289e32e038f":8139,"3bb1313de543aa2a8027da9fc11c435db0cce8c0":8140,"215":8141,"4j":8142,"410":8143,"538":8144,"cmt":8145,"dab":8146,"fpath":8147,"flex":8148,"ggle":8149,"gcd":8150,"jobject":8151,"kx":8152,"lgcc":8153,"m4":8154,"mmetric":8155,"nate":8156,"pcre":8157,"qos":8158,"rrs":8159,"rather":8160,"wxyz":8161,"wso2":8162,"xargo":8163,"ortho":8164,"dex":8165,"dean":8166,"throt":8167,"meant":8168,"untrusted":8169,"unforced":8170,"mutator":8171,"covery":8172,"rab":8173,"tough":8174,"tower":8175,"liers":8176,"loxe":8177,"quoted":8178,"quotes":8179,"peers":8180,"val0":8181,"conti":8182,"typemap":8183,"movi":8184,"doctype":8185,"ref2":8186,"fami":8187,"beg":8188,"urnal":8189,"futs":8190,"e0207":8191,"cufft":8192,"collector":8193,"point1":8194,"flows":8195,"msb":8196,"fff":8197,"wsz":8198,"187":8199,"contexts":8200,"253":8201,"304":8202,"disconnect":8203,"discovery":8204,"subtype":8205,"loads":8206,"glsl":8207,"cccc":8208,"22c":8209,"wasi":8210,"gradle":8211,"263":8212,"exiting":8213,"598":8214,"451":8215,"889":8216,"successors":8217,"s2imap":8218,"booking":8219,"ferences":8220,"cdn":8221,"tenant":8222,"assocc":8223,"cardbox":8224,"restype":8225,"centime":8226,"overrid":8227,"eb4":8228,"sqrt2":8229,"sockaddr":8230,"asymmetric":8231,"ntdll":8232,"0x400":8233,"0x800":8234,"iosity":8235,"stm32f4":8236,"fourth":8237,"bootstrapper":8238,"arbiter":8239,"radiosity":8240,"navigation":8241,"tbsip":8242,"recoverable":8243,"paddd":8244,"fancy":8245,"euclidean":8246,"universe":8247,"invitation":8248,"hilbert":8249,"trivial":8250,"luminosity":8251,"abcdefghijklmnopqrst":8252,"rrss2imap":8253,"movies":8254,"families":8255,"5f4":8256,"6handle":8257,"a42":8258,"dang":8259,"dwar":8260,"fvisibility":8261,"iot":8262,"jca":8263,"lv3":8264,"mh":8265,"rating":8266,"in1":8267,"inorder":8268,"repla":8269,"itize":8270,"algo":8271,"asing":8272,"racy":8273,"topla":8274,"toggle":8275,"ctest":8276,"stdcall":8277,"urator":8278,"urgent":8279,"error2":8280,"ldflags":8281,"impl1":8282,"dos":8283,"libg":8284,"libdl":8285,"law":8286,"prof":8287,"fa9":8288,"traittest":8289,"htt":8290,"bee":8291,"setter":8292,"hashers":8293,"fe6":8294,"composer":8295,"0x30":8296,"0x80":8297,"0xb8":8298,"genes":8299,"crop":8300,"writes":8301,"memcached":8302,"trustkit":8303,"textures":8304,"configura":8305,"configurator":8306,"phen":8307,"submission":8308,"23456":8309,"ancestor":8310,"viewer":8311,"269":8312,"param1":8313,"pts":8314,"35c":8315,"298":8316,"397":8317,"fuz":8318,"protot":8319,"accessing":8320,"syntex":8321,"blub":8322,"generates":8323,"779":8324,"eeee":8325,"multiplex":8326,"multiplies":8327,"tsi":8328,"tim2":8329,"legacy":8330,"circuit":8331,"intention":8332,"e0594":8333,"computed":8334,"cnbuf":8335,"decoders":8336,"rmw":8337,"iki":8338,"dockerfile":8339,"vscode":8340,"reserv":8341,"effective":8342,"aug":8343,"critty":8344,"authenticatable":8345,"purch":8346,"analytics":8347,"xxxxxxxxxxxxxxxx":8348,"granted":8349,"prefe":8350,"alacritty":8351,"deferred":8352,"susan":8353,"interesting":8354,"zn10playground":8355,"preceded":8356,"beetles":8357,"0x00007f2d37":8358,"862b9":8359,"contrived":8360,"unicase":8361,"bzip2":8362,"centimeters":8363,"configurable":8364,"012":8365,"2usize":8366,"500000":8367,"608":8368,"bk":8369,"c20":8370,"dptr":8371,"dangle":8372,"gge":8373,"gob":8374,"gdk":8375,"kam":8376,"lap":8377,"lfu":8378,"ndef":8379,"q1":8380,"r6":8381,"slab":8382,"t5":8383,"uf":8384,"inbound":8385,"ingth":8386,"indirect":8387,"rez":8388,"atlas":8389,"mp3":8390,"arity":8391,"stringth":8392,"unprocessed":8393,"entro":8394,"ruction":8395,"0040":8396,"res2":8397,"type3":8398,"ldl":8399,"dosomething":8400,"libtest":8401,"shm":8402,"heit":8403,"dil":8404,"performs":8405,"borsh":8406,"complain":8407,"barcodes":8408,"renheit":8409,"spread":8410,"ptr1":8411,"immutably":8412,"0xa":8413,"codemap":8414,"mscor":8415,"trust13":8416,"reader1":8417,"181":8418,"182":8419,"272":8420,"dbk":8421,"webservice":8422,"sum2":8423,"transforms":8424,"0000000042":8425,"entrypoint":8426,"journal":8427,"lating":8428,"tcx":8429,"333":8430,"338":8431,"rngs":8432,"plural":8433,"lsb":8434,"specs":8435,"488":8436,"394":8437,"4967":8438,"arm64":8439,"corresponding":8440,"ansi":8441,"bravo":8442,"dense":8443,"shipping":8444,"cooked":8445,"permutations":8446,"80808080":8447,"xorl":8448,"e0381":8449,"rgbs":8450,"attempting":8451,"learning":8452,"delf":8453,"hitable":8454,"yyyy":8455,"glyphs":8456,"expired":8457,"imperative":8458,"english":8459,"accuracy":8460,"7f7f7f7f":8461,"fltk":8462,"clonable":8463,"lefrog":8464,"exerci":8465,"fahrenheit":8466,"julia":8467,"franza":8468,"purplefrog":8469,"individual":8470,"readelf":8471,"stm32f103xx":8472,"browsable":8473,"rabbit":8474,"abcdefghijklmnopqrstuv":8475,"dangling":8476,"ggez":8477,"stringthing":8478,"055":8479,"097":8480,"2i":8481,"5tests":8482,"6887":8483,"bio":8484,"cw":8485,"cis":8486,"dam":8487,"fmap":8488,"fstack":8489,"f36":8490,"giver":8491,"hh":8492,"lutil":8493,"lvals":8494,"mti":8495,"mvp":8496,"rint":8497,"srand":8498,"tent":8499,"u2019":8500,"u2018":8501,"wtf":8502,"x8":8503,"xcode":8504,"reloc":8505,"atures":8506,"it1":8507,"it2":8508,"stra":8509,"fortran":8510,"resized":8511,"fid":8512,"foot":8513,"bom":8514,"atest":8515,"321":8516,"3286":8517,"32da9":8518,"pure":8519,"teen":8520,"noexec":8521,"moon":8522,"poli":8523,"trick":8524,"itely":8525,"liber":8526,"myvector":8527,"mycrate":8528,"option2":8529,"key3":8530,"funct":8531,"line1":8532,"runmode":8533,"locks":8534,"function1":8535,"0xffff":8536,"sendable":8537,"memmap":8538,"ffset":8539,"workaround":8540,"opener":8541,"258":8542,"disposition":8543,"drops":8544,"connectionstate":8545,"sqs":8546,"txs":8547,"228":8548,"part2":8549,"hair":8550,"guild":8551,"guous":8552,"297":8553,"378":8554,"ep7q":8555,"08b":8556,"469":8557,"grpc":8558,"resolv":8559,"cpupool":8560,"followed":8561,"tensor":8562,"scaler":8563,"authorize":8564,"optimization":8565,"fcntl":8566,"slug":8567,"throwing":8568,"flattened":8569,"transferred":8570,"brother":8571,"ticks":8572,"jumps":8573,"pdh":8574,"broadcaster":8575,"potential":8576,"established":8577,"cutoff":8578,"determined":8579,"arbproc":8580,"encryptor":8581,"ejb":8582,"centroid":8583,"navigator":8584,"╌╌╌╌":8585,"ipv6addr":8586,"spook":8587,"2147483647":8588,"demonstration":8589,"dashboard":8590,"profiler":8591,"negotiation":8592,"numerator":8593,"corporation":8594,"asynchronous":8595,"corrections":8596,"utilize":8597,"b6c32da9":8598,"seperator":8599,"becomes":8600,"contiguous":8601,"mscorlib":8602,"217":8603,"534":8604,"556":8605,"a27":8606,"bp":8607,"bic":8608,"blink":8609,"bks":8610,"dlen":8611,"dlopen":8612,"ew":8613,"eow":8614,"e89":8615,"ferr":8616,"fused":8617,"fpin":8618,"g3":8619,"gone":8620,"gindex":8621,"jit":8622,"jason":8623,"lv2":8624,"msys":8625,"nj":8626,"ndata":8627,"qc":8628,"qrt":8629,"rpi":8630,"sro":8631,"tg":8632,"tval":8633,"wild":8634,"xmin":8635,"zc":8636,"reto":8637,"ath":8638,"mpro":8639,"mpeg":8640,"orjson":8641,"onenc":8642,"encies":8643,"ecom":8644,"otes":8645,"toy":8646,"tour":8647,"chance":8648,"gee":8649,"int16":8650,"foreg":8651,"imprint":8652,"icmp":8653,"extent":8654,"andre":8655,"traver":8656,"libz":8657,"exponenc":8658,"dial":8659,"byt":8660,"00001":8661,"baa":8662,"iph":8663,"e0243":8664,"vector4":8665,"205":8666,"2036":8667,"immut":8668,"immuta":8669,"licen":8670,"0x3":8671,"0x09":8672,"evm":8673,"860":8674,"formatting":8675,"153286":8676,"ordin":8677,"minute":8678,"logon":8679,"sum1":8680,"field3":8681,"transition":8682,"00000000000000":8683,"805":8684,"807":8685,"definitely":8686,"osap":8687,"become":8688,"parent1":8689,"sciter":8690,"389":8691,"481e":8692,"aa39a":8693,"cycles":8694,"synchronous":8695,"jul":8696,"ee6":8697,"unit4":8698,"accepts":8699,"stripe":8700,"dogs":8701,"symmetric":8702,"inferred":8703,"todos":8704,"optimizer":8705,"speech":8706,"credit":8707,"frontend":8708,"1f7":8709,"9223":8710,"b3ff8":8711,"b0481e":8712,"ructed":8713,"wss4j":8714,"e0015":8715,"0x7ffe":8716,"alternate":8717,"9d737":8718,"nxcompat":8719,"mcve":8720,"runnables":8721,"3e9d737":8722,"tqimp":8723,"recipe":8724,"oranges":8725,"harsh":8726,"amaz":8727,"deeply":8728,"community":8729,"restricting":8730,"0x10877":8731,"dynamo":8732,"brainfuck":8733,"hierarchy":8734,"suggest":8735,"brotli":8736,"pcrel":8737,"purchase":8738,"exercises":8739,"abcdefghijklmnopqrstuvwxyz":8740,"b6c32da9b0481e":8741,"fpinrust":8742,"sroa":8743,"foreground":8744,"exponencial":8745,"153286b3ff8":8746,"aa39a22c":8747,"3e9d737153286b3ff8":8748,"b6c32da9b0481e3e9d737153286b3ff8":8749,"b6c32da9b0481e3e9d737153286b3ff8aa39a22c":8750,"0i":8751,"264":8752,"20000":8753,"219":8754,"516":8755,"5f64":8756,"bw":8757,"bsd":8758,"bcrypt":8759,"cra":8760,"c14":8761,"dj":8762,"e56":8763,"fj":8764,"h4":8765,"hof":8766,"jdbc":8767,"k3":8768,"kl":8769,"km":8770,"lparam":8771,"nh":8772,"nblocks":8773,"nnz":8774,"pz":8775,"scro":8776,"xf":8777,"zs":8778,"znear":8779,"zoo":8780,"zscaler":8781,"invert":8782,"inplace":8783,"rewriter":8784,"orrow":8785,"arrsize":8786,"thus":8787,"mutates":8788,"edu":8789,"lism":8790,"entially":8791,"resident":8792,"fio":8793,"pe0":8794,"valve":8795,"concurrency":8796,"icles":8797,"notbox":8798,"aba":8799,"clust":8800,"pogo":8801,"endpoints":8802,"mya":8803,"proposed":8804,"bell":8805,"statuses":8806,"prj":8807,"barcode":8808,"vector1":8809,"indicate":8810,"buildbot":8811,"pushreg":8812,"thingies":8813,"state2":8814,"flop":8815,"0xb":8816,"0x20":8817,"0x15":8818,"handle1":8819,"251":8820,"17t14":8821,"dispose":8822,"logout":8823,"sub1":8824,"example1":8825,"imagine":8826,"splitter":8827,"homedir":8828,"toolbox":8829,"226":8830,"parameteri":8831,"grab":8832,"tmp2":8833,"orgs":8834,"exceptions":8835,"view1":8836,"parent2":8837,"param2":8838,"properly":8839,"releases":8840,"instanceof":8841,"377":8842,"offline":8843,"tomorrow":8844,"446":8845,"590":8846,"lexport":8847,"searching":8848,"randomizer":8849,"namya":8850,"slee":8851,"armv8":8852,"monte":8853,"drawer":8854,"6767":8855,"607":8856,"freetype":8857,"commons":8858,"970":8859,"dumb":8860,"7f45":8861,"984":8862,"987":8863,"timestamptz":8864,"central":8865,"incrementable":8866,"0b0000":8867,"elapse":8868,"smallvec":8869,"yew":8870,"dllexport":8871,"copies":8872,"attempts":8873,"e0623":8874,"checkouts":8875,"pivots":8876,"interrupting":8877,"0x7ff7c9":8878,"flipping":8879,"quadrat":8880,"bike":8881,"implementor1":8882,"calculated":8883,"invoker":8884,"zn8fpinrust":8885,"shows":8886,"holded":8887,"clamped":8888,"0x000000010000":8889,"neighbourhood":8890,"xmld":8891,"restriction":8892,"referrer":8893,"acceleration":8894,"14159265358":8895,"guaranteed":8896,"mobile":8897,"occured":8898,"html5rocks":8899,"ikaze":8900,"kamikaze":8901,"5tests13xor":8902,"922337":8903,"amazon":8904,"quadratic":8905,"zn8fpinrust5tests13xor":8906,"1st":8907,"312":8908,"aker":8909,"auction":8910,"f9d":8911,"h6":8912,"iy":8913,"orem":8914,"ptrace":8915,"pmd":8916,"rvals":8917,"rdd":8918,"rise":8919,"sis":8920,"tone":8921,"ued":8922,"w0":8923,"wget":8924,"xb":8925,"xn":8926,"xt":8927,"erato":8928,"animate":8929,"unnecessary":8930,"unrecoverable":8931,"geor":8932,"rug":8933,"007":8934,"009":8935,"0030":8936,"idna":8937,"newvec":8938,"extrins":8939,"impl2":8940,"pubsub":8941,"noone":8942,"pom":8943,"trt":8944,"trial":8945,"libgit2":8946,"boxes":8947,"mydata":8948,"paras":8949,"expense":8950,"favor":8951,"beer":8952,"diver":8953,"10i32":8954,"1048":8955,"keycode":8956,"iterator1":8957,"cron":8958,"caa":8959,"cake":8960,"e0309":8961,"located":8962,"userenv":8963,"articles":8964,"codeha":8965,"spacing":8966,"opencv":8967,"logstream":8968,"els":8969,"dirname":8970,"blocked":8971,"generating":8972,"nets":8973,"linkable":8974,"somethings":8975,"bitter":8976,"221":8977,"parameterized":8978,"tuple2":8979,"plant":8980,"382":8981,"rtfm":8982,"557":8983,"hyphen":8984,"cesses":8985,"persons":8986,"370":8987,"colorops":8988,"bb3":8989,"kinda":8990,"counters":8991,"protection":8992,"cbs":8993,"466":8994,"785":8995,"overwrite":8996,"privacy":8997,"assigning":8998,"nail":8999,"2008":9000,"457":9001,"474":9002,"47e":9003,"abcde":9004,"888":9005,"activator":9006,"penny":9007,"monday":9008,"guessing":9009,"shaders":9010,"timer1":9011,"769":9012,"wanted":9013,"association":9014,"brad":9015,"assemblies":9016,"enemy":9017,"spell":9018,"functionality":9019,"lnk":9020,"oyster":9021,"lancz":9022,"adapters":9023,"fastcc":9024,"venue":9025,"picket":9026,"prepared":9027,"sxd":9028,"throughput":9029,"balances":9030,"jumped":9031,"petro":9032,"cancelled":9033,"leaked":9034,"slots":9035,"adjusted":9036,"periodic":9037,"introspect":9038,"slim":9039,"cloning":9040,"2147483648":9041,"impersonation":9042,"troub":9043,"4294967":9044,"fairing":9045,"describable":9046,"pentagon":9047,"morph":9048,"goblin":9049,"clusters":9050,"sleepy":9051,"9223372036":9052,"codehaus":9053,"216":9054,"399":9055,"419":9056,"8192":9057,"aff":9058,"b64":9059,"bdd":9060,"cbor":9061,"dsa":9062,"ein":9063,"f50":9064,"hmm":9065,"ien":9066,"iproduct":9067,"junk":9068,"kall":9069,"llo":9070,"pnet":9071,"pcap":9072,"q2":9073,"rid":9074,"r12":9075,"r16":9076,"rmsg":9077,"rich":9078,"rdf":9079,"rlua":9080,"sill":9081,"tu":9082,"wan":9083,"winde":9084,"yc":9085,"yay":9086,"└─":9087,"inel":9088,"invol":9089,"rei":9090,"recomm":9091,"orms":9092,"enclosing":9093,"strm":9094,"devil":9095,"meter":9096,"meep":9097,"seman":9098,"undo":9099,"unsh":9100,"undirected":9101,"unrestricted":9102,"ingest":9103,"maco":9104,"roar":9105,"chrei":9106,"ctime":9107,"lim":9108,"00b":9109,"idra":9110,"som":9111,"error1":9112,"kevy":9113,"getters":9114,"trawl":9115,"libthread":9116,"outspo":9117,"linspace":9118,"procs":9119,"belt":9120,"prg":9121,"node3":9122,"ipsum":9123,"12c3":9124,"suits":9125,"e0eb4":9126,"cudn":9127,"sake":9128,"imu":9129,"ainer":9130,"derives":9131,"0xc":9132,"113549":9133,"prediction":9134,"msv":9135,"ffmpeg":9136,"171":9137,"1714a":9138,"phf":9139,"miner":9140,"decaddr":9141,"508":9142,"heading":9143,"blocksize":9144,"glk":9145,"mule":9146,"identical":9147,"347":9148,"28a6":9149,"packs":9150,"ghidra":9151,"351":9152,"468":9153,"topping":9154,"475":9155,"476":9156,"filenames":9157,"distutils":9158,"decomp":9159,"invalidate":9160,"atomics":9161,"8828a6":9162,"receivers":9163,"583":9164,"scanf":9165,"kernel2":9166,"9704":9167,"corrupt":9168,"7f7":9169,"increments":9170,"carlo":9171,"carbon":9172,"shortcut":9173,"repeats":9174,"todoist":9175,"e7a":9176,"transports":9177,"deadline":9178,"blah2":9179,"parallellism":9180,"detach":9181,"iii":9182,"e0631":9183,"decimals":9184,"e8ee6":9185,"urschrei":9186,"sounds":9187,"alternating":9188,"truncated":9189,"dpdk":9190,"published":9191,"gyro":9192,"16712c3":9193,"youn":9194,"malkevy":9195,"sgbuf":9196,"0c2716712c3":9197,"biblio":9198,"persistent":9199,"hung":9200,"jhon":9201,"854775":9202,"149998":9203,"idiomatic":9204,"mozilla":9205,"windef":9206,"macosx":9207,"outspoken":9208,"cudnn":9209,"1714ae0eb4":9210,"8828a61714ae0eb4":9211,"malkevych":9212,"0c2716712c3e8ee6":9213,"020":9214,"1ul":9215,"2u64":9216,"280":9217,"3des":9218,"442":9219,"5i":9220,"532":9221,"a46":9222,"eme":9223,"ether":9224,"fred":9225,"frg":9226,"gwin":9227,"h7":9228,"hq":9229,"i746":9230,"jq":9231,"k0":9232,"lh":9233,"lcore":9234,"lstm":9235,"mate":9236,"nk":9237,"p4":9238,"preferences":9239,"q3":9240,"ried":9241,"sund":9242,"uz":9243,"udb":9244,"venv":9245,"wv":9246,"wshadow":9247,"in2":9248,"st1":9249,"erm":9250,"restart":9251,"rels":9252,"onoi":9253,"utious":9254,"strto":9255,"de8":9256,"unmanaged":9257,"rob":9258,"road":9259,"raster":9260,"rases":9261,"gem":9262,"nem":9263,"nelem":9264,"004":9265,"0050":9266,"int8":9267,"ida":9268,"idence":9269,"newstr":9270,"conrod":9271,"ultra":9272,"icator":9273,"aby":9274,"nou":9275,"datal":9276,"maths":9277,"usd":9278,"tioc":9279,"libunicode":9280,"libsolver":9281,"myptr":9282,"shout":9283,"oftrust":9284,"iou":9285,"trait1":9286,"beef":9287,"past":9288,"perl":9289,"permit":9290,"addon":9291,"hover":9292,"bage":9293,"cautious":9294,"indicates":9295,"spent":9296,"index1":9297,"saving":9298,"1615":9299,"syms":9300,"winnt":9301,"ferencing":9302,"enum1":9303,"1112":9304,"evidence":9305,"damage":9306,"future01":9307,"memmove":9308,"sslcontext":9309,"mann":9310,"opens":9311,"275":9312,"279":9313,"phrases":9314,"rustczf":9315,"webpki":9316,"temp1":9317,"headless":9318,"allocations":9319,"000000000":9320,"closure2":9321,"anymap":9322,"42u8":9323,"checksum":9324,"worlds":9325,"idx0":9326,"linuxbox":9327,"calendar":9328,"343":9329,"22t11":9330,"wasn":9331,"graded":9332,"dereferencing":9333,"interfaces":9334,"26f":9335,"secondary":9336,"modulo":9337,"places":9338,"352":9339,"converts":9340,"bb8":9341,"projectname":9342,"485":9343,"393":9344,"aaab":9345,"smc":9346,"uniq":9347,"2003":9348,"reps":9349,"niko":9350,"ushort":9351,"sha256with":9352,"cryptobox":9353,"sentinel":9354,"extracted":9355,"nannou":9356,"parallelvor":9357,"gpb":9358,"magick":9359,"a9a":9360,"measurements":9361,"keeping":9362,"lipse":9363,"0x559f":9364,"h1y1":9365,"meshes":9366,"henes":9367,"languages":9368,"integration":9369,"integrated":9370,"natural":9371,"999999":9372,"vdso":9373,"bracketed":9374,"averages":9375,"severity":9376,"garbage":9377,"lcpi0":9378,"fonts":9379,"blake2":9380,"essential":9381,"forwarder":9382,"crawl":9383,"permanent":9384,"wolf":9385,"xmldsig":9386,"extrinsic":9387,"trouble":9388,"gwinsz":9389,"i7469704":9390,"tiocgwinsz":9391,"rustczfh1y1":9392,"parallelvoronoi":9393,"042":9394,"1f8":9395,"4exec":9396,"524":9397,"611":9398,"864":9399,"8200":9400,"a64":9401,"abox":9402,"bh":9403,"band":9404,"blen":9405,"bunch":9406,"cad":9407,"cmsg":9408,"dh":9409,"dic":9410,"daniel":9411,"e5c":9412,"hmap":9413,"lrt":9414,"mdo":9415,"qo":9416,"rh":9417,"siz":9418,"t7":9419,"t18":9420,"u256":9421,"votes":9422,"x01":9423,"income":9424,"inconsistent":9425,"erp":9426,"renegotiation":9427,"ltei":9428,"strhello":9429,"ashes":9430,"ad0":9431,"adic":9432,"ges":9433,"formu":9434,"forgot":9435,"fortun":9436,"0060":9437,"foc":9438,"bod":9439,"boom":9440,"abra":9441,"abby":9442,"traffi":9443,"liblmdb":9444,"igrep":9445,"htable":9446,"hashtable":9447,"funny":9448,"ipld":9449,"weird":9450,"e0562":9451,"index2":9452,"http6handle":9453,"waiter":9454,"wave":9455,"clientc":9456,"0x10000":9457,"0xffffffff":9458,"hellobugs":9459,"slice1":9460,"slice2":9461,"finite":9462,"startproc":9463,"playing":9464,"ws200":9465,"17a":9466,"discover":9467,"───":9468,"minigrep":9469,"submodule":9470,"502":9471,"50dab":9472,"summed":9473,"elded":9474,"closure1":9475,"containers":9476,"linkage":9477,"married":9478,"344":9479,"ocd":9480,"reqgen":9481,"40slow":9482,"1001":9483,"260":9484,"268":9485,"taskbar":9486,"560":9487,"morestack":9488,"deflate":9489,"xxxxx":9490,"converting":9491,"opt1":9492,"59b":9493,"085":9494,"zeroes":9495,"policies":9496,"bring":9497,"corpus":9498,"7fed":9499,"libstdc":9500,"e0423":9501,"calculating":9502,"symfon":9503,"battle":9504,"ibm":9505,"prefixing":9506,"63fffffff":9507,"yelling":9508,"000000000000000000000000000000000000000000000000":9509,"python2":9510,"styled":9511,"x1b":9512,"contrast":9513,"evaluating":9514,"annotate":9515,"expands":9516,"yielded":9517,"recursively":9518,"2f9":9519,"shellapi":9520,"e0061":9521,"aeiou":9522,"c4273":9523,"quads":9524,"zn4http6handle":9525,"intrinsic":9526,"declarations":9527,"glider":9528,"banan":9529,"tinus":9530,"composable":9531,"courses":9532,"sentences":9533,"ejabby":9534,"sealed":9535,"siblings":9536,"philosophers":9537,"fst614":9538,"zn6thrust":9539,"canonicalize":9540,"e0392":9541,"unchanged":9542,"obviously":9543,"danger":9544,"entropy":9545,"libertinus":9546,"ferris":9547,"9223372036854775":9548,"kallsyms":9549,"silly":9550,"younger":9551,"traffic":9552,"ws2007fed":9553,"50dab63fffffff":9554,"40slow149998":9555,"symfony":9556,"ejabbyqy":9557,"fst61440slow149998":9558,"2number":9559,"3da":9560,"7rc":9561,"741":9562,"924":9563,"980":9564,"978":9565,"a6d":9566,"bird":9567,"c47":9568,"c88":9569,"dreq":9570,"fh":9571,"gv":9572,"h8":9573,"hkey":9574,"istream":9575,"jwt":9576,"krate":9577,"lg":9578,"larg":9579,"lkeys":9580,"mj":9581,"n7":9582,"oce":9583,"pdl":9584,"r5":9585,"tv1":9586,"vu":9587,"wp":9588,"wx":9589,"xhr":9590,"sthenes":9591,"gtx":9592,"gterm":9593,"ltcp":9594,"strcpy":9595,"lel":9596,"dem":9597,"meili":9598,"robert":9599,"exposed":9600,"ch10":9601,"adc":9602,"rup":9603,"forbid":9604,"004s":9605,"fos":9606,"nows":9607,"door":9608,"aper":9609,"lib2":9610,"librust":9611,"649":9612,"mytest":9613,"reful":9614,"refine":9615,"propos":9616,"testq":9617,"divisible":9618,"paul":9619,"additions":9620,"prng":9621,"u80":9622,"crt2":9623,"bast":9624,"e0210":9625,"vector2d":9626,"collecting":9627,"ptrd":9628,"callme":9629,"steve":9630,"0x16":9631,"preemp":9632,"startcom":9633,"binfo":9634,"first1":9635,"comming":9636,"storetype":9637,"buffer2":9638,"303":9639,"277":9640,"pos1":9641,"childs":9642,"ellipse":9643,"drogen":9644,"class1":9645,"998":9646,"428":9647,"irq":9648,"splits":9649,"calum":9650,"346":9651,"lasts":9652,"283":9653,"warm":9654,"261":9655,"traceback":9656,"importcert":9657,"merce":9658,"flag1":9659,"flag2":9660,"554":9661,"hydrogen":9662,"bb2":9663,"initializers":9664,"490":9665,"v2d":9666,"471":9667,"906":9668,"indirection":9669,"587":9670,"04x":9671,"seem":9672,"alto":9673,"skipping":9674,"timer2":9675,"shortlived":9676,"0f0f":9677,"lonlat":9678,"basically":9679,"median":9680,"c042":9681,"marked":9682,"95th":9683,"candies":9684,"bfp3":9685,"kitties":9686,"schedul":9687,"p0i8":9688,"slacker":9689,"starter":9690,"walkdir":9691,"leaves":9692,"intersects":9693,"movdqu":9694,"calculations":9695,"────────────":9696,"belonging":9697,"seats":9698,"roman2number":9699,"violation":9700,"levels":9701,"clubforce":9702,"poutbuf":9703,"tmpxft":9704,"throttle":9705,"reservation":9706,"noexecstack":9707,"tensorflow":9708,"scroll":9709,"eratosthenes":9710,"1048576":9711,"sunday":9712,"formula":9713,"focused":9714,"7rcbfp3":9715,"ocean":9716,"proposal":9717,"7rcbfp3g":9718,"0k":9719,"090":9720,"2s":9721,"286":9722,"3f64":9723,"40000":9724,"656":9725,"757":9726,"ave":9727,"a44":9728,"awaiter":9729,"burn":9730,"btail":9731,"dac":9732,"fadd":9733,"g9":9734,"gad":9735,"gid":9736,"gson":9737,"gmpf":9738,"irc":9739,"ivec2":9740,"kk":9741,"kot":9742,"katt":9743,"l3":9744,"mz":9745,"mnt":9746,"mrusty":9747,"n8":9748,"nine":9749,"pra":9750,"pch":9751,"pcr":9752,"rz":9753,"rkeys":9754,"slic":9755,"sreq":9756,"slex":9757,"tco":9758,"tchar":9759,"trent":9760,"t15":9761,"t100":9762,"ustr":9763,"wsh":9764,"wfloat":9765,"wwrite":9766,"wconversion":9767,"wundef":9768,"wredundant":9769,"ztree":9770,"zfar":9771,"zhang":9772,"├─":9773,"ltk":9774,"utions":9775,"ecycle":9776,"dela":9777,"devel":9778,"uncopyable":9779,"macs":9780,"mutref":9781,"covariance":9782,"race":9783,"cest":9784,"cheng":9785,"lol":9786,"loose":9787,"adler":9788,"geom":9789,"rum":9790,"rudol":9791,"005":9792,"0070":9793,"int3":9794,"bohd":9795,"32768":9796,"conson":9797,"nofollow":9798,"rsync":9799,"usb":9800,"resulting":9801,"trades":9802,"myfunction":9803,"lineno":9804,"explo":9805,"prox":9806,"iovec":9807,"tested":9808,"dient":9809,"pau":9810,"pareto":9811,"10i":9812,"perty":9813,"borrow2":9814,"borrower":9815,"fe7":9816,"ip2":9817,"pyclass":9818,"u32family":9819,"thread1":9820,"e0191":9821,"cudat":9822,"winline":9823,"winvalid":9824,"callsite":9825,"count1":9826,"0x6":9827,"0x03":9828,"avx":9829,"memblock":9830,"backing":9831,"19e":9832,"trusting":9833,"18n":9834,"servers":9835,"3046":9836,"278":9837,"decls":9838,"kers":9839,"signers":9840,"ello":9841,"current1":9842,"233":9843,"processable":9844,"irrelevant":9845,"chains":9846,"icate2":9847,"gradient":9848,"40b":9849,"queued":9850,"2820":9851,"matrix4f":9852,"pooling":9853,"swigger":9854,"hypot":9855,"375":9856,"bb1":9857,"bazel":9858,"f89":9859,"poller":9860,"487":9861,"596":9862,"492":9863,"nonnull":9864,"4626":9865,"787":9866,"overloaded":9867,"454":9868,"dist2":9869,"stamps":9870,"572":9871,"drm":9872,"777":9873,"582":9874,"kernels":9875,"pluck":9876,"atail":9877,"tsr":9878,"5456":9879,"xmm7":9880,"sndb":9881,"batched":9882,"googl":9883,"googleapis":9884,"vertex3d":9885,"terminator":9886,"dlsym":9887,"sister":9888,"advent":9889,"a058":9890,"negate":9891,"nlu":9892,"bluez":9893,"sudoku":9894,"a924":9895,"e0621":9896,"conversions":9897,"0x850dab63fffffff":9898,"probability":9899,"10923":9900,"sfml":9901,"suitable":9902,"zn4main":9903,"grandpa":9904,"abcdefg":9905,"giant":9906,"echec":9907,"hardware":9908,"intersectable":9909,"marshaller":9910,"portion":9911,"recieved":9912,"ascription":9913,"0x5574c8e3":9914,"severe":9915,"santa":9916,"dragon":9917,"27017":9918,"dma1":9919,"lcpi4":9920,"0x00007ff":9921,"mirr":9922,"zn6s":9923,"turbo":9924,"inflection":9925,"0x5574c8a10":9926,"interacting":9927,"p6q":9928,"19c94":9929,"fuzzy":9930,"prototypes":9931,"spreadsheet":9932,"traversal":9933,"dialect":9934,"c14n":9935,"favorite":9936,"msvcrt":9937,"ws2007federation":9938,"larger":9939,"oceania":9940,"kattis":9941,"slexom":9942,"tcod":9943,"zhangcheng":9944,"rudolph":9945,"bohdan":9946,"1fa":9947,"310":9948,"4cuda":9949,"50000":9950,"547":9951,"7ae":9952,"a66":9953,"bcc":9954,"bcx":9955,"bfc":9956,"bd0":9957,"balk":9958,"brush":9959,"cit":9960,"dget":9961,"df1":9962,"fml":9963,"f33":9964,"gj":9965,"h5":9966,"hci":9967,"hdk":9968,"j1":9969,"lru":9970,"lcs":9971,"nparts":9972,"preference":9973,"rdata":9974,"sma":9975,"scl":9976,"ulate":9977,"vsize":9978,"vfio":9979,"wenum":9980,"wish":9981,"wuninitialized":9982,"ypt":9983,"ltip":9984,"atre":9985,"mp4":9986,"onal":9987,"endef":9988,"enc1":9989,"ecac":9990,"strace":9991,"thang":9992,"thresh":9993,"meh":9994,"sest":9995,"seas":9996,"unay":9997,"macho":9998,"rogate":9999,"mutating":10000,"quiet":10001,"ctr":10002,"stringable":10003,"sergio":10004,"boil":10005,"32f":10006,"rustbuild":10007,"rustlink":10008,"rustffi":10009,"conserv":10010,"impsest":10011,"theatre":10012,"getrandom":10013,"mofire":10014,"ssize":10015,"somestring":10016,"someval":10017,"trn":10018,"itez":10019,"libcfg":10020,"end1":10021,"myserver":10022,"mytool":10023,"refcell":10024,"propa":10025,"hell":10026,"heorem":10027,"test4":10028,"testf":10029,"vich":10030,"iterator2":10031,"bufsize":10032,"ba9":10033,"bacon":10034,"fe3":10035,"1200":10036,"list1":10037,"rence":10038,"sugar":10039,"charlie":10040,"tptr":10041,"thisis":10042,"thiserror":10043,"spir":10044,"independ":10045,"2021":10046,"mod64":10047,"0x28":10048,"0x78":10049,"1196":10050,"hello2":10051,"sliced":10052,"odu":10053,"voice":10054,"prep":10055,"preset":10056,"predict":10057,"inserting":10058,"handle2":10059,"db1":10060,"dbf":10061,"subpixel":10062,"summation":10063,"referred":10064,"signatures":10065,"allocs":10066,"241":10067,"syncing":10068,"locals":10069,"993":10070,"995":10071,"imag":10072,"androidx":10073,"ngram":10074,"homepage":10075,"joe":10076,"expr2":10077,"408":10078,"4048":10079,"postal":10080,"hail":10081,"scrypt":10082,"double4":10083,"262":10084,"354":10085,"294":10086,"study":10087,"protoc":10088,"fd6":10089,"benitez":10090,"907":10091,"jud":10092,"rwx":10093,"570":10094,"databases":10095,"freeze":10096,"flu":10097,"divid":10098,"969":10099,"timestamped":10100,"snack":10101,"badness":10102,"74ff":10103,"ignores":10104,"0x00000":10105,"sigma":10106,"branches":10107,"sigterm":10108,"1234567":10109,"relro":10110,"tooltip":10111,"detached":10112,"otool":10113,"e0034":10114,"picker":10115,"stage1":10116,"stages":10117,"reported":10118,"0x4000":10119,"duplicates":10120,"nathan":10121,"buckets":10122,"palimpsest":10123,"comparator":10124,"octet":10125,"powered":10126,"spinners":10127,"tqi":10128,"separators":10129,"invoking":10130,"guesses":10131,"e0312":10132,"wow64":10133,"unfoldr":10134,"kilo":10135,"alamofire":10136,"4321":10137,"qrcode":10138,"sorry":10139,"200702":10140,"waldo":10141,"3306":10142,"revisions":10143,"stroke":10144,"impersonate":10145,"gracefully":10146,"pep517":10147,"argtypes":10148,"datatheorem":10149,"summarize":10150,"97932":10151,"celsius":10152,"overridden":10153,"replacer":10154,"bytecode":10155,"petrovich":10156,"4294967295":10157,"datalink":10158,"delaunay":10159,"googlecom":10160,"turbofish":10161,"4cuda6detail":10162,"balken":10163,"conservative":10164,"028":10165,"1i64":10166,"1ea":10167,"2j":10168,"332":10169,"356":10170,"413":10171,"530":10172,"580":10173,"5tuple":10174,"6379":10175,"9v":10176,"9null":10177,"ahead":10178,"a53":10179,"bba":10180,"brand":10181,"b000":10182,"b06":10183,"c64":10184,"dde":10185,"e19c94":10186,"gmp":10187,"gpl":10188,"ires":10189,"i18n":10190,"jame":10191,"jss":10192,"jet":10193,"kq":10194,"kle":10195,"kfp":10196,"lx":10197,"mbuf":10198,"m256":10199,"msta":10200,"nbin":10201,"nak":10202,"ptype":10203,"pmove":10204,"qty":10205,"rin":10206,"sname":10207,"sip":10208,"tidx":10209,"tsq":10210,"tdp":10211,"uy":10212,"wy":10213,"xa":10214,"ymax":10215,"zxc":10216,"世界":10217,"insecure":10218,"redox":10219,"mpty":10220,"enqueue":10221,"arme":10222,"ec8":10223,"str3":10224,"deserial":10225,"ancer":10226,"maze":10227,"asick":10228,"chs":10229,"iser":10230,"stringy":10231,"idl":10232,"bold":10233,"rustmark":10234,"usegs":10235,"bust":10236,"theta":10237,"ummy":10238,"ldr":10239,"data4":10240,"pol":10241,"polled":10242,"trun":10243,"tier":10244,"librt":10245,"libhashbrown":10246,"my2":10247,"outliers":10248,"progra":10249,"profiles":10250,"proced":10251,"held":10252,"trait2":10253,"espres":10254,"time1":10255,"okta":10256,"keyctl":10257,"prb":10258,"upgraded":10259,"numthreads":10260,"hole":10261,"hough":10262,"statics":10263,"listex":10264,"listed":10265,"caca":10266,"cull":10267,"redraw":10268,"reddit":10269,"iles":10270,"2011":10271,"pointing":10272,"serialisable":10273,"plaza":10274,"syst":10275,"winrt":10276,"imgre":10277,"licity":10278,"0x54":10279,"0x2c":10280,"ix2":10281,"hellow":10282,"col1":10283,"13t":10284,"openocd":10285,"fmtstr":10286,"274":10287,"pher":10288,"ryu":10289,"webcord":10290,"507":10291,"child0":10292,"dir1":10293,"glu":10294,"class2":10295,"99e":10296,"bitset":10297,"ideally":10298,"depending":10299,"empties":10300,"merkle":10301,"pins":10302,"366":10303,"initialise":10304,"initialised":10305,"e0275":10306,"gametest":10307,"444":10308,"heights":10309,"496":10310,"protos":10311,"cypher":10312,"assignments":10313,"452":10314,"blks":10315,"vcpy":10316,"bri":10317,"brate":10318,"enumeration":10319,"toto":10320,"gpus":10321,"considered":10322,"xsi":10323,"corasick":10324,"multiples":10325,"buttons":10326,"53eb":10327,"wants":10328,"limits":10329,"continues":10330,"namespaces":10331,"0b00000000":10332,"dddd":10333,"setuptools":10334,"particip":10335,"entering":10336,"50013":10337,"6f57":10338,"dup2":10339,"tooth":10340,"snippet":10341,"e4a":10342,"fasta":10343,"ructors":10344,"6d912":10345,"sz1":10346,"everyone":10347,"accumulate":10348,"a5d":10349,"reasons":10350,"0x8000":10351,"9c94":10352,"duplicated":10353,"migrate":10354,"parens":10355,"destructuring":10356,"tracks":10357,"thumbprint":10358,"rollback":10359,"organizations":10360,"fizzbuzz":10361,"purposes":10362,"decorated":10363,"instrumented":10364,"sixteen":10365,"scenes":10366,"ranlib":10367,"ometer":10368,"consistency":10369,"initiate":10370,"million":10371,"profiling":10372,"e0609":10373,"june":10374,"billing":10375,"datatype":10376,"isaac64":10377,"birth":10378,"privile":10379,"ancestors":10380,"862b9bc":10381,"mtiller":10382,"u2018output":10383,"tricky":10384,"spooks":10385,"george":10386,"parasail":10387,"semantic":10388,"hungry":10389,"nemlog":10390,"scheduling":10391,"282050013":10392,"7ae74ff":10393,"googlecommerce":10394,"e19c94cf":10395,"mstaves":10396,"armeabi":10397,"espresso":10398,"imgrel":10399,"7ae74ff6d912":10400,"464":10401,"435":10402,"4cg":10403,"4star":10404,"540":10405,"6system":10406,"6326":10407,"827":10408,"9000":10409,"945":10410,"aj":10411,"a32":10412,"blit":10413,"bright":10414,"btc":10415,"bish":10416,"bcd":10417,"c56":10418,"cmath":10419,"dcc":10420,"evil":10421,"f16":10422,"fcf":10423,"hue":10424,"ksize":10425,"kbytes":10426,"knows":10427,"lor":10428,"lvalue":10429,"ljava":10430,"mec":10431,"nrow":10432,"nvm":10433,"plo":10434,"pand":10435,"ptx":10436,"psw":10437,"pclip":10438,"preserved":10439,"qsort":10440,"qwer":10441,"ridx":10442,"skey":10443,"sprintf":10444,"twid":10445,"u3":10446,"wu":10447,"wers":10448,"wmi":10449,"yor":10450,"zd":10451,"╶─┼":10452,"stere":10453,"ec97":10454,"strerror":10455,"defs":10456,"unfortun":10457,"robust":10458,"asn":10459,"towers":10460,"ed25519":10461,"adop":10462,"ad38":10463,"adummy":10464,"vec32":10465,"ission":10466,"intended":10467,"ately":10468,"valor":10469,"impro":10470,"ically":10471,"ldou":10472,"noinline":10473,"somefile":10474,"itempro":10475,"result3":10476,"traject":10477,"libk":10478,"libcudart":10479,"boxing":10480,"myf":10481,"mystr":10482,"myclass":10483,"processes":10484,"ioman":10485,"traits2":10486,"option1":10487,"1011":10488,"add2":10489,"additive":10490,"born":10491,"hob":10492,"barks":10493,"clones":10494,"curve":10495,"py3":10496,"char16":10497,"e0117":10498,"e0451":10499,"line3":10500,"spim":10501,"spection":10502,"indexable":10503,"pointed":10504,"1677":10505,"acb7":10506,"secext":10507,"0x1f":10508,"sends":10509,"ods":10510,"1999":10511,"ffd":10512,"ws2007":10513,"commission":10514,"17d":10515,"discounts":10516,"child3":10517,"heads":10518,"looping":10519,"990":10520,"992":10521,"cfhttp":10522,"selves":10523,"finding":10524,"movzx":10525,"mariet":10526,"tool1":10527,"bitflag":10528,"last1":10529,"expr1":10530,"406f57":10531,"tmp1":10532,"336":10533,"afford":10534,"zippy":10535,"563":10536,"383":10537,"353":10538,"357":10539,"instance0":10540,"scripting":10541,"363":10542,"initializing":10543,"mdt":10544,"447":10545,"module2":10546,"392":10547,"searched":10548,"midnight":10549,"ags":10550,"replaces":10551,"herd":10552,"template2":10553,"660":10554,"armhf":10555,"e0503":10556,"simplicity":10557,"outercount":10558,"continu":10559,"tonic":10560,"finishing":10561,"termios":10562,"gotpcrel":10563,"065":10564,"enables":10565,"ea858":10566,"nia":10567,"digit1":10568,"0700":10569,"solutions":10570,"iness":10571,"dots":10572,"many0":10573,"1fb6":10574,"sheets":10575,"e0384":10576,"ucing":10577,"uclibc":10578,"ef7":10579,"94ea858":10580,"bf6":10581,"71a924":10582,"surname":10583,"surround":10584,"surrogate":10585,"ggg":10586,"nlp":10587,"snips":10588,"histories":10589,"padded":10590,"lights":10591,"velocities":10592,"integrator":10593,"3fad38":10594,"e63046":10595,"produced":10596,"8001":10597,"slowly":10598,"polyline":10599,"65537":10600,"hd3fad38":10601,"mat4x4":10602,"challenger":10603,"operands":10604,"eeeens":10605,"oleh":10606,"ole10":10607,"earth":10608,"fdsfds":10609,"canonicalization":10610,"shopping":10611,"7804":10612,"73671a924":10613,"lefto":10614,"moderator":10615,"pagination":10616,"0x10910":10617,"simulations":10618,"pacman":10619,"currentcharcount":10620,"battlefield":10621,"2f94467":10622,"9223372036854775809":10623,"meilisearch":10624,"bastien":10625,"kotlin":10626,"thisisadummy":10627,"independent":10628,"1196e63046":10629,"voicebox":10630,"snacks":10631,"naked":10632,"participants":10633,"4cgab":10634,"╶─┼╴":10635,"ldouble":10636,"itemproperty":10637,"iomanip":10638,"ws2007http":10639,"marietta":10640,"406f571196e63046":10641,"94ea8584cgab":10642,"hd3fad3894ea8584cgab":10643,"73671a9242f94467":10644,"thisisadummyseed":10645,"0100":10646,"1b3":10647,"2f64":10648,"218":10649,"3new":10650,"412":10651,"411":10652,"425":10653,"528":10654,"735":10655,"880":10656,"839":10657,"9s":10658,"9panicking":10659,"9f3":10660,"auct":10661,"a55":10662,"a59":10663,"a96":10664,"bth":10665,"bread":10666,"bbe":10667,"bond":10668,"bplus":10669,"cen":10670,"cpl":10671,"dq":10672,"eon":10673,"etry":10674,"f80":10675,"f77":10676,"iw":10677,"iid":10678,"jm":10679,"jw":10680,"jol":10681,"jclass":10682,"jitter":10683,"ked":10684,"lpc":10685,"mild":10686,"nf":10687,"nnew":10688,"nss":10689,"ndr":10690,"ode":10691,"p15":10692,"q0":10693,"sct":10694,"sret":10695,"vr":10696,"yp":10697,"ycb":10698,"yea":10699,"yaho":10700,"zmax":10701,"zom":10702,"stim":10703,"stay":10704,"ery":10705,"realloc":10706,"atrust":10707,"mpy":10708,"en1":10709,"ecl":10710,"alsa":10711,"leaving":10712,"design":10713,"thand":10714,"coplan":10715,"rape":10716,"exidx":10717,"vect3":10718,"neither":10719,"forall":10720,"forces":10721,"0080":10722,"ism":10723,"fist":10724,"urious":10725,"rustpress":10726,"typing":10727,"vals1":10728,"concep":10729,"implied":10730,"kell":10731,"tear":10732,"lla":10733,"getcwd":10734,"nobody":10735,"noreferrer":10736,"mother":10737,"usa":10738,"ssid":10739,"dataframe":10740,"sometimes":10741,"pour":10742,"police":10743,"poetry":10744,"results1":10745,"vergen":10746,"outfile":10747,"hehe":10748,"be3da":10749,"ret2":10750,"1028":10751,"keydown":10752,"perse":10753,"uploaded":10754,"num3":10755,"numtype":10756,"bail":10757,"barray":10758,"barometer":10759,"12pt":10760,"subarray":10761,"spc":10762,"spurious":10763,"httpclient":10764,"wincon":10765,"mod1":10766,"var3":10767,"cell0":10768,"0x27":10769,"0x36":10770,"0x48":10771,"0x04":10772,"floatdev":10773,"odbc":10774,"json1":10775,"mandel":10776,"start1":10777,"begins":10778,"inits":10779,"buffer1":10780,"buffersize":10781,"2518":10782,"depended":10783,"27a":10784,"configuring":10785,"subvec":10786,"subsequence":10787,"tempfile":10788,"angles":10789,"current2":10790,"maxes":10791,"dir2":10792,"24t13":10793,"autow":10794,"806":10795,"spawning":10796,"capable":10797,"base58":10798,"rootfs":10799,"28e":10800,"lates":10801,"scopeguard":10802,"267":10803,"26214":10804,"scrape":10805,"prices":10806,"place17h":10807,"292":10808,"integrand":10809,"initials":10810,"489":10811,"395":10812,"playerdata":10813,"087":10814,"fdd":10815,"blan":10816,"abc123":10817,"888d":10818,"suppress":10819,"suppressed":10820,"modelview":10821,"trustedstores":10822,"ndz":10823,"segfault":10824,"outer2":10825,"although":10826,"ief":10827,"basename":10828,"grey":10829,"emailaddress":10830,"flowc":10831,"61a6d":10832,"currid":10833,"0b11":10834,"c82e":10835,"lbb3":10836,"lbb4":10837,"lbb5":10838,"initializes":10839,"slc":10840,"b91fb6":10841,"forwardable":10842,"evaluatable":10843,"efb":10844,"frexp":10845,"bluetooth":10846,"giveback":10847,"hints":10848,"standards":10849,"stmts":10850,"pxtimessp":10851,"bd7":10852,"p040":10853,"flipper":10854,"destinations":10855,"svn":10856,"balls":10857,"awk":10858,"awt":10859,"hora":10860,"divisors":10861,"assumes":10862,"polymorph":10863,"rdwr":10864,"implementor2":10865,"999u32":10866,"fluids":10867,"paritytech":10868,"cxxflags":10869,"overlap":10870,"exponential":10871,"oopsie":10872,"13204":10873,"brackets":10874,"excluded":10875,"percentage":10876,"nouns":10877,"130px":10878,"oauth2":10879,"miri":10880,"iniline":10881,"compressor":10882,"erased":10883,"0x00005555556":10884,"punctuation":10885,"sodiumoxide":10886,"5687f":10887,"zn4core3ptr":10888,"parentheses":10889,"wso2carbon":10890,"dwarf":10891,"ordinal":10892,"1f7b91fb6":10893,"spellcheck":10894,"recommended":10895,"corrupted":10896,"a05864":10897,"lcsfml":10898,"9793238":10899,"surrounding":10900,"3new20h":10901,"auctions":10902,"eonil":10903,"ycbcr":10904,"yahoo":10905,"stimer":10906,"coplanar":10907,"be3daa05864":10908,"floatdevptr":10909,"888d1f7b91fb6":10910,"61a6dbe3daa05864":10911,"polymorphic":10912,"888d1f7b91fb6e4a":10913,"2u32":10914,"3f32":10915,"4i":10916,"436":10917,"8e7":10918,"ared":10919,"a25":10920,"a000":10921,"bj":10922,"bab":10923,"c32":10924,"cab":10925,"c30":10926,"c339":10927,"c5687f":10928,"dtype":10929,"dtor":10930,"e64":10931,"eaa":10932,"fbuzz":10933,"gx":10934,"iq":10935,"kid":10936,"lut":10937,"lond":10938,"lcublas":10939,"mond":10940,"mrb":10941,"nq":10942,"nkey":10943,"p8":10944,"pci":10945,"pwsz":10946,"qw":10947,"r7":10948,"s7":10949,"sation":10950,"scape":10951,"tec":10952,"tsk":10953,"tns":10954,"tangent":10955,"ua":10956,"usted":10957,"vbo":10958,"v13":10959,"vote":10960,"wb":10961,"xo":10962,"ymin":10963,"yote":10964,"yko":10965,"zq":10966,"inference":10967,"erts":10968,"renamed":10969,"reusable":10970,"mpg":10971,"ampler":10972,"ales":10973,"dequeue":10974,"deserialization":10975,"thin":10976,"uncaught":10977,"unmarshaller":10978,"mutx":10979,"coder":10980,"coyote":10981,"quar":10982,"exc1":10983,"topo":10984,"chiki":10985,"ructing":10986,"stdenv":10987,"00d2":10988,"isi":10989,"island":10990,"pets":10991,"bog":10992,"boy":10993,"rusttest":10994,"vale":10995,"valico":10996,"izi":10997,"conven":10998,"iterating":10999,"busy":11000,"abe":11001,"foo4":11002,"nounwind":11003,"mos":11004,"rsqrt":11005,"mapt":11006,"data3":11007,"somevalue":11008,"tide":11009,"ckler":11010,"libclang":11011,"liblonlat":11012,"endforeach":11013,"mykey":11014,"myarr":11015,"outgo":11016,"linalg":11017,"ioexc1":11018,"htm":11019,"putback":11020,"divided":11021,"timestep":11022,"perime":11023,"periph":11024,"upd":11025,"node0":11026,"wordy":11027,"hoge":11028,"homo":11029,"coms":11030,"feel":11031,"tailed":11032,"1299":11033,"e0f":11034,"e0161":11035,"locator":11036,"cliques":11037,"raymond":11038,"actg":11039,"0x06":11040,"0x5f":11041,"genet":11042,"1181":11043,"floaty":11044,"evmap":11045,"memtable":11046,"spacer":11047,"865":11048,"respect":11049,"1364":11050,"wsman":11051,"184467":11052,"307":11053,"trycreate":11054,"disambigu":11055,"dbhandle":11056,"decay":11057,"el1":11058,"802":11059,"waitpid":11060,"anywhere":11061,"anyway":11062,"muls":11063,"994":11064,"movsd":11065,"chained":11066,"bitvec":11067,"bitangent":11068,"3460":11069,"porter":11070,"octh":11071,"tuple1":11072,"281":11073,"scopes":11074,"335":11075,"337":11076,"intermedi":11077,"v1s":11078,"matrix3d":11079,"sqlcipher":11080,"apikey":11081,"rtld":11082,"importing":11083,"5544":11084,"359":11085,"3593":11086,"bb6":11087,"3639":11088,"445":11089,"f8e":11090,"595":11091,"multith":11092,"accessors":11093,"csr":11094,"customize":11095,"uniuni":11096,"renderers":11097,"globl":11098,"v2s":11099,"479":11100,"afteriter":11101,"laratrust":11102,"tlsv1":11103,"mm256":11104,"775":11105,"sleeps":11106,"monkey":11107,"autorelease":11108,"normalized":11109,"complex64":11110,"97f":11111,"9793":11112,"fills":11113,"9846":11114,"ieu":11115,"968":11116,"legs":11117,"0955":11118,"forceinline":11119,"multiline":11120,"approval":11121,"optimizable":11122,"ddd":11123,"characteristics":11124,"255u8":11125,"combinable":11126,"particular":11127,"backend1":11128,"seeds":11129,"evaluates":11130,"delayed":11131,"passport":11132,"caching":11133,"expanding":11134,"frees":11135,"projets":11136,"machines":11137,"luke":11138,"luhn":11139,"commented":11140,"jem":11141,"oooo":11142,"qt5gui":11143,"d4f":11144,"nixpkgs":11145,"reporting":11146,"represented":11147,"walls":11148,"0x0a":11149,"fruitlist":11150,"alternatively":11151,"comparing":11152,"wheels":11153,"rollgui":11154,"6b54":11155,"contacts":11156,"440737":11157,"frequencies":11158,"ehler":11159,"nrf5":11160,"seasons":11161,"gettingrusty":11162,"simpler":11163,"escapes":11164,"kuchiki":11165,"parked":11166,"sharp":11167,"sanitize":11168,"harfbuzz":11169,"lcpi2":11170,"exhausted":11171,"ipv6network":11172,"motion":11173,"allerg":11174,"0x7fff61":11175,"vvvvvvvv":11176,"sfackler":11177,"descendants":11178,"burger":11179,"silent":11180,"easier":11181,"f9df32":11182,"lanczos":11183,"pract":11184,"dividend":11185,"a53f9df32":11186,"james":11187,"6system4cuda6detail":11188,"unfortunately":11189,"trajectories":11190,"leftover":11191,"73528e":11192,"zomb":11193,"teardown":11194,"london":11195,"ykoehler":11196,"outgoint":11197,"perimeter":11198,"184467440737":11199,"mulsd":11200,"73528e339":11201,"1844674407370955":11202,"016":11203,"050":11204,"0101":11205,"2u":11206,"2i64":11207,"4main":11208,"450":11209,"424":11210,"5ad":11211,"511":11212,"50000000":11213,"627":11214,"786":11215,"7m4":11216,"8u":11217,"814":11218,"8443":11219,"ake":11220,"a40":11221,"a47":11222,"a69":11223,"bce":11224,"b88":11225,"baml":11226,"bsl":11227,"c98":11228,"c6c":11229,"dable":11230,"drwxr":11231,"fis":11232,"f18":11233,"gf":11234,"gk":11235,"gol":11236,"hk":11237,"hive":11238,"hba":11239,"ih":11240,"j2":11241,"jf":11242,"jce":11243,"jvalue":11244,"j52":11245,"k8":11246,"kids":11247,"lator":11248,"landroid":11249,"lala":11250,"mw":11251,"mwe":11252,"mkeysv":11253,"m9v":11254,"ngth":11255,"oet":11256,"pnum":11257,"pdst":11258,"rr2":11259,"u0":11260,"ukeys":11261,"uv2":11262,"vbox":11263,"vph":11264,"wch":11265,"wil":11266,"wstrict":11267,"xd":11268,"x500":11269,"yout":11270,"yaw":11271,"zo":11272,"zp":11273,"in3":11274,"ined":11275,"inform":11276,"stics":11277,"stick":11278,"relay":11279,"realt":11280,"atmos":11281,"mport":11282,"orida":11283,"itf":11284,"ara":11285,"ecb":11286,"alan":11287,"delic":11288,"dealer":11289,"anbsl":11290,"seva":11291,"unrelated":11292,"rook":11293,"coco":11294,"raven":11295,"cee":11296,"chg":11297,"chir":11298,"forum":11299,"forks":11300,"0039":11301,"resampler":11302,"ficult":11303,"boi":11304,"323":11305,"rustcode":11306,"sover":11307,"main2":11308,"kestre":11309,"andi":11310,"abd":11311,"pubkey":11312,"noop":11313,"rcdom":11314,"mato":11315,"mations":11316,"datastore":11317,"tr2":11318,"lib1":11319,"liblog":11320,"libnpp":11321,"wraps":11322,"mymod":11323,"myproject":11324,"mypackage":11325,"mysite":11326,"mycompany":11327,"shard":11328,"refut":11329,"paris":11330,"linder":11331,"exp1":11332,"test123":11333,"testbed":11334,"bea":11335,"diameter":11336,"among":11337,"10u32":11338,"10device":11339,"1013":11340,"1061":11341,"10m9v":11342,"strength":11343,"sufficient":11344,"pymodule":11345,"wels":11346,"e0368":11347,"vectorized":11348,"indx":11349,"http2":11350,"20a":11351,"20hd3fad3894ea8584cgab":11352,"inputbot":11353,"thingie":11354,"winner":11355,"ac4":11356,"modb":11357,"vary":11358,"count2":11359,"0x05":11360,"0x2000":11361,"avro":11362,"ix3":11363,"vowels":11364,"mtx2":11365,"13drop":11366,"start28":11367,"starttls":11368,"start17h":11369,"plays":11370,"1415":11371,"reader2":11372,"15normal":11373,"etime2":11374,"pos0":11375,"minim":11376,"systemstats":11377,"dbl":11378,"webreq":11379,"deci":11380,"tempdir":11381,"sumof":11382,"loaders":11383,"allocates":11384,"2391":11385,"variadic":11386,"link1":11387,"irara":11388,"capabilities":11389,"imagebuf":11390,"tupl":11391,"bitcoin":11392,"22d":11393,"40b3":11394,"21b":11395,"guide":11396,"sysv":11397,"syslog":11398,"piano":11399,"doubled":11400,"lagrange":11401,"matrix3":11402,"pool1":11403,"pool2":11404,"381":11405,"38f":11406,"swim":11407,"pt1":11408,"558":11409,"35m":11410,"35request":11411,"hy40000":11412,"ww7m4":11413,"bbswitch":11414,"registrable":11415,"441":11416,"44d":11417,"483":11418,"singl":11419,"nonblock":11420,"087fe":11421,"internally":11422,"popped":11423,"458":11424,"903":11425,"909":11426,"cmd2":11427,"665":11428,"669":11429,"6665":11430,"887c":11431,"88hy40000":11432,"10896":11433,"575":11434,"mono":11435,"brief":11436,"10001":11437,"674":11438,"606":11439,"florida":11440,"follo":11441,"segv":11442,"rb5":11443,"alien":11444,"98798":11445,"timers":11446,"96e":11447,"eager":11448,"76ww7m4":11449,"ppm":11450,"brains":11451,"intents":11452,"todolist":11453,"fc9":11454,"fc31":11455,"duff":11456,"computes":11457,"day1":11458,"e0500":11459,"directions":11460,"sigsegv":11461,"geocoding":11462,"nombre":11463,"stylesheet":11464,"efgh":11465,"candle":11466,"tvdb":11467,"deadbeef":11468,"v3s":11469,"micros":11470,"bobby":11471,"booter":11472,"adapt":11473,"n1j52":11474,"agent3":11475,"receives":11476,"0x00u8":11477,"e0614":11478,"destroying":11479,"kelvin":11480,"0x10912":11481,"zeus":11482,"0x555555":11483,"0x55c042":11484,"0x558e7":11485,"00000001":11486,"assetlinks":11487,"sensors":11488,"gaus":11489,"c7087fe":11490,"piston2d":11491,"456c47":11492,"behaviours":11493,"house2":11494,"executables":11495,"potentially":11496,"organisation":11497,"da926":11498,"clauses":11499,"crlf":11500,"veggies":11501,"bvu":11502,"xc88hy40000":11503,"jake":11504,"businessunit":11505,"12345678901234567890123456789012345678901234567890123456789012345678901234567890":11506,"slide":11507,"woof":11508,"3053639":11509,"dtoa":11510,"guarantee":11511,"diagnostics":11512,"matthieu":11513,"e0605":11514,"strology":11515,"beetle":11516,"detecting":11517,"oolkit":11518,"peaks":11519,"hugepages":11520,"dolor":11521,"crossover":11522,"altered":11523,"tickers":11524,"dalek":11525,"perfect":11526,"qemu":11527,"sslsocketfactory":11528,"simulated":11529,"raspberrypi":11530,"cdnjs":11531,"httparse":11532,"genesys":11533,"lapack":11534,"0000000042000":11535,"straight":11536,"53491":11537,"andreas":11538,"7f45b7":11539,"abyte":11540,"4exec20hd3fad3894ea8584cgab":11541,"bandwidth":11542,"zn4http6handle35request":11543,"bananas":11544,"cudatoolkit":11545,"mirror":11546,"ecacerts":11547,"jssecacerts":11548,"oktarequest":11549,"twiddle":11550,"stereo":11551,"1b33053639":11552,"policeman":11553,"262144":11554,"zn4core3ptr13drop":11555,"disambiguate":11556,"intermediates":11557,"delicious":11558,"sevajol":11559,"kestrel":11560,"10m9vxc88hy40000":11561,"76ww7m4n1j52":11562,"0x558e7da926":11563,"1b33053639456c47":11564,"10m9vxc88hy40000gn":11565,"76ww7m4n1j5210m9vxc88hy40000gn":11566,"018":11567,"021":11568,"0111":11569,"1ce":11570,"2q":11571,"355":11572,"3161":11573,"4int":11574,"4time":11575,"478":11576,"510":11577,"533":11578,"5a7":11579,"629":11580,"601":11581,"703":11582,"926":11583,"956":11584,"aer":11585,"bmp":11586,"bno":11587,"cmov":11588,"cdecl":11589,"cspice":11590,"dtr":11591,"d10":11592,"dfe":11593,"e22":11594,"emul":11595,"f6f":11596,"gut":11597,"gig":11598,"gated":11599,"gps":11600,"girara":11601,"iex":11602,"ibytes":11603,"ipow":11604,"jy":11605,"kp":11606,"kal":11607,"kcov":11608,"lj":11609,"lchar":11610,"lsa":11611,"lcompiler":11612,"lints":11613,"lxc":11614,"nur":11615,"ncol":11616,"psize":11617,"pidx":11618,"qg":11619,"rj":11620,"rmp":11621,"rile":11622,"r13":11623,"rr1":11624,"sj":11625,"ske":11626,"spy":11627,"sparse":11628,"t9":11629,"uu":11630,"uv1":11631,"ufil":11632,"v32":11633,"vmax":11634,"xchg":11635,"zmin":11636,"react":11637,"reproduction":11638,"attra":11639,"enue":11640,"enclose":11641,"ensures":11642,"aro":11643,"aria":11644,"alen":11645,"lebrate":11646,"de0":11647,"delimit":11648,"deserializing":11649,"thaw":11650,"mad":11651,"robo":11652,"coefficient":11653,"coales":11654,"ioned":11655,"aspx":11656,"celebrate":11657,"adopt":11658,"res1":11659,"new2":11660,"so538":11661,"conscrypt":11662,"buider":11663,"veyor":11664,"getchar":11665,"mated":11666,"mat4f":11667,"someone":11668,"itest":11669,"mypassword":11670,"shin":11671,"lace":11672,"exp2":11673,"prolog":11674,"proverb":11675,"fa49":11676,"testa":11677,"haskell":11678,"1080":11679,"crashes":11680,"hash160":11681,"bared":11682,"taker":11683,"streamlines":11684,"appcompat":11685,"appveyor":11686,"canary":11687,"ca1":11688,"charge":11689,"thread2":11690,"e0cd":11691,"e0225":11692,"vector0":11693,"spn":11694,"spiders":11695,"user2":11696,"20acb7":11697,"clic":11698,"pusher":11699,"next1":11700,"externs":11701,"winning":11702,"array1d":11703,"0x18":11704,"0x1234":11705,"memcmp":11706,"trusk":11707,"voc":11708,"prey":11709,"preload":11710,"1941":11711,"19df1":11712,"13c0":11713,"trusts":11714,"object1":11715,"1406":11716,"1475":11717,"clos":11718,"302":11719,"30e":11720,"cudadev":11721,"mini":11722,"validated":11723,"subj":11724,"506":11725,"signcode":11726,"dropdown":11727,"8081":11728,"lesser":11729,"waits":11730,"cc2":11731,"ccx":11732,"996":11733,"9949":11734,"cf14":11735,"cf48":11736,"422":11737,"checkpoint":11738,"sortable":11739,"capsu":11740,"imageops":11741,"rights":11742,"marks":11743,"tx2":11744,"archived":11745,"40a5d":11746,"2892":11747,"tmpr":11748,"objc":11749,"ghib":11750,"defg":11751,"swecl":11752,"mercur":11753,"374":11754,"pinmode":11755,"tttt":11756,"44100":11757,"species":11758,"gitignore":11759,"465":11760,"fd1":11761,"fdopen":11762,"middlen":11763,"synthe":11764,"origins":11765,"needless":11766,"naufil":11767,"2002":11768,"472":11769,"x509data":11770,"supposed":11771,"771":11772,"585":11773,"cpuinfo":11774,"f1a46":11775,"672":11776,"normalise":11777,"43b0":11778,"alpha1":11779,"thanks":11780,"oldvector":11781,"00000011":11782,"transmuted":11783,"closest":11784,"closeable":11785,"ea887c":11786,"greatest":11787,"707":11788,"a1d":11789,"attr1":11790,"0b5f4":11791,"wards":11792,"7580":11793,"69f":11794,"resolves":11795,"backend2":11796,"tid1":11797,"b9d":11798,"markdown":11799,"851475":11800,"condition1":11801,"int32reversed":11802,"0x7f8":11803,"0x7ffff":11804,"saml2":11805,"asmjs":11806,"82ff":11807,"broker":11808,"a8ac":11809,"bundled":11810,"0x55f33":11811,"healthy":11812,"meshgrid":11813,"d813c0":11814,"c740b3":11815,"600851475":11816,"stripped":11817,"cancelable":11818,"landscape":11819,"anagram":11820,"shuffled":11821,"rolling":11822,"powerpc":11823,"revoke":11824,"frequent":11825,"hucs":11826,"ffffffffffffffff":11827,"────────────────────":11828,"vtbl":11829,"incorrectly":11830,"ambiguity":11831,"vanilla":11832,"diagonal":11833,"malformed":11834,"0x556":11835,"subscribers":11836,"nickname":11837,"weekday":11838,"persistence":11839,"fbb0b5f4":11840,"0x0000555555":11841,"cascade":11842,"concern":11843,"wingdi":11844,"cumsum":11845,"dynamodb":11846,"kwargs":11847,"enoent":11848,"aneous":11849,"tpl4int":11850,"unchanging":11851,"ad8f1a46":11852,"missile":11853,"intentional":11854,"f36ea887c":11855,"licenses":11856,"tomorrow2":11857,"caaad8f1a46":11858,"382caaad8f1a46":11859,"47e43b0":11860,"bibliography":11861,"strtol":11862,"demux":11863,"covariances":11864,"consonants":11865,"ba919df1":11866,"iserver":11867,"13t04":11868,"qwerty":11869,"ec9720acb7":11870,"hobby":11871,"c5687fc88":11872,"mpg123":11873,"00d2ba919df1":11874,"a53f9df32fbb0b5f4":11875,"4main17h":11876,"refutable":11877,"c7087fe00d2ba919df1":11878,"bno055":11879,"rilev":11880,"thawte":11881,"prologue":11882,"truskit":11883,"cudadevrt":11884,"40a5d47e43b0":11885,"ghibli":11886,"middlename":11887,"0x55f339d":11888,"d813c040a5d47e43b0":11889,"600851475143":11890,"382caaad8f1a46f36ea887c":11891,"ec9720acb7c740b3":11892,"a53f9df32fbb0b5f4382caaad8f1a46f36ea887c":11893,"c7087fe00d2ba919df1d813c040a5d47e43b0":11894,"c7087fe00d2ba919df1d813c040a5d47e43b0fe7":11895,"019":11896,"0i8":11897,"060":11898,"0ea":11899,"416":11900,"486":11901,"4ha":11902,"536":11903,"625":11904,"630":11905,"635":11906,"659":11907,"657":11908,"740":11909,"8u8":11910,"820":11911,"8function":11912,"8af":11913,"835":11914,"938":11915,"902":11916,"a16":11917,"aster":11918,"blo":11919,"b08":11920,"cadd":11921,"cup":11922,"cba":11923,"c48":11924,"dmp":11925,"dtemp":11926,"dport":11927,"d08":11928,"dt1":11929,"eos":11930,"e6f":11931,"fu8":11932,"fence":11933,"fbase":11934,"fcomplex":11935,"g0":11936,"gsm":11937,"hits":11938,"hdd":11939,"ias":11940,"jstring":11941,"jcenter":11942,"kf":11943,"kat":11944,"lun":11945,"lws2":11946,"mall":11947,"mind":11948,"mote":11949,"nar":11950,"nation":11951,"othing":11952,"pn":11953,"ps1":11954,"qrw":11955,"rfr":11956,"smem":11957,"tal":11958,"ule":11959,"v9":11960,"vl":11961,"vmin":11962,"vtemp":11963,"vsock":11964,"wi":11965,"x5":11966,"xl":11967,"zt":11968,"µs":11969,"♥♥":11970,"ert":11971,"readed":11972,"atten":11973,"mpool":11974,"onexit":11975,"onclick":11976,"itv":11977,"dees":11978,"dealt":11979,"deallocated":11980,"mega":11981,"mempool":11982,"unload":11983,"unregister":11984,"unsynchronized":11985,"coeff":11986,"raft":11987,"rads":11988,"excel":11989,"toa":11990,"ce0":11991,"ceabihf":11992,"chello":11993,"edits":11994,"ligh":11995,"lowest":11996,"nest":11997,"rustr":11998,"ruid":11999,"fors":12000,"forty":12001,"0090":12002,"fiz":12003,"served":12004,"pez":12005,"32168":12006,"newhead":12007,"pup":12008,"budget":12009,"llar":12010,"abbre":12011,"abling":12012,"noout":12013,"moun":12014,"readvalue":12015,"rc2":12016,"datan":12017,"do2":12018,"dof":12019,"dollar":12020,"tiger":12021,"libsyntax":12022,"libceabihf":12023,"endprologue":12024,"box2":12025,"mylist":12026,"mybin":12027,"ofs":12028,"oft":12029,"pars":12030,"liner":12031,"srcdoc":12032,"explor":12033,"prost":12034,"faster":12035,"traitobject":12036,"testable":12037,"file3":12038,"diam":12039,"whil":12040,"pacs":12041,"paired":12042,"ret1":12043,"retc":12044,"retvec":12045,"contenue":12046,"matchers":12047,"addable":12048,"addhra":12049,"prm":12050,"bufread":12051,"returner":12052,"ively":12053,"len1":12054,"baee":12055,"fe8":12056,"compan":12057,"ipt":12058,"pychar":12059,"pyxel":12060,"tpm2":12061,"e0261":12062,"line4":12063,"locus":12064,"2094":12065,"countries":12066,"1694":12067,"input1":12068,"inputstream":12069,"serialport":12070,"acces":12071,"imbas":12072,"array3":12073,"arraysize":12074,"modal":12075,"callgrind":12076,"ginary":12077,"cliente":12078,"0x32":12079,"0xaa":12080,"0x41":12081,"0x0f":12082,"aved":12083,"numpy":12084,"11000":12085,"float64":12086,"sslserver":12087,"thermo":12088,"preheader":12089,"mtb":12090,"866":12091,"binop":12092,"message2":12093,"cloexec":12094,"regard":12095,"regreadvalue":12096,"wsf":12097,"cius":12098,"buffer0":12099,"17process":12100,"minwindef":12101,"datelike":12102,"sublist":12103,"subcommands":12104,"summ":12105,"surely":12106,"rando":12107,"element0":12108,"dirt":12109,"0009":12110,"000b":12111,"mutexes":12112,"imaginary":12113,"ops8function":12114,"link2":12115,"caption":12116,"base1":12117,"base2":12118,"execvp":12119,"lat2":12120,"349":12121,"34r":12122,"rect1":12123,"4049":12124,"handlerdata":12125,"devargs":12126,"warran":12127,"tmpl":12128,"joinable":12129,"hai":12130,"stackalloc":12131,"afpf":12132,"interp":12133,"interaction":12134,"twi":12135,"groom":12136,"scy":12137,"3850":12138,"langau":12139,"flag3":12140,"552":12141,"placed":12142,"293":12143,"person2":12144,"371":12145,"02s":12146,"updatee":12147,"bb4":12148,"actionable":12149,"tt1":12150,"362":12151,"3600":12152,"36e89":12153,"e0279":12154,"optin":12155,"kind1":12156,"polling":12157,"hs0":12158,"aae0f":12159,"failing":12160,"498":12161,"offset1":12162,"interned":12163,"mbs":12164,"460":12165,"fdset":12166,"fd0c":12167,"stepper":12168,"foldr":12169,"hermit":12170,"toplevel":12171,"pixmap":12172,"47f":12173,"ier3":12174,"668":12175,"invalidated":12176,"0380":12177,"queues":12178,"577":12179,"entity1":12180,"scancode":12181,"ksig":12182,"alg2":12183,"squar":12184,"00000044":12185,"sequences":12186,"983":12187,"985":12188,"989":12189,"metres":12190,"increasing":12191,"basis":12192,"dark":12193,"06c":12194,"postgre":12195,"launched":12196,"p1timessp":12197,"hexdump":12198,"directory2":12199,"rgb8":12200,"powers":12201,"img2":12202,"configurations":12203,"ppv":12204,"batt":12205,"mike":12206,"chomp":12207,"072":12208,"inefficient":12209,"fc6":12210,"ddv":12211,"e0512":12212,"e0525":12213,"0x000055":12214,"nearby":12215,"france":12216,"xorwow":12217,"bc9c":12218,"uclibceabihf":12219,"efg":12220,"rmh":12221,"sockopt":12222,"h3to":12223,"fixed64":12224,"d0a":12225,"consumers":12226,"materia":12227,"oidc":12228,"smtps":12229,"0x104":12230,"0x10b7":12231,"iteratee":12232,"explanations":12233,"d6uc":12234,"celcius":12235,"metrics":12236,"greenpacs":12237,"emcc":12238,"0x8000000":12239,"coordinator":12240,"c6cf14":12241,"buffersarbproc":12242,"bashrc":12243,"smoothing":12244,"ranked":12245,"quadr":12246,"generalization":12247,"thumbnail":12248,"0x00007f47":12249,"feeds":12250,"dutyl":12251,"giag":12252,"volumes":12253,"leads":12254,"semihosting":12255,"calculus":12256,"pwm":12257,"memset32":12258,"1165":12259,"professors":12260,"snapshots":12261,"simulate":12262,"margins":12263,"ranks":12264,"aligned1d":12265,"vcpkgrs":12266,"0x00000001":12267,"ahc":12268,"ecount":12269,"allergen":12270,"bibtex":12271,"000000000000000000000000000000000000000000000000000000000000000000000000000000000000000000000000000000000000000000000000000000000000000000000000":12272,"uncommented":12273,"6detail15normal":12274,"miller":12275,"matthias":12276,"dzen":12277,"exercise":12278,"0x00007f2d36":12279,"caspol":12280,"0x5574c8a0f":12281,"0x08000000":12282,"0123456789abcdef":12283,"15ffa49":12284,"nanoseconds":12285,"zn4core3ops8function":12286,"descendent":12287,"════":12288,"substitution":12289,"manipulation":12290,"0x7fb935adbc9c":12291,"flexible":12292,"0xb87":12293,"2345678":12294,"35c36e89":12295,"608f50":12296,"cisco":12297,"bicycle":12298,"msys64":12299,"djafpf":12300,"bellman":12301,"permitted":12302,"0x559ffa":12303,"17a15ffa49":12304,"zn6thrust6system4cuda6detail":12305,"slicing":12306,"echecker":12307,"hci0":12308,"truncation":12309,"procedure":12310,"isaac64rng":12311,"mechan":12312,"73528e339aae0f":12313,"18446744073709551615":12314,"youtu":12315,"2391d6uc":12316,"35mnvs":12317,"attraction":12318,"a8ac608f50":12319,"mallard":12320,"rfrce":12321,"attendees":12322,"explorer":12323,"diamond":12324,"whilechecker":12325,"imbasoft":12326,"langauge":12327,"zn4core3ops8function6":12328,"djafpf92":12329,"17a15ffa49a8ac608f50":12330,"73528e339aae0f17a15ffa49a8ac608f50":12331,"73528e339aae0f17a15ffa49a8ac608f50c6cf14":12332,"029":12333,"049":12334,"1m":12335,"2c9":12336,"3fc":12337,"5m":12338,"525":12339,"637":12340,"678":12341,"658":12342,"876":12343,"afile":12344,"a19":12345,"a99":12346,"a34":12347,"azip":12348,"bsize":12349,"b19":12350,"b53":12351,"c00":12352,"cwrap":12353,"c27":12354,"c99":12355,"cbindgen":12356,"dval":12357,"dmax":12358,"duce":12359,"eur":12360,"eet":12361,"ebook":12362,"e67":12363,"e5d":12364,"fec":12365,"fread":12366,"fsize":12367,"fmod":12368,"f25":12369,"giz":12370,"g42":12371,"h9":12372,"his":12373,"hund":12374,"harm":12375,"jv":12376,"jna":12377,"klo":12378,"kast":12379,"krypt":12380,"lname":12381,"lcudart":12382,"lkeysv":12383,"mtype":12384,"mreq":12385,"n6":12386,"nis":12387,"nfoo":12388,"nfound":12389,"nitems":12390,"ndims":12391,"nsorts":12392,"oids":12393,"pon":12394,"pcl":12395,"ptime":12396,"popen":12397,"plate":12398,"pv4":12399,"paper":12400,"q4":12401,"r11":12402,"rarc":12403,"rfind":12404,"rkel":12405,"r8d":12406,"rkeysv":12407,"sap":12408,"sref":12409,"srange":12410,"sbt":12411,"tmain":12412,"troll":12413,"uer":12414,"uca":12415,"vtype":12416,"vors":12417,"wj":12418,"warc":12419,"wgpu":12420,"wiki":12421,"xw":12422,"xlen":12423,"xvar":12424,"xcheck":12425,"x52":12426,"yf":12427,"yum":12428,"zsh":12429,"τή":12430,"ве":12431,"пр":12432,"indoc":12433,"stun":12434,"stag":12435,"sth2":12436,"repl":12437,"relying":12438,"arn":12439,"ecb4":12440,"strsim":12441,"strptime":12442,"allin":12443,"almost":12444,"deq":12445,"degre":12446,"thid":12447,"thir":12448,"ancy":12449,"unplug":12450,"inga":12451,"mas":12452,"mash":12453,"coat":12454,"coint":12455,"chen":12456,"chown":12457,"lisp":12458,"lize":12459,"ad4":12460,"adjoin":12461,"nep":12462,"stdir":12463,"errmsg":12464,"fim":12465,"fired":12466,"firing":12467,"sery":12468,"peeps":12469,"focal":12470,"idcs":12471,"urf":12472,"32i":12473,"rustac":12474,"rustlearn":12475,"val4":12476,"sout":12477,"puzz":12478,"implies":12479,"buz":12480,"bump":12481,"kept":12482,"icall":12483,"icast":12484,"llbits":12485,"readdir":12486,"rsv0":12487,"matlab":12488,"mathf":12489,"do1":12490,"doctor":12491,"dothereum":12492,"usart":12493,"pod":12494,"poor":12495,"poem":12496,"trm":12497,"approv":12498,"april":12499,"libx":12500,"liburl":12501,"libembed":12502,"libglib":12503,"641":12504,"647":12505,"mykeystore":12506,"shunt":12507,"lake":12508,"linaro":12509,"iom":12510,"fa0":12511,"testb":12512,"beaut":12513,"vigem":12514,"whis":12515,"10a":12516,"10d":12517,"10f":12518,"1023":12519,"10101":12520,"keypass":12521,"add5":12522,"hashname":12523,"hose":12524,"hope":12525,"holla":12526,"compli":12527,"taz":12528,"ip4":12529,"ipc":12530,"12zip":12531,"appy":12532,"pyproto":12533,"ca0":12534,"tps":12535,"e0401":12536,"e0223":12537,"spon":12538,"spdk":12539,"indeed":12540,"httpheader":12541,"said":12542,"wrlock":12543,"buildroot":12544,"hands":12545,"input2":12546,"synom":12547,"accel":12548,"arraytype":12549,"mod2":12550,"various":12551,"function2":12552,"wastrology":12553,"0x33":12554,"0x00000000000":12555,"avoids":12556,"ixdata":12557,"da0":12558,"da7":12559,"fini":12560,"col46":12561,"parse2":12562,"tokenizable":12563,"asserts":12564,"firstn":12565,"regs":12566,"regions":12567,"responds":12568,"17ha":12569,"27d":12570,"minicall":12571,"ryp":12572,"subkeys":12573,"substrings":12574,"subtasks":12575,"field4":12576,"el3":12577,"misspe":12578,"maxima":12579,"2319":12580,"dirty":12581,"transf":12582,"transmit":12583,"0008":12584,"000e":12585,"000s":12586,"ccbin":12587,"ngap":12588,"rec2":12589,"split2":12590,"tupshin":12591,"johan":12592,"range1":12593,"range2":12594,"toolset":12595,"securitypolicy":12596,"gomp":12597,"modes":12598,"internode":12599,"interger":12600,"ghc":12601,"scn":12602,"569":12603,"387":12604,"emplace":12605,"551":12606,"291":12607,"372":12608,"ephe":12609,"cmpl":12610,"484":12611,"592":12612,"sterm":12613,"breaks":12614,"breaking":12615,"multicast":12616,"nonzero":12617,"synch":12618,"synta":12619,"customizer":12620,"attribs":12621,"4575":12622,"installer":12623,"acc2":12624,"blk":12625,"abc1":12626,"905":12627,"vctools":12628,"normvec":12629,"edge1":12630,"facebook":12631,"581":12632,"monoid":12633,"flame":12634,"fluff":12635,"simpson":12636,"altbuf":12637,"976":12638,"00000063":12639,"existent":12640,"e0434":12641,"969c":12642,"snappy":12643,"car1":12644,"circles":12645,"account1":12646,"account2":12647,"patches":12648,"0f0":12649,"scala":12650,"planning":12651,"chooser":12652,"halfs":12653,"authorities":12654,"terminating":12655,"optimal":12656,"74a27":12657,"684":12658,"yewastrology":12659,"cookable":12660,"c800":12661,"eness":12662,"wouldn":12663,"1f378":12664,"b9b":12665,"ucitest":12666,"markup":12667,"greeter":12668,"drained":12669,"underflow":12670,"specialized":12671,"ferently":12672,"samlv2":12673,"adapted":12674,"switches":12675,"texte":12676,"cleaned":12677,"e0080":12678,"e0603":12679,"e0284":12680,"firehose":12681,"lookups":12682,"pads":12683,"distribute":12684,"f5a":12685,"gaz":12686,"hittable":12687,"emma":12688,"gpioe":12689,"bst1":12690,"flavors":12691,"ctrlc":12692,"1000000ull":12693,"norms":12694,"norrkel":12695,"cloudwatch":12696,"phase2":12697,"potato":12698,"coverage":12699,"massive":12700,"hardlink":12701,"seasonal":12702,"vdpau":12703,"zn8rust":12704,"tells":12705,"pop3store":12706,"azure":12707,"falling":12708,"riscv":12709,"sampl":12710,"rfc3161":12711,"hourly":12712,"introduce":12713,"aoeu":12714,"nwg":12715,"defects":12716,"saturated":12717,"477baee":12718,"0000000000000000000000000000000000000000000000000000000000000000000000000000000000000000000000000000000000000000000000000000000000000000000000000000000000000000000000000000000000000000000000000000000000000000000000000000000000000000000000000000000000000000":12719,"polygons":12720,"rkunit":12721,"backwards":12722,"schnorrkel":12723,"extreme":12724,"v5te":12725,"concated":12726,"44839":12727,"julian":12728,"purple":12729,"crossterm":12730,"wstrust":12731,"236z":12732,"crud":12733,"conflicts":12734,"0x40011000":12735,"fa9e0cd":12736,"8080808080808080":12737,"7f7f7f7f7f7f7f7f":12738,"relocatable":12739,"grpcio":12740,"141592653589793":12741,"diverging":12742,"privileges":12743,"plop":12744,"167772":12745,"cfhttpparam":12746,"lpcwstr":12747,"sctp":12748,"yeah":12749,"c339fa9e0cd":12750,"minimize":12751,"nursery":12752,"758074a27":12753,"0x556d7":12754,"c5687fc88969c":12755,"sslserversocket":12756,"warranty":12757,"fd0c2892":12758,"gizmo":12759,"klosure":12760,"kasten":12761,"allinput":12762,"degrees":12763,"mashup":12764,"cointainer":12765,"rustacian":12766,"puzzle":12767,"approved":12768,"misspelled":12769,"johann":12770,"fluffy":12771,"1f378fd0c2892":12772,"477baee1f378fd0c2892":12773,"c339fa9e0cd477baee1f378fd0c2892":12774,"758074a27c339fa9e0cd477baee1f378fd0c2892":12775,"c5687fc88969c44d":12776,"039":12777,"3u":12778,"319":12779,"313":12780,"3bd7":12781,"4iter":12782,"433":12783,"5i64":12784,"537":12785,"549":12786,"588":12787,"6i":12788,"610":12789,"636":12790,"677":12791,"6memchr":12792,"7ff":12793,"717":12794,"750":12795,"7instant":12796,"8x":12797,"821":12798,"9u8":12799,"9call":12800,"ade":12801,"apu":12802,"a17":12803,"a37":12804,"aee":12805,"a51":12806,"a75":12807,"bru":12808,"bang":12809,"bfs":12810,"b49":12811,"b17h":12812,"btle":12813,"c12":12814,"cpt":12815,"cplus":12816,"cvs":12817,"ddf":12818,"ddata2":12819,"e34":12820,"eatable":12821,"e4626":12822,"ffe":12823,"fxs":12824,"f09":12825,"ggt":12826,"gcov":12827,"gandi":12828,"hatt":12829,"ium":12830,"jc":12831,"jlong":12832,"jobj":12833,"kn":12834,"kut":12835,"kol":12836,"kane":12837,"lkey1":12838,"lkey2":12839,"mber":12840,"n5":12841,"nbytes":12842,"ntyp":12843,"oz":12844,"oli":12845,"pdt":12846,"pnt":12847,"pmport":12848,"qf":12849,"qm":12850,"qn":12851,"r30":12852,"rated":12853,"rie":12854,"rva":12855,"rdp":12856,"sgn":12857,"tus":12858,"tap":12859,"ttime":12860,"uld":12861,"uze":12862,"vh":12863,"vname":12864,"wg":12865,"wpt":12866,"wont":12867,"wvt":12868,"xval":12869,"xes":12870,"xhalf":12871,"xbee":12872,"y32":12873,"yarn":12874,"λx":12875,"иве":12876,"inlin":12877,"st2":12878,"stone":12879,"erc20":12880,"recreate":12881,"mpose":12882,"ono":12883,"lee":12884,"leuze":12885,"debinfo":12886,"deleuze":12887,"ancs":12888,"anitize":12889,"sey":12890,"unprocessable":12891,"roider":12892,"roller":12893,"covariant":12894,"asl":12895,"quiz":12896,"tof":12897,"toi":12898,"cha":12899,"lispy":12900,"quotient":12901,"stdlog":12902,"isol":12903,"isalpha":12904,"fouca":12905,"idd":12906,"uristic":12907,"rusti":12908,"rusted":12909,"rustless":12910,"vals2":12911,"izen":12912,"izere":12913,"izip":12914,"main3":12915,"ultimate":12916,"icion":12917,"llc":12918,"getch":12919,"ldb":12920,"nok":12921,"datas":12922,"datasize":12923,"dostuff":12924,"clar":12925,"cline":12926,"tive":12927,"trader":12928,"libmy":12929,"libbitflags":12930,"myfoo":12931,"myuser":12932,"mypoint":12933,"mydomain":12934,"mytruststore":12935,"mypw":12936,"laz":12937,"i32ref":12938,"outbound":12939,"paring":12940,"arg4":12941,"proce":12942,"io5":12943,"test7":12944,"testtest":12945,"behave":12946,"dirent":12947,"vik":12948,"painter":12949,"time64":12950,"keyarg":12951,"keysize":12952,"persister":12953,"u8and":12954,"u8ref":12955,"up2":12956,"item3":12957,"cr1":12958,"crd":12959,"crls":12960,"numd":12961,"numtoa":12962,"buf2":12963,"lenth":12964,"bais":12965,"baud":12966,"feet":12967,"comps":12968,"termpose":12969,"withdebinfo":12970,"size1":12971,"e0404":12972,"e0477":12973,"e0405":12974,"e0583":12975,"spline":12976,"index0":12977,"wrtr":12978,"locking":12979,"point2d":12980,"ptr2":12981,"16k":12982,"creep":12983,"jects":12984,"ac3":12985,"stateful":12986,"arraylist":12987,"faults":12988,"defaultmap":12989,"mods":12990,"cell1":12991,"print2":12992,"0xf":12993,"0x25":12994,"0x43":12995,"0x0b":12996,"1114":12997,"evc":12998,"eving":12999,"da13204":13000,"preparing":13001,"backorder":13002,"backends":13003,"manhatt":13004,"mtx1":13005,"oui":13006,"hosted":13007,"object2":13008,"first2":13009,"eventually":13010,"18808":13011,"init2":13012,"butler":13013,"1777":13014,"minfo":13015,"systemd":13016,"substream":13017,"subsd":13018,"maxi":13019,"23331":13020,"0000000000000":13021,"loopexit":13022,"class3":13023,"processrunner":13024,"cc1":13025,"cf7":13026,"cfb":13027,"checkbox":13028,"futures01":13029,"while1":13030,"deduction":13031,"lat1":13032,"marx":13033,"bitxor":13034,"addr2":13035,"txflag":13036,"once17h":13037,"once9call":13038,"achi":13039,"fsanitize":13040,"282":13041,"33d":13042,"interrup":13043,"stdinlock":13044,"scm":13045,"scp":13046,"swed":13047,"modular":13048,"55d":13049,"551299":13050,"listenfd":13051,"sku":13052,"twox":13053,"pinning":13054,"bb5":13055,"tt2":13056,"361":13057,"mustache":13058,"stuck":13059,"exits":13060,"producing":13061,"3977":13062,"aa92":13063,"selecting":13064,"493":13065,"cb1":13066,"08c56":13067,"cyclic":13068,"smith":13069,"fdc":13070,"fdsa":13071,"group2":13072,"uniques":13073,"assignation":13074,"473":13075,"ier2":13076,"ins2":13077,"changeset":13078,"rxs":13079,"vcstartup":13080,"88ac":13081,"8854":13082,"8889":13083,"slept":13084,"armx":13085,"573":13086,"58a":13087,"cpuid":13088,"041":13089,"04b":13090,"ee5":13091,"604049":13092,"123e4":13093,"repetit":13094,"real3":13095,"shado":13096,"cd3":13097,"shapebuilder":13098,"blade":13099,"fillable":13100,"00000050":13101,"sites":13102,"heapsize":13103,"leged":13104,"shorten":13105,"ilton":13106,"raining":13107,"vec3f":13108,"a1ue":13109,"v4addr":13110,"6186":13111,"badge":13112,"holder2":13113,"fc516":13114,"dupe":13115,"pipes":13116,"computations":13117,"e0532":13118,"math1061":13119,"692":13120,"manylinux":13121,"255de8":13122,"zzzz":13123,"validators":13124,"v7a":13125,"steady":13126,"dlerror":13127,"forwards":13128,"ef9":13129,"condition2":13130,"hm1":13131,"c2f":13132,"specialised":13133,"masterstimer":13134,"5e8":13135,"d2rust":13136,"relwithdebinfo":13137,"calculates":13138,"committed":13139,"d0c9":13140,"aes256":13141,"shell32":13142,"fastcall":13143,"quickly":13144,"e0618":13145,"e0608":13146,"6d06c":13147,"17hac4":13148,"0x109e":13149,"proptest":13150,"popup":13151,"accumlator":13152,"scheduled":13153,"a5a":13154,"0x7ffd0c9":13155,"fwlink":13156,"unpinned":13157,"embroider":13158,"10413":13159,"0x80000000":13160,"d8ace":13161,"presenter":13162,"imaps":13163,"rgba32f":13164,"smoller":13165,"lpwstr":13166,"tracking":13167,"rpiserver":13168,"mappings":13169,"octave":13170,"shadowed":13171,"2cm":13172,"triggered":13173,"welcom":13174,"occupancy":13175,"inspector":13176,"delimiters":13177,"des40":13178,"leader":13179,"gilles":13180,"imperial":13181,"pop3s":13182,"collidable":13183,"retriever":13184,"benchmarking":13185,"ymdf":13186,"eeees":13187,"ole32":13188,"thumbv7m":13189,"10101010":13190,"bubblewrap":13191,"male":13192,"guarded":13193,"michel":13194,"dfsg1":13195,"aaaaaaaa":13196,"����":13197,"zn3std4time":13198,"trainer":13199,"communicate":13200,"defecttest":13201,"robots":13202,"treatments":13203,"uncommenting":13204,"0000010000":13205,"goldman":13206,"turno":13207,"negotiate":13208,"sse2":13209,"e0391":13210,"69608c56":13211,"referring":13212,"66666666":13213,"qmlrs":13214,"pepper":13215,"argtype":13216,"invitations":13217,"rodio":13218,"summarization":13219,"inherited":13220,"paginator":13221,"dalvik":13222,"lite86":13223,"watched":13224,"adomain":13225,"forwarded":13226,"minsizere":13227,"retrieved":13228,"retrieving":13229,"birds":13230,"toastmasterstimer":13231,"manipulate":13232,"fopenmp":13233,"succeeds":13234,"karl":13235,"shortest":13236,"shorthand":13237,"privileged":13238,"tougher":13239,"a42907":13240,"footer":13241,"craft":13242,"0xbf8":13243,"picketlink":13244,"gyroscope":13245,"0906d06c":13246,"explore":13247,"a66ec8":13248,"citizen":13249,"propagate":13250,"judith":13251,"brighten":13252,"fcfs":13253,"adopter":13254,"quarter":13255,"zombie":13256,"realtime":13257,"9879880":13258,"14060380":13259,"thermometer":13260,"0x559ffa95":13261,"hundred":13262,"ponts":13263,"sapin":13264,"приве":13265,"stunnel":13266,"0000000000000000000000000000000000000000000000000000000000000000000000000000000000000000000000000000000000000000000000000000000000000000000000000000000000000000000000000000000000000000000000000000000000000000000000000000000000000000000000000000000000000000000000000000000000000000000000000000000000000000":13267,"3bd7255de8":13268,"btleplug":13269,"cplusplus":13270,"e4626da13204":13271,"fxsr":13272,"foucault":13273,"mypwadomain":13274,"manhattan":13275,"551299a42907":13276,"aa92a66ec8":13277,"604049823":13278,"fc516c":13279,"17hac4aa92a66ec8":13280,"embroidery":13281,"d8ace771":13282,"zn3std4time7instant":13283,"minsizerel":13284,"140603809879880":13285,"привет":13286,"3bd7255de8fc516c":13287,"17hac4aa92a66ec8c82e":13288,"0ul":13289,"2m":13290,"2f32":13291,"2x2":13292,"3ca":13293,"3rd":13294,"431":13295,"5u32":13296,"531":13297,"541":13298,"616":13299,"624":13300,"6bb":13301,"857":13302,"960":13303,"afa":13304,"astream":13305,"acuda":13306,"a0b":13307,"b47":13308,"cca":13309,"cclient":13310,"c29":13311,"cstdint":13312,"dfa":13313,"dence":13314,"dry":13315,"d33":13316,"dvcpy":13317,"dizi":13318,"ez":13319,"efi":13320,"eve":13321,"e50":13322,"elast":13323,"e84":13324,"fma":13325,"fmu":13326,"fabs":13327,"gable":13328,"gpr":13329,"gates":13330,"gpg":13331,"gql":13332,"gunzip":13333,"hur":13334,"hav":13335,"hsc":13336,"i4":13337,"ivec":13338,"ience":13339,"igth":13340,"ji":13341,"jer":13342,"jquery":13343,"jnlp":13344,"kas":13345,"kick":13346,"k4a":13347,"kqs":13348,"l6":13349,"lect":13350,"lxcb":13351,"mfe":13352,"nin":13353,"nec":13354,"nal":13355,"nist":13356,"nseg":13357,"odef":13358,"p5":13359,"prs":13360,"pwn":13361,"p11":13362,"preserve":13363,"qd":13364,"qk":13365,"qclip":13366,"rstr":13367,"rho":13368,"rltk":13369,"sen":13370,"sge":13371,"spark":13372,"srts":13373,"swarm":13374,"tis":13375,"tang":13376,"wbuild":13377,"wunused":13378,"wik":13379,"xss":13380,"xpixel":13381,"yw":13382,"yx":13383,"yval":13384,"ypixel":13385,"ytz":13386,"zj":13387,"zk":13388,"zr":13389,"zed":13390,"inspection":13391,"stl":13392,"gtype":13393,"gtool":13394,"revert":13395,"redirection":13396,"ltd":13397,"atty":13398,"atexit":13399,"atype":13400,"ornia":13401,"ons":13402,"ony":13403,"enforce":13404,"enses":13405,"encapsu":13406,"ari":13407,"strbuf":13408,"deed":13409,"de39a":13410,"unauth":13411,"otest":13412,"rober":13413,"roster":13414,"raform":13415,"rains":13416,"raze":13417,"exceeded":13418,"tos":13419,"cet":13420,"ceiver":13421,"chil":13422,"chick":13423,"lia":13424,"ads":13425,"adam":13426,"quotation":13427,"0011":13428,"0078":13429,"00a0":13430,"001111":13431,"fidx":13432,"intiter":13433,"serious":13434,"peed":13435,"iding":13436,"bout":13437,"322":13438,"newarr":13439,"iterated":13440,"theory":13441,"structural":13442,"ica":13443,"amet":13444,"getv":13445,"gettemp":13446,"getpwn":13447,"abbb":13448,"impl3":13449,"nose":13450,"noreturn":13451,"modo":13452,"moltcp":13453,"rclip":13454,"mapv":13455,"ssss":13456,"tice":13457,"apparent":13458,"roment":13459,"trapez":13460,"libsqlite3":13461,"wrap12":13462,"lack":13463,"ofx":13464,"offs":13465,"parame":13466,"expn":13467,"exprs":13468,"expenses":13469,"fahs":13470,"unwraped":13471,"be0":13472,"esp8":13473,"paho":13474,"pa12":13475,"pager":13476,"hasis":13477,"mentioned":13478,"optionally":13479,"keylen":13480,"performed":13481,"settle":13482,"0000069":13483,"returnastream":13484,"hashing":13485,"funtor":13486,"funcline":13487,"fel":13488,"fest":13489,"terraform":13490,"tage":13491,"1280":13492,"1207":13493,"size2":13494,"fut0":13495,"nonempty":13496,"appended":13497,"subac":13498,"torrent":13499,"cac":13500,"careful":13501,"e0204":13502,"thisline":13503,"debuggable":13504,"locally":13505,"userdata":13506,"indexmap":13507,"2010":13508,"2080":13509,"2028":13510,"counteach":13511,"16b":13512,"16q":13513,"sonic":13514,"cream":13515,"ac18":13516,"acd5":13517,"imul":13518,"stateaction":13519,"modality":13520,"gines":13521,"wag":13522,"steam":13523,"0x22":13524,"0x44":13525,"0x61":13526,"1199":13527,"1141":13528,"da8":13529,"backtest":13530,"8604":13531,"ms1":13532,"ought":13533,"trustbox":13534,"ff00":13535,"1496":13536,"15fdd":13537,"certum":13538,"context2d":13539,"socket2":13540,"log2":13541,"db67":13542,"dbl2":13543,"validating":13544,"subfmt":13545,"subdir":13546,"subtask":13547,"angel":13548,"decryp":13549,"501":13550,"5038":13551,"maxprocs":13552,"body2":13553,"23e":13554,"2341":13555,"transitions":13556,"transposed":13557,"transceiver":13558,"blockchain":13559,"chess":13560,"locality":13561,"ommit":13562,"omery":13563,"envs":13564,"ccde39a":13565,"cfgtool":13566,"42i32":13567,"androidbrowser":13568,"idx1":13569,"lattice":13570,"rootnode":13571,"marke":13572,"displayable":13573,"22c8":13574,"publication":13575,"port0":13576,"octo":13577,"402":13578,"406":13579,"409":13580,"287":13581,"2810":13582,"2826":13583,"3339":13584,"view2":13585,"10011":13586,"100100":13587,"statusbar":13588,"visor":13589,"compilers":13590,"56da":13591,"5684":13592,"importance":13593,"meral":13594,"558854":13595,"libc6":13596,"projectpad":13597,"optres":13598,"pcb":13599,"pcg":13600,"31c6":13601,"ledge":13602,"48b":13603,"aaac":13604,"ourselves":13605,"protagon":13606,"cyan":13607,"html1":13608,"smurf":13609,"fd68":13610,"groupby":13611,"glew":13612,"782":13613,"overload":13614,"toptype":13615,"200c":13616,"pairwise":13617,"level1":13618,"661":13619,"documented":13620,"x509key":13621,"appends":13622,"appenders":13623,"armv5te":13624,"571":13625,"589":13626,"hij":13627,"128001":13628,"montg":13629,"sdone":13630,"04a99":13631,"capturing":13632,"supertraits":13633,"database2":13634,"scanl":13635,"elem2":13636,"f1e":13637,"605":13638,"60725":13639,"outer1":13640,"follower":13641,"051":13642,"multipliers":13643,"00000010":13644,"0000001000":13645,"f2b":13646,"f2f":13647,"nvb":13648,"nvic":13649,"nvprof":13650,"06544":13651,"zn2":13652,"pgsql":13653,"texture2d":13654,"vertex3f":13655,"membership":13656,"approve":13657,"terminals":13658,"0b1000":13659,"dispatchable":13660,"a2e":13661,"computers":13662,"c8fa":13663,"characteristic":13664,"enemies":13665,"pythonhosted":13666,"signum":13667,"sigpipe":13668,"tmdb":13669,"incident":13670,"794":13671,"anky":13672,"segmentsizes":13673,"enviroment":13674,"masked":13675,"parsed123":13676,"profiled":13677,"mocked":13678,"blahblah":13679,"both1":13680,"annotatable":13681,"rgbs3":13682,"highlight":13683,"gdbserver":13684,"socks":13685,"surf":13686,"instantiating":13687,"clipable":13688,"blueprints":13689,"ructs":13690,"updatable":13691,"magical":13692,"kitty":13693,"0x004":13694,"sz4":13695,"pillow":13696,"float3iterator":13697,"srk":13698,"1234567890abcdef":13699,"dural":13700,"shutting":13701,"d43593":13702,"lightweight":13703,"reports":13704,"treble":13705,"000000000000000000000000000000000000000000000000000000000000000000000000000000000000000000000000":13706,"stm32f1":13707,"drives":13708,"svd2rust":13709,"a713":13710,"c715fdd":13711,"picks":13712,"rpms":13713,"cpp1":13714,"f678":13715,"2c69":13716,"behaviors":13717,"purpose":13718,"italic":13719,"raint1":13720,"shoe":13721,"vantage":13722,"0x20000000":13723,"sweodef":13724,"mexa64":13725,"harness":13726,"supply":13727,"fractional":13728,"amada":13729,"0x00007ffff":13730,"compacted":13731,"zn4core9panicking":13732,"training":13733,"defectcode":13734,"stm32f30x":13735,"hamisi":13736,"isometry":13737,"aggregator":13738,"influx":13739,"e0606":13740,"airport":13741,"cumber":13742,"president":13743,"blake2b":13744,"adaptors":13745,"guarantees":13746,"situation":13747,"crawler":13748,"parenthesis":13749,"substitute":13750,"ascending":13751,"relationships":13752,"eyre":13753,"concatenate":13754,"lv2descriptor":13755,"wildcard":13756,"unit4class":13757,"neighbourhoods":13758,"e7a56da":13759,"ethernet":13760,"forbidden":13761,"preemphasis":13762,"clubforceone":13763,"gadget":13764,"adler32":13765,"spirv":13766,"dccp":13767,"techn":13768,"convenience":13769,"nrf52810":13770,"allergies":13771,"abd04a99":13772,"follows":13773,"aeron":13774,"squarable":13775,"mechanism":13776,"youtube":13777,"kryptco":13778,"pclmul":13779,"ephemeral":13780,"halfspeed":13781,"riscv32i":13782,"concatedsets":13783,"16777216":13784,"riemann":13785,"lazily":13786,"procedural":13787,"ac3a9a":13788,"88ac128001":13789,"shadows":13790,"welcomec":13791,"00000000000000000000000000000000000000000000000000000000000000000000000000000000000000000000000000000000000000000000000000000000000000000000000000000000000000000000000000000000000000000000000000000000000000000000000000000000000000000000000000000000000000000000000000000000000000000000000000000000000000000000069":13792,"elastic":13793,"chicken":13794,"getpwnam":13795,"esp8266":13796,"subaccount":13797,"counteachdoc":13798,"1141abd04a99":13799,"ccde39a5684":13800,"cfgtools":13801,"androidbrowserhelper":13802,"22c8558854":13803,"31c61141abd04a99":13804,"protagonist":13805,"fd6822c8558854":13806,"montgomery":13807,"06544fa":13808,"d43593c715fdd":13809,"88ac128001ac3a9a":13810,"00000000000000000000000000000000000000000000000000000000000000000000000000000000000000000000000000000000000000000000000000000000000000000000000000000000000000000000000000000000000000000000000000000000000000000000000000000000000000000000000000000000000000000000000000000000000000000000000000000000000000000000069329":13811,"ccde39a5684e7a56da":13812,"31c61141abd04a99fd6822c8558854":13813,"d43593c715fdd31c61141abd04a99fd6822c8558854":13814,"d43593c715fdd31c61141abd04a99fd6822c8558854ccde39a5684e7a56da":13815,"045":13816,"0123":13817,"0398":13818,"1h":13819,"1ff":13820,"2n":13821,"3n":13822,"3x":13823,"311":13824,"386":13825,"3tag":13826,"3e4":13827,"3oom":13828,"4u":13829,"4f64":13830,"4f32":13831,"499":13832,"4less":13833,"4194":13834,"5z":13835,"564":13836,"5fa":13837,"5u8":13838,"521":13839,"604":13840,"7ffff":13841,"7b0":13842,"838":13843,"898":13844,"936":13845,"aar":13846,"achar":13847,"aim":13848,"a48":13849,"ae4":13850,"a17h":13851,"ahaha":13852,"bbox":13853,"bpp":13854,"c10":13855,"cip":13856,"cdr":13857,"dlt":13858,"duct":13859,"djava":13860,"ds1":13861,"dp1":13862,"d59b":13863,"eec":13864,"emu":13865,"emsg":13866,"emission":13867,"fro":13868,"f99":13869,"f48":13870,"farm":13871,"fwd":13872,"ftoc":13873,"gup":13874,"gpointer":13875,"hquery":13876,"hbitmap":13877,"hklm":13878,"ikey":13879,"imated":13880,"j4":13881,"jg":13882,"jay":13883,"kon":13884,"kim":13885,"kits":13886,"kiss":13887,"kbd":13888,"lq":13889,"lng":13890,"ladder":13891,"lclamp":13892,"mÿ":13893,"mst":13894,"mrc":13895,"mup":13896,"mble":13897,"m128":13898,"msecs":13899,"mcarry":13900,"mhz":13901,"mzi":13902,"nbar":13903,"nsw":13904,"nhi":13905,"ninject":13906,"odir":13907,"psh":13908,"plist":13909,"penv":13910,"qp":13911,"rra":13912,"rval":13913,"rtype":13914,"rll":13915,"rhel":13916,"sity":13917,"sbin":13918,"sled":13919,"sday":13920,"slight":13921,"terr":13922,"tspi":13923,"twel":13924,"t114":13925,"uary":13926,"ureful":13927,"v10":13928,"vac":13929,"wbad":13930,"wbg":13931,"wnested":13932,"xq":13933,"x20":13934,"xstart":13935,"yr":13936,"ycl":13937,"ystart":13938,"yard":13939,"yee":13940,"z3":13941,"ان":13942,"テッ":13943,"ボル":13944,"inser":13945,"st7":13946,"stops":13947,"mpd":13948,"mpus":13949,"mption":13950,"orq":13951,"onload":13952,"ecp":13953,"ech1":13954,"deboun":13955,"anus":13956,"una":13957,"unid":13958,"unbox":13959,"unions":13960,"unded":13961,"untyped":13962,"unevaluated":13963,"otate":13964,"rounded":13965,"comodo":13966,"asound":13967,"quids":13968,"quality":13969,"razn":13970,"ra069":13971,"excla":13972,"exceed":13973,"toler":13974,"tomato":13975,"celain":13976,"ce1ea":13977,"ch01":13978,"chamada":13979,"edt":13980,"edia":13981,"los":13982,"lovg":13983,"gear":13984,"neps":13985,"ruff":13986,"forcing":13987,"formable":13988,"stdc":13989,"errs":13990,"00e":13991,"00s":13992,"0092":13993,"00d0":13994,"isnan":13995,"isahc":13996,"respu":13997,"film":13998,"int128":13999,"uranus":14000,"bould":14001,"32s":14002,"rusttermpose":14003,"newstring":14004,"newvector":14005,"newlines":14006,"soli":14007,"soffset":14008,"convol":14009,"iter2d":14010,"iterative":14011,"iterates":14012,"iteratable":14013,"opassign":14014,"buster":14015,"thee":14016,"vet":14017,"icf":14018,"lly":14019,"getattr":14020,"notype":14021,"abab":14022,"abhay":14023,"fooable":14024,"nostart":14025,"noarch":14026,"noul":14027,"noicf":14028,"readiness":14029,"datatable":14030,"dou":14031,"dock":14032,"raph":14033,"ssqrt":14034,"data5":14035,"datapoint":14036,"poked":14037,"ap31":14038,"libserde":14039,"libfutures":14040,"libsodium":14041,"libasound":14042,"64c":14043,"6469":14044,"end0":14045,"end2":14046,"endfor":14047,"endpermission":14048,"myvalue":14049,"myname":14050,"myref":14051,"mytime":14052,"myprint":14053,"mytable":14054,"myalias":14055,"myworkspace":14056,"myrdd":14057,"laf":14058,"outb":14059,"argon":14060,"liners":14061,"ioc":14062,"atory":14063,"fade":14064,"hein":14065,"testme":14066,"filelist":14067,"filebytes":14068,"bee04":14069,"distr":14070,"amz":14071,"whit":14072,"whose":14073,"pauth":14074,"retail":14075,"hasn":14076,"hasan":14077,"keygen":14078,"setw":14079,"setround":14080,"000002":14081,"000004":14082,"numvecs":14083,"hash1":14084,"len0":14085,"fun0":14086,"ba5f":14087,"feli":14088,"feea":14089,"withdraw":14090,"ipp":14091,"ipfs":14092,"ipedia":14093,"1252":14094,"listner":14095,"streamdeck":14096,"app1":14097,"subob":14098,"pyth":14099,"ca2":14100,"caf":14101,"cacg":14102,"ca69f":14103,"weed":14104,"e0554":14105,"buggin":14106,"cuba":14107,"cucumber":14108,"industr":14109,"sprs":14110,"crate1":14111,"creq":14112,"winreg":14113,"arrayfire":14114,"inclusion":14115,"var0":14116,"var4":14117,"esta":14118,"estimated":14119,"acted":14120,"printc":14121,"0xe":14122,"0x200":14123,"0xea":14124,"0x101":14125,"0x0000000000":14126,"0x10000000":14127,"code1":14128,"dag":14129,"dave":14130,"memcl":14131,"bernoul":14132,"finance":14133,"prebaz":14134,"backed":14135,"backslash":14136,"mt199":14137,"19q":14138,"1920":14139,"1982":14140,"19145":14141,"19b9d":14142,"861":14143,"869":14144,"msgtype":14145,"1363":14146,"14d64":14147,"15000":14148,"cience":14149,"mutable1":14150,"text2":14151,"2751":14152,"phine":14153,"dbb88":14154,"subdomain":14155,"f32x8":14156,"randrange":14157,"rand002":14158,"2345":14159,"transformable":14160,"blocksort":14161,"url2":14162,"lowks":14163,"804":14164,"inner2":14165,"omg":14166,"func3":14167,"cc14d64":14168,"featureful":14169,"421":14170,"variate":14171,"worldspace":14172,"something2":14173,"takebar":14174,"recycl":14175,"splitted":14176,"movupd":14177,"bitwise":14178,"22q":14179,"parameterisable":14180,"akin":14181,"docx":14182,"illustr":14183,"40e":14184,"21c":14185,"objcopy":14186,"ha420":14187,"33acc":14188,"3382":14189,"packaging":14190,"1009":14191,"uint2":14192,"intervals":14193,"double3":14194,"2666":14195,"twit":14196,"ghi":14197,"561":14198,"56b":14199,"3834":14200,"3833":14201,"swapping":14202,"559":14203,"55797":14204,"widths":14205,"3500":14206,"skill":14207,"downing":14208,"pinfut1":14209,"items1":14210,"bb0":14211,"bbles":14212,"biggest":14213,"36acd5":14214,"breed":14215,"mdns":14216,"mdbook":14217,"cmps":14218,"f87e":14219,"48000":14220,"aa4":14221,"header1":14222,"writers":14223,"491":14224,"lexeme":14225,"nonexistent":14226,"cbrt":14227,"cb5b":14228,"088":14229,"08x":14230,"46cc14d64":14231,"fd4":14232,"01f":14233,"01s":14234,"agne":14235,"781":14236,"78d":14237,"render2":14238,"globs":14239,"grp":14240,"nay":14241,"ffiv1":14242,"90d":14243,"dists":14244,"62fc6":14245,"rx2":14246,"x509chain":14247,"x509security":14248,"ele1":14249,"ele2":14250,"0342":14251,"03d1":14252,"03f4":14253,"fullname":14254,"57ba":14255,"5765":14256,"5792":14257,"drv":14258,"policy600":14259,"773":14260,"584":14261,"sample2":14262,"cond2":14263,"bookable":14264,"supporting":14265,"67e":14266,"6720":14267,"seeker":14268,"seeded":14269,"actor2":14270,"digraph":14271,"tonname":14272,"payments":14273,"corresponds":14274,"filler":14275,"7ffeea":14276,"00000023":14277,"00000024":14278,"000000b7":14279,"tens":14280,"f2a":14281,"53aa":14282,"calcular":14283,"gnat":14284,"heapsort":14285,"0625":14286,"timestamps":14287,"assemble":14288,"vals0":14289,"signatureinfo":14290,"3d9":14291,"sideways":14292,"symlink":14293,"zn12":14294,"zn61":14295,"zn16q":14296,"zn19q":14297,"zn22q":14298,"directory1":14299,"763":14300,"infers":14301,"routesoffset":14302,"keystorepath":14303,"df9":14304,"c1x":14305,"temporarily":14306,"bath":14307,"catcher":14308,"apache2":14309,"predecess":14310,"fetching":14311,"musical":14312,"optimizations":14313,"pipefd":14314,"denom":14315,"75e":14316,"enc2":14317,"b2000":14318,"c83":14319,"macabi":14320,"permuted":14321,"speaker":14322,"speech1":14323,"0x00008":14324,"axiom":14325,"tmfactory":14326,"geojson":14327,"geoip2":14328,"lbb7":14329,"1f6":14330,"1fbe":14331,"1f6665":14332,"dequeuer":14333,"goods":14334,"possibility":14335,"underline":14336,"c2b":14337,"c2ea":14338,"sqrtf":14339,"transporter":14340,"b82d":14341,"rm2cm":14342,"seeking":14343,"advancer":14344,"libsmoltcp":14345,"6c6":14346,"annotated":14347,"b3db67":14348,"b3ba5f":14349,"far1":14350,"far2":14351,"relm":14352,"0x700":14353,"h3is":14354,"blackhole":14355,"e1bee04":14356,"invs":14357,"81c":14358,"ructible":14359,"cleaning":14360,"───────":14361,"agent2":14362,"e0070":14363,"commenting":14364,"layer2":14365,"17h59b":14366,"0m7":14367,"derived1":14368,"bencher4iter":14369,"strategies":14370,"servehttp":14371,"0x7ff049":14372,"tzp":14373,"mmapped":14374,"exclusion":14375,"magically":14376,"0x80000":14377,"d8c5":14378,"e6q":14379,"gpiob":14380,"mixin":14381,"smoltcp":14382,"bbbh":14383,"4560ea":14384,"january":14385,"9999999999":14386,"increased":14387,"walking":14388,"zn4test7":14389,"bagentry":14390,"establishing":14391,"mandatory":14392,"rdlock":14393,"vulkan":14394,"glide":14395,"discarding":14396,"d9ef9":14397,"c5b":14398,"divides":14399,"teams":14400,"developers":14401,"──────────":14402,"0x7fb9357":14403,"0x7fb935adb":14404,"bido":14405,"7aca69f":14406,"portrait":14407,"porcelain":14408,"recibido":14409,"collide":14410,"wirefilter":14411,"eliquids":14412,"laser":14413,"lasagne":14414,"213mb":14415,"dragged":14416,"competition":14417,"reloadable":14418,"9a2094":14419,"grayscale":14420,"semaphores":14421,"tut2":14422,"woke":14423,"wood":14424,"hamming":14425,"hamilton":14426,"jdm":14427,"thost":14428,"0x5650":14429,"conversation":14430,"209a9":14431,"collisions":14432,"samplerate":14433,"libopenv":14434,"touching":14435,"cycler":14436,"influ":14437,"scraper":14438,"─┼───────":14439,"argty":14440,"http11protocol":14441,"abcabcabc":14442,"asn1input":14443,"e0004":14444,"essentially":14445,"techno":14446,"derivation":14447,"derivative":14448,"dpt1":14449,"retrieval":14450,"0x100a":14451,"mntonname":14452,"listings":14453,"284b3ba5f":14454,"388503":14455,"woothee":14456,"dealing":14457,"leveldb":14458,"276f89":14459,"overriding":14460,"stm32f4xx":14461,"lawrence":14462,"genesis":14463,"laptop":14464,"licensed":14465,"unit4provider":14466,"suggestion":14467,"prj3":14468,"0x7ff7c9ec":14469,"0x7ff7c9ed":14470,"amazonaws":14471,"lnk1181":14472,"involving":14473,"ingestor":14474,"glkunix":14475,"7f7dec":14476,"frgs":14477,"aaabbb":14478,"cadabra":14479,"abracadabra":14480,"───╫":14481,"doorbell":14482,"0x5574c8a10645":14483,"0x5574c8a10298":14484,"fluent":14485,"sigma2":14486,"b06cb5b":14487,"4starserver":14488,"wumpus":14489,"somefilehere":14490,"libkrb5":14491,"ef71f6665":14492,"9f3b06cb5b":14493,"bonds":14494,"odeint":14495,"concept":14496,"0x5f37":14497,"genetic":14498,"9846uniuni":14499,
[...]
