{"version":"1.0","truncation":null,"padding":null,"added_tokens":[{"id":0,"special":true,"content":"[UNK]","single_word":false,"lstrip":false,"rstrip":false,"normalized":false},{"id":1,"special":true,"content":"[CLS]","single_word":false,"lstrip":false,"rstrip":false,"normalized":false},{"id":2,"special":true,"content":"[SEP]","single_word":false,"lstrip":false,"rstrip":false,"normalized":false},{"id":3,"special":true,"content":"[PAD]","single_word":false,"lstrip":false,"rstrip":false,"normalized":false},{"id":4,"special":true,"content":"[MASK]","single_word":false,"lstrip":false,"rstrip":false,"normalized":false}],"normalizer":{"type":"BertNormalizer","clean_text":true,"handle_chinese_chars":true,"strip_accents":null,"lowercase":true},"pre_tokenizer":{"type":"ByteLevel","add_prefix_space":true,"trim_offsets":true},"post_processor":null,"decoder":null,"model":{"type":"BPE","dropout":null,"unk_token":"[UNK]","continuing_subword_prefix":null,"end_of_word_suffix":null,"fuse_unk":false,"vocab":{"[UNK]":0,"[CLS]":1,"[SEP]":2,"[PAD]":3,"[MASK]":4,"!":5,"\"":6,"#":7,"$":8,"%":9,"&":10,"'":11,"(":12,")":13,"*":14,"+":15,",":16,"-":17,".":18,"/":19,"0":20,"1":21,"2":22,"3":23,"4":24,"5":25,"6":26,"7":27,"8":28,"9":29,":":30,";":31,"<":32,"=":33,">":34,"?":35,"@":36,"[":37,"\\":38,"]":39,"^":40,"_":41,"`":42,"a":43,"b":44,"c":45,"d":46,"e":47,"f":48,"g":49,"h":50,"i":51,"j":52,"k":53,"l":54,"m":55,"n":56,"o":57,"p":58,"q":59,"r":60,"s":61,"t":62,"u":63,"v":64,"w":65,"x":66,"y":67,"z":68,"{":69,"|":70,"}":71,"~":72,"¡":73,"¢":74,"£":75,"¤":76,"¥":77,"¦":78,"§":79,"¨":80,"©":81,"ª":82,"«":83,"¬":84,"®":85,"¯":86,"°":87,"±":88,"²":89,"³":90,"´":91,"µ":92,"¶":93,"·":94,"¸":95,"¹":96,"º":97,"»":98,"¼":99,"½":100,"¾":101,"¿":102,"Â":103,"Ã":104,"Ä":105,"Ê":106,"Î":107,"Ï":108,"Ð":109,"Ñ":110,"à":111,"á":112,"â":113,"ã":114,"é":115,"ï":116,"Ġ":117,"Ģ":118,"ģ":119,"Ĥ":120,"ĥ":121,"Ħ":122,"ħ":123,"Ĩ":124,"ĩ":125,"Ī":126,"ī":127,"Ĭ":128,"ĭ":129,"Į":130,"į":131,"İ":132,"ı":133,"Ĳ":134,"ĳ":135,"Ĵ":136,"ĵ":137,"Ķ":138,"ķ":139,"ĸ":140,"Ĺ":141,"ĺ":142,"Ļ":143,"ļ":144,"ľ":145,"Ŀ":146,"ŀ":147,"Ł":148,"ł":149,"Ġt":150,"Ġi":151,"Ġa":152,"Ġth":153,"er":154,"Ġthe":155,"Ġc":156,"in":157,"Ġs":158,"Ġw":159,"re":160,"on":161,"at":162,"or":163,"Ġto":164,"ou":165,"en":166,"Ġb":167,"ing":168,"Ġf":169,"le":170,"st":171,"Ġm":172,"Ġin":173,"Ġd":174,"an":175,"Ġo":176,"Ġan":177,"ed":178,"Ġp":179,"it":180,"es":181,"Ġh":182,"Ġis":183,"ion":184,"al":185,"ct":186,"Ġn":187,"om":188,"Ġit":189,"Ġl":190,"Ġre":191,"Ġu":192,"is":193,"Ġof":194,"Ġy":195,"ow":196,"ic":197,"ar":198,"Ġyou":199,"et":200,"ru":201,"Ġe":202,"Ġand":203,"Ġwh":204,"se":205,"ve":206,"ly":207,"ent":208,"ut":209,"Ġthat":210,"Ġthis":211,"Ġbe":212,"ot":213,"ll":214,"Ġst":215,"Ġg":216,"od":217,"mp":218,"Ġon":219,"ld":220,"ith":221,"Ġfor":222,"Ġdo":223,"rust":224,"Ġha":225,"ro":226,"Ġcan":227,"ble":228,"ce":229,"ra":230,"ere":231,"Ġli":232,"Ġv":233,"Ġwith":234,"Ġas":235,"pe":236,"ment":237,"ke":238,"Ġex":239,"Ġnot":240,"Ġ(":241,"Ġcom":242,"ay":243,"mple":244,"ate":245,"as":246,"ould":247,"ation":248,"me":249,"Ġrust":250,"Ġcon":251,"Ġbut":252,"ch":253,"ver":254,"ĠĠ":255,"fer":256,"Ġus":257,"ad":258,"ction":259,"'t":260,"un":261,"Ġhow":262,"Ġty":263,"ur":264,"Ġpro":265,"Ġhave":266,"Ġso":267,"id":268,"ode":269,"il":270,"Ġne":271,"ter":272,"Ġcomp":273,"ig":274,"Ġse":275,"out":276,"ue":277,"Ġif":278,"Ġuse":279,"if":280,"Ġde":281,"ure":282,"'s":283,"ant":284,"Ġfun":285,"Ġcode":286,"able":287,"Ġor":288,"Ġ.":289,"Ġfi":290,"Ġfunction":291,"pp":292,"Ġare":293,"nd":294,"th":295,"Ġma":296,"rom":297,"Ġtype":298,"ul":299,"Ġpo":300,"ck":301,"Ġal":302,"Ġsom":303,"Ġwor":304,"Ġthere":305,"ore":306,"ich":307,"Ġfrom":308,"Ġ,":309,"Ġtr":310,"ally":311,"eth":312,"feren":313,"Ġlike":314,"err":315,"ge":316,"mplement":317,"Ġby":318,"Ġwhich":319,"error":320,"Ġimplement":321,"Ġch":322,"Ġdoes":323,"ill":324,"Ġval":325,"Ġerror":326,"Ġwork":327,"em":328,"ss":329,"Ġall":330,"Ġmy":331,"ces":332,"and":333,"Ġlo":334,"ers":335,"ime":336,"Ġwhat":337,"lo":338,"Ġsh":339,"Ġyour":340,"Ġusing":341,"Ġat":342,"ust":343,"all":344,"Ġwould":345,"Ġwhen":346,"Ġtra":347,"Ġint":348,"ruct":349,"Ġneed":350,"Ġreferen":351,"Ġj":352,"Ġar":353,"pt":354,"Ġget":355,"Ġway":356,"Ġsu":357,"urn":358,"so":359,"Ġca":360,"ain":361,"Ġwe":362,"Ġwant":363,"Ġexa":364,"'m":365,"Ġtrait":366,"Ġsa":367,"Ġret":368,"ound":369,"Ġany":370,"Ġwill":371,"ect":372,"im":373,"Ġen":374,"Ġreturn":375,"Ġpar":376,"lic":377,"Ġun":378,"ile":379,"ult":380,"Ġsome":381,"um":382,"Ġstruct":383,"Ġout":384,"Ġad":385,"qu":386,"iz":387,"ca":388,"use":389,"Ġexample":390,"ind":391,"ire":392,"Ġone":393,"am":394,"ht":395,"Ġ\"":396,"Ġme":397,"ari":398,"Ġcall":399,"Ġhas":400,"Ġinst":401,"Ġvalue":402,"Ġk":403,"Ġwr":404,"Ġfo":405,"ated":406,"ine":407,"Ġhere":408,"Ġthen":409,"nt":410,"fet":411,"Ġreference":412,"Ġr":413,"ort":414,"Ġru":415,"Ġab":416,"Ġtry":417,"Ġle":418,"Ġloo":419,"ive":420,"Ġcompil":421,"Ġonly":422,"ctor":423,"owing":424,"iv":425,"Ġam":426,"Ġlifet":427,"cause":428,"ject":429,"ethod":430,"Ġpoin":431,"Ġjust":432,"ary":433,"Ġadd":434,").":435,"erat":436,"de":437,"Ġbecause":438,"Ġapp":439,"Ġalso":440,"Ġmethod":441,"Ġinto":442,"Ġcre":443,"Ġfoll":444,"Ġdon":445,"cess":446,"Ġcont":447,"Ġshould":448,"Ġexp":449,"Ġgen":450,"ring":451,"age":452,"Ġte":453,"Ġsame":454,"Ġob":455,"ite":456,"Ġac":457,"end":458,"ri":459,"Ġfile":460,"ther":461,"Ġvari":462,"ide":463,"ight":464,"Ġco":465,"Ġcould":466,"ible":467,"oth":468,"Ġno":469,"Ġcompiler":470,"oug":471,"row":472,"Ġgener":473,"Ġdef":474,"Ġwhy":475,"read":476,"ata":477,"ass":478,"Ġve":479,"Ġfollowing":480,"blem":481,"Ġproblem":482,"erator":483,"ink":484,"li":485,"Ġother":486,"now":487,"Ġdif":488,"ach":489,"ert":490,"Ġlifetime":491,"que":492,"Ġres":493,"us":494,"la":495,"Ġmut":496,"ack":497,"for":498,"ign":499,"Ġdata":500,"Ġmore":501,"ial":502,"pec":503,"Ġbu":504,"Ġrun":505,"Ġcompile":506,"Ġtyp":507,"Ġbor":508,"ead":509,"Ġstring":510,"Ġknow":511,"ied":512,"ip":513,"wn":514,"Ġwas":515,"Ġmo":516,"ument":517,"ething":518,"Ġsomething":519,"Ġpr":520,"Ġlook":521,"ough":522,"Ġtrying":523,"Ġup":524,"Ġposs":525,"ity":526,"ang":527,"Ġdoesn":528,"Ġund":529,"Ġ1":530,"Ġgo":531,"Ġtw":532,"ific":533,"ever":534,"Ġfa":535,"ong":536,"el":537,"Ġpre":538,"te":539,"Ġmake":540,"Ġspec":541,"ues":542,"Ġcase":543,"Ġobject":544,"Ġvector":545,"quest":546,"Ġta":547,"Ġown":548,"Ġsol":549,"Ġtypes":550,"ir":551,"ting":552,"Ġlib":553,"Ġke":554,"Ġhowever":555,"not":556,"Ġborrow":557,"Ġsi":558,"Ġ:":559,"Ġvariable":560,"Ġsee":561,"Ġclo":562,"ray":563,"ist":564,"Ġtime":565,"Ġunder":566,"Ġpossible":567,"Ġpass":568,"Ġread":569,"gra":570,"Ġop":571,"put":572,"form":573,"Ġtwo":574,"Ġmat":575,"ard":576,"com":577,"Ġfir":578,"sure":579,"Ġcr":580,"Ġ-":581,"Ġfirst":582,"Ġthan":583,"Ġabout":584,"Ġpointer":585,"Ġpl":586,"Ġsy":587,"odu":588,"are":589,"ps":590,"Ġmem":591,"tern":592,"Ġinstead":593,"ions":594,"Ġover":595,"Ġseem":596,"Ġused":597,"..":598,"Ġwhere":599,"Ġser":600,"ab":601,"ans":602,"our":603,"Ġarray":604,"Ġnew":605,"Ġiterator":606,"Ġact":607,"ory":608,"Ġcreate":609,"ize":610,"ations":611,"gram":612,"Ġbet":613,"Ġper":614,"Ġev":615,"Ġdiffer":616,"rary":617,"ually":618,"Ġimp":619,"eck":620,"atic":621,"ild":622,"ice":623,"Ġmac":624,"Ġresult":625,"Ġprogram":626,"ince":627,"Ġnow":628,"con":629,"Ġdifferent":630,"Ġtrust":631,"'ve":632,"Ġmay":633,"Ġworks":634,"Ġparam":635,"Ġthey":636,"Ġwithout":637,"Ġclosure":638,"ition":639,"Ġrep":640,"Ġthread":641,"av":642,"ctly":643,"Ġparamet":644,"ange":645,"Ġsince":646,"arg":647,"Ġthem":648,"ows":649,"ution":650,"one":651,"Ġmacro":652,"Ġeach":653,"Ġvers":654,"Ġwrite":655,"ates":656,"oc":657,"ify":658,"ous":659,"int":660,"Ġcheck":661,"Ġset":662,"Ġopt":663,"ĠĠĠĠ":664,"Ġrequ":665,"Ġsc":666,"Ġpart":667,"Ġman":668,"ie":669,"Ġaf":670,"tt":671,"),":672,"ol":673,"Ġits":674,"Ġdoc":675,"ess":676,"Ġ2":677,"stand":678,"Ġquest":679,"pect":680,"Ġmemory":681,"Ġele":682,"led":683,"ose":684,"Ġmutable":685,"Ġins":686,"Ġrequire":687,"Ġlibrary":688,"::":689,"ress":690,"Ġkey":691,"ap":692,"Ġiss":693,"Ġimplementation":694,"Ġthing":695,"Ġcannot":696,"gr":697,"Ġcrate":698,"cept":699,"ex":700,"lf":701,"Ġcert":702,"Ġunderstand":703,"Ġvalues":704,"Ġgeneric":705,"orre":706,"ag":707,"Ġcontain":708,"other":709,"ove":710,"Ġelement":711,"cl":712,"we":713,"Ġpat":714,"ies":715,"Ġbo":716,"ning":717,"Ġthese":718,"Ġfe":719,"Ġdefin":720,"Ġafter":721,"Ġtried":722,"Ġdire":723,"Ġbuild":724,"ature":725,"Ġaccess":726,"Ġconver":727,"ud":728,"Ġfind":729,"Ġanother":730,"Ġmatch":731,"Ġgiv":732,"Ġarg":733,"Ġquestion":734,"ance":735,"Ġtest":736,"Ġreferences":737,"up":738,"Ġthink":739,"Ġconst":740,"ving":741,"urre":742,"fore":743,"Ġnum":744,"Ġever":745,"Ġsolution":746,"imes":747,"der":748,"Ġhand":749,"Ġversion":750,"ating":751,"Ġdes":752,"Ġcorre":753,"Ġver":754,"Ġim":755,"Ġdep":756,"kes":757,"Ġboth":758,"ber":759,"ast":760,"Ġseems":761,"Ġav":762,"ays":763,"Ġeven":764,"Ġable":765,"Ġcop":766,"Ġargument":767,"sw":768,"os":769,"ground":770,"Ġcomm":771,"Ġcl":772,"Ġstill":773,"ff":774,"Ġansw":775,"king":776,"urrent":777,"Ġpoint":778,"Ġplay":779,"'d":780,"Ġsign":781,"fe":782,"Ġprov":783,"Ġfunctions":784,"Ġass":785,"eld":786,"Ġcons":787,"Ġevery":788,"Ġhtt":789,"Ġstore":790,"Ġmult":791,"Ġchange":792,"low":793,"Ġfield":794,"art":795,"00":796,"Ġlong":797,"pl":798,"Ġap":799,"Ġho":800,"ase":801,"Ġwrit":802,"Ġreturns":803,"Ġline":804,"wh":805,"Ġsupp":806,"Ġissue":807,"Ġslic":808,"Ġconf":809,"Ġsuch":810,"Ġbas":811,"Ġend":812,"ame":813,"Ġoutput":814,"Ġcurrent":815,"Ġparameter":816,"Ġ'":817,"Ġdocument":818,"self":819,"Ġfix":820,"Ġdis":821,"ved":822,"ably":823,"Ġinside":824,"ub":825,"argo":826,"Ġmess":827,"alled":828,"Ġsimple":829,"cur":830,"Ġwhile":831,"Ġexpect":832,"Ġ?":833,"Ġanswer":834,"Ġlink":835,"Ġdepend":836,"ep":837,"Ġrem":838,"âĢ":839,"ec":840,"Ġmust":841,"Ġfound":842,"thing":843,"Ġid":844,"ween":845,"Ġactually":846,"Ġalloc":847,"Ġbetween":848,"Ġnote":849,"stem":850,"ks":851,"per":852,"Ġsure":853,"Ġmight":854,"Ġthrust":855,"//":856,"Ġinter":857,"Ġmultip":858,"Ġlet":859,"lock":860,"ized":861,"Ġhel":862,"ens":863,"Ġstate":864,"ful":865,"Ġqu":866,"cond":867,"Ġsimp":868,"her":869,"ail":870,"Ġcopy":871,"ither":872,"mut":873,"ference":874,"licit":875,"Ġvery":876,"Ġdec":877,"'re":878,"://":879,"Ġstructure":880,"Ġcargo":881,"Ġfail":882,"Ġmeans":883,"Ġconvert":884,"Ġsim":885,"Ġspecific":886,"Ġaut":887,"Ġcertific":888,"Ġloop":889,"Ġinv":890,"yn":891,"Ġreally":892,"Ġlist":893,"Ġdoing":894,"Ġbound":895,"iss":896,"Ġapplic":897,"Ġbit":898,"Ġabove":899,"Ġtake":900,"Ġallow":901,"vice":902,"Ġsecond":903,"ason":904,"Ġext":905,"Ġexec":906,"ced":907,"Ġenum":908,"pa":909,"rs":910,"Ġbeing":911,"Ġent":912,"Ġinde":913,"act":914,"own":915,"Ġreason":916,"Ġbefore":917,"les":918,"ual":919,"Ġdocumentation":920,"ault":921,"Ġappro":922,"Ġmultiple":923,"Ġsub":924,"ull":925,"ise":926,"Ġbeh":927,"Ġplayground":928,"ree":929,"Ġright":930,"Ġserver":931,"Ġnumber":932,"Ġweb":933,"mpt":934,"ically":935,"Ġchang":936,"Ġperform":937,"inal":938,"ord":939,"ci":940,"Ġide":941,"omatic":942,"Ġeither":943,"Ġloc":944,"Ġorder":945,"Ġeas":946,"Ġform":947,"ilar":948,"Ġsystem":949,"Ġmethods":950,"res":951,"Ġslice":952,"Ġhapp":953,"Ġback":954,"Ġworking":955,"Ġbeen":956,"Ġhelp":957,"oid":958,"Ġsimilar":959,"Ġsize":960,"ious":961,"xt":962,"lace":963,"):":964,"Ġmost":965,"Ġag":966,"Ġinput":967,"Ġdid":968,"Ġexpress":969,"Ġmessage":970,"Ġcomple":971,"Ġmod":972,"ser":973,"Ġthr":974,"Ġmodu":975,"Ġlang":976,"Ġblock":977,"Ġapplication":978,"Ġwell":979,"Ġexist":980,"Ġinte":981,"Ġcalled":982,"Ġlangu":983,"Ġerrors":984,"Ġdefault":985,"Ġuser":986,"Ġwra":987,"hip":988,"ok":989,"ten":990,"Ġproject":991,"uch":992,"Ġmove":993,"Ġoption":994,"Ġavoid":995,"Ġ3":996,"Ġsing":997,"Ġsco":998,"Ġcol":999,"Ġisn":1000,"ax":1001,"Ġthrough":1002,"++":1003,"Ġelements":1004,"Ġimplemented":1005,"ug":1006,"ility":1007,"Ġpattern":1008,"Ġgu":1009,"Ġhttps":1010,"Ġsingle":1011,"Ġlifetimes":1012,"Ġrunning":1013,"Ġbetter":1014,"Ġnon":1015,"Ġoper":1016,"ence":1017,"Ġhaving":1018,"Ġaround":1019,"ative":1020,"be":1021,"ready":1022,"Ġcorrect":1023,"ia":1024,"ne":1025,"ute":1026,"Ġuses":1027,"lain":1028,"Ġalready":1029,"Ġed":1030,"Ġprocess":1031,"enc":1032,"ways":1033,"Ġequ":1034,"Ġsynt":1035,"Ġvalid":1036,"Ġdet":1037,"Ġwon":1038,"Ġexplicit":1039,"Ġincl":1040,"ource":1041,"Ġthings":1042,"Ġlooks":1043,"Ġtrans":1044,"Ġsupport":1045,"Ġname":1046,"uture":1047,"io":1048,"ified":1049,"Ġtraits":1050,"ents":1051,"Ġstart":1052,"ish":1053,"ry":1054,"Ġthose":1055,"Ġimplements":1056,"cre":1057,"Ġitem":1058,"Ġalways":1059,"Ġfine":1060,"ider":1061,"mb":1062,"cri":1063,"Ġlit":1064,"Ġowners":1065,"ĠĠĠ":1066,"Ġiter":1067,"bably":1068,"Ġcertificate":1069,"Ġupd":1070,"Ġsay":1071,"Ġwind":1072,"Ġscope":1073,"Ġcle":1074,"Ġfuture":1075,"Ġ0":1076,"Ġownership":1077,"Ġitself":1078,"Ġprint":1079,"op":1080,"Ġra":1081,"...":1082,"ix":1083,"Ġagain":1084,"Ġgetting":1085,"Ġmuch":1086,"Ġreg":1087,"Ġcli":1088,"Ġhe":1089,"Ġprobably":1090,"Ġstack":1091,"Ġwrong":1092,"mit":1093,"Ġorig":1094,"itial":1095,"Ġdirectly":1096,"ments":1097,"ular":1098,"Ġfeature":1099,"Ġmain":1100,"Ġstatic":1101,"ately":1102,"Ġimport":1103,"Ġsyntax":1104,"igure":1105,"Ġeff":1106,"erm":1107,"Ġuns":1108,"Ġstand":1109,"ount":1110,"vious":1111,"ether":1112,"Ġbelow":1113,"Ġgiven":1114,"Ġfiles":1115,"Ġtakes":1116,"gest":1117,"Ġjav":1118,"ages":1119,"Ġchar":1120,"Ġbehav":1121,"Ġind":1122,"Ġbox":1123,"Ġneeds":1124,"Ġlin":1125,"Ġput":1126,"Ġ`":1127,"Ġsignature":1128,"Ġmodule":1129,"ract":1130,"Ġprodu":1131,"tes":1132,"Ġtell":1133,"Ġprovid":1134,"Ġindex":1135,"Ġatte":1136,"ger":1137,"Ġsm":1138,"Ġthough":1139,"Ġcommand":1140,"Ġsug":1141,"Ġx":1142,"Ġpath":1143,"ient":1144,"Ġdown":1145,"Ġcalling":1146,"eng":1147,"Ġonce":1148,"Ġborrowed":1149,"ciated":1150,"ases":1151,"Ġro":1152,"ph":1153,"Ġmany":1154,"ml":1155,"Ġimmut":1156,"Ġtheir":1157,"Ġspecify":1158,"Ġaccept":1159,"ially":1160,"Ġanything":1161,"Ġwriting":1162,"Ġhash":1163,"Ġel":1164,"Ġdefined":1165,"Ġapproach":1166,"Ġbehavi":1167,"Ġkind":1168,"Ġrequest":1169,"Ġmean":1170,"par":1171,"Ġsort":1172,"Ġsafe":1173,"Ġobjects":1174,"Ġpointers":1175,"Ġbin":1176,"Ġgives":1177,"pon":1178,"Ġconsider":1179,"cing":1180,"lease":1181,"Ġapi":1182,"Ġthreads":1183,"ves":1184,"ather":1185,"Ġgood":1186,"formation":1187,"Ġstandard":1188,"Ġedit":1189,"vel":1190,"Ġdone":1191,"ib":1192,"ustom":1193,"Ġ)":1194,"Ġlog":1195,"Ġshare":1196,"pped":1197,"Ġmakes":1198,"Ġlooking":1199,"Ġgot":1200,"Ġsuggest":1201,"store":1202,"Ġbytes":1203,"Ġsource":1204,"Ġlanguage":1205,"Ġoriginal":1206,"'ll":1207,"Ġfar":1208,"atch":1209,"ick":1210,"ctory":1211,"uda":1212,"Ġenough":1213,"Ġcreated":1214,"ical":1215,"edi":1216,"Ġsimply":1217,"nel":1218,"Ġidea":1219,"Ġcustom":1220,"Ġrel":1221,"Ġdro":1222,"Ġinitial":1223,"ream":1224,"Ġvariables":1225,"Ġvia":1226,"Ġimmutable":1227,"Ġmiss":1228,"Ġtok":1229,"Ġrather":1230,"Ġwindows":1231,"Ġdifference":1232,"Ġsend":1233,"Ġcontains":1234,"red":1235,"Ġenc":1236,"play":1237,"Ġ/":1238,"Ġrequires":1239,"ntime":1240,"Ġinformation":1241,"Ġcolle":1242,"Ġz":1243,"Ġparameters":1244,"01":1245,"Ġdependenc":1246,"ization":1247,"Ġexactly":1248,"Ġasso":1249,"()":1250,"Ġimplementing":1251,"64":1252,"Ġwithin":1253,"ling":1254,"Ġcurrently":1255,"Ġconstruct":1256,"Ġstructs":1257,"Ġbest":1258,"Ġinstance":1259,"Ġtoo":1260,"fa":1261,"Ġdefine":1262,"the":1263,"Ġrepres":1264,"Ġkeep":1265,"arch":1266,"son":1267,"Ġbased":1268,"Ġwho":1269,"ined":1270,"Ġnor":1271,"Ġexecut":1272,"Ġexpected":1273,"ffer":1274,"Ġcharact":1275,"Ġtup":1276,"Ġoptim":1277,"Ġfails":1278,"Ġgoing":1279,"Ġclient":1280,"Ġspa":1281,"ightly":1282,"Ġexpression":1283,"ternal":1284,"Ġruntime":1285,"bit":1286,"Ġcases":1287,"ctions":1288,"ength":1289,"Ġnam":1290,"Ġacc":1291,"Ġprovide":1292,"Ġbind":1293,"Ġlot":1294,"Ġreturned":1295,"ft":1296,"Ġreal":1297,"Ġaddition":1298,"Ġassociated":1299,"load":1300,"less":1301,"Ġopen":1302,"ext":1303,"bug":1304,"ival":1305,"Ġarguments":1306,"Ġdere":1307,"Ġgive":1308,"Ġhad":1309,"Ġadding":1310,"afe":1311,"Ġlast":1312,"Ġatt":1313,"Ġred":1314,"Ġfull":1315,"Ġhandle":1316,"og":1317,"arning":1318,"ty":1319,"Ġequival":1320,"ĠĠĠĠĠĠĠĠ":1321,"Ġresults":1322,"Ġnever":1323,"bers":1324,"ynam":1325,"Ġaddress":1326,"Ġrest":1327,"Ġ&":1328,"Ġcalls":1329,"Ġinstall":1330,"Ġvariant":1331,"Ġassign":1332,"Ġfields":1333,"Ġ4":1334,"sol":1335,"ention":1336,"Ġfigure":1337,"Ġavail":1338,"Ġbinary":1339,"Ġidi":1340,"Ġcuda":1341,"Ġpy":1342,"icient":1343,"curs":1344,"Ġoff":1345,"cket":1346,"Ġequivalent":1347,"Ġcreating":1348,"sted":1349,"Ġmode":1350,"Ġreturning":1351,"Ġjava":1352,"Ġstd":1353,"Ġaw":1354,"âĢĻ":1355,"ner":1356,"Ġallows":1357,"Ġwere":1358,"Ġlength":1359,"ume":1360,"Ġbuffer":1361,"Ġdynam":1362,"ense":1363,"Ġtemp":1364,"Ġsepar":1365,"Ġlocal":1366,"Ġoperator":1367,"Ġpartic":1368,"ics":1369,"Ġformat":1370,"ak":1371,"Ġmissing":1372,"Ġvec":1373,"Ġremove":1374,"ven":1375,"Ġclear":1376,"Ġstrings":1377,"rib":1378,"pping":1379,"Ġdirectory":1380,"uring":1381,"ade":1382,"pu":1383,"Ġattempt":1384,"Ġgeneral":1385,"hing":1386,"bo":1387,"ier":1388,"Ġavailable":1389,"thon":1390,"Ġdecla":1391,"Ġmodify":1392,"ithub":1393,"Ġneeded":1394,"which":1395,"Ġenv":1396,"Ġcomplete":1397,"rodu":1398,"Ġthus":1399,"Ġbehavior":1400,"Ġhttp":1401,"Ġupdate":1402,"arant":1403,"cessary":1404,"Ġsolve":1405,"where":1406,"Ġpan":1407,"ost":1408,"\".":1409,"Ġhappen":1410,"Ġplace":1411,"arante":1412,"Ġprogramm":1413,"curity":1414,"Ġidiomatic":1415,"ĠâĢ":1416,"Ġexcept":1417,"Ġdest":1418,"Ġguarante":1419,"Ġcompiles":1420,"Ġparticular":1421,"ron":1422,"Ġdevice":1423,"Ġlive":1424,"til":1425,"Ġreading":1426,"Ġwritten":1427,"sh":1428,"Ġrepresent":1429,"Ġpub":1430,"Ġrece":1431,"iron":1432,"Ġproper":1433,"Ġcontext":1434,"Ġach":1435,"Ġentire":1436,"ithm":1437,"Ġinclud":1438,"Ġdescri":1439,"Ġdefinition":1440,"wise":1441,"Ġheap":1442,"etc":1443,"Ġeverything":1444,"Ġsense":1445,"Ġpassed":1446,"ward":1447,"Ġachie":1448,"Ġsays":1449,"loc":1450,"Ġmacros":1451,"Ġsmall":1452,"Ġmap":1453,"Ġtool":1454,"wor":1455,"line":1456,"Ġstream":1457,"Ġfact":1458,"Ġenviron":1459,"Ġpython":1460,"Ġ[":1461,"Ġinteger":1462,"str":1463,"Ġleast":1464,"Ġpack":1465,"Ġwhether":1466,"Ġtherefore":1467,"Ġsimpl":1468,"Ġauth":1469,"Ġnorm":1470,"Ġlat":1471,"Ġadded":1472,"Ġaltern":1473,"ought":1474,"Ġexplicitly":1475,"Ġthanks":1476,"Ġmin":1477,"Ġcast":1478,"Ġmaybe":1479,"word":1480,"ote":1481,"Ġident":1482,"Ġstatement":1483,"Ġmade":1484,"Ġexplain":1485,"Ġelse":1486,"Ġtrusted":1487,"to":1488,"ross":1489,"Ġautomatic":1490,"Ġquite":1491,"Ġmaking":1492,"net":1493,"Ġpost":1494,"Ġmoved":1495,"ac":1496,"ark":1497,"urp":1498,"Ġprop":1499,"Ġhard":1500,"Ġ).":1501,"Ġconfig":1502,"Ġfew":1503,"Ġlonger":1504,"ude":1505,"Ġturn":1506,"Ġsuc":1507,"used":1508,"ability":1509,"Ġtuple":1510,"Ġnothing":1511,"iew":1512,"ices":1513,"Ġnext":1514,"arget":1515,"ator":1516,"Ġrec":1517,"Ġrefer":1518,"rowing":1519,"Ġterm":1520,"Ġperformance":1521,"Ġpassing":1522,"Ġenvironment":1523,"po":1524,"map":1525,"Ġshared":1526,"Ġdocs":1527,"Ġyet":1528,"ily":1529,"like":1530,"semb":1531,"aries":1532,"tle":1533,"Ġtests":1534,"Ġjson":1535,"Ġetc":1536,"Ġobvious":1537,"Ġfixed":1538,"Ġactual":1539,"pear":1540,"Ġconc":1541,"comm":1542,"Ġlar":1543,"Ġdebug":1544,"Ġgenerate":1545,"Ġlevel":1546,"Ġhost":1547,"Ġrequired":1548,"Ġbook":1549,"eve":1550,"pro":1551,"trust":1552,"Ġcomb":1553,"Ġoperation":1554,"Ġsit":1555,"Ġlines":1556,"Ġiterators":1557,"Ġlimit":1558,"Ġthought":1559,"Ġprett":1560,"Ġoc":1561,"Ġliter":1562,"Ġuntil":1563,"Ġdidn":1564,"by":1565,"side":1566,"Ġremo":1567,"lob":1568,"Ġ()":1569,"Ġdeal":1570,"using":1571,"Ġuseful":1572,"erating":1573,"Ġclass":1574,"alid":1575,"Ġowned":1576,".)":1577,"Ġdisc":1578,"Ġitems":1579,"tom":1580,"Ġpretty":1581,"sing":1582,"Ġwhole":1583,"Ġload":1584,"Ġbinding":1585,"Ġunsafe":1586,"comp":1587,"Ġconne":1588,"Ġconstant":1589,"Ġtimes":1590,"cure":1591,"Ġclone":1592,"erial":1593,"Ġasyn":1594,"Ġtas":1595,"Ġcertain":1596,"Ġproblems":1597,"Ġsw":1598,"Ġcomplain":1599,"Ġexamples":1600,"Ġcond":1601,"Ġcorrectly":1602,"Ġappear":1603,"Ġsearch":1604,"gor":1605,"Ġiterate":1606,"Ġprev":1607,"Ġachieve":1608,"sl":1609,"osed":1610,"32":1611,"lib":1612,"Ġ5":1613,"Ġcrates":1614,"Ġraw":1615,"Ġclosures":1616,"Ġstr":1617,"Ġhold":1618,"Ġimplementations":1619,"Ġtarget":1620,"ody":1621,"ourse":1622,"Ġgues":1623,"medi":1624,"pper":1625,"Ġplease":1626,"vant":1627,"Ġways":1628,"ef":1629,"velo":1630,"Ġcho":1631,"Ġautomatically":1632,"Ġspecial":1633,"crete":1634,"sembly":1635,"ilt":1636,"Ġcompilation":1637,"Ġinfer":1638,"ouble":1639,"ively":1640,"Ġborrowing":1641,"Ġvectors":1642,"arent":1643,"ux":1644,"wr":1645,"Ġlittle":1646,"ism":1647,"Ġ...":1648,"Ġarrays":1649,"Ġside":1650,"Ġfin":1651,"gorithm":1652,"Ġ=":1653,"back":1654,"Ġconcrete":1655,"Ġself":1656,"Ġcommon":1657,"Ġbasically":1658,"Ġalgorithm":1659,"Ġreplace":1660,"sion":1661,"fc":1662,"Ġattrib":1663,"Ġrespon":1664,"Ġcourse":1665,"Ġefficient":1666,"Ġhig":1667,"Ġhappens":1668,"Ġchecker":1669,"Ġallowed":1670,"Ġliteral":1671,"Ġour":1672,"Ġissues":1673,"Ġdue":1674,"ortun":1675,"Ġunf":1676,"reat":1677,"Ġless":1678,"mpty":1679,"its":1680,"Ġtru":1681,"rc":1682,"Ġnecessary":1683,"Ġok":1684,"Ġsem":1685,"Ġcontro":1686,"Ġknown":1687,"Ġinterfa":1688,"Ġnumbers":1689,"lying":1690,"Ġdesign":1691,"Ġconstra":1692,"Ġstored":1693,"Ġsever":1694,"Ġgets":1695,"Ġalternative":1696,"Ġfunctional":1697,"Ġchanged":1698,"set":1699,"Ġdetail":1700,"ni":1701,"Ġmatching":1702,"Ġseveral":1703,"org":1704,"time":1705,"Ġcapt":1706,"Ġsetting":1707,"Ġinsert":1708,"Ġsitu":1709,"Ġeasy":1710,"Ġmention":1711,"miss":1712,"Ġseparate":1713,"amp":1714,"Ġparse":1715,"Ġpublic":1716,"clar":1717,"Ġotherwise":1718,"lang":1719,"Ġfla":1720,"Ġrecurs":1721,"Ġdeserial":1722,"Ġbuilt":1723,"ql":1724,"though":1725,"Ġgr":1726,"Ġcomput":1727,"Ġ@":1728,"ernel":1729,"Ġbyte":1730,"Ġfra":1731,"Ġunfortun":1732,"entially":1733,"Ġbounds":1734,"Ġinvalid":1735,"\",":1736,"Ġcount":1737,"Ġali":1738,"Ġsomeone":1739,"Ġsuccess":1740,"Ġtext":1741,"Ġfast":1742,"Ġref":1743,"Ġpossib":1744,"Ġhead":1745,"Ġgra":1746,"Ġshort":1747,"Ġpriv":1748,"Ġoperations":1749,"Ġcompare":1750,"Ġdeclar":1751,"Ġ--":1752,"Ġroot":1753,"work":1754,"Ġprovided":1755,"Ġyes":1756,"Ġdynamic":1757,"Ġdevelo":1758,"ero":1759,"Ġstu":1760,"Ġworld":1761,"github":1762,"Ġnightly":1763,"Ġbre":1764,"Ġcompiled":1765,"Ġunderstanding":1766,"Ġdist":1767,"Ġcontent":1768,"fully":1769,"Ġempty":1770,"imal":1771,"Ġscri":1772,"Ġchanges":1773,"Ġbecom":1774,"Ġfollow":1775,"ha":1776,"Ġscript":1777,"ended":1778,"Ġtempor":1779,"val":1780,"Ġla":1781,"Ġpres":1782,"fo":1783,"Ġenable":1784,"doc":1785,"Ġrange":1786,"Ġconnection":1787,"Ġlock":1788,"Ġguess":1789,"Ġwarning":1790,"Ġresol":1791,"lder":1792,"Ġmach":1793,"uration":1794,"Ġsequ":1795,"Ġbeli":1796,"Ġnormal":1797,"ran":1798,"Ġdropped":1799,"toml":1800,"Ġserde":1801,"Ġmanually":1802,"nect":1803,"Ġkeys":1804,"Ġvis":1805,"Ġanyone":1806,"Ġlater":1807,"Ġimpl":1808,"itive":1809,"Ġcare":1810,"Ġkernel":1811,"Ġconsum":1812,"Ġcomment":1813,"Ġinclude":1814,"alc":1815,"Ġssl":1816,"Ġcomplex":1817,"Ġunfortunately":1818,"Ġpoints":1819,"iled":1820,"Ġpanic":1821,"base":1822,"over":1823,"Ġos":1824,"Ġtokio":1825,"Ġdependencies":1826,"Ġchanging":1827,"Ġstor":1828,"Ġpos":1829,"ted":1830,"Ġstable":1831,"Ġcause":1832,"Ġcapture":1833,"how":1834,"Ġflo":1835,"Ġbug":1836,"Ġprogramming":1837,"gn":1838,"Ġsaid":1839,"Ġserial":1840,"Ġsp":1841,"ors":1842,"alle":1843,"Ġextra":1844,"Ġbelieve":1845,"alcul":1846,"ware":1847,"Ġspace":1848,"arn":1849,"Ġcondition":1850,"Ġchain":1851,"Ġprefer":1852,"Ġannot":1853,"Ġstep":1854,"Ġallocation":1855,"Ġeffect":1856,"Ġinterface":1857,"Ġservice":1858,"Ġtruststore":1859,"ell":1860,"Ġrele":1861,"Ġ10":1862,"Ġslices":1863,"Ġspl":1864,"Ġrules":1865,"Ġimportant":1866,"oup":1867,"Ġben":1868,"Ġclon":1869,"Ġlarge":1870,"Ġword":1871,"cript":1872,"Ġredu":1873,"Ġcharacter":1874,"ives":1875,"Ġlinked":1876,"Ġfree":1877,"playground":1878,"Ġflag":1879,"raries":1880,"Ġwanted":1881,"Ġgenerated":1882,"Ġintrodu":1883,"pri":1884,"Ġoutside":1885,"Ġprevious":1886,"ob":1887,"html":1888,"est":1889,"Ġintere":1890,"ording":1891,"Ġglob":1892,"Ġfeel":1893,"log":1894,"Ġcompiling":1895,"Ġoptions":1896,"Ġsecurity":1897,"Ġsecure":1898,"Ġassume":1899,"Ġtaking":1900,"Ġhashmap":1901,"urther":1902,"Ġnode":1903,"Ġrelated":1904,"Ġrecomm":1905,"Ġfurther":1906,"Ġfil":1907,"ield":1908,"Ġcollection":1909,"Ġadditional":1910,"Ġcalcul":1911,"Ġnames":1912,"Ġduring":1913,"Ġcontaining":1914,"Ġspecifically":1915,"code":1916,"Ġlibraries":1917,"stamp":1918,"annel":1919,"Ġalias":1920,"way":1921,"omain":1922,"ird":1923,"Ġwrapper":1924,"Ġcome":1925,"Ġappropri":1926,"type":1927,"Ġdependency":1928,"Ġdeclare":1929,"Ġcontrol":1930,"Ġimage":1931,"Ġlinux":1932,"Ġprivate":1933,"Ġarm":1934,"Ġusually":1935,"Ġversions":1936,"Ġbig":1937,"Ġprim":1938,"Ġpurp":1939,"fect":1940,"Ġmoving":1941,"Ġconnect":1942,"Ġrfc":1943,"Ġder":1944,"Ġinstalled":1945,"Ġfollows":1946,"Ġregist":1947,"Ġexisting":1948,"Ġcontents":1949,"Ġmutability":1950,"Ġ201":1951,"Ġmark":1952,"Ġconcept":1953,"with":1954,"oun":1955,"Ġprovides":1956,"Ġaccording":1957,"Ġagainst":1958,"Ġzero":1959,"Ġdestruct":1960,"Ġassum":1961,"Ġeasily":1962,"Ġsplit":1963,"rix":1964,"uses":1965,"Ġasync":1966,"ait":1967,"Ġvs":1968,"Ġarbit":1969,"Ġprevent":1970,"Ġask":1971,"Ġruns":1972,"Ġbuilding":1973,"gin":1974,"Ġwrap":1975,"Ġes":1976,"Ġevent":1977,"string":1978,"Ġpe":1979,"unch":1980,"Ġcharacters":1981,"Ġinner":1982,"andom":1983,"Ġwonder":1984,"Ġrustc":1985,"ssl":1986,"Ġlikely":1987,"Ġmachine":1988,"around":1989,"lect":1990,"Ġtop":1991,"stable":1992,"tra":1993,"Ġview":1994,"Ġdevelop":1995,"Ġensure":1996,"Ġsection":1997,"Ġtemporary":1998,"lan":1999,"Ġcompar":2000,"Ġcaller":2001,"Ġdeterm":2002,"web":2003,"Ġpackage":2004,"Ġborrows":2005,"file":2006,"ently":2007,"Ġoutl":2008,"Ġlead":2009,"icate":2010,"man":2011,"Ġtask":2012,"Ġcoer":2013,"atform":2014,"Ġbasic":2015,"ding":2016,"Ġchannel":2017,"Ġtree":2018,"eri":2019,"Ġcompletely":2020,"flow":2021,"lies":2022,"Ġmatter":2023,"ave":2024,"Ġuni":2025,"Ġtrue":2026,"Ġcach":2027,"Ġpage":2028,"Ġut":2029,"Ġsemant":2030,"sy":2031,"Ġspecified":2032,"vm":2033,"pre":2034,"Ġinternal":2035,"Ġallocated":2036,"Ġrestri":2037,"Ġpropert":2038,"Ġexception":2039,"Ġappropriate":2040,"Ġworked":2041,"Ġmatrix":2042,"ension":2043,"Ġusage":2044,"Ġexperi":2045,"Ġmanag":2046,"Ġcertificates":2047,"Ġgoes":2048,"Ġgreat":2049,"Ġlanguages":2050,"Ġcombin":2051,"roid":2052,"most":2053,"Ġattribute":2054,"Ġexecutable":2055,"Ġproperly":2056,"Ġpie":2057,"Ġ8":2058,"Ġimplicit":2059,"ake":2060,"Ġshow":2061,"tain":2062,"Ġadv":2063,"Ġbody":2064,"Ġrandom":2065,"Ġdetails":2066,"Ġprot":2067,"Ġchecking":2068,"Ġarbitrary":2069,"bu":2070,"Ġmedi":2071,"idd":2072,"Ġport":2073,"Ġglobal":2074,"uplic":2075,"Ġlocation":2076,"Ġusers":2077,"12":2078,"Ġassembly":2079,"Ġtog":2080,"Ġgpu":2081,"Ġexternal":2082,"Ġalthough":2083,"Ġshows":2084,"Ġign":2085,"rl":2086,"Ġbegin":2087,"ased":2088,"Ġfeatures":2089,"ĠâĢĶ":2090,"ision":2091,"Ġregard":2092,"ived":2093,"Ġiteration":2094,"Ġ+":2095,"Ġcomments":2096,"gen":2097,"head":2098,"Ġsituation":2099,"Ġmedium":2100,"Ġdepending":2101,"Ġinvol":2102,"Ġclose":2103,"Ġkeyword":2104,"Ġold":2105,"Ġpract":2106,"Ġcomes":2107,"ging":2108,"Ġ#":2109,"Ġconstraint":2110,"Ġslow":2111,"allel":2112,"chron":2113,"Ġcreates":2114,"pace":2115,"ounter":2116,"Ġdescrib":2117,"Ġappears":2118,"gers":2119,"Ġmutate":2120,"iterator":2121,"spon":2122,"0000":2123,"izing":2124,"ery":2125,"Ġacross":2126,"Ġallocate":2127,"Ġexists":2128,"Ġframe":2129,"itch":2130,"Ġcorrespon":2131,"Ġtable":2132,"Ġequal":2133,"Ġtogether":2134,"Ġlay":2135,"Ġresponse":2136,"Ġthree":2137,"Ġff":2138,"Ġnice":2139,"Ġworkaround":2140,"etimes":2141,"Ġ),":2142,"Ġhaven":2143,"Ġsum":2144,"Ġunderlying":2145,"rypt":2146,"key":2147,"haps":2148,"Ġsl":2149,"Ġduplic":2150,"Ġwouldn":2151,"Ġquestions":2152,"Ġdownload":2153,"Ġrelease":2154,"Ġexecute":2155,"Ġfutures":2156,"Ġmentioned":2157,"ler":2158,"Ġsni":2159,"Ġyield":2160,"Ġexact":2161,"Ġtimestamp":2162,"Ġconversion":2163,"Ġaren":2164,"Ġcontainer":2165,"Ġdereferen":2166,"Ġmodel":2167,"da":2168,"Ġsomehow":2169,"Ġcallback":2170,"Ġdatabase":2171,"Ġbad":2172,"Ġincre":2173,"more":2174,"lex":2175,"Ġ;":2176,"pr":2177,"Ġseen":2178,"Ġconfiguration":2179,"ppet":2180,"of":2181,"Ġsat":2182,"igned":2183,"Ġaway":2184,"Ġparallel":2185,"Ġpermiss":2186,"Ġgenerics":2187,"Ġwrote":2188,"Ġcouldn":2189,"Ġplatform":2190,"itions":2191,"alu":2192,"Ġnested":2193,"Ġlearn":2194,"Ġleft":2195,"Ġhope":2196,"Ġhy":2197,"no":2198,"Ġfunctionality":2199,"ential":2200,"Ġsnippet":2201,"bor":2202,"Ġpa":2203,"Ġnamed":2204,"Ġcur":2205,"Ġffi":2206,"Ġpla":2207,"Ġmember":2208,"Ġmessages":2209,"Ġsequence":2210,"Ġexpand":2211,"Ġsigned":2212,"Ġanyway":2213,"app":2214,"atever":2215,"Ġchild":2216,"ush":2217,"Ġclean":2218,"Ġcla":2219,"chain":2220,"Ġevalu":2221,"eps":2222,"Ġful":2223,"Ġunless":2224,"Ġinstru":2225,"Ġdem":2226,"Ġlogic":2227,"wra":2228,"Ġeasier":2229,"Ġperhaps":2230,"box":2231,"get":2232,"Ġsatis":2233,"Ġabst":2234,"Ġscen":2235,"erates":2236,"Ġapply":2237,"Ġexecution":2238,"Ġcpu":2239,"Ġunable":2240,"Ġwhatever":2241,"10":2242,"Ġgoog":2243,"apter":2244,"Ġyourself":2245,"Ġoften":2246,"Ġph":2247,"ome":2248,"ired":2249,"Ġhandling":2250,"Ġcomplains":2251,"point":2252,"Ġswitch":2253,"Ġpers":2254,"fety":2255,"Ġsometimes":2256,"Ġboxed":2257,"Ġlearning":2258,"lish":2259,"Ġunc":2260,"Ġproduces":2261,"Ġpresent":2262,"Ġdereference":2263,"ities":2264,"Ġextract":2265,"Ġcollect":2266,")?":2267,"Ġdrop":2268,"Ġprints":2269,"Ġtrack":2270,"pm":2271,"Ġauthent":2272,"--":2273,"Ġrepla":2274,"Ġintegers":2275,"Ġspawn":2276,"Ġsatisf":2277,"Ġcomplic":2278,"Ġshouldn":2279,"Ġ7":2280,"Ġlow":2281,"ssible":2282,"Ġguarantee":2283,"Ġincluding":2284,"Ġsample":2285,"Ġtransform":2286,"86":2287,"Ġconfigure":2288,"Ġtoken":2289,"patch":2290,"Ġandroid":2291,"Ġimmedi":2292,"Ġthrow":2293,"Ġappre":2294,"Ġcopying":2295,"Ġobtain":2296,"Ġproduce":2297,"Ġundef":2298,"Ġkeystore":2299,"Ġmeaning":2300,"Ġposition":2301,"Ġunique":2302,"Ġfailed":2303,"Ġundefined":2304,"sting":2305,"Ġintern":2306,"arily":2307,"Ġhigh":2308,"ossible":2309,"ances":2310,"Ġrepe":2311,"Ġurl":2312,"Ġbrow":2313,"Ġminimal":2314,"Ġdomain":2315,"Ġess":2316,"Ġtrick":2317,"Ġfolder":2318,"Ġbehind":2319,"Ġremoved":2320,"Ġll":2321,"Ġindeed":2322,"ranch":2323,"omic":2324,"Ġimpossible":2325,"Ġstar":2326,"ided":2327,"Ġalmost":2328,"Ġgenerally":2329,"Ġsaying":2330,"min":2331,"Ġnone":2332,"Ġattemp":2333,"Ġdra":2334,"ication":2335,"odes":2336,"Ġsupposed":2337,"Ġrecommend":2338,"ised":2339,"write":2340,"Ġignore":2341,"Ġattempting":2342,"Ġiterating":2343,"utor":2344,"Ġtrouble":2345,"Ġobviously":2346,"Ġbranch":2347,"Ġcauses":2348,"value":2349,"Ġwords":2350,"Ġllvm":2351,"struct":2352,"Ġrelevant":2353,"Ġconstructor":2354,"Ġvariants":2355,"Ġalong":2356,"lin":2357,"htt":2358,"Ġmodules":2359,"Ġfinally":2360,"cc":2361,"Ġparts":2362,"Ġstarted":2363,"Ġfilter":2364,"late":2365,"Ġsite":2366,"ural":2367,"Ġdele":2368,"Ġparent":2369,"Ġdepends":2370,"ins":2371,"Ġutf":2372,"Ġcame":2373,"Ġvarious":2374,"Ġpair":2375,"sed":2376,"Ġgoal":2377,"Ġbehaviour":2378,"Ġbench":2379,"utorial":2380,"Ġwait":2381,"Ġfunctor":2382,"Ġauthor":2383,"Ġpiece":2384,"cker":2385,"utions":2386,"Ġpurpose":2387,"Ġdig":2388,"Ġstructures":2389,"11":2390,"ifier":2391,"Ġtwice":2392,"ken":2393,"security":2394,"conf":2395,"Ġspe":2396,"Ġsyn":2397,"cert":2398,"Ġfrust":2399,"ww":2400,"yle":2401,"Ġrecursive":2402,"Ġbreak":2403,"Ġcopied":2404,"Ġcore":2405,"Ġplan":2406,"lied":2407,"Ġimpro":2408,"Ġfloat":2409,"Ġoutlive":2410,"Ġsized":2411,"16":2412,"Ġfl":2413,"Ġdispatch":2414,"Ġinvo":2415,"alloc":2416,"Ġintegr":2417,"Ġsemantics":2418,"vector":2419,"Ġdeclared":2420,"pend":2421,"Ġ6":2422,"ascript":2423,"uss":2424,"Ġparsing":2425,"cp":2426,"Ġcross":2427,"Ġpot":2428,"ash":2429,"Ġinstant":2430,"ources":2431,"50":2432,"Ġmyself":2433,"Ġcontin":2434,"Ġstarting":2435,"name":2436,"Ġinc":2437,"Ġimmediately":2438,"Ġsomewhere":2439,"from":2440,"thrust":2441,"Ġchecks":2442,"Ġcache":2443,"mem":2444,"see":2445,"Ġfully":2446,"Ġ*":2447,"Ġdynamically":2448,"iter":2449,"Ġcompon":2450,"Ġselect":2451,"imum":2452,"def":2453,"Ġactix":2454,"Ġaccepts":2455,"Ġinitialize":2456,"Ġcomplicated":2457,"umn":2458,"Ġdiff":2459,"Ġsetup":2460,"Ġdeclaration":2461,"db":2462,"ms":2463,"std":2464,"ulate":2465,"Ġperfect":2466,"Ġanswers":2467,"Ġ64":2468,"ides":2469,"Ġtpm":2470,"Ġnet":2471,"Ġconfused":2472,"Ġtutorial":2473,"Ġdocker":2474,"Ġtech":2475,"Ġupdated":2476,"Ġfaster":2477,"Ġjavascript":2478,"201":2479,"Ġfinal":2480,"ople":2481,"Ġsocket":2482,"Ġseg":2483,"icro":2484,"Ġexplan":2485,"Ġsolutions":2486,"Ġmanage":2487,"Ġchoose":2488,"^^":2489,"Ġfore":2490,"Ġ32":2491,"Ġtransfer":2492,"Ġconv":2493,"Ġshown":2494,"Ġquery":2495,"Ġbits":2496,"Ġtesting":2497,"Ġthird":2498,"oding":2499,"Ġpeople":2500,"Ġessentially":2501,"Ġdies":2502,"udio":2503,"know":2504,"Ġmon":2505,"Ġstra":2506,"ols":2507,"hand":2508,"Ġpush":2509,"ison":2510,"Ġprin":2511,"Ġconverting":2512,"Ġgoogle":2513,"Ġremain":2514,"aking":2515,"Ġbenchm":2516,"Ġplug":2517,"Ġsimpler":2518,"==":2519,"ern":2520,"Ġfre":2521,"Ġaware":2522,"wards":2523,"Ġquick":2524,"Ġbase":2525,"Ġreport":2526,"Ġcommun":2527,"Ġcorresponding":2528,"my":2529,"Ġinf":2530,"Ġsolved":2531,"Ġpossibly":2532,"Ġparser":2533,"Ġcost":2534,"Ġbecomes":2535,"ath":2536,"Ġsafety":2537,"Ġsql":2538,"Ġresolve":2539,"Ġstoring":2540,"known":2541,"Ġinher":2542,"Ġchapter":2543,"sole":2544,"aster":2545,"oses":2546,"Ġreceive":2547,"Ġsimplified":2548,"Ġassuming":2549,"Ġhyper":2550,"Ġinstanti":2551,"Ġunne":2552,"Ġcolumn":2553,"Ġwondering":2554,"ification":2555,"Ġtells":2556,"opt":2557,"atible":2558,"Ġgithub":2559,"Ġsymb":2560,"Ġreasons":2561,"Ġstraight":2562,"Ġbrowser":2563,"Ġdisplay":2564,"this":2565,"Ġunit":2566,"Ġmutably":2567,"chronous":2568,"Ġgame":2569,"Ġran":2570,"Ġdescript":2571,"Ġlives":2572,"Ġmax":2573,"Ġregular":2574,"Ġstri":2575,"Ġrule":2576,"ception":2577,"Ġgraph":2578,"Ġenums":2579,"Ġdescribed":2580,"Ġcra":2581,"Ġfn":2582,"Ġchun":2583,"Ġstuff":2584,"Ġmis":2585,"rustify":2586,"Ġdirect":2587,"osit":2588,"Ġdiscuss":2589,"what":2590,"Ġentry":2591,"eric":2592,"Ġaccom":2593,"Ġindices":2594,"Ġfrustum":2595,"pes":2596,"Ġoverflow":2597,"Ġoverhead":2598,"plish":2599,"Ġends":2600,"Ġaccomplish":2601,"fficient":2602,"Ġwindow":2603,"cy":2604,"Ġexplanation":2605,"Ġprom":2606,"Ġsuppose":2607,"Ġcloning":2608,"view":2609,"Ġsave":2610,"Ġwebs":2611,"Ġexpressions":2612,"Ġoptional":2613,"Ġhence":2614,"Ġunstable":2615,"Ġresulting":2616,"static":2617,"ferences":2618,"Ġsuggested":2619,"ged":2620,"icult":2621,"Ġdeserialize":2622,"Ġdifficult":2623,"cise":2624,"Ġreprodu":2625,"Ġguide":2626,"manag":2627,"ying":2628,"Ġ().":2629,"Ġdiesel":2630,"inter":2631,"amb":2632,"ismatch":2633,"master":2634,"Ġ9":2635,"izes":2636,"Ġguaranteed":2637,"Ġhigher":2638,"Ġblocks":2639,"Ġslightly":2640,"Ġwasm":2641,"Ġconven":2642,"Ġknows":2643,"Ġmodified":2644,"config":2645,"Ġarch":2646,"Ġrout":2647,"Ġstatements":2648,"zone":2649,"Ġnull":2650,"Ġlooked":2651,"Ġextend":2652,"Ġhandler":2653,"Ġtot":2654,"stream":2655,"check":2656,"Ġhappening":2657,"Ġsuccessfully":2658,"oment":2659,"igu":2660,"Ġpatterns":2661,"Ġrever":2662,"Ġshor":2663,"Ġextension":2664,"Ġsk":2665,"Ġdouble":2666,"Ġasking":2667,"Ġcomparison":2668,"ping":2669,"Ġbra":2670,"Ġmoment":2671,"Ġmatches":2672,"20":2673,"Ġpractice":2674,"Ġexpects":2675,"Ġinterpre":2676,"Ġaccount":2677,"level":2678,"pecially":2679,"Ġaccessing":2680,"Ġinterested":2681,"Ġscenari":2682,"Ġones":2683,"Ġstatically":2684,"Ġwish":2685,"Ġmismatch":2686,"ceed":2687,"utes":2688,"Ġamount":2689,"Ġmutex":2690,"sp":2691,"Ġlate":2692,"Ġpassword":2693,"Ġheader":2694,"Ġreposit":2695,"Ġverify":2696,"Ġexecuted":2697,"system":2698,"Ġpi":2699,"orph":2700,"izer":2701,"000":2702,"can":2703,"mer":2704,"data":2705,"Ġmind":2706,"Ġstates":2707,"Ġshad":2708,"Ġimag":2709,"server":2710,"Ġrequirement":2711,"Ġsupported":2712,"Ġprimitive":2713,"safe":2714,"Ġentirely":2715,"ys":2716,"Ġmembers":2717,"Ġdestro":2718,"Ġbecome":2719,"cli":2720,"Ġindic":2721,"ibility":2722,"Ġfinish":2723,"Ġcover":2724,"Ġconsume":2725,"Ġsmart":2726,"fun":2727,"56":2728,"gex":2729,"Ġfair":2730,"Ġtag":2731,"Ġanal":2732,"Ġstop":2733,"Ġintended":2734,"Ġunwra":2735,"lict":2736,"Ġintermedi":2737,"Ġvisual":2738,"ls":2739,"Ġsteps":2740,"ivial":2741,"Ġgiving":2742,"urpr":2743,"Ġlaz":2744,"soft":2745,"Ġuncrustify":2746,"Ġstuck":2747,"let":2748,"Ġoth":2749,"und":2750,"Ġothers":2751,"Ġsch":2752,"Ġart":2753,"Ġchecked":2754,"Ġnetwork":2755,"Ġproced":2756,"Ġowns":2757,"Ġproperty":2758,"outer":2759,"Ġrend":2760,"irt":2761,"Ġconsidered":2762,"Ġsent":2763,"Ġoccurs":2764,"Ġear":2765,"but":2766,"Ġinfo":2767,"thread":2768,"Ġconsist":2769,"ĠĠĠĠĠĠĠĠĠĠĠĠĠĠĠĠ":2770,"Ġfollowed":2771,"wind":2772,"Ġsrc":2773,"iling":2774,"Ġinstances":2775,"Ġgenerates":2776,"Ġstorage":2777,"Ġconsole":2778,"Ġrelative":2779,"Ġmanaged":2780,"Ġnotice":2781,"Ġreduce":2782,"dd":2783,"Ġms":2784,"Ġrespect":2785,"Ġtoolchain":2786,"Ġappreciated":2787,"Ġpred":2788,"Ġrequirements":2789,"Ġdesired":2790,"Ġclearly":2791,"Ġgroup":2792,"Ġdetermine":2793,"ariant":2794,"Ġlimited":2795,"main":2796,"Ġstyle":2797,"Ġlu":2798,"oded":2799,"Ġcontained":2800,"Ġthinking":2801,"Ġideas":2802,"Ġregister":2803,"Ġpointed":2804,"Ġsurpr":2805,"Ġassignment":2806,"Ġderive":2807,"Ġespecially":2808,"iver":2809,"Ġremoving":2810,"Ġrepository":2811,"cr":2812,"det":2813,"src":2814,"Ġtuples":2815,"solute":2816,".,":2817,"fix":2818,"ole":2819,"Ġincludes":2820,"Ġrestrict":2821,"tr":2822,"Ġwrapping":2823,"Ġsettings":2824,"Ġnative":2825,"Ġexit":2826,"Ġactiv":2827,"Ġencrypt":2828,"ites":2829,"Ġabsolute":2830,"Ġconflict":2831,"Ġsupports":2832,"imp":2833,"ym":2834,"inate":2835,"Ġalign":2836,"Ġdefining":2837,"Ġimplicitly":2838,"Ġlayout":2839,"reen":2840,"sequ":2841,"ident":2842,"Ġlaunch":2843,"build":2844,"Ġunre":2845,"iddle":2846,"cargo":2847,"ivid":2848,"Ġintermediate":2849,"Ġemb":2850,"Ġcoup":2851,"Ġrepresentation":2852,"Ġdemon":2853,"sa":2854,"Ġanymore":2855,"Ġincorre":2856,"Ġregex":2857,"Ġgit":2858,"Ġforce":2859,"add":2860,"Ġ->":2861,"manager":2862,"Ġsound":2863,"Ġshorter":2864,"Ġinference":2865,"Ġcompute":2866,"Ġconfusing":2867,"Ġdemonstr":2868,"Ġstudio":2869,"Ġjo":2870,"Ġindire":2871,"Ġtools":2872,"Ġbindings":2873,"24":2874,"Ġcoerc":2875,"borrow":2876,"dk":2877,"initial":2878,"Ġreads":2879,"arger":2880,"04":2881,"Ġtries":2882,"Ġretri":2883,"Ġdetect":2884,"Ġalternatively":2885,"Ġunsized":2886,"Ġplaces":2887,"Ġinstructions":2888,"Ġer":2889,"Ġlets":2890,"Ġsafely":2891,"Ġnormally":2892,"Ġauthentication":2893,"Ġdraw":2894,"icrosoft":2895,"cop":2896,"Ġwebsite":2897,"icial":2898,"ising":2899,"Ġliterals":2900,"vices":2901,"Ġlarger":2902,"mental":2903,"Ġcopies":2904,"Ġholds":2905,"Ġrow":2906,"Ġrender":2907,"Ġembed":2908,"Ġunnecessary":2909,"Ġtal":2910,"Ġpop":2911,"Ġappend":2912,"body":2913,"Ġdisable":2914,"Ġspecifying":2915,"Ġterminal":2916,"ior":2917,"Ġdereferencing":2918,"iving":2919,"Ġpointing":2920,"iest":2921,"Ġdestroy":2922,"Ġouter":2923,"itely":2924,"Ġocc":2925,"Ġfailure":2926,"Ġtasks":2927,"?)":2928,"Ġhint":2929,"assembly":2930,"Ġtrig":2931,"test":2932,"clus":2933,"irtual":2934,"exp":2935,"Ġrequests":2936,"Ġturns":2937,"Ġadvance":2938,"Ġimagine":2939,"âĶ":2940,"Ġreach":2941,"vec":2942,"cell":2943,"Ġneither":2944,"bin":2945,"Ġsomewhat":2946,"Ġoverr":2947,"99":2948,"Ġnodes":2949,"Ġpanics":2950,"Ġperfectly":2951,"json":2952,"Ġclic":2953,"version":2954,"Ġmag":2955,"Ġwhenever":2956,"expect":2957,"Ġencounter":2958,"Ġenabled":2959,"Ġduplicate":2960,"only":2961,"Ġmaint":2962,"Ġworth":2963,"socket":2964,"Ġprograms":2965,"arently":2966,"detail":2967,"Ġopp":2968,"Ġstores":2969,"Ġincluded":2970,"Ġexport":2971,"Ġdifferences":2972,"Ġguard":2973,"Ġlatest":2974,"Ġfairly":2975,"forward":2976,"15":2977,"Ġtaken":2978,"Ġverb":2979,"Ġeasiest":2980,"gant":2981,"Ġloops":2982,"Ġcouple":2983,"Ġbro":2984,"ifies":2985,"debug":2986,"Ġprocessing":2987,"Ġyields":2988,"gg":2989,"path":2990,"Ġem":2991,"iler":2992,"Ġchoice":2993,"Ġcy":2994,"Ġwin":2995,"itect":2996,"Ġassert":2997,"Ġoccur":2998,"Ġinteresting":2999,"Ġsmaller":3000,"Ġpossibility":3001,"Ġimprove":3002,"Ġpow":3003,"jav":3004,"gist":3005,"array":3006,"chan":3007,"Ġterms":3008,"Ġinvoke":3009,"Ġneg":3010,"Ġanywhere":3011,"Ġmechan":3012,"Ġrocket":3013,"Ġintroduce":3014,"ho":3015,"Ġwants":3016,"Ġadvant":3017,"text":3018,"Ġdecide":3019,"Ġopenssl":3020,"trusted":3021,"14":3022,"Ġbar":3023,"Ġsimplest":3024,"writ":3025,"Ġscenario":3026,"Ġlinking":3027,"cated":3028,"icode":3029,"Ġfam":3030,"Ġlamb":3031,"Ġblocking":3032,"Ġdistin":3033,"ik":3034,"Ġug":3035,"Ġnear":3036,"Ġeffectively":3037,"Ġframework":3038,"core":3039,"Ġstru":3040,"Ġfill":3041,"case":3042,"cessarily":3043,"Ġconverted":3044,"member":3045,"just":3046,"irc":3047,"Ġtrustzone":3048,"Ġindivid":3049,"Ġguarantees":3050,"Ġabstract":3051,"graph":3052,"docs":3053,"Ġmet":3054,"Ġpull":3055,"Ġbackground":3056,"Ġstarts":3057,"trait":3058,"Ġproperties":3059,"lated":3060,"Ġpast":3061,"Ġsoon":3062,"Ġcry":3063,"Ġpartial":3064,"Ġasked":3065,"based":3066,"link":3067,"Ġtcp":3068,"onym":3069,"ifi":3070,"Ġstrange":3071,"Ġarchitect":3072,"gres":3073,"ma":3074,"ness":3075,"device":3076,"Ġboole":3077,"Ġconcern":3078,"Ġconstants":3079,"Ġmaintain":3080,"ref":3081,"Ġtrivial":3082,"Ġthank":3083,"Ġcommands":3084,"inst":3085,"lication":3086,"Ġapparently":3087,"Ġmulti":3088,"Ġideally":3089,"Ġlatter":3090,"Ġregarding":3091,"mode":3092,"rupt":3093,"Ġasp":3094,"Ġmoves":3095,"Ġ100":3096,"Ġcrash":3097,"af":3098,"sql":3099,"Ġadds":3100,"Ġauto":3101,"Ġfloating":3102,"aut":3103,"ops":3104,"Ġcounter":3105,"Ġenfor":3106,"ries":3107,"Ġactive":3108,"ensive":3109,"Ġwrapped":3110,"Ġputting":3111,"Ġasynchronous":3112,"Ġperson":3113,"Ġpotentially":3114,"ars":3115,"Ġjob":3116,"Ġ16":3117,"Ġdate":3118,"Ġoffer":3119,"Ġmeant":3120,"Ġdefines":3121,"Ġindexing":3122,"Ġsending":3123,"Ġpermission":3124,"part":3125,"ton":3126,"Ġunlike":3127,"Ġoffset":3128,"Ġpermissions":3129,"expected":3130,"Ġye":3131,"Ġinfin":3132,"Ġprocedural":3133,"Ġinvoc":3134,"Ġcasting":3135,"Ġidentifier":3136,"onymous":3137,"Ġbuilds":3138,"++,":3139,"Ġstrong":3140,"Ġconstraints":3141,"Ġir":3142,"iced":3143,"Ġpoly":3144,"ĠâĢľ":3145,"Ġplugin":3146,"\"?":3147,"ded":3148,"Ġoverload":3149,"Ġsorting":3150,"Ġtemplate":3151,"Ġbeginning":3152,"ped":3153,"Ġomit":3154,"Ġleave":3155,"Ġapplications":3156,"ency":3157,"Ġarchitecture":3158,"Ġgl":3159,"Ġcoming":3160,"Ġsoft":3161,"Ġdecided":3162,"Ġstdin":3163,"Ġdebugging":3164,"30":3165,"spect":3166,"Ġsil":3167,"Ġenter":3168,"xy":3169,"Ġbunch":3170,"Ġvirtual":3171,"Ġ(),":3172,"Ġowner":3173,"Ġlinker":3174,"Ġreader":3175,"Ġsuggestions":3176,"Ġexpecting":3177,"Ġconsumes":3178,"Ġslower":3179,"Ġlazy":3180,"Ġugly":3181,"Ġtre":3182,"Ġrelations":3183,"Ġattributes":3184,"Ġcrypt":3185,"Ġmist":3186,"ited":3187,"Ġresource":3188,"Ġorigin":3189,"client":3190,"Ġmechanism":3191,"cuda":3192,"gal":3193,"Ġremember":3194,"Ġreferenced":3195,"Ġcausing":3196,"âĢĿ":3197,"Ġofficial":3198,"Ġdevelopment":3199,"mera":3200,"vc":3201,"licy":3202,"Ġunknown":3203,"Ġallocations":3204,"Ġhelps":3205,"Ġannotations":3206,"that":3207,"Ġrepresents":3208,"28":3209,"Ġdll":3210,"Ġapplied":3211,"Ġmostly":3212,"19":3213,"Ġwasn":3214,"Ġclar":3215,"Ġmodifying":3216,"Ġstrugg":3217,"you":3218,"Ġpick":3219,"Ġsuggests":3220,"ront":3221,"Ġmiddle":3222,"Ġdirection":3223,"Ġspeed":3224,"Ġprinting":3225,"Ġvi":3226,"Ġability":3227,"Ġtested":3228,"Ġelegant":3229,"Ġhelpful":3230,"new":3231,"go":3232,"Ġderef":3233,"Ġrid":3234,"Ġgenerating":3235,"Ġinitialized":3236,"Ġdealloc":3237,"Ġinferred":3238,"spec":3239,"Ġ|":3240,"Ġjs":3241,"Ġweird":3242,"Ġleads":3243,"Ġdang":3244,"Ġstat":3245,"izations":3246,"Ġupon":3247,"abil":3248,"Ġcar":3249,"Ġub":3250,"13":3251,"pen":3252,"Ġinit":3253,"Ġwhose":3254,"Ġdeep":3255,"Ġgenerator":3256,"Ġpasses":3257,"Ġscreen":3258,"Ġsearching":3259,"Ġabstra":3260,"copy":3261,"Ġfit":3262,"Ġallowing":3263,"Ġinterior":3264,"Ġcalculate":3265,"Ġ{":3266,"Ġnoticed":3267,"Ġcap":3268,"Ġleav":3269,"ared":3270,"Ġassigned":3271,"ection":3272,"Ġboolean":3273,"apt":3274,"Ġmer":3275,"Ġended":3276,"Ġoutputs":3277,"Ġpaths":3278,"Ġoptimization":3279,"Ġconditional":3280,"Ġtrigger":3281,"bind":3282,"order":3283,"Ġanonymous":3284,"Ġht":3285,"Ġpool":3286,"Ġshell":3287,"Ġfailing":3288,"pac":3289,"http":3290,"Ġrecently":3291,"\":":3292,"ian":3293,"js":3294,"mac":3295,"Ġmeas":3296,"Ġapplies":3297,"27":3298,"ili":3299,"Ġcamera":3300,"Ġmanip":3301,"Ġaffect":3302,"Ġ20":3303,"api":3304,"Ġmarked":3305,"cast":3306,"Ġsituations":3307,"Ġbenef":3308,"Ġdestructor":3309,"Ġsoftware":3310,"orm":3311,"etic":3312,"note":3313,"engl":3314,"Ġadditionally":3315,"Ġrefers":3316,"Ġthrows":3317,"Ġflex":3318,"Ġallocating":3319,"Ġfigured":3320,"pacity":3321,"Ġexer":3322,"Ġcombine":3323,"pack":3324,"ts":3325,"Ġcompatible":3326,"Ġidentical":3327,"process":3328,"Ġcontinue":3329,"iguous":3330,"Ġrelationship":3331,"23":3332,"Ġcent":3333,"Ġresources":3334,"cii":3335,"Ġlower":3336,"Ġreuse":3337,"Ġsuspect":3338,"Ġcertainly":3339,"Ġinternally":3340,">>":3341,"Ġsha":3342,"Ġindepend":3343,"Ġsignatures":3344,"ogn":3345,"Ġconcat":3346,"Ġprevents":3347,"lection":3348,"kell":3349,"Ġflags":3350,"Ġcyc":3351,"cs":3352,"ump":3353,"Ġnat":3354,"Ġforward":3355,"Ġsystems":3356,"Ġinitialization":3357,"Ġalignment":3358,"sized":3359,"Ġtim":3360,"Ġcatch":3361,"inates":3362,"Ġdefinitely":3363,"Ġlinks":3364,"Ġinstallation":3365,"Ġbenchmark":3366,"lt":3367,"Ġmix":3368,"Ġinline":3369,"Ġhal":3370,"Ġgt":3371,"Ġmapping":3372,"Ġcomponent":3373,"Ġunwrap":3374,"mm":3375,"Ġproduct":3376,"Ġpublish":3377,"Ġcompared":3378,"Ġaliasing":3379,"Ġreplaced":3380,"Ġartic":3381,"Ġunicode":3382,"list":3383,"ledge":3384,"because":3385,"Ġcomputer":3386,"Ġinternet":3387,"Ġmaximum":3388,"Ġconvenient":3389,"Ġclick":3390,"Ġverbose":3391,"Ġill":3392,"Ġbot":3393,"Ġfall":3394,"eous":3395,"morph":3396,"Ġonto":3397,"Ġfinding":3398,"Ġsimplify":3399,"26":3400,":\\":3401,"reference":3402,"Ġhit":3403,"ificant":3404,"Ġ:)":3405,"Ġsets":3406,"Ġstraightforward":3407,"Ġluck":3408,"Ġhtml":3409,"umpt":3410,"Ġcirc":3411,"Ġdb":3412,"als":3413,"Ġproviding":3414,"idden":3415,"day":3416,"Ġ!":3417,"Ġreverse":3418,"`?":3419,"vis":3420,"Ġeventually":3421,"ond":3422,"Ġine":3423,"Ġna":3424,"Ġgcc":3425,"Ġhaskell":3426,"Ġoperators":3427,"Ġannotation":3428,"Ġprotoc":3429,"Ġadvantage":3430,"ses":3431,"Ġwarnings":3432,"df":3433,"ises":3434,"under":3435,"Ġnecessarily":3436,"Ġatomic":3437,"exception":3438,"Ġstdout":3439,"Ġindirection":3440,"Ġcoercion":3441,"modu":3442,"Ġunused":3443,"Ġcoord":3444,"Ġsatisfy":3445,"Ġhack":3446,"rome":3447,"Ġcaused":3448,"Ġwhereas":3449,"Ġoptimized":3450,"Ġexperience":3451,"Ġprefix":3452,"Ġopengl":3453,"Ġsorted":3454,"Ġexplains":3455,"Ġreplacing":3456,"Ġincorrect":3457,"Ġpolymorph":3458,"do":3459,"Ġwid":3460,"Ġdiv":3461,"Ġnumeric":3462,"Ġprogrammer":3463,"Ġfeels":3464,"ines":3465,"loy":3466,"Ġdifferently":3467,"exa":3468,"Ġwebassembly":3469,"Ġindicate":3470,"Ġrepresented":3471,"Ġrecogn":3472,"Ġtreat":3473,"Ġadapt":3474,"Ġdefinitions":3475,"509":3476,"Ġjoin":3477,"block":3478,"iring":3479,"Ġcell":3480,"permiss":3481,"Ġlists":3482,"Ġtelling":3483,"Ġoptimizations":3484,"ithmetic":3485,"Ġdesigned":3486,"lves":3487,"Ġseeing":3488,"urren":3489,"Ġhappy":3490,"Ġconsuming":3491,"iliar":3492,"Ġio":3493,"Ġnom":3494,"Ġlack":3495,"Ġfunda":3496,"ensions":3497,"Ġactivity":3498,"Ġcapacity":3499,"Ġmath":3500,"Ġdepre":3501,"Ġaddresses":3502,"Ġcombination":3503,"Ġreceiver":3504,"Ġrecommended":3505,"incl":3506,"Ġfront":3507,"Ġdel":3508,"Ġtyped":3509,"object":3510,"Ġpurposes":3511,"initialized":3512,"Ġpri":3513,"context":3514,"Ġhelper":3515,"Ġaccepted":3516,"Ġsuggestion":3517,"Ġdealing":3518,"Ġesca":3519,"Ġinvolved":3520,"Ġlambda":3521,"action":3522,"nam":3523,"oring":3524,"Ġknowledge":3525,"ĠĠĠĠĠ":3526,"oked":3527,"Ġpostgres":3528,"Ġcloned":3529,"Ġdescription":3530,"Ġconcaten":3531,"call":3532,"Ġcor":3533,"ster":3534,"Ġsignificant":3535,"Ġentries":3536,"lank":3537,"âĶĢ":3538,"Ġprior":3539,"/?":3540,"Ġplain":3541,"Ġallocator":3542,"Ġattach":3543,"Ġrepeated":3544,"Ġdestroyed":3545,".\"":3546,"17":3547,"25":3548,"Ġboot":3549,"Ġcommit":3550,"Ġkeeping":3551,"Ġrealize":3552,"Ġreceived":3553,"cannot":3554,"Ġretrieve":3555,"aks":3556,"light":3557,"signed":3558,"yond":3559,"any":3560,"Ġest":3561,"Ġconcurrent":3562,"Ġskip":3563,"cer":3564,"run":3565,"Ġascii":3566,"Ġreferencing":3567,"imension":3568,"Ġtokens":3569,"Ġexplained":3570,"Ġconfigured":3571,"Ġded":3572,"Ġsuper":3573,"queue":3574,"Ġmanual":3575,"Ġfreed":3576,"example":3577,"34":3578,"Ġpure":3579,"Ġarithmetic":3580,"Ġremote":3581,"jor":3582,"aring":3583,"Ġbeyond":3584,"Ġadmin":3585,"cont":3586,"Ġkinds":3587,"Ġattempts":3588,"Ġefficiently":3589,"Ġmagic":3590,"jection":3591,"tok":3592,"Ġrewrite":3593,"Ġrustup":3594,"Ġformatting":3595,"www":3596,"ifiers":3597,"Ġinvocation":3598,"Ġtypically":3599,"Ġsigning":3600,"epmaster":3601,"Ġrecursion":3602,"Ġsumm":3603,"Ġtechn":3604,"ype":3605,"Ġcub":3606,"Ġarc":3607,"Ġeditor":3608,"Ġprotect":3609,"hell":3610,"Ġhex":3611,"Ġvert":3612,"Ġobser":3613,"Ġprinted":3614,"Ġexecuting":3615,"Ġincrement":3616,"function":3617,"Ġviol":3618,"co":3619,"sto":3620,"Ġdr":3621,"ift":3622,"Ġadvice":3623,"Ġmutating":3624,"Ġencoding":3625,"Ġvisible":3626,"java":3627,"Ġdistinct":3628,"cut":3629,"Ġbl":3630,"arb":3631,"Ġinvariant":3632,"Ġflat":3633,"Ġchunks":3634,"Ġblank":3635,"Ġ(,":3636,"Ġseconds":3637,"Ġcomponents":3638,"Ġsegment":3639,"imately":3640,"Ġexpl":3641,"come":3642,"pass":3643,"iple":3644,"Ġoperating":3645,"Ġwrites":3646,"Ġhell":3647,"18":3648,"33":3649,"host":3650,"place":3651,"Ġ<":3652,"Ġhu":3653,"Ġlife":3654,"ptr":3655,"Ġtwa":3656,"Ġhandles":3657,"Ġoptimize":3658,"ĠâĢĵ":3659,"local":3660,"Ġalgorithms":3661,"Ġmeasure":3662,"Ġmine":3663,"ters":3664,"Ġlex":3665,"Ġlots":3666,"Ġembedded":3667,"Ġpower":3668,"Ġinfinite":3669,"unt":3670,"Ġproxy":3671,"cons":3672,"Ġserialization":3673,"Ġclause":3674,"Ġindividual":3675,"cf":3676,"Ġws":3677,"Ġche":3678,"ciate":3679,"Ġlimitation":3680,"clusive":3681,"Ġden":3682,"Ġpin":3683,"search":3684,"Ġsaw":3685,"Ġcreation":3686,"Ġprojects":3687,"Ġattempted":3688,"Ġnegative":3689,"Ġstruggling":3690,"Ġarticle":3691,"entions":3692,"Ġeng":3693,"Ġrc":3694,"Ġhandled":3695,"dr":3696,"Ġbuilder":3697,"Ġloaded":3698,"Ġleak":3699,"Ġexpose":3700,"Ġnewline":3701,"olon":3702,"Ġhoping":3703,"Ġelision":3704,"types":3705,"strate":3706,"Ġcaptured":3707,"Ġ2018":3708,"gress":3709,"Ġquot":3710,"Ġsubst":3711,"Ġrole":3712,"Ġapproaches":3713,"Ġzip":3714,"Ġconvention":3715,"Ġstatus":3716,"Ġ~":3717,"selves":3718,"ifest":3719,"Ġdev":3720,"oughly":3721,"Ġthemselves":3722,"Ġsymbols":3723,"Ġtotal":3724,"Ġoverride":3725,"down":3726,"Ġray":3727,"Ġdeprecated":3728,"domain":3729,"Ġip":3730,"Ġminimum":3731,"Ġconcepts":3732,"Ġpipe":3733,"Ġq":3734,"Ġsizes":3735,"Ġnic":3736,"etime":3737,"Ġworry":3738,"Ġfoo":3739,"Ġserialize":3740,"Ġinstruction":3741,"method":3742,"Ġkn":3743,"Ġrows":3744,"ĠĠĠĠĠĠ":3745,"Ġlocally":3746,"Ġidentity":3747,"Ġrecord":3748,"Ġmanager":3749,"allocated":3750,"table":3751,"Ġfour":3752,"Ġmicrosoft":3753,"Ġpolicy":3754,"Ġimported":3755,"Ġblog":3756,"alse":3757,"ands":3758,"ixel":3759,"^^^^":3760,"arbage":3761,"gon":3762,"Ġtl":3763,"Ġokay":3764,"Ġcomputation":3765,"Ġsymbol":3766,"Ġindicates":3767,"Ġsuit":3768,"usion":3769,"Ġassumpt":3770,"Ġswap":3771,"Ġdigit":3772,"stood":3773,");":3774,"avel":3775,"Ġexpensive":3776,"Ġinterrupt":3777,"Ġprotocol":3778,"cu":3779,"river":3780,"Ġaccessed":3781,"Ġlisten":3782,"ric":3783,"Ġ>":3784,"ruction":3785,"Ġregardless":3786,"defined":3787,"Ġsounds":3788,"pert":3789,"Ġcs":3790,"Ġunix":3791,"Ġconfir":3792,"Ġbinaries":3793,"Ġsucceed":3794,"Ġdiscussion":3795,"Ġroute":3796,"Ġexercise":3797,"untu":3798,"ience":3799,"Ġprecise":3800,"Ġchunk":3801,"Ġearly":3802,"na":3803,"arks":3804,"ets":3805,"const":3806,"exe":3807,"Ġedition":3808,"Ġpreferred":3809,"Ġrepeat":3810,"====":3811,"Ġfamiliar":3812,"Ġhalf":3813,"Ġie":3814,"Ġincomp":3815,"Ġemit":3816,"Ġalive":3817,"Ġelim":3818,"Ġdeclaring":3819,"Ġdistrib":3820,"2018":3821,"Ġtook":3822,"Ġbring":3823,"Ġgarbage":3824,"ateg":3825,"Ġprove":3826,"Ġentrust":3827,"Ġsyntact":3828,"Ġpreviously":3829,"https":3830,"Ġsources":3831,"ustr":3832,"specific":3833,"slic":3834,"Ġfold":3835,"ablish":3836,"Ġaccessible":3837,"Ġbreaking":3838,"Ġtotally":3839,"Ġcrypto":3840,"Ġknowing":3841,"29":3842,"has":3843,"Ġult":3844,"ulation":3845,"standing":3846,"Ġreasonable":3847,"Ġcomplexity":3848,"Ġpairs":3849,"Ġillustr":3850,"03":3851,"ek":3852,"Ġpay":3853,"Ġqual":3854,"Ġdeleg":3855,"impl":3856,"\")":3857,"ds":3858,"dis":3859,"allow":3860,"lier":3861,"pective":3862,"Ġinteract":3863,"Ġconnections":3864,"Ġintroduced":3865,"Ġmisunder":3866,"long":3867,"tw":3868,"Ġrequiring":3869,"Ġextre":3870,"Ġhardware":3871,"Ġclasses":3872,"Ġloading":3873,"Ġtoday":3874,"riend":3875,"Ġeverywhere":3876,"Ġbackend":3877,"factor":3878,"Ġhosting":3879,"Ġrelatively":3880,"Ġgtk":3881,"Ġestablish":3882,"size":3883,"icolon":3884,"Ġcollections":3885,"Ġabsolutely":3886,"etch":3887,"caps":3888,"Ġdeploy":3889,"Ġplaypen":3890,"Ġinputs":3891,"Ġcomplaining":3892,"Ġsemicolon":3893,"âĶĢâĶĢ":3894,"bound":3895,"icated":3896,"overflow":3897,"Ġdelete":3898,"Ġintegration":3899,"Ġinherit":3900,"Ġencountered":3901,"Ġabstraction":3902,"Ġextreme":3903,"fs":3904,"Ġqueue":3905,"Ġolder":3906,"itives":3907,"Ġnv":3908,"Ġchrome":3909,"Ġsufficient":3910,"Ġscal":3911,"pointer":3912,"sys":3913,"Ġclaim":3914,"Ġodd":3915,"Ġparsed":3916,"Ġdocumented":3917,"Ġlaravel":3918,"Ġexperiment":3919,"ng":3920,"Ġrely":3921,"Ġuninitialized":3922,"windows":3923,"Ġdat":3924,"Ġcontract":3925,"issues":3926,"Ġavoiding":3927,"Ġdetermined":3928,"----":3929,"blob":3930,"count":3931,"Ġrepo":3932,"Ġprovider":3933,"Ġwaiting":3934,"Ġhuge":3935,"08":3936,"such":3937,"Ġlookup":3938,"Ġendpoint":3939,"Ġconverts":3940,"Ġderived":3941,"trace":3942,"Ġlayer":3943,"gu":3944,"here":3945,"Ġencaps":3946,"Ġmanner":3947,"Ġboiler":3948,"Ġinvoked":3949,"Ġcounting":3950,"Ġsatisfied":3951,"Ġmistake":3952,"Ġindependent":3953,"cat":3954,"oura":3955,"Ġfat":3956,"Ġusual":3957,"Ġreadable":3958,"Ġinvolves":3959,"Ġclosest":3960,"Ġpredicate":3961,"Ġpixel":3962,"seud":3963,"Ġworker":3964,"Ġrepet":3965,"Ġsignal":3966,"Ġapis":3967,"Ġordering":3968,"ele":3969,"Ġhide":3970,"Ġrefactor":3971,"Ġonline":3972,"Ġlost":3973,"irect":3974,"user":3975,"Ġoverla":3976,"Ġxml":3977,"Ġinstalling":3978,"Ġcoerce":3979,"he":3980,"Ġdi":3981,"itor":3982,"secure":3983,"Ġplus":3984,"osing":3985,"Ġplaying":3986,"Ġsimilarly":3987,"Ġproduction":3988,"Ġassigning":3989,"book":3990,"Ġequality":3991,"Ġplane":3992,"Ġmanagement":3993,"]:":3994,"sub":3995,"Ġiron":3996,"odb":3997,"Ġevents":3998,"Ġreceiving":3999,"Ġfinished":4000,"oub":4001,"isation":4002,"thes":4003,"Ġpoll":4004,"Ġmacos":4005,"Ġafterwards":4006,"Ġconsumed":4007,"Ġubuntu":4008,"Ġbottom":4009,"mt":4010,"xml":4011,"edition":4012,"serial":4013,"Ġchannels":4014,"Ġpotential":4015,"off":4016,"sort":4017,"valid":4018,"Ġ):":4019,"Ġmutation":4020,"Ġentity":4021,"Ġstreams":4022,"Ġnamespace":4023,"Ġtechni":4024,"move":4025,"pc":4026,"uce":4027,"Ġdum":4028,"Ġmatched":4029,"plate":4030,"Ġassumes":4031,"Ġcomparing":4032,"Ġproduced":4033,"Ġregisters":4034,"Ġregistry":4035,"Ġdownloaded":4036,"Ġhopefully":4037,"Ġâ":4038,"anced":4039,"Ġdead":4040,"Ġupload":4041,"Ġtermin":4042,"Ġcaptures":4043,"Ġfloats":4044,"ked":4045,"nightly":4046,"ences":4047,"Ġtrailing":4048,"Ġpartially":4049,"Ġsubject":4050,"Ġdiscover":4051,"Ġexpanded":4052,"Ġdangling":4053,"Ġstabil":4054,"Ġkeeps":4055,"Ġconsidering":4056,"Ġcontroll":4057,"Ġprompt":4058,".:":4059,"fl":4060,"osen":4061,"Ġunsigned":4062,"Ġredund":4063,"Ġ=>":4064,"Ġconfirm":4065,"Ġboilerplate":4066,"col":4067,"Ġbr":4068,"Ġgave":4069,"Ġamb":4070,"ending":4071,"Ġtransl":4072,"Ġreferring":4073,"Ġreleased":4074,"Ġconflicting":4075,"Ġsuitable":4076,"Ġextremely":4077,"Ġtold":4078,"Ġduration":4079,"Ġdoub":4080,"Ġmajor":4081,"aren":4082,"Ġheaders":4083,"Ġcurious":4084,"linux":4085,"Ġhello":4086,"55":4087,"des":4088,"pite":4089,"since":4090,"Ġfalse":4091,"Ġneeding":4092,"Ġcred":4093,"ache":4094,"Ġfactor":4095,"Ġscan":4096,"Ġsubsequ":4097,"Ġformer":4098,"Ġattack":4099,"Ġsuccessful":4100,"().":4101,"Ġtit":4102,"Ġlig":4103,"Ġlibc":4104,"Ġseparately":4105,"Ġpackages":4106,"Ġprinc":4107,"Ġnaive":4108,"Ġsubstit":4109,"implement":4110,"Ġintention":4111,"ansion":4112,"result":4113,"Ġconditions":4114,"Ġdeserialization":4115,"Ġgrant":4116,"Ġprimitives":4117,"lexical":4118,"~~":4119,"Ġaction":4120,"igh":4121,"Ġopin":4122,"ression":4123,"osite":4124,"Ġcommented":4125,"gener":4126,"Ġreproduce":4127,"Ġrayon":4128,"Ġultimately":4129,"bra":4130,"Ġcull":4131,"Ġextern":4132,"vers":4133,"Ġprof":4134,"Ġprogress":4135,"iding":4136,"Ġready":4137,"Ġdropping":4138,"Ġdereferenced":4139,"permission":4140,"44":4141,"Ġsur":4142,"uted":4143,"Ġweak":4144,"Ġvalidate":4145,"Ġrespons":4146,"Ġcomputing":4147,"Ġreduction":4148,"Ġappreciate":4149,"Ġenforce":4150,"Ġbenefit":4151,"Ġinefficient":4152,"free":4153,"Ġwhites":4154,"Ġusable":4155,"Ġchosen":4156,"Ġtyping":4157,"Ġfeed":4158,"ync":4159,"Ġideal":4160,"Ġstrateg":4161,"Ġresolved":4162,"Ġspawned":4163,"imensional":4164,"Ġwent":4165,"ret":4166,"Ġstated":4167,"Ġexclusive":4168,"Ġroughly":4169,"Ġruby":4170,"Ġimplies":4171,"Ġperforms":4172,"Ġbracket":4173,"cision":4174,"Ġday":4175,"Ġclosed":4176,"Ġnewtype":4177,"Ġconditionally":4178,"36":4179,"ren":4180,"atives":4181,"orry":4182,"Ġstops":4183,"Ġwebsocket":4184,"Ġtransmut":4185,"compile":4186,"Ġconstrain":4187,"without":4188,"Ġdestructuring":4189,"auth":4190,"module":4191,"state":4192,"Ġgrow":4193,"Ġgdb":4194,"Ġsharing":4195,"Ġround":4196,"Ġexpansion":4197,"Ġ200":4198,"Ġdespite":4199,"Ġclients":4200,"Ġimmutably":4201,"Ġholding":4202,"Ġrestriction":4203,"Ġbeginner":4204,"Ġperspective":4205,"identally":4206,"Ġergon":4207,"written":4208,"Ġflexible":4209,"Ġfundamental":4210,"Ġil":4211,"legal":4212,"Ġpseud":4213,"eter":4214,"Ġcontra":4215,"Ġtab":4216,"Ġworkspace":4217,"aste":4218,"Ġlinear":4219,"open":4220,"Ġdestructure":4221,"fault":4222,"Ġreview":4223,"Ġbutton":4224,"Ġfire":4225,"Ġposted":4226,"Ġshowing":4227,"coming":4228,"Ġallocates":4229,"Ġlisted":4230,"Ġconstructed":4231,"Ġdescribe":4232,"Ġplaced":4233,"Ġcommunicate":4234,"Ġopinion":4235,"Ġfetch":4236,"Ġresearch":4237,"Ġforget":4238,"Ġ(\"":4239,"Ġupgra":4240,"Ġparty":4241,"access":4242,"Ġspecialization":4243,"Ġrecursively":4244,"Ġhighly":4245,"Ġtricky":4246,"Ġsurprising":4247,"aw":4248,"ned":4249,"stack":4250,"Ġvtable":4251,"Ġsaml":4252,"ession":4253,"factory":4254,"Ġturned":4255,"Ġtopic":4256,"boxed":4257,"Ġinterpret":4258,"macro":4259,"40":4260,"Ġapps":4261,"Ġinvolve":4262,"Ġcoordinates":4263,"mod":4264,"Ġdays":4265,"Ġadjust":4266,"west":4267,"Ġreduced":4268,"Ġrestrictions":4269,"Ġinstantiate":4270,"Ġconvenience":4271,"Ġbroken":4272,"39":4273,"Ġutil":4274,"roll":4275,"char":4276,"Ġintu":4277,"Ġunderstood":4278,"Ġmanifest":4279,"xception":4280,"Ġupper":4281,"Ġbelong":4282,"Ġbehave":4283,"Ġreflection":4284,"'.":4285,"fir":4286,"md":4287,"py":4288,"qwest":4289,"Ġnotes":4290,"Ġtail":4291,"Ġpermut":4292,"Ġprocesses":4293,"Ġguessing":4294,"Ġauthority":4295,"Ġtechnically":4296,"mo":4297,"verse":4298,"Ġissu":4299,"Ġperformed":4300,"Ġpieces":4301,"export":4302,"bb":4303,"jo":4304,"Ġdriver":4305,"Ġps":4306,"Ġge":4307,"change":4308,"adly":4309,"Ġmaster":4310,"Ġconfusion":4311,"Ġservers":4312,"board":4313,"Ġcombinator":4314,"Ġstrictly":4315,"256":4316,"35":4317,"yz":4318,"Ġtied":4319,"lear":4320,"Ġoperate":4321,"Ġrequested":4322,"Ġencode":4323,"Ġdiscard":4324,"Ġquickly":4325,"slice":4326,"idia":4327,"Ġtrace":4328,"aml":4329,"Ġtypical":4330,"Ġpreser":4331,"Ġinserting":4332,"Ġevaluated":4333,"Ġsegfault":4334,"make":4335,"tree":4336,"Ġsorry":4337,"Ġbus":4338,"Ġhist":4339,"mphas":4340,"Ġord":4341,"index":4342,"Ġgeneration":4343,"Ġapart":4344,"Ġsubstrate":4345,"Ġperforming":4346,"Ġlocated":4347,"create":4348,"Ġpropag":4349,"Ġleading":4350,"Ġincrease":4351,"Ġsynchron":4352,"default":4353,"Ġblanket":4354,"Ġcsv":4355,"kt":4356,"olog":4357,"vent":4358,"Ġflow":4359,"Ġmill":4360,"ancy":4361,"Ġanno":4362,"Ġparen":4363,"Ġvol":4364,"asp":4365,"Ġorg":4366,"there":4367,"Ġpress":4368,"Ġservices":4369,"Ġwraps":4370,"Ġsugar":4371,"Ġannotate":4372,"Ġearlier":4373,"Ġengine":4374,"Ġredundant":4375,"!)":4376,"Ġpw":4377,"ulated":4378,"Ġsolving":4379,"âĢĶ":4380,"Ġrepresenting":4381,"Ġdeveloper":4382,"Ġoutlives":4383,"Ġsqu":4384,"ingly":4385,"isk":4386,"Ġfault":4387,"Ġinspect":4388,"Ġchars":4389,"Ġproposed":4390,"program":4391,"Ġcombinations":4392,"Ġsched":4393,"77":4394,"dn":4395,"Ġ_":4396,"aneous":4397,"Ġ(&":4398,"Ġproc":4399,"Ġamong":4400,"Ġparticularly":4401,"Ġreceives":4402,"Ġrefcell":4403,"Ġremaining":4404,"Ġmismatched":4405,"trans":4406,"Ġyears":4407,"bie":4408,"non":4409,"null":4410,"norm":4411,"Ġmysql":4412,"comment":4413,"Ġsubset":4414,"service":4415,"Ġfurthermore":4416,"Ġplatforms":4417,"Ġleaving":4418,"Ġwhitespace":4419,"Ġuseless":4420,"Ġunexpected":4421,"Ġprocessor":4422,"Ġenclo":4423,"Ġencoded":4424,"Ġcombined":4425,"Ġintroducing":4426,"Ġfrequ":4427,"ysis":4428,"Ġillegal":4429,"38":4430,">?":4431,"Ġbes":4432,"ulator":4433,"ctories":4434,"Ġconvers":4435,"uding":4436,"Ġplayer":4437,"Ġmissed":4438,"Ġhappened":4439,"Ġalternatives":4440,"Ġrecent":4441,"Ġdistance":4442,"Ġ2015":4443,"after":4444,"sign":4445,"Ġpk":4446,"rable":4447,"Ġprecision":4448,"Ġupdating":4449,"Ġidentifiers":4450,"Ġpolymorphism":4451,"Ġerr":4452,"ilities":4453,"ppy":4454,"Ġboard":4455,"Ġconstruction":4456,"mutable":4457,"Ġcalculation":4458,"Ġcleaner":4459,"Ġforest":4460,"Ġtitle":4461,"first":4462,"ij":4463,"match":4464,"source":4465,"Ġbare":4466,"Ġforb":4467,"Ġabi":4468,"Ġtimeout":4469,"class":4470,"Ġaccesses":4471,"Ġsimult":4472,"Ġrare":4473,"...]":4474,"Ġproducing":4475,"Ġsends":4476,"project":4477,"Ġdeclarations":4478,"Ġgreatly":4479,"Ġcolumns":4480,"Ġoriginally":4481,"Ġculling":4482,"/.":4483,"09":4484,"zz":4485,"Ġpad":4486,"Ġsuff":4487,"imer":4488,"Ġdepth":4489,"Ġvalidation":4490,"Ġimporting":4491,"Ġaccum":4492,"Ġopposite":4493,"Ġlight":4494,"02":4495,"clo":4496,"lif":4497,"Ġ$":4498,"Ġsens":4499,"Ġshepmaster":4500,"Ġcolor":4501,"Ġheav":4502,"Ġopened":4503,"haust":4504,"Ġbraces":4505,"home":4506,"variant":4507,"ename":4508,"arking":4509,"Ġprofile":4510,"Ġprojection":4511,"Ġsees":4512,"assign":4513,"temp":4514,"Ġcerts":4515,"Ġquote":4516,"Ġupdates":4517,"Ġreferred":4518,"certific":4519,"Ġmiddleware":4520,"Ġsimultaneous":4521,"05":4522,"Ġiis":4523,"Ġexits":4524,"urally":4525,"Ġabort":4526,"comput":4527,"Ġcopyable":4528,"Ġsites":4529,"Ġrespectively":4530,"Ġunrelated":4531,"Ġinheritance":4532,"31":4533,"Ġ}":4534,"Ġtrustmanager":4535,"Ġconcise":4536,"Ġfrag":4537,"Ġprimary":4538,"Ġgreater":4539,"certs":4540,"Ġnicer":4541,"ges":4542,"Ġreqwest":4543,"raw":4544,"Ġ12":4545,"Ġtransformation":4546,"mitted":4547,"ibly":4548,"Ġcareful":4549,"Ġevaluate":4550,"ailed":4551,"port":4552,"su":4553,"ination":4554,"Ġmaps":4555,"Ġatom":4556,"Ġago":4557,"Ġscoped":4558,"php":4559,"Ġoptimizer":4560,"Ġredirect":4561,"Ġinserted":4562,"Ġdevelopers":4563,"Ġanalysis":4564,"Ġescape":4565,"Ġstrategy":4566,"Ġmc":4567,"Ġspecification":4568,"Ġavoids":4569,"Ġ[...]":4570,"foo":4571,"Ġlocking":4572,"Ġconcatenate":4573,"Ġdummy":4574,"Ġannoying":4575,"Ġconversions":4576,"<&":4577,"di":4578,"microsoft":4579,"target":4580,"ystem":4581,"Ġfriend":4582,"Ġhis":4583,"Ġrev":4584,"Ġconsequ":4585,"dev":4586,"ĠĠĠĠĠĠĠ":4587,"Ġboundary":4588,"Ġintell":4589,"Ġrealloc":4590,"shake":4591,"Ġstrict":4592,"hello":4593,"Ġcredential":4594,"even":4595,"hi":4596,"right":4597,"some":4598,"tre":4599,"reg":4600,"icks":4601,"Ġstay":4602,"Ġalter":4603,"istr":4604,"Ġimports":4605,"Ġelsewhere":4606,"Ġchildren":4607,"lines":4608,"writing":4609,"Ġconcerned":4610,"Ġassumption":4611,"ipped":4612,"ining":4613,"Ġhidden":4614,"Ġnotation":4615,"Ġunsure":4616,"Ġsolves":4617,"conne":4618,"++.":4619,"Ġdetailed":4620,"Ġachieved":4621,"Ġsearched":4622,"Ġsync":4623,"Ġcrashes":4624,"Ġwidth":4625,"Ġcheap":4626,"Ġparenthes":4627,"ln":4628,"Ġpain":4629,"Ġhome":4630,"Ġnewbie":4631,"Ġrealized":4632,"Ġdeveloping":4633,"Ġcallbacks":4634,"Ġreports":4635,"Ġmerge":4636,"Ġdrive":4637,"ral":4638,"rins":4639,"lete":4640,"leep":4641,"omorph":4642,"erative":4643,"Ġfixes":4644,"Ġchaining":4645,"Ġprotot":4646,"Ġdescribes":4647,"Ġlearned":4648,"option":4649,"Ġinitially":4650,"07":4651,"kit":4652,"rt":4653,"Ġcodes":4654,"Ġaside":4655,"uming":4656,"umably":4657,"lab":4658,"Ġmutated":4659,"Ġimages":4660,"Ġtrun":4661,"Ġmatters":4662,"generic":4663,"Ġshadowing":4664,"normal":4665,"',":4666,"54":4667,"88":4668,">,":4669,"depend":4670,"Ġdisk":4671,"Ġinputiterator":4672,"Ġconstructors":4673,"print":4674,"Ġforever":4675,"token":4676,"Ġvertex":4677,"mphasis":4678,"connection":4679,"dp":4680,"win":4681,"Ġlab":4682,"Ġreject":4683,"Ġsupert":4684,"Ġfixing":4685,"Ġinitializing":4686,"Ġgrid":4687,"Ġunclear":4688,"Ġdescriptor":4689,"Ġcovered":4690,"Ġsurprised":4691,"install":4692,"Ġnatural":4693,"named":4694,"fra":4695,"Ġtls":4696,"Ġmentions":4697,"verage":4698,"Ġproceed":4699,"Ġdecrypt":4700,"Ġtalk":4701,"Ġclarify":4702,"Ġadministr":4703,"element":4704,"gb":4705,"sers":4706,"Ġtheory":4707,"Ġtom":4708,"Ġhour":4709,"Ġaligned":4710,"Ġloss":4711,"while":4712,"Ġboxing":4713,"Ġlogging":4714,"Ġopening":4715,"wrap":4716,"Ġinstantiation":4717,"Ġoffers":4718,"Ġincompatible":4719,"Ġpwa":4720,"Ġax":4721,"ats":4722,"Ġintent":4723,"Ġmodification":4724,"Ġnamely":4725,"Ġeffort":4726,"Ġaccepting":4727,"urrency":4728,"97":4729,"fn":4730,"asing":4731,"ema":4732,"ips":4733,"Ġspecifies":4734,"Ġowning":4735,"Ġsubstring":4736,"Ġreplacement":4737,"Ġkernels":4738,"Ġstrongly":4739,"az":4740,"Ġgain":4741,"Ġgone":4742,"Ġfort":4743,"adata":4744,"Ġretain":4745,"Ġkept":4746,"Ġlocations":4747,"Ġboxes":4748,"Ġnaming":4749,"Ġbigger":4750,"Ġsynchronous":4751,"Ġanalog":4752,"bindgen":4753,"22":4754,"rices":4755,"erous":4756,"info":4757,"once":4758,"Ġmapped":4759,"Ġarr":4760,"Ġresort":4761,"Ġnewer":4762,"Ġhood":4763,"Ġautom":4764,"Ġ`&":4765,"tool":4766,"Ġliterally":4767,"Ġbugs":4768,"Ġsplitting":4769,"Ġapplying":4770,"anges":4771,"Ġanswered":4772,"Ġenumer":4773,"resh":4774,"Ġacceptable":4775,"Ġexecutes":4776,"Ġseparated":4777,"Ġtargets":4778,"Ġmarker":4779,"Ġignored":4780,"Ġforeign":4781,"Ġrecognize":4782,"serialize":4783,"Ġprinciple":4784,"Ġbesides":4785,"lled":4786,"lined":4787,"Ġsadly":4788,"Ġfoc":4789,"atically":4790,"urred":4791,"Ġspring":4792,"Ġinternals":4793,"00000000":4794,"Ġmonomorph":4795,"Ġbenchmarks":4796,"Ġleaves":4797,"Ġmisunderstanding":4798,"Ġsubsequent":4799,"internal":4800,"atibility":4801,"style":4802,"Ġiterates":4803,"section":4804,"Ġgp":4805,"users":4806,"angle":4807,"Ġpreced":4808,"Ġdependent":4809,"Ġletter":4810,"command":4811,"Ġremoves":4812,"Ġtexture":4813,"Ġarms":4814,"Ġcoerced":4815,"Ġcurl":4816,"Ġopposed":4817,"Ġcircum":4818,"Ġtechnique":4819,"dere":4820,"post":4821,"vari":4822,"Ġsn":4823,"Ġaspect":4824,"Ġexhaust":4825,"develo":4826,"Ġcontiguous":4827,"Ġ11":4828,"Ġdecre":4829,"Ġvscode":4830,"Ġoverloading":4831,"length":4832,"Ġpages":4833,"asm":4834,"Ġunboxed":4835,"exec":4836,"Ġbounding":4837,"Ġconstructing":4838,"Ġspaces":4839,"ogen":4840,"works":4841,"Ġreflect":4842,"Ġgramm":4843,"Ġconnecting":4844,"certificate":4845,"37":4846,"may":4847,"Ġcard":4848,"Ġtouch":4849,"rait":4850,"Ġnoted":4851,"igr":4852,"Ġsomebody":4853,"Ġrot":4854,"Ġlegal":4855,"Ġfacing":4856,"Ġimpact":4857,"Ġdirectories":4858,"Ġreasoning":4859,"Ġlogical":4860,"Ġevaluation":4861,"Ġphp":4862,"Ġphys":4863,"omicon":4864,"Ġmonitor":4865,"aque":4866,"pub":4867,"rd":4868,"ws":4869,"arp":4870,"Ġ..":4871,"Ġopaque":4872,"Ġagree":4873,"Ġiterations":4874,"Ġformatted":4875,"Ġexceptions":4876,"Ġlevels":4877,"Ġpractical":4878,"Ġclap":4879,"ĠĠĠĠĠĠĠĠĠĠĠĠĠĠĠĠĠĠĠĠĠĠĠĠĠĠĠĠĠĠĠĠ":4880,"Ġcenter":4881,"Ġcontroller":4882,"Ġsquare":4883,"06":4884,"dire":4885,"Ġmere":4886,"Ġpc":4887,"ithread":4888,"Ġcompany":4889,"Ġreplic":4890,"prov":4891,"Ġdigits":4892,"Ġassertion":4893,"Ġcycle":4894,"Ġnaturally":4895,"47":4896,"via":4897,"Ġsleep":4898,"Ġwal":4899,"ingu":4900,"rustc":4901,"ilot":4902,"Ġworse":4903,"Ġchron":4904,"loop":4905,"Ġadapter":4906,"Ġhasn":4907,"Ġrisk":4908,"Ġmatrices":4909,"Ġclue":4910,"Ġmultithread":4911,"Ġextensions":4912,"Ġlogin":4913,"ierarch":4914,"Ġfilled":4915,"Ġutility":4916,"Ġscene":4917,"Ġplugins":4918,"Ġcommunication":4919,"Ġencrypted":4920,"Ġtalking":4921,"Ġoccurred":4922,"including":4923,"Ġflatten":4924,"->":4925,"fill":4926,"gle":4927,"hash":4928,"tup":4929,"uff":4930,"ici":4931,"Ġ&[":4932,"Ġcontexts":4933,"Ġidentify":4934,"Ġterminate":4935,"Ġswa":4936,"Ġtables":4937,"borrowing":4938,"Ġpresented":4939,"Ġinvoking":4940,"Ġcontinu":4941,"Ġconsists":4942,"Ġdisabled":4943,"Ġpersonally":4944,"return":4945,"(),":4946,"?).":4947,"zero":4948,"Ġct":4949,"ingw":4950,"Ġhierarch":4951,"alone":4952,"Ġcoll":4953,"Ġmoreover":4954,"Ġfactory":4955,"Ġbranches":4956,"Ġhints":4957,"Ġbrackets":4958,"].":4959,"each":4960,"request":4961,"Ġdir":4962,"etric":4963,"Ġgn":4964,"Ġforg":4965,"ask":4966,"Ġfav":4967,"Ġfinds":4968,"Ġdecode":4969,"Ġtempl":4970,"Ġpresumably":4971,"Ġmetadata":4972,"Ġexplor":4973,"Ġdigital":4974,"Ġcryptograph":4975,"ee":4976,"Ġahead":4977,"start":4978,"Ġforces":4979,"Ġsoap":4980,"Ġintend":4981,"Ġacqu":4982,"Ġcloser":4983,"Ġpartition":4984,"Ġignoring":4985,"Ġdereferences":4986,"Ġshader":4987,"Ġdemonstrates":4988,"Ġrendering":4989,"Ġsummary":4990,"inguish":4991,"46":4992,"eme":4993,"ools":4994,"sm":4995,"xx":4996,"Ġfig":4997,"Ġdot":4998,"Ġstamp":4999,"Ġwel":5000,"abling":5001,"ogle":5002,"Ġharder":5003,"Ġtracking":5004,"structure":5005,"Ġconsistent":5006,"Ġrestricted":5007,"Ġlexical":5008,"Ġadministrator":5009,"parent":5010,"pilot":5011,"som":5012,"Ġcoding":5013,"Ġld":5014,"Ġlint":5015,"Ġassemb":5016,"ushing":5017,"Ġspecifier":5018,"Ġapplicable":5019,"Ġtranslate":5020,"Ġdeserializing":5021,"Ġinvalidate":5022,"Ġnicely":5023,"Ġcurs":5024,"Ġdiscussed":5025,"borrowed":5026,"Ġconcurrently":5027,"Ġcredentials":5028,"Ġgrammar":5029,"Ġfiguring":5030,"21":5031,"95":5032,">`":5033,"git":5034,"hel":5035,"Ġast":5036,"Ġwarn":5037,"oups":5038,"Ġincoming":5039,"Ġstick":5040,"Ġarea":5041,"Ġexposed":5042,"Ġseries":5043,"construct":5044,"bern":5045,"Ġextended":5046,"cret":5047,"library":5048,"Ġaliases":5049,"Ġpossibilities":5050,"Ġassumed":5051,"Ġspawning":5052,"Ġreached":5053,"Ġsimultaneously":5054,"Ġchrono":5055,"-)":5056,"48":5057,"release":5058,"Ġpdf":5059,"laimer":5060,"ongodb":5061,"Ġseemed":5062,"Ġapprox":5063,"Ġprintln":5064,"Ġroles":5065,"Ġbuffers":5066,"Ġclearer":5067,"byte":5068,"Ġconstrained":5069,"Ġenables":5070,"Ġschema":5071,"Ġunlikely":5072,"Ġcarry":5073,"blocking":5074,"Ġsyntactic":5075,"Ġtomcat":5076,"enum":5077,"android":5078,"istent":5079,"osition":5080,"Ġelided":5081,"Ġcounts":5082,"Ġbreaks":5083,"Ġconnected":5084,"buffer":5085,"Ġmsvc":5086,"Ġdelim":5087,"Ġintellij":5088,"hibern":5089,"lers":5090,"Ġudp":5091,"Ġusize":5092,"ils":5093,"Ġchall":5094,"Ġkill":5095,"Ġreser":5096,"Ġ15":5097,"Ġverification":5098,"Ġdecimal":5099,"Ġidiom":5100,"Ġconcurrency":5101,"trustmanager":5102,"Ġexperimental":5103,"Ġexecutables":5104,"Ġspeaking":5105,"Ġexported":5106,"google":5107,"Ġmanipulate":5108,"Ġattached":5109,"Ġeliminate":5110,"hibernate":5111,"current":5112,"coded":5113,"dl":5114,"lu":5115,"Ġactions":5116,"Ġbla":5117,"Ġhang":5118,"Ġrename":5119,"Ġsts":5120,"Ġshift":5121,"cale":5122,"Ġvariance":5123,"istic":5124,"Ġnewly":5125,"Ġwriter":5126,"Ġindexes":5127,"phere":5128,"truststore":5129,"Ġclones":5130,"Ġcalculated":5131,"Ġconceptually":5132,"Ġensures":5133,"Ġexpands":5134,"threaded":5135,"Ġencryption":5136,"Ġincorrectly":5137,"Ġrepetition":5138,"Ġdiscovered":5139,"\").":5140,"bet":5141,"full":5142,"Ġsession":5143,"although":5144,"Ġsto":5145,"Ġvul":5146,"unknown":5147,"oret":5148,"ivation":5149,"Ġcook":5150,"Ġmock":5151,"Ġcomma":5152,"Ġbackwards":5153,"Ġencoura":5154,"Ġoptimal":5155,"Ġdistinguish":5156,"Ġcombining":5157,"application":5158,"Ġdeallocated":5159,"Ġdoubt":5160,"versal":5161,"Ġmcve":5162,"?,":5163,"blog":5164,"dll":5165,"ouse":5166,"Ġmicro":5167,"Ġchance":5168,"Ġanybody":5169,"Ġargs":5170,"Ġmultiply":5171,"Ġmodern":5172,"parse":5173,"Ġzone":5174,"Ġaccidentally":5175,"Ġtemporarily":5176,"Ġdockerfile":5177,"Ġsqlite":5178,"include":5179,"Ġoverlap":5180,"kind":5181,"vable":5182,"Ġios":5183,"iness":5184,"arm":5185,"Ġ.)":5186,"Ġtrim":5187,"ifications":5188,"Ġseemingly":5189,"into":5190,"Ġpacket":5191,"Ġeffects":5192,"Ġthrown":5193,"Ġremains":5194,"iciency":5195,"45":5196,"irable":5197,"Ġak":5198,"rew":5199,"Ġinlined":5200,"runtime":5201,"Ġdevices":5202,"qual":5203,"Ġexposes":5204,"Ġbeta":5205,"Ġmultiplication":5206,"Ġindent":5207,"Ġminor":5208,"Ġinterfaces":5209,"Ġdemo":5210,"Ġobtained":5211,"Ġimproved":5212,"ashion":5213,"memory":5214,"Ġinherent":5215,"Ġorgan":5216,"num":5217,"item":5218,"Ġhum":5219,"Ġvary":5220,"casting":5221,"dec":5222,"Ġtransaction":5223,"Ġbehaves":5224,"Ġshorten":5225,"Ġsemantic":5226,"Ġtreated":5227,"Ġlabel":5228,"**":5229,"dir":5230,"field":5231,"pers":5232,"sc":5233,"Ġcud":5234,"Ġtoml":5235,"Ġfashion":5236,"Ġinform":5237,"Ġnature":5238,"Ġalph":5239,"Ġ\".":5240,"Ġteam":5241,"lave":5242,"anged":5243,"Ġgotten":5244,"Ġrelation":5245,"Ġsequences":5246,"Ġcollecting":5247,"Ġwidget":5248,"closure":5249,"Ġfragment":5250,"fmt":5251,"gd":5252,"mat":5253,"mark":5254,"Ġwatch":5255,"Ġmigr":5256,"bled":5257,"vert":5258,"Ġalone":5259,"Ġhandlers":5260,"Ġparameterized":5261,"Ġdecision":5262,"Ġrob":5263,"Ġhashset":5264,"working":5265,"Ġreported":5266,"Ġdemonstrate":5267,"Ġstabilized":5268,"Ġresponsible":5269,"Ġwelcome":5270,"Ġmes":5271,"Ġnhibernate":5272,"root":5273,"Ġcompatibility":5274,"Ġimplementors":5275,"Ġunlock":5276,"Ġreset":5277,"Ġunders":5278,"Ġiterated":5279,"Ġram":5280,"Ġplaceho":5281,"libc":5282,"Ġspecialized":5283,"Ġselected":5284,"Ġdrawing":5285,"Ġrepeatedly":5286,"Ġprecisely":5287,"eff":5288,"fish":5289,"tion":5290,"Ġterr":5291,"Ġheld":5292,"also":5293,"Ġseed":5294,"Ġlove":5295,"Ġintel":5296,"Ġjump":5297,"imate":5298,"Ġranges":5299,"Ġdocuments":5300,"Ġcertification":5301,"Ġbounded":5302,"pool":5303,"Ġdestructors":5304,"Ġrepeating":5305,"Ġretrie":5306,"Ġoccurren":5307,"Ġbroad":5308,"Ġomitted":5309,"await":5310,"Ġpadding":5311,"Ġexplorer":5312,"date":5313,"hib":5314,"Ġcut":5315,"Ġrelies":5316,"verlight":5317,"ulating":5318,"Ġintrins":5319,"Ġuncomment":5320,"ipher":5321,"Ġclang":5322,"Ġdefaults":5323,"ĠĠĠĠĠĠĠĠĠ":5324,"Ġcorresponds":5325,"checker":5326,"49":5327,"len":5328,"pi":5329,"Ġwaste":5330,"uler":5331,"Ġgetter":5332,"Ġabs":5333,"Ġcompilers":5334,"Ġcontainers":5335,"solved":5336,"Ġidiomatically":5337,"Ġlocked":5338,"Ġimpls":5339,"Ġserialized":5340,"Ġmerely":5341,"42":5342,"ios":5343,"Ġtend":5344,"Ġcum":5345,"rele":5346,"Ġneigh":5347,"Ġvariations":5348,"Ġperi":5349,"Ġperformant":5350,"Ġclippy":5351,"Ġdownside":5352,"Ġcounted":5353,"Ġinterpreter":5354,"Ġtags":5355,"Ġwinapi":5356,"Ġtimer":5357,"Ġtransmute":5358,"ktop":5359,"Ġsupertrait":5360,"Ġhierarchy":5361,"Ġunderscore":5362,"Ġbtre":5363,"Ġeg":5364,"Ġstum":5365,"Ġchose":5366,"Ġlose":5367,"Ġsubmit":5368,"...)":5369,"Ġstandalone":5370,"Ġrestart":5371,"Ġswitching":5372,"161":5373,"Ġcommunity":5374,"Ġforgot":5375,"Ġtemplates":5376,"67":5377,"dle":5378,"Ġtheoret":5379,"onus":5380,"Ġrelying":5381,"Ġlies":5382,"ored":5383,"Ġunion":5384,"format":5385,"Ġpatch":5386,"conds":5387,"Ġtimestamping":5388,"iki":5389,"Ġpurely":5390,"Ġperiod":5391,"?.":5392,"ii":5393,"Ġfancy":5394,"Ġmvc":5395,"Ġing":5396,"Ġfork":5397,"cho":5398,"Ġdeli":5399,"Ġsupplied":5400,"Ġrace":5401,"Ġxcode":5402,"Ġsorts":5403,"Ġshortcut":5404,"Ġadvanced":5405,"maybe":5406,"Ġphysical":5407,"Ġgnu":5408,"],":5409,"dated":5410,"fil":5411,"Ġtur":5412,"iny":5413,"ings":5414,"Ġmot":5415,"Ġpushing":5416,"ety":5417,"secut":5418,"entrust":5419,"url":5420,"erry":5421,"illa":5422,"Ġclock":5423,"platform":5424,"paces":5425,"Ġhelped":5426,"Ġstackoverflow":5427,"Ġalternate":5428,"Ġcomputed":5429,"Ġmodels":5430,"Ġcovers":5431,"gs":5432,"wasm":5433,"Ġtoy":5434,"Ġbonus":5435,"Ġmal":5436,"Ġreli":5437,"che":5438,"admin":5439,"avig":5440,"Ġhandshake":5441,"Ġdisallow":5442,"Ġgui":5443,"Ġedge":5444,"Ġregion":5445,"Ġprogrammers":5446,"Ġpeek":5447,"Ġpredi":5448,"Ġcoercions":5449,"Ġsilly":5450,"Ġflexibility":5451,"does":5452,"Ġtranslation":5453,"Ġergonomic":5454,"dit":5455,"mess":5456,"Ġtsa":5457,"eros":5458,"Ġsdk":5459,"Ġconsecut":5460,"output":5461,"Ġjvm":5462,"assuming":5463,"Ġprime":5464,"Ġobjective":5465,"Ġoverall":5466,"Ġserve":5467,"Ġiterable":5468,"Ġsender":5469,"Ġawait":5470,"Ġstreaming":5471,"Ġscripts":5472,"Ġbreakpoint":5473,"Ġvolume":5474,"200":5475,"80":5476,"bar":5477,"las":5478,"Ġcru":5479,"Ġmingw":5480,"Ġdim":5481,"eder":5482,"Ġforced":5483,"Ġpoor":5484,"Ġtri":5485,"Ġsaving":5486,"Ġunus":5487,"ried":5488,"Ġfac":5489,"Ġverified":5490,"Ġasset":5491,"Ġsubt":5492,"iented":5493,"Ġhashing":5494,"reduce":5495,"boot":5496,"Ġdestination":5497,"world":5498,"Ġportion":5499,"Ġplanes":5500,"Ġintegral":5501,"Ġhours":5502,"Ġreplicate":5503,"hot":5504,"iate":5505,"space":5506,"Ġactor":5507,"inte":5508,"Ġela":5509,"Ġsecret":5510,"ivity":5511,"Ġappdomain":5512,"Ġaccur":5513,"Ġcrit":5514,"Ġtrustpilot":5515,"onest":5516,"Ġthinks":5517,"Ġbacktrace":5518,"Ġtoolkit":5519,"Ġresolution":5520,"Ġpanicking":5521,"Ġevaluates":5522,"Ġauthenticate":5523,"Ġcontinues":5524,"Ġpowers":5525,"Ġnearly":5526,"57":5527,"60":5528,"brow":5529,"cle":5530,"try":5531,"Ġcas":5532,"inary":5533,"att":5534,"oud":5535,"iting":5536,"Ġnan":5537,"Ġreorder":5538,"Ġ14":5539,"iston":5540,"compon":5541,"Ġafa":5542,"Ġgenerically":5543,"Ġscopes":5544,"Ġsingleton":5545,"Ġclever":5546,"Ġdowncast":5547,"Ġrecover":5548,"Ġlargest":5549,"bytes":5550,"Ġannotated":5551,"Ġfilename":5552,"Ġtransferred":5553,"Ġinterpreted":5554,"spb":5555,"Ġpolymorphic":5556,"Ġclaims":5557,"Ġmesh":5558,"called":5559,"emphasis":5560,"oper":5561,"ylib":5562,"ĨĴ":5563,"Ġwild":5564,"rep":5565,"onical":5566,"env":5567,"Ġinve":5568,"Ġdeb":5569,"Ġsake":5570,"ertools":5571,"Ġbuf":5572,"Ġscr":5573,"Ġinterval":5574,"Ġquer":5575,"ĠĠĠĠĠĠĠĠĠĠĠĠ":5576,"common":5577,"Ġdebugger":5578,"Ġdisclaimer":5579,"compiling":5580,"Ġinsertion":5581,"Ġgroups":5582,"Ġmachines":5583,"Ġpositive":5584,"Ġcalculating":5585,"Ġfulfill":5586,"Ġscenarios":5587,"party":5588,"Ġpublished":5589,"Ġpostgresql":5590,"Ġprotected":5591,"Ġpowerful":5592,"Ġillustrate":5593,"Ġpseudo":5594,"cd":5595,"dyn":5596,"eg":5597,"ming":5598,"zip":5599,"Ġcmake":5600,"enced":5601,"Ġmir":5602,"Ġnavig":5603,"Ġforum":5604,"Ġasks":5605,"Ġalt":5606,"andbox":5607,"Ġcallable":5608,"Ġproblematic":5609,"Ġclosing":5610,"Ġreadme":5611,"Ġimply":5612,"connect":5613,"icked":5614,"Ġzeros":5615,"Ġturning":5616,"Ġlimitations":5617,"Ġcarefully":5618,"Ġpositions":5619,"gnu":5620,"Ġpreventing":5621,"Ġadvise":5622,"Ġanalyz":5623,"Ġindividually":5624,"links":5625,"Ġsilverlight":5626,"Ġdistribution":5627,"Ġenclosing":5628,"tuple":5629,"Ġcursor":5630,"__":5631,"fla":5632,"Ġ//":5633,"Ġwarp":5634,"cture":5635,"Ġnar":5636,"Ġyaml":5637,"Ġgather":5638,"gebra":5639,"Ġprep":5640,"Ġinsight":5641,"clude":5642,"Ġavoided":5643,"Ġstderr":5644,"Ġloads":5645,"Ġsemantically":5646,"Ġduplicates":5647,"Ġshape":5648,"joint":5649,"lifetime":5650,"ium":5651,"tls":5652,"Ġhonest":5653,"Ġnd":5654,"Ġui":5655,"sem":5656,"pport":5657,"ortex":5658,"Ġdont":5659,"contain":5660,"Ġbool":5661,"Ġapache":5662,"when":5663,"Ġcompletion":5664,"Ġindexed":5665,"Ġdrops":5666,"Ġexecutor":5667,"Ġcapturing":5668,"buf":5669,"Ġregards":5670,"Ġ#[":5671,"prot":5672,"Ġrespective":5673,"Ġquotes":5674,"========":5675,"Ġsuffix":5676,"Ġinvest":5677,"43":5678,"ale":5679,"crypt":5680,"did":5681,"script":5682,"Ġaverage":5683,"Ġmongodb":5684,"edia":5685,"Ġisol":5686,"Ġexe":5687,"Ġsections":5688,"iform":5689,"Ġshuff":5690,"Ġwilling":5691,"Ġdisjoint":5692,"Ġordered":5693,"Ġraise":5694,"face":5695,"Ġinstaller":5696,"Ġawk":5697,"abilities":5698,"Ġdelegate":5699,"Ġnvidia":5700,"Ġambiguous":5701,"Ġupgrade":5702,"dimensional":5703,"fx":5704,"future":5705,"ered":5706,"Ġhor":5707,"Ġreve":5708,"ading":5709,"ferencing":5710,"loat":5711,"Ġsaved":5712,"Ġcallers":5713,"Ġinstruct":5714,"Ġforms":5715,"ught":5716,"Ġefficiency":5717,"ogether":5718,"Ġsignificantly":5719,"Ġpayload":5720,"ogeneous":5721,"afety":5722,"kill":5723,"sdk":5724,"Ġtiny":5725,"Ġwcf":5726,"Ġda":5727,"Ġdump":5728,"Ġanch":5729,"oted":5730,"Ġcanonical":5731,"Ġvice":5732,"unless":5733,"Ġtrade":5734,"Ġacts":5735,"Ġsupply":5736,"Ġsubmodule":5737,"Ġthrowing":5738,"Ġlogs":5739,"shepmaster":5740,"Ġspot":5741,"Ġmanaging":5742,"keystore":5743,"Ġfiltering":5744,"Ġemail":5745,"Ġprototype":5746,"Ġfortun":5747,"relevant":5748,"Ġdimensions":5749,"spberry":5750,"))":5751,"65":5752,"87":5753,"uzz":5754,"Ġaudio":5755,"Ġfits":5756,"Ġitertools":5757,"Ġrect":5758,"Ġreborrow":5759,"Ġvide":5760,"ppers":5761,"Ġvariety":5762,"Ġendian":5763,"Ġids":5764,"Ġlooping":5765,"Ġsecondly":5766,"Ġsubtle":5767,"Ġexpressed":5768,"Ġlengths":5769,"Ġseparator":5770,"Ġderiving":5771,"Ġ2017":5772,"Ġpicture":5773,"crates":5774,"Ġtcpstream":5775,"Ġcycles":5776,"Ġexperimenting":5777,"Ġsynchronization":5778,"Ġaxis":5779,"rfc":5780,"Ġwide":5781,"Ġnll":5782,"Ġreassign":5783,"async":5784,"than":5785,"Ġrsa":5786,"Ġ19":5787,"Ġcriter":5788,"Ġoverwrite":5789,"Ġhandy":5790,"typing":5791,"bofish":5792,"Ġminim":5793,"acy":5794,"allest":5795,"Ġintroduces":5796,"clusion":5797,"Ġpersonal":5798,"Ġheavy":5799,"Ġcumbers":5800,"Ġinvestig":5801,"find":5802,"Ġant":5803,"Ġpiston":5804,"itively":5805,"Ġrebuild":5806,"Ġstays":5807,"Ġuntrusted":5808,"Ġtwe":5809,"ously":5810,"except":5811,"Ġeveryone":5812,"Ġdisap":5813,"Ġunsafety":5814,"Ġedited":5815,"Ġcontrols":5816,"Ġdomains":5817,"Ġdisplayed":5818,"Ġroutes":5819,"Ġlazily":5820,"Ġpopulate":5821,"Ġcumbersome":5822,"ias":5823,"nv":5824,"node":5825,"ye":5826,"Ġ^":5827,"ering":5828,"Ġbund":5829,"Ġfresh":5830,"Ġpcr":5831,"usl":5832,"plays":5833,"Ġhook":5834,"Ġbasis":5835,"Ġdisplays":5836,"Ġintersection":5837,"Ġentities":5838,"Ġmainly":5839,"Ġposts":5840,"compiled":5841,"document":5842,"Ġconsumer":5843,"Ġspent":5844,"built":5845,"Ġdifficulty":5846,"trivial":5847,"Ġdeeper":5848,"modules":5849,"^^^^^^^^":5850,"Ġscalar":5851,"Ġwalk":5852,"Ġconsecutive":5853,"Ġaltogether":5854,".).":5855,"por":5856,"Ġsig":5857,"Ġnotably":5858,"Ġbypass":5859,"Ġleaks":5860,"Ġreadability":5861,"Ġtrusts":5862,"Ġsurely":5863,"Ġsmallest":5864,"Ġprogrammatically":5865,"fox":5866,"Ġclarity":5867,"Ġfrequently":5868,"Ġfortunately":5869,"!).":5870,"max":5871,"Ġcortex":5872,"ont":5873,"atory":5874,"Ġtowards":5875,"Ġbtw":5876,"Ġforcing":5877,"Ġproof":5878,"Ġunwind":5879,"iven":5880,"reader":5881,"aging":5882,"Ġapk":5883,"Ġquad":5884,"param":5885,"Ġpyo":5886,"Ġformatter":5887,"Ġinvalidated":5888,"Ġcalculations":5889,"Ġkeywords":5890,"Ġcorrespond":5891,"Ġhyp":5892,"cpy":5893,"Ġinstantiated":5894,"crate":5895,"Ġdeadlock":5896,"frame":5897,"Ġawkward":5898,"cb":5899,"gl":5900,"produ":5901,"ris":5902,"round":5903,"uc":5904,"uid":5905,"vo":5906,"enly":5907,"oder":5908,"verify":5909,"Ġnesting":5910,"antom":5911,"Ġtimezone":5912,"Ġopens":5913,"Ġslicing":5914,"Ġfastest":5915,"Ġprivile":5916,"Ġcaching":5917,"128":5918,"Ġpersist":5919,"Ġscheme":5920,"addy":5921,"Ġdedicated":5922,"compute":5923,"100":5924,"Ġaim":5925,"init":5926,"Ġfight":5927,"Ġincons":5928,"Ġhmac":5929,"Ġns":5930,"Ġstud":5931,"Ġcompact":5932,"Ġtravis":5933,"Ġ1000":5934,"derive":5935,"Ġsimd":5936,"Ġfilesystem":5937,"Ġlasts":5938,"Ġgrab":5939,"Ġdemand":5940,"Ġmonth":5941,"Ġshadow":5942,"Ġdistinction":5943,"binding":5944,"Ġmixed":5945,"ĠâĨĴ":5946,"generated":5947,"Ġhistory":5948,"aspx":5949,"Ġtheoretically":5950,"\\\"":5951,"ev":5952,"fire":5953,"hs":5954,"yes":5955,"yet":5956,"Ġcp":5957,"sts":5958,"Ġmio":5959,"Ġangle":5960,"icking":5961,"advant":5962,"unwrap":5963,"else":5964,"clone":5965,"Ġending":5966,"owned":5967,"Ġusername":5968,"beam":5969,"Ġraspberry":5970,"Ġxb":5971,"Ġconstructs":5972,"Ġpanicked":5973,"Ġpackets":5974,"Ġcasts":5975,"Ġvisibility":5976,"Ġhighlight":5977,"Ġabstractions":5978,"Ġqualified":5979,"Ġdatat":5980,"Ġrarely":5981,"bling":5982,"empty":5983,"ns":5984,"range":5985,"tag":5986,"ypes":5987,"inc":5988,"regist":5989,"edit":5990,"Ġhom":5991,"Ġnomicon":5992,"etry":5993,"Ġstage":5994,"mentally":5995,"ung":5996,"idi":5997,"Ġsudd":5998,"Ġparsers":5999,"Ġ\"-":6000,"Ġobserver":6001,"Ġserious":6002,"Ġletters":6003,"Ġsubtyping":6004,"Ġwrappers":6005,"Ġoptionally":6006,"Ġroll":6007,"Ġbindgen":6008,"Ġredis":6009,"Ġpresence":6010,"Ġlocks":6011,"Ġbenchmarking":6012,"ology":6013,"Ġctrl":6014,"Ġfavor":6015,"Ġcritical":6016,"Ġhypoth":6017,"Ġcf":6018,"leading":6019,"ital":6020,"Ġgre":6021,"Ġvm":6022,"unk":6023,"emap":6024,"licity":6025,"Ġunpack":6026,"Ġoperates":6027,"Ġbitwise":6028,"respon":6029,"Ġprocessed":6030,"Ġrestruct":6031,"Ġminutes":6032,"Ġtruly":6033,"values":6034,"Ġglobally":6035,"Ġappropriately":6036,"Ġduplication":6037,"Ġdownloading":6038,"Ġevaluating":6039,"Ġreproduc":6040,"Ġindicated":6041,"Ġunwrapping":6042,"Ġfundamentally":6043,"Ġdelay":6044,"Ġrecords":6045,"Ġforbid":6046,"Ġafaik":6047,"Ġqueries":6048,"Ġnarrow":6049,"Ġndarray":6050,"pat":6051,"send":6052,"your":6053,"Ġdiver":6054,"Ġste":6055,"Ġlikewise":6056,"Ġmeet":6057,"Ġled":6058,"Ġmaterial":6059,"Ġhosted":6060,"Ġboundaries":6061,"lessly":6062,"Ġsatisfies":6063,"lining":6064,"optim":6065,"Ġemulate":6066,"Ġfamily":6067,"Ġambigu":6068,"Ġcircumst":6069,"Ġencourage":6070,"effect":6071,"Ġsubtract":6072,"Ġscratch":6073,"das":6074,"dix":6075,"gi":6076,"Ġpip":6077,"etical":6078,"ctionary":6079,"Ġsole":6080,"Ġshall":6081,"Ġenabling":6082,"Ġcontact":6083,"Ġlibs":6084,"Ġdiffers":6085,"Ġgeneralize":6086,"Ġcommonly":6087,"Ġdeserialized":6088,"prim":6089,"Ġdigest":6090,"Ġcrossbeam":6091,"Ġoffsets":6092,"tokio":6093,"Ġcublas":6094,"python":6095,"Ġpermutations":6096,"Ġaccumulator":6097,"Ġhuman":6098,"Ġplaceholder":6099,"Ġaccurate":6100,"89":6101,"?\"":6102,"dig":6103,"Ġfran":6104,"Ġmim":6105,"Ġgist":6106,"Ġglibc":6107,"Ġcandid":6108,"Ġasm":6109,"Ġmail":6110,"Ġuniform":6111,"Ġpermit":6112,"Ġ24":6113,"Ġdesug":6114,"feature":6115,"Ġdisadvant":6116,"Ġblocked":6117,"Ġdiscoura":6118,"Ġsequentially":6119,"ranet":6120,"Ġreleases":6121,"Ġfeeling":6122,"Ġphantom":6123,"Ġextracting":6124,"Ġdeallocate":6125,"Ġdeduce":6126,"Ġobserve":6127,"--------":6128,"~~~~":6129,"(&":6130,"59":6131,"??":6132,"cpp":6133,"ipping":6134,"rink":6135,"site":6136,"vy":6137,"enge":6138,"urations":6139,"Ġtriple":6140,"Ġjni":6141,"Ġ256":6142,"Ġsimplicity":6143,"teness":6144,"Ġsupporting":6145,"Ġformats":6146,"Ġresolves":6147,"Ġserializing":6148,"Ġswitched":6149,"Ġmeaningful":6150,"threading":6151,"import":6152,"Ġpopular":6153,"Ġasynchronously":6154,"permissions":6155,"Ġsucceeds":6156,"Ġpreserve":6157,"Ġswapping":6158,"Ġldap":6159,"Ġassemblies":6160,"(\"":6161,"aa":6162,"ners":6163,"si":6164,"sim":6165,"ui":6166,"vs":6167,"Ġsandbox":6168,"Ġeof":6169,"Ġgc":6170,"Ġimplementor":6171,"Ġcave":6172,"Ġunw":6173,"umb":6174,"Ġoutdated":6175,"Ġcovariant":6176,"Ġface":6177,"ocode":6178,"Ġletting":6179,"Ġmodifications":6180,"Ġlogically":6181,"Ġenvironments":6182,"Ġinfers":6183,"Ġplacing":6184,"Ġintegrate":6185,"Ġconvince":6186,"Ġmisleading":6187,"hold":6188,"Ġmanipulation":6189,"Ġhacky":6190,"Ġdivide":6191,"Ġvertices":6192,"Ġencapsulate":6193,"Ġsubstitute":6194,"Ġsurround":6195,"Ġcontrast":6196,"Ġcookie":6197,"bre":6198,"lay":6199,"mes":6200,"mal":6201,"zilla":6202,"Ġirc":6203,"inct":6204,"Ġlld":6205,"changed":6206,"Ġyours":6207,"Ġadfs":6208,"ialog":6209,"upid":6210,"Ġexistence":6211,"Ġinclus":6212,"()?":6213,"Ġreality":6214,"Ġ50":6215,"Ġdeveloped":6216,"Ġcached":6217,"Ġrandomly":6218,"Ġduplicated":6219,"Ġcurly":6220,"Ġflash":6221,"Ġsockets":6222,"Ġsegments":6223,"Ġpromise":6224,"Ġprocedure":6225,"Ġlambdas":6226,"Ġassumptions":6227,"Ġchallenge":6228,"Ġpowershell":6229,"Ġdebian":6230,"rarily":6231,"wlock":6232,"refer":6233,"Ġbother":6234,"station":6235,"Ġwhite":6236,"rop":6237,"ulates":6238,"Ġ128":6239,"formed":6240,"Ġkeytool":6241,"well":6242,"why":6243,"Ġmodifies":6244,"serde":6245,"Ġtransition":6246,"Ġjavax":6247,"Ġ)?":6248,"aka":6249,"policy":6250,"cription":6251,"Ġconventions":6252,"Ġextending":6253,"func":6254,"undred":6255,"Ġyear":6256,"Ġbenefits":6257,"Ġcorrupt":6258,"Ġtechnical":6259,"Ġnvcc":6260,"Ġfocus":6261,"something":6262,"message":6263,"flags":6264,")]":6265,"62":6266,"lude":6267,"Ġsan":6268,"related":6269,"ley":6270,"Ġland":6271,"icates":6272,"Ġecho":6273,"utable":6274,"Ġcant":6275,"adic":6276,"Ġcomposed":6277,"ifact":6278,"Ġjar":6279,"Ġwanting":6280,"image":6281,"Ġoverkill":6282,"Ġresulted":6283,"standard":6284,"weight":6285,"Ġcompleteness":6286,"Ġchoices":6287,"Ġcollected":6288,"Ġreproduction":6289,"Ġindicating":6290,"Ġunresolved":6291,"Ġrefactoring":6292,"Ġacquire":6293,"Ġturbofish":6294,"idiomatic":6295,"Ġsuddenly":6296,"oks":6297,"tp":6298,"zy":6299,"Ġpuzz":6300,"Ġstupid":6301,"think":6302,"Ġworst":6303,"Ġjre":6304,"Ġration":6305,"Ġexpert":6306,"rief":6307,"usr":6308,"Ġsys":6309,"itional":6310,"Ġversus":6311,"Ġsubtype":6312,"Ġthroughout":6313,"Ġsearches":6314,"Ġchained":6315,"Ġimportantly":6316,"Ġconnects":6317,"Ġportable":6318,"Ġgoogling":6319,"Ġtransformed":6320,"certpath":6321,"Ġinherited":6322,"Ġdangerous":6323,"Ġcapabilities":6324,"Ġcoordinate":6325,"Ġdivision":6326,"Ġergonom":6327,"stackoverflow":6328,"Ġbelongs":6329,"Ġordinary":6330,"Ġconsequence":6331,"Ġtrunc":6332,"Ġmultithreaded":6333,"response":6334,"Ġreproducible":6335,"69":6336,"pan":6337,"Ġted":6338,"Ġaz":6339,"Ġinlining":6340,"emon":6341,"Ġleg":6342,"Ġcontr":6343,"Ġtee":6344,"Ġ17":6345,"Ġ18":6346,"Ġreaders":6347,"arest":6348,"Ġmessy":6349,"Ġputs":6350,"Ġlogger":6351,"they":6352,"typed":6353,"Ġaws":6354,"Ġinvolving":6355,"Ġdescribing":6356,"Ġsamples":6357,"Ġroutine":6358,"Ġconflicts":6359,"Ġrendered":6360,"Ġmerged":6361,"Ġindependently":6362,"Ġtiming":6363,"password":6364,"Ġfirefox":6365,"postgres":6366,"Ġabsence":6367,"Ġvideo":6368,"Ġxbap":6369,"akes":6370,"custom":6371,"dif":6372,"jac":6373,"vas":6374,"reh":6375,"odaddy":6376,"cel":6377,"Ġrustdoc":6378,"erson":6379,"Ġshif":6380,"Ġnobody":6381,"Ġsymm":6382,"Ġelev":6383,"Ġdesirable":6384,"Ġreddit":6385,"Ġidentified":6386,"Ġdeserializer":6387,"Ġresolving":6388,"Ġpreferably":6389,"Ġsnippets":6390,"Ġtutorials":6391,"Ġimprovement":6392,"sqlite":6393,"examples":6394,"Ġinvariants":6395,"Ġgeom":6396,"Ġvulner":6397,"Ġtedious":6398,"Ġcontrived":6399,"either":6400,"mult":6401,"pull":6402,"Ġtack":6403,"step":6404,"Ġmand":6405,"Ġmps":6406,"Ġinject":6407,"Ġpen":6408,"Ġhundred":6409,"isions":6410,"icious":6411,"Ġec":6412,"Ġexcell":6413,"Ġconclusion":6414,"termin":6415,"thie":6416,"Ġintranet":6417,"Ġexam":6418,"exist":6419,"ague":6420,"Ġdesktop":6421,"Ġraces":6422,"Ġcollector":6423,"bits":6424,"boss":6425,"Ġpublickey":6426,"Ġaccordingly":6427,"Ġ99":6428,"checking":6429,"Ġartifact":6430,"builder":6431,"binary":6432,"Ġirrelevant":6433,"Ġpinned":6434,"Ġsyntactically":6435,"âĶĢâĶĢâĶĢâĶĢ":6436,"Ġstumbled":6437,"browser":6438,"Ġambiguity":6439,"Ġexcellent":6440,"85":6441,"<'":6442,"card":6443,"lived":6444,"real":6445,"references":6446,"eded":6447,"Ġemp":6448,"Ġparses":6449,"izac":6450,"Ġthreading":6451,"Ġversa":6452,"âĢ¦":6453,"Ġstdlib":6454,"Ġexplaining":6455,"acle":6456,"Ġconfigurations":6457,"propert":6458,"Ġexperienced":6459,"Ġslight":6460,"Ġadvantages":6461,"Ġpaste":6462,"Ġbrings":6463,"Ġscala":6464,"counted":6465,"Ġpixels":6466,"Ġforbidden":6467,"kinded":6468,"nvidia":6469,"pattern":6470,"Ġlldb":6471,"82":6472,"fin":6473,"lime":6474,"inject":6475,"entry":6476,"mped":6477,"Ġdefer":6478,"cap":6479,"Ġrls":6480,"achable":6481,"Ġprote":6482,"Ġevid":6483,"olt":6484,"Ġ25":6485,"Ġinsp":6486,"agn":6487,"ager":6488,"Ġ30":6489,"Ġstartup":6490,"Ġunsound":6491,"Ġenclave":6492,"Ġposting":6493,"probably":6494,"Ġthoughts":6495,"Ġsequential":6496,"Ġarbitrarily":6497,"traits":6498,"Ġconcerns":6499,"Ġtrees":6500,"Ġcells":6501,"Ġenglish":6502,"Ġissued":6503,"Ġpropagate":6504,"Ġschedu":6505,"transform":6506,"variance":6507,"Ġoccurrences":6508,"Ġmotivation":6509,"Ġdisappear":6510,"Ġergonomics":6511,"aps":6512,"actions":6513,"cost":6514,"ror":6515,"xf":6516,"ĠÂ":6517,"Ġscale":6518,"Ġsphere":6519,"Ġvim":6520,"kel":6521,"child":6522,"channel":6523,"Ġcomposition":6524,"Ġselection":6525,"Ġalert":6526,"Ġshut":6527,"Ġsafer":6528,"Ġcool":6529,"force":6530,"pecified":6531,"conven":6532,"aper":6533,"Ġmodes":6534,"Ġcolon":6535,"complete":6536,"Ġ-->":6537,"Ġparallelism":6538,"Ġexpanding":6539,"Ġpushed":6540,"interpre":6541,"Ġsurprise":6542,"Ġinvocations":6543,"Ġlexer":6544,"Ġlistener":6545,"Ġoverlapping":6546,"Ġparentheses":6547,"Ġdiscouraged":6548,"Ġinclusive":6549,"]\"":6550,"dem":6551,"ker":6552,"lim":6553,"ny":6554,"rough":6555,"Ġamp":6556,"Ġbru":6557,"Ġblob":6558,"Ġbrief":6559,"Ġdma":6560,"Ġdimension":6561,"query":6562,"Ġintoiterator":6563,"tested":6564,"Ġoverly":6565,"Ġovercome":6566,"answ":6567,"Ġimpression":6568,"Ġheard":6569,"Ġinitializer":6570,"Ġdeclares":6571,"Ġhttpclient":6572,"organ":6573,"Ġcomputers":6574,"Ġbiggest":6575,"Ġworkarounds":6576,"Ġextracted":6577,"address":6578,"Ġarchitectures":6579,"Ġtriggered":6580,"Ġdistributed":6581,"Ġ2008":6582,"Ġpseudocode":6583,"Ġsurprisingly":6584,"provider":6585,"Ġterrible":6586,"verifytrust":6587,"Ġmpsc":6588,"page":6589,"rim":6590,"sync":6591,"ĠâĶ":6592,"oriented":6593,"Ġmar":6594,"aling":6595,"Ġlvalue":6596,"Ġgreen":6597,"asible":6598,"ilo":6599,"Ġcomprom":6600,"Ġtraverse":6601,"Ġarises":6602,"Ġleaking":6603,"Ġexpire":6604,"Ġexposing":6605,"Ġcoher":6606,"ipedia":6607,"istics":6608,"Ġoverfl":6609,"Ġimperative":6610,"Ġcloud":6611,"services":6612,"Ġclip":6613,"Ġkinda":6614,"Ġbincode":6615,"Ġauthors":6616,"compiler":6617,"Ġchoosing":6618,"Ġ2016":6619,"nolog":6620,"Ġimmediate":6621,"Ġextends":6622,"ikipedia":6623,"Ġexhaustive":6624,"public":6625,"izaco":6626,"ae":6627,"cent":6628,"corre":6629,"none":6630,"wid":6631,"input":6632,"Ġmi":6633,"Ġdylib":6634,"Ġheter":6635,"Ġrecompile":6636,"Ġrewriting":6637,"Ġsty":6638,"rustum":6639,"Ġvend":6640,"Ġ():":6641,"Ġjdk":6642,"Ġweek":6643,"Ġamaz":6644,"Ġfaced":6645,"Ġfirstly":6646,"Ġboost":6647,"Ġclust":6648,"Ġreasonably":6649,"Ġformul":6650,"Ġvalidity":6651,"Ġassignments":6652,"logic":6653,"Ġprevented":6654,"Ġslot":6655,"Ġarena":6656,"Ġconvol":6657,"Ġappending":6658,"linked":6659,"Ġcapable":6660,"Ġhitting":6661,"Ġsegmentation":6662,"guard":6663,"Ġprofiling":6664,"Ġresponsibility":6665,"openssl":6666,"Ġpkcs":6667,"Ġprecedence":6668,"directory":6669,"Ġazure":6670,"Ġsdl":6671,"Ġwer":6672,"Ġbatch":6673,"stri":6674,"Ġmass":6675,"Ġher":6676,"Ġrewritten":6677,"Ġstory":6678,"Ġstating":6679,"ram":6680,"raid":6681,"Ġvar":6682,"Ġexchange":6683,"Ġtricks":6684,"Ġjboss":6685,"ames":6686,"ivially":6687,"Ġvariadic":6688,"Ġprelude":6689,"Ġafraid":6690,"Ġsignals":6691,"Ġstructured":6692,"Ġunspecified":6693,"Ġattention":6694,"Ġcomputations":6695,"Ġinterest":6696,"Ġporting":6697,"Ġfinishes":6698,"Ġregistered":6699,"Ġrestrictive":6700,"Ġcapability":6701,"Ġexerc":6702,"Ġadapted":6703,"Ġpipeline":6704,"Ġmillion":6705,"Ġdelimiter":6706,"Ġhangs":6707,"ben":6708,"bed":6709,"dc":6710,"dynam":6711,"kb":6712,"Ġtile":6713,"Ġtick":6714,"Ġthous":6715,"Ġci":6716,"Ġwake":6717,"Ġeye":6718,"Ġliving":6719,"Ġneat":6720,"ematic":6721,"Ġshrink":6722,"Ġcacerts":6723,"imation":6724,"Ġadjac":6725,"ques":6726,"cacerts":6727,"Ġprepend":6728,"Ġsimulate":6729,"acc":6730,"compil":6731,"Ġflaw":6732,"Ġframeworks":6733,"priv":6734,"Ġscenes":6735,"Ġdeleted":6736,"Ġflush":6737,"Ġinvokes":6738,"Ġtransferring":6739,"handler":6740,"Ġgraphics":6741,"Ġarchive":6742,"Ġunreachable":6743,"Ġimprovements":6744,"Ġcentral":6745,"Ġviolate":6746,"Ġnickel":6747,"heap":6748,"Ġissuer":6749,"Ġsensible":6750,"Ġprotection":6751,"Ġweren":6752,"58":6753,"bas":6754,"gpu":6755,"paste":6756,"Ġton":6757,"Ġthin":6758,"invalid":6759,"Ġdialog":6760,"Ġiterative":6761,"Ġuuid":6762,"rus":6763,"enty":6764,"uting":6765,"rustup":6766,"mention":6767,"Ġnotification":6768,"Ġcompreh":6769,"Ġrwlock":6770,"Ġresize":6771,"tee":6772,"Ġboils":6773,"Ġbash":6774,"Ġanswering":6775,"Ġoperand":6776,"Ġxor":6777,"sha":6778,"Ġpropos":6779,"Ġhardcoded":6780,"Ġposix":6781,"Ġtimestamps":6782,"Ġintegrity":6783,"vectors":6784,"Ġshorth":6785,"Ġwinverifytrust":6786,"maps":6787,"Ġ2020":6788,"Ġdictionary":6789,"Ġparenthesis":6790,"rtb":6791,"Ġenumeration":6792,"Ġblack":6793,"Ġcircumstances":6794,"thieu":6795,"027":6796,"90":6797,"float":6798,"gy":6799,"jks":6800,"mon":6801,"old":6802,"uck":6803,"Ġcat":6804,"Ġwsl":6805,"through":6806,"alls":6807,"Ġanyways":6808,"Ġrand":6809,"....":6810,"Ġreply":6811,"apache":6812,"Ġoutputiterator":6813,"enshot":6814,"Ġlisting":6815,"Ġsublime":6816,"Ġcompleted":6817,"Ġmodul":6818,"Ġfewer":6819,"Ġinserts":6820,"Ġcomparable":6821,"Ġlayers":6822,"Ġclauses":6823,"securityexception":6824,"handle":6825,"Ġunnecessarily":6826,"Ġoccas":6827,"objects":6828,"odbolt":6829,"Ġpermutation":6830,"template":6831,"help":6832,"Ġpredict":6833,"Ġrestructure":6834,"Ġconvoluted":6835,"96":6836,"ograph":6837,"simpl":6838,"Ġ\\":6839,"Ġsparse":6840,"ene":6841,"Ġfly":6842,"stor":6843,"Ġmm":6844,"Ġmarking":6845,"Ġmusl":6846,"Ġdimensional":6847,"Ġvague":6848,"adim":6849,"ilst":6850,"Ġtrivially":6851,"Ġsibling":6852,"Ġclion":6853,"Ġinteraction":6854,"Ġguid":6855,"Ġtranslated":6856,"Ġstands":6857,"Ġlimits":6858,"Ġdiscrim":6859,"Ġdeclarative":6860,"Ġ2019":6861,"Ġyielding":6862,"Ġignores":6863,"Ġauthorization":6864,"Ġstripped":6865,"Ġreversed":6866,"Ġtagged":6867,"Ġoverloaded":6868,"Ġgenerators":6869,"Ġtreats":6870,"controll":6871,"Ġcryptographic":6872,"Ġshuffle":6873,"thanks":6874,"porate":6875,"Ġrationale":6876,"mentioned":6877,"41":6878,"68":6879,"?),":6880,"bon":6881,"event":6882,"found":6883,"met":6884,"same":6885,"ze":6886,"Ġtie":6887,"Ġcmd":6888,"Ġfed":6889,"leq":6890,"Ġinn":6891,"Ġinverse":6892,"Ġinconven":6893,"select":6894,"ento":6895,"Ġgodaddy":6896,"Ġexceed":6897,"unc":6898,"Ġcaught":6899,"Ġfoot":6900,"tech":6901,"Ġplenty":6902,"Ġpermitted":6903,"Ġnowhere":6904,"ialeq":6905,"Ġraii":6906,"Ġoptimis":6907,"loader":6908,"Ġterminates":6909,"Ġpublicly":6910,"Ġ2012":6911,"files":6912,"Ġcleanup":6913,"Ġdrawn":6914,"Ġcores":6915,"Ġtechnolog":6916,"lets":6917,"Ġlaunching":6918,"Ġdrawback":6919,"javax":6920,"copyable":6921,"Ġcyclic":6922,"Ġmathematic":6923,"Ġsummar":6924,"Ġdeployed":6925,"Ġtechniques":6926,"Ġ__":6927,"ederation":6928,"components":6929,"Ġpenal":6930,"[]":6931,"ba":6932,"kernel":6933,"mail":6934,"tru":6935,"uable":6936,"Ġdst":6937,"ank":6938,"alias":6939,"arter":6940,"Ġbear":6941,"oto":6942,"Ġnotion":6943,"adig":6944,"ctional":6945,"unsafe":6946,"then":6947,"ulled":6948,"Ġworried":6949,"Ġunits":6950,"Ġcontrib":6951,"lax":6952,"Ġ:(":6953,"convert":6954,"args":6955,"Ġaccessor":6956,"Ġdecides":6957,"Ġoperands":6958,"Ġtransp":6959,"Ġracer":6960,"Ġhashes":6961,"playpen":6962,"Ġaddressing":6963,"Ġ&'":6964,"Ġ==":6965,"Ġresponses":6966,"Ġgrasp":6967,"msdn":6968,"Ġcomparisons":6969,"clip":6970,"Ġmsdn":6971,"Ġdetected":6972,"Ġemulator":6973,"Ġluckily":6974,"Ġobserved":6975,"Ġfolders":6976,"Ġprofiler":6977,"Ġinconsistent":6978,"Ġcandidate":6979,"52":6980,"=\"":6981,"`,":6982,"cover":6983,"middle":6984,"ups":6985,"Ġpur":6986,"Ġreact":6987,"Ġredef":6988,"Ġrecreate":6989,"Ġgate":6990,"Ġnoting":6991,"Ġtrip":6992,"Ġunchanged":6993,"izable":6994,"cache":6995,"Ġvariation":6996,"Ġmutates":6997,"Ġbucket":6998,"Ġ13":6999,"Ġ10000":7000,"update":7001,"Ġnumer":7002,"plug":7003,"Ġbeforehand":7004,"Ġradix":7005,"Ġdowncasting":7006,"Ġoptimisation":7007,"Ġfreeing":7008,"Ġdetermines":7009,"Ġpractically":7010,"Ġduplicating":7011,"Ġreplaces":7012,"Ġinstantiating":7013,"Ġoccup":7014,"Ġguards":7015,"major":7016,"Ġenforces":7017,"Ġmeantime":7018,"308":7019,"Ġfallback":7020,"Ġquoting":7021,"substrate":7022,"Ġintuition":7023,"Ġintuitive":7024,"Ġfighting":7025,"primitive":7026,"Ġgeometry":7027,"terminated":7028,"Ġshorthand":7029,"53":7030,"aled":7031,"bf":7032,"cis":7033,"drop":7034,"gx":7035,"next":7036,"take":7037,"wiki":7038,"lections":7039,"Ġwhilst":7040,"very":7041,"adec":7042,"Ġcodepoint":7043,"lications":7044,"Ġoutcome":7045,"Ġexpired":7046,"Ġobs":7047,"Ġnews":7048,"avail":7049,"Ġappe":7050,"Ġquant":7051,"Ġdecoding":7052,"Ġwebservice":7053,"Ġexisted":7054,"++'":7055,"encies":7056,"Ġequally":7057,"();":7058,"()`":7059,"Ġframes":7060,"Ġdetermin":7061,"Ġauthenticated":7062,"Ġerased":7063,"Ġrelationships":7064,"Ġmixing":7065,"Ġcircular":7066,"Ġhexadec":7067,"Ġipv":7068,"constra":7069,"riendly":7070,"Ġattacker":7071,"Ġgrows":7072,"Ġrounding":7073,"variable":7074,"Ġbtreemap":7075,"Ġanchor":7076,"similar":7077,"malink":7078,"referential":7079,"available":7080,"Ġhexadecimal":7081,"bble":7082,"both":7083,"gcc":7084,"ladim":7085,"sd":7086,"Ġwast":7087,"Ġdia":7088,"Ġoop":7089,"util":7090,"Ġbevy":7091,"Ġstl":7092,"Ġforth":7093,"Ġpolled":7094,"Ġjks":7095,"Ġrvalue":7096,"Ġdefe":7097,"Ġmatthieu":7098,"Ġthreaded":7099,"Ġpartialeq":7100,"Ġassist":7101,"Ġsuppress":7102,"actix":7103,"encil":7104,"Ġtransitive":7105,"Ġtransparent":7106,"engine":7107,"Ġbuffered":7108,"aked":7109,"Ġchooses":7110,"Ġunfortunate":7111,"manifest":7112,"Ġuniversal":7113,"Ġshowed":7114,"Ġphilo":7115,"Ġlowest":7116,"Ġtransforms":7117,"optimal":7118,"Ġmutexes":7119,"Ġtriggers":7120,"Ġreaches":7121,"Ġopportun":7122,"Ġfalls":7123,"Ġrecognized":7124,"Ġdedu":7125,"cfg":7126,"deserial":7127,"Ġcombinators":7128,"Ġscheduler":7129,"developer":7130,"Ġakin":7131,"Ġintrinsic":7132,"Ġdisallowed":7133,"Ġdaemon":7134,"Ġhypothetical":7135,"width":7136,"simplified":7137,"true":7138,"ladimir":7139,"Ġphiloso":7140,"70":7141,"81":7142,"cial":7143,"fd":7144,"oot":7145,"ool":7146,"oking":7147,"rf":7148,"tlen":7149,"yst":7150,"Ġ%":7151,"Ġcult":7152,"enable":7153,"Ġfli":7154,"Ġease":7155,"Ġstm":7156,"Ġexcer":7157,"Ġcodebase":7158,"Ġunary":7159,"Ġfake":7160,"abi":7161,"Ġfeasible":7162,"plus":7163,"Ġapolog":7164,"Ġassoci":7165,"Ġoptimizing":7166,"shared":7167,"Ġpacked":7168,"Ġsucc":7169,"poss":7170,"compatible":7171,"Ġaliased":7172,"Ġpractices":7173,"streamer":7174,"functions":7175,"instead":7176,"Ġmistakes":7177,"Ġdeallocation":7178,"Ġcorner":7179,"Ġincomplete":7180,"Ġestablished":7181,"Ġdiscarded":7182,"product":7183,"Ġcfg":7184,"Ġsymmetric":7185,"3161":7186,"aits":7187,"hy":7188,"med":7189,"sun":7190,"Ġicon":7191,"Ġinjection":7192,"Ġreimplement":7193,"Ġglf":7194,"Ġexcess":7195,"Ġens":7196,"Ġparity":7197,"Ġrus":7198,"Ġacs":7199,"Ġwherever":7200,"Ġparams":7201,"Ġafore":7202,"grind":7203,"activity":7204,"Ġraises":7205,"Ġrecall":7206,"Ġcompares":7207,"obvious":7208,"Ġcleaned":7209,"Ġcleanly":7210,"Ġphase":7211,"Ġdigging":7212,"Ġremainder":7213,"Ġreporting":7214,"Ġwebsites":7215,"ambigu":7216,"Ġindirectly":7217,"2424":7218,"Ġpicked":7219,"Ġpriority":7220,"Ġillustrates":7221,"Ġutilize":7222,"Ġunusual":7223,"Ġculture":7224,"<>":7225,"actor":7226,"cor":7227,"lig":7228,"pk":7229,"sum":7230,"remove":7231,"itude":7232,"Ġrestore":7233,"Ġrelax":7234,"pem":7235,"Ġnotify":7236,"iders":7237,"Ġnearest":7238,"Ġdeg":7239,"Ġtrad":7240,"Ġjit":7241,"Ġweight":7242,"Ġunp":7243,"Ġuninstall":7244,"Ġadmit":7245,"Ġprice":7246,"../":7247,"Ġscre":7248,"Ġmanages":7249,"Ġdecent":7250,"serv":7251,"near":7252,"Ġlogged":7253,"Ġsuggesting":7254,"Ġcustomer":7255,"Ġ40":7256,"medium":7257,"writer":7258,"Ġgrace":7259,"Ġpreferable":7260,"Ġsatisfying":7261,"Ġfunctors":7262,"Ġauthorities":7263,"Ġdemonstration":7264,"Ġtalks":7265,"refcell":7266,"Ġsilently":7267,">>?":7268,"Ġexplore":7269,"Ġemitted":7270,"Ġdiagn":7271,"collections":7272,"Ġgranted":7273,"Ġtabs":7274,"Ġbusiness":7275,"Ġmillise":7276,"Ġlightweight":7277,"execution":7278,"matrix":7279,"Ġassetlinks":7280,"Ġelabor":7281,"Ġaforementioned":7282,"76":7283,"bc":7284,"fort":7285,"lar":7286,"ogram":7287,"pf":7288,"scri":7289,"var":7290,"Ġtips":7291,"Ġcc":7292,"rel":7293,"Ġmen":7294,"Ġhiding":7295,"utral":7296,"lla":7297,"Ġcompose":7298,"Ġwhats":7299,"Ġtraversal":7300,"Ġenh":7301,"Ġmakefile":7302,"Ġserves":7303,"Ġunderstandable":7304,"Ġcommits":7305,"Ġsubsystem":7306,"Ġwont":7307,"theless":7308,"ĠĠĠĠĠĠĠĠĠĠĠĠĠ":7309,"should":7310,"Ġrepresentations":7311,"Ġswift":7312,"Ġrefuses":7313,"Ġosx":7314,"Ġfreely":7315,"Ġfilters":7316,"Ġdeleting":7317,"Ġintegrated":7318,"Ġaccomplished":7319,"Ġconsisting":7320,"instance":7321,"model":7322,"naming":7323,"bounded":7324,"Ġbrought":7325,"Ġsurface":7326,"support":7327,"Ġrejected":7328,"Ġdirty":7329,"Ġtriang":7330,"Ġcoherence":7331,"Ġvendor":7332,"compilation":7333,"Ġoccasion":7334,"uncrustify":7335,"!!":7336,"!\"":7337,"eel":7338,"math":7339,"Ġet":7340,"Ġsun":7341,"Ġsides":7342,"Ġboun":7343,"anal":7344,"Ġpaper":7345,"Ġnight":7346,"Ġrenamed":7347,"icating":7348,"rum":7349,"Ġeclip":7350,"Ġarrow":7351,"last":7352,"Ġdisall":7353,"Ġdisambigu":7354,"active":7355,"neutral":7356,"Ġnevertheless":7357,"acci":7358,"Ġspin":7359,"Ġnodejs":7360,"Ġ2014":7361,"Ġbegins":7362,"Ġalongside":7363,"Ġdisplaying":7364,"Ġfnonce":7365,"Ġmeta":7366,"Ġenforced":7367,"Ġclarification":7368,"Ġfrontend":7369,"Ġmisunderstood":7370,"Ġfeedback":7371,"projects":7372,"Ġsuffice":7373,"Ġheavily":7374,"Ġanalogous":7375,"developers":7376,"Ġreserved":7377,"Ġneighb":7378,"Ġneighbor":7379,"integer":7380,"Ġhonestly":7381,"Ġtackle":7382,"Ġmandatory":7383,"Ġexamine":7384,"Ġpublickeytoken":7385,"correct":7386,"Ġguidance":7387,"Ġexcerpt":7388,"Ġeclipse":7389,"0308":7390,"bd":7391,"catch":7392,"ka":7393,"past":7394,"txt":7395,"inl":7396,"Ġsgx":7397,"Ġwikipedia":7398,"eness":7399,"stra":7400,"Ġmb":7401,"Ġmib":7402,"Ġmarks":7403,"Ġstencil":7404,"erexception":7405,"Ġvoid":7406,"Ġprohib":7407,"iline":7408,"Ġorth":7409,"Ġalgebra":7410,"Ġvaluable":7411,"Ġsusp":7412,"Ġsaves":7413,"Ġunnamed":7414,"Ġrusqlite":7415,"Ġexpon":7416,"Ġteach":7417,"Ġmutually":7418,"Ġ:-)":7419,"Ġoverlo":7420,"Ġimperson":7421,"Ġcheckout":7422,"clud":7423,"Ġnumerous":7424,"Ġdesire":7425,"Ġhole":7426,"Ġweblogic":7427,"Ġheight":7428,"Ġsmc":7429,"Ġediting":7430,"aker":7431,"aken":7432,"Ġconfiguring":7433,"Ġlimiting":7434,"Ġtargeting":7435,"timestamp":7436,"Ġshortest":7437,"Ġstumped":7438,"ranked":7439,"Ġvisit":7440,"keys":7441,"Ġphone":7442,"Ġsentence":7443,"window":7444,"Ġlaunched":7445,"Ġjoined":7446,"expression":7447,"Ġbottlen":7448,"Ġqt":7449,"Ġterminology":7450,"Ġbrand":7451,"Ġtruncated":7452,"beta":7453,"Ġstopped":7454,"Ġwildcard":7455,"Ġcpus":7456,"Ġheterogeneous":7457,"Ġformula":7458,"Ġpenalty":7459,"possibly":7460,"Ġensuring":7461,"Ġbottleneck":7462,"#,":7463,"clic":7464,"don":7465,"hh":7466,"uf":7467,"ued":7468,"Ġthor":7469,"Ġwaits":7470,"Ġbul":7471,"Ġdom":7472,"Ġdyn":7473,"Ġhur":7474,"Ġnix":7475,"Ġlon":7476,"Ġrear":7477,"Ġreused":7478,"Ġelf":7479,"Ġconform":7480,"ched":7481,"Ġunions":7482,"Ġ\"/":7483,"Ġknew":7484,"Ġbubble":7485,"Ġundes":7486,"iration":7487,"Ġoverwritten":7488,"Ġbasics":7489,"++?":7490,"created":7491,"Ġimmutability":7492,"Ġhashmaps":7493,"Ġaddressed":7494,"Ġoffline":7495,"tools":7496,"Ġremoval":7497,"Ġclassic":7498,"Ġfinite":7499,"Ġbuiltin":7500,"liner":7501,"insert":7502,"Ġpromot":7503,"Ġreproduced":7504,"Ġclicking":7505,"Ġaffected":7506,"callback":7507,"Ġviolates":7508,"Ġpinning":7509,"Ġquoted":7510,"Ġelimin":7511,"Ġdatetime":7512,"guide":7513,"Ġconfirmed":7514,"author":7515,"dereferencing":7516,"Ġdeliber":7517,"Ġreliable":7518,"Ġprepared":7519,"Ġcriteria":7520,"Ġcaveat":7521,"Ġsurrounding":7522,"Ġampers":7523,"bench":7524,"storage":7525,"Ġscreenshot":7526,"98":7527,"]?":7528,"au":7529,"eas":7530,"kan":7531,"nable":7532,"pol":7533,"pres":7534,"Ġtens":7535,"Ġfidd":7536,"Ġmang":7537,"Ġdie":7538,"Ġoh":7539,"Ġoct":7540,"Ġlie":7541,"Ġvladimir":7542,"Ġ(*":7543,"Ġrusty":7544,"Ġshallow":7545,"Ġjud":7546,"Ġstructural":7547,"izers":7548,"Ġnoise":7549,"Ġseek":7550,"Ġcloses":7551,"Ġarrayfire":7552,"Ġconfuses":7553,"Ġexpectation":7554,"Ġcompletes":7555,"Ġstatics":7556,"Ġcontrolled":7557,"Ġpeer":7558,"Ġbrowsers":7559,"Ġcosts":7560,"Ġstrip":7561,"managed":7562,"Ġlua":7563,"Ġentered":7564,"Ġproducts":7565,"Ġhistogram":7566,"Ġmonomorphization":7567,"Ġgpus":7568,"Ġaspects":7569,"Ġalphab":7570,"Ġpeekable":7571,"Ġmimic":7572,"Ġadjacent":7573,"Ġobscure":7574,"Ġphilosoph":7575,".'":7576,"dt":7577,"equal":7578,"iated":7579,"random":7580,"Ġti":7581,"Ġten":7582,"erv":7583,"Ġsal":7584,"Ġsink":7585,"atomic":7586,"Ġping":7587,"eset":7588,"Ġdoz":7589,"Ġrustfmt":7590,"Ġfunctionally":7591,"Ġtraver":7592,"Ġjun":7593,"Ġpara":7594,"Ġexplo":7595,"Ġnewtypes":7596,"argument":7597,"intu":7598,"group":7599,"pawn":7600,"Ġrights":7601,"Ġbacked":7602,"beh":7603,"encoded":7604,"Ġunsu":7605,"Ġlocalhost":7606,"ators":7607,"Ġhosts":7608,"Ġ...)":7609,"Ġrespond":7610,"Ġclosely":7611,"Ġincreases":7612,"prise":7613,"Ġgoogled":7614,"Ġtransformations":7615,"Ġhighest":7616,"Ġfrees":7617,"solete":7618,"checked":7619,"Ġbrace":7620,"identity":7621,"Ġmaintained":7622,"Ġstruggle":7623,"Ġnaively":7624,"names":7625,"Ġskips":7626,"Ġdenied":7627,"two":7628,"pointers":7629,"Ġprincip":7630,"Ġintuitively":7631,"Ġwarns":7632,"Ġrobust":7633,"Ġendianness":7634,"controller":7635,"Ġdiagram":7636,"Ġmilliseconds":7637,"'?":7638,"72":7639,"ace":7640,"driver":7641,"equ":7642,"say":7643,"Ġtz":7644,"Ġaarch":7645,"Ġbal":7646,"Ġfont":7647,"Ġhides":7648,"Ġninject":7649,"rules":7650,"utf":7651,"rastructure":7652,"Ġrustling":7653,"Ġwhatso":7654,"Ġparadig":7655,"Ġunhand":7656,"Ġring":7657,"Ġrng":7658,"dep":7659,"ertain":7660,"Ġpreference":7661,"Ġnewlines":7662,"Ġperipher":7663,"Ġhands":7664,"Ġconsiders":7665,"Ġmultiline":7666,"plan":7667,"Ġmessing":7668,"Ġdecor":7669,"Ġraised":7670,"ĠâĢ¦":7671,"Ġ500":7672,"Ġcomputes":7673,"Ġlapt":7674,"Ġ80":7675,"Ġequals":7676,"Ġyielded":7677,"Ġincreased":7678,"Ġincreasing":7679,"Ġhygi":7680,"Ġtransfers":7681,"Ġinfrastructure":7682,"Ġindirect":7683,"Ġexports":7684,"Ġbarri":7685,"Ġpulling":7686,"going":7687,"Ġcapital":7688,"Ġgtx":7689,"visor":7690,"download":7691,"counting":7692,"Ġexternally":7693,"Ġconsequently":7694,"Ġcircumvent":7695,"Ġbufreader":7696,"Ġrectangle":7697,"Ġmonths":7698,"Ġdisadvantage":7699,"Ġelevated":7700,"Ġmenu":7701,"Ġparagraph":7702,"Ġwhatsoever":7703,"pdf":7704,"spe":7705,"spawn":7706,"tm":7707,"uent":7708,"Ġcro":7709,"Ġssh":7710,"rece":7711,"Ġfing":7712,"Ġmv":7713,"Ġmid":7714,"Ġpulled":7715,"Ġhrtb":7716,"alph":7717,"Ġrenaming":7718,"Ġuint":7719,"Ġbeca":7720,"Ġascription":7721,"Ġexhib":7722,"asure":7723,"illed":7724,"loying":7725,"Ġshed":7726,"Ġintro":7727,"caml":7728,"Ġrough":7729,"Ġobsolete":7730,"anging":7731,"Ġpreprocess":7732,"Ġspecifiers":7733,"grade":7734,"Ġmatlab":7735,"Ġthreadpool":7736,"again":7737,"Ġcommas":7738,"Ġpointless":7739,"Ġlocate":7740,"creen":7741,"Ġbinds":7742,"Ġlatency":7743,"complex":7744,"Ġbyteorder":7745,"Ġinvalidating":7746,"Ġreducing":7747,"Ġderives":7748,"Ġviewing":7749,"Ġphra":7750,"Ġinflu":7751,"Ġdemonstrated":7752,"Ġinterestingly":7753,"Ġyew":7754,"Ġdeeply":7755,"visual":7756,"Ġviolation":7757,"Ġmeasurement":7758,"Ġinterrupts":7759,"Ġsucceeded":7760,"display":7761,"Ġfatal":7762,"Ġterminated":7763,"Ġrotate":7764,"Ġindentation":7765,"Ġprivileges":7766,"Ġdatatype":7767,"Ġexpires":7768,"private":7769,"Ġrusoto":7770,"Ġlongest":7771,"Ġlaptop":7772,"686":7773,"75":7774,"ah":7775,"aware":7776,"br":7777,"bases":7778,"dat":7779,"den":7780,"eb":7781,"hence":7782,"ov":7783,"Ġthumb":7784,"Ġems":7785,"Ġeager":7786,"utter":7787,"asc":7788,"Ġconj":7789,"ants":7790,"Ġfibon":7791,"Ġpolic":7792,"Ġtrie":7793,"Ġlosing":7794,"Ġstructopt":7795,"deque":7796,"lapping":7797,"every":7798,"Ġprem":7799,"Ġmemo":7800,"otherwise":7801,"Ġconsult":7802,"Ġconvertible":7803,"Ġedges":7804,"Ġequation":7805,"Ġclipping":7806,"Ġroom":7807,"mlink":7808,"Ġaccident":7809,"Ġdeals":7810,"Ġintroduction":7811,"Ġzeroes":7812,"apple":7813,"Ġrecommendation":7814,"Ġfrustr":7815,"allocate":7816,"Ġunneeded":7817,"Ġfnmut":7818,"Ġdifficulties":7819,"Ġroutines":7820,"Ġpasswords":7821,"sample":7822,"socketfactory":7823,"Ġoccurring":7824,"Ġtreating":7825,"Ġdlls":7826,"umption":7827,"Ġescaped":7828,"Ġconcatenation":7829,"cope":7830,"dispatch":7831,"Ġfactorial":7832,"Ġsegfaults":7833,"Ġpainful":7834,"Ġgpg":7835,"Ġaka":7836,"filter":7837,"Ġreveals":7838,"Ġbundle":7839,"registry":7840,"Ġsolely":7841,"Ġfrancis":7842,"Ġhundreds":7843,"Ġinspired":7844,"Ġdiscrimin":7845,"Ġtechnology":7846,"Ġfibonacci":7847,"![":7848,"66":7849,"78":7850,"sens":7851,"wall":7852,"Ġwpf":7853,"Ġmouse":7854,"Ġhi":7855,"Ġreexport":7856,"Ġreinterpre":7857,"Ġwheel":7858,"seg":7859,"Ġstem":7860,"Ġstub":7861,"Ġcanvas":7862,"ateur":7863,"Ġunroll":7864,"usable":7865,"usize":7866,"Ġrunnable":7867,"Ġpret":7868,"abb":7869,"argateur":7870,"ressed":7871,"osity":7872,"Ġplayers":7873,"perhaps":7874,"Ġinitialise":7875,"Ġassociate":7876,"Ġdestruction":7877,"Ġdesigning":7878,"Ġ1024":7879,"cripten":7880,"Ġcalculates":7881,"Ġdetermining":7882,"synt":7883,"Ġobtaining":7884,"Ġplanned":7885,"Ġincor":7886,"2019":7887,"ambiguous":7888,"Ġskipping":7889,"fixed":7890,"Ġfilling":7891,"Ġmechanisms":7892,"Ġcircle":7893,"Ġincremented":7894,"089":7895,"Ġrepetitive":7896,"Ġpolling":7897,"Ġattacks":7898,"Ġtransmuting":7899,"Ġrejects":7900,"Ġenumerate":7901,"Ġreflected":7902,"Ġstopping":7903,"properties":7904,"Ġoverflows":7905,"dynamic":7906,"Ġtraditional":7907,"Ġbecame":7908,"Ġemscripten":7909,"fail":7910,"iation":7911,"pow":7912,"push":7913,"tf":7914,"vity":7915,"requ":7916,"Ġbur":7917,"Ġdivid":7918,"aning":7919,"Ġoo":7920,"Ġocaml":7921,"Ġpicking":7922,"Ġeuler":7923,"Ġdecomp":7924,"pplication":7925,"Ġchris":7926,"Ġworkstation":7927,"Ġarise":7928,"Ġunity":7929,"Ġunified":7930,"Ġleaf":7931,"Ġsymlink":7932,"Ġimplications":7933,"Ġdifferentiate":7934,"Ġkeyboard":7935,"aged":7936,"osystem":7937,"permalink":7938,"actually":7939,"Ġsubprocess":7940,"Ġwebview":7941,"Ġagg":7942,"Ġsingly":7943,"beit":7944,"Ġcorrectness":7945,"Ġopenmp":7946,"Ġfulltrust":7947,"curses":7948,"Ġachieving":7949,"Ġinferring":7950,"Ġvisitor":7951,"allet":7952,"Ġchains":7953,"Ġeffective":7954,"Ġrfcs":7955,"Ġcaches":7956,"Ġ;)":7957,"Ġinherently":7958,"Ġdirective":7959,"ymm":7960,"Ġappends":7961,"Ġverbosity":7962,"Ġfills":7963,"Ġaffects":7964,"Ġfourth":7965,"Ġdigitally":7966,"Ġdeployment":7967,"authent":7968,"Ġinterpretation":7969,"charact":7970,"Ġfriendly":7971,"Ġdecrement":7972,"Ġorganization":7973,"attrib":7974,"Ġunwinding":7975,"0277":7976,"Ġinconvenient":7977,"Ġoptimisations":7978,"Ġmathematical":7979,"Ġredefine":7980,"fortable":7981,"Ġbouncy":7982,"Ġunhandled":7983,")\"":7984,"bert":7985,"cla":7986,"eval":7987,"pn":7988,"Ġcpp":7989,"Ġcoded":7990,"Ġfmt":7991,"algebra":7992,"Ġnpm":7993,"Ġreusing":7994,"Ġemphasis":7995,"sect":7996,"role":7997,"Ġmaven":7998,"Ġvalgrind":7999,"Ġgetters":8000,"Ġsuffer":8001,"Ġker":8002,"Ġapplet":8003,"Ġargu":8004,"Ġargue":8005,"ffi":8006,"Ġinterchange":8007,"condition":8008,"Ġsubtra":8009,"Ġsubscri":8010,"Ġ3161":8011,"before":8012,"Ġradi":8013,"Ġdownstream":8014,"proxy":8015,"Ġdiscord":8016,"Ġgradle":8017,"Ġdistances":8018,"Ġconsumers":8019,"overlapping":8020,"Ġspr":8021,"Ġ2013":8022,"Ġcomparator":8023,"Ġutc":8024,"Ġparallelize":8025,"Ġtransforming":8026,"Ġkeystores":8027,"Ġtroubles":8028,"Ġcostly":8029,"partially":8030,"Ġtriggering":8031,"ordered":8032,"Ġprotocols":8033,"Ġlacking":8034,"specifically":8035,"collect":8036,"Ġsubstitution":8037,"Ġpressed":8038,"Ġpkg":8039,"0000000000000000":8040,"deref":8041,"Ġmultithreading":8042,"Ġbtreeset":8043,"framework":8044,"difference":8045,"Ġecosystem":8046,"Ġnumerical":8047,"Ġopportunity":8048,"Ġrustlings":8049,"61":8050,"calcul":8051,"Ġ]":8052,"Ġcxf":8053,"Ġwire":8054,"rec":8055,"rees":8056,"ones":8057,"onal":8058,"Ġbod":8059,"ste":8060,"Ġmask":8061,"Ġptr":8062,"Ġrecur":8063,"Ġreload":8064,"Ġgac":8065,"odable":8066,"Ġlift":8067,"Ġexclude":8068,"Ġ(#":8069,"Ġcompaction":8070,"Ġseam":8071,"Ġoracle":8072,"Ġmagn":8073,"Ġchip":8074,"Ġship":8075,"Ġunbounded":8076,"Ġrate":8077,"Ġloose":8078,"usually":8079,"elt":8080,"gradle":8081,"Ġplans":8082,"Ġdirections":8083,"plit":8084,"issue":8085,"Ġbacking":8086,"Ġhelping":8087,"oken":8088,"begin":8089,"Ġsmtp":8090,"Ġcastle":8091,"Ġpropose":8092,"missing":8093,"fold":8094,"Ġsplits":8095,"Ġnamespaces":8096,"Ġarmv":8097,"Ġurls":8098,"Ġessence":8099,"Ġ60":8100,"Ġpromising":8101,"Ġoverridden":8102,"Ġactivex":8103,"Ġjoining":8104,"running":8105,"Ġ~[":8106,"methods":8107,"twa":8108,"Ġencapsulation":8109,"Ġmajority":8110,"Ġinspecting":8111,"Ġcards":8112,"Ġrotation":8113,"provided":8114,"Ġreserve":8115,"currently":8116,"Ġvulkan":8117,"Ġwasteful":8118,"Ġminimize":8119,"Ġstyles":8120,"Ġdisambiguate":8121,"intuitive":8122,"Ġparadigm":8123,"bad":8124,"fat":8125,"federation":8126,"gdb":8127,"liter":8128,"press":8129,"tutorial":8130,"ï¼":8131,"recurs":8132,"atable":8133,"Ġbill":8134,"Ġlen":8135,"peer":8136,"Ġsoph":8137,"Ġorph":8138,"Ġthereby":8139,"ethyst":8140,"Ġsuite":8141,"Ġunambiguous":8142,"Ġoutstanding":8143,"Ġ\"\"":8144,"Ġfiled":8145,"assert":8146,"launch":8147,"Ġmob":8148,"Ġnewest":8149,"Ġevol":8150,"Ġunderstands":8151,"pair":8152,"Ġsubmitted":8153,"Ġwebapp":8154,"Ġguides":8155,"Ġtransactions":8156,"operator":8157,"Ġregions":8158,"Ġindication":8159,"Ġlogon":8160,"Ġcustomize":8161,"Ġrelate":8162,"Ġ/.":8163,"Ġoptimised":8164,"Ġreferent":8165,"Ġsslcontext":8166,"Ġcoerces":8167,"Ġtracker":8168,"handshake":8169,"Ġinherits":8170,"Ġcoverage":8171,"initialize":8172,"Ġoverriding":8173,"Ġencountering":8174,"partial":8175,"Ġenterprise":8176,"Ġ{}":8177,"Ġpublishing":8178,"Ġconveniently":8179,"Ġincrementing":8180,"Ġlistening":8181,"Ġuploaded":8182,"Ġupgrading":8183,"accessible":8184,"Ġfriends":8185,"Ġreallocation":8186,"Ġautomate":8187,"Ġintrinsics":8188,"Ġmalicious":8189,"semble":8190,"Ġtweak":8191,"Ġmmu":8192,"Ġdividing":8193,"Ġaggreg":8194,"Ġsubtraction":8195,"fb":8196,"mi":8197,"rlib":8198,"Ġtink":8199,"Ġwall":8200,"Ġwww":8201,"onomicon":8202,"Ġpg":8203,"especially":8204,"Ġnu":8205,"Ġnth":8206,"Ġncurses":8207,"Ġlend":8208,"icially":8209,"Ġbeaut":8210,"otes":8211,"Ġgodbolt":8212,"Ġgstreamer":8213,"Ġprob":8214,"Ġdeconstruct":8215,"thus":8216,"ulations":8217,"Ġwhichever":8218,"Ġshap":8219,"Ġints":8220,"Ġjet":8221,"ntcl":8222,"Ġrgb":8223,"Ġrhs":8224,"Ġleverage":8225,"asset":8226,"Ġbump":8227,"Ġ101":8228,"Ġlibcore":8229,"commit":8230,"Ġoverwriting":8231,"Ġimplied":8232,"Ġtrusting":8233,"Ġ21":8234,"ags":8235,"Ġimo":8236,"Ġwebserver":8237,"Ġscoping":8238,"Ġcolors":8239,"Ġoffending":8240,"Ġspecialize":8241,"backtrace":8242,"rank":8243,"Ġprimarily":8244,"appro":8245,"Ġtracked":8246,"allocation":8247,"Ġconvin":8248,"Ġcrazy":8249,"Ġnullable":8250,"Ġshaders":8251,"safety":8252,"Ġmaintaining":8253,"Ġinfinitely":8254,"Ġomitting":8255,"good":8256,"Ġcentos":8257,"slices":8258,"Ġcontracts":8259,"macros":8260,"Ġfortran":8261,"ĠĠĠĠĠĠĠĠĠĠĠĠĠĠĠĠĠĠĠĠĠĠĠĠĠĠĠĠĠĠĠĠĠĠĠĠĠĠĠĠĠĠĠĠĠĠĠĠĠĠĠĠĠĠĠĠĠĠĠĠĠĠĠĠ":8262,"Ġchalleng":8263,"Ġshortened":8264,"rfcs":8265,"Ġforbids":8266,"Ġbodies":8267,"Ġmagnitude":8268,"Ġorphan":8269,"51":8270,"74":8271,"84":8272,":-":8273,"ahead":8274,"dies":8275,"eks":8276,"friendly":8277,"ky":8278,"mc":8279,"mx":8280,"mach":8281,"mag":8282,"ooth":8283,"tk":8284,"uit":8285,"void":8286,"Ġter":8287,"Ġtun":8288,"erning":8289,"inner":8290,"inside":8291,"left":8292,"Ġmount":8293,"Ġdk":8294,"Ġpng":8295,"aligned":8296,"odo":8297,"Ġexc":8298,"Ġconclude":8299,"chrome":8300,"urious":8301,"lix":8302,"lium":8303,"lared":8304,"Ġrunner":8305,"Ġpredefined":8306,"Ġtamp":8307,"istically":8308,"ifying":8309,"Ġ255":8310,"Ġsigner":8311,"Ġconserv":8312,"Ġsupplying":8313,"Ġdecisions":8314,"++)":8315,"Ġvalidated":8316,"Ġdetection":8317,"Ġsmarter":8318,"Ġlastly":8319,"Ġvecdeque":8320,"shad":8321,"Ġconstantly":8322,"Ġsemi":8323,"Ġmentioning":8324,"Ġpresume":8325,"Ġviews":8326,"Ġsums":8327,"wrapper":8328,"Ġplanning":8329,"Ġdispatched":8330,"5619":8331,"Ġmsg":8332,"tests":8333,"Ġassertions":8334,"Ġcryptic":8335,"package":8336,"Ġdivis":8337,"Ġadaptor":8338,"Ġblind":8339,"Ġemits":8340,"bounds":8341,"offs":8342,"Ġdoubly":8343,"matching":8344,"Ġsensor":8345,"Ġatomics":8346,"Ġreallocate":8347,"Ġapproximately":8348,"Ġunusable":8349,"Ġmeshes":8350,"pported":8351,"Ġpersists":8352,"limited":8353,"plugin":8354,"Ġelaborate":8355,"Ġoccasionally":8356,"Ġunsupported":8357,"Ġfinger":8358,"561934":8359,"?:":8360,"big":8361,"bus":8362,"circ":8363,"far":8364,"false":8365,"game":8366,"glob":8367,"ique":8368,"mies":8369,"pot":8370,"pos":8371,"sides":8372,"top":8373,"tcp":8374,"urable":8375,"Ġwiki":8376,"Ġmpi":8377,"Ġdash":8378,"anular":8379,"Ġanimal":8380,"Ġpet":8381,"itate":8382,"itter":8383,"Ġnul":8384,"Ġnalgebra":8385,"arting":8386,"Ġgh":8387,"Ġgrowing":8388,"Ġforwards":8389,"rocket":8390,"Ġasymm":8391,"keep":8392,"Ġrustonomicon":8393,"Ġpoison":8394,"Ġchat":8395,"Ġworkers":8396,"emu":8397,"immutable":8398,"lack":8399,"Ġundec":8400,"Ġsetter":8401,"expr":8402,"Ġplayed":8403,"Ġproven":8404,"Ġconsumption":8405,"Ġinterpol":8406,"Ġdeciding":8407,"Ġdecoder":8408,"Ġautore":8409,"Ġextent":8410,"papplication":8411,"oku":8412,"Ġhear":8413,"Ġzipped":8414,"Ġoptimise":8415,"Ġseparating":8416,"ĠâĢĺ":8417,"short":8418,"shift":8419,"commands":8420,"Ġunsafely":8421,"Ġgranular":8422,"Ġprivacy":8423,"Ġserializer":8424,"Ġspi":8425,"Ġspan":8426,"Ġreduces":8427,"ieldy":8428,"Ġexperiments":8429,"Ġadvent":8430,"Ġcleaning":8431,"Ġparents":8432,"Ġincidentally":8433,"Ġpredicates":8434,"Ġnatively":8435,"Ġlaunches":8436,"Ġjsse":8437,"Ġcarries":8438,"castle":8439,"Ġarticles":8440,"Ġdelegation":8441,"validator":8442,"Ġconfirmation":8443,"accessiterator":8444,"classes":8445,"tempor":8446,"dependencies":8447,"Ġsnake":8448,"Ġlabels":8449,"Ġcudam":8450,"Ġretrieved":8451,"Ġnavigate":8452,"Ġcriterion":8453,"Ġhomogeneous":8454,"Ġunwieldy":8455,"Ġartifacts":8456,"Ġemploy":8457,"Ġdeterministic":8458,"Ġsuccinct":8459,"Ġexcessive":8460,"Ġgracefully":8461,"click":8462,"Ġradius":8463,"Ġsophist":8464,"Ġconservative":8465,"dar":8466,"front":8467,"ict":8468,"kas":8469,"native":8470,"screen":8471,"ta":8472,"vit":8473,"Ġthrew":8474,"inting":8475,"Ġwise":8476,"Ġwaker":8477,"ories":8478,"ener":8479,"Ġfd":8480,"Ġfelt":8481,"lector":8482,"Ġmd":8483,"Ġincur":8484,"Ġdns":8485,"Ġreactor":8486,"Ġthats":8487,"Ġdoable":8488,"anted":8489,"Ġfive":8490,"Ġsudo":8491,"inder":8492,"Ġapple":8493,"Ġdatagram":8494,"Ġspecially":8495,"Ġtypescript":8496,"Ġfirm":8497,"Ġperman":8498,"Ġparametric":8499,"Ġparties":8500,"Ġdisabling":8501,"Ġsubmodules":8502,"Ġformal":8503,"Ġhappily":8504,"Ġbackward":8505,"++:":8506,"encing":8507,"Ġinitialised":8508,"typ":8509,"ĠĠĠĠĠĠĠĠĠĠĠ":8510,"Ġpanel":8511,"ostic":8512,"Ġconcerning":8513,"Ġtruth":8514,"Ġ---":8515,"Ġcommenting":8516,"prefer":8517,"Ġspawns":8518,"Ġtokenizer":8519,"Ġquerying":8520,"options":8521,"Ġunwrapped":8522,"Ġpopulated":8523,"Ġfailures":8524,"express":8525,"Ġcounterpart":8526,"Ġglue":8527,"content":8528,"Ġcubes":8529,"Ġobservable":8530,"consum":8531,"Ġdenote":8532,"Ġconventional":8533,"Ġintentional":8534,"Ġfirewall":8535,"yzer":8536,"Ġdecrease":8537,"Ġidioms":8538,"Ġretrieving":8539,"Ġdeliver":8540,"operation":8541,"existing":8542,"Ġevidence":8543,"Ġmiri":8544,"Ġcluster":8545,"according":8546,"Ġcodepoints":8547,"Ġdegree":8548,"Ġundesirable":8549,"Ġpolicies":8550,"syntax":8551,".]":8552,".),":8553,"])":8554,"aff":8555,"car":8556,"jdk":8557,"scan":8558,"sites":8559,"Ġapt":8560,"onmies":8561,"ancing":8562,"esome":8563,"Ġnik":8564,"Ġreusable":8565,"vella":8566,"rag":8567,"Ġvirt":8568,"Ġcomfortable":8569,"undefined":8570,"Ġalbeit":8571,"look":8572,"Ġsuited":8573,"Ġhasher":8574,"Ġdatabases":8575,"Ġ:-":8576,"Ġmemcpy":8577,"about":8578,"ocation":8579,"Ġ2000":8580,"external":8581,"perform":8582,"Ġinterle":8583,"Ġindefin":8584,"Ġproviders":8585,"Ġconsideration":8586,"Ġzizaco":8587,"Ġinstalls":8588,"Ġ48":8589,"problem":8590,"Ġoccure":8591,"Ġworlds":8592,"Ġlargely":8593,"stamping":8594,"Ġports":8595,"Ġcurve":8596,"Ġdemands":8597,"Ġauthenticode":8598,"Ġfluent":8599,"2010":8600,"Ġexiting":8601,"Ġdetects":8602,"âĢĿ.":8603,"contro":8604,"Ġobserv":8605,"Ġviolating":8606,"Ġmeasurements":8607,"Ġ>=":8608,"Ġcsr":8609,"Ġfolding":8610,"Ġdelegates":8611,"Ġendpoints":8612,"Ġdumb":8613,"Ġfactors":8614,"Ġintentionally":8615,"Ġcontravariant":8616,"moved":8617,"mozilla":8618,"Ġprototypes":8619,"Ġsynchronously":8620,"Ġoccurrence":8621,"Ġbreakpoints":8622,"component":8623,"crypto":8624,"strict":8625,"Ġthousands":8626,"Ġflip":8627,"Ġtriangles":8628,"analyzer":8629,"Ġdisallows":8630,"evalu":8631,"Ġcudamalloc":8632,"Ġsophisticated":8633,"79":8634,"ales":8635,"cra":8636,"pop":8637,"please":8638,"ration":8639,"sal":8640,"tmp":8641,"Ġaabb":8642,"Ġce":8643,"Ġcn":8644,"Ġcstring":8645,"inery":8646,"stro":8647,"Ġment":8648,"anch":8649,"Ġhits":8650,"Ġhouse":8651,"sec":8652,"otlin":8653,"meaning":8654,"Ġcompound":8655,"Ġalright":8656,"orexception":8657,"Ġprone":8658,"Ġparametr":8659,"Ġscore":8660,"Ġ22":8661,"arton":8662,"Ġ'&":8663,"Ġdisag":8664,"Ġmultiplying":8665,"mutex":8666,"Ġbitflags":8667,"Ġexpressing":8668,"Ġblockchain":8669,"Ġrequesting":8670,"share":8671,"Ġsimplification":8672,"Ġbrevity":8673,"Ġmachinery":8674,"Ġspurious":8675,"Ġannotating":8676,"obuf":8677,"ester":8678,"Ġincred":8679,"dbc":8680,"Ġexplanations":8681,"Ġgraphs":8682,"Ġdiscussions":8683,"Ġpromises":8684,"configuration":8685,"Ġverifying":8686,"Ġtoolchains":8687,"Ġgrouping":8688,"Ġerase":8689,"arrays":8690,"refutable":8691,"Ġclickonce":8692,"Ġcube":8693,"Ġmeasured":8694,"Ġquality":8695,"Ġsubsequently":8696,"generate":8697,"Ġutilities":8698,"Ġuppercase":8699,"join":8700,"Ġmillions":8701,"Ġenclosed":8702,"Ġcryptography":8703,"Ġapproximation":8704,"Ġvarying":8705,"Ġwidgets":8706,"Ġmigration":8707,"Ġcrucial":8708,"Ġanalyze":8709,"================":8710,"simple":8711,"Ġtruncate":8712,"Ġscheduled":8713,"ographic":8714,"Ġtraversing":8715,"!),":8716,"1000":8717,"fed":8718,"gate":8719,"rig":8720,"scope":8721,"split":8722,"Ġrom":8723,"Ġslave":8724,"atorexception":8725,"Ġband":8726,"legant":8727,"strust":8728,"Ġmsys":8729,"Ġpending":8730,"esis":8731,"ctest":8732,"Ġrecompiling":8733,"separ":8734,"llvm":8735,"Ġgb":8736,"Ġgap":8737,"Ġvan":8738,"unique":8739,"term":8740,"Ġimplementer":8741,"Ġweeks":8742,"Ġexamin":8743,"Ġunavailable":8744,"Ġcompilable":8745,"Ġamethyst":8746,"eratively":8747,"Ġcontrary":8748,"Ġobj":8749,"reading":8750,"Ġlibp":8751,"Ġ::":8752,"aby":8753,"agne":8754,"Ġdeploying":8755,"Ġclunk":8756,"Ġoutputting":8757,"Ġwebpage":8758,"Ġagent":8759,"Ġguys":8760,"phone":8761,"Ġrealise":8762,"Ġopencl":8763,"Ġassigns":8764,"Ġawesome":8765,"Ġbuffering":8766,"location":8767,"poll":8768,"Ġokhttp":8769,"Ġgrate":8770,"allee":8771,"Ġoutlined":8772,"mostly":8773,"generator":8774,"Ġincrements":8775,"structs":8776,"Ġspeak":8777,"2015":8778,"Ġdescriptors":8779,"Ġreproduces":8780,"Ġguidelines":8781,"Ġrepositories":8782,"crt":8783,"Ġdemonstrating":8784,"Ġpasted":8785,"Ġbooleans":8786,"installed":8787,"Ġlacks":8788,"ategory":8789,"Ġdatas":8790,"Ġencapsulates":8791,"validatorexception":8792,"flat":8793,"Ġtranslating":8794,"moving":8795,"Ġpreserved":8796,"Ġrevision":8797,"Ġsubstrings":8798,"Ġresorting":8799,"Ġlints":8800,"fields":8801,"Ġrobert":8802,"Ġforgotten":8803,"Ġbrute":8804,"Ġcompromised":8805,"Ġthoroughly":8806,"Ġpromotion":8807,"Ġinfluence":8808,"Ġasymmetric":8809,"')":8810,"('":8811,"050":8812,"\\\\\"":8813,"_^":8814,"brew":8815,"coding":8816,"ox":8817,"sense":8818,"vg":8819,"wide":8820,"yi":8821,"Ġah":8822,"inclusive":8823,"ora":8824,"Ġple":8825,"Ġpod":8826,"Ġhkt":8827,"Ġreborrowing":8828,"Ġvast":8829,"asso":8830,"unction":8831,"Ġnest":8832,"Ġcompli":8833,"Ġtrial":8834,"Ġado":8835,"capt":8836,"Ġamd":8837,"dele":8838,"Ġappended":8839,"Ġresizing":8840,"Ġresides":8841,"ocument":8842,"Ġ'/":8843,"Ġbehaviors":8844,"network":8845,"acs":8846,"Ġhostname":8847,"fcs":8848,"Ġresponds":8849,"langu":8850,"\",\"":8851,"Ġrefresh":8852,"folder":8853,"websocket":8854,"Ġessential":8855,"httpapplication":8856,"Ġgoals":8857,"2017":8858,"Ġcommunicating":8859,"Ġskipped":8860,"Ġaccounts":8861,"Ġrenders":8862,"Ġmscor":8863,"Ġrestricts":8864,"Ġactivate":8865,"Ġoverrides":8866,"Ġcounters":8867,"Ġlowercase":8868,"umpy":8869,"contract":8870,"Ġsubstant":8871,"Ġqemu":8872,"Ġtranslates":8873,"Ġfetching":8874,"aspol":8875,"Ġfrequency":8876,"Ġconcisely":8877,"toolchain":8878,"Ġpreceding":8879,"Ġadapters":8880,"Ġassembler":8881,"Ġtriangle":8882,"Ġprepare":8883,"Ġisolated":8884,"Ġ^_^":8885,"optimized":8886,"Ġlegacy":8887,"Ġshutdown":8888,"Ġbriefly":8889,"Ġamazon":8890,"middleware":8891,"constrained":8892,"Ġampersand":8893,"Ġpretend":8894,"character":8895,"Ġarguably":8896,"diesel":8897,"Ġfirmware":8898,"/#":8899,"<_":8900,"\\\\":8901,"dist":8902,"double":8903,"frustum":8904,"jar":8905,"Ġcipher":8906,"regex":8907,"Ġblow":8908,"Ġmime":8909,"Ġdry":8910,"Ġpallet":8911,"Ġlying":8912,"Ġyester":8913,"eters":8914,"odium":8915,"racy":8916,"Ġconve":8917,"Ġnecess":8918,"Ġseper":8919,"Ġimplementers":8920,"Ġjul":8921,"Ġ\",":8922,"Ġkotlin":8923,"Ġlegit":8924,"erature":8925,"Ġopenc":8926,"Ġimpose":8927,"Ġworkspaces":8928,"Ġinsist":8929,"Ġverifies":8930,"ffic":8931,"Ġinvent":8932,"++/":8933,"creating":8934,"...\"":8935,"Ġproducer":8936,"Ġelide":8937,"Ġshares":8938,"()'":8939,"Ġ&,":8940,"Ġofficially":8941,"Ġparticles":8942,"Ġtooling":8943,"Ġscripting":8944,"Ġspread":8945,"many":8946,"Ġincremental":8947,"Ġtracks":8948,"Ġchapters":8949,"Ġwebsphere":8950,"Ġbrain":8951,"Ġmagically":8952,"Ġirq":8953,"Ġmappings":8954,"Ġinelegant":8955,"Ġdenoted":8956,"Ġeliminates":8957,"column":8958,"Ġbrid":8959,"Ġdiscarding":8960,"Ġpropagation":8961,"Ġschedul":8962,"Ġaborting":8963,"publish":8964,"marker":8965,"Ġbroader":8966,"parameter":8967,"Ġdatatypes":8968,"Ġpipes":8969,"Ġphantomdata":8970,"panic":8971,"demand":8972,"Ġmarsh":8973,"Ġclipboard":8974,"Ġproposal":8975,"Ġsummarize":8976,"Ġdeduced":8977,"deserialize":8978,"Ġrelaxed":8979,"Ġdozen":8980,"Ġbarrier":8981,"Ġfrustrating":8982,"machine":8983,"Ġautoref":8984,"Ġincredibly":8985,"Ġyesterday":8986,"bm":8987,"could":8988,"ccess":8989,"djavax":8990,"ech":8991,"ga":8992,"jure":8993,"oh":8994,"tx":8995,"Ġcallee":8996,"orig":8997,"stat":8998,"Ġmp":8999,"Ġmalloc":9000,"Ġinver":9001,"Ġdense":9002,"Ġoauth":9003,"Ġnast":9004,"Ġstre":9005,"Ġasref":9006,"Ġ(/":9007,"atest":9008,"Ġoriented":9009,"Ġkilled":9010,"Ġfool":9011,"Ġreside":9012,"Ġtypo":9013,"Ġprimes":9014,"Ġoverview":9015,"aving":9016,"ecc":9017,"Ġsubcommand":9018,"Ġsuboptimal":9019,"ugh":9020,"encrypt":9021,"Ġ);":9022,"player":9023,"Ġstrided":9024,"writes":9025,"strings":9026,"Ġdownloads":9027,"Ġpushes":9028,"Ġgrapheme":9029,"Ġreversing":9030,"Ġsketch":9031,"afu":9032,"Ġmistaken":9033,"Ġviable":9034,"Ġmanipulated":9035,"listic":9036,"functional":9037,"Ġblue":9038,"consider":9039,"disc":9040,"Ġinteracting":9041,"Ġdict":9042,"Ġaccumulate":9043,"targets":9044,"Ġrevocation":9045,"Ġarrange":9046,"Ġautomated":9047,"Ġsnafu":9048,"Ġtouching":9049,"hashmap":9050,"Ġcontinuing":9051,"Ġcontinuously":9052,"helper":9053,"scal":9054,"Ġterribly":9055,"Ġvulnerability":9056,"Ġmodulo":9057,"servic":9058,"Ġhygiene":9059,"Ġreinterpret":9060,"handshakeexception":9061,"Ġshapes":9062,"Ġundeclared":9063,"Ġclunky":9064,"Ġopencv":9065,"\"),":9066,"#.":9067,"512":9068,"823":9069,"bot":9070,"bbit":9071,"eq":9072,"ey":9073,"efficient":9074,"tab":9075,"uous":9076,"ufficient":9077,"Ġque":9078,"Ġtight":9079,"Ġtip":9080,"Ġcaspol":9081,"inher":9082,"Ġsca":9083,"Ġwider":9084,"atile":9085,"Ġbi":9086,"Ġfps":9087,"Ġdates":9088,"alf":9089,"alk":9090,"Ġiteratively":9091,"Ġuri":9092,"isp":9093,"isher":9094,"second":9095,"Ġglium":9096,"odrig":9097,"Ġdoctest":9098,"Ġexcl":9099,"asant":9100,"ascii":9101,"unit":9102,"unwind":9103,"Ġprox":9104,"Ġshot":9105,"Ġneedless":9106,"among":9107,"Ġcovariance":9108,"Ġcoales":9109,"othing":9110,"readable":9111,"assigned":9112,"Ġuphold":9113,"ongo":9114,"Ġserv":9115,"Ġ23":9116,"exit":9117,"exper":9118,"Ġinterop":9119,"Ġsimulation":9120,"activ":9121,"Ġsubdirectory":9122,"Ġexpressive":9123,"iopermission":9124,"Ġunsuc":9125,"shell":9126,"Ġcloneable":9127,"Ġlaid":9128,"arnach":9129,"Ġclonable":9130,"Ġconnector":9131,"Ġmarkers":9132,"Ġ#![":9133,"0000000":9134,"Ġcleanest":9135,"Ġandroidmanifest":9136,"Ġdrain":9137,"Ġ**":9138,"Ġquickcheck":9139,"Ġranked":9140,"Ġregularly":9141,"Ġdestroying":9142,"Ġconsistency":9143,"Ġexited":9144,"addr":9145,"Ġjobs":9146,"Ġmanipulating":9147,"Ġdivided":9148,"Ġbootstra":9149,"Ġsegmented":9150,"hosting":9151,"Ġcheers":9152,"Ġinterrupted":9153,"Ġrepeats":9154,"Ġdistribute":9155,"Ġsufficiently":9156,"Ġrepetitions":9157,"Ġcontradi":9158,"Ġbusy":9159,"Ġhomebrew":9160,"dependent":9161,"Ġanalogy":9162,"smart":9163,"between":9164,"number":9165,"Ġstudy":9166,"brev":9167,"Ġsyscall":9168,"Ġappeared":9169,"hyper":9170,"Ġglfrustum":9171,"obviously":9172,"pasting":9173,"Ġbouncycastle":9174,"Ġtinkering":9175,"Ġfingerprint":9176,"typically":9177,"Ġgrateful":9178,"Ġmscorlib":9179,"Ġunsuccess":9180,"!()":9181,"():":9182,"93":9183,"bly":9184,"due":9185,"jre":9186,"mq":9187,"rfore":9188,"wp":9189,"Ġtill":9190,"Ġtang":9191,"Ġcul":9192,"Ġsven":9193,"Ġwan":9194,"Ġwif":9195,"rest":9196,"onic":9197,"Ġfan":9198,"Ġmas":9199,"esign":9200,"almost":9201,"ctrust":9202,"Ġreconstruct":9203,"Ġeq":9204,"Ġeat":9205,"Ġecs":9206,"Ġ(+":9207,"Ġrustace":9208,"adv":9209,"adays":9210,"Ġcompos":9211,"Ġsectrust":9212,"Ġfunc":9213,"Ġfunny":9214,"Ġ./":9215,"Ġfiq":9216,"ethrfore":9217,"Ġdoesnt":9218,"Ġtracing":9219,"Ġsupers":9220,"Ġenlight":9221,"Ġunaware":9222,"Ġadopt":9223,"amiliar":9224,"Ġadditions":9225,"ends":9226,"ford":9227,"ignoring":9228,"Ġmozilla":9229,"Ġnowadays":9230,"aved":9231,"Ġaff":9232,"Ġ26":9233,"oseconds":9234,"Ġhandful":9235,"Ġparameterize":9236,"Ġmultiplied":9237,"Ġsecondary":9238,"Ġmodifier":9239,"atively":9240,"Ġcorrected":9241,"Ġ`*":9242,"Ġdownsides":9243,"parallel":9244,"Ġconsiderations":9245,"Ġrefs":9246,"Ġrefused":9247,"Ġsslsocketfactory":9248,"obj":9249,"Ġ2010":9250,"Ġunivers":9251,"Ġadvoc":9252,"Ġrandomaccessiterator":9253,"Ġ;-)":9254,"Ġ72":9255,"Ġfiltered":9256,"Ġsqlx":9257,"Ġ90":9258,"Ġamounts":9259,"servertrusted":9260,"Ġlukas":9261,"ifiable":9262,"Ġyeah":9263,"Ġinfinity":9264,"Ġirrefutable":9265,"Ġspeedup":9266,"Ġescapes":9267,"callers":9268,"Ġconfirms":9269,"constant":9270,"Ġterminating":9271,"Ġsubstituted":9272,"Ġwebsockets":9273,"Ġconstraining":9274,"statement":9275,"Ġdecrypted":9276,"Ġswapped":9277,"Ġcontinuous":9278,"returning":9279,"better":9280,"Ġalpha":9281,"Ġbroadcast":9282,"Ġreliably":9283,"Ġprediction":9284,"Ġfacility":9285,"container":9286,"Ġinvestigation":9287,"effects":9288,"Ġdisadvantages":9289,"Ġsanit":9290,"Ġshifting":9291,"Ġschedule":9292,"Ġexercises":9293,"Ġtiles":9294,"Ġdeliberately":9295,"alpha":9296,"temporary":9297,"expressions":9298,"Ġindefinitely":9299,"language":9300,"ethrforexception":9301,"Ġenlighten":9302,"/../":9303,"71":9304,"73":9305,"94":9306,"air":9307,"cross":9308,"mk":9309,"pick":9310,"yaml":9311,"Ġaug":9312,"invent":9313,"replace":9314,"lev":9315,"Ġmit":9316,"Ġode":9317,"Ġnumpy":9318,"Ġreput":9319,"iser":9320,"etype":9321,"utils":9322,"lling":9323,"Ġgames":9324,"mpl":9325,"Ġcancel":9326,"rac":9327,"Ġusages":9328,"Ġcompression":9329,"emes":9330,"Ġmyster":9331,"Ġshipped":9332,"Ġtrap":9333,"Ġtraffic":9334,"Ġcares":9335,"Ġunmanaged":9336,"Ġuncondition":9337,"Ġabbrev":9338,"Ġexpiration":9339,"Ġundocument":9340,"Ġtwitter":9341,"concept":9342,"Ġpartly":9343,"Ġinsufficient":9344,"Ġconstit":9345,"ffff":9346,"Ġintercept":9347,"Ġsubtrait":9348,"Ġwebpack":9349,"Ġcomplement":9350,"Ġcleared":9351,"Ġheur":9352,"Ġstacks":9353,"Ġstacktrace":9354,"ermost":9355,"parser":9356,"Ġcustomers":9357,"Ġrelates":9358,"archive":9359,"Ġtemplated":9360,"profile":9361,"libraries":9362,"setting":9363,"Ġrefuse":9364,"Ġensured":9365,"apps":9366,"Ġsupposedly":9367,"Ġshadows":9368,"letion":9369,"Ġconsistently":9370,"sequential":9371,"Ġencounters":9372,"Ġenforcing":9373,"Ġpolygon":9374,"Ġmeasuring":9375,"Ġbeneficial":9376,"Ġforwarding":9377,"Ġtimers":9378,"lists":9379,"Ġsimplifying":9380,"Ġcorout":9381,"Ġcorporate":9382,"Ġallocators":9383,"Ġleaked":9384,"Ġultimate":9385,"Ġcontrollers":9386,"Ġfeeding":9387,"Ġ2005":9388,"qualified":9389,"Ġuncommenting":9390,"documents":9391,"documentation":9392,"voke":9393,"~~~~~~~~":9394,"ĠâĶĤ":9395,"Ġmassive":9396,"Ġheroku":9397,"Ġapologies":9398,"Ġexponent":9399,"cludes":9400,"Ġrearrange":9401,"Ġalphabet":9402,"Ġcrovella":9403,"Ġconjunction":9404,"Ġmobile":9405,"Ġexamining":9406,"Ġnasty":9407,"odrigo":9408,"Ġundocumented":9409,",\"":9410,"92":9411,"cation":9412,"draw":9413,"ea":9414,"eh":9415,"land":9416,"nan":9417,"sup":9418,"zizaco":9419,"Ġourse":9420,"oned":9421,"atter":9422,"Ġban":9423,"Ġpit":9424,"Ġpicks":9425,"Ġhot":9426,"Ġharm":9427,"Ġufcs":9428,"Ġyell":9429,"icip":9430,"arc":9431,"llow":9432,"Ġgagne":9433,"mpsc":9434,"lders":9435,"rolled":9436,"rain":9437,"Ġrustdt":9438,"unre":9439,"odel":9440,"Ġcodegen":9441,"Ġtherefor":9442,"Ġships":9443,"umsy":9444,"Ġresume":9445,"lare":9446,"Ġmutual":9447,"forum":9448,"Ġlibert":9449,"Ġclojure":9450,"combin":9451,"Ġactively":9452,"ints":9453,"Ġsetters":9454,"Ġscroll":9455,"Ġconfuse":9456,"Ġidp":9457,"Ġmultipart":9458,"Ġbacktra":9459,"Ġexistential":9460,"Ġ33":9461,"axis":9462,"Ġnonsense":9463,"Ġrabbit":9464,"Ġsmooth":9465,"Ġpathbuf":9466,"Ġrealised":9467,"Ġredesign":9468,"Ġoffice":9469,"etcode":9470,"accept":9471,"Ġconcretely":9472,"Ġflav":9473,"Ġnormalized":9474,"Ġcharacteristics":9475,"Ġderivation":9476,"website":9477,"websites":9478,"Ġselects":9479,"Ġintermediary":9480,"software":9481,"threads":9482,"Ġrestricting":9483,"Ġactivated":9484,"048":9485,"Ġclicks":9486,"Ġmagical":9487,"Ġglance":9488,"Ġcatching":9489,"Ġrecognizes":9490,"Ġtypedef":9491,"Ġcorners":9492,"255":9493,"contin":9494,"Ġviolated":9495,"Ġexploring":9496,"consuming":9497,"Ġqualify":9498,"Ġestablishing":9499,"Ġsemicolons":9500,"Ġcredit":9501,"Ġadjusting":9502,"Ġadjusted":9503,"Ġsynchronize":9504,"Ġfrequent":9505,"computer":9506,"mittedly":9507,"Ġaltered":9508,"labs":9509,"Ġpcrs":9510,"Ġsleeping":9511,"Ġctags":9512,"****":9513,"Ġplaceholders":9514,"Ġactors":9515,"Ġbundled":9516,"Ġshadowed":9517,"Ġpermits":9518,"6299":9519,"Ġpuzzle":9520,"answer":9521,"Ġflawed":9522,"Ġproposals":9523,"Ġdefeats":9524,"Ġenhanced":9525,"Ġincorporate":9526,"recursive":9527,"Ġblindly":9528,"Ġniko":9529,"Ġmental":9530,"Ġmysterious":9531,"Ġunconditionally":9532,"Ġourselves":9533,"63":9534,"800":9535,"bl":9536,"cases":9537,"dom":9538,"nix":9539,"nothing":9540,"pin":9541,"pad":9542,"rm":9543,"rout":9544,"scop":9545,"task":9546,"Â¹":9547,"Ġought":9548,"Ġts":9549,"Ġtor":9550,"Ġiphone":9551,"Ġalex":9552,"Ġthres":9553,"Ġtheme":9554,"incre":9555,"Ġwat":9556,"atis":9557,"Ġtoward":9558,"Ġfs":9559,"Ġfif":9560,"Ġfyi":9561,"Ġomp":9562,"Ġpeter":9563,"ali":9564,"Ġnut":9565,"Ġndk":9566,"Ġrefc":9567,"owning":9568,"entity":9569,"Ġlif":9570,"Ġvbo":9571,"Ġnotable":9572,"Ġsealed":9573,"Ġusecase":9574,"Ġpools":9575,"Ġfromstr":9576,"ethe":9577,"ership":9578,"lochain":9579,"Ġsus":9580,"Ġuntested":9581,"Ġfov":9582,"Ġrs":9583,"Ġcreator":9584,"endian":9585,"Ġnope":9586,"forge":9587,"Ġlookahead":9588,"Ġdocopt":9589,"apse":9590,"Ġhanding":9591,"Ġhanded":9592,"Ġclumsy":9593,"Ġsigns":9594,"plain":9595,"Ġexpectations":9596,"Ġspecifications":9597,"Ġextens":9598,"Ġsubscript":9599,"Ġeduc":9600,"Ġequations":9601,"Ġattestation":9602,"redu":9603,"extra":9604,"Ġredire":9605,"Ġequivalents":9606,"Ġ404":9607,"Ġparticle":9608,"Ġidentifies":9609,"proc":9610,"completion":9611,"Ġ512":9612,"wrong":9613,"wrote":9614,"sets":9615,"Ġcombines":9616,"Ġprotobuf":9617,"Ġmeaningless":9618,"minimal":9619,"2016":9620,"Ġdiscussing":9621,"Ġdiscusses":9622,"cycle":9623,"Ġinterpreting":9624,"spot":9625,"Ġmembership":9626,"Ġreaching":9627,"Ġexporting":9628,"hope":9629,"trustedcallers":9630,"afka":9631,"Ġsilence":9632,"Ġtrentcl":9633,"âĢĿ,":9634,"Ġtimings":9635,"Ġ!=":9636,"Ġprefixed":9637,"Ġconcatenated":9638,"Ġsuperfl":9639,"Ġremotely":9640,"Ġdriven":9641,"Ġbackends":9642,"Ġtermination":9643,"desktop":9644,"Ġscanning":9645,"Ġhistor":9646,"Ġpkix":9647,"lifetimes":9648,"depending":9649,"dependency":9650,"Ġmonomorphized":9651,"Ġtends":9652,"Ġpoorly":9653,"integr":9654,"clean":9655,"Ġisolate":9656,"Ġinvestigate":9657,"Ġanti":9658,"Ġstudying":9659,"Ġgreatest":9660,"Ġsteal":9661,"digit":9662,"Ġevidently":9663,"Ġcatal":9664,"helpful":9665,"Ġalgebraic":9666,"Ġoverlooking":9667,"Ġmangling":9668,"Ġprinciples":9669,"Ġdiscriminant":9670,"partiallytrustedcallers":9671,"Ġchallenges":9672,"Ġpetgraph":9673,"darwin":9674,"Ġvirtually":9675,"\\\\\":":9676,"Ġthreshold":9677,"`\"":9678,"cased":9679,"dot":9680,"fact":9681,"iw":9682,"ock":9683,"rather":9684,"virtual":9685,"wl":9686,"Ġtightly":9687,"Ġcate":9688,"Ġcategory":9689,"Ġsme":9690,"onna":9691,"Ġbson":9692,"Ġinaccessible":9693,"Ġdance":9694,"Ġprag":9695,"Ġnb":9696,"icles":9697,"Ġgonna":9698,"odate":9699,"ldr":9700,"rusty":9701,"Ġexclus":9702,"Ġ(-":9703,"ades":9704,"Ġpros":9705,"Ġsoc":9706,"ables":9707,"embed":9708,"Ġneedlessly":9709,"Ġretry":9710,"capacity":9711,"Ġmeets":9712,"Ġfol":9713,"Ġrich":9714,"declar":9715,"Ġaccomm":9716,"rible":9717,"Ġnoob":9718,"Ġmutations":9719,"iper":9720,"Ġlookups":9721,"tempt":9722,"Ġvectorized":9723,"Ġsolver":9724,"Ġlibstd":9725,"Ġimplication":9726,"Ġreplies":9727,"Ġ27":9728,"weak":9729,"Ġmatcher":9730,"Ġeverytime":9731,"Ġconfident":9732,"Ġmessed":9733,"Ġextensive":9734,"Ġ31":9735,"Ġdetach":9736,"Ġprintf":9737,"...).":9738,"Ġhey":9739,"Ġapproaching":9740,"Ġinitialisation":9741,"Ġsenders":9742,"Ġ42":9743,"ribly":9744,"boole":9745,"proof":9746,"Ġ...,":9747,"Ġunfamiliar":9748,"worker":9749,"Ġtemporaries":9750,"Ġtopics":9751,"Ġadvised":9752,"Ġslowly":9753,"Ġtimestamped":9754,"Ġrecommends":9755,"Ġrecommendations":9756,"Ġimproving":9757,"Ġimproves":9758,"ashes":9759,"Ġ*.":9760,"Ġdirectives":9761,"Ġrevert":9762,"Ġactivities":9763,"Ġmagento":9764,"Ġneglig":9765,"Ġstrangely":9766,"automatic":9767,"Ġoffered":9768,"Ġglad":9769,"Ġentering":9770,"Ġmerging":9771,"listener":9772,"âĶĢâĶ":9773,"Ġdenotes":9774,"Ġworrying":9775,"Ġieee":9776,"Ġdelegating":9777,"official":9778,"Ġterminator":9779,"Ġprompted":9780,"Ġforgetting":9781,"Ġupgraded":9782,"Ġutilizing":9783,"Ġissuing":9784,"Ġsensitive":9785,"regard":9786,"rinsic":9787,"directories":9788,"Ġmalformed":9789,"Ġintervals":9790,"Ġnavigation":9791,"futures":9792,"Ġhorribly":9793,"Ġfrank":9794,"Ġunwanted":9795,"Ġdisappears":9796,"Ġexercism":9797,"Ġdrawbacks":9798,"authorized":9799,"Ġpremature":9800,"Ġsprite":9801,"Ġbillion":9802,"Ġconvinced":9803,"control":9804,"separated":9805,"Ġlibpq":9806,"Ġscheduling":9807,"Ġadvocate":9808,"Ġreputation":9809,"Ġsuperfluous":9810,"Ġcategor":9811,"boolean":9812,"Ġnegligible":9813,"!(":9814,"':":9815,")`":9816,"fml":9817,"hu":9818,"ius":9819,"jax":9820,"mn":9821,"musl":9822,"nrf":9823,"sight":9824,"shing":9825,"wait":9826,"xm":9827,"Ġibm":9828,"erver":9829,"req":9830,"lement":9831,"Ġmor":9832,"Ġmarnach":9833,"Ġinsecure":9834,"Ġdive":9835,"Ġdart":9836,"Ġped":9837,"Ġpertain":9838,"Ġhind":9839,"Ġlic":9840,"Ġlhs":9841,"Ġrent":9842,"Ġbeg":9843,"mented":9844,"Ġ(.":9845,"until":9846,"emodel":9847,"Ġsuites":9848,"Ġsams":9849,"Ġanyhow":9850,"Ġunconstrained":9851,"indep":9852,"Ġkick":9853,"Ġrouter":9854,"destruct":9855,"endent":9856,"ignore":9857,"Ġfaq":9858,"Ġborrower":9859,"Ġplot":9860,"ours":9861,"Ġdiffering":9862,"console":9863,"Ġdesc":9864,"Ġassets":9865,"amem":9866,"curl":9867,"neg":9868,"encode":9869,"ractical":9870,"Ġkindly":9871,"Ġconsiderably":9872,"Ġinitializes":9873,"Ġ/,":9874,"Ġopenstack":9875,"Ġlocality":9876,"Ġposter":9877,"Ġ()?":9878,"Ġcomplained":9879,"Ġsuccessive":9880,"happy":9881,"Ġguessed":9882,"Ġsecurityexception":9883,"Ġsecured":9884,"Ġregistration":9885,"Ġviewed":9886,"manage":9887,"Ġexperiencing":9888,"Ġbadge":9889,"Ġcurand":9890,"Ġguaranteeing":9891,"Ġdram":9892,"Ġdrast":9893,"securitytoken":9894,"configure":9895,"Ġ655":9896,"2012":9897,"Ġcommunicates":9898,"Ġhypervisor":9899,"Ġaccomplishes":9900,"Ġpromoted":9901,"Ġskill":9902,"Ġdestroys":9903,"Ġunreason":9904,"Ġdetecting":9905,"Ġrenderer":9906,"Ġembedding":9907,"Ġemacs":9908,"auto":9909,"special":9910,"Ġillum":9911,"Ġfalling":9912,"Ġescaping":9913,"Ġdeno":9914,"Ġbringing":9915,"these":9916,"Ġreviews":9917,"Ġaborts":9918,"success":9919,"Ġfocused":9920,"Ġtextures":9921,"dereference":9922,"Ġsquares":9923,"Ġcollision":9924,"small":9925,"sometimes":9926,"items":9927,"Ġcudamem":9928,"Ġmotiv":9929,"doesn":9930,"Ġmirror":9931,"Ġforums":9932,"Ġdiverg":9933,"Ġdiverging":9934,"Ġdesugared":9935,"certpathbuild":9936,"ĠÂ¹":9937,"Ġticket":9938,"Ġthousand":9939,"Ġmodulus":9940,"Ġinnermost":9941,"Ġwasted":9942,"ooting":9943,"24242424":9944,"Ġneighbors":9945,"easy":9946,"Ġsalt":9947,"depth":9948,"Ġperipheral":9949,"Ġpreprocessor":9950,"everything":9951,"capture":9952,"servicemodel":9953,"Ġculpr":9954,"Ġpitf":9955,"Ġliberty":9956,"Ġsamsung":9957,"independent":9958,"!,":9959,"!`":9960,"400":9961,"]>":9962,"away":9963,"bes":9964,"cmp":9965,"gue":9966,"gwin":9967,"given":9968,"hl":9969,"hard":9970,"iis":9971,"mongodb":9972,"nom":9973,"olic":9974,"syn":9975,"Ġ^^^^^^^^":9976,"Ġtes":9977,"Ġtxt":9978,"Ġaes":9979,"Ġss":9980,"rem":9981,"rend":9982,"referencing":9983,"atrust":9984,"Ġtough":9985,"Ġang":9986,"ittle":9987,"Ġhim":9988,"Ġreinstall":9989,"Ġrebinding":9990,"Ġrethink":9991,"isign":9992,"icon":9993,"veev":9994,"Ġbeware":9995,"Ġgem":9996,"Ġgats":9997,"mpeg":9998,"Ġhass":9999,"ropy":10000,"Ġlikes":10001,"Ġrusts":10002,"unstable":10003,"untrusted":10004,"Ġtying":10005,"Ġalas":10006,"Ġworkload":10007,"Ġworkflow":10008,"Ġshim":10009,"Ġjars":10010,"imed":10011,"Ġunhelpful":10012,"htable":10013,"Ġinstinct":10014,"Ġkb":10015,"Ġrunt":10016,"Ġlever":10017,"Ġleetcode":10018,"Ġapparent":10019,"Ġupstream":10020,"Ġsix":10021,"Ġsieve":10022,"Ġservo":10023,"abc":10024,"Ġperl":10025,"Ġevident":10026,"Ġkeychain":10027,"Ġbob":10028,"Ġboil":10029,"Ġclutter":10030,"lower":10031,"Ġhoped":10032,"Ġhooks":10033,"Ġintersect":10034,"heres":10035,"mutably":10036,"Ġentropy":10037,"Ġsubslice":10038,"beaut":10039,"nested":10040,"Ġprocessors":10041,"cred":10042,"Ġdowngrade":10043,"Ġclearing":10044,"Ġpostman":10045,"commun":10046,"single":10047,"Ġcomplaint":10048,"Ġsemver":10049,"Ġsecurely":10050,"Ġmarkdown":10051,"Ġwondered":10052,"sslhandshakeexception":10053,"Ġproto":10054,"Ġported":10055,"Ġportability":10056,"Ġglobals":10057,"Ġcollects":10058,"Ġbrowse":10059,"Ġtrickier":10060,"Ġnetworking":10061,"myfile":10062,"Ġcraft":10063,"Ġanaly":10064,"Ġartific":10065,"Ġcoupled":10066,"Ġerasure":10067,"Ġtalonmies":10068,"expand":10069,"explicit":10070,"Ġpasting":10071,"mapped":10072,"Ġmaintains":10073,"Ġcarried":10074,"Ġfitting":10075,"processing":10076,"Ġprotects":10077,"Ġ<=":10078,"localhost":10079,"Ġlisteners":10080,"Ġencapsulated":10081,"Ġstrategies":10082,"retri":10083,"Ġfirebase":10084,"modified":10085,"Ġgeo":10086,"Ġpreserves":10087,"Ġerrone":10088,"Ġprofiles":10089,"execute":10090,"Ġflattening":10091,"tuples":10092,"Ġstamping":10093,"Ġorganize":10094,"Ġhumans":10095,"Ġfragmentation":10096,"outputiterator":10097,"protect":10098,"Ġinstructed":10099,"Ġanchors":10100,"Ġanticip":10101,"Ġseriously":10102,"Ġdesugars":10103,"----------------":10104,"answered":10105,"Ġvaguely":10106,"Ġfedora":10107,"entoo":10108,"Ġeliminating":10109,"Ġinterchangeable":10110,"Ġpgadmin":10111,"Ġobservation":10112,"Ġbandwidth":10113,"Ġadobe":10114,"Ġjulia":10115,"Ġbootstrap":10116,"Ġredirection":10117,")'":10118,")).":10119,"028":10120,"91":10121,"]`":10122,"bs":10123,"bast":10124,"empt":10125,"iant":10126,"mar":10127,"mingw":10128,"nat":10129,"rand":10130,"rpc":10131,"timer":10132,"wd":10133,"xb":10134,"Ġtsp":10135,"Ġtldr":10136,"Ġage":10137,"Ġaster":10138,"Ġcal":10139,"Ġwstrust":10140,"Ġbsd":10141,"Ġfp":10142,"Ġfuse":10143,"studio":10144,"Ġmq":10145,"Ġdp":10146,"Ġpem":10147,"Ġlisp":10148,"Ġrevis":10149,"lldb":10150,"Ġstages":10151,"Ġstargateur":10152,"peg":10153,"ational":10154,"unlike":10155,"idire":10156,"idimensional":10157,"Ġseal":10158,"iful":10159,"Ġorm":10160,"Ġ....":10161,"romium":10162,"Ġpol":10163,"Ġpopped":10164,"emalloc":10165,"Ġshe":10166,"Ġjunk":10167,"Ġsaf":10168,"Ġunrolled":10169,"Ġhashtable":10170,"Ġrat":10171,"del":10172,"Ġoblig":10173,"Ġupcasting":10174,"tex":10175,"Ġserved":10176,"Ġevil":10177,"aven":10178,"avoid":10179,"ocol":10180,"ieve":10181,"apk":10182,"Ġbooks":10183,"Ġdisp":10184,"Ġquit":10185,"Ġinvari":10186,"Ġbitmap":10187,"ownership":10188,"Ġaggress":10189,"Ġnonethe":10190,"Ġxy":10191,"reddit":10192,"ogonal":10193,"solution":10194,"Ġgeneralized":10195,"show":10196,"Ġrepresentable":10197,"Ġminus":10198,"Ġhardly":10199,"Ġrecla":10200,"Ġ...).":10201,"Ġinterfacing":10202,"Ġspans":10203,"Ġfilen":10204,"Ġconceptual":10205,"Ġbadly":10206,"Ġhyph":10207,"namely":10208,"Ġselecting":10209,"handling":10210,"mysql":10211,"Ġsymbolic":10212,"Ġdescriptive":10213,"Ġdirected":10214,"Ġinterprets":10215,"Ġpredates":10216,"Ġregistering":10217,"Ġaligning":10218,"Ġregexes":10219,"Ġabstracted":10220,"Ġautocomplete":10221,"Ġderefs":10222,"Ġhacks":10223,"runner":10224,"Ġinteracts":10225,"âĶĢâĶĢâĶĢâĶ":10226,"Ġexperimented":10227,"Ġcontrolling":10228,"Ġredundancy":10229,"Ġvtables":10230,"exported":10231,"Ġdrivers":10232,"signature":10233,"Ġredirects":10234,"fram":10235,"Ġarrived":10236,"Ġcryptographically":10237,"Ġapproximate":10238,"Ġdelimit":10239,"Ġmocking":10240,"Ġcudpp":10241,"closures":10242,"filled":10243,"Ġnanoseconds":10244,"Ġreordering":10245,"Ġrecoverable":10246,"sembled":10247,"Ġhoriz":10248,"features":10249,"Ġvulnerable":10250,"property":10251,"basically":10252,"Ġcomprehensive":10253,"techn":10254,"Ġorthogonal":10255,"Ġbubblewrap":10256,"Ġexhibits":10257,"datetime":10258,"potentially":10259,"Ġgranularity":10260,"stricted":10261,"Ġservlet":10262,"hopefully":10263,"Ġrental":10264,"Ġculprit":10265,"idirectional":10266,"Ġnonetheless":10267,"\";":10268,"?!":10269,"?\".":10270,"ham":10271,"lr":10272,"mask":10273,"pixel":10274,"rate":10275,"squ":10276,"saml":10277,"uine":10278,"vend":10279,"xa":10280,"xd":10281,"Ġaud":10282,"erra":10283,"Ġcg":10284,"attempt":10285,"Ġbloat":10286,"sten":10287,"Ġmich":10288,"Ġinot":10289,"Ġpal":10290,"Ġiso":10291,"Ġnetc":10292,"Ġreassigned":10293,"Ġuwp":10294,"icul":10295,"Ġgzip":10296,"Ġgentoo":10297,"Ġassure":10298,"Ġnotified":10299,"Ġrustic":10300,"changing":10301,"unable":10302,"unks":10303,"unused":10304,"Ġdeem":10305,"thouse":10306,"Ġintact":10307,"Ġjemalloc":10308,"Ġunt":10309,"Ġuncommon":10310,"Ġadmittedly":10311,"usb":10312,"Ġprere":10313,"Ġgolang":10314,"Ġpreferences":10315,"Ġsolid":10316,"Ġsierra":10317,"istency":10318,"Ġunderne":10319,"Ġcrt":10320,"avid":10321,"Ġcheckservertrusted":10322,"Ġscra":10323,"Ġscatter":10324,"Ġ29":10325,"osh":10326,"Ġmultidimensional":10327,"ubuntu":10328,"Ġinteroper":10329,"Ġdecoded":10330,"ished":10331,"Ġraising":10332,"Ġroad":10333,"Ġstandards":10334,"Ġencoder":10335,"extensions":10336,"Ġreplacements":10337,"Ġdesigners":10338,"Ġgrabb":10339,"Ġvisited":10340,"Ġspend":10341,"Ġtruststores":10342,"logger":10343,"securitypermission":10344,"allocating":10345,"2014":10346,"Ġgraphql":10347,"merge":10348,"Ġgrouped":10349,"0495":10350,"Ġcygwin":10351,"Ġmaintainer":10352,"specified":10353,"Ġdanger":10354,"Ġstatistics":10355,"calling":10356,"Ġfreedom":10357,"passing":10358,"Ġcheat":10359,"Ġsyntactical":10360,"Ġqualifier":10361,"Ġstabilization":10362,"color":10363,"implemented":10364,"implementation":10365,"Ġgrowable":10366,"aws":10367,"Ġmcarton":10368,"Ġreallocated":10369,"regular":10370,"Ġpartitioning":10371,"xxxx":10372,"Ġcookies":10373,"Ġencouraged":10374,"Ġmigrate":10375,"Ġrestarted":10376,"Ġfacil":10377,"Ġelaps":10378,"operations":10379,"Ġfulfills":10380,"contained":10381,"proto":10382,"Ġwidely":10383,"Ġreassigning":10384,"Ġcaveats":10385,"Ġpuzzled":10386,"Ġcompromise":10387,"Ġamazing":10388,"Ġclusters":10389,"Ġslots":10390,"Ġorthographic":10391,"Ġeliminated":10392,"receiver":10393,"segment":10394,"require":10395,"Ġsubscribe":10396,"global":10397,"performance":10398,"Ġparametrized":10399,"Ġmarshal":10400,"experi":10401,"Ġaffine":10402,"Ġrefcount":10403,"Ġsmell":10404,"Ġaccommodate":10405,"Ġunreasonable":10406,"Ġruntimes":10407,"beautify":10408,"Ġunderneath":10409,"#)":10410,"(?)":10411,"500":10412,"83":10413,"bat":10414,"cpu":10415,"clear":10416,"gc":10417,"hf":10418,"hig":10419,"hore":10420,"high":10421,"ko":10422,"lm":10423,"maven":10424,"nz":10425,"never":10426,"pseud":10427,"pfx":10428,"sound":10429,"ties":10430,"trun":10431,"Ġtid":10432,"Ġties":10433,"Ġioc":10434,"Ġaux":10435,"inf":10436,"intern":10437,"inline":10438,"invoke":10439,"Ġwo":10440,"Ġmorgan":10441,"anum":10442,"anonymous":10443,"Ġpom":10444,"itivity":10445,"Ġnt":10446,"Ġnil":10447,"Ġnifi":10448,"Ġnaked":10449,"Ġreborrowed":10450,"icing":10451,"seconds":10452,"oting":10453,"Ġstability":10454,"Ġgro":10455,"rogram":10456,"celer":10457,"eref":10458,"kex":10459,"Ġusb":10460,"outside":10461,"thy":10462,"cks":10463,"ichton":10464,"ferenced":10465,"Ġunint":10466,"Ġunbox":10467,"indices":10468,"Ġrer":10469,"Ġrlib":10470,"Ġrpc":10471,"Ġrodrigo":10472,"Ġcontention":10473,"Ġgenuine":10474,"Ġcoinc":10475,"usp":10476,"Ġspecs":10477,"ocd":10478,"Ġinspe":10479,"groups":10480,"extern":10481,"existent":10482,"Ġconverse":10483,"beros":10484,"switch":10485,"articles":10486,"Ġdislike":10487,"Ġ?)":10488,"Ġremark":10489,"âĢĵ":10490,"Ġdecoup":10491,"Ġinvit":10492,"Ġenters":10493,"Ġmovement":10494,"Ġ34":10495,"Ġnonce":10496,"Ġclipped":10497,"Ġhashed":10498,"Ġrelating":10499,"Ġmisses":10500,"Ġoptimizes":10501,"Ġpyram":10502,"cursor":10503,"Ġparticip":10504,"Ġ[]":10505,"Ġrecv":10506,"maphore":10507,"Ġground":10508,"Ġbecoming":10509,"Ġreleasing":10510,"Ġderiv":10511,"Ġtreea":10512,"123":10513,"prone":10514,"Ġpersistent":10515,"Ġcomplicates":10516,"Ġdomainb":10517,"Ġtrickery":10518,"Ġdrag":10519,"msvc":10520,"Ġrank":10521,"Ġmismatches":10522,"database":10523,"implicit":10524,"added":10525,"Ġmetap":10526,"reflection":10527,"Ġridicul":10528,"Ġtimed":10529,"Ġclicked":10530,"visible":10531,"Ġadapting":10532,"Ġattaching":10533,"Ġsumming":10534,"Ġprotecting":10535,"Ġblu":10536,"Ġhuon":10537,"Ġillustrated":10538,"Ġmisunderstand":10539,"Ġpolls":10540,"implementing":10541,"Ġgeforce":10542,"Ġpreserving":10543,"Ġpropagated":10544,"signing":10545,"supp":10546,"Ġconsequences":10547,"Ġdecryption":10548,"fnmut":10549,"Ġexhausted":10550,"ogenous":10551,"Ġfavour":10552,"started":10553,"Ġacquired":10554,"enums":10555,"Ġdelimited":10556,"Ġmigrations":10557,"Ġperiodically":10558,"filename":10559,"Ġhorrible":10560,"tagged":10561,"Ġrolling":10562,"Ġsane":10563,"Ġlanded":10564,"multiple":10565,"âĶĢâĶĢâĶĢâĶĢâĶĢâĶĢâĶĢâĶĢ":10566,"pastebin":10567,"Ġbuckets":10568,"Ġfiddling":10569,"Ġstems":10570,"Ġunrolling":10571,"attribute":10572,"Ġkerberos":10573,"Ġaggregate":10574,"Ġdisagree":10575,"abytes":10576,"atisf":10577,"facto":10578,"Ġfrankly":10579,"certpathbuilderexception":10580,"Ġhassle":10581,"credential":10582,"Ġinvariance":10583,"Ġfilenames":10584,"Ġinotify":10585,"higher":10586,"Ġpyramid":10587,"];":10588,"bash":10589,"dylib":10590,"fus":10591,"fast":10592,"nb":10593,"nr":10594,"plex":10595,"sch":10596,"td":10597,"tsa":10598,"uint":10599,"war":10600,"was":10601,"will":10602,"Ġou":10603,"Ġtcs":10604,"Ġii":10605,"Ġiii":10606,"erce":10607,"Ġwar":10608,"oupa":10609,"enance":10610,"Ġbank":10611,"Ġfence":10612,"sta":10613,"still":10614,"annot":10615,"edy":10616,"Ġhoc":10617,"ctl":10618,"Ġitext":10619,"Ġresemble":10620,"Ġecon":10621,"enter":10622,"Ġgy":10623,"Ġdos":10624,"Ġhay":10625,"Ġlived":10626,"peared":10627,"chars":10628,"adapt":10629,"Ġcompressed":10630,"Ġsemaphore":10631,"uli":10632,"cking":10633,"errors":10634,"Ġchances":10635,"alling":10636,"Ġjdbc":10637,"Ġcasted":10638,"Ġcacert":10639,"Ġunhappy":10640,"queness":10641,"Ġ\"&":10642,")...":10643,"Ġtel":10644,"Ġmatveev":10645,"Ġplays":10646,"Ġprogramme":10647,"intptr":10648,"Ġscrew":10649,"explan":10650,"Ġbog":10651,"Ġboiled":10652,"Ġfear":10653,"Ġafterward":10654,"Ġversioning":10655,"Ġdeser":10656,"Ġdepart":10657,"Ġholes":10658,"Ġdisconnect":10659,"ube":10660,"actored":10661,"resources":10662,"Ġbacksl":10663,"Ġmodular":10664,"Ġ300":10665,"uget":10666,"Ġmeanwhile":10667,"ibus":10668,"Ġsharepoint":10669,"Ġencodes":10670,"ivalent":10671,"Ġrestarting":10672,"Ġ&&":10673,"Ġequivalently":10674,"Ġvecs":10675,"Ġreferents":10676,"Ġlaratrust":10677,"trustpilot":10678,"byexample":10679,"complic":10680,"Ġcondvar":10681,"Ġ54":10682,"Ġstride":10683,"Ġrefactored":10684,"Ġspits":10685,"Ġwording":10686,"Ġnamespa":10687,"Ġuniqueness":10688,"000000":10689,"Ġcurios":10690,"Ġphot":10691,"Ġuniquely":10692,"Ġimproper":10693,"iterate":10694,"Ġmonad":10695,"mywebsite":10696,"Ġinfix":10697,"Ġcrashing":10698,"functor":10699,"determ":10700,"Ġsoundness":10701,"Ġjoins":10702,"9999":10703,"Ġmaintenance":10704,"Ġbroke":10705,"Ġasserts":10706,"hood":10707,"Ġglsl":10708,"\":\"":10709,"Ġcentre":10710,"Ġinevit":10711,"Ġhacked":10712,"discover":10713,"Ġscaling":10714,"Ġexperimentation":10715,"Ġligh":10716,"Ġbuttons":10717,"exports":10718,"Ġorders":10719,"Ġpropagating":10720,"Ġvolley":10721,"close":10722,"optional":10723,"googlechrome":10724,"blogs":10725,"declare":10726,"Ġgreet":10727,"certpathvalidatorexception":10728,"multi":10729,"basic":10730,"relative":10731,"Ġoverlooked":10732,"Ġbullet":10733,"sensitive":10734,"Ġrecurring":10735,"Ġpermanently":10736,"anchors":10737,"Ġdataset":10738,"origin":10739,"disclaimer":10740,"scalar":10741,"advanced":10742,"Ġsuspend":10743,"Ġbegan":10744,"Ġasterisk":10745,"Ġratio":10746,"Ġelapsed":10747,"Ġcuriosity":10748,"<[":10749,"bal":10750,"black":10751,"codes":10752,"fi":10753,"fu":10754,"godbolt":10755,"hoc":10756,"ji":10757,"kg":10758,"made":10759,"malloc":10760,"oom":10761,"session":10762,"yml":10763,"},":10764,"Ġack":10765,"Ġcss":10766,"Ġcass":10767,"Ġcms":10768,"Ġcited":10769,"inator":10770,"Ġsin":10771,"Ġske":10772,"Ġsid":10773,"Ġwso":10774,"Ġwtf":10775,"onts":10776,"ening":10777,"Ġink":10778,"Ġdu":10779,"Ġdark":10780,"Ġduck":10781,"Ġann":10782,"edrac":10783,"Ġlda":10784,"Ġreloc":10785,"Ġrenew":10786,"Ġreboot":10787,"Ġreorgan":10788,"Ġreinvent":10789,"Ġrewrote":10790,"isy":10791,"owor":10792,"etlink":10793,"Ġeu":10794,"Ġeight":10795,"Ġgut":10796,"Ġgfx":10797,"Ġdoor":10798,"rustlib":10799,"radix":10800,"Ġrustls":10801,"ferent":10802,"adem":10803,"Ġcompress":10804,"antic":10805,"Ġ.\"":10806,"sso":10807,"Ġsamp":10808,"Ġunidiomatic":10809,"Ġunchecked":10810,"Ġunanswered":10811,"quet":10812,"quent":10813,"indent":10814,"amation":10815,"Ġ\":":10816,"Ġris":10817,"ortion":10818,"Ġobfus":10819,"Ġacceler":10820,"Ġdefect":10821,"lient":10822,"pshot":10823,"abin":10824,"Ġacting":10825,"Ġthreadblock":10826,"Ġkeymanager":10827,"agger":10828,"Ġ''":10829,"Ġinteractions":10830,"Ġvalidating":10831,"crets":10832,"Ġcertificateexception":10833,"opengl":10834,"Ġlinq":10835,"Ġxargo":10836,"Ġxyz":10837,"theme":10838,"loading":10839,"Ġlengthy":10840,"akis":10841,"Ġentirety":10842,"Ġproposes":10843,"Ġloader":10844,"compare":10845,"Ġcomplaints":10846,"Ġdesigner":10847,"Ġpresents":10848,"Ġvisiting":10849,"arness":10850,"Ġcalculator":10851,"Ġbigint":10852,"Ġeventual":10853,"Ġpeg":10854,"uplicate":10855,"header":10856,"chrono":10857,"Ġffmpeg":10858,"princ":10859,"getting":10860,"Ġsatisfactory":10861,"Ġcomplicate":10862,"Ġdomaina":10863,"Ġfrustrum":10864,"168":10865,"Ġchecksum":10866,"stderr":10867,"Ġmsi":10868,"Ġactivation":10869,"Ġunrestricted":10870,"Ġabstracts":10871,"linking":10872,"Ġaffecting":10873,"Ġbenchmarked":10874,"Ġfallible":10875,"Ġineff":10876,"Ġconcatenating":10877,"Ġestimate":10878,"Ġdrives":10879,"Ġ<->":10880,"napshot":10881,"Ġuploading":10882,"Ġbrittle":10883,"Ġbelonging":10884,"programming":10885,"sourceforge":10886,"certificates":10887,"Ġretains":10888,"Ġretaining":10889,"Ġreflects":10890,"Ġblah":10891,"blogspot":10892,"Ġjumps":10893,"formatted":10894,"Ġfacade":10895,"protocol":10896,"Ġisolation":10897,"Ġreveal":10898,"Ġtradeoffs":10899,"Ġseparators":10900,"Ġprivilege":10901,"events":10902,"Ġhypothesis":10903,"Ġcorrupted":10904,"Ġshifted":10905,"Ġoverflowing":10906,"Ġtons":10907,"Ġpurch":10908,"Ġtriplet":10909,"Ġwasting":10910,"Ġsuspicious":10911,"cluded":10912,"Ġtensor":10913,"Ġphilosophy":10914,"behind":10915,"behav":10916,"equivalent":10917,"Ġperipherals":10918,"Ġburden":10919,"Ġtampered":10920,"Ġinterpolation":10921,"preferably":10922,"Ġoccured":10923,"Ġconvey":10924,"Ġseperate":10925,"Ġbridge":10926,"status":10927,"Ġstreng":10928,"Ġwanna":10929,"unresolved":10930,"forums":10931,"Ġsmoothly":10932,"Ġfolks":10933,"Ġdrastically":10934,"Ġerroneous":10935,"framabin":10936,"square":10937,"Ġmetaprogram":10938,"Ġacknow":10939,")!":10940,"101":10941,"=/":10942,"]]":10943,"bt":10944,"bul":10945,"cade":10946,"fr":10947,"fit":10948,"fere":10949,"gmp":10950,"hra":10951,"hex":10952,"held":10953,"irus":10954,"making":10955,"oas":10956,"rng":10957,"uracy":10958,"would":10959,"wiw":10960,"Ġtad":10961,"Ġtfs":10962,"Ġair":10963,"Ġsr":10964,"review":10965,"enic":10966,"Ġburn":10967,"Ġbidirectional":10968,"stic":10969,"stargateur":10970,"Ġmul":10971,"Ġdam":10972,"Ġdub":10973,"ane":10974,"another":10975,"Ġomn":10976,"itates":10977,"Ġharness":10978,"albert":10979,"omg":10980,"Ġreform":10981,"icert":10982,"aram":10983,"Ġemphas":10984,"otrust":10985,"odt":10986,"Ġdoll":10987,"Ġham":10988,"Ġvpn":10989,"peek":10990,"Ġnotifications":10991,"adding":10992,"univer":10993,"uninitialized":10994,"idence":10995,"Ġcomplier":10996,"Ġcomposing":10997,"Ġsecrets":10998,"Ġorient":10999,"Ġsometime":11000,"Ġwhatnot":11001,"loquent":11002,"Ġshame":11003,"Ġintptr":11004,"quis":11005,"quick":11006,"Ġrp":11007,"Ġrig":11008,"Ġaband":11009,"deep":11010,"delimited":11011,"Ġmethodology":11012,"Ġ127":11013,"elf":11014,"Ġlibg":11015,"Ġcrl":11016,"Ġactas":11017,"Ġ239":11018,"Ġverisign":11019,"Ġimho":11020,"Ġclou":11021,"Ġproves":11022,"Ġwritable":11023,"ensitive":11024,"Ġbitcode":11025,"Ġsubclass":11026,"Ġsubslices":11027,"Ġhelpers":11028,"++).":11029,"best":11030,"Ġlitter":11031,"Ġliner":11032,"Ġxp":11033,"phase":11034,"Ġkinded":11035,"redict":11036,"Ġaccuracy":11037,"extend":11038,"Ġ400":11039,"Ġmodeling":11040,"Ġhttpcontext":11041,"she":11042,"shif":11043,"Ġ[\"":11044,"too":11045,"urpose":11046,"Ġrecip":11047,"progress":11048,"Ġdealt":11049,"setup":11050,"Ġfraction":11051,"Ġroots":11052,"Ġguesses":11053,"Ġbelie":11054,"Ġserializes":11055,"Ġspat":11056,"Ġreductions":11057,"priate":11058,"login":11059,"Ġpeers":11060,"precision":11061,"Ġbeginners":11062,"Ġswitches":11063,"Ġ77":11064,"Ġbrowsing":11065,"Ġauthorized":11066,"Ġdispatching":11067,"defin":11068,"2011":11069,"2013":11070,"interior":11071,"interface":11072,"Ġtagging":11073,"copying":11074,"Ġbroadly":11075,"Ġmechanics":11076,"Ġmetal":11077,"Ġoverloads":11078,"192":11079,"Ġelegantly":11080,"Ġdeallocating":11081,"Ġinitiate":11082,"Ġlucky":11083,"docker":11084,"Ġadaptors":11085,"Ġdeprecation":11086,"Ġencodings":11087,"Ġblows":11088,"Ġblade":11089,"Ġ~/.":11090,"Ġillustration":11091,"Ġpaying":11092,"Ġclaiming":11093,"080":11094,"Ġâĩ":11095,"general":11096,"Ġsurv":11097,"Ġwhitespaces":11098,"Ġdestructured":11099,"Ġresearching":11100,"awte":11101,"modify":11102,"Ġbeside":11103,"Ġrevoked":11104,"Ġimpacts":11105,"Ġphysically":11106,"Ġcollapse":11107,"Ġkilling":11108,"Ġstumble":11109,"Ġelastic":11110,"attach":11111,"repres":11112,"Ġrevealed":11113,"Ġrectang":11114,"Ġtweaks":11115,"Ġinconsistency":11116,"Ġpredictable":11117,"metal":11118,"Ġcontribute":11119,"coverable":11120,"Ġassistance":11121,"Ġapologize":11122,"Ġnightlies":11123,"Ġhurt":11124,"Ġjuniper":11125,"Ġdecorator":11126,"Ġaccidental":11127,"ï¼ļ":11128,"Ġunambiguously":11129,"Ġjetbra":11130,"keeping":11131,"delegate":11132,"Ġmitig":11133,"Ġodeint":11134,"Ġnutshell":11135,"Ġpragm":11136,"Ġexclusively":11137,"embedded":11138,"Ġcategories":11139,"negative":11140,"stenite":11141,"Ġdeemed":11142,"Ġhaystack":11143,"Ġldaps":11144,"oasis":11145,"Ġomnibus":11146,"albertodt":11147,"\"-":11148,"bing":11149,"bel":11150,"bos":11151,"colon":11152,"div":11153,"direct":11154,"hz":11155,"ieth":11156,"jl":11157,"lisher":11158,"much":11159,"mismatch":11160,"nor":11161,"pid":11162,"rz":11163,"ril":11164,"sr":11165,"sug":11166,"tz":11167,"tar":11168,"tri":11169,"Ġtss":11170,"Ġiirc":11171,"atim":11172,"oracle":11173,"Ġbst":11174,"Ġbaff":11175,"steps":11176,"Ġmedia":11177,"Ġoom":11178,"edu":11179,"Ġptx":11180,"esca":11181,"escription":11182,"Ġhw":11183,"Ġrecompiled":11184,"isable":11185,"icular":11186,"aris":11187,"Ġsteve":11188,"Ġgic":11189,"Ġglo":11190,"Ġgray":11191,"Ġglib":11192,"Ġongoing":11193,"Ġcance":11194,"raits":11195,"versa":11196,"Ġselector":11197,"iff":11198,"Ġdeck":11199,"Ġdelt":11200,"Ġareas":11201,"Ġtypecheck":11202,"Ġpopping":11203,"emer":11204,"Ġlocale":11205,"Ġjan":11206,"Ġcaution":11207,"Ġunreadable":11208,"izard":11209,"camera":11210,"cached":11211,"Ġmeg":11212,"fetch":11213,"Ġrst":11214,"Ġrpi":11215,"orted":11216,"dead":11217,"decode":11218,"destro":11219,"Ġtex":11220,"Ġtempt":11221,"Ġresized":11222,"lazy":11223,"Ġgold":11224,"Ġunderflow":11225,"Ġreadily":11226,"grading":11227,"forms":11228,"Ġnewcom":11229,"Ġimpractical":11230,"conver":11231,"Ġtrustore":11232,"Ġrepr":11233,"Ġ2048":11234,"ledged":11235,"white":11236,"Ġdisassembly":11237,"Ġdisregard":11238,"Ġremarks":11239,"Ġinterfere":11240,"ensus":11241,"Ġquir":11242,"conditional":11243,"Ġspecifics":11244,"Ġinvis":11245,"Ġbackup":11246,"Ġexpresses":11247,"okie":11248,"Ġthroughput":11249,"encoding":11250,"Ġinclusion":11251,"Ġtransport":11252,"Ġcharm":11253,"Ġindexable":11254,"Ġsafest":11255,"Ġzom":11256,"failed":11257,"sonic":11258,"Ġoptimising":11259,"Ġrealistic":11260,"loaded":11261,"Ġinstallations":11262,"Ġ44":11263,"Ġ403":11264,"Ġplacement":11265,"Ġpublisher":11266,"worthy":11267,"Ġ[[":11268,"Ġsimplifies":11269,"Ġprettier":11270,"Ġclassical":11271,"libcore":11272,"however":11273,"Ġspir":11274,"webassembly":11275,"Ġtoggle":11276,"iterators":11277,"printing":11278,"wrapped":11279,"Ġuncertain":11280,"---":11281,"Ġtroublesh":11282,"conflict":11283,"Ġspell":11284,"Ġfltk":11285,"Ġforeach":11286,"Ġdoubles":11287,"2020":11288,"Ġmutexguard":11289,"spring":11290,"Ġlatex":11291,"Ġindicator":11292,"threadpool":11293,"Ġluke":11294,"Ġlauncher":11295,"Ġdisables":11296,"Ġverbatim":11297,"Ġoriginates":11298,"iliary":11299,"Ġcircuit":11300,"Ġcommitted":11301,"domainservices":11302,"Ġinteractive":11303,"Ġderivedpolicy":11304,"username":11305,"serialization":11306,"results":11307,"Ġrounded":11308,"Ġfragments":11309,"Ġsupertraits":11310,"Ġlossy":11311,"azure":11312,"returns":11313,"Ġblame":11314,"Ġmicroseconds":11315,"Ġtrimmed":11316,"Ġinformations":11317,"Ġdisappeared":11318,"iveness":11319,"ungstenite":11320,"Ġrestructuring":11321,"sender":11322,"Ġcandidates":11323,"celerator":11324,"Ġshifts":11325,"patterns":11326,"Ġinspiration":11327,"Ġshrinking":11328,"Ġprepending":11329,"rusive":11330,"Ġ1000000":11331,"Ġoccupy":11332,"Ġdefeat":11333,"executioncontext":11334,"Ġimpersonation":11335,"hhhh":11336,"Ġdeliberate":11337,"Ġfiddler":11338,"Ġmangled":11339,"Ġ(*)":11340,"Ġphilosophers":11341,"namespace":11342,"Ġphrase":11343,"Ġvulkano":11344,"Ġbeautiful":11345,"Ġdashboard":11346,"consumer":11347,"Ġinterleaved":11348,"evaluate":11349,"Ġsubstantial":11350,"Ġlegitimate":11351,"published":11352,"Ġuniversally":11353,"Ġcoroutines":11354,"scoped":11355,"Ġeducational":11356,"automatically":11357,"Ġilluminate":11358,"Ġcudamemcpy":11359,"Ġpitfalls":11360,"Ġprerequis":11361,"Ġauxiliary":11362,"discovery":11363,"Ġsampling":11364,"princip":11365,"Ġstrength":11366,"Ġmetaprogramming":11367,"!\".":11368,"/\"":11369,"264":11370,"=\\\"":11371,">'":11372,">]\"":11373,"alex":11374,"bru":11375,"cg":11376,"du":11377,"dump":11378,"eed":11379,"fig":11380,"flo":11381,"gencode":11382,"hack":11383,"iates":11384,"might":11385,"mix":11386,"mount":11387,"micro":11388,"mvc":11389,"nia":11390,"oft":11391,"pic":11392,"vd":11393,"warning":11394,"xp":11395,"Ġtboot":11396,"Ġcors":11397,"Ġctypes":11398,"Ġcusp":11399,"Ġwit":11400,"Ġwow":11401,"reqwest":11402,"Ġbios":11403,"Ġbaked":11404,"Ġfru":11405,"Ġfederation":11406,"star":11407,"Ġmwe":11408,"Ġdy":11409,"Ġdug":11410,"Ġdsl":11411,"Ġoops":11412,"Ġpand":11413,"Ġpec":11414,"Ġpest":11415,"Ġhate":11416,"Ġnuget":11417,"omp":11418,"Ġlately":11419,"Ġrework":11420,"Ġyout":11421,"ructions":11422,"Ġbellow":11423,"llowing":11424,"Ġgethrforexception":11425,"oders":11426,"Ġ(?)":11427,"Ġcompe":11428,"ashing":11429,"chromium":11430,"chunks":11431,"urser":11432,"ids":11433,"Ġcompr":11434,"Ġpoc":11435,"Ġworkable":11436,"Ġmyst":11437,"loops":11438,"Ġshard":11439,"Ġintrusive":11440,"lice":11441,"Ġunify":11442,"Ġunordered":11443,"umes":11444,"Ġ\"*":11445,"Ġkafka":11446,"inel":11447,"ntool":11448,"Ġrip":11449,"Ġfileiopermission":11450,"Ġvaries":11451,"Ġmosso":11452,"Ġundo":11453,"questions":11454,"notice":11455,"ista":11456,"Ġreadonly":11457,"abs":11458,"Ġcheckbox":11459,"tty":11460,"clang":11461,"Ġdefinitive":11462,"udes":11463,"updated":11464,"Ġverifiable":11465,"Ġimm":11466,"Ġavx":11467,"Ġwriters":11468,"ails":11469,"Ġextran":11470,"rsa":11471,"Ġsubfolder":11472,"Ġwebgl":11473,"Ġforming":11474,"Ġmodifiers":11475,"Ġvalidates":11476,"Ġsyntaxes":11477,"Ġunset":11478,"Ġstandpoint":11479,"Ġ`[":11480,"parsing":11481,"Ġzones":11482,"())":11483,"facing":11484,"Ġwhoever":11485,"Ġhadn":11486,"ĠĠĠĠĠĠĠĠĠĠĠĠĠĠ":11487,"Ġ401":11488,"Ġbinaryheap":11489,"Ġseparation":11490,"ostics":11491,"Ġprogrammatic":11492,"sharp":11493,"Ġidentities":11494,"Ġconfigurable":11495,"Ġrecy":11496,"Ġrecieve":11497,"Ġusefulness":11498,"Ġ51":11499,"Ġ57":11500,"Ġlesser":11501,"timeout":11502,"Ġgroupa":11503,"Ġheadache":11504,"following":11505,"Ġbuggy":11506,"Ġspheres":11507,"Ġextractor":11508,"codeaccess":11509,"ounce":11510,"ginx":11511,"Ġviewport":11512,"Ġpause":11513,"Ġcamel":11514,"nameable":11515,"Ġselectively":11516,"Ġmonit":11517,"Ġdescriptions":11518,"Ġgraphemes":11519,"Ġfns":11520,"ository":11521,"Ġguideline":11522,"Ġcovering":11523,"Ġunwraps":11524,"Ġnoticeable":11525,"Ġlayouts":11526,"Ġpopup":11527,"Ġhinted":11528,"details":11529,"graphics":11530,"Ġpulls":11531,"Ġtcplistener":11532,"Ġglut":11533,"ordering":11534,"httpcontext":11535,"Ġpublishes":11536,"Ġtreatment":11537,"Ġnominal":11538,"Ġreceivers":11539,"Ġsuperior":11540,"Ġsummation":11541,"Ġobserving":11542,"Ġincrementally":11543,"Ġdevirtual":11544,"Ġodds":11545,"Ġdoubts":11546,"Ġsubstituting":11547,"Ġsynchronized":11548,"Ġpresses":11549,"Ġsubsets":11550,"haustive":11551,"Ġatomically":11552,"Ġarrive":11553,"Ġmonomorphisation":11554,"Ġwarned":11555,"Ġindented":11556,"decimal":11557,"Ġalphanum":11558,"Ġunlocked":11559,"Ġunderscores":11560,"Ġaccurately":11561,"Ġshuffling":11562,"Ġinstructs":11563,"Ġfreshly":11564,"Ġhighlighting":11565,"Ġhighlighted":11566,"demo":11567,"nytm":11568,"Ġflushed":11569,"foundation":11570,"Ġexceeds":11571,"Ġassociative":11572,"Ġsuspic":11573,"Ġbalance":11574,"Ġmvce":11575,"Ġintrospect":11576,"sensical":11577,"failure":11578,"Ġdecompose":11579,"clause":11580,"record":11581,"Ġrecurse":11582,"literals":11583,"appropriate":11584,"Ġdivisible":11585,"tcpstream":11586,"Ġvanilla":11587,"flatten":11588,"vgomg":11589,"Ġinverted":11590,"super":11591,"Ġbacktraces":11592,"Ġhistorical":11593,"Ġskills":11594,"Ġartificial":11595,"Ġhorizont":11596,"uliar":11597,"universal":11598,"ĠâĩĴ":11599,"represent":11600,"iethios":11601,"Ġtempted":11602,"Ġinvisible":11603,"conflicting":11604,"Ġpeculiar":11605,"Ġextraneous":11606,".(":11607,":/":11608,">`?":11609,"bars":11610,"cal":11611,"ear":11612,"gp":11613,"hn":11614,"jed":11615,"lp":11616,"lot":11617,"live":11618,"mare":11619,"migr":11620,"prom":11621,"purpose":11622,"rg":11623,"rw":11624,"sandbox":11625,"tot":11626,"uct":11627,"vol":11628,"yy":11629,"za":11630,"µs":11631,"Ġtt":11632,"Ġtar":11633,"Ġcord":11634,"inating":11635,"Ġsse":11636,"Ġsess":11637,"Ġtodo":11638,"Ġblo":11639,"Ġbiz":11640,"Ġbcrypt":11641,"leak":11642,"Ġmunch":11643,"Ġmongo":11644,"Ġinac":11645,"Ġdn":11646,"Ġdice":11647,"Ġdavid":11648,"Ġomap":11649,"Ġoob":11650,"itty":11651,"Ġhes":11652,"Ġhung":11653,"align":11654,"Ġnans":11655,"omnia":11656,"Ġln":11657,"Ġls":11658,"Ġepo":11659,"Ġeloquent":11660,"seem":11661,"Ġsticking":11662,"Ġgue":11663,"ldouble":11664,"pexception":11665,"Ġ('":11666,"Ġcomodo":11667,"asks":11668,"memb":11669,"cha":11670,"Ġsealing":11671,"Ġmailing":11672,"ulative":11673,"Ġallev":11674,"Ġsho":11675,"Ġintensive":11676,"Ġcake":11677,"Ġsacr":11678,"Ġuninitial":11679,"Ġuntagged":11680,"Ġunnameable":11681,"Ġadequ":11682,"Ġpointee":11683,"Ġappcontext":11684,"endum":11685,"Ġnoisy":11686,"Ġupcast":11687,"Ġupheld":11688,"Ġ120":11689,"Ġprecompiled":11690,"Ġlibusb":11691,"Ġseeking":11692,"comb":11693,"comments":11694,"..)":11695,"Ġserving":11696,"Ġresultant":11697,"Ġprogramatically":11698,"conception":11699,"Ġtrustanchors":11700,"Ġrepl":11701,"avy":11702,"Ġscience":11703,"essentially":11704,"udp":11705,"foreign":11706,"berock":11707,"swap":11708,"Ġprovision":11709,"Ġconsensus":11710,"whether":11711,"Ġdocumenting":11712,"Ġides":11713,"Ġstateful":11714,"Ġlistens":11715,"issu":11716,"Ġbitfields":11717,"Ġallowpartiallytrustedcallers":11718,"owner":11719,"Ġsubdomain":11720,"Ġguy":11721,"Ġliterature":11722,"Ġheart":11723,"parsed":11724,"Ġconsiderable":11725,"Ġedits":11726,"Ġencodable":11727,"()\"":11728,"Ġspacing":11729,"extract":11730,"Ġhandlebars":11731,"Ġmodeled":11732,"Ġlocals":11733,"Ġclears":11734,"Ġpostfix":11735,"Ġproportion":11736,"proper":11737,"Ġholder":11738,"Ġresponder":11739,"Ġunfriendly":11740,"Ġinvalidates":11741,"Ġdistro":11742,"Ġsplash":11743,"criptor":11744,"Ġflagged":11745,"Ġtreeb":11746,"Ġ86":11747,"rls":11748,"Ġframebuffer":11749,"Ġpaired":11750,"ushi":11751,"Ġinstrument":11752,"Ġspeech":11753,"Ġflutter":11754,"Ġmonte":11755,"Ġmisconception":11756,"Ġoverflowed":11757,"Ġreproducing":11758,"Ġreverses":11759,"Ġmindset":11760,"Ġimagining":11761,"Ġimaginary":11762,"urprising":11763,"leton":11764,"borrows":11765,"copied":11766,"999":11767,"Ġbroker":11768,"Ġemulated":11769,"mah":11770,"305":11771,"Ġ||":11772,"Ġcarri":11773,"Ġconditionals":11774,"httpclient":11775,"Ġmanipulations":11776,"tsushi":11777,"understand":11778,"Ġmaths":11779,"Ġmeasures":11780,"Ġquotation":11781,"Ġtlc":11782,"Ġworkerize":11783,"Ġsubjective":11784,"Ġscanner":11785,"bracket":11786,"Ġfeeds":11787,"Ġcontravariance":11788,"Ġordinal":11789,"nonce":11790,"Ġboards":11791,"life":11792,"Ġredirected":11793,"icksort":11794,"installation":11795,"Ġgpio":11796,"Ġrotating":11797,"structures":11798,"enumer":11799,"repository":11800,"Ġanalyzing":11801,"Ġanalyzed":11802,"contains":11803,"Ġsigint":11804,"optimize":11805,"digest":11806,"breaking":11807,"inputiterator":11808,"plugins":11809,"products":11810,"suncertpathbuilderexception":11811,"Ġuninstalling":11812,"large":11813,"Ġeta":11814,"pasted":11815,"Ġprohibits":11816,"Ġexponential":11817,"Ġbulk":11818,"presumably":11819,"Ġjudging":11820,"downloads":11821,"spection":11822,"Ġexhibit":11823,"power":11824,"authentication":11825,"attributes":11826,"literal":11827,"assertion":11828,"assetlinks":11829,"Ġterse":11830,"topic":11831,"associated":11832,"toolchains":11833,"Ġexcluding":11834,"Ġproxies":11835,"Ġrustacean":11836,"Ġsuperset":11837,"continue":11838,"increment":11839,"Ġnetcat":11840,"Ġgrok":11841,"Ġinspection":11842,"stampt":11843,"Ġtelnet":11844,"Ġbogus":11845,"Ġhammer":11846,"Ġorientation":11847,"Ġdelta":11848,"ursery":11849,"Ġsessions":11850,"Ġepoch":11851,"Ġsacrific":11852,"##":11853,",-":11854,"/-":11855,"110":11856,"<->":11857,"<(),":11858,"='":11859,"bro":11860,"bund":11861,"cate":11862,"cene":11863,"fly":11864,"fusion":11865,"gues":11866,"hen":11867,"hed":11868,"jmb":11869,"mv":11870,"oo":11871,"peter":11872,"ture":11873,"uk":11874,"va":11875,"wt":11876,"xec":11877,"xft":11878,"{}":11879,"Â²":11880,"âĦ":11881,"Ġips":11882,"Ġthawte":11883,"Ġcpython":11884,"ini":11885,"infer":11886,"inqu":11887,"Ġsight":11888,"Ġswe":11889,"Ġsxd":11890,"Ġsnapshot":11891,"reverse":11892,"ater":11893,"oul":11894,"enan":11895,"Ġball":11896,"Ġbought":11897,"Ġfish":11898,"Ġflate":11899,"Ġfiddle":11900,"Ġfwiw":11901,"Ġinappropriate":11902,"Ġdru":11903,"Ġdup":11904,"Ġditch":11905,"Ġdtr":11906,"Ġdsts":11907,"Ġansi":11908,"Ġpun":11909,"Ġpix":11910,"Ġnginx":11911,"Ġlands":11912,"Ġreci":11913,"Ġrelied":11914,"Ġrebuilt":11915,"Ġrecap":11916,"Ġuac":11917,"Ġyan":11918,"etary":11919,"rup":11920,"Ġgiant":11921,"robert":11922,"rame":11923,"Ġvcp":11924,"Ġconsol":11925,"untested":11926,"Ġproving":11927,"Ġcomposite":11928,"Ġsebast":11929,"Ġcodec":11930,"ethost":11931,"emit":11932,"Ġloses":11933,"Ġneedle":11934,"Ġretro":11935,"ecture":11936,"Ġadhere":11937,"quote":11938,"ama":11939,"deb":11940,"deps":11941,"delete":11942,"Ġexpense":11943,"Ġacadem":11944,"rietary":11945,"lip":11946,"forget":11947,"Ġtypename":11948,"Ġboring":11949,"Ġprng":11950,"Ġgover":11951,"els":11952,"Ġprepar":11953,"iry":11954,"Ġcloset":11955,"ists":11956,"Ġpassive":11957,"grained":11958,"Ġoverwrites":11959,"Ġwhereby":11960,"Ġpercent":11961,"exclusive":11962,"Ġbuilders":11963,"Ġconverter":11964,"uded":11965,"upd":11966,"Ġbothers":11967,"Ġholochain":11968,"whites":11969,"Ġsupplies":11970,"Ġparameterised":11971,"Ġmessaging":11972,"Ġsubtypes":11973,"Ġsubsonic":11974,"Ġbehalf":11975,"Ġsystemd":11976,"xture":11977,"Ġ36":11978,"Ġ37":11979,"Ġcolored":11980,"ugg":11981,"Ġbehaving":11982,"Ġbins":11983,"Ġrelinqu":11984,"Ġzome":11985,"their":11986,"Ġrealistically":11987,"Ġopenjdk":11988,"Ġopenocd":11989,"extension":11990,"ĠĠĠĠĠĠĠĠĠĠ":11991,"Ġ&-":11992,"Ġstdio":11993,"Ġstdweb":11994,"locals":11995,"Ġpackaged":11996,"Ġminute":11997,"acces":11998,"Ġproprietary":11999,"poly":12000,"slightly":12001,"Ġtargeted":12002,"efan":12003,"Ġfunctionalities":12004,"mission":12005,"Ġinvalidation":12006,"Ġtextbook":12007,"Ġreflex":12008,"Ġnormalize":12009,"Ġprefers":12010,"Ġfiling":12011,"Ġunimp":12012,"Ġcacher":12013,"Ġ800":12014,"buzz":12015,"Ġportions":12016,"Ġmodelview":12017,"Ġpresentation":12018,"Ġextracts":12019,"Ġinterning":12020,"Ġbreakage":12021,"Ġmonster":12022,"Ġmisuse":12023,"intercept":12024,"Ġwishes":12025,"Ġfinishing":12026,"Ġsentinel":12027,"Ġencrypting":12028,"sequence":12029,"Ġregexp":12030,"Ġreachable":12031,"Ġworthwhile":12032,"Ġguarded":12033,"Ġnegot":12034,"Ġnegate":12035,"Ġfamous":12036,"Ġglade":12037,"Ġvirtualization":12038,"Ġdeallocates":12039,"Ġstats":12040,"Ġmerges":12041,"Ġmixins":12042,"Ġrecognizing":12043,"cov":12044,"Ġbluss":12045,"Ġencapsulating":12046,"Ġgrants":12047,"Ġgranting":12048,"generics":12049,"Ġprofession":12050,"createinstance":12051,"Ġpressing":12052,"Ġfaulty":12053,"Ġpki":12054,"sourcefile":12055,"Ġfragile":12056,"Ġreallocating":12057,"Ġstrictweak":12058,"Ġgains":12059,"Ġanalogue":12060,"Ġarrives":12061,"directional":12062,"Ġflattened":12063,"Ġcollisions":12064,"Ġforgive":12065,"Ġmicrocontroller":12066,"quality":12067,"Ġabsent":12068,"Ġtheoretical":12069,"browse":12070,"Ġreordered":12071,"connector":12072,"Ġanalyzer":12073,"Ġinvestigating":12074,"Ġsigntool":12075,"Ġquadro":12076,"Ġprivileged":12077,"Ġaims":12078,"Ġstepping":12079,"Ġcircumstance":12080,"Ġsubtracting":12081,"vscode":12082,"Ġbothered":12083,"Ġcorruption":12084,"different":12085,"Ġheres":12086,"Ġcomprehension":12087,"Ġgateway":12088,"Ġquantity":12089,"variables":12090,"Ġnightmare":12091,"ascal":12092,"Ġreexported":12093,"collected":12094,"issuecomment":12095,"Ġjetty":12096,"tmpxft":12097,"Ġunsuccessful":12098,"Ġcomposer":12099,"Ġheuristic":12100,"Ġpertains":12101,"Ġmotivating":12102,"Ġdivergent":12103,"iconfig":12104,"Ġleveraging":12105,"Ġdpdk":12106,"Ġdelimiters":12107,"Ġcgmath":12108,"Ġgrabbing":12109,"warf":12110,"Ġdubious":12111,"definition":12112,"Ġsurvive":12113,"Ġpragmatic":12114,"destroy":12115,"principal":12116,"âĦ¢":12117,"enanig":12118,"Ġacademic":12119,"whitespace":12120,"!.":12121,")\\":12122,".?":12123,"214":12124,"364":12125,"386":12126,"401":12127,">)":12128,"btw":12129,"cn":12130,"gtk":12131,"hat":12132,"hrtb":12133,"jan":12134,"kine":12135,"lass":12136,"nn":12137,"nostic":12138,"nursery":12139,"pw":12140,"pay":12141,"paper":12142,"rod":12143,"save":12144,"simp":12145,"sakis":12146,"ti":12147,"tal":12148,"tecture":12149,"upper":12150,"vere":12151,"wing":12152,"wss":12153,"watch":12154,"xit":12155,"Âµs":12156,"ĠâĢĻ":12157,"Ġtbb":12158,"Ġaij":12159,"Ġcity":12160,"Ġcart":12161,"Ġslo":12162,"Ġspect":12163,"atom":12164,"orter":12165,"Ġtoler":12166,"Ġbias":12167,"Ġballs":12168,"Ġfut":12169,"leasant":12170,"sters":12171,"stract":12172,"Ġmre":12173,"Ġmmap":12174,"Ġmcu":12175,"Ġinvert":12176,"Ġdread":12177,"Ġpfx":12178,"Ġpascal":12179,"Ġhon":12180,"Ġheck":12181,"alth":12182,"always":12183,"Ġnl":12184,"Ġlens":12185,"Ġlto":12186,"Ġrejection":12187,"Ġuart":12188,"arre":12189,"seal":12190,"sections":12191,"oderef":12192,"mparam":12193,"Ġvc":12194,"Ġvista":12195,"pest":12196,"Ġ(~":12197,"assemb":12198,"chris":12199,"verified":12200,"unix":12201,"unicode":12202,"ille":12203,"illegal":12204,"Ġcompan":12205,"Ġdecl":12206,"Ġdeference":12207,"Ġpops":12208,"ckspace":12209,"Ġthereof":12210,"Ġtrous":12211,"emort":12212,"looking":12213,"Ġshenanig":12214,"Ġarity":12215,"Ġanytime":12216,"Ġunaligned":12217,"Ġkit":12218,"Ġkalbertodt":12219,"ortant":12220,"Ġjustify":12221,"Ġaddendum":12222,"dest":12223,"depre":12224,"Ġcope":12225,"Ġnovice":12226,"Ġvex":12227,"ertin":12228,"laves":12229,"iph":12230,"Ġupwards":12231,"angling":12232,"Ġsolvable":12233,"Ġreadline":12234,"Ġops":12235,"Ġmatsakis":12236,"Ġimposes":12237,"conv":12238,"concrete":12239,"Ġrepos":12240,"Ġreplication":12241,"Ġopted":12242,"Ġpartitions":12243,"Ġkeyed":12244,"Ġgenericity":12245,"agent":12246,"udge":12247,"upool":12248,"Ġeverybody":12249,"whatever":12250,"Ġidle":12251,"mutability":12252,"://)":12253,"ynchron":12254,"Ġbitfield":12255,"Ġsubcommands":12256,"cious":12257,"resource":12258,"Ġagnostic":12259,"++-":12260,"Ġnonsensical":12261,"Ġvalidator":12262,"Ġtransient":12263,"Ġtransitively":12264,"Ġwinds":12265,"Ġprintable":12266,"Ġregression":12267,"Ġstacked":12268,"Ġunsatisf":12269,"Ġindents":12270,"Ġxm":12271,"Ġelmah":12272,"park":12273,"parity":12274,"Ġeditions":12275,"Ġeditors":12276,"Ġgoto":12277,"icky":12278,"Ġinitialising":12279,"Ġrealm":12280,"Ġequivalence":12281,"Ġ47":12282,"solve":12283,"akkine":12284,"bool":12285,"ĠâĢĿ":12286,"Ġachieves":12287,"Ġachievable":12288,"Ġalternately":12289,"Ġpostpon":12290,"Ġsucces":12291,"commerce":12292,"Ġswagger":12293,"Ġappearing":12294,"gorith":12295,"Ġdeserialise":12296,"Ġdeserializes":12297,"Ġbytecode":12298,"Ġbrew":12299,"overr":12300,"Ġserialise":12301,"Ġserialisation":12302,"Ġextraction":12303,"codec":12304,"Ġbiguint":12305,"Ġoutliving":12306,"Ġsatur":12307,"Ġparallelization":12308,"Ġauthorize":12309,"Ġspelled":12310,"msg":12311,"stdin":12312,"Ġquicker":12313,"Ġmaxim":12314,"Ġmisinterpre":12315,"Ġpromote":12316,"interrupt":12317,"Ġrouting":12318,"streaming":12319,"Ġskim":12320,"Ġdoubled":12321,"Ġschool":12322,"building":12323,"Ġtalked":12324,"Ġpopulating":12325,"Ġcyl":12326,"Ġasserting":12327,"javascript":12328,"Ġabstracting":12329,"linker":12330,"Ġautocompletion":12331,"Ġoriginated":12332,"bindings":12333,"jsakkine":12334,"Ġmeasurable":12335,">>,":12336,">>>":12337,"csv":12338,"Ġforwarded":12339,"Ġhalt":12340,"Ġatomicity":12341,"objectcontainer":12342,"Ġpriorit":12343,"Ġflatbuffer":12344,"333":12345,"offset":12346,"Ġdiscovery":12347,"arency":12348,"Ġweakness":12349,"Ġengineering":12350,"Ġunexpectedly":12351,"Ġforesta":12352,"matches":12353,"Ġbarely":12354,"Ġtimeouts":12355,"Ġmiddlewares":12356,"Ġaborted":12357,"Ġatoms":12358,"Ġlossless":12359,"Ġfocuses":12360,"Ġdecrements":12361,"Ġwalking":12362,"Ġwalks":12363,"Ġ&[&":12364,"Ġidentifying":12365,"Ġswaps":12366,"Ġhierarchical":12367,"Ġsoapui":12368,"Ġretrieval":12369,"formatter":12370,"urlconnection":12371,"Ġmalware":12372,"Ġcrude":12373,"Ġfacilities":12374,"Ġmirr":12375,"Ġgathered":12376,"Ġexempl":12377,"Ġdaily":12378,"uzzy":12379,"Ġrebuilding":12380,"cpython":12381,"Ġnsight":12382,"Ġpiping":12383,"Ġpiped":12384,"Ġlibsodium":12385,"digital":12386,"Ġmimics":12387,"Ġcolons":12388,"Ġpredicted":12389,"Ġ%)":12390,"enabled":12391,"abihf":12392,"Ġglfw":12393,"Ġdegrees":12394,"Ġunpredict":12395,"Ġdiagnostic":12396,"Ġprohibited":12397,"Ġrearr":12398,"Ġampersands":12399,"Ġexploit":12400,"Ġmvp":12401,"Ġintrospection":12402,"Ġeagerly":12403,"dispatcher":12404,"Ġstubs":12405,"Ġincorpor":12406,"tutorials":12407,"approx":12408,"magic":12409,"circuit":12410,"Ġpermanent":12411,"Ġdelivered":12412,"Ġpleasant":12413,"Ġcompliant":12414,"contracts":12415,"inherit":12416,"Ġcoalesced":12417,"settings":12418,"Ġfifo":12419,"Ġcatalog":12420,"Ġposterity":12421,"besides":12422,"Ġtesla":12423,"Ġmqtt":12424,"Ġaggressive":12425,"hammer":12426,"Ġpalind":12427,"experimental":12428,"Ġconversely":12429,"Ġparticipate":12430,"Ġdollar":12431,"oftrust":12432,"Ġyoutube":12433,"migration":12434,"Ġguest":12435,"members":12436,"Ġuninitialised":12437,"Ġunimportant":12438,"iconfiguration":12439,"').":12440,")(":12441,"*.":12442,".âĢĿ":12443,"456":12444,"602":12445,";;":12446,"<(":12447,">.":12448,">::":12449,"?'":12450,"bk":12451,"css":12452,"dy":12453,"gather":12454,"gstreamer":12455,"hal":12456,"hare":12457,"iro":12458,"kn":12459,"kts":12460,"mime":12461,"mdb":12462,"pet":12463,"pment":12464,"pine":12465,"pong":12466,"png":12467,"position":12468,"qs":12469,"qrt":12470,"roughly":12471,"sk":12472,"scale":12473,"tur":12474,"tail":12475,"tpm":12476,"wikipedia":12477,"walk":12478,"xcompiler":12479,"{\"":12480,"Â´":12481,"ĠÏ":12482,"erc":12483,"Ġcbor":12484,"inctly":12485,"Ġsle":12486,"Ġwget":12487,"Ġwoken":12488,"reed":12489,"repr":12490,"onom":12491,"Ġtoying":12492,"enrg":12493,"Ġbat":12494,"Ġbread":12495,"stub":12496,"starter":12497,"Ġmdn":12498,"Ġdual":12499,"ano":12500,"Ġpic":12501,"Ġpid":12502,"itative":12503,"esian":12504,"Ġhar":12505,"Ġisize":12506,"along":12507,"algorith":12508,"Ġlv":12509,"Ġur":12510,"ico":12511,"eting":12512,"eterm":12513,"Ġeyes":12514,"Ġelix":12515,"seq":12516,"sexception":12517,"Ġbean":12518,"Ġstead":12519,"Ġgates":12520,"Ġgaps":12521,"Ġonwards":12522,"rustwasm":12523,"race":12524,"Ġvo":12525,"Ġvue":12526,"Ġexcel":12527,"Ġ(=":12528,"verb":12529,"unsigned":12530,"antly":12531,"Ġtypestate":12532,"Ġalpine":12533,"andler":12534,"lol":12535,"Ġshooting":12536,"Ġintentions":12537,"Ġjack":12538,"Ġjpeg":12539,"Ġencomp":12540,"Ġunauthorized":12541,"Ġunpublished":12542,"Ġadvert":12543,"quit":12544,"quire":12545,"cach":12546,"amend":12547,"Ġkcov":12548,"Ġrt":12549,"Ġtryfrom":12550,"Ġlean":12551,"Ġlear":12552,"Ġaccomp":12553,"ender":12554,"rows":12555,"Ġbuy":12556,"angled":12557,"Ġprecludes":12558,"testing":12559,"Ġoverlay":12560,"Ġoversight":12561,"abstract":12562,"conc":12563,"conn":12564,"avari":12565,"Ġscru":12566,"olen":12567,"Ġ28":12568,"Ġ250":12569,"ledb":12570,"exhaustive":12571,"Ġcertified":12572,"Ġelementary":12573,"clon":12574,"cloud":12575,"Ġdefinite":12576,"Ġaccessors":12577,"astic":12578,"Ġmultic":12579,"Ġ'*":12580,"Ġfixture":12581,"curate":12582,"Ġ???":12583,"Ġlinkage":12584,"Ġlinkdemand":12585,"Ġremind":12586,"âĢľ":12587,"Ġquicksort":12588,"Ġmultiplex":12589,"Ġsubarray":12590,"Ġsubtext":12591,"Ġrightly":12592,"Ġnumbered":12593,"Ġhelpfully":12594,"Ġagents":12595,"need":12596,"Ġexplicitness":12597,"Ġcleans":12598,"Ġ08":12599,"Ġheaps":12600,"Ġorigins":12601,"Ġindexmut":12602,"Ġrogue":12603,"Ġcustomized":12604,"Ġzoom":12605,"0100":12606,"()`?":12607,"Ġfigures":12608,"Ġawful":12609,"Ġseparates":12610,"Ġprogrammed":12611,"Ġpackaging":12612,"Ġidentically":12613,"Ġhardcoding":12614,"Ġclasspath":12615,"Ġrefine":12616,"Ġrefutable":12617,"Ġshortcoming":12618,"have":12619,"Ġfloor":12620,"Ġspare":12621,"arounds":12622,"travis":12623,"manually":12624,"previous":12625,"tained":12626,"Ġadvances":12627,"Ġfulfilled":12628,"105":12629,"Ġbranching":12630,"linn":12631,"latest":12632,"Ġauthoritative":12633,"1623":12634,"Ġintegrating":12635,"Ġforeground":12636,"opts":12637,"Ġaccomplishing":12638,"interactive":12639,"checks":12640,"Ġreversal":12641,"Ġrespected":12642,"Ġunrecoverable":12643,"Ġdrawer":12644,"Ġwinit":12645,"141":12646,"Ġmetavari":12647,"mapping":12648,"Ġmaintainers":12649,"Ġglup":12650,"jsse":12651,"Ġnaived":12652,"Ġhacking":12653,"Ġcommitting":12654,"Ġcomputational":12655,"Ġqualifiers":12656,"hey":12657,"heavy":12658,"Ġdiag":12659,"Ġdeadline":12660,"Ġstabilised":12661,"Ġsubsequence":12662,"Ġprogressive":12663,"Ġreviewing":12664,"Ġfetched":12665,"Ġmanifests":12666,"Ġdiscards":12667,"Ġinspected":12668,"transmut":12669,"signserver":12670,"Ġforestb":12671,"dictionary":12672,"Ġstricter":12673,"Ġstaying":12674,"Ġtrunk":12675,"prints":12676,"printed":12677,"Ġaxi":12678,"Ġretained":12679,"Ġarranged":12680,"internals":12681,"Ġdecreases":12682,"Ġtouches":12683,"Ġcontinued":12684,"Ġcarrying":12685,"Ġudpsocket":12686,"lua":12687,"Ġtrimming":12688,"numeric":12689,"Ġrobot":12690,"Ġcumulative":12691,"Ġiterables":12692,"Ġsubtly":12693,"repla":12694,"Ġcmakelists":12695,"flag":12696,"semant":12697,"Ġvideos":12698,"Ġsubtlety":12699,"Ġminimized":12700,"nvcc":12701,"Ġhighlights":12702,"Ġunpacking":12703,"break":12704,"Ġtruncating":12705,"multip":12706,"Ġdeferred":12707,"ĠâĶĶ":12708,"center":12709,"Ġinconvenience":12710,"Ġtransparently":12711,"Ġoccupied":12712,"Ġdeterministically":12713,"Ġunaryfunction":12714,"Ġsuccinctly":12715,"pkg":12716,"Ġunpleasant":12717,"Ġdiagnose":12718,"laravel":12719,"Ġenhance":12720,"Ġdisallowing":12721,"Ġneighbour":12722,"Ġthorough":12723,"benchm":12724,"aupp":12725,"present":12726,"Ġoctal":12727,"Ġdozens":12728,"Ġtzasc":12729,"Ġhygienic":12730,"receive":12731,"Ġwheels":12732,"Ġinterchangeably":12733,"Ġsprites":12734,"00000000000000000000000000000000":12735,"Ġprobability":12736,"Ġrgba":12737,"shadowing":12738,"circu":12739,"lookup":12740,"craft":12741,"Ġscores":12742,"0502":12743,"0507":12744,"odiumox":12745,"Ġcontradict":12746,"Ġunsuccessfully":12747,"aliasing":12748,"technically":12749,"Ġfacilitate":12750,"pseudo":12751,"internet":12752,"Ġdecouple":12753,"supplied":12754,"Ġeconomic":12755,"Ġgyp":12756,"Ġdepartment":12757,"Ġeucl":12758,"Ġrisks":12759,"Ġpurchase":12760,"Ġjetbrains":12761,"Ġsuspicion":12762,"jedrz":12763,"Ġbizarre":12764,"stamptoken":12765,"Ġrecipe":12766,"Ġvcpkg":12767,"Ġconsolid":12768,"updates":12769,"uggling":12770,"Ġcartesian":12771,"Ġshenanigans":12772,"deprecated":12773,"Ġpostponed":12774,"Ġcylinder":12775,"Ġunpredictable":12776,"turbofish":12777,"Ġelixir":12778,"Ġencompass":12779,"!/":12780,"\"):":12781,"(...)":12782,")\".":12783,"748":12784,"8000":12785,"aion":12786,"band":12787,"cud":12788,"cmd":12789,"craw":12790,"final":12791,"feder":12792,"hor":12793,"ih":12794,"ien":12795,"iable":12796,"je":12797,"lation":12798,"mil":12799,"mind":12800,"mongo":12801,"pg":12802,"peters":12803,"sg":12804,"sz":12805,"sink":12806,"sdl":12807,"turn":12808,"taken":12809,"ule":12810,"xr":12811,"xu":12812,"Ġerat":12813,"Ġtent":12814,"Ġiv":12815,"Ġimple":12816,"Ġai":12817,"really":12818,"remember":12819,"oupl":12820,"ouched":12821,"enough":12822,"ennz":12823,"ingo":12824,"stal":12825,"Ġoss":12826,"espan":12827,"alive":12828,"Ġlending":12829,"Ġrecreating":12830,"isan":12831,"isense":12832,"eterexception":12833,"Ġepc":12834,"lyph":12835,"Ġgas":12836,"Ġgig":12837,"Ġgross":12838,"Ġgmail":12839,"Ġgldouble":12840,"Ġcancell":12841,"Ġva":12842,"Ġvba":12843,"Ġassembled":12844,"changes":12845,"uniform":12846,"Ġneon":12847,"Ġdeps":12848,"Ġfizz":12849,"Ġfunctioning":12850,"Ġpose":12851,"Ġtripped":12852,"geo":12853,"Ġmytrait":12854,"andra":12855,"Ġtraces":12856,"Ġcairo":12857,"Ġengin":12858,"Ġunm":12859,"Ġuntyped":12860,"caught":12861,"Ġkicks":12862,"Ġrhel":12863,"ortized":12864,"Ġabc":12865,"Ġabusing":12866,"Ġjustified":12867,"Ġexpr":12868,"Ġcoexist":12869,"ertific":12870,"ignificant":12871,"Ġmovable":12872,"Ġprebuilt":12873,"Ġlibgit":12874,"comes":12875,"Ġarrayvec":12876,"Ġtrusty":12877,"Ġscary":12878,"Ġinsomnia":12879,"Ġinsignificant":12880,"upgrade":12881,"Ġcorrection":12882,"Ġcommut":12883,"who":12884,"Ġ??":12885,"epage":12886,"things":12887,"Ġinterfer":12888,"Ġdecipher":12889,"Ġsimulating":12890,"Ġbitvec":12891,"Ġenumerating":12892,"Ġrightfully":12893,"Ġformally":12894,"++),":12895,"beans":12896,"needed":12897,"Ġtransitivity":12898,"Ġrackspace":12899,"Ġstaticlib":12900,"Ġunsorted":12901,"Ġ`-":12902,"Ġ`_":12903,"Ġxcb":12904,"ibm":12905,"Ġlogcat":12906,"Ġshareable":12907,"Ġsendable":12908,"Ġzlib":12909,"architect":12910,"Ġ45":12911,"Ġ46":12912,"Ġmini":12913,"acant":12914,"ackex":12915,"Ġhardcode":12916,"Ġconcent":12917,"projection":12918,"Ġsitting":12919,"Ġswig":12920,"backend":12921,"Ġdesigns":12922,"setproperty":12923,"Ġrefusing":12924,"Ġgrad":12925,"Ġgrain":12926,"Ġoses":12927,"Ġspit":12928,"Ġspam":12929,"codegen":12930,"Ġmarkup":12931,"Ġzeroed":12932,"Ġpee":12933,"training":12934,"pretty":12935,"Ġmanagers":12936,"00000":12937,"nox":12938,"Ġcomplication":12939,"Ġtroublesome":12940,"115":12941,"Ġdispatcher":12942,"Ġforesee":12943,"handed":12944,"myth":12945,"Ġmaximal":12946,"Ġstripping":12947,"Ġpromised":12948,"interror":12949,"streamconnection":12950,"Ġsentences":12951,"Ġrespects":12952,"crichton":12953,"initialization":12954,"043":12955,"expecting":12956,"151623":12957,"ggie":12958,"Ġthankful":12959,"xyz":12960,"Ġcryptretri":12961,"Ġinitiated":12962,"packages":12963,"Ġioctl":12964,"Ġcorro":12965,"anything":12966,"Ġvertical":12967,"coord":12968,"Ġdriving":12969,"Ġdenom":12970,"etimestamp":12971,"constants":12972,"disk":12973,"Ġoddly":12974,"validation":12975,"Ġprompts":12976,"collection":12977,"design":12978,"Ġtitled":12979,"generation":12980,"compiles":12981,"Ġrounds":12982,"Ġ2003":12983,"Ġlinearly":12984,"Ġfetches":12985,"Ġutilizes":12986,"Ġvolumes":12987,"Ġaccumulated":12988,"0210":12989,"0599":12990,"0597":12991,"Ġrevised":12992,"Ġintellisense":12993,"Ġreallocations":12994,"trees":12995,"Ġcheaper":12996,"Ġproceeds":12997,"Ġaxes":12998,"internalstreamconnection":12999,"development":13000,"Ġcollaps":13001,"Ġtemplating":13002,"48151623":13003,"Ġstock":13004,"Ġorganized":13005,"decrypt":13006,"Ġmigrating":13007,"Ġseeding":13008,"Ġretrieves":13009,"Ġuncommented":13010,"cheap":13011,"Ġawaiting":13012,"Ġawaited":13013,"2007":13014,"environ":13015,"Ġbufread":13016,"Ġqueried":13017,"Ġinsights":13018,"Ġreborrows":13019,"Ġreassignment":13020,"^^^^^^^^^^^^^^^^":13021,"Ġaimed":13022,"evetimestamp":13023,"register":13024,"Ġfavorite":13025,"effectively":13026,"Ġdesugar":13027,"Ġsurrounded":13028,"layer":13029,"layout":13030,"Ġvulnerabilities":13031,"Ġunsoundness":13032,"limit":13033,"dynamically":13034,"Ġoptimiser":13035,"Ġtranspose":13036,"Ġtransparency":13037,"Ġquantities":13038,"Ġassociation":13039,"Ġreimplementing":13040,"Ġweights":13041,"Ġgraceful":13042,"Ġspinning":13043,"Ġvisitors":13044,"argumentexception":13045,"Ġbarriers":13046,"Ġlifted":13047,"Ġexciting":13048,"Ġghc":13049,"Ġpoisoned":13050,"Ġexclamation":13051,"Ġadopted":13052,"Ġpolygons":13053,"combinators":13054,"Ġflavors":13055,"Ġlifespan":13056,"reduction":13057,"Ġhindley":13058,"management":13059,"Ġcrafted":13060,"Ġanalyt":13061,"natural":13062,"Ġuntouched":13063,"Ġrerun":13064,"Ġinvitation":13065,"nrfx":13066,"schema":13067,"Ġlighthouse":13068,"googlechromelabs":13069,"Ġacknowledge":13070,"Ġrecipient":13071,"Ġspatial":13072,"Ġspirit":13073,"Ġlauncheractivity":13074,"Ġprerequisite":13075,"Ġdyon":13076,"Ġmystery":13077,"Ġmonitoring":13078,"Ġalphanumeric":13079,"Ġyanked":13080,"accessexception":13081,"Ġprofessional":13082,"Ġdreaded":13083,"mparameterexception":13084,"Ġcompanies":13085,"Ġtrousers":13086,"algorithmparameterexception":13087,"verbose":13088,"amendo":13089,"transmute":13090,"circuiting":13091,"odiumoxide":13092,"oupling":13093,"Ġfizzbuzz":13094,"Ġengines":13095,"ackexchange":13096,"Ġcryptretrievetimestamp":13097,"4815162342":13098,"!?":13099,"!(\"":13100,"#?":13101,"%,":13102,",...":13103,"/)":13104,"/~":13105,"150":13106,"300":13107,"<<":13108,"`)":13109,"`-":13110,"ael":13111,"agram":13112,"cm":13113,"cord":13114,"cxf":13115,"eabi":13116,"fuse":13117,"faster":13118,"fonts":13119,"jk":13120,"job":13121,"kad":13122,"mib":13123,"mob":13124,"night":13125,"nethost":13126,"pur":13127,"pure":13128,"pla":13129,"pred":13130,"sil":13131,"sig":13132,"sorry":13133,"svgomg":13134,"tim":13135,"taking":13136,"vn":13137,"xc":13138,"xus":13139,"áµ":13140,"Ġeth":13141,"Ġtier":13142,"Ġajax":13143,"Ġcd":13144,"Ġcu":13145,"Ġcbindgen":13146,"Ġciting":13147,"information":13148,"Ġsand":13149,"Ġsne":13150,"Ġslack":13151,"Ġsfml":13152,"Ġwmi":13153,"referenced":13154,"orious":13155,"ingpermission":13156,"Ġfeder":13157,"Ġdm":13158,"Ġdut":13159,"Ġdaddy":13160,"ann":13161,"anfs":13162,"Ġance":13163,"Ġhall":13164,"Ġhatch":13165,"Ġhkts":13166,"Ġntp":13167,"Ġlmdb":13168,"Ġreformat":13169,"rub":13170,"Ġek":13171,"Ġeig":13172,"Ġwhom":13173,"entype":13174,"utdown":13175,"Ġbeat":13176,"Ġbearing":13177,"Ġstash":13178,"Ġglyph":13179,"Ġforking":13180,"roles":13181,"roph":13182,"ereum":13183,"Ġconce":13184,"chr":13185,"unary":13186,"unting":13187,"Ġsoa":13188,"Ġnexus":13189,"Ġcomply":13190,"igible":13191,"Ġdegra":13192,"throw":13193,"those":13194,"Ġtypeclasses":13195,"Ġpolish":13196,"Ġworkgroup":13197,"Ġja":13198,"Ġenjo":13199,"Ġunblock":13200,"Ġoutgoing":13201,"Ġ\"...":13202,"Ġmex":13203,"Ġkd":13204,"Ġabuse":13205,"Ġlev":13206,"decl":13207,"Ġobey":13208,"Ġfilemode":13209,"Ġfileaccess":13210,"ideally":13211,"Ġcos":13212,"Ġveedrac":13213,"ertype":13214,"Ġresc":13215,"Ġmov":13216,"Ġprices":13217,"question":13218,"Ġlibgcc":13219,"istrib":13220,"ards":13221,"Ġpervas":13222,"Ġpermalink":13223,"Ġperplex":13224,"Ġimposed":13225,"Ġtrustworthy":13226,"argon":13227,"oney":13228,"Ġafford":13229,"::<":13230,"agically":13231,"cling":13232,"Ġbuildroot":13233,"Ġconstructions":13234,"derived":13235,"Ġdesk":13236,"Ġsignific":13237,"Ġhop":13238,"Ġ',":13239,"Ġdocumentations":13240,"Ġremedy":13241,"Ġbitonic":13242,"Ġextrinsic":13243,"activation":13244,"Ġapproved":13245,"Ġsubstr":13246,"Ġsubtree":13247,"Ġsubarrays":13248,"Ġformed":13249,"resp":13250,"respective":13251,"Ġuserb":13252,"Ġmovements":13253,"Ġcolour":13254,"Ġcoloring":13255,"Ġtransitions":13256,"Ġ09":13257,"Ġfileshare":13258,"Ġ`'":13259,"Ġ`:":13260,"Ġxen":13261,"Ġxades":13262,"Ġroset":13263,"Ġrookie":13264,"Ġhashable":13265,"Ġthreadsafe":13266,"stored":13267,"Ġzi":13268,"Ġzipping":13269,"Ġaccord":13270,"Ġrealization":13271,"Ġrealtime":13272,"Ġredistrib":13273,"Ġfullscreen":13274,"ĠĠĠĠĠĠĠĠĠĠĠĠĠĠĠ":13275,"Ġ443":13276,"entional":13277,"Ġavailability":13278,"Ġtemperature":13279,"shark":13280,"account":13281,"Ġconfigs":13282,"possible":13283,"Ġdebugged":13284,"proced":13285,"Ġappearance":13286,"mediate":13287,"Ġresponding":13288,"Ġlesson":13289,"nik":13290,"Ġbelief":13291,"overhead":13292,"Ġosap":13293,"gnue":13294,"obar":13295,"filestream":13296,"fileiopermission":13297,"Ġcoercing":13298,"Ġexceptional":13299,"120":13300,"127":13301,"Ġslowdown":13302,"keyword":13303,"prime":13304,"often":13305,"Ġparallelized":13306,"appo":13307,"Ġinstruments":13308,"wrapping":13309,"Ġphases":13310,"Ġdropbox":13311,"Ġauthenticating":13312,"Ġcomplications":13313,"Ġ754":13314,"Ġpositional":13315,"Ġstarters":13316,"Ġdeletes":13317,"Ġbenches":13318,"Ġ67":13319,"Ġ***":13320,"stdout":13321,"Ġsocketfactory":13322,"Ġcommunic":13323,"Ġsky":13324,"Ġbraced":13325,"spi":13326,"Ġartisan":13327,"Ġearth":13328,"Ġencrypts":13329,"Ġterminals":13330,"expensive":13331,"Ġemulation":13332,"Ġemerson":13333,"hook":13334,"Ġuglier":13335,"Ġmetric":13336,"Ġthankfully":13337,"instant":13338,"models":13339,"sqlserver":13340,"partition":13341,"Ġstruggled":13342,"httpruntime":13343,"Ġcentroid":13344,"Ġcatches":13345,"Ġcircles":13346,"Ġprefixes":13347,"doing":13348,"Ġbootloader":13349,"tokens":13350,"Ġblas":13351,"Ġqsee":13352,"Ġcomputationally":13353,"Ġelimination":13354,"gui":13355,"Ġorderings":13356,"ĠâĪ":13357,"Ġâī":13358,"Ġstabilize":13359,"statements":13360,"398":13361,"Ġutils":13362,"Ġpropagates":13363,"Ġparens":13364,"Ġvolatile":13365,"Ġpwas":13366,"transport":13367,"nullable":13368,"Ġenclose":13369,"Ġillegalargumentexception":13370,"Ġaltering":13371,"Ġprototy":13372,"541":13373,"Ġsnap":13374,"Ġtouched":13375,"Ġpartitioned":13376,"Ġdots":13377,"Ġreserves":13378,"truststorepassword":13379,"Ġinformative":13380,"Ġlovely":13381,"Ġjumping":13382,"Ġstumbling":13383,"Ġshortcuts":13384,"2008":13385,"Ġwildly":13386,"Ġdumping":13387,"Ġhomepage":13388,"Ġnarrowed":13389,"Ġdiverge":13390,"addresses":13391,"Ġheterogenous":13392,"Ġvarargs":13393,"eventually":13394,"Ġtriplets":13395,"Ġ100000":13396,"Ġoccupies":13397,"Ġneighborhood":13398,"Ġhurdle":13399,"benchmark":13400,"Ġalphabetical":13401,"Ġpreprocessing":13402,"brid":13403,"Ġmemoization":13404,"required":13405,"Ġseamlessly":13406,"Ġloosely":13407,"Ġexcuse":13408,"shadow":13409,"business":13410,"Ġoccuren":13411,"componentmodel":13412,"<_>":13413,"encryption":13414,"Ġdictates":13415,"bottom":13416,"Ġscaled":13417,"Ġdoctests":13418,"Ġrustaceans":13419,"Ġheuristics":13420,"Ġlifting":13421,"Ġangular":13422,"Ġreinstalling":13423,"community":13424,"protected":13425,"Ġanticipated":13426,"0282":13427,"Ġreclaimed":13428,"Ġmichel":13429,"truncated":13430,"Ġunintended":13431,"Ġridiculous":13432,"Ġbluenrg":13433,"Ġresembles":13434,"Ġimproperly":13435,"Ġcassandra":13436,"oworld":13437,"Ġelasticsearch":13438,"Ġmegabytes":13439,"Ġhorizontal":13440,"interceptor":13441,"Ġbreadth":13442,"crawl":13443,"ennznet":13444,"Ġcommutative":13445,"Ġdenominator":13446,"environment":13447,"nethostingpermission":13448,"anfsmyth":13449,"Ġredistributable":13450,"!):":13451,"%.":13452,"'\"":13453,"(|":13454,",\\\\\"":13455,"8080":13456,";\"":13457,"][":13458,"blank":13459,"dst":13460,"dro":13461,"done":13462,"fam":13463,"fnonce":13464,"give":13465,"gethrforexception":13466,"hw":13467,"het":13468,"having":13469,"jb":13470,"jh":13471,"jared":13472,"kim":13473,"lating":13474,"lamb":13475,"nll":13476,"oct":13477,"olo":13478,"px":13479,"rr":13480,"rid":13481,"rant":13482,"rint":13483,"rwlock":13484,"sam":13485,"uild":13486,"uart":13487,"warn":13488,"xcode":13489,"zing":13490,"âĨĴ":13491,"Ġaid":13492,"ervices":13493,"ina":13494,"Ġsip":13495,"Ġspo":13496,"Ġwis":13497,"Ġwizard":13498,"rev":13499,"removing":13500,"reko":13501,"atur":13502,"enote":13503,"Ġber":13504,"Ġbom":13505,"Ġfuss":13506,
[...]
