{"\u0120cuda": 14662, "\u0120gpu": 17489, "\u0120vector": 26814, "\u0120recently": 22868, ",": 285, "\u0120when": 27143, "\u0120i": 18068, "\u0120try": 26151, "\u0120to": 25832, "\u0120use": 26690, "\u0120programming": 22367, "\u0120want": 27012, "\u0120send": 24058, "\u0120a": 11500, "\u0120memory": 20046, ".": 326, "\u0120someone": 24577, "\u0120tells": 25554, "\u0120me": 19981, "\u0120that": 25650, "\u0120can": 13328, "\u0120thrust": 25740, "::": 1472, "device": 3837, "_": 1704, "vector": 10178, "\u0120and": 12046, "host": 5386, "\u0120also": 11956, "\u0120read": 22777, "\u0120the": 25653, "\u0120help": 17813, "\u0120document": 15604, "\u0120but": 13248, "\u0120still": 24925, "\u0120don": 15635, "'t": 137, "\u0120know": 19201, "\u0120how": 17989, "\u0120such": 25205, "\u0120into": 18769, "\u0120kernel": 19132, "\u0120function": 17179, "\u0120": 10773, "\u0120my": 20534, "\u0120codes": 13830, "\u0120are": 12235, "\u0120as": 12306, "\u0120following": 16948, ":": 1456, "\u0120in": 18271, "\u0120fact": 16577, "\u0120if": 18124, "\u0120you": 27455, "\u0120please": 21909, "\u0120tell": 25552, "\u0120something": 24582, "\u0120about": 11533, "\u0120this": 25696, "\u0120question": 22643, "\u0120there": 25669, "\u0120any": 12106, "\u0120better": 12823, "\u0120way": 27055, "\u0120complete": 14011, "\u0120same": 23785, "?": 1596, "\u0120thanks": 25649, "\u0120very": 26866, "\u0120much": 20448, "!": 0, "\u0120device": 15279, "\u0120vectors": 26821, "\u0120cannot": 13340, "\u0120be": 12716, "\u0120passed": 21585, "\u0120directly": 15390, "\u0120kernels": 19133, "\u0120need": 20661, "\u0120pass": 21583, "\u0120pointer": 21945, "\u0120underlying": 26370, "\u0120done": 15636, "\u0120like": 19500, "\u0120have": 17762, "\u0120an": 12012, "\u0120array": 12278, "\u0120of": 21059, "\u0120do": 15589, "\u0120what": 27136, "\u0120is": 18893, "\u0120described": 15164, "\u0120here": 17825, "\u0120rust": 23716, "\u0120include": 18301, "\u0120mod": 20293, "\u0120hierarchy": 17856, "\u0120src": 24766, "/": 374, "main": 6727, "rs": 8683, "animal": 2114, "s": 8755, "race": 8292, "\u0120arr": 12273, "or": 7533, "\u0120add": 11696, "\u0120modules": 20328, "\u0120properly": 22420, "\u0120so": 24535, "\u0120no": 20789, "\u0120errors": 16224, "\u0120rename": 23207, "\u0120.": 11003, "\u0120find": 16788, "\u0120more": 20378, "\u0120information": 18458, "\u0120on": 21109, "\u0120splitting": 24720, "\u0120across": 11645, "\u0120files": 16765, "\u0120ssl": 24776, "\u0120hermes": 17828, "jms": 6224, "\u0120am": 11979, "\u0120trying": 26154, "\u0120connect": 14202, "\u0120messaging": 20086, "\u0120provider": 22468, "\u0120over": 21333, "\u0120secure": 23986, "\u0120connection": 14205, "\u0120using": 26716, "\u0120trust": 26115, "\u0120store": 24947, "\u0120unable": 26296, "\u0120unsecure": 26570, "ly": 6704, "\u0120post": 22048, "\u0120messages": 20085, "\u0120without": 27254, "\u0120issue": 18911, "\u0120moment": 20336, "\u0120connecting": 14204, "\u0120protocol": 22451, "\u0120it": 18920, "\u0120not": 20853, "\u0120working": 27297, "\u0120received": 22862, "\u0120error": 16219, "\u0120retrieving": 23462, "\u0120jndi": 19020, "\u0120\u0120": 27608, "\u0120works": 27301, "\u0120via": 26875, "\u0120jmeter": 19014, "\u0120password": 21591, "\u0120all": 11909, "\u0120valid": 26752, "\u0120correct": 14446, "\u0120seems": 24016, "\u0120initiating": 18511, "\u0120through": 25729, "bat": 2529, "\u0120detecting": 15249, "\u0120parameters": 21511, "\u0120added": 11699, "\u0120start": 24851, "\u0120up": 26633, "\u0120therefore": 25673, "\u0120isn": 18899, "\u0120truststore": 26139, "\u0120updated": 26640, "\u0120script": 23929, "\u0120line": 19520, "\u0120starts": 24857, "\u0120program": 22355, "\u0120tried": 26069, "\u0120sorts": 24605, "\u0120combinations": 13901, "\u0120with": 27248, "\u0120javax": 18982, "net": 7150, "ssl": 9211, "truststore": 9761, "(": 139, "password": 7799, ")": 196, "\u0120none": 20814, "\u0120them": 25658, "\u0120worked": 27289, "'s": 136, "\u0120kind": 19174, "\u0120easy": 15835, "\u0120miss": 20233, ";": 1486, "\u0120before": 12748, "\u0120main": 19789, "\u0120class": 13690, "\u0120declaration": 14906, "\u0120essential": 16246, "y": 10551, "\u0120invoked": 18842, "browser": 2783, "\u0120two": 26220, "\u0120arguments": 12252, "\u0120its": 18945, "\u0120method": 20102, "\u0120wanted": 27013, "\u0120invoke": 18841, "\u0120java": 18975, "w": 10289, "exe": 4516, "\u0120proper": 22419, "\u0120jks": 19010, "\u0120for": 16969, "\u0120example": 16335, "\u0120should": 24258, "\u0120work": 27285, "\u0120floats": 16898, "\u0120however": 17990, "\u0120filled": 16771, "\u0120zeros": 27478, "\u0120idea": 18083, "\u0120why": 27179, "\u0120required": 23325, "\u0120specifically": 24664, "\u0120allocate": 11917, "\u0120host": 17968, "\u0120?": 11413, "\u0120cudamalloc": 14670, "\u0120cudamemcpy": 14673, "\u0120copy": 14425, "\u0120assignment": 12367, "\u0120just": 19088, "\u0120fine": 16794, "\u0120between": 12825, "\u0120containers": 14298, "\u0120(": 10899, "\u0120or": 21220, "\u0120module": 20326, "\u0120import": 18240, "\u0120fail": 16591, "\u0120simple": 24361, "\u0120code": 13813, "\u0120imports": 18247, "\u01202": 11137, "\u0120uses": 26715, "\u0120struct": 25017, "\u0120from": 17125, "\u0120at": 12423, "'m": 134, "\u0120functions": 17185, "\u0120bots": 13055, "trait": 9703, "\u0120gamecore": 17230, "\\": 1644, "board": 2703, "\u0120they": 25681, "\u0120both": 13050, "\u0120imported": 18244, "\u0120func": 17174, "\u0120maint": 19794, "rait": 8305, "\u0120resolved": 23381, "\u0120structure": 25022, "\u0120directory": 15392, "mod": 6955, "\u0120message": 20079, "\u0120where": 27145, "\u0120wrong": 27355, "\u0120diffirent": 15354, "\u0120by": 13257, "\u0120has": 17736, "\u0120good": 17455, "\u0120similar": 24352, "\u0120appropriate": 12190, "\u0120bits": 12895, "\u0120change": 13542, "\u0120guessing": 17623, "\u0120bit": 12876, "\u0120think": 25687, "\u0120reason": 22827, "\u0120haven": 17763, "\u0120really": 22814, "\u0120defined": 14999, "\u0120,": 10989, "\u0120instead": 18612, "\u0120generic": 17305, "\u0120happens": 17711, "\u0120implement": 18213, "\u0120call": 13307, "\u0120()": 10912, "\u0120provide": 22466, "\u0120enough": 16106, "\u0120disambiguate": 15415, "the": 9557, "\u0120type": 26229, "\u0120let": 19383, ").": 217, "\u0120api": 12126, "\u0120trustpilot": 26136, "\u0120invitation": 18833, "\u0120link": 19532, "\u0120our": 21292, "\u0120own": 21392, "\u0120system": 25428, "\u0120get": 17330, "\u0120token": 25848, "\u0120now": 20893, "\u0120problems": 22309, "\u0120\"": 10781, "403": 963, "\"": 34, "\u0120passing": 21587, "\u0120key": 19135, "\u0120well": 27126, "\u0120header": 17780, "\u0120request": 23313, "\u0120context": 14309, "\u0120documentation": 15605, "\u0120https": 18016, "://": 1464, "developers": 3835, "trustpilot": 9759, "com": 3244, "invitation": 5952, "-": 304, "api": 2163, "#": 68, "generate": 5003, "service": 8931, "review": 8571, "link": 6551, "\u0120creating": 14560, "\u0120new": 20720, "\u0120&": 10848, "str": 9316, "\u0120map": 19868, "\u0120str": 24952, "\u0120reproduces": 23303, "\u0120other": 21285, "\u0120values": 26768, "\u0120note": 20861, "\u0120create": 14556, "\u0120adding": 11702, "\u0120string": 24995, "\u0120literal": 19569, "\u0120owned": 21393, "\u0120case": 13400, "\u0120your": 27457, "\u0120literals": 19571, "'re": 135, "\u0120written": 27353, "\u0120binary": 12857, "\u0120together": 25840, "\u0120going": 17448, "\u0120make": 19806, "\u0120some": 24573, "\u0120s": 23757, "\u0120represent": 23288, "\u0120actual": 11674, "\u0120owning": 21399, "\u0120then": 25663, "\u0120slices": 24460, "\u0120one": 21113, "\u0120does": 15615, "\u0120sense": 24065, "\u0120convert": 14386, "\u0120another": 12087, "\u0120problem": 22307, "\u0120expects": 16439, "\u0120resulting": 23439, "\u0120size": 24411, "and": 2088, "\u0120alignment": 11902, "\u0120original": 21253, "\u0120fails": 16597, "\u0120runtime": 23708, "\u0120-": 10992, "\u0120demo": 15065, "\u0120several": 24162, "\u0120possible": 22045, "\u0120changes": 13548, "\u0120could": 14475, "\u0120declare": 14909, "\u0120would": 27318, "\u0120which": 27154, "\u0120will": 27204, "\u0120immediately": 18185, "\u0120free": 17093, "\u0120after": 11820, "\u0120output": 21317, "\u0120sdl": 23946, "2": 701, "\u0120package": 21411, "\u0120project": 22378, "\u0120folder": 16937, "\u0120far": 16639, "\u0120did": 15326, "\u0120cargo": 13380, "\u0120extern": 16537, "\u0120dependencies": 15111, "\u0120hand": 17682, "eled": 4172, "\u0120:": 11365, "\u0120lines": 19527, "\u0120compile": 13993, "\u0120(),": 10915, "\u0120doing": 15622, "\u0120even": 16287, "\u0120load": 19600, "\u0120crates": 14549, "\u0120than": 25645, "\u0120file": 16753, "\u0120edit": 15862, "\u01201": 11046, "\u0120solve": 24567, "\u0120stated": 24865, "\u0120above": 11535, "\u0120root": 23613, "\u0120order": 21227, "\u0120install": 18585, "\u0120wsl": 27365, "\u0120been": 12745, "\u0120windows": 27216, "\u0120sub": 25070, "sy": 9433, "tem": 9511, "\u0120linux": 19548, "wsl": 10481, "\u0120mentioned": 20055, "\u0120keeps": 19122, "\u0120erring": 16214, "\u0120answers": 12095, "\u0120mention": 20054, "\u0120around": 12272, "\u0120executed": 16378, "\u0120avail": 12550, "\u0120issues": 18917, "\u0120github": 17374, "\u0120pre": 22095, "\u0120ing": 18470, "\u0120didn": 15328, "\u0120means": 19988, "\u0120downloading": 15674, "from": 4902, "\u0120)": 10964, "\u0120running": 23705, "\u0120gives": 17380, "\u0120yet": 27445, "\u0120found": 17049, "\u0120lead": 19321, "\u0120being": 12777, "\u0120able": 11526, "\u0120env": 16149, "\u012010": 11047, "\u0120ver": 26834, "\u012020": 11138, "h": 5221, "\u0120certificate": 13499, "\u0120getting": 17343, "\u0120sh": 24172, "rustup": 8740, "\u0120self": 24043, "signed": 9021, "\u0120since": 24387, "\u0120advent": 11770, "\u0120authorities": 12512, "\u0120almost": 11936, "\u0120nobody": 20791, "\u0120operates": 21170, "\u0120website": 27097, "\u0120because": 12736, "\u0120vulnerable": 26980, "\u0120man": 19821, "in": 5734, "middle": 6895, "\u0120attacks": 12456, "\u0120exception": 16346, "\u0120seeing": 24008, "\u0120tampering": 25470, "\u0120non": 20808, "default": 3732, "\u0120antivirus": 12104, "\u0120programs": 22368, "\u0120scan": 23856, "\u0120traffic": 25942, "\u0120out": 21297, "\u0120machine": 19763, "\u0120viruses": 26910, "\u0120intercept": 18674, "\u0120those": 25702, "\u0120connections": 14207, "\u0120insert": 18553, "\u0120authority": 12513, "\u0120impersonate": 18205, "\u0120doesn": 15616, "\u0120sees": 24018, "\u0120attack": 12452, "\u0120data": 14794, "\u0120most": 20384, "\u0120actually": 11676, "\u0120substantially": 25144, "\u0120weaken": 27064, "\u0120security": 23992, "\u0120choosing": 13622, "\u0120worse": 27313, "\u0120versions": 26858, "\u0120tls": 25826, "\u0120ciphers": 13647, "\u0120cases": 13403, "\u0120entirely": 16125, "\u0120neglecting": 20681, "\u0120verification": 26843, "\u0120leaving": 19345, "\u0120exposed": 16503, "\u0120mitm": 20261, "\u0120anyone": 12110, "\u0120internet": 18720, "\u0120event": 16290, "\u0120soon": 24593, "\u0120encrypted": 16052, "\u0120sni": 24526, "3": 851, "\u0120thing": 25683, "\u0120fix": 16837, "\u0120computer": 14083, "\u0120either": 15899, "\u0120disable": 15398, "\u0120feature": 16683, "\u0120remove": 23203, "\u0120rogue": 23597, "\u0120ca": 13276, "\u0120completely": 14014, "\u0120uninstall": 26445, "\u0120def": 14974, "ender": 4251, "\u0120prevent": 22237, "\u0120intercepting": 18675, "\u0120allow": 11925, "\u0120lifetimes": 19481, "\u0120traits": 25950, "\u0120currently": 14709, "\u0120diving": 15563, "\u0120writing": 27352, "\u0120little": 19576, "\u0120math": 19936, "\u0120library": 19444, "\u0120quite": 22667, "\u0120model": 20296, "\u0120fields": 16739, "\u0120rings": 23554, "\u0120right": 23544, "\u0120ring": 23552, "\u0120field": 16737, "\u0120compiling": 14000, "\u0120lifetime": 19479, "\u0120section": 23979, "by": 2839, "example": 4502, "\u0120motivation": 20392, "\u0120behind": 12774, "\u0120obvious": 21011, "\u0120understand": 26377, "\u0120given": 17379, "\u0120examples": 16336, "\u0120totally": 25902, "\u0120lost": 19703, "\u0120btw": 13171, "\u0120minified": 20179, "\u0120version": 26855, "\u0120giving": 17381, "\u0120named": 20584, "\u0120impl": 18210, "\u0120various": 26790, "\u0120said": 23777, "\u0120may": 19965, "\u0120explain": 16465, "\u0120happening": 17710, "\u0120too": 25872, "\u0120specific": 24663, "\u0120king": 19180, "\u0120inheritance": 18478, "like": 6531, "\u0120pattern": 21613, "\u0120trait": 25948, "\u0120somehow": 24576, "\u0120interfaces": 18694, "\u0120provided": 22467, "\u0120languages": 19257, "\u0120only": 21121, "\u0120guaranty": 17613, "\u0120methods": 20108, "\u0120syntax": 25413, "\u0120mean": 19982, "\u0120superset": 25266, "\u0120implementing": 18220, "\u0120states": 24870, "\u0120implemented": 18217, "\u0120structs": 25019, "\u0120already": 11953, "\u0120yourself": 27459, "\u0120approach": 12184, "\u0120first": 16824, "\u0120define": 14998, "\u0120requires": 23329, "\u0120explanations": 16472, "\u0120strange": 24959, "\u0120wrote": 27357, "\u0120object": 20977, "\u0120reference": 23015, "\u0120peculiar": 21654, "\u0120require": 23324, "\u0120playing": 21902, "\u0120situation": 24408, "\u0120won": 27268, "\u0120play": 21892, "\u0120classic": 13692, "\u0120generics": 17310, "\u0120suffice": 25216, "\u0120look": 19670, "\u0120answer": 12091, "\u0120details": 15245, "\u0120fnmut": 16922, "\u0120learn": 19335, "\u0120wasm": 27030, "\u0120page": 21432, "\u0120input": 18541, "\u0120button": 13252, "\u0120player": 21896, "name": 7094, "button": 2836, "\u0120tutorial": 26195, "\u0120closures": 13766, "\u0120put": 22555, "\u0120behavior": 12770, "\u0120click": 13722, "\u0120got": 17469, "\u0120compiler": 13995, "\u0120follows": 16950, "toml": 9665, "\u0120caused": 13439, "\u0120causes": 13440, "\u0120variable": 26776, "\u0120used": 26695, "\u0120closure": 13765, "\u0120contains": 14301, "\u0120cause": 13438, "e": 4055, "\u0120contain": 14294, "\u0120references": 23017, "\u0120stored": 24948, "\u0120outside": 21325, "\u0120itself": 18946, "\u0120implicitly": 18231, "\u0120requirement": 23326, "\u0120variables": 26777, "\u0120second": 23969, "\u0120comparison": 13977, "\u0120replaced": 23258, "\u0120raw": 22748, "\u0120sockets": 24548, "\u0120c": 13275, "\u0120ending": 16066, "\u0120google": 17462, "\u0120available": 12552, "\u0120crate": 14546, "\u0120called": 13311, "\u0120pnet": 21934, "crates": 3499, "io": 5959, "pnet": 7967, "\u0120docs": 15597, "docs": 3949, "0": 409, "20": 702, "\u0120progress": 22369, "\u0120learning": 19339, "\u0120fun": 17173, "\u0120experience": 16444, "\u0120/": 11023, "++": 267, "\u0120complex": 14022, "\u0120paradigms": 21484, "\u0120background": 12610, "after": 1913, "),": 214, "\u0120n": 20567, "dimensional": 3877, "\u0120matrix": 19946, "\u0120practice": 22084, "\u0120development": 15273, "\u0120basic": 12686, "\u0120fill": 16770, "\u0120initializations": 18499, "\u0120forgive": 17002, "\u0120absent": 11541, "\u0120bound": 13064, "\u0120checking": 13589, "\u0120parameter": 21504, "\u0120testing": 25626, "\u0120ability": 11524, "empty": 4216, "\u0120fn": 16920, "\u0120thought": 25704, "\u0120option": 21213, "\u0120enum": 16139, "\u0120best": 12817, "\u0120accomplish": 11595, "\u0120space": 24623, "\u0120t": 25436, "\u0120automatically": 12539, "\u0120comes": 13912, "\u0120down": 15662, "\u0120set": 24144, "\u0120entries": 16133, "\u0120looked": 19673, "\u0120logic": 19648, "\u0120each": 15818, "\u0120ideally": 18085, "\u0120happen": 17707, "\u0120value": 26765, "if": 5577, "\u0120changed": 13544, "\u01200": 11035, "\u012023": 11176, "which": 10376, "\u0120returning": 23474, "\u0120).": 10966, "\u0120finally": 16787, "\u0120vec": 26810, "\u0120spots": 24726, "\u0120open": 21136, "\u0120suggestions": 25231, "\u0120:)": 11367, "\u0120final": 16780, "\u0120thoughts": 25705, "\u0120research": 23347, "\u0120impls": 18237, "\u0120see": 24002, "\u0120typed": 26237, "\u0120sized": 24412, "\u0120useful": 26697, "\u0120unsure": 26595, "\u0120few": 16718, "\u0120ways": 27058, "\u0120idiomatic": 18107, "\u0120branch": 13090, "\u0120assume": 12389, "\u0120show": 24265, "\u0120index": 18370, "\u0120definition": 15004, "\u0120feel": 16697, "\u0120safe": 23768, "\u0120assumption": 12393, "\u0120mutable": 20507, "\u0120initialized": 18502, "\u0120unlike": 26476, "\u0120pointers": 21946, "c": 2849, "\u0120point": 21942, "\u0120uninitialized": 26444, "\u0120return": 23472, "\u0120leads": 19323, "\u0120easiest": 15833, "\u0120user": 26704, "\u0120decide": 14892, "\u0120was": 27028, "\u0120close": 13756, "\u0120storing": 24950, "\u0120panic": 21471, "\u0120caller": 13313, "\u0120choose": 13620, "\u0120go": 17440, "\u0120further": 17197, "\u0120g": 17217, "ent": 4299, "r": 8285, "ifying": 5603, "\u0120next": 20733, "\u0120allows": 11933, "\u0120rather": 22740, "\u0120wrapping": 27335, "\u0120cleans": 13709, "\u0120nicely": 20747, "\u0120access": 11575, "\u0120initialization": 18498, "\u0120were": 27129, "1": 548, "\u0120optional": 21214, "\u0120capability": 13348, "\u0120themselves": 25662, "\u0120we": 27062, "\u0120always": 11978, "\u0120losing": 19696, "\u0120functionality": 17182, "\u0120suggestion": 25230, "\u0120common": 13937, "\u0120world": 27306, "\u0120whether": 27152, "\u0120implements": 18224, "\u0120default": 14976, "\u0120returns": 23475, "\u0120ad": 11680, "itional": 6105, "\u0120info": 18452, "\u0120comments": 13928, "\u0120traps": 26018, "'ve": 138, "\u0120fallen": 16616, "\u0120dimensions": 15376, "\u0120exist": 16410, "\u0120longer": 19664, "\u0120dimension": 15373, "\u0120created": 14558, "\u0120hasn": 17752, "\u0120statically": 24872, "\u0120static": 24871, "\u0120occur": 21027, "\u0120dynamic": 15810, "\u0120else": 15950, "\u0120these": 25677, "same": 8765, ")?": 230, "\u0120stack": 24809, "\u0120allocation": 11921, "\u0120arrays": 12284, "\u0120must": 20502, "\u0120deterministic": 15259, "\u0120time": 25779, "otherwise": 7628, "\u0120known": 19205, "\u0120heap": 17788, "\u0120leaves": 19344, "\u0120real": 22796, "\u0120options": 21217, "\u0120saying": 23839, "\u0120adds": 11717, "explanatory": 4556, "\u0120resized": 23375, "\u0120cost": 14472, "\u0120overhead": 21348, "\u0120'": 10863, "\u0120discriminate": 15469, "\u0120unsafe": 26559, "\u0120territory": 25610, "\u0120chunk": 13638, "\u0120big": 12841, "\u0120hold": 17910, "\u0120unsafely": 26561, "\u0120lot": 19704, "\u0120usually": 26720, "\u0120worth": 27315, "\u0120heavily": 17798, "\u0120optimized": 21207, "\u0120stores": 24949, "\u0120magic": 19777, "\u0120null": 20924, "\u0120macro": 19768, "\u0120part": 21552, "\u0120once": 21111, "\u0120cloned": 13753, "\u0120until": 26603, "\u0120extra": 16543, "\u0120interface": 18693, "\u0120smoother": 24507, "\u0120uncrustify": 26352, "\u0120+": 10983, "\u0120lambda": 19244, "\u0120having": 17765, "\u0120trouble": 26094, "\u0120format": 17014, "\u0120lambdas": 19245, "\u0120turns": 26191, "\u0120doe": 15614, "\u0120setting": 24152, "\u0120responsible": 23409, "\u0120positioning": 22033, "\u0120braces": 13083, "\u0120looking": 19674, "\u0120config": 14151, "\u0120settings": 24153, "23": 768, "\u0120assigning": 12366, "\u0120symbol": 25376, "\u0120additional": 11704, "\u0120newlines": 20728, "\u0120configured": 14160, "\u0120align": 11899, "\u0120sign": 24311, "\u01208": 11327, "30": 852, "33": 892, "\u0120changing": 13549, "\u0120maybe": 19966, "\u0120pair": 21447, "\u0120plausible": 21891, "\u0120might": 20143, "\u0120serious": 24121, "\u0120style": 25063, "\u0120reform": 23047, "\u0120suitable": 25234, "\u0120statement": 24868, "\u0120keep": 19118, "\u0120single": 24391, "they": 9578, "\u0120stay": 24886, "\u01209": 11346, "64": 1181, "\u0120ensures": 16112, "buf": 2802, "\u0120demonstrates": 15072, "\u0120rustc": 23725, "\u0120test": 25617, "i": 5452, "10": 549, "\u0120least": 19341, "\u0120according": 11601, "\u0120.)": 11005, "\u0120update": 26639, "\u0120latest": 19279, "\u0120nightly": 20763, "\u0120otherwise": 21287, "\u0120raii": 22699, "'d": 132, "\u0120delay": 15023, "\u0120dropping": 15733, "#,": 77, "\u0120gc": 17262, "keep": 6282, "alive": 1999, "\u0120prevents": 22241, "\u0120garbage": 17244, "\u0120collected": 13873, "\u0120essentially": 16247, "op": 7486, "\u0120perspective": 21744, "\u0120application": 12169, "\u0120guarantees": 17612, "\u0120flow": 16902, "\u0120mostly": 20385, "\u0120certain": 13491, "\u0120prefer": 22151, "\u0120convention": 14372, "\u0120recogn": 22881, "izable": 6150, "\u0120programmer": 22365, "\u0120drop": 15728, "\u0120explicitly": 16477, "\u0120moved": 20405, "\u0120signals": 24315, "\u0120developers": 15271, "\u0120destruction": 15224, "\u0120necessarily": 20654, "\u0120indicate": 18379, "\u0120comment": 13922, "\u0120had": 17663, "\u0120temporary": 25568, "\u0120needed": 20662, "\u0120intersecting": 18752, "\u0120frustum": 17147, "\u0120determine": 15255, "\u0120frusta": 17141, "\u0120intersect": 18751, "\u0120intersection": 18753, "\u0120100": 11048, "%": 92, "\u0120exact": 16324, "\u0120location": 19626, "\u0120touch": 25904, "\u0120position": 22030, "\u0120volume": 26947, "\u0120sort": 24600, "\u0120took": 25873, "\u0120separating": 24083, "\u0120axis": 12593, "\u0120theorem": 25664, "\u0120collision": 13883, "\u0120detection": 15250, "\u0120figure": 16748, "\u0120exactly": 16325, "\u0120anybody": 12107, "\u0120direction": 15385, "\u0120sat": 23813, "\u0120touching": 25907, "\u0120give": 17378, "\u0120percentage": 21688, "\u0120overlap": 21352, "\u0120calculate": 13295, "\u0120po": 21937, "hedron": 5290, "\u0120divide": 15558, "\u0120calculating": 13299, "\u0120overlapping": 21353, "\u0120build": 13200, "\u0120bsp": 13160, "\u0120cs": 14637, "g": 4951, "\u0120operation": 21172, "\u0120interes": 18686, "ection": 4093, "\u0120poly": 21979, "\u0120tetra": 25629, "hedrons": 5291, "\u0120volumes": 26948, "\u0120academic": 11558, "\u0120papers": 21480, "hedral": 5289, "ization": 6152, "\u0120representation": 23290, "\u0120merge": 20067, "\u0120boxed": 13075, "\u0120elements": 15920, "\u0120assuming": 12392, "\u0120exists": 16418, "\u0120write": 27347, "\u0120types": 26244, "\u0120advocate": 11789, "value": 10156, "\u0120base": 12680, "\u0120implementation": 18215, "\u0120mutating": 20514, "\u0120provides": 22471, "\u0120flexibility": 16884, "boxed": 2748, "\u0120notably": 20855, "\u0120efficient": 15887, "\u0120perform": 21694, "\u0120allocations": 11922, "\u0120oli": 21096, "obk": 7304, "\u0120ker": 19128, "\u0120points": 21950, "\u0120applies": 12173, "\u0120merges": 20069, "\u0120structures": 25025, "\u0120sets": 24148, "\u0120merged": 20068, "\u0120copyable": 14426, "\u0120addressed": 11712, "\u0120taking": 25460, "\u0120trick": 26061, "\u0120move": 20403, "\u0120box": 13074, "\u0120contents": 14306, "\u0120dereferencing": 15141, "\u0120combine": 13905, "\u0120re": 22766, "use": 10080, "\u0120boxes": 13076, "\u0120inside": 18560, "\u0120performance": 21695, "\u0120analysis": 12030, "\u0120cpu": 14522, "\u0120spent": 24695, "\u0120intended": 18653, "map": 6758, "\u0120command": 13917, "\u0120compute": 14081, "\u0120crc": 14554, "32": 881, "\u0120implementations": 18216, "\u0120achieve": 11626, "\u0120intention": 18660, "\u0120interactions": 18669, "\u0120appears": 12152, "\u0120operate": 21168, "\u0120correctly": 14451, "\u0120consumes": 14288, "\u0120equivalent": 16189, "\u0120though": 25703, "\u0120compiled": 13994, "\u0120optimisations": 21197, "\u0120mac": 19759, "\u0120osx": 21283, "\u0120ssd": 24772, "\u0120executing": 16380, "\u0120eliminate": 15935, "\u0120impact": 18195, "cold": 3229, "\u0120buffers": 13189, "warm": 10310, "\u0120produces": 22335, "\u01204": 11239, "\u0120seconds": 23972, "\u0120cold": 13859, "\u0120less": 19378, "\u0120warm": 27017, "\u0120run": 23698, "\u012030": 11210, "+": 261, "\u0120util": 26724, "isation": 6013, "\u0120higher": 17858, "eg": 4152, "\u012025": 11190, "\u012080": 11328, "+%": 264, "\u0120expect": 16433, "\u0120come": 13911, "\u0120computation": 14077, "\u0120copying": 14427, "\u0120difference": 15339, "\u0120scanning": 23861, "gb": 4978, "\u0120xml": 27404, "\u0120mapping": 19872, "mb": 6813, "\u0120seen": 24017, "\u01203": 11209, "9": 1381, "\u0120os": 21269, "\u0120specifics": 24667, "\u0120expose": 16502, "\u0120probably": 22303, "\u0120treat": 26034, "\u0120differently": 15346, "\u0120flag": 16849, "\u0120specified": 24668, "\u0120making": 19812, "\u0120syscall": 25424, "\u0120slower": 24480, "\u0120back": 12603, "\u0120speedup": 24686, "\u0120counter": 14480, "\u0120game": 17229, "\u0120algorithm": 11887, "\u0120hackerrank": 17656, "\u0120times": 25788, "\u0120larger": 19265, "\u01205": 11266, "\u0120people": 21681, "\u0120who": 27170, "\u0120completed": 14012, "\u0120believe": 12782, "\u0120release": 23140, "\u0120mode": 20295, "\u0120speed": 24683, "ups": 10031, "\u0120missing": 20237, "\u0120gist": 17372, "p": 7720, "\u0120conditionally": 14139, "\u0120reduced": 22984, "\u0120based": 12682, "\u0120reduce": 22983, "\u0120winner": 27223, "\u0120chosen": 13627, "\u0120inner": 18530, "\u0120loop": 19680, "\u0120combination": 13900, "\u0120builtin": 13214, "\u0120allocating": 11920, "\u0120every": 16297, "\u0120slice": 24457, "\u0120returned": 23473, "\u0120avoiding": 12566, "\u0120speeding": 24684, "\u0120per": 21685, "\u0120avoided": 12565, "\u0120supply": 25279, "\u0120alter": 11959, "\u0120borrows": 13045, "\u0120):": 10967, "\u0120modify": 20317, "\u0120improvement": 18265, "o": 7292, "\u0120explicitness": 16478, "\u0120triggers": 26075, "\u0120buffered": 13186, "\u0120argument": 12251, "\u0120easier": 15832, "\u0120specify": 24673, "\u0120annotating": 12071, "\u0120mandatory": 19835, "\u0120borrow": 13035, "\u0120putting": 22557, "\u0120altogether": 11976, "\u0120bigger": 12843, "\u0120win": 27208, "might": 6898, "\u0120sufficient": 25218, "\u0120forget": 16999, "\u0120apply": 12174, "\u0120@": 11424, "john": 6230, "\u0120advices": 11781, "'ll": 133, "free": 4892, "\u0120atbash": 12424, "\u0120cipher": 13646, "\u0120exercise": 16394, "\u0120exercism": 16397, "\u0120round": 23636, "ort": 7585, "ured": 10043, "\u0120manipulation": 19852, "\u0120grokked": 17576, "\u0120take": 25456, "\u0120fewer": 16719, "\u0120below": 12791, "\u0120important": 18242, "\u0120concept": 14106, "\u0120min": 20169, "up": 10015, "ulating": 9875, "\u0120involves": 18848, "\u0120outputting": 21322, "\u0120character": 13557, "\u0120characters": 13560, "\u0120included": 18302, "\u0120goes": 17446, "\u0120place": 21869, "\u0120students": 25045, "\u0120search": 23955, "\u0120advice": 11779, "\u0120users": 26713, "rust": 8726, "lang": 6364, "org": 7559, "\u0120made": 19772, "\u0120pub": 22507, "\u0120split": 24717, "\u0120executable": 16375, "\u0120large": 19263, "\u0120full": 17164, "\u0120definitions": 15005, "structs": 9344, "\u0120their": 25656, "\u0120prepend": 22184, "\u0120reduces": 22985, "\u0120readability": 22778, "\u0120decomp": 14920, "osing": 7604, "\u0120multiple": 20470, "\u0120expected": 16437, "\u0120privacy": 22286, "\u0120boundary": 13066, "\u0120level": 19392, "\u0120submodules": 25108, "\",": 47, "\u0120parent": 21527, "\u0120sibling": 24287, "\u0120permission": 21717, "\u0120typically": 26250, "\u0120invariants": 18811, "\u0120uphold": 26650, "\u0120public": 22508, "\u0120bounds": 13070, "\u0120preca": 22101, "ution": 10123, "\u0120programmers": 22366, "\u0120unusual": 26614, "\u0120thousands": 25707, "\u0120unless": 26475, "\u0120mirroring": 20208, "\u0120external": 16538, "\u0120consider": 14230, "\u0120auto": 12519, "generating": 5006, "\u0120clone": 13751, "\u0120&[": 10859, "u": 9814, "]": 1655, "\u0120[": 11425, "\u0120coding": 13833, "\u0120defining": 15001, "].": 1673, "\u0120wanna": 27011, "\u0120freely": 17099, "\u0120v": 26741, "\u0120=": 11396, "clone": 3170, "()": 152, "],": 1671, "\u0120obviously": 21012, "\u0120couldn": 14476, "\u0120anything": 12111, "\u0120thank": 25646, "\u0120represented": 23294, "pointer": 7976, "\u0120length": 19371, "\u0120integers": 18635, "\u0120records": 22919, "\u0120many": 19867, "\u0120literally": 19570, "some": 9128, "\u0120amount": 12004, "\".": 50, "\u0120calls": 13317, "\u0120unsized": 26574, "\u0120limited": 19513, "\u0120referenced": 23016, "\u0120indirectly": 18395, "\u0120mutate": 20511, "\u0120discovered": 15457, "\u0120calling": 13316, "\u0120clones": 13754, "\u0120shared": 24198, "\u0120instance": 18595, "length": 6454, "\u0120pointing": 21947, "\u0120generally": 17296, "\u0120result": 23436, "\u0120fresh": 17113, "\u0120except": 16345, "\u0120tracks": 25932, "\u0120capacity": 13350, "how": 5398, "\u0120allocated": 11918, "\u0120turning": 26190, "\u0120storage": 24944, "\u0120reused": 23480, "capacity": 2897, "\u0120discarded": 15433, "\u0120res": 23341, "uting": 10122, "\u0120again": 11827, "\u0120triple": 26084, "\u0120xyz": 27422, "\u0120prints": 22277, "\u0120print": 22267, "\u0120opposite": 21186, "\u0120bug": 13195, "\u0120missed": 20234, "\u0120surface": 25302, "\u0120associated": 12380, "\u0120inference": 18431, "\u0120directions": 15387, "\u0120sometimes": 24584, "\u0120wording": 27282, "\u0120fits": 16834, "\u0120expectations": 16436, "\u0120situations": 24409, "\u0120feels": 16700, "\u0120backwards": 12628, "\u0120course": 14498, "\u0120difficult": 15350, "\u0120mis": 20210, "match": 6787, "\u0120reported": 23279, "\u0120cod": 13812, "\u0120human": 18028, "\u0120interpretation": 18734, "actual": 1839, "expected": 4544, "\u0120general": 17284, "\u0120agree": 11845, "\u0120confusing": 14187, "\u0120sure": 25300, "\u0120talked": 25463, "\u0120harm": 17728, "\u0120report": 23278, "\u0120glu": 17422, "ortho": 7589, "d": 3626, "\u0120followed": 16946, "\u0120guide": 17629, "\u0120draw": 15704, "\u0120lorenz": 19693, "\u0120extend": 16523, "\u0120switch": 25366, "\u0120substitute": 25146, "\u0120gluperspective": 17426, "\u0120glfrustum": 17396, "\u0120unfortunately": 26411, "\u0120whatever": 27137, "\u0120useless": 26700, "\u0120while": 27156, "\u0120visualize": 26927, "\u0120window": 27213, "\u0120black": 12915, "\u0120name": 20582, "glu": 5102, "\u0120misleading": 20226, "\u0120ever": 16296, "\u0120near": 20641, "\u0120wow": 27321, "\u0120complicated": 14030, "gen": 4996, "ious": 5972, "\u0120anyway": 12113, "\u0120nothing": 20867, "\u0120projection": 22381, "\u0120depth": 15128, "\u0120range": 22719, "\u0120perfectly": 21693, "\u0120likely": 19503, "\u0120generated": 17299, "\u0120lie": 19469, "\u0120z": 27465, "\u0120confined": 14164, "\u0120iirc": 18142, "\u0120attractor": 12471, "\u0120positive": 22035, "\u0120translation": 25992, "\u0120suggest": 25227, "5": 1054, "\u0120things": 25685, "\u0120center": 13473, "\u0120viewing": 26886, "\u0120inspect": 18573, "\u0120tsa": 26158, "\u0120timestamp": 25789, "\u0120validate": 26753, "\u0120xades": 27379, "\u0120signature": 24316, "timestamp": 9622, "element": 4175, "encoded": 4239, "\u0120block": 12949, "lib": 6484, "4": 953, "j": 6164, "\u0120basically": 12687, "\u0120validation": 26757, "\u0120manually": 19861, "especially": 4424, "\u0120certificates": 13501, "\u0120validity": 26760, "\u0120etc": 16262, "\u0120tool": 25874, "\u0120openssl": 21157, "\u0120bouncy": 13062, "\u0120castle": 13413, "\u0120generate": 17298, "\u0120timestamps": 25796, "\u0120bc": 12709, "\u0120outlive": 21312, "\u0120serialize": 24112, "\u0120udp": 26271, "\u0120serialization": 24111, "\u0120lives": 19581, "\u0120end": 16058, "\u0120scope": 23898, "\u0120makes": 19811, "\u0120byte": 13262, "a": 1730, "\u0120success": 25194, "\u0120playground": 21900, "\u0120annotations": 12073, "\u0120explicit": 16475, "\u0120objects": 20981, "\u0120live": 19578, "\u0120stop": 24937, "strict": 9331, "\u0120assumptions": 12394, "\u0120ownership": 21397, "\u0120bytes": 13267, "\u0120borrowing": 13042, "\u0120candidate": 13338, "\u0120unfortunate": 26409, "\u0120luckily": 19741, "\u0120serde": 24102, "\u0120last": 19269, "\u0120long": 19662, "\u0120needs": 20668, "\u0120parametric": 21513, "\u0120mutability": 20506, "hi": 5327, "\u0120questions": 22648, "\u0120concerning": 14114, "\u0120port": 22012, "\u0120boost": 13020, "\u0120concepts": 14109, "here": 5314, "):": 223, "\u0120x": 27377, "\u0120y": 27424, "\u0120immutable": 18191, "\u0120saw": 23837, "\u0120internals": 18716, "\u0120talks": 25465, "\u0120established": 16251, "\u0120rfc": 23527, "\u0120plans": 21885, "\u0120parametr": 21512, "\u0120numeric": 20938, "\u0120guest": 17625, "\u0120solution": 24564, "\u0120cleaner": 13705, "\u0120expressed": 16511, "\u0120strong": 25010, "\u0120desire": 15203, "\u0120along": 11938, "\u0120aware": 12578, "\u0120core": 14432, "\u0120team": 25530, "\u0120definitely": 15003, "\u0120wants": 27015, "\u0120priority": 22284, "ating": 2384, "\u0120reformat": 23048, "for": 4828, "'": 105, "\u0120separated": 24080, "\u0120three": 25721, "\u0120parts": 21578, "\u0120within": 27252, "\u0120parenthesis": 21530, "\u0120sed": 24000, "\u0120formatter": 17017, "\u0120care": 13373, "\u0120formatted": 17016, "\u0120gnu": 17438, "\u0120indent": 18358, "\u0120snippet": 24532, "\u0120manual": 19860, "\u0120accessed": 11576, "\u0120clang": 13678, "format": 4846, "\u0120kinda": 19175, "\u0120talk": 25462, "native": 7107, "2013": 717, "\u0120showed": 24267, "\u0120promising": 22394, "\u0120results": 23440, "\u0120regex": 23073, "\u0120started": 24853, "\u0120regarding": 23067, "\u0120check": 13581, "\u0120matches": 19927, "\u0120text": 25633, "\u0120identical": 18088, "\u0120matching": 19928, "\u0120succeeded": 25189, "\u0120couple": 14493, "\u0120indeed": 18354, "\u0120reading": 22788, "\u0120hunch": 18031, "\u0120encountering": 16045, "\u0120alex": 11880, "\u0120larionov": 19267, "\u0120pointed": 21943, "\u0120saved": 23832, "\u0120luck": 19740, "\u0120graphics": 17532, "\u0120accept": 11566, "\u0120jpg": 19046, "\u0120images": 18169, "\u0120optimal": 21193, "\u0120arrangement": 12276, "\u0120paper": 21479, "...)": 352, "\u0120image": 18165, "\u0120optimally": 21194, "\u0120arranged": 12275, "/...": 394, "\u0120libraries": 19443, "\u0120suited": 25237, "\u0120jpeg": 19045, "width": 10392, "\u0120height": 17802, "\u0120resolution": 23379, "\u0120color": 13888, "\u0120profile": 22348, "\u0120operations": 21174, "github": 5077, "pistondevelopers": 7922, "image": 5683, "\u0120released": 23141, "cra": 3492, "btw": 2795, "bindgen": 2642, "\u0120bindings": 12865, "\u0120favourite": 16671, "\u0120opengl": 21145, "\u0120setup": 24157, "\u0120export": 16498, "\u0120console": 14245, "\u0120autocompletion": 12522, "\u0120gl": 17382, "\u0120constants": 14255, "\u0120ide": 18082, "visual": 10255, "\u0120studio": 25047, "\u0120sim": 24349, "generator": 5008, "\u0120copied": 14423, "\u0120global": 17409, "\u0120different": 15341, "functions": 4933, ".,": 343, "\u0120great": 17547, "\u0120printed": 22269, "\u0120lib": 19412, "as": 2286, "\u0120includes": 18303, "\u0120lazy": 19311, "static": 9266, "\u0120repeated": 23244, "gl": 5085, "graphics": 5159, "ka": 6266, "iser": 6018, "1989": 699, "game": 4962, "android": 2098, "\u0120framework": 17080, "\u0120mainly": 19792, "\u0120javascript": 18980, "\u0120python": 22583, "\u0120developer": 15270, "\u0120oop": 21130, "\u0120wrap": 27329, "\u0120head": 17776, "\u0120especially": 16242, "\u0120tcp": 25518, "\u0120server": 24128, "streams": 9328, "\u0120asynchronously": 12419, "\u0120mio": 20200, "\u0120telling": 25553, "\u0120clue": 13776, "message": 6867, "without": 10421, "\u0120whatnot": 27138, "to": 9648, "\u0120relay": 23138, "\u0120workaround": 27287, "\u0120later": 19277, "\u0120design": 15190, "\u0120inherently": 18476, "\u0120flawed": 16876, "\u0120shows": 24270, "\u0120holding": 17912, "\u0120indicated": 18380, "\u0120anymore": 12109, "\u0120fortunately": 17036, "lexical": 6476, "\u01202018": 11155, "\u0120hard": 17716, "\u0120simply": 24373, "\u0120fetch": 16714, "\u0120holds": 17913, "ac": 1774, "qu": 8251, "ired": 5997, "\u0120iteration": 18932, "\u0120network": 20712, "\u0120relative": 23133, "\u0120penalty": 21676, "\u0120(?)": 10948, "\u0120negligible": 20682, "due": 4028, "\u0120lack": 19233, "\u0120minimal": 20183, "able": 1756, "\u0120wasn": 27034, ".)": 336, "\u0120url": 26680, "\u0120bar": 12663, "\u0120hiding": 17853, "\u0120developing": 15272, "\u0120pwa": 22564, "\u0120submit": 25103, "\u0120twa": 26200, "\u0120cant": 13344, "\u0120manage": 19823, "\u0120hide": 17850, "\u0120digital": 15364, "\u0120asset": 12357, "\u0120links": 19541, "\u0120tested": 25621, "\u0120connected": 14203, "\u0120successfully": 25198, "\u0120editor": 15868, "\u0120intent": 18659, "\u0120filter": 16775, "\u0120association": 12383, "\u0120assetlinks": 12358, "json": 6247, "\u0120android": 12053, "\u0120manifest": 19842, "gradle": 5151, "\u0120app": 12138, "...": 346, "keytool": 6307, "list": 6570, "printcert": 8107, "jarfile": 6179, "release": 8465, "apk": 2165, "package": 7727, "assetlinks": 2328, "id": 5520, "\u0120simplify": 24370, "\u0120procedure": 22315, "\u0120letting": 19387, "\u0120signatures": 24317, "\u0120sha": 24173, "215": 749, "\u0120keytool": 19156, "err": 4391, "<": 1494, "t": 9458, ">": 1558, "\u0120pretty": 22231, "\u0120neat": 20645, "\u0120handle": 17687, "\u0120functional": 17180, "\u0120cool": 14410, "\u0120handling": 17693, "\u0120replacement": 23259, "\u0120custom": 14724, "\u0120standard": 24837, "\u0120generalized": 17293, "\u0120form": 17010, "\u0120propose": 22429, "\u0120requiring": 23330, "\u0120unit": 26459, "\u0120simulate": 24376, "\u0120combined": 13906, "\u0120branches": 13091, "\u0120depending": 15115, "\u0120cub": 14653, "\u0120iterator": 18937, "\u0120transform": 25971, "keys": 6303, "\u0120iterators": 18938, "\u0120nonetheless": 20818, "\u0120sorry": 24599, "\u0120disappoint": 15422, "\u0120afaik": 11800, "\u0120support": 25281, "\u0120theoretically": 25667, "\u0120deeper": 14972, "\u0120templat": 25558, "\u0120lift": 19483, "\u0120template": 25559, "\u0120headache": 17777, "\u0120doable": 15590, "\u0120transformation": 25972, "side": 9011, "\u0120ui": 26282, "\u0120body": 12989, "\u0120invisible": 18832, "\u0120shown": 24269, "\u0120(\"": 10901, "1234": 600, "567": 1117, "\").": 42, "\u0120fly": 16917, "\u0120amethyst": 11997, "15": 640, "\u0120u": 26258, "ib": 5470, "ut": 10107, "ton": 9667, "builder": 2815, "amethyst": 2060, "issues": 6052, "229": 767, "8": 1291, "\u0120collapse": 13864, "\u0120notation": 20859, "\u0120swift": 25359, "\u0120shorthand": 24252, "\u0120anywhere": 12115, "\u0120short": 24240, "\u0120circuit": 13652, "\u0120execution": 16381, "\u0120verbose": 26837, "\u0120familiar": 16626, "\u0120match": 19923, "\u0120clause": 13700, "\u0120failure": 16598, "\u0120path": 21604, "\u0120nest": 20702, "\u0120happy": 17714, "\u0120proposals": 22428, "\u0120flexible": 16885, "\u0120equivalents": 16191, "guards": 5198, "\u0120),": 10965, "\u00e2\u0122\u013b": 10727, "re": 8348, "\u0120exiting": 16421, "\u0120mark": 19887, "\u0120operator": 21175, "\u0120skip": 24429, "\u0120ethereum": 16265, "\u0120address": 11710, "ethkey": 4451, "\u0120doesnt": 15617, "\u0120seem": 24012, "\u0120\u0120\u0120": 27609, "\u0120eth": 16263, "key": 6298, "\u0120(/": 10936, "users": 10089, "sam": 8764, "ue": 9845, "ld": 6409, "are": 2227, "documents": 3955, "code": 3207, "th": 9550, "\u0120\u0120\u0120\u0120\u0120\u0120": 27612, "\u0120finished": 16803, "\u0120dev": 15263, "un": 9910, "optimized": 7521, "\u0120debuginfo": 14881, "\u0120target": 25483, "34": 904, "\u0120\u0120\u0120\u0120\u0120\u0120\u0120": 27613, "\u0120thread": 25710, "\u0120panicked": 21472, "should": 9003, "ioerror": 5961, "os": 7593, "\u0120{": 27507, "\u0120notfound": 20866, "no": 7201, "\u0120}": 27522, "\u0120state": 24864, "error": 4393, "\u0120backtrace": 12622, "\u0120internal": 18714, "backtrace": 2496, "\u0120})',": 27526, "libcore": 6488, "result": 8552, "999": 1451, "\u0120environment": 16156, "\u0120display": 15497, "\u0120ive": 18950, "\u0120attempt": 12460, "\u0120appreciate": 12180, "\u0120takes": 25459, "\u0120std": 24890, "path": 7807, "\u0120closing": 13764, "\u0120slash": 24443, "\u0120'/'": 10886, "\u0120sample": 23790, "\u0120max": 19956, "\u0120reduction": 22988, "\u0120float": 16896, "\u0120glm": 17406, "\u0120'<'": 10890, "\u0120maximum": 19962, "\u0120his": 17883, "\u0120yes": 27443, "\u0120quickstart": 22660, "\u0120review": 23500, "\u0120extrema": 16554, "\u0120varieties": 26788, "\u0120algorithms": 11890, "\u0120accepts": 11573, "\u0120functor": 17186, "\u0120trivial": 26091, "\u0120multifile": 20464, "\u0120consists": 14243, "\u0120pile": 21825, "this": 9587, "\u0120creates": 14559, "\u0120source": 24617, "\u0120throw": 25733, "back": 2490, "\u0120poc": 21938, "\u0120driving": 15725, "\u0120mad": 19771, "\u0120private": 22287, "module": 6966, "\u0120troubles": 26096, "\u0120accessible": 11579, "via": 10228, "\u0120manipulate": 19848, "encapsulate": 4231, "\u0120showing": 24268, "\u0120scenarios": 23872, "playground": 7952, "\u0120btreemap": 13168, "\u0120hashmap": 17746, "\u0120complaining": 14003, "\u0120confused": 14185, "\u0120stage": 24819, "\u0120marked": 19889, "\u0120clearly": 13717, "\u0120receiver": 22863, "\u0120upon": 26657, "\u0120compiles": 13997, "\u0120linked": 19536, "\u0120list": 19553, "->": 324, "\u0120cut": 14735, "\u0120off": 21062, "\u0120reverse": 23493, "\u0120compose": 14047, "\u0120=>": 11407, "<-": 1511, "\u0120node": 20793, "next": 7167, "=": 1529, "\u0120stuck": 25041, "\u0120suppose": 25285, "\u0120helps": 17821, "ult": 9891, "ra": 8286, "sa": 8756, "rus": 8721, "\u0120resource": 23388, "unofficial": 9977, "too": 9669, "many": 6757, "lists": 6578, "/.": 392, "\u0120although": 11974, "\u0120weird": 27119, "\u0120zero": 27474, "\u01207": 11312, "\u0120reads": 22794, "\u0120moving": 20410, "\u0120ok": 21084, "\u0120initial": 18490, "there": 9569, "\u0120necessary": 20655, "\u012073": 11316, "\u012094": 11351, "\u0120break": 13101, "\u0120cast": 13410, "\u0120dereference": 15137, "\u0120number": 20930, "\u012017": 11119, "\u0120today": 25834, "\u0120previous": 22243, "\u0120deleted": 15035, "inc": 5749, "ere": 4366, "\u0120ap": 12120, "ology": 7418, "\u0120shar": 24192, "pen": 7842, "\u0120skills": 24424, "\u0120meet": 20016, "\u0120stuff": 25050, "\u0120dun": 15776, "\u0120signs": 24331, "\u0120searched": 23956, "\u0120stackoverflow": 24815, "\u0120lands": 19251, "\u0120duplicating": 15786, "\u0120stdout": 24898, "buffered": 2805, "\u0120newline": 20727, "\u0120flush": 16910, "\u0120prefix": 22163, "\u0120gzipped": 17649, "\u0120golang": 17449, "\u0120current": 14708, "\u0120processing": 22325, "\u0120hundreds": 18033, "\u0120log": 19638, "\u0120json": 19050, "\u0120attempts": 12463, "\u0120surprisingly": 25310, "\u0120slow": 24478, "\u0120investigating": 18828, "\u0120noticed": 20871, "\u0120performs": 21700, "\u0120significantly": 24326, "\u0120faster": 16652, "\u0120backend": 12606, "\u0120upload": 26653, "\u0120rusoto": 23713, "\u0120noob": 20831, "\u0120stream": 24969, "\u0120acceptable": 11567, "\u0120client": 13727, "\u0120alias": 11892, "\u0120async": 12415, "\u0120tok": 25847, "\u0120fully": 17171, "\u0120fleshed": 16882, "\u0120ecosystem": 15855, "\u0120bottom": 13058, "\u0120accepted": 11570, "\u0120removing": 23206, "\u0120annotation": 12072, "\u0120concrete": 14127, "\u0120easily": 15834, "\u0120aforementioned": 11817, "\u0120reasons": 22832, "\u0120tests": 25628, "\u0120everything": 16301, "\u0120naming": 20591, "\u0120conflict": 14174, "\u0120attributes": 12475, "\u0120`": 11464, "`": 1718, "\u0120().": 10916, "\u0120looks": 19675, "\u0120vs": 26965, "\u0120plugin": 21926, "\u0120builds": 13209, "\u0120dont": 15637, "afaik": 1908, "\u0120runs": 23706, "\u0120/?": 11034, "\u0120configuration": 14157, "\u0120finds": 16793, "\u0120encounters": 16046, "\u0120managed": 19825, "\u0120confuse": 14184, "\u0120figured": 16749, "\u0120casting": 13412, "\u0120attempting": 12462, "\u0120queue": 22650, "\u0120producers": 22334, "\u0120queu": 22649, "etrait": 4465, "\u0120deque": 15130, "ued": 9846, "\u0120due": 15763, "\u0120producer": 22333, "data": 3648, "\u0120avoid": 12562, "\u0120clearer": 13714, "\u0120keyword": 19158, "\u0120indirections": 18394, "\u0120whole": 27172, "comp": 3281, "lict": 6508, "ed": 4099, "kmdreko": 6328, "think": 9584, "\u0120simpler": 24363, "\u0120hash": 17737, "\u0120table": 25439, "\u0120commands": 13919, "\u0120iterate": 18928, "\u0120printing": 22272, "\u0120usage": 26686, "executing": 4524, "\u0120execute": 16377, "such": 9378, "\u0120inserting": 18556, "\u0120database": 14795, "\u0120checker": 13587, "\u0120separate": 24079, "\u0120sounds": 24614, "\u0120unwieldy": 26619, "\u0120living": 19583, "\u0120fairly": 16605, "\u0120broad": 13130, "\u0120dozen": 15684, "\u0120solutions": 24565, "\u0120--": 10995, "\u0120told": 25859, "\u0120us": 26683, "maybe": 6811, "\u0120small": 24488, "\u0120subset": 25133, "\u0120features": 16685, "\u0120title": 25818, "\u0120suspect": 25324, "\u0120besides": 12816, "\u0120delete": 15034, "\u0120implicit": 18230, "\u0120...": 11008, "\u0120becomes": 12738, "\u0120book": 13010, "\u0120patterns": 21615, "\u0120maintain": 19795, "\u0120left": 19351, "\u0120achieved": 11627, "safe": 8759, "\u0120share": 24196, "\u0120threads": 25718, "\u0120whereas": 27146, "\u0120notice": 20868, "\u0120initializer": 18503, "\u0120violate": 26896, "\u0120rules": 23693, "\u0120control": 14354, "\u0120tzasc": 26255, "\u0120trustzone": 26147, "\u0120enabled": 16017, "soc": 9103, "\u0120dram": 15699, "\u0120protected": 22443, "\u0120tzc": 26256, "400": 955, "\u0120registers": 23081, "\u0120configure": 14159, "\u0120permissions": 21718, "\u0120regions": 23077, "\u0120controlled": 14356, "\u0120during": 15792, "\u0120boot": 13021, "\u0120lock": 19628, "time": 9617, "\u0120reconfigure": 22906, "\u0120privileged": 22293, "monitor": 6975, "\u0120register": 23078, "on": 7442, "\u0120bus": 13242, "'.": 120, "\u0120typical": 26249, "\u0120arm": 12265, "\u0120devices": 15281, "\u0120mapped": 19870, "\u0120freescale": 17101, "nxp": 7289, "\u0120imx": 18270, "\u0120product": 22337, "\u0120locking": 19632, "\u0120insure": 18630, "\u0120flex": 16883, "lity": 6585, "\u0120soc": 24539, "\u0120related": 23124, "\u0120partition": 21571, "\u0120peripherals": 21709, "\u0120funny": 17194, "\u0120unwrap": 26626, "\u0120repack": 23237, "age": 1916, "\u0120words": 27284, "\u0120leave": 19343, "\u0120aren": 12238, "\u0120compatible": 13981, "\u0120noting": 20880, "wrapping": 10468, "\u0120pulling": 22522, "\u0120apart": 12123, "\u0120conversion": 14384, "\u0120branching": 13092, "\u0120equally": 16181, "\u0120sans": 23809, "early": 4067, "\u0120img": 18178, "\u0120iced": 18076, "\u0120graphical": 17530, "\u0120picture": 21814, "\u0120doc": 15591, "iced": 5490, "widget": 10390, "struct": 9343, "html": 5416, "\u0120watch": 27043, "\u0120ge": 17273, "orust": 7591, "\u0120enable": 16016, "\u0120listed": 19555, "\u0120repository": 23286, "\u0120whose": 27178, "type": 9802, "\u0120illustrative": 18161, "\u0120purpose": 22541, "\u0120depends": 15116, "\u0120empty": 16003, "\u0120\u0120\u0120\u0120": 27610, "iter": 6080, "\u0120ugly": 26280, "\u0120erasure": 16197, "\u0120complains": 14004, "\u0120originally": 21254, "ig": 5604, "\u0120says": 23840, "\u0120safely": 23770, "\u0120\u0120\u0120\u0120\u0120": 27611, "\u0120explains": 16469, "\u0120mpsc": 20419, "channel": 3036, "\u0120hashmaps": 17747, "\u0120sync": 25391, "\u0120channel": 13550, "\u0120tag": 25448, "\u0120outer": 21302, "\u0120sharing": 24201, "\u0120thus": 25746, "\u0120ideal": 18084, "\u0120sender": 24060, "\u0120recommend": 22891, "\u0120language": 19255, "\u0120chapter": 13554, "\u0120concurrency": 14130, "\u0120introduced": 18785, "\u0120pseudocode": 22490, "\u0120gets": 17338, "\u0120parse": 21542, "\u0120integer": 18634, "\u0120interpret": 18733, "reference": 8426, "\u00e2\u0122\u0142": 10738, "\u0120\u00e2\u0122\u0142": 27570, "\u0120representing": 23295, "index": 5780, "\u0120e": 15816, "\u0120architecture": 12226, "\u0120removed": 23204, "\u0120third": 25691, "\u0120undefined": 26360, "\u0120behaviour": 12772, "\u0120whomever": 27176, "\u0120tries": 26070, "\u0120op": 21132, "\u0120asked": 12321, "experimental": 4549, "\u0120purposes": 22544, "\u0120org": 21239, "apache": 2154, "xml": 10527, "rpc": 8678, "rp": 8676, "ce": 2967, "xception": 10509, "\u0120communicating": 13947, "\u0120http": 18004, "\u0120sun": 25253, "security": 8850, "validator": 10152, "validatorexception": 10153, "\u0120pkix": 21864, "\u0120building": 13205, "\u0120failed": 16593, "provider": 8193, "certpath": 3002, "suncertpathbuilderexception": 9393, "\u0120certification": 13502, "\u0120requested": 23315, "\u0120dealing": 14858, "\u0120chain": 13527, "\u0120cursory": 14717, "\u0120tie": 25763, "\u0120particular": 21566, "\u0120peer": 21668, "\u0120web": 27075, "\u0120hosting": 17973, "\u0120configurations": 14158, "\u0120requesting": 23318, "\u0120ne": 20640, "vel": 10186, "\u0120men": 20049, "imum": 5733, "\u0120site": 24401, "\u0120asp": 12328, "config": 3344, "\u0120ibm": 18072, "\u0120mq": 20421, "\u0120cloud": 13769, "tls": 9642, "cloud": 3180, "ibm": 5477, "mq": 7018, "topic": 9676, "oc": 7311, "\u0120ss": 24770, "la": 6350, "uth": 10116, "\u0120receive": 22861, "\u0120ii": 18139, "\u0120downloaded": 15673, "\u0120factory": 16588, "\u0120sslcontext": 24778, "note": 7240, "\u0120docker": 15592, "\u0120ibmmq": 18073, "..": 344, "\u0120oracle": 21221, "\u0120..": 11006, "josh": 6236, "mc": 6819, "256": 806, "withrsa": 10422, "pec": 7829, "\u0120compatibility": 13980, "\u0120signed": 24318, "\u0120cert": 13490, "\u0120tokio": 25858, "\u0120multithreaded": 20485, "\u0120concurrent": 14131, "\u0120parallel": 21490, "\u0120eight": 15898, "\u0120cores": 14434, "\u0120coroutines": 14441, "\u0120top": 25885, "using": 10095, "\u0120beginning": 12756, "\u0120counterproductive": 14484, "\u0120ask": 12320, "\u0120myself": 20551, "\u0120multi": 20457, "threaded": 9594, "\u0120customize": 14732, "\u0120worker": 27290, "\u0120laravel": 19262, "\u0120entrust": 16136, "\u0120roles": 23600, "models": 6959, "role": 8637, "php": 7898, "\u0120assign": 12362, "\u0120role": 23599, "\u0120receiving": 22866, "method": 6880, "\u0120;)": 11379, "\u0120expression": 16515, "\u0120expressions": 16516, "check": 3054, "\u0120respectively": 23395, "\u0120drawing": 15711, "\u0120boards": 12983, "\u0120pure": 22534, "\u0120sandbox": 23797, "\u0120willing": 27205, "\u0120untrusted": 26608, "\u0120dom": 15626, "\u0120allowing": 11930, "\u0120acces": 11574, "\u0120functionalities": 17181, "\u0120chrome": 13631, "\u0120possibility": 22044, "\u0120save": 23831, "defined": 3740, "\u0120deny": 15095, "\u0120ni": 20743, "\u0120proposed": 22430, "\u0120old": 21090, "stackoverflow": 9234, "115": 582, "13": 611, "690": 1214, "76": 1265, "08": 531, "\u0120construction": 14272, "\u0120extract": 16544, "\u0120including": 18304, "\u0120goodies": 17457, "\u0120hat": 17756, "\u0120tip": 25810, "\u0120crow": 14604, "der": 3779, "267": 817, "37": 924, "80": 1292, "149": 638, "341": 906, "\u0120he": 17775, "\u0120exploit": 16483, "\u0120char": 13556, "\u0120buffering": 13188, "char": 3041, "',": 118, "\u0120push": 22550, "\u0120futures": 17210, "version": 10212, "\u0120future": 17209, "\u0120okay": 21085, "\u0120declared": 14910, "\u0120alternatively": 11971, "\u0120construct": 14268, "\u0120constructs": 14276, "\u0120ready": 22795, "\u0120asynchronous": 12418, "\u0120activity": 11668, "\u0120bitwise": 12905, "\u0120hexadecimal": 17843, "16": 655, "\u0120rgb": 23529, "\u0120decided": 14893, "\u0120operators": 21176, "\u0120hex": 17842, "\u0120resulted": 23438, "\u0120solved": 24568, "\u0120wondering": 27272, "\u0120mistake": 20241, "\u0120matt": 19948, "\u0120mihir": 20151, "\u0120cache": 13280, "\u0120invalid": 18799, "\u0120executions": 16384, "\u0120component": 14041, "\u0120minimum": 20191, "it": 6066, "\u0120captures": 13367, "case": 2918, "\u0120imagine": 18173, "\u0120concurrently": 14132, "\u0120creds": 14571, "\u0120appreciated": 12181, "\u0120ed": 15858, "ification": 5590, "\u0120expensive": 16442, "\u0120cached": 13281, "\u0120expire": 16459, "\u0120felt": 16705, "sync": 9442, "mutex": 7060, "\u0120solves": 24570, "\u0120macros": 19769, "\u0120emitting": 15981, "sized": 9058, "\u0120restructure": 23432, "\u0120generates": 17300, "\u0120variants": 26782, "\u0120rayon": 22751, "\u0120blocking": 12956, "\u0120executes": 16379, "\u0120ssh": 24774, "\u0120lower": 19713, "\u0120waits": 26989, "\u0120performing": 21699, "\u0120bad": 12629, "\u0120hosts": 17976, "\u0120simultaneously": 24384, "\u0120sleep": 24452, "\u0120affects": 11808, "\u0120streams": 24975, "\u0120speeds": 24685, "\u012090": 11347, "\u012067": 11307, "\u0120offline": 21073, "\u0120debug": 14875, "\u0120wastes": 27040, "\u0120profiling": 22352, "\u0120analyzing": 12038, "\u0120dump": 15772, "\u0120wireshark": 27237, "\u012022": 11170, "\u0120convers": 14380, "ations": 2387, "\u0120tab": 25438, "\u0120limit": 19510, "\u0120relations": 23130, "\u0120acl": 11636, "\u0120('": 10910, "venue": 10191, "owner": 7709, "')": 111, "en": 4223, "\u0120owner": 21395, "\u0120tables": 25440, "\u0120ent": 16114, "\u0120migration": 20148, "\u0120eloquent": 15949, "\u0120trusting": 26127, "\u0120gather": 17252, "except": 4505, "\u0120perhaps": 21701, "\u0120companies": 13962, "\u0120apk": 12130, "\u0120installation": 18587, "\u0120jarsigner": 18971, "\u0120sdk": 23944, "\u0120certs": 13510, "\u0120keys": 19148, "\u0120guarantee": 17609, "\u0120degree": 15020, "\u0120rev": 23483, "ate": 2361, "\u0120crl": 14585, "issuer": 6050, "since": 9043, "v": 10140, "ouch": 7643, "es": 4412, "\u0120identity": 18099, "\u0120holder": 17911, "ri": 8587, "od": 7329, "\u0120platform": 21887, "\u0120plan": 21878, "\u0120apps": 12200, "\u0120issued": 18912, "\u0120trusted": 26121, "certificate": 2995, "author": 2440, "ities": 6102, "issuers": 6051, "even": 4486, "?).": 1611, "\u0120ensure": 16110, "\u0120normal": 20840, "\u0120factor": 16579, "\u0120person": 21740, "\u0120published": 22514, "\u0120publishes": 22517, "\u0120updates": 26641, "\u0120hacks": 17661, "\u0120account": 11603, "\u0120publish": 22513, "\u0120malicious": 19817, "\u0120entire": 16124, "\u0120say": 23838, "factor": 4607, "\u0120authentication": 12503, "\u0120publishing": 22518, "\u0120tuple": 26181, "\u0120indexing": 18375, "\u0120hack": 17653, "play": 7950, "/?": 401, "stable": 9231, "&": 102, "mode": 6957, "debug": 3700, "edition": 4116, "2018": 722, "gist": 5075, "7": 1219, "bc": 2543, "f": 4595, "56": 1113, "643": 1183, "cf": 3013, "469": 1032, "79": 1285, "bd": 2549, "db": 3669, "97": 1432, "\u0120compilation": 13990, "\u0120produce": 22331, "\u0120distinct": 15524, "\u0120tokens": 25853, "\u0120evaluate": 16280, "\u0120declarative": 14908, "\u0120instructions": 18620, "\u0120under": 26361, "\u0120exe": 16372, "\u0120//": 11028, "mt": 7037, "\u0120vcruntime": 26807, "\u0120rebuild": 22849, "\u0120ideas": 18086, "347": 910, "49": 1045, "\u0120pertains": 21749, "rfcs": 8580, "blob": 2683, "master": 6785, "text": 9547, "1721": 672, "crt": 3546, "md": 6823, "\u0120q": 22586, "rc": 8337, "ode": 7335, "imagebuffer": 5684, "\u0120png": 21935, "\u0120th": 25643, "um": 9895, "bor": 2727, "\u0120buffer": 13185, "\u0120?.": 11418, "\u0120encode": 16034, "\u0120piston": 21848, "\u0120requests": 23321, "outer": 7674, "\u0120occurs": 21038, "\u0120coming": 13914, "\u0120complain": 14001, "\u0120side": 24290, "array": 2269, "hashmap": 5267, "\u0120collection": 13875, "\u0120heterogeneous": 17838, "\u0120obtain": 21005, "demand": 3755, "\u0120router": 23644, "\u0120bypass": 13258, "\u0120requirements": 23327, "\u0120abused": 11555, "only": 7464, "\u0120advantage": 11767, "\u0120rest": 23412, "\u0120boxing": 13077, "wincon": 10403, "types": 9808, "\u0120coord": 14416, "\u0120winapi": 27209, "https": 5430, "winapi": 10402, "coord": 3440, "\u0120refer": 23010, "\u0120article": 12298, "0432": 497, "\u0120toml": 25867, "\u0120registry": 23085, "\u0120unpacked": 26520, "\u0120sources": 24620, "\u0120loaded": 19601, "\u0120somewhere": 24588, "\u0120editors": 15871, "\u0120tree": 26040, "home": 5374, "\u0120convenient": 14369, "vend": 10188, "oring": 7572, "\u0120repositories": 23285, "\u0120f": 16561, "uch": 9828, "ia": 5453, "\u0120mozilla": 20411, "party": 7795, "\u0120supports": 25284, "source": 9148, "cargo": 2910, "\u0120dir": 15381, "vendor": 10189, "\u0120querying": 22640, "\u0120online": 21120, "\u0120express": 16510, "\u0120vend": 26830, "\u0120local": 19608, "\u0120filesystem": 16768, "\u0120subsets": 25134, "\u0120replacing": 23262, "\u0120checked": 13586, "\u0120packages": 21414, "\u0120acts": 11672, "alexcrichton": 1977, "\u0120populate": 22003, "\u0120deploy": 15117, "\u0120xbap": 27385, "\u0120wpf": 27324, "\u0120flavors": 16873, "\u0120consistent": 14240, "one": 7451, "\u0120desktop": 15207, "\u0120supposed": 25286, "\u0120localhost": 19610, "\u0120iis": 18143, "windows": 10408, "\u0120xp": 27412, "\u0120pro": 22297, "also": 2035, "\u0120scenario": 23871, "microsoft": 6893, "url": 10052, "\u0120pfx": 21765, "\u0120installed": 18589, "\u0120ie": 18120, "\u0120browser": 13146, "\u0120sell": 24044, "\u0120customer": 14726, "\u0120centralized": 13480, "\u0120deployment": 15120, "assuming": 2342, "\u0120sp": 24621, "\u0120him": 17869, "\u0120xbaps": 27386, "\u0120partial": 21553, "\u0120granted": 17521, "\u0120fulltrust": 17169, "\u0120grant": 17520, "\u0120step": 24913, "\u0120clickonce": 13725, "\u0120engine": 16086, "\u0120binaries": 12856, "\u0120installer": 18590, "\u0120virtual": 26903, "\u0120manifests": 19846, "\u0120contained": 14295, "\u0120notes": 20865, "\u0120dependency": 15112, "\u0120workstation": 27305, "more": 6984, "\u0120inexplicably": 18420, "\u0120invalidated": 18802, "\u0120clear": 13711, "\u0120rund": 23699, "ll": 6594, "\u0120%": 10846, "windir": 10406, "%\\": 101, "system": 9452, "df": 3841, "shim": 8993, "dll": 3934, "\u0120clean": 13703, "online": 7463, "app": 2168, "cache": 2857, "internet": 5916, "\u0120explorer": 16491, "\u0120recreated": 22927, "\u0120dotnet": 15648, "\u0120reinstalled": 23102, "\u0120poor": 21995, "\u0120deployments": 15121, "\u0120steps": 24916, "\u0120front": 17132, "\u0120forms": 17024, "\u0120auth": 12494, "not": 7236, "\u0120intranet": 18776, "\u0120proxy": 22481, "\u0120isa": 18894, "\u0120microsoft": 20131, "\u0120authenticate": 12499, "\u0120-->": 11000, "--": 313, "\u0120select": 24034, "local": 6625, "custom": 3609, "...'": 351, "\u0120scroll": 23934, "\u0120logon": 19655, "automatic": 2448, "\u0120selected": 24035, "\u0120applications": 12171, "\u0120glob": 17408, "\u0120extensions": 16531, "\u0120ex": 16319, ":-": 1461, "\u0120extension": 16530, "()?": 170, "\u0120detach": 15239, "process": 8133, "\u0120detached": 15240, "\u0120session": 24141, "\u0120posix": 22038, "exec": 4517, "\u0120id": 18081, "unix": 9962, "command": 3255, "ext": 4575, "\u0120exposing": 16505, "\u0120syscalls": 25425, "\u0120libc": 19416, "\u0120exposes": 16504, "\u0120warp": 27023, "warp": 10313, "\u0120passes": 21586, "\u0120follow": 16945, "filters": 4731, "log": 6637, "internal": 5910, "ged": 4991, "\u0120{}": 27512, "\u0120sequence": 24095, "\u0120param": 21500, "\":": 56, "\u0120understanding": 26381, "\u0120misconception": 20216, "loganfsmyth": 6638, "\u0120modified": 20313, "\u0120afterwards": 11825, "\u0120replace": 23257, "\u0120evaluates": 16282, "\u0120mutates": 20513, "\u0120needing": 20663, "\u0120reuse": 23479, "`?": 1728, "\u0120canonical": 13341, "\u0120completeness": 14015, "but": 2835, "\u0120unwrapped": 26627, "??": 1621, "\u0120alleviate": 11913, "\u0120shadow": 24178, "\u0120qt": 22596, "\u0120gave": 17257, "\u0120shot": 24256, "\u0120bunch": 13226, "\u0120folders": 16938, "\u0120{,": 27509, "\u0120py": 22569, "qt": 8250, "py": 8232, "official": 7358, "inline": 5851, "normal": 7227, "\u0120containing": 14299, "\u0120namely": 20585, "\u0120deno": 15084, "\u0120fast": 16649, "\u0120heard": 17793, "\u0120built": 13213, "\u0120js": 19049, "\u0120layer": 19300, "\u0120abstraction": 11549, "\u0120jobs": 19028, "\u0120delegated": 15030, "\u0120technologies": 25542, "written": 10476, "++),": 271, "\u0120optimize": 21206, "\u0120squeeze": 24761, "\u0120job": 19027, "\u0120delivers": 15053, "\u0120fit": 16833, "\u0120prototyping": 22456, "\u0120tools": 25882, "\u0120technical": 25537, "\u0120kinds": 19178, "\u0120technology": 25543, "\u0120components": 14043, "\u0120hypothetically": 18066, "better": 2611, "\u0120lifecycle": 19475, "\u0120irrelevant": 18890, "\u012099": 11360, "\u0120libs": 19448, "\u0120integration": 18643, "\u0120develop": 15267, "\u0120matters": 19950, "\u0120typescript": 26246, "\u0120aside": 12319, "\u0120compare": 13971, "js": 6242, "node": 7205, "\u0120ran": 22710, "doc": 3946, "serialize": 8918, "\u0120represents": 23296, "dom": 3961, "try": 9765, "yet": 10560, "\u0120hope": 17946, "\u0120regular": 23090, "\u0120apparently": 12140, "\u0120convenience": 14367, "\u0120corresponding": 14458, "chrismorgan": 3081, "\u0120finding": 16791, "\u0120caps": 13362, "\u0120view": 26883, "\u0120rendering": 23218, "\u0120scene": 23873, "\u0120l": 19223, "wjgl": 10424, "\u0120zfar": 27479, "\u0120clips": 13737, "\u0120distance": 15519, "\u01201000": 11049, "\u0120ignored": 18135, "\u0120500": 11268, "\u0120units": 26461, "\u0120shaders": 24177, "\u0120interesting": 18689, "\u0120clipping": 13735, "\u0120aligned": 11900, "\u0120camera": 13325, "\u0120diagonal": 15309, "\u0120distances": 15520, "\u0120intel": 18646, "\u0120nvidia": 20953, "\u0120card": 13370, "modern": 6961, "\u0120managing": 19830, "\u0120mat": 19921, "ric": 8590, "ies": 5569, "\u0120cap": 13346, "\u0120frustrum": 17146, "\u0120vertex": 26862, "\u0120shader": 24176, "\u0120commenting": 13927, "clip": 3163, "distance": 3912, "[": 1630, "\u0120terrain": 25607, "\u0120clipped": 13734, "\u0120axes": 12590, "\u0120water": 27049, "\u0120models": 20301, "\u0120particles": 21565, "\u0120everyone": 16300, "\u0120realized": 22804, "\u0120fault": 16658, "\u0120sky": 24433, "box": 2746, "\u0120renders": 23219, "\u0120recursive": 22944, "\u0120property": 22422, "\u0120counted": 14479, "owners": 7710, "\u0120cloning": 13755, "\u0120affect": 11803, "\u0120encountered": 16044, "\u0120direct": 15383, "don": 3969, "\u0120entry": 16137, "\u0120rid": 23539, "\u0120rustfmt": 23730, "\u0120assumes": 12391, "\u0120indentation": 18359, "\u0120carriage": 13385, "\u0120horizontal": 17958, "\u0120whitespace": 27167, "\u0120optionally": 21216, "\u0120spaces": 24625, "\u0120tabs": 25441, "\u0120enabling": 16019, "line": 6542, "\u0120thereby": 25671, "\u0120surrounded": 25314, "\u0120blank": 12927, "\u0120trimmed": 26080, "\u0120substitution": 25150, "fight": 4712, "\u0120exercises": 16396, "\u0120ended": 16061, "\u0120messy": 20090, "\u0120relatively": 23134, "\u0120slicing": 24461, "\u0120concatenation": 14096, "\u0120complexity": 14025, "proper": 8178, "\u0120simplified": 24368, "\u0120brackets": 13086, "\u0120occurence": 21030, "\u0120substring": 25156, "\u0120intermediate": 18708, "\u0120utf": 26723, "\u0120imply": 18238, "\u0120presence": 22198, "\u0120combining": 13908, "\u0120unicode": 26425, "\u0120ascii": 12313, "\u0120indices": 18389, "\u0120importing": 18245, "\u0120cfg": 13519, "tools": 9673, "\u0120confusion": 14189, "\u0120kept": 19127, "\u0120separately": 24081, "\u0120nodes": 20796, "\u0120weak": 27063, "\u0120yields": 27450, "\u0120borrowed": 13039, "\u0120content": 14304, "\u0120track": 25928, "\u0120consume": 14284, "your": 10579, "\u0120introduce": 18784, "\u0120achieves": 11628, "<&": 1496, "mut": 7054, ">:": 1574, "\u0120twice": 26212, "\u0120nice": 20746, "copyable": 3448, "\u0120consuming": 14289, "\u0120allowed": 11928, "\u0120copies": 14424, "\u0120aliases": 11895, "\u0120disallows": 15413, "safety": 8762, "\u0120item": 18923, "\u0120embedded": 15962, "\u0120qualifiers": 22613, "\u0120prompted": 22402, "\u0120commented": 13924, "\u0120reborrow": 22845, "\u0120mind": 20170, "bending": 2595, "read": 8354, "\u0120\u00e2\u0122\u0136": 27562, "dereference": 3782, "\u0120avoids": 12567, "\u0120db": 14837, "0599": 519, "]:": 1675, "\u0120powerful": 22073, "\u0120wraps": 27336, "\u0120bellow": 12787, "\u0120learned": 19336, "\u0120strings": 24998, "\u0120primitives": 22260, "\u0120encounter": 16043, "\u0120inefficient": 18409, "\u0120trivially": 26092, "\u0120disk": 15483, "\u0120turn": 26188, "\u0120element": 15918, "\u0120arbitrary": 12217, "\u0120strategy": 24965, "\u0120strategies": 24964, "with": 10419, "\u0120conversions": 14385, "\u0120hast": 17755, "ily": 5680, "\u0120serializing": 24117, "\u0120naturally": 20620, "\u0120deserialize": 15180, "\u0120restrict": 23425, "their": 9560, "\u0120semantic": 24048, "\u0120plain": 21876, "sendable": 8893, "\u0120tasks": 25494, "\u0120exclude": 16362, "ners": 7146, "\u0120mechanism": 20006, "\u0120intelligent": 18649, "\u0120mere": 20065, "\u0120deserialized": 15181, "\u0120paired": 21448, "des": 3791, "cribes": 3526, "\u0120reliably": 23149, "\u0120attribute": 12473, "\u0120;": 11378, "again": 1915, "\u0120automatic": 12538, "\u0120decoder": 14916, "\u0120transforms": 25977, "\u0120encoding": 16039, "\u0120decoding": 14919, "\u0120somewhat": 24587, "\u0120asymmetric": 12409, "\u0120performed": 21698, "\u0120process": 22322, "\u0120unnecessary": 26508, "\u0120encoders": 16037, "\u0120formats": 17015, "msg": 7029, "pack": 7726, "\u0120suit": 25233, "all": 2001, "fun": 4928, "\u0120assembling": 12343, "\u0120projects": 22385, "\u0120replies": 23271, "\u0120doubts": 15659, "\u0120half": 17669, "way": 10324, "\u0120outputs": 21320, "\u0120doubt": 15657, "given": 5081, "\u0120googling": 17464, "\u0120posts": 22064, "\u0120forum": 17038, "cpp": 3483, "cu": 3579, "\u0120ind": 18351, "ifferent": 5586, "\u0120older": 21091, "\u0120d": 14761, "ull": 9886, "\u0120advance": 11763, "\u0120talonmies": 25466, "\u0120recent": 22867, "post": 8020, "\u0120former": 17021, "\u0120nvcc": 20950, "\u0120latter": 19284, "cmp": 3197, "\u0120*": 10970, "\u0120breaking": 13105, "\u0120whenever": 27144, "\u0120chars": 13564, "\u0120comparator": 13969, "\u0120};": 27529, "\u0120uncertain": 26328, "\u0120straightforward": 24956, "arr": 2267, "tos": 9680, "row": 8671, "\u0120o": 20965, "cur": 3591, "ring": 8605, "\u0120compilable": 13989, "\u0120numerical": 20939, "\u0120unchanged": 26330, "bog": 2710, "us": 10076, "\u0120adjust": 11731, "\u0120presumably": 22220, "\u0120starting": 24856, "cs": 3555, "\u0120uid": 26283, "\u0120unstable": 26584, "\u0120meaning": 19983, "\u0120disappear": 15418, "\u0120warning": 27020, "\u0120secondly": 23971, "18": 679, "\u0120chat": 13571, "websocket": 10345, "room": 8647, "server": 8926, "websockets": 10346, "\u0120decent": 14887, "\u0120communicate": 13945, "\u0120sends": 24063, "\u0120problematic": 22308, "\u0120cross": 14593, "connection": 3360, "\u0120communication": 13948, "cyderize": 3623, "examples": 4503, "\u0120websockets": 27102, "\u0120approaching": 12187, "\u0120sending": 24062, "\u0120broadcast": 13131, "\u0120straight": 24955, "forward": 4861, "\u0120dispatcher": 15491, "\u0120act": 11647, "\u0120clients": 13730, "\u0120receives": 22865, "\u0120sent": 24072, "\u0120distrib": 15536, "utes": 10114, "blocking": 2687, "\u0120permanent": 21713, "\u0120checks": 13593, "\u0120websocket": 27101, "pastebin": 7802, "wl": 10425, "rh": 8584, "\u0120specifying": 24674, "\u0120reached": 22769, "\u0120poking": 21958, "\u0120cre": 14555, "vice": 10229, "\u0120hoping": 17952, "\u0120unfamiliar": 26405, "\u0120picked": 21804, "\u0120interior": 18701, "\u0120treemap": 26044, "\u0120dry": 15743, "\u0120plus": 21930, "\u0120enumerations": 16146, "playpen": 7953, "\u0120shortest": 24251, "\u0120debugging": 14880, "\u0120adfs": 11722, "\u0120saml": 23786, "\u0120ws": 27359, "trust": 9746, "\u0120service": 24133, "#.": 78, "\u0120popular": 22002, "least": 6428, "privile": 8122, "ge": 4988, "2012": 716, "11": 571, "wcf": 10330, "identity": 5541, "external": 4582, "authentication": 2438, "ws": 10479, "\u0120username": 26711, "wstrustbinding": 10486, "msdn": 7028, "library": 6496, "jj": 6217, "157": 650, "091": 540, "aspx": 2315, "\u0120jump": 19077, "identitymodel": 5542, "\u0120namespace": 20587, "\u0120experimenting": 16453, "\u0120variety": 26789, "\u0120malformed": 19815, ".\".": 331, "\u0120turned": 26189, "\u0120wcf": 27060, "\u0120logging": 19647, "\u0120determined": 15256, "\u0120reviewing": 23502, "\u0120fs": 17150, "admin": 1878, "\u0120events": 16293, "\u0120indication": 18384, "\u0120farm": 16641, "\u0120mine": 20173, "\u0120diagnose": 15303, "social": 9104, "forums": 4860, "ev": 4476, "thread": 9593, "fc": 4643, "b": 2483, "505": 1063, "481": 1041, "61": 1154, "541": 1099, "cc": 2951, "\u0120wif": 27192, "\u0120tracing": 25927, ":\\": 1481, "program": 8152, "active": 1826, "\u0120federation": 16690, "\u0120services": 24137, "servicehost": 8933, "change": 3031, "\u0120trace": 25922, "\u0120listeners": 19559, "every": 4491, "logs": 6648, "\u0120refine": 23030, "\u0120auditing": 12487, "svc": 9414, "\u0120viewed": 26884, "\u0120sv": 25336, "ct": 3562, "viewer": 10235, "files": 4722, "%/": 97, "\u0120sdks": 23945, "bin": 2635, "fx": 4947, "\u0120notion": 20881, "technet": 9501, "adfs": 1868, "troubleshooting": 9740, "configuring": 3348, "comput": 3320, "ers": 4396, "\u0120production": 22338, "select": 8879, "\u0120count": 14478, "\u0120filtered": 16776, "\u0120vowels": 26958, "\u0120letter": 19385, "\u0120repeats": 23247, "around": 2265, "ahead": 1934, "behind": 2581, "\u0120documented": 15607, "\u0120backreferences": 12615, "\u0120rule": 23691, "\u0120lists": 19564, "\u0120repetition": 23250, "\u0120limiting": 19514, "\u0120practical": 22081, "\u0120fancier": 16634, "09": 539, "28": 831, "74": 1250, "af": 1906, "01": 443, "fd": 4648, "47": 1033, "\u0120culling": 14684, "\u0120vbos": 26803, "\u0120planning": 21884, "\u0120tiles": 25775, "\u0120vertices": 26865, "\u0120vbo": 26802, "\u0120maths": 19943, "\u0120di": 15298, "ablo": 1759, "wherever": 10374, "om": 7421, "etric": 4466, "\u0120fixed": 16839, "\u0120geometry": 17325, "\u0120quad": 22598, "\u0120visible": 26913, "\u0120affecting": 11806, "\u0120pixel": 21856, "rate": 8325, "\u0120ro": 23581, "cks": 3120, "\u0120houses": 17986, "\u0120anyways": 12114, "\u0120aim": 11859, "\u0120streaming": 24973, "\u0120huge": 18024, "\u0120seamless": 23952, "\u0120chunks": 13641, "\u0120against": 11828, "\u0120bounding": 13068, "\u0120simplest": 24364, "\u0120games": 17235, "\u0120drive": 15720, "\u0120designs": 15201, "you": 10577, "\u0120effects": 15885, "\u0120instanced": 18596, "\u0120particle": 21564, "\u0120systems": 25432, "\u0120optimization": 21204, "\u0120worthy": 27317, "\u0120optimizations": 21205, "\u0120enter": 16118, "\u0120invokes": 18843, "\u0120therefor": 25672, "\u0120jonas": 19040, "\u0120disclaimer": 15438, "\u0120newbie": 20722, "\u0120played": 21895, "\u0120weeks": 27112, "\u0120effectively": 15884, "lived": 6588, "efficient": 4148, "who": 10383, "\u0120cares": 13378, "...?": 358, "?)": 1609, "\u0120everywhere": 16303, "levans": 6470, "\u0120counterintuitive": 14481, "std": 9272, "unwrap": 10010, "an": 2069, "\u0120fashion": 16647, "\u0120true": 26105, "\u0120destroyed": 15218, "\u0120freed": 17095, "\u0120args": 12244, "\u0120hmac": 17897, "\u0120response": 23404, "\u0120party": 21580, "\u0120varies": 26787, "\u0120constant": 14253, "we": 10333, "aken": 1959, "\u0120safer": 23771, "\u0120varying": 26794, "\u0120matter": 19949, "\u0120designed": 15197, "\u0120among": 11999, "\u0120others": 21286, "start": 9252, "\u0120integrate": 18639, "\u0120phantom": 21771, "\u0120scraping": 23916, "\u0120de": 14849, "vm": 10264, "ach": 1801, "ine": 5795, "\u0120examined": 16331, "level": 6471, "\u0120unrestricted": 26553, "\u0120denied": 15082, "edit": 4114, "componentmodel": 3314, "win": 10401, "exception": 4506, "x": 10498, "80004005": 1299, "diagnostics": 3855, "create": 3506, "info": 5812, "\u0120strength": 24977, "tracker": 9699, "controllers": 3421, "controller": 3420, "\u0120reside": 23365, "\u0120\"\\": 10833, "foo": 4823, "bar": 2516, "bla": 2664, "\u0120restrictions": 23429, "support": 9400, "sc": 8785, "kb": 6278, "317": 878, "wp": 10461, "\u0120belongs": 12790, "\u0120group": 17582, "\u0120fold": 16935, "\u0120buckets": 13180, "see": 8862, "\u0120similarly": 24356, "\u0120breaks": 13108, "\u0120sublists": 25100, "\u0120hence": 17822, "\u0120yielding": 27449, "\u0120sum": 25240, "\u0120sums": 25252, "\u0120nondeterministic": 20813, "\u0120otoh": 21288, "\u0120iterating": 18931, "\u0120items": 18924, "\u0120choice": 13614, "\u0120rustlang": 23733, "\u0120pipe": 21839, "\u0120knows": 19206, "\u0120sink": 24397, "\u0120introducing": 18787, "sink": 9049, "\u0120shall": 24184, "\u0120thinking": 25688, "\u0120outlives": 21314, "\u0120mix": 20263, "\u0120union": 26453, "\u0120university": 26470, "\u0120homework": 17928, "\u0120task": 25490, "\u0120variant": 26781, "union": 9955, "\u0120faced": 16569, "\u0120understood": 26383, "copy": 3447, "drop": 4007, "\u0120unions": 26454, "\u0120verbatim": 26836, "\u0120low": 19712, "\u0120intrinsically": 18781, "\u0120sudoku": 25212, "\u0120solver": 24569, "\u0120verbosity": 26839, "\u0120seemed": 24013, "\u0120enforce": 16080, "\u0120#": 10840, "6268": 1168, "\u0120evaluated": 16281, "\u0120thinks": 25689, "\u0120aliasing": 11896, "\u0120illegal": 18147, "fortran": 4857, "\u0120matlab": 19944, "octave": 7328, "\u0120julia": 19073, "\u0120dimensionality": 15375, "unable": 9911, "\u0120infer": 18429, "\u0120explained": 16467, "\u0120`_`;": 11496, "\u0120binding": 12863, "\u0120_": 11458, "\u0120nevertheless": 20719, "\u0120ar": 12214, "ouse": 7668, "\u0120supposedly": 25287, "\u0120expecting": 16438, "\u0120outcome": 21299, "\u0120freedom": 17096, "\u0120numbers": 20934, "\u0120alike": 11906, "\u0120loose": 19687, "\u0120ambiguity": 11988, "\u0120demonstration": 15074, "\u0120suggested": 25228, "\u0120ufcs": 26275, "\u0120resolving": 23384, "\u0120parametrize": 21514, "\u0120glance": 17386, "wrapper": 10466, "\u0120badly": 12631, "\u0120hints": 17881, "randomly": 8314, "\u0120designation": 15194, "\u0120referencing": 23018, "\u0120hopping": 17954, "\u0120admit": 11746, "edly": 4119, "\u0120unboxed": 26324, "\u0120active": 11661, "\u0120conveniences": 14368, "\u0120instances": 18597, "\u0120ones": 21115, "\u0120generically": 17306, "bearing": 2559, "\u0120\u00e2\u0122\u00a6": 27557, "\u0120hmm": 17899, "\u0120btreeset": 13169, "\u0120legal": 19356, "\u0120panics": 21475, "\u0120owns": 21400, "\u0120closest": 13761, "\u0120pull": 22520, "\u0120rely": 23169, "\u0120readable": 22779, "\u0120wouldn": 27319, "\u0120gtk": 17602, "\u0120hidden": 17849, "\u0120names": 20586, "\u0120unambiguously": 26303, "\u0120independent": 18366, "probably": 8125, "borrowed": 2730, "\u0120myst": 20556, "ified": 5592, "both": 2736, "\u0120formally": 17013, "\u0120forever": 16994, "\u0120timeout": 25783, "\u0120wrapper": 27332, "\u0120welcomed": 27125, "rd": 8341, "\u0120day": 14834, "\u0120exploring": 16492, "transform": 9709, "\u0120k": 19094, "\u0120segmentation": 24025, "\u0120r": 22680, "\u0120dispatch": 15488, "\u0120total": 25901, "ptx": 8209, "options": 7527, "=-": 1539, "\u0120occup": 21022, "\u0120calculator": 13302, "\u0120ptx": 22503, "so": 9100, "\u0120counting": 14487, "!)": 16, "\u0120occupancy": 21023, "\u0120rounding": 23639, "\u0120ptxas": 22504, "\u0120granularity": 17525, "\u0120greg": 17559, "\u0120granular": 17524, "\u0120threadblocks": 25712, "\u0120sm": 24487, "usage": 10078, "\u0120exceeding": 16340, "\u0120blocks": 12957, "\u0120accuracy": 11617, "\u0120asking": 12323, "\u0120directed": 15384, "what": 10367, "\u0120gpus": 17493, "\u0120cr": 14529, "isp": 6041, "\u0120fundamentally": 17189, "\u0120incorrect": 18331, "\u0120figures": 16750, "\u0120metrics": 20110, "\u0120launch": 19286, "\u0120completes": 14017, "\u0120releases": 23142, "registers": 8449, "\u0120plenty": 21912, "\u0120documents": 15610, "\u0120screenshots": 23924, "\u0120claims": 13673, "\u0120accepting": 11571, "\u0120screen": 23922, "choose": 3076, "\u0120assertion": 12351, "\u0120navigation": 20630, "\u0120high": 17857, "\u0120licensing": 19468, "\u01202016": 11153, "\u0120edition": 15866, "\u0120upwards": 26674, "\u0120con": 14088, "ical": 5483, "\u0120unity": 26462, "m": 6707, "\u0120helping": 17820, "\u0120friend": 17120, "\u0120study": 25048, "\u0120diameter": 15316, "\u0120upper": 26658, "gex": 5049, "vertices": 10216, "\u0120coords": 14419, "\u0120sizes": 24415, "wiki": 10395, "unity": 9959, "procedural": 8131, "primitives": 8101, "con": 3327, "\u0120mesh": 20075, "\u0120plane": 21879, "\u0120dynamically": 15811, "\u0120sides": 24293, "\u0120positions": 22034, "\u0120radius": 22696, "\u0120recreate": 22926, "\u0120triangles": 26057, "\u0120structuring": 25026, "\u0120thrown": 25736, "\u0120hacky": 17662, "\u0120gdb": 17269, "despite": 3805, "\u0120clarity": 13686, "\u0120mocked": 20289, "\u0120bin": 12855, "\u0120whats": 27139, "\u0120breakpoint": 13106, "\u0120somestruct": 24578, "\u0120unknown": 26474, "\u0120opaque": 21133, "\u0120ffi": 16721, "\u0120impossible": 18253, "\u0120boring": 13033, "\u0120append": 12154, "\u0120transfer": 25965, "\u0120potentially": 22067, "\u0120gut": 17639, "\u0120feeling": 16698, "rusty": 8742, "\u0120educational": 15878, "\u0120neither": 20695, "\u0120moves": 20408, "\u0120dig": 15356, "\u0120pushing": 22554, "\u0120popping": 22000, "\u0120drain": 15696, "\u0120silly": 24346, "\u0120transferring": 25969, "\u0120collections": 13876, "\u0120precise": 22113, "\u0120layout": 19305, "\u0120specialized": 24658, "\u0120lifting": 19486, "\u0120monadic": 20339, "\u0120tightly": 25770, "\u0120coupled": 14494, "\u0120operating": 21171, "\u0120shorter": 24250, "\u0120beware": 12827, "\u0120possibly": 22047, "\u0120moreover": 20379, "\u0120cumbersome": 14692, "binary": 2637, "\u0120independently": 18367, "\u0120frontend": 17133, "\u0120yells": 27441, "\u0120wether": 27132, "\u0120flipped": 16893, "\u0120letters": 19386, "\u0120instant": 18599, "\u0120exchanged": 16357, "\u0120variations": 26784, "\u0120hyphen": 18060, "\u0120alternative": 11970, "\u0120effect": 15882, "\u0120stupid": 25061, "\u0120overflow": 21341, "\u0120days": 14836, "\u0120dare": 14786, "\u0120^^": 11445, "crate": 3498, "\u0120executables": 16376, "\u0120lucene": 19738, "\u0120medium": 20014, "\u0120godaddy": 17444, "\u0120posted": 22051, "\u0120recommended": 22894, "\u0120quote": 22675, "\u0120email": 15957, "iirc": 5633, "\u0120overload": 21358, "\u0120flushed": 16911, "web": 10336, "archive": 2221, "ange": 2105, "k": 6265, "xu": 10541, "jy": 6262, "fw": 4945, "hnd": 5363, "l": 6349, "mk": 6941, "gnu": 5113, "fo": 4810, "class": 3131, "\u0120commits": 13934, "\u0120788": 11324, "092": 541, "\u0120went": 27127, "\u0120verify": 26847, "\u0120history": 17888, "\u0120favorite": 16668, "\u0120subversion": 25182, "\u0120struggled": 25029, "\u0120pulled": 22521, "81": 1311, "\u0120verifies": 26846, "\u0120unmanaged": 26490, "\u0120rebuilt": 22852, "\u0120locally": 19617, "\u0120deployed": 15118, "\u0120implications": 18229, "\u0120appear": 12148, "\u0120precedes": 22108, "\u0120mqtt": 20422, "\u0120codec": 13818, "\u0120reexported": 22998, "\u0120relevant": 23145, "\u0120incompatibilities": 18312, "\u0120causing": 13441, "than": 9551, "obvious": 7309, "\u0120roll": 23601, "\u0120additionally": 11705, "\u0120masking": 19907, "\u0120nic": 20745, "\u0120emulator": 16012, "qemu": 8241, "\u012032": 11220, "bits": 2657, "\u0120descriptor": 15170, "\u0120addresses": 11713, "\u0120struggling": 25031, "\u0120mask": 19905, "\u0120shift": 24219, "\u0120halves": 17675, "\u0120descriptors": 15171, "\u0120hardware": 17726, "\u0120minus": 20197, "\u0120approaches": 12186, "\u0120arithmetics": 12260, "of": 7354, "\u0120initialize": 18500, "oriented": 7566, "templates": 9516, "\u0120implmented": 18236, "\u0120treating": 26036, "\u0120superclass": 25256, "\u0120arena": 12239, "number": 7277, "\u0120graph": 17526, "\u0120consisting": 14242, "memory": 6851, "wise": 10417, "\u0120conceptually": 14111, "\u0120cycles": 14750, "\u0120lets": 19384, "\u0120remaining": 23175, "allocated": 2011, "\u0120semantically": 24049, "arena": 2231, "\u0120never": 20718, "\u0120invalidate": 18801, "\u012064": 11297, "\u0120platforms": 21888, "\u0120shave": 24203, "\u0120suffer": 25213, "\u0120inability": 18272, "\u0120graphs": 17535, "where": 10372, "\u0120periodically": 21706, "\u0120unused": 26613, "\u0120akin": 11870, "\u0120collector": 13877, "dir": 3879, "\u0120progressing": 22370, "\u0120brought": 13142, "\u0120paste": 21595, "\u0120prompt": 22401, "pathbuf": 7808, "push": 8225, "\u0120replaces": 23261, "enum": 4327, "prefix": 8067, "\u0120prefixes": 22165, "\u0120\\": 11440, "share": 8975, "\u0120misunderstanding": 20249, "\u0120unix": 26471, "linux": 6563, "\u0120specification": 24665, "\u0120sorting": 24604, "filter": 4729, "ing": 5818, "\u0120random": 22712, "\u0120walk": 26997, "\u0120petgraph": 21762, "\u0120quiet": 22661, "\u0120derive": 15149, "\u0120afraid": 11819, "\u0120initializers": 18504, "\u0120bytewise": 13271, "well": 10357, "\u0120constructing": 14271, "implement": 5711, "size": 9057, "\u0120constructor": 14274, "rules": 8705, "\u0120processed": 22323, "\u0120invocation": 18839, "\u0120perfect": 21692, "\u0120temporarily": 25567, "basically": 2526, "trentcl": 9728, "\u0120proc": 22310, "\u0120sd": 23943, "out": 7672, "\u0120parsed": 21544, "\u0120parses": 21549, "\u0120ast": 12399, "\u0120repo": 23275, "\u0120helpful": 17817, "\u0120trustedpickle": 26126, "pickle": 7906, "\u0120wiki": 27196, "\u0120suggests": 25232, "\u0120protection": 22445, "\u0120pickle": 21807, "\u0120author": 12508, "ised": 6017, "\u0120instructed": 18617, "python": 8236, "site": 9052, "packages": 7729, "\u0120opened": 21142, "\u0120142": 11099, "\u0120column": 13895, "\u0120download": 15671, "sourceforge": 9150, "projects": 8167, "trusted": 9749, "02": 461, "\u0120trailing": 25944, "long": 6653, "\")": 39, "\u0120covers": 14509, "\u0120modifications": 20312, "\u0120sts": 25034, "\u0120unexpected": 26401, "\u0120occured": 21029, "\u0120em": 15955, "selector": 8884, "cards": 2908, "paces": 7725, "him": 5345, "getc": 5026, "ard": 2223, "space": 9153, "implementation": 5712, "()...": 164, "\u0120extremely": 16556, "\u0120dep": 15098, "ract": 8296, "\u0120years": 27437, "\u0120sc": 23843, "client": 3156, "credentials": 3516, "interactive": 5900, "\u0120false": 16622, "\u0120flavours": 16874, "\u0120nhibernate": 20742, "\u0120generator": 17303, "\u0120recieve": 22870, "\u0120assembly": 12344, "dynamic": 4052, "proxy": 8197, "assembly": 2323, "ad": 1842, "\u0120dlls": 15576, "\u0120prior": 22278, "\u0120pay": 21622, "\u0120attention": 12465, "\u0120loading": 19604, "\u0120blog": 12958, "\u0120outlines": 21311, "\u0120reflection": 23037, "\u0120ner": 20698, "fed": 4661, "though": 9590, "\u0120physically": 21799, "building": 2816, "\u0120honest": 17933, "\u0120opt": 21189, "\u0120offered": 21065, "\u0120removes": 23205, "\u0120cheap": 13574, "\u0120nasty": 20612, "\u0120dedicated": 14958, "\u0120disposal": 15503, "\u0120pain": 21440, "\u0120chime": 13607, "\u0120mentioning": 20056, "\u0120answered": 12093, "\u0120forums": 17039, "http": 5418, "forum": 4859, "hibernate": 5330, "\u0120isolate": 18902, "zero": 10604, "\u0120expand": 16427, "\u0120reaches": 22770, "\u0120nearest": 20643, "\u0120computed": 14082, "\u0120segmented": 24026, "\u0120inclusive": 18307, "\u0120scans": 23862, "\u0120segment": 24024, "\u0120special": 24649, "\u0120begin": 12752, "because": 2565, "undefined": 9933, "\u0120become": 12737, "\u0120evident": 16307, "\u0120lesser": 19379, "\u0120adjusting": 11734, "\u0120>": 11409, "\u0120subtract": 25169, "\u0120considered": 14235, "arbitrarily": 2212, "\u0120simulated": 24377, "<<": 1516, "\u0120areas": 12237, "\u0120improved": 18264, "\u0120particularly": 21567, "\u0120respect": 23391, "\u0120fusion": 17204, "\u0120harder": 17722, "\u0120bugs": 13198, "\u0120uncover": 26349, "\u0120teach": 25527, "ambiguity": 2052, "\u0120jackolantern": 18957, "\u0120present": 22200, "\u0120obscured": 20989, "\u0120mimic": 20164, "\u0120desired": 15204, "\u0120realization": 22802, "\u0120<": 11382, "\u0120...\"": 11009, "state": 9261, "\u0120whoever": 27171, ".\"": 327, "\u0120reaching": 22771, "\u0120460": 11260, "\u0120despite": 15211, "\u0120improper": 18261, "sequence": 8909, "\u0120description": 15167, "\u0120visit": 26917, "thrust": 9602, "group": 5178, "__": 1715, "reductions": 8417, "gad": 4956, "203": 727, "cab": 2852, "2481": 795, "39": 945, "\u0120dispatched": 15490, "\u0120entirety": 16126, "once": 7448, "\u0120stepping": 24915, "\u0120occurrences": 21036, "effectively": 4145, "\u0120histogram": 17884, "ming": 6913, "\u0120outlined": 21310, "correctly": 3455, "sort": 9142, "\u0120methodology": 20107, "\u0120restricted": 23426, "cuda": 3582, "\u0120printouts": 22276, "\u0120subject": 25094, "\u0120limits": 19515, "\u0120sensible": 24066, "\u0120wish": 27242, "answer": 2133, "\u0120discussion": 15476, "\u0120relating": 23127, "major": 6730, "opengl": 7493, "\u0120multiplying": 20479, "z": 10595, ")*": 213, "mv": 7062, "\u0120==": 11399, "\u0120centre": 13481, "\u0120clip": 13732, "\u0120mvp": 20531, "^": 1699, "(-": 179, "\u0120persists": 21739, "\u0120helper": 17815, "\u0120helpers": 17816, "\u0120commend": 13921, "\u0120constructors": 14275, "\u0120saving": 23835, "\u0120pointless": 21948, "unstable": 9994, "book": 2718, "src": 9205, "language": 6365, "features": 4659, "plugin": 7960, "me": 6826, "\u0120rustdoc": 23726, "\u0120relates": 23126, "\u0120accurate": 11618, "\u0120date": 14823, "\u0120developed": 15269, "effort": 4150, "\u0120basis": 12692, "\u0120tracking": 25931, "\u0120developments": 15274, "\u0120circular": 13653, "\u0120stderr": 24893, "\u0120stdin": 24894, "\u0120200": 11139, "200": 703, "\u0120reality": 22801, "\u0120~": 27531, "2000": 704, "\u0120insertion": 18557, "\u0120occasionally": 21019, "\u0120fragment": 17071, "count": 3466, "*": 246, "keeping": 6284, "\u0120ringbuffer": 23553, "\u0120erase": 16193, "\u0120fragmentation": 17072, "thanks": 9554, "\u0120se": 23947, "bk": 2661, "\u0120community": 13951, "\u0120draft": 15692, "\u0120questioned": 22645, "depending": 3769, "\u0120basics": 12690, "\u0120evidently": 16308, "arching": 2216, "\u0120fat": 16654, "starting": 9255, "\u0120allocator": 11923, "\u0120shifting": 24221, "\u0120sideways": 24297, "\u0120techniques": 25540, "\u0120gain": 17222, "\u0120alloc": 11916, "\u0120lose": 19694, "\u0120wide": 27183, "yi": 10562, "\u0120quick": 22653, "\u0120albeit": 11876, "fully": 4926, "\u0120warranted": 27025, "\u0120sections": 23980, "\u0120reimplement": 23092, "\u0120purely": 22535, "\u0120choices": 13615, "\u0120ahead": 11853, "skip": 9067, "\u0120comparable": 13965, "\u0120naive": 20572, "\u0120aimed": 11861, "real": 8366, "\u0120collecting": 13874, "vec": 10176, "snippets": 9098, "\u0120recursively": 22945, "\u0120guess": 17620, "\u0120guesses": 17622, "\u0120aka": 11869, "\u0120bails": 12640, "\u0120continue": 14320, "\u0120wait": 26985, "folder": 4815, "/\"": 375, "\u0120\"/": 10820, "\u0120absolute": 11542, "\u0120impli": 18227, "ment": 6853, "manifest": 6748, "cfg": 3018, "=\"": 1530, "${": 91, "feature": 4657, "}\".": 10645, "\u0120individual": 18397, "\u0120#[": 10843, "\")]": 46, "\u0120enumerating": 16144, "\u0120peano": 21653, "\u0120abstract": 11546, "\u0120quickly": 22658, "\u0120enumeration": 16145, "\u0120experimented": 16452, "\u0120serves": 24132, "\u0120forward": 17040, "\u0120interest": 18687, "\u0120implementers": 18219, "\u0120constrain": 14262, "\u0120nonsensical": 20827, "\u0120implementer": 18218, "\u0120referred": 23025, "\u0120predecess": 22129, "\u0120constraint": 14266, "\u0120reserve": 23355, "\u0120callee": 13312, "\u0120computations": 14080, "pre": 8056, "tt": 9774, "ier": 5568, "\u0120bring": 13125, "\u0120reworked": 23519, "\u0120co": 13801, "\u0120constraints": 14267, "\u0120webserver": 27093, "\u0120rocket": 23593, "\u0120redirect": 22969, "\u0120html": 18001, "\u0120conditions": 14142, "\u0120responder": 23400, "\u0120word": 27280, "\u0120incredibly": 18339, "\u0120shouldn": 24259, "\u0120knowledge": 19203, "\u0120unnecessarily": 26507, "\u0120cleanest": 13706, "\u0120foo": 16956, "als": 2034, "form": 4845, "\u0120significant": 24325, "\u0120organize": 21245, "\u0120dialog": 15314, "uer": 9847, "\u0120searches": 23958, "\u0120typing": 26251, "\u0120press": 22214, "\u0120displays": 15501, "\u0120hitting": 17891, "\u0120nor": 20837, "\u0120clearing": 13716, "\u0120poll": 21971, "events": 4488, "\u0120pending": 21677, "67": 1198, "620": 1164, "288": 842, "ff": 4686, "de": 3691, "fea": 4655, "bcf": 2547, "68": 1205, "\u0120multiplication": 20474, "\u0120cpupool": 14524, "\u0120rpc": 23654, "cpupool": 3486, "\u0120blocked": 12952, "\u0120declaring": 14912, "\u0120container": 14296, "\u0120inventory": 18816, "remove": 8475, "get": 5025, "\u0120heck": 17801, "\u0120lookup": 19676, "\u0120existed": 16411, "\u0120wanting": 27014, "\u0120equality": 16180, "\u0120prohibited": 22375, "\u0120alternatives": 11972, "\u0120removal": 23201, "\u0120filtering": 16777, "\u0120indicates": 18381, "\u0120depend": 15103, "\u0120mirror": 20206, "\u0120reordering": 23230, "\u0120elegant": 15916, "mirror": 6924, "\u0120ordering": 21230, "st": 9228, "\u0120switched": 25367, "\u0120unique": 26455, "\u0120reorder": 23228, "gather": 4974, "\u0120destination": 15214, "\u0120predicate": 22133, "\u0120mutation": 20515, "\u0120ab": 11509, "ve": 10175, "usually": 10106, "\u0120captured": 13366, "\u0120translate": 25988, "\u0120forbids": 16974, "references": 8428, "\u0120poison": 21951, "611": 1155, "\u0120encoder": 16036, "\u0120shortcut": 24243, "\u0120mem": 20027, "reader": 8357, "\u0120interfacing": 18695, "\u0120io": 18852, "\u0120potential": 22066, "\u0120refers": 23028, "\u0120(#": 10904, "14": 627, "302": 857, "\u0120coerce": 13836, "\u0120bool": 13015, "\u0120int": 18631, "itial": 6100, "\u0120webassembly": 27080, "\u0120bundled": 13229, "before": 2569, "\u0120webpack": 27090, "\u0120red": 22953, "\u0120npm": 20897, "webpack": 10340, "\u0120alert": 11878, "\u0120upgraded": 26646, "wasm": 10317, "\u0120risk": 23565, "\u0120appeared": 12150, "\u0120double": 15651, "\u0120blurz": 12977, "\u0120bluetooth": 12972, "\u0120equal": 16179, "\u0120temp": 25556, "(?).": 189, "\u0120handled": 17689, "\u0120illustrate": 18156, "\u0120dropped": 15732, "\u0120action": 11651, "\u0120sugar": 25225, "\u0120deref": 15134, "\u0120coercion": 13841, "\u0120derefs": 15144, "\u0120ref": 23001, "dereferencing": 3785, "\u0120operands": 21167, "\u0120logical": 19649, "else": 4189, "\u0120eagerly": 15821, "\u0120lazily": 19309, "\u0120circumstances": 13656, "\u0120evaluation": 16284, "then": 9563, "\u0120usable": 26685, "\u0120comparing": 13975, "\u0120focused": 16929, "\u0120applicable": 12168, "(\"": 141, "string": 9334, "\u0120converting": 14392, "\u0120creation": 14561, "allocating": 2013, "\u0120excess": 16353, "\u0120stripped": 25002, "\u0120modifying": 20318, "sure": 9405, "dependent": 3768, "\u0120preferably": 22153, "fin": 4732, "ance": 2078, "labs": 6353, "\u0120verifying": 26848, "\u0120located": 19623, ".]": 369, "\u0120powershell": 22076, "\u0120bash": 12685, "\u0120fedora": 16691, "\u0120exc": 16337, "ite": 6073, "spect": 9172, "\u0120green": 17554, "\u0120indicative": 18386, "\u0120alone": 11937, "\u0120\u00e2\u0122\u013e": 27565, "\u00e2\u0122\u013f": 10731, "\u0120controlling": 14359, "\u0120searching": 23959, "\u0120iterates": 18930, "looking": 6657, "\u0120reporting": 23281, "\u0120syntactic": 25409, "\u0120mistakes": 20244, "\u0120personal": 21741, "\u0120authors": 12518, "\u0120books": 13014, "she": 8981, "\u0120decision": 14901, "\u0120ho": 17901, "bbit": 2538, "\u0120entered": 16119, "object": 7298, "\u0120vastly": 26796, "\u0120rewriting": 23524, "\u0120organizing": 21247, "ordered": 7545, "\u0120mistaken": 20242, "\u0120ids": 18118, "\u0120btree": 13167, "\u0120carefully": 13376, "\u0120leaks": 19329, "\u0120sites": 24403, "\u0120enterprise": 16121, "\u0120domains": 15630, "rather": 8326, "\u0120advising": 11787, "did": 3859, "its": 6117, "\u0120dangerous": 14782, "\u0120remote": 23196, "\u0120promote": 22395, "\u0120websites": 27098, "\u0120policy": 21964, "nc": 7114, "baa": 2485, "bf": 2617, "48": 1039, "82": 1321, "96": 1425, "19": 689, "add": 1852, "sites": 9054, "policy": 7986, "gp": 5137, "\u0120associate": 12379, "\u0120visual": 26924, "\u0120formatting": 17019, "gro": 5176, "ovy": 7702, "java": 6184, "\u0120syn": 25389, "\u0120enables": 16018, "\u0120procedural": 22313, "macro": 6715, "build": 2812, "\u0120declares": 14911, "\u0120vice": 26877, "\u0120versa": 26851, "\u0120performant": 21697, "\u0120attached": 12447, "\u0120crash": 14542, "\u0120crashes": 14544, "\u0120surprise": 25306, "\u0120failing": 16595, "\u0120deallocate": 14860, "\u0120deallocating": 14863, "\u0120elmah": 15947, "\u0120mvc": 20526, "\u0120404": 11244, "\u0120filepaths": 16764, "\u0120\"~/": 10839, "\u0120subsequently": 25132, "\u0120aspnet": 12331, "\u0120rights": 23548, "temp": 9512, "\u0120everybody": 16298, "\u0120sqlite": 24749, "\u0120yay": 27432, "\u0120vri": 26964, "\u0120pades": 21429, "\u0120pdf": 21644, "\u0120embed": 15961, "\u0120123": 11083, "4567": 1019, "890": 1376, "abc": 1746, "def": 3731, "[...]": 1635, "\u0120etsi": 16268, "pad": 7735, "\u0120ltv": 19735, "\u012012": 11078, "stamp": 9238, "\u0120timestamptoken": 25797, "\"?": 61, "\u0120clarifies": 13683, "\u0120ts": 26157, "\u0120meanwhile": 19991, "\u0120superseded": 25265, "\u0120en": 16014, "\u0120319": 11219, "ulated": 9873, "\u0120hashed": 17741, "\u0120dictionary": 15325, "\u0120der": 15132, "\u0120pkcs": 21861, "\u0120cms": 13797, "\u0120cades": 13287, "\u0120stamps": 24832, "\u0120proceed": 22317, "\u0120norm": 20839, "\u0120specifies": 24671, "\u0120inclusion": 18306, "\u0120material": 19930, "ss": 9208, "\u0120realised": 22798, "\u0120admittedly": 11748, "\u0120stamp": 24829, "\u0120rng": 23579, "rand": 8311, "\u0120silently": 24344, "!\"": 5, "!\".": 7, "grammar": 5154, "\u0120randomly": 22717, "\u00e2\u0122\u013f,": 10734, "\u0120implementors": 18223, "\u0120terms": 25604, "rer": 8525, "\u0120determines": 15257, "\u0120usefully": 26698, "\u0120idiom": 18106, "\u0120paths": 21609, "whitepaper": 10381, "pdf": 7824, "\u0120availability": 12551, "\u0120manuals": 19863, "tz": 9813, "\u0120deprecated": 15125, "\u0120smc": 24498, "\u0120tee": 25546, "\u0120wrangler": 27327, "\u0120navigate": 20626, "dash": 3646, "cloudf": 3182, "lare": 6373, "profile": 8149, "tokens": 9658, "\u0120assets": 12359, "\u0120brew": 13113, "er": 4353, "kit": 6322, "\u0120shell": 24211, "\u0120nom": 20803, "\u0120parsing": 21551, "\u0120alternate": 11965, "\u0120deal": 14857, "\u0120separator": 24085, "\u0120parser": 21547, "\u0120combinator": 13902, "\u0120backtra": 12621, "ck": 3114, "\u0120acquired": 11640, "fileloadexception": 4720, "\u0120assemblies": 12342, "\u0120headers": 17781, "content": 3403, "disposition": 3910, "\u0120inline": 18523, "\u0120identify": 18096, "\u0120postman": 22060, "\u0120responds": 23402, "\u0120deep": 14971, "\u0120reqwest": 23333, "\u0120payload": 21624, "\u0120belonging": 12789, "reqwest": 8524, "response": 8542, "\u0120peter": 21760, "\u0120omer": 21100, "\u0120reply": 23272, "\u0120waiting": 26988, "\u0120hon": 17932, "ors": 7584, "\u0120highlights": 17863, "sys": 9449, "\u0120tail": 25452, "\u0120personally": 21742, "\u0120implies": 18233, "\u0120eliminates": 15937, "\u0120chunking": 13640, "\u0120uneven": 26400, "\u0120laz": 19308, "iest": 5570, "\u0120join": 19031, "\u0120collect": 13872, "\u0120weren": 27130, "\u0120joining": 19034, "\u0120iterated": 18929, "\u0120chains": 13531, "\u0120smaller": 24489, "\u0120emptied": 16001, "\u0120consumed": 14285, "\u0120destructing": 15223, "\u0120skydome": 24434, "\u012010000": 11050, "\u0120culled": 14682, "\u0120dome": 15632, "\u0120drawn": 15712, "\u0120scale": 23852, "\u0120realistic": 22799, "\u0120principles": 22266, "writing": 10475, "\u0120rendered": 23215, "000": 411, "\u0120decreases": 14945, "fighting": 4713, "effects": 4146, "\u0120cameras": 13326, "\u0120clears": 13718, "\u0120draws": 15713, "\u0120inaccurate": 18277, "\u0120polling": 21973, "\u0120fov": 17055, "\u0120directx": 15394, "buffer": 2804, "\u0120dockerfile": 15593, "\u01208080": 11334, "hello": 5302, "world": 10451, "aw": 2467, "\u0120ps": 22487, "\u0120logs": 19659, "\u0120override": 21369, "\u0120extensible": 16529, "\u0120audio": 12483, "\u0120associating": 12382, "\u0120readers": 22784, "either": 4162, "\u0120plug": 21922, "\u0120conventional": 14373, "\u0120extensibility": 16528, "\u0120init": 18486, "\u0120life": 19474, "\u0120goal": 17441, "\u0120triangular": 26058, "\u0120divisors": 15568, "\u0120euler": 16273, "864": 1353, "\u0120p": 21407, "\u0120closed": 13757, "\u0120formula": 17026, "\u0120bare": 12668, "\u0120brain": 13087, "\u0120computing": 14086, "\u0120square": 24756, "\u0120lowest": 19720, "\u0120divisor": 15567, "\u0120greater": 17548, "\u0120dividing": 15561, "\u0120six": 24410, "\u0120misses": 20235, "\u01206": 11291, "\u0120factors": 16587, "\u0120loses": 19695, "\u0120curious": 14702, "\u0120trickery": 26063, "\u0120scenes": 23875, "\u0120relies": 23152, "\u0120internally": 18715, "\u0120offers": 21067, "\u0120bumping": 13225, "\u0120cursor": 14715, "man": 6739, "\u0120taken": 25458, "\u0120skips": 24432, "\u0120yielded": 27448, "\u0120primitive": 22259, "derived": 3787, "\u0120normally": 20848, "\u0120shepmaster": 24216, "\u0120delegate": 15029, "\u0120safety": 23775, "\u0120responsibility": 23408, "\u0120lang": 19253, "\u0120structural": 25020, "\u0120comparisons": 13978, "\u0120handful": 17685, "\u0120insides": 18561, "\u0120compared": 13972, "\u0120designing": 15200, "\u0120shareable": 24197, "\u0120gonna": 17454, "\u0120buildable": 13201, "\u0120reproduction": 23306, "\u0120un": 26295, "provided": 8192, "\u0120remain": 23172, "counted": 3467, "\u0120callable": 13308, "\u0120concerned": 14113, "\u0120...),": 11011, "\u0120closes": 13760, "just": 6259, "\u0120uncomment": 26338, "\u0120vecdeque": 26811, "\u0120occure": 21028, "\u0120expert": 16455, "\u0120writer": 27349, "\u0120placed": 21870, "\u0120placeholders": 21872, "write": 10470, "fs": 4912, "\u0120nested": 20703, "\u0120yaml": 27426, "\u012035": 11228, "\u0120leading": 19322, "based": 2522, "\u0120bounded": 13067, "\u0120regard": 23065, "stargateur": 9251, "\u0120meets": 20018, "\u0120rpncalculator": 23658, "actions": 1820, "\u0120rpn": 23657, "calculator": 2872, "cannot": 2891, "\u0120appropiate": 12188, "coded": 3211, "\u0120scalar": 23850, "\u0120vtables": 26971, "\u0120leak": 19325, "\u0120im": 18163, "\u0120facing": 16576, "ptr": 8206, "\u0120defeat": 14981, "\u0120circumvented": 13658, "\u0120dlist": 15572, "\u0120mess": 20078, "\u0120noted": 20863, "\u0120curly": 14705, "\u0120insist": 18567, "\u0120hyperium": 18056, "\u0120quoting": 22679, "bounds": 2744, "higher": 5338, "ranked": 8319, "\u0120satisfied": 23821, "\u0120likewise": 19505, "\u0120often": 21079, "\u0120tutorials": 26197, "\u0120keystore": 19151, "\u0120pages": 21436, "\u0120keywords": 19159, "\u0120handshake": 17697, "failure": 4614, "pasted": 7803, "problem": 8127, "\u0120robots": 23591, "\u0120incoming": 18310, "\u0120careless": 13377, "\u0120chapters": 13555, "\u0120encapsulated": 16023, "\u0120opening": 21147, "\u0120journal": 19042, "\u0120infered": 18430, "new": 7159, "\u0120mixing": 20267, "\u0120worlds": 27307, "generics": 5011, "specific": 9165, "\u0120deciding": 14896, "\u0120dots": 15650, "\u0120stating": 24876, "\u0120brings": 13127, "\u0120tuples": 26182, "\u0120possibilities": 22043, "\u0120hardcoded": 17718, "\u0120lots": 19706, "\u0120rolled": 23603, "\u0120exponential": 16496, "\u0120bloat": 12943, "\u0120rarely": 22731, "\u0120billion": 12853, "\u0120blow": 12962, "\u0120anyhow": 12108, "\u0120finite": 16806, "\u0120bitxor": 12906, "\u0120operand": 21166, "\u0120genericity": 17308, "\u0120sacrifice": 23760, "\u0120dodgy": 15613, "\u0120redefine": 22960, ".:": 365, "\u0120uglier": 26277, "\u0120closer": 13759, "\u0120boiethios": 12995, "\u0120utilities": 26726, "cases": 2920, "\u0120uac": 26259, "\u0120management": 19826, "86": 1350, ")'": 201, "txt": 9798, "directory": 3887, "\u0120sql": 24745, "\u0120ce": 13459, "\u0120subdirectory": 25081, ")\\": 233, "myapp": 7067, "ced": 2970, "ata": 2357, "base": 2521, "\u0120administrator": 11743, "\u0120elevated": 15925, "\u0120acess": 11621, "\u0120privileges": 22294, "\u0120frustrated": 17142, "\u0120elevation": 15927, "\u0120installing": 18592, ")'.": 203, "\u0120strongly": 25012, "\u0120locations": 19627, "applicationdata": 2184, "desktop": 3804, "aa": 1731, "36": 917, "992": 1444, "vs": 10279, "85": 1346, "\u0120regardless": 23068, "\u0120logged": 19644, "appdata": 2171, "\u0120writes": 27351, "\u0120past": 21594, "user": 10084, "installation": 5874, "\u0120infers": 18438, "\u0120existing": 16417, "\u0120taste": 25496, "\u0120initialise": 18493, "\u0120led": 19346, "\u0120iter": 18925, "\u0120warns": 27022, "\u0120reasoning": 22831, "at": 2356, "\u0120automated": 12536, "\u0120beacuse": 12717, "\u0120deconstructing": 14930, "\u0120placing": 21875, "\u0120indexer": 18373, "yes": 10559, "\".)": 51, "\u0120soundness": 24613, "\u0120destroy": 15217, "\u0120!": 10774, "\u0120switching": 25369, "\u0120buggy": 13197, "\u0120remains": 23176, "\u0120alive": 11908, "\u0120duration": 15790, "\u0120smart": 24492, "\u0120restriction": 23428, "\u0120systematically": 25429, "!),": 17, "ives": 6140, "\u0120plays": 21904, "\u0120inherited": 18479, "immutable": 5703, "\u0120mutably": 20510, "\u0120dance": 14778, "fits": 4758, "\u0120terrible": 25608, "\u0120swap": 25348, "\u0120scrap": 23913, "\u0120pursue": 22546, "\u0120wholly": 27174, "\u0120textbook": 25634, "\u0120dyon": 15815, "lifetimes": 6522, "\u0120differ": 15338, "\u0120limitation": 19511, "\u0120explanation": 16471, "\u0120acyclic": 11679, "\u0120child": 13605, "\u0120limitations": 19512, "\u0120workarounds": 27288, "\u0120exec": 16373, "tail": 9468, "\u0120xxx": 27419, "\u0120eof": 16163, "\u0120hit": 17889, "\u0120continuously": 14326, "\u0120ends": 16075, "\u0120pin": 21828, "\u0120refcell": 23005, "\u0120myasyncstream": 20537, "async": 2353, "oth": 7625, "ertrait": 4403, "self": 8885, ">.": 1572, "workaround": 10442, "\u0120mutex": 20519, "mutable": 7056, "borrow": 2729, "\u0120synchronization": 25396, "\u0120welcome": 27124, "\u0120discouraged": 15451, "\u0120reasonably": 22829, "\u0120transparent": 26007, "\u0120transparently": 26008, "running": 8712, "\u01202008": 11144, "\u0120webhost": 27087, "sorry": 9141, "uss": 10100, "\u0120reproduce": 23300, "\u0120iron": 18883, "\u0120middleware": 20135, "\u0120earlier": 15825, "\u0120unavailable": 26311, "\u0120roughly": 23633, "\u0120vendor": 26831, "jks": 6219, "\u0120jms": 19015, "\u0120proof": 22410, "\u0120websphere": 27103, "keystore": 6304, "\u0120loads": 19605, "\u0120keypair": 19145, "private": 8121, "\u0120bount": 13071, "\u0120issuer": 18914, "\u0120mutual": 20523, "aka": 1956, "someone": 9132, "loys": 6678, "\u0120generation": 17302, "\u0120pseudo": 22489, "\u012049": 11265, "\u0120curand": 14699, "\u0120pr": 22079, "n": 7082, "most": 6988, "init": 5834, "\u0120seed": 24003, "\u0120subsequence": 25130, "\u0120offset": 21075, "\u0120demonstrate": 15070, "datas": 3658, "et": 4435, "\u0120freeing": 17097, "\u0120af": 11797, "ter": 9524, "\u0120wont": 27275, "\u0120glibc": 17401, "\u0120malloc": 19819, "\u0120corruption": 14466, "sum": 9388, "\u0120calculated": 13296, "\u0120addr": 11709, "\u0120flags": 16852, "\u0120geforce": 17278, "310": 870, "\u0120arithmetic": 12259, "\u0120ordinary": 21235, "\u0120hierarchical": 17855, "\u0120route": 23642, "\u0120scopes": 23901, "\u0120\u00e2\u0122\u0135": 27561, "\u0120piggy": 21824, "backing": 2495, "\u0120routes": 23645, "\u0120interpreting": 18739, "\u0120pi": 21801, "uring": 10050, "\u0120postgresql": 22057, "\u0120terminal": 25592, "\u0120interact": 18666, "ip": 5973, "\u0120listen": 19556, "\u0120socket": 24543, "\u0120manages": 19829, "\u0120supplied": 25276, "\u0120hostname": 17974, "\u0120supplying": 25280, "\u0120\"\".": 10785, "\u0120instructing": 18618, "\u0120ip": 18864, "\u0120reflects": 23042, "\u0120yours": 27458, "\u0120listens": 19561, "\u0120loopback": 19681, "\u0120adapter": 11687, "\u0120postgres": 22056, "\u01201023": 11059, "arrays": 2272, "\u0120giant": 17358, "\u0120looping": 19684, "inclusive": 5759, "\u0120annoying": 12079, "\u0120hood": 17937, "\u0120smarter": 24493, "bluss": 2697, "\u0120contributed": 14346, "\u0120impressive": 18259, "\u0120quality": 22617, "\u0120improvements": 18266, "\u0120arc": 12218, ">>?": 1584, "broken": 2778, "'?": 128, "\u0120vm": 26935, "\u0120modeling": 20298, "\u0120layered": 19301, "\u0120vie": 26881, "wn": 10426, "\u0120rend": 23213, "ern": 4387, "\u0120trees": 26046, "tree": 9725, "ert": 4399, "ree": 8419, "\u0120resorting": 23387, "\u0120rc": 22756, "<>": 1518, "\u0120children": 13606, "\u0120force": 16975, "<>.": 1519, "\u0120inde": 18352, "xt": 10539, "\u0120(,": 10929, "..)": 345, "\u0120traversal": 26022, "\u0120downside": 15677, "removed": 8476, "\u0120dangling": 14784, "removing": 8478, "\u0120guaranteed": 17610, "83": 1330, "88": 1364, "eec": 4128, "346": 909, "633": 1174, "72": 1237, "\u0120pool": 21992, "\u0120tackle": 25444, "autore": 2450, "\u0120describes": 15165, "anonymous": 2129, "\u0120applied": 12172, "\u0120previously": 22244, "\u0120anonymous": 12086, "live": 6587, "\u0120segfault": 24020, "detail": 3820, "scalar": 8788, "reduce": 8413, "first": 4751, "130474": 613, "0000": 412, "last": 6380, "00": 410, "values": 10158, "047": 503, "40": 954, "output": 7680, "04": 489, "600": 1143, "pred": 8059, "=...": 1542, "usr": 10099, "6": 1141, "/../": 396, "targets": 9484, "include": 5755, "\u012061": 11295, "\u0120interprets": 18740, "\u0120seg": 24019, "\u0120covered": 14507, "\u0120wonder": 27269, "raw": 8331, "\u0120stl": 24929, "\u0120permits": 21722, "\u0120mechanisms": 20007, "resident": 8530, "\u0120modification": 20311, "asm": 2308, "soft": 9114, "test": 9537, "\u0120unreachable": 26539, "\u0120var": 26773, "\u0120matched": 19924, "\u0120four": 17052, "\u0120shallow": 24185, "\u0120differentiate": 15343, "\u0120strict": 24984, "\u0120[]": 11438, "shallow": 8970, "\u0120exceptions": 16349, "\u0120shibboleth": 24217, "\u0120idp": 18117, "\u0120azure": 12597, "\u0120portal": 22017, "roll": 8639, "\u0120aad": 11504, "\u0120speak": 24644, "azure": 2482, "devices": 3839, "hy": 5444, "brid": 2773, "join": 6231, "federated": 4662, "domains": 3965, "\u0120protocols": 22452, "\u0120wich": 27181, "\u0120speaks": 24647, "federation": 4663, "clo": 3165, "ak": 1955, "\u0120passive": 21588, "\u0120w": 26982, "\u0120resolve": 23380, "\u0120expands": 16430, "\u0120opens": 21152, "\u0120validated": 26754, "\u0120enlighten": 16099, "\u0120servers": 24131, "\u0120prove": 22459, "intermediate": 5908, "\u0120redundant": 22991, "\u0120partitioning": 21573, "secure": 8844, "\u0120vendors": 26833, "\u0120processes": 22324, "hypoth": 5450, "etical": 4455, "1000": 551, "\u0120b": 12598, "5000": 1057, "6000": 1144, "\u0120physical": 21798, "\u0120mappings": 19873, "\u0120inaccessible": 18274, "\u0120virtue": 26908, "\u0120ns": 20902, "380": 933, "\u0120successor": 25201, "\u0120unlikely": 26477, "\u0120unusable": 26612, "\u0120mmu": 20279, "\u0120hardwired": 17727, "\u0120sram": 24764, "\u0120masterapp": 19919, "\u0120slaveapp": 24447, "\u0120fe": 16677, "\u0120somebody": 24574, "\u0120slave": 24446, "\u0120providing": 22472, "\u0120goin": 17447, "\u0120encrypting": 16055, "\u0120paramaters": 21502, "\u0120encryption": 16056, "\u0120epoch": 16173, "\u0120decode": 14914, "\u0120sal": 23779, "\u0120ruby": 23683, "el": 4168, "\u0120ect": 15857, "\u0120replay": 23263, "\u0120master": 19918, "\u0120->": 11001, "\u0120signing": 24330, "\u0120attacker": 12453, "\u0120clock": 13743, "\u0120establish": 16250, "\u0120forked": 17007, "\u0120nonce": 20810, "\u0120**": 10975, "\u0120dereferences": 15140, "\u0120precedence": 22106, "\u0120whereby": 27147, "\u0120dereferenced": 15139, "\u0120endpoint": 16073, "\u0120throws": 25738, "\u0120resources": 23389, "\u0120wsdl": 27361, "byte": 2842, "\u0120condition": 14137, "\u0120improve": 18263, "\u0120pick": 21803, "\u0120biggest": 12844, "strings": 9336, "\u0120proposal": 22427, "\u0120instantiation": 18607, "\u0120templates": 25561, "entry": 4322, "selected": 8880, "\u0120manner": 19856, "\u0120arbitrarily": 12216, "\u0120scattered": 23868, "\u0120compacted": 13957, "\u0120compaction": 13959, "automatically": 2449, "\u0120premium": 22175, "\u0120intact": 18632, "presumably": 8084, "62": 1163, "\u0120nb": 20632, "\u0120accessing": 11580, "\u0120discord": 15447, "\u0120loops": 19685, "\u0120stays": 24889, "\u0120locked": 19631, "\u0120occurred": 21033, "\u0120reddit": 22955, "\u0120guard": 17614, "\u0120retained": 23448, "\u0120deadlock": 14853, "\u0120mutexes": 20521, "\u0120reentrant": 22995, "\u0120lies": 19471, "\u0120fetching": 16717, "\u0120actions": 11652, "\u0120respective": 23394, "\u0120porting": 22020, "\u0120php": 21790, "\u0120multidimensional": 20463, "\u0120excerpt": 16351, "\u0120codebase": 13815, "\u0120awful": 12581, "\u0120ph": 21770, "typed": 9804, "\u0120replicate": 23265, "\u0120efficiently": 15888, "tol": 9662, "ant": 2137, "\u0120indexes": 18374, "\u0120iss": 18909, "ets": 4468, "\u0120identifiers": 18094, "\u0120associative": 12385, "\u0120maps": 19874, "\u0120dictionaries": 15324, "\u0120defines": 15000, "instead": 5882, "plus": 7962, "\u0120places": 21874, "\u0120densely": 15093, "\u0120packed": 21416, "\u0120m": 19757, "\u0120remember": 23184, "\u0120pallets": 21461, "\u0120furthermore": 17198, "generic": 5009, "\u0120pallet": 21458, "\u0120coordinates": 14418, "\u0120corners": 14437, "\u0120extracting": 16546, "\u0120equations": 16185, "\u0120corner": 14436, "\u0120trigonometry": 26077, "\u0120projected": 22379, "\u0120inverse": 18818, "inside": 5868, "\u0120coordinate": 14417, "\u0120homogeneous": 17930, "\u0120leveldb": 19393, "tag": 9464, "encoding": 4241, "usize": 10097, "\u0120deserializer": 15183, "\u0120ranges": 22723, "\u0120trentcl": 26052, "\u0120blade": 12919, "\u0120directives": 15389, "\u0120authorized": 12516, "\u0120oh": 21080, "....": 356, "entrust": 4319, "\u0120capabilities": 13347, "while": 10378, "\u0120toy": 25914, "\u0120terminate": 25594, "(&": 145, "\u0120ampersand": 12007, "\u0120certainly": 13492, "\u0120calculates": 13298, "\u0120splits": 24719, "\u0120advise": 11784, "\u0120traverse": 26024, "\u0120hygiene": 18052, "\u0120pastes": 21597, "\u0120boilerplate": 12999, "\u0120preventing": 22239, "hygienic": 5446, "drawing": 3998, "\u0120car": 13369, "\u0120rectangle": 22931, "defin": 3738, "itely": 6076, "\u0120aesthetics": 11796, "\u0120outline": 21309, "\u0120burdensome": 13234, "\u0120worry": 27311, "checked": 3055, "\u0120gcc": 17264, "\u0120powerpc": 22074, "\u0120arch": 12222, "mlongcall": 6945, "\u0120\"-": 10811, "call": 2874, "\u0120llvm": 19592, "\u0120invoking": 18844, "through": 9600, "\u0120interested": 18688, "\u0120llvms": 19595, "\u0120asan": 12307, "\u0120ouput": 21291, "flag": 4771, "\u0120commit": 13931, "\u012031": 11215, "69": 1213, "\u0120subsequent": 25131, "\u0120linking": 19540, "\u0120bindgen": 12862, "\u0120whitelisted": 27164, "\u0120greatly": 17550, "\u0120directive": 15388, "\u0120inappropriate": 18281, "\u0120bother": 13051, "\u0120eg": 15892, "\u0120moral": 20376, "\u0120statements": 24869, "\u0120efficiency": 15886, "\u0120enums": 16148, "\u0120arguably": 12246, "\u0120concise": 14117, "panicking": 7751, "\u0120comparatively": 13968, "\u0120proto": 22448, "\u0120protobuf": 22449, "\u0120kent": 19124, "\u0120confirmed": 14168, "\u0120flatbuffers": 16863, "be": 2555, "\u0120allocators": 11924, "\u0120grow": 17588, "\u0120edits": 15872, "\u0120extended": 16525, "\u0120period": 21704, "\u0120reloaded": 23159, "\u0120rear": 22821, "\u0120reclaim": 22877, "\u0120wasted": 27038, "\u0120rec": 22853, "ying": 10565, "\u0120widely": 27184, "used": 10081, "gc": 4979, "moving": 6999, "\u0120considering": 14236, "\u0120extending": 16526, "\u0120classes": 13691, "\u0120timeline": 25781, "\u0120overloading": 21361, "\u0120involved": 18847, "\u0120ergonomic": 16206, "\u0120semantics": 24050, "\u0120expressing": 16514, "\u0120imo": 18193, "\u0120ergonomics": 16208, "\u0120intoiterator": 18771, "\u0120&'": 10851, ">>": 1577, "\u0120surely": 25301, "doesn": 3958, "\u0120reconc": 22904, "iled": 5644, "\u0120ubiquitous": 26264, "root": 8648, "\u0120la": 19224, "\u0120blanks": 12929, "\u0120indirection": 18393, "hide": 5333, "\u0120divergence": 15552, "\u0120obscure": 20988, "\u0120skipping": 24431, "\u0120hangman": 17703, "\u0120guessed": 17621, "\u0120debugger": 14878, "\u0120j": 18952, "uts": 10129, "\u0120vscode": 26967, "\u0120lldb": 19589, "\u0120lend": 19366, "\u0120nonempty": 20816, "\u0120meant": 19989, "\u0120shadowed": 24179, "\u0120shadowing": 24180, "42": 982, "introdu": 5937, "ces": 3007, "creates": 3510, "right": 8600, "hand": 5238, "inner": 5854, "loop": 6660, "\u0120touched": 25905, "closures": 3178, "\u0120distinguish": 15528, "\u0120iiuc": 18144, "hopefully": 5382, "move": 6995, "herr": 5316, "\u0120equivalently": 16190, "\u0120nope": 20836, "\u0120inferred": 18436, "\u0120capture": 13365, "\u0120annotate": 12068, "\u0120nutshell": 20948, "\u0120params": 21517, "\u0120cloneable": 13752, "\u0120oauth": 20966, "\u0120retrieve": 23458, "\u0120uniform": 26432, "\u0120unsigned": 26572, "\u0120uniformly": 26433, "\u0120slowing": 24482, "\u0120hot": 17977, "\u0120scheme": 23885, "\u0120randomness": 22718, "\u0120knowing": 19202, "\u0120modern": 20308, "\u0120architectures": 12227, "\u0120instruction": 18619, "pop": 8002, "\u0120bottleneck": 13056, "\u0120cryptographically": 14628, "\u0120insecure": 18551, "\u0120qualify": 22615, "\u0120listening": 19560, "\u0120ports": 22023, "\u0120handles": 17692, "\u0120packets": 21418, "\u0120bundle": 13228, "\u0120intern": 18713, "odes": 7343, "erver": 4407, "\u0120inter": 18665, "\u0120channels": 13552, "\u0120!\"": 10777, "\u0120piece": 21818, "\u0120bumped": 13224, "\u0120\"!\"": 10782, "\u0120indicator": 18387, "\u0120unconditionally": 26345, "\u0120infinite": 18440, "\u0120appendix": 12158, "\u0120diverging": 15555, "diverging": 3922, "never": 7158, "\u0120stabilized": 24804, "\u0120coerced": 13837, "\u0120subtype": 25177, "bottom": 2737, "\u0120stable": 24807, "\u0120fnv": 16925, "\u0120dead": 14851, "41": 969, "799": 1290, "84": 1337, "\u01202020": 11157, "27": 822, "cd": 2960, "ieve": 5574, "\u0120ch": 13525, "aging": 1927, "pect": 7832, "\u0120pythons": 22584, "\u0120facility": 16575, "ian": 5460, "\u0120company": 13963, "yname": 10573, "\u0120mismatched": 20228, "\u0120official": 21071, "\u0120applying": 12175, "\u0120query": 22638, "\u0120filename": 16760, "\u0120assigned": 12364, "(),": 162, "owned": 7708, "\u0120st": 24794, "ices": 5492, "ch": 3023, "12": 591, "03": 477, "impro": 5731, "ving": 10242, "handling": 5246, "ular": 9871, "ity": 6125, "\u0120woes": 27263, "\u01202015": 11152, "\u0120beta": 12820, "\u0120testers": 25623, "\u0120heart": 17795, "burn": 2830, "full": 4921, "partial": 7783, "\u0120zone": 27499, "permissions": 7861, "\u0120forced": 16976, "\u0120regards": 23069, "superuser": 9397, "questions": 8269, "125": 603, "25": 801, "75": 1257, "install": 5873, "clickonce": 3155, "application": 2182, "settings": 8950, "\u0120asks": 12324, "\u0120permit": 21721, "\u0120machines": 19765, "fcc": 4645, "52": 1078, "480": 1040, "152": 645, "551": 1106, "bb": 2533, "click": 3153, "calculate": 2868, "visible": 10252, "blogs": 2691, "rim": 8604, "akey": 1962, "2009": 712, "05": 506, "my": 7066, "permission": 7860, "set": 8942, "controls": 3422, "go": 5116, "visualstudio": 10257, "deployment": 3773, "configure": 3347, "prom": 8168, "pt": 8204, "behavior": 2579, "view": 10234, "2015": 719, "\u0120aquire": 12213, "<'": 1499, "\u0120boils": 13001, "\u0120inserted": 18555, "\u0120omit": 21102, "\u0120falls": 16619, "\u0120subscription": 25125, "\u0120persist": 21735, "\u0120satisfying": 23824, "\u0120satisfy": 23823, "\u0120retains": 23450, "\u0120failures": 16599, "\u0120enumerates": 16143, "\u0120unspecified": 26582, "\u0120enumerate": 16141, "\u0120crazy": 14553, "\u0120cpp": 14517, "\u0120breadth": 13100, "\u0120hell": 17809, "\u0120broke": 13137, "\u0120beginner": 12754, "\u0120sco": 23897, "\u0120treenode": 26045, "\u0120highly": 17864, "\u0120thankful": 25647, "\u0120dylib": 15806, "\u0120dy": 15803, "li": 6481, "\u0120dylibs": 15807, "\u0120linear": 19521, "encies": 4235, "\u0120upstream": 26668, "file": 4716, "\u0120inf": 18422, "ront": 8646, "ciate": 3091, "ning": 7188, "~": 10656, "\u0120'/": 10885, "developer": 3834, "nvidia": 7286, "\u0120crashed": 14543, "\u01202013": 11150, "\u0120gt": 17601, "\u01202048": 11159, "\u0120proces": 22321, "sex": 8953, "pl": 7935, "orer": 7556, "\u0120monitor": 20345, "\u012016": 11114, "\u0120notify": 20878, "close": 3173, "]\".": 1658, "\u0120clicking": 13724, "\u0120robert": 23586, "21": 738, "22": 757, "\u0120continuous": 14325, "\u0120virtually": 26906, "\u0120raised": 22702, "\u0120catch": 13422, "\u0120her": 17824, "henry": 5311, "oo": 7476, "uf": 9849, "uh": 9861, "eng": 4265, "\u0120sizeof": 24414, "int": 5885, "\u0120gb": 17259, "\u0120ram": 22707, "\u0120entity": 16130, "\u0120edmx": 15873, "pit": 7923, ".'": 333, "\u0120critical": 14580, "\u0120patch": 21600, "\u0120eventual": 16294, "\u0120domain": 15627, "\u0120groups": 17587, "\u0120foreign": 16984, "\u0120identifier": 18093, "\u0120sid": 24289, "\u0120ds": 15744, "enumerated": 4330, "omain": 7422, "trusts": 9760, "\u0120updating": 26642, "identifier": 5538, "\u0120converts": 14393, "\u012024": 11182, "\u0120digits": 15367, "\u0120criticism": 14582, "\u0120hopefully": 17950, "wikipedia": 10396, "machine": 6712, "ids": 5557, "\u0120ldap": 19316, "domain": 3962, "\u0120repl": 23255, "\u0120completion": 14020, "\u0120introspection": 18791, "\u0120racer": 22685, "\u0120facto": 16578, "\u0120abort": 11529, "++/": 277, "embedded": 4201, "inter": 5898, "oper": 7499, "ability": 1754, "\u0120teaches": 25528, "ty": 9799, "\u0120sucess": 25204, "++:": 278, "\u0120members": 20029, "ar": 2204, "rive": 8610, "\u0120restart": 23413, "\u0120substrate": 25155, "\u0120reload": 23158, "\u0120systemd": 25430, "\u0120echo": 15845, "\u0120opencv": 21141, "decode": 3716, ">?": 1586, "\u0120addition": 11703, "\u0120uncomfortable": 26337, "\u0120embedding": 15963, "\u0120referring": 23027, "\u0120neccessary": 20652, "\u0120destructor": 15226, "\u0120brevity": 13112, "++,": 274, "\u0120interoperating": 18727, "unsafe": 9986, "\u0120versatile": 26852, "ie": 5559, "\u0120accompanied": 11592, "\u0120induces": 18403, "\u0120comfortable": 13913, "\u0120simplifying": 24371, "francis": 4888, "\u0120gagne": 17221, "\u0120ultimately": 26290, "\u0120unsafety": 26563, "typical": 9810, "\u0120interacting": 18667, "owning": 7712, "\u0120gains": 17225, "allocation": 2014, "\u0120road": 23582, "\u0120libssh": 19451, "\u0120stops": 24942, "\u0120dirty": 15396, "\u0120debian": 14873, "\u0120kb": 19109, "\u0120asci": 12312, "\u0120odd": 21050, "\u0120mb": 19970, "\u0120reader": 22783, "\u0120interrupted": 18745, "\u0120signal": 24312, "\u0120remotely": 23199, "\u0120trans": 25958, "\u0120beforehand": 12749, "\u0120yesterday": 27444, "\u0120avr": 12568, "\u0120automate": 12535, "\u0120linker": 19538, "\u0120workflow": 27294, "\u0120politely": 21969, "\u0120cutting": 14740, "\u0120edge": 15860, "\u0120contributors": 14351, "\u0120series": 24120, "\u0120scripts": 23933, "\u0120makefile": 19809, "\u0120xargo": 27383, "\u0120rum": 23695, "bles": 2676, "\u0120subcommand": 25077, "\u0120recompiling": 22901, "\u0120maintainability": 19796, "\u0120summarized": 25245, "\u0120deploying": 15119, "\u0120precision": 22116, "env": 4332, "current": 3600, "().": 163, "\u0120manager": 19827, "\u0120tar": 25481, "\u0120zip": 27483, "\u0120decompressing": 14926, "although": 2040, "\u0120contract": 14330, "erc": 4363, "hash": 5264, "ru": 8696, "sh": 8961, "testnet": 9543, "\u0120erc": 16201, "ting": 9627, "\u0120burn": 13236, "ated": 2362, "\u0120attach": 12446, "\u0120gas": 17245, "gas": 4968, "\u0120tx": 26223, "\u0120decrease": 14943, "\u0120successful": 25196, "\u0120deposit": 15122, "31": 869, "0000000000000000": 417, "cli": 3151, "\u0120keeping": 19121, "\u0120pairs": 21449, "\u0120converted": 14388, "\u0120acheive": 11624, "implementations": 5713, "ae": 1898, "249": 797, "91": 1389, "cb": 2944, "55": 1105, "eb": 4075, "\u0120explore": 16489, "\u0120fromstr": 17130, "rr": 8682, "dispatch": 3905, "price": 8095, "\u0120bold": 13002, "{": 10633, "\\\"": 1645, "tle": 9641, "date": 3661, "\\\":": 1647, "2019": 723, "24": 777, "50": 1055, "\\\",": 1646, "region": 8443, "ic": 5481, "}\\": 10654, "\u0120recommendations": 22893, "help": 5305, "\u0120disappearing": 15420, "\u0120deliberately": 15040, "\u0120hurt": 18046, "\u0120wr": 27325, "angle": 2110, "\u0120ndarray": 20637, "\u0120dot": 15645, "\u0120products": 22341, "\u0120indexed": 18372, ":///": 1469, "le": 6416, "ong": 7460, "ab": 1743, "toolchains": 9672, "apple": 2180, "darwin": 3644, "\u0120threw": 25726, "template": 9513, "\u0120$": 10844, "git": 5076, "templated": 9514, "ir": 5990, "core": 3451, "exists": 4536, "\u0120git": 17373, "al": 1967, "te": 9497, "\u0120cli": 13721, "\u0120hassle": 17753, "\u0120piped": 21840, "\u0120interactive": 18670, "\u0120nowhere": 20895, "\u0120attempted": 12461, "everything": 4492, "\u0120philosophy": 21784, "bes": 2606, "ide": 5528, "\u0120atty": 12476, "is": 6010, "\u0120recognize": 22884, "\u0120attaching": 12449, "\u0120member": 20028, "integer": 5887, "95": 1416, "ca": 2850, "35": 912, "cbd": 2948, "07": 524, "\u0120unsizing": 26575, "\u0120unzip": 26630, "\u0120corrupted": 14464, "\u0120actix": 11669, "\u0120viewer": 26885, "\u0120credentials": 14567, "meaning": 6829, "\u0120xor": 27409, "\u0120xored": 27410, "\u0120differnt": 15348, "\u0120frame": 17075, "\u0120redraw": 22980, "\u0120rate": 22739, "\u0120glium": 17405, "\u012060": 11292, "\u0120redrawn": 22981, "\u0120glutin": 17428, "red": 8406, "\u0120perusing": 21752, "\u0120apis": 12129, "\u0120scrolling": 23935, "\u0120handler": 17690, "\u0120subsonic": 25140, "\u0120dreaded": 15716, "cale": 2873, "\u0120increasingly": 18337, "\u0120ditch": 15544, "\u0120mike": 20152, "frame": 4883, "groups": 5180, "google": 5128, "subsonic": 9367, "project": 8162, "browse": 2782, "418": 979, "975": 1435, "\u0120planned": 21883, "\u0120simpl": 24360, "ository": 7609, "\u0120focus": 16928, "\u0120door": 15640, "\u0120fixes": 16841, "\u0120outstanding": 21328, "\u0120schedule": 23879, "nd": 7117, "\u0120march": 19878, "\u01202010": 11147, "\u0120insertable": 18554, "\u0120diesel": 15333, "\u0120floating": 16897, "\u0120label": 19226, "sql": 9195, "float": 4792, "\u0120mismatch": 20227, "\u0120schema": 23884, "generated": 5004, "\u0120extends": 16527, "\u0120nullable": 20925, "\u0120rational": 22744, "\u0120rewrite": 23522, "may": 6810, "\u0120stick": 24922, "initialize": 5838, "\u0120slightly": 24468, "\u00e2\u0122\u0136": 10726, "does": 3957, "\u0120merely": 20066, "\u0120desugared": 15235, "\u0120polymorphism": 21986, "\u0120school": 23887, "\u0120came": 13321, "\u0120rusts": 23742, "successful": 9376, "\u0120john": 19030, "\u0120precisely": 22114, "\u0120unpack": 26519, "\u0120constituent": 14258, "\u0120compress": 14063, "\u0120subimage": 25093, "\u0120conveniently": 14370, "\u0120ferris": 16712, "\u0120cropped": 14591, "\u0120striving": 25007, "\u0120serve": 24126, "('.": 148, "pkg": 7931, "\u0120readme": 22791, "\u0120tempting": 25571, "zer": 10603, "ms": 7021, "whitespace": 10382, "split": 9181, "off": 7356, "\u0120funcion": 17175, "ndarray": 7119, "arraybase": 2270, "\u0120sidebar": 24291, "\u0120views": 26890, "\u0120initializing": 18506, "open": 7488, "\u0120gone": 17453, "chunk": 3087, "actually": 1840, "\u0120logically": 19650, "\u0120unordered": 26515, "\u0120liberty": 19424, "\u0120fiddling": 16735, "\u0120highlight": 17860, "\u0120similarities": 24354, "\u0120differences": 15340, "\u0120compet": 13986, "dk": 3927, "\u0120elaborate": 15905, "\u0120playpen": 21903, "\u0120transformed": 25974, "\u0120stand": 24835, "eye": 4592, "\u0120glf": 17394, "ust": 10101, "rum": 8706, "\u0120face": 16567, "\u0120exploiting": 16485, "that": 9555, "\u0120denominator": 15086, "\u0120eye": 16559, "\u0120perpendicular": 21731, "\u0120scaled": 23853, "\u0120spawn": 24639, "\u0120rejects": 23119, "led": 6434, "invisible": 5951, "\u0120claiming": 13672, "\u0120cheat": 13578, "\u0120bump": 13223, "\u0120tenet": 25579, "\u0120workers": 27293, "\u0120deferring": 14991, "\u0120cells": 13468, "\u0120wrappers": 27334, "\u0120resort": 23385, "\u0120fight": 16745, "\u0120inherit": 18477, "ble": 2673, "\u0120destructuring": 15232, "\u0120destructure": 15229, "\u0120dozens": 15685, "ower": 7704, "flow": 4796, "chris": 3079, "\u0120emerson": 15975, "\u0120ipv": 18877, "\u0120len": 19365, "\u0120adapt": 11683, "hey": 5320, "\u0120reinterpret": 23105, "\u0120divisible": 15565, "\u0120lax": 19298, "\u0120ignores": 18136, "\u0120critique": 14584, "\u0120harsh": 17733, "102": 559, "ea": 4056, "664": 1195, "65": 1188, "ccb": 2952, "\u0120bitcoin": 12881, "\u0120curl": 14704, "\u0120meaningful": 19984, "\u0120reset": 23359, "\u0120openmp": 21150, "\u0120behaving": 12769, "\u0120grid": 17568, "block": 2684, "\u0120globally": 17410, "\u0120broken": 13138, "\u0120launching": 19292, "idx": 5558, "\u0120blockidx": 12955, "\u0120threadidx": 25714, "unique": 9956, "correct": 3454, "kernel": 6291, "\u0120calculation": 13300, "\u0120populates": 22005, "ention": 4307, "\u0120levels": 19394, "\u0120enclosing": 16032, "\u0120frequently": 17112, "\u0120ubuntu": 26266, "\u012014": 11097, "nightly": 7184, "\u0120xlib": 27399, "\u0120libclang": 19417, "load": 6617, "dev": 3828, "\u0120boiled": 12997, "\u0120alas": 11875, "\u0120allocates": 11919, "\u0120\u00e2\u013a": 27594, "\u00ba": 10684, "\u0120sorted": 24603, "iznich": 6160, "\u0120serializ": 24109, "deserializing": 3800, "\u0120derives": 15152, "\u0120coercions": 13842, "let": 6462, "\u0120coerces": 13838, "\u0120nop": 20835, "\u0120joy": 19044, "\u0120advantages": 11769, "\u0120solving": 24571, "\u0120glsl": 17420, "\u0120tessellation": 25616, "\u0120patches": 21602, "\u0120drastically": 15703, "\u0120increase": 18333, "\u0120margin": 19881, "irt": 6006, "\u0120nam": 20581, "\u0120triangle": 26056, "\u0120beh": 12761, "emy": 4222, "\u0120cull": 14681, "\u0120visibility": 26912, "\u0120curiosity": 14701, "\u0120triggered": 26073, "fields": 4709, "0603": 522, "\u0120oversight": 21373, "\u0120immaterial": 18182, "public": 8212, "\u0120handlebars": 17688, "\u0120ultimate": 26289, "prints": 8114, "\u0120samples": 23792, "minimal": 6915, "\u0120versioning": 26857, "ros": 8655, "mozilla": 7000, "\u0120incompatible": 18314, "\u0120careful": 13375, "\u0120usecase": 26693, "\u0120trigger": 26072, "\u0120reallocation": 22812, "\u0120exchange": 16356, "ud": 9834, "\u0120refrain": 23052, "\u0120trade": 25935, "\u0120refactor": 23002, "has": 5263, "\u0120unresolved": 26551, "\u0120namespacing": 20590, "\u0120detail": 15242, "according": 1793, "\u0120bet": 12819, "\u0120refuse": 23057, "\u0120yanked": 27429, "\u0120todo": 25835, "\u0120backing": 12611, "zing": 10611, "gd": 4984, "ol": 7399, "q": 8238, "\u0120duplicate": 15783, "page": 7738, "\u0120preallocated": 22097, "\u0120confirm": 14166, "\u0120middle": 20133, "\u0120offer": 21064, "into": 5928, "\u0120prepare": 22180, "gra": 5146, "hp": 5400, "ql": 8243, "\u0120sqlx": 24752, "graphql": 5160, "\u0120chaining": 13530, "\u0120mcve": 19975, "\u0120gate": 17247, "\u0120generalize": 17292, "\u0120phrase": 21792, "\u0120concisely": 14118, "\u0120love": 19708, "\u0120respected": 23392, "\u0120engineering": 16088, "chain": 3025, "fix": 4761, "\u0120leaf": 19324, "\u0120directories": 15391, "leaf": 6419, "\u0120subdirectories": 25080, "\u0120comprehension": 14060, "\u0120jboss": 18985, "\u0120virt": 26902, "\u0120standalone": 24836, "\u0120configuring": 14162, "port": 8007, "\u0120443": 11255, "\u0120vault": 26797, "\u0120dv": 15797, "\u0120browse": 13144, "\u0120displayed": 15499, "\u0120advanced": 11764, "://:": 1470, "8443": 1343, "\u0120unsupported": 26594, "\u0120suite": 25236, "\u0120contact": 14292, "\u0120properties": 22421, "\u0120contrast": 14339, "\u0120refresh": 23053, "\u0120minutes": 20199, "\u0120sens": 24064, "\u0120dashboard": 14791, "\u0120md": 19976, "\u0120speaking": 24646, "\u0120presents": 22206, "\u0120issuers": 18916, "\u0120certify": 13506, "\u0120preceding": 22109, "pkcs": 7929, "cert": 2993, "]'": 1660, "cer": 2991, "\u0120exported": 16499, "yaml": 10552, "\u0120david": 14832, "\u0120chop": 13623, "\u0120firstly": 16827, "turn": 9788, "\u0120erroring": 16222, "\u0120sslsocket": 24785, "\u0120restrictive": 23430, "\u0120revoke": 23513, "\u0120eliminating": 15938, "\u0120pem": 21672, "\u0120revocation": 23512, "\u0120pki": 21863, "\u0120infrastructure": 18465, "\u0120ocsp": 21040, "\u0120status": 24882, "\u0120effort": 15889, "\u0120fingerprints": 16799, "white": 10379, "\u0120revoked": 23514, "blacklist": 2666, "\u0120fingerprint": 16798, "\u0120crls": 14587, "\u0120distributed": 15538, "\u0120scales": 23854, "\u0120multiline": 20466, "\u0120recognizes": 22886, "discard": 3897, "until": 10001, "\u0120discards": 15435, "\u0120concern": 14112, "\u0120ensuring": 16113, "\u0120callback": 13309, "\u0120heavy": 17799, "\u0120traditional": 25940, "\u0120threading": 25715, ">,": 1570, "\u0120constructed": 14269, "\u0120deconstructed": 14929, "masklinn": 6782, "trivial": 9736, "depth": 3777, "\u0120exit": 16419, "\u0120computers": 14084, "common": 3269, "\u0120fullstrust": 17168, "!!": 1, "\u0120wmi": 27261, "?.": 1616, "\u0120toplevel": 25888, "handlede": 5241, "inf": 5806, "\u0120cit": 13660, "rix": 8612, "byname": 2841, "\u0120desirable": 15202, "\u0120vb": 26798, "activate": 1822, "\u0120speculate": 24680, "ran": 8310, "\u0120troubleshoot": 26097, "\u0120troubleshooting": 26098, "\u0120challenge": 13535, "\u0120reports": 23282, "\u0120hint": 17878, "\u0120stub": 25037, "\u0120majority": 19805, "\u0120shim": 24223, "\u0120fallback": 16615, "\u0120monad": 20338, "\u0120monads": 20340, "bool": 2720, "\u0120stumbled": 25055, "\u0120boolean": 13016, "false": 4623, "\u0120exhaustive": 16402, "\u0120exhausting": 16400, "89": 1375, "ee": 4127, "657": 1192, "045": 500, "ffc": 4689, "da": 3627, "98": 1439, "igle": 5614, "swagger": 9420, "#/": 79, "network": 7155, "search": 8827, "!):": 19, "\u0120detailed": 15243, "\u0120instan": 18594, "se": 8822, "\u0120descriptive": 15169, "\u0120authorization": 12514, "\u0120401": 11242, "will": 10397, "\u0120const": 14252, "\u0120variation": 26783, "\u0120desugars": 15237, "including": 5758, "\u0120intrinsic": 18780, "\u0120overridden": 21368, "\u0120stumbling": 25057, "\u0120puts": 22556, "\u0120odds": 21054, "checker": 3056, "\u0120immutably": 18192, "\u0120lexical": 19402, "\u0120arms": 12269, "postgres": 8023, "\u0120mysql": 20553, "\u0120rows": 23651, "\u0120affected": 11805, "\u0120reflect": 23034, "\u0120rustpkg": 23741, "\u0120sadly": 23765, "\u0120workspaces": 27304, "\u0120cmake": 13792, "\u0120preferred": 22156, "lite": 6579, "ci": 3090, "\u0120shamelessly": 24187, "\u0120announced": 12075, "\u0120deference": 14988, "\u0120realize": 22803, "\u0120pointlessly": 21949, "\u0120blanket": 12928, "\u0120contexts": 14311, "\u0120away": 12579, "\u0120&(": 10852, "(*": 174, ")[": 232, "]).": 1665, "fat": 4635, "\u0120resize": 23374, "built": 2821, "\u0120ordered": 21229, "\u0120compelling": 13984, "oun": 7651, "sel": 8878, "\u0120ya": 27425, "\u0120comb": 13899, "\u0120renamed": 23208, "\u0120technically": 25538, "\u0120wild": 27199, "\u0120remarks": 23180, "\u0120transforming": 25976, "\u0120lowercase": 19714, "\u0120capitalized": 13356, "\u0120inspecting": 18575, "rlib": 8614, "\u0120rlib": 23570, "\u0120hal": 17668, "\u0120sequences": 24097, "\u0120metadata": 20094, "\u0120archive": 12228, "\u0120disassembly": 15428, "\u0120symbols": 25378, "\u0120mangled": 19839, "\u0120trustboxes": 26120, "\u0120trustbox": 26119, "\u0120componentdidmount": 14042, "loadfrom": 6620, "\u0120hours": 17981, "\u0120widget": 27188, "\u0120brave": 13096, "\u0120navigator": 20631, "17": 668, "slice": 9075, ");": 224, "\u0120\u0120\u0120\u0120\u0120\u0120\u0120\u0120\u0120\u0120\u0120\u0120\u0120\u0120\u0120\u0120\u0120\u0120\u0120\u0120\u0120\u0120\u0120\u0120\u0120\u0120\u0120\u0120\u0120\u0120\u0120\u0120": 27635, "\u0120\u0120\u0120\u0120\u0120\u0120\u0120\u0120\u0120\u0120\u0120\u0120\u0120\u0120\u0120\u0120\u0120": 27623, "\u0120^": 11444, "\u0120aborting": 11531, "44": 1000, "287": 841, "0800": 533, "\u0120upgrade": 26645, "\u0120newer": 20725, "\u0120yep": 27442, "\u0120super": 25255, "\u0120unrelated": 26548, "\u0120redundancy": 22990, "\u0120dining": 15379, "\u0120philosophers": 21782, "\u0120programmatically": 22361, "\u0120pushed": 22552, "\u0120onto": 21122, "\u0120philosopher": 21781, "\u0120imho": 18179, "\u0120expressive": 16518, "her": 5313, "\u0120fork": 17006, "\u0120qs": 22592, "\u0120promoted": 22396, "extract": 4584, "optionally": 7526, "\u0120acquire": 11639, "\u0120rewrote": 23526, "\u0120crystal": 14635, "fileiopermission": 4719, "\u0120mscorlib": 20429, "\u0120culture": 14689, "neutral": 7157, "\u0120publickeytoken": 22511, "77": 1272, "561934": 1115, "089": 538, "\u0120breakpoints": 13107, "\u0120fileiopermission": 16757, "mappath": 6763, "~/": 10657, "pur": 8219, "ase": 2294, "ill": 5658, "rpt": 8680, "\u0120hosted": 17969, "\u0120environments": 16158, "www": 10493, "blake": 2669, "pe": 7827, "2008": 711, "ry": 8750, "stal": 9237, "reports": 8502, "aspnet": 2313, "iis": 5634, "\u0120impersonation": 18208, "\u0120indexable": 18371, "\u0120embrace": 15966, "\u0120machinery": 19764, "\u0120nonblocking": 20809, "\u0120rustls": 23739, "\u0120301": 11214, "\u0120redirection": 22972, ")(": 204, "\u0120stencil": 24912, "\u0120protoc": 22450, "\u0120procedurally": 22314, "\u0120prot": 22440, "\u0120apache": 12121, "\u0120nifi": 20758, "\u0120youtube": 27461, "apis": 2164, "youtube": 10582, "comment": 3261, "threads": 9597, "****": 251, "plain": 7942, "part": 7782, "snippet": 9097, "vide": 10232, "oid": 7381, "ht": 5412, "oh": 7377, "max": 6805, "results": 8553, "eth": 4446, "ttp": 9775, "\u0120processor": 22326, "sslcontext": 9212, "peerunverifiedexception": 7838, "\u0120cacerts": 13278, "jdk": 6197, "60": 1142, "jre": 6241, "cacerts": 2855, "jira": 6214, "httpclient": 5423, "ifi": 5587, "54": 1097, "\u0120home": 17922, "\u0120confuses": 14186, "\u0120ceases": 13461, "\u0120/.": 11027, "\u0120accordingly": 11602, "\u0120defaults": 14980, "\u0120overcome": 21336, "\u0120supported": 25282, "\u0120incomplete": 18315, "\u0120mut": 20504, "\u0120\u00e2\u0122\u013b": 27564, "\u0120robust": 23592, "ness": 7147, "\u0120colored": 13889, ">`": 1590, "511": 1072, "66": 1193, "829": 1329, "\u0120swagger": 25345, "\u0120vcpkg": 26806, "\u0120native": 20617, "\u0120landed": 19249, "\u0120flaw": 16875, "\u0120picks": 21809, "\u0120macos": 19766, "\u0120ios": 18860, "\u0120defeats": 14983, "void": 10269, "\u0120legitimate": 19363, "\u0120inputs": 18544, "\u0120legit": 19362, "\u0120scoped": 23899, "\u0120encapsulates": 16024, "\u0120ci": 13642, "\u0120travis": 26028, "\u0120cython": 14759, "\u0120locates": 19624, "\u0120xcode": 27389, "dylib": 4049, "\u0120puzzled": 22560, "\u0120differs": 15349, "travis": 9723, "urschrei": 10071, "convertbng": 3432, "jobs": 6229, "136730": 622, "348": 911, "\u0120phase": 21774, "\u0120dist": 15518, "utils": 10120, "cpython": 3489, "pull": 8216, "\u0120rpath": 23653, "akes": 1961, "albeit": 1969, "\u0120refs": 23056, "\u0120elsewhere": 15951, "\u0120fore": 16981, "going": 5120, "\u0120pieced": 21819, "\u0120texture": 25639, "\u0120render": 23214, "\u0120suspicion": 25332, "\u0120intuitively": 18797, "\u0120scoured": 23907, "requested": 8515, "\u0120180": 11124, "\u0120benchmarked": 12798, "\u00c2\u00b5s": 10694, "\u0120reversed": 23494, "\u0120reversing": 23496, "\u0120170": 11120, "\u0120tolerable": 25861, "fps": 4875, "\u0120row": 23650, "\u0120framebuffer": 17076, "\u0120fullscreen": 17167, "reverse": 8569, "\u0120tweaking": 26208, "\u0120lastly": 19271, "\u0120room": 23612, "\u0120avoidable": 12563, "tracer": 9695, "\u0120mentions": 20057, "logger": 6639, "\u0120interfer": 18696, "\u0120opinion": 21177, "\u0120appealing": 12147, "\u0120ambiguities": 11987, "know": 6330, "\u0120presume": 22221, "\u0120identically": 18089, "\u0120fell": 16703, "\u0120favour": 16670, "\u0120nowadays": 20894, "\u0120consistency": 14239, "\u0120inconsistent": 18322, "\u0120camel": 13322, "\u0120reserved": 23356, "\u0120solely": 24559, "\u0120genuinely": 17320, "\u0120reflecting": 23036, "\u0120baked": 12642, "\u0120hyper": 18055, "fine": 4738, "\u0120utility": 26727, "\u0120benchmarks": 12800, "\u0120wildcard": 27200, "\u0120misunderstood": 20251, "\u0120forgot": 17004, "\u0120quotes": 22677, "\u0120finishes": 16804, "\u0120benefit": 12806, "\u0120grips": 17573, "\u0120figuring": 16751, "\u0120ton": 25869, "\u0120vladimir": 26933, "\u0120rosettacode": 23620, "\u0120choking": 13617, "\u0120multibyte": 20459, "zizaco": 10613, "driver": 4004, "\u0120caus": 13436, "\u0120combinators": 13903, "ok": 7385, "works": 10448, "\u0120abbreviate": 11514, "insert": 5865, "\u0120dubious": 15760, "\u0120sven": 25339, "\u0120marnach": 19898, "\u0120dumped": 15773, "\u012013": 11091, "195": 694, "\u0120uint": 26284, "\u0120approximately": 12197, "\u0120280": 11203, "\u0120atm": 12433, "\u0120ncurses": 20634, "\u0120asian": 12318, "\u0120catches": 13426, "_*": 1709, "\u0120translates": 25990, "\u0120presses": 22216, "\u0120sensor": 24070, "\u0120specifications": 24666, "\u0120accompanying": 11594, "\u0120spec": 24648, "\u0120fetched": 16715, "\u0120docx": 15611, "\u0120peruse": 21751, "\u0120accomplished": 11596, "\u0120ole": 21093, "\u0120locate": 19622, "\u0120extraction": 16547, "\u0120256": 11196, "\u0120seek": 24009, "zip": 10612, "extensions": 4580, "\u0120central": 13478, "\u0120eocd": 16162, "\u012005": 11040, "\u012006": 11042, "\u0120awesome": 12580, "06": 520, "#\"": 69, "bytes": 2845, "\u0120\"#": 10787, "\u0120cd": 13454, "total": 9685, "\u0120excluded": 16363, "blank": 2670, "():": 166, "\u0120seeking": 24010, "\u0120recognise": 22882, "\u0120tracker": 25930, "\u0120tied": 25764, "\u0120hesitant": 17834, "\u0120benefits": 12808, "\u0120apologies": 12133, "nomicon": 7212, "splitting": 9182, "\u0120entities": 16128, "\u0120radix": 22697, "\u0120traverses": 26026, "\u0120identified": 18092, "\u0120decides": 14895, "\u0120orders": 21232, "arrange": 2268, "\u0120delivered": 15052, "\u0120transposed": 26013, "\u0120rearrange": 22823, "\u0120columns": 13897, "\u0120driven": 15721, "\u0120omitted": 21104, "\u0120hinted": 17879, "consuming": 3393, "\u0120joins": 19035, "\u0120carrying": 13390, "something": 9136, "\u0120detect": 15246, "slices": 9076, "overlapping": 7693, "\u0120producing": 22336, "\u0120disjoint": 15482, "\u0120interoperable": 18725, "\u0120waking": 26995, "\u0120exa": 16320, "cly": 3191, "\u0120synchronously": 25402, "\u0120rank": 22724, "king": 6321, "\u0120permutation": 21726, "iterator": 6087, "things": 9583, "\u0120rearranged": 22824, "rank": 8318, "\u0120rearranging": 22826, "\u0120unixstream": 26473, "\u0120arrives": 12291, "\u0120hangs": 17704, "\u0120appending": 12157, "\u0120buf": 13184, "\u0120appended": 12155, "\u0120hang": 17701, "edwardw": 4125, "ted": 9506, "\u0120worst": 27314, "\u0120trimming": 26081, "808": 1308, "800": 1293, "800000000": 1297, "\u0120individually": 18398, "\u0120multiply": 20478, "\u0120strategic": 24962, "programming": 8157, "\u0120natural": 20619, "\u0120partic": 21559, "ula": 9870, "\u0120gotten": 17476, "\u0120early": 15827, "ures": 10045, "\u0120photoshop": 21789, "\u0120textures": 25640, "izes": 6158, "\u0120calculations": 13301, "\u0120met": 20091, "point": 7974, "\u0120fractional": 17067, "\u0120rotate": 23624, "\u0120nearly": 20644, "\u0120integral": 18637, "query": 8264, "dh": 3851, "collect": 3232, "\u0120'-": 10882, "214748": 746, "800007": 1298, "pdh": 7825, "\u0120println": 22273, "taken": 9474, "inspect": 5870, "\u0120geometric": 17324, "\u0120shapes": 24191, "\u0120shape": 24189, "\u0120refined": 23031, "\u0120subshapes": 25135, "\u0120refinement": 23032, "parent": 7767, "knows": 6333, "ref": 8423, "ined": 5796, "\u0120hypothetical": 18065, "\u0120refines": 23033, "\u0120clauses": 13701, "0038": 432, "argo": 2241, "\u0120intend": 18652, "\u0120buying": 13255, "\u0120clarify": 13684, "blog": 2690, "\u0120rookie": 23611, "\u0120del": 15022, "\u0120toggled": 25842, "\u0120succeed": 25188, "\u0120refreshing": 23055, "\u0120deleting": 15037, "\u0120deletes": 15036, "thin": 9581, "pages": 7739, "\u0120memcached": 20031, "\u0120sol": 24555, "oution": 7678, "\u0120fixing": 16842, "ses": 8939, "hed": 5288, "listed": 6571, "\u0120dpkg": 15689, "\u0120talking": 25464, "\u0120av": 12549, "memcached": 6846, "\u0120shock": 24232, "ingly": 5819, "\u0120tha": 25644, "\u0120entering": 16120, "\u0120guys": 17642, "\u0120appreci": 12178, "ative": 2390, "ini": 5830, "\u0120msgpack": 20432, "launchpad": 6393, "/+": 387, "download": 3987, "\u0120swf": 25357, "\u0120webview": 27106, "\u0120panel": 21468, "mac": 6709, "rom": 8641, "edia": 4111, "documentation": 3953, "flashplayer": 4775, "manager": 6743, "ass": 2317, "isted": 6056, "\u0120networking": 20714, "adobe": 1885, "mobile": 6953, "\u0120flash": 16857, "\u0120pasting": 21598, "\u0120strangely": 24960, "\u0120exect": 16374, "\u0120morning": 20381, "\u0120h": 17650, "\u012038": 11234, "\u012046": 11259, "\u0120confident": 14149, "\u0120compares": 13974, "\u0120tomcat": 25866, "\u0120webapp": 27077, "\u0120truststorefile": 26140, "certificates": 3000, "\u0120registered": 23079, "always": 2042, "509": 1069, "pkix": 7933, "\u0120cas": 13396, "division": 3924, "whatever": 10368, "servlet": 8937, "\u0120connector": 14209, "\u0120servlet": 24139, "\u0120feed": 16693, "resource": 8538, "\u0120privatekeys": 22290, "certs": 3006, "any": 2147, "\u0120overloads": 21362, "\u0120examine": 16330, "missing": 6929, "\u0120javadoc": 18976, "oracle": 7535, "javase": 6188, "])": 1663, "\u0120!=": 10780, "\u0120soa": 24536, "\u0120aos": 12117, "\u0120stuct": 25042, "\u0120audi": 12480, "pin": 7910, "unchecked": 9924, "\u0120owners": 21396, "\u0120unpinned": 26527, "\u0120enforced": 16081, "\u0120ub": 26262, "\u0120snap": 24518, "craft": 3493, "\u0120alacritty": 11874, "rt": 8688, "\u0120crt": 14607, "\u0120edited": 15864, "\u0120~/.": 27533, "\u0120helped": 17814, "bit": 2654, "repr": 8504, "\u0120listing": 19562, "\u0120hoped": 17947, "\u0120generating": 17301, "\u0120anti": 12097, "virus": 10249, "\u0120software": 24553, "\u0120interfering": 18699, "\u0120disabling": 15401, "\u0120subprocess": 25116, "\u0120echoing": 15847, "\u0120footer": 16964, "\u0120terminates": 25596, "\u0120triggering": 26074, "`,": 1723, "\u0120runner": 23703, "\u0120absolutely": 11543, "\u0120whatsoever": 27140, "\u0120conditional": 14138, "disable": 3892, "686": 1207, "unknown": 9964, "\u0120macbook": 19761, "2016": 720, "\u0120journey": 19043, "\u0120toolchain": 25877, "cross": 3540, "#)": 74, "\u0120hop": 17945, "intrinsics": 5935, "break": 2765, "\u0120mitigated": 20259, "dependencies": 3765, "\u0120[\"": 11426, "\"]": 62, "\u0120nicer": 20748, "\u0120downcasting": 15666, "\u0120negatives": 20678, "\u0120edges": 15861, "\u0120rusty": 23746, "\u0120fighting": 16746, "\u0120deals": 14866, "\u0120forcing": 16980, "\u0120lengths": 19372, "\u0120exceed": 16338, "\u0120negative": 20676, "\u0120messing": 20089, "\u0120../": 11021, "plot": 7956, "ote": 7619, "streamp": 9327, "rocess": 8627, "\u0120coincidentally": 13856, "starblue": 9249, "\u0120camelcase": 13323, "recursive": 8401, "tokio": 9661, "elf": 4180, "between": 2612, "\u0120kids": 19167, "\u0120andrew": 12052, "\u0120morton": 20382, "structure": 9346, "pseudo": 8201, "\u0120reproducible": 23304, "kind": 6318, "\u0120distinction": 15525, "\u0120ignoring": 18138, "inserted": 5867, "\u0120usual": 26719, "\u0120resides": 23367, "\u0120blows": 12965, "\u0120traces": 25926, "\u0120uncommenting": 26340, "\u0120factoring": 16584, "\u0120strip": 25000, "\u0120atomic": 12436, "\u0120observe": 20996, "\u0120interleaved": 18704, "option": 7524, "\u0120colors": 13892, "\u0120\",": 10809, "\u0120unify": 26435, "\u0120heterogenous": 17839, "\u0120endianness": 16065, "platform": 7949, "num": 7276, "\u0120endian": 16062, "\u0120bitmask": 12890, "\u0120jit": 19006, "100": 550, "\u0120portion": 22021, "\u0120partially": 21555, "\u0120li": 19411, "\u0120board": 12982, "\u0120zynq": 27506, "7000": 1222, "\u0120fsbl": 17151, "abort": 1762, "handler": 5242, "xa": 10499, "304": 861, "\u00e2\u0122\u013f.": 10735, "boot": 2724, "\u0120baremetal": 12671, "\u0120tz": 26254, "\u0120firmware": 16822, "\u0120modeled": 20297, "initialized": 5840, "\u0120arg": 12241, "\u0120terminating": 25597, "\u0120spot": 24725, "ison": 6040, "leading": 6418, "delete": 3748, "heap": 5284, "\u0120worried": 27308, "\u0120needlessly": 20666, "\u0120replacements": 23260, "\u0120rope": 23618, "\u0120unquoted": 26537, "\u0120overkill": 21350, "\u0120delegates": 15031, "\u0120relying": 23170, "\u0120escaped": 16233, "irty": 6008, "ens": 4284, "\u0120presentation": 22201, "\u0120modifies": 20316, "\u0120consumer": 14286, "\u0120retaining": 23449, "\u0120mmap": 20275, "\u0120involve": 18846, "\u0120freshly": 17114, "\u0120provably": 22458, "\u0120undo": 26392, "\u0120elision": 15940, "allocates": 2012, "\u0120vtable": 26970, "\u0120erases": 16195, "\u0120importantly": 18243, "\u0120assist": 12371, "please": 7954, "\u0120nature": 20621, "\u0120clap": 13679, "\u0120nodejs": 20795, "\u0120conc": 14089, "ure": 10041, "cy": 3620, "\u0120dumb": 15769, "\u0120proccess": 22311, "\u0120invol": 18845, "\u0120addon": 11708, "\u0120behalf": 12763, "(_)": 193, "\u0120deallocated": 14861, "quit": 8279, "\u0120nestings": 20705, "\u0120pressed": 22215, "\u0120clicked": 13723, "\u0120innermost": 18533, "\u0120regain": 23064, "emphasis": 4213, "reg": 8437, "ain": 1942, "\u0120glib": 17400, "\u0120nesting": 20704, "\u0120arrange": 12274, "\u0120quit": 22666, "\u0120idle": 18115, "\u0120continually": 14318, "\u0120busy": 13246, "\u0120gui": 17626, "\u0120queued": 22651, "\u0120releasing": 23143, "\u0120fourth": 17054, "\u0120fifth": 16743, "\u0120reasonable": 22828, "\u0120corresponds": 14460, "\u0120sneaky": 24525, "\u0120power": 22071, "\u0120expanded": 16428, "slightly": 9078, "\u0120cleaned": 13704, "\u0120usefulness": 26699, "\u0120focuses": 16930, "\u0120opposed": 21184, "borrowing": 2731, "moved": 6997, "\u0120sound": 24609, "\u0120ques": 22641, "show": 9005, "anticip": 2141, "\u0120experienced": 16445, "\u0120sigmoid": 24310, "\u0120infinity": 18444, "\u0120inherent": 18475, "\u0120prelude": 22170, "\u0120newly": 20729, "\u0120yew": 27446, "\u0120experiment": 16448, "\u0120warned": 27019, "easy": 4073, "512": 1073, "primitive": 8100, "curl": 3597, "\u0120winverifytrust": 27231, "\u0120tasked": 25492, "\u0120determining": 15258, "\u0120dll": 15573, "\u0120tampered": 25469, "57": 1120, "\u0120gathered": 17253, "\u0120msdn": 20430, "\u0120wintrust": 27230, "software": 9116, "\u0120publisher": 22515, "\u0120soft": 24552, "pub": 8211, "\u0120guid": 17627, "invalid": 5944, "parameter": 7761, "action": 1819, "verify": 10200, "subject": 9360, "\u0120illuminating": 18153, "\u0120signtool": 24333, "\u0120discussing": 15475, "\u0120manufacturer": 19865, "\u0120favor": 16664, "\u0120hfile": 17846, "\u0120pc": 21632, "\u01202012": 11149, "128": 607, "\u0120===": 11400, "\u0120xm": 27401, "fire": 4746, "ice": 5489, "uk": 9868, "xm": 10526, "\u0120typo": 26252, "\u0120classical": 13693, "100000000": 555, "\u0120occurring": 21037, "prim": 8096, "\u0120cudaerrorillegaladress": 14666, "\u0120profiler": 22350, "\u0120nvprof": 20955, "\u0120cmd": 13794, "scan": 8790, "\u0120iterations": 18934, "\u0120quadro": 22602, "\u0120narrow": 20603, "\u0120adress": 11757, "memcheck": 6847, "(?)": 188, "\u0120cud": 14661, "ap": 2153, "rof": 8632, "iler": 5645, "stop": 9306, "\u0120editing": 15865, "\u0120reverted": 23498, "enable": 4224, "();": 167, "other": 7626, "\u0120toolkit": 25880, "\u0120assembled": 12340, "\u0120unanswered": 26304, "\u0120accumulates": 11612, "\u0120supplier": 25277, "est": 4432, "ery": 4411, "\u0120fancy": 16635, "regex": 8441, "\u0120lookahead": 19671, "\u0120cat": 13415, "pure": 8220, "\u0120doomed": 15639, "\u0120thats": 25651, "\u0120repeatedly": 23245, "\u0120expansion": 16432, "\u0120downcast": 15664, "\u0120credit": 14569, "\u0120inconsistency": 18321, "modules": 6967, "control": 3417, "scope": 8803, "privacy": 8120, "separ": 8904, "different": 3867, "\u0120prefixing": 22166, "\u0120forgo": 17003, "\u0120atom": 12435, "beautify": 2562, "\u0120styling": 25066, "\u0120cpplint": 14519, "usercontent": 10085, "ph": 7886, "ile": 5643, "ron": 8644, "caf": 2864, "429": 989, "dd": 3684, "107": 565, "499": 1053, "uncrustify": 9928, "preferences": 8064, "\u0120beaut": 12730, "comments": 3264, "]\"": 1656, "\u0120gap": 17240, "protected": 8184, "\u0120indented": 18361, "\u0120beautify": 12732, "\u0120lint": 19543, "\u0120spacing": 24626, "\u0120aligning": 11901, "\u0120liquid": 19550, "\u0120tide": 25760, "\u0120brand": 13094, "day": 3666, "\u0120annoyance": 12078, "\u0120comp": 13955, "eting": 4460, "elegant": 4173, "newtype": 7164, "\u0120assured": 12397, "\u0120influence": 18448, "ops": 7511, "\u0120orphan": 21264, "\u0120newtype": 20731, "\u0120term": 25590, "\u0120kring": 19214, "amongst": 2064, "binding": 2643, "ber": 2599, "ott": 7637, "mm": 6946, "jack": 6167, "son": 9139, "\u0120newb": 20721, "ish": 6021, "\u0120additions": 11706, "geo": 5015, "/#/": 378, "traversal": 9721, "\u0120grabbing": 17498, "\u0120representations": 23291, "\u0120indicating": 18383, "\u0120populated": 22004, "\u0120inevitably": 18415, "unspecified": 9993, "\u0120mcarton": 19973, "\u0120beyond": 12828, "\u0120abi": 11521, "refcell": 8424, "\u0120(~": 10958, "\u0120frees": 17100, "\u0120initital": 18514, "\u0120reloads": 23161, "bad": 2497, "alloc": 2009, "\u0120cudamemgetinfo": 14674, "\u0120crovella": 14603, "\u0120excellent": 16344, "requesting": 8516, "\u0120behaves": 12767, "1200": 593, "108864": 569, "double": 3981, "536": 1093, "87": 1359, "\u0120reproducer": 23302, "\u0120contiguous": 14313, "\u0120successive": 25199, "allocate": 2010, "\u0120www": 27375, "\u0120rustwasm": 23744, "\u0120submodule": 25107, "\u0120beside": 12815, "mob": 6952, "ule": 9881, "\u0120recorded": 22917, "\u0120recover": 22921, "\u0120`&": 11469, "thing": 9582, "pun": 8218, "\u0120deriving": 15153, "\u0120peeling": 21666, "\u0120derivation": 15147, "\u0120mock": 20287, "\u0120lol": 19660, "\u0120cc": 13451, "possibly": 8019, "\u0120exports": 16501, "ants": 2145, "mpsc": 7015, "sender": 8894, "unless": 9967, "\u0120overlooked": 21363, "\u0120:/": 11375, "modified": 6962, "jer": 6206, "omer": 7430, "43": 991, "935": 1406, "\u0120ignore": 18133, "\u0120responding": 23401, "\u0120executor": 16386, "\u0120comma": 13916, "idents": 5544, "\u0120concat": 14090, "\u0120stringified": 24996, "working": 10447, "per": 7848, "av": 2452, "comm": 3254, "separated": 8905, "another": 2130, "supp": 9398, "ose": 7596, "\u0120ident": 18087, "\u0120formulate": 17028, "\u0120serv": 24125, "em": 4191, "ix": 6145, "\u0120osgi": 21274, "\u0120webservice": 27094, "\u0120ejb": 15901, "\u0120glassfish": 17389, "\u0120routing": 23649, "properties": 8179, "\u0120jsse": 19056, "\u0120vague": 26746, "\u0120pdp": 21648, "\u0120setter": 24150, "\u0120getter": 17341, "\u0120callbacks": 13310, "ye": 10557, "\u0120glue": 17423, "\u0120coded": 13820, "\u0120startup": 24859, "still": 9294, "word": 10436, "\u0120crypto": 14625, "\u0120cryptretrievetimestamp": 14633, "\u0120cryptsignmessage": 14634, "\u0120pbmessage": 21631, "\u0120cbmessage": 13449, "\u0120signer": 24321, "\u0120verified": 26844, "hints": 5348, "\u0120magda": 19775, "\u0120encodes": 16038, "\u0120retrieves": 23461, "\u0120stamping": 24831, "tsa": 9770, "terminated": 9529, "\u0120insight": 18563, "sz": 9456, "rsa": 8684, "ist": 6053, "sha": 8962, "\u0120retrieval": 23457, "\u0120cublas": 14657, "\u0120wise": 27240, "xn": 10531, "\u0120activate": 11654, "\u0120nrm": 20901, "\u0120batch": 12695, "\u0120routines": 23648, "\u0120norms": 20850, "\u0120simultaneous": 24383, "\u0120overall": 21334, "\u0120latency": 19276, "\u0120negatively": 20677, "\u0120shed": 24207, "\u0120light": 19492, "\u0120ext": 16521, "inct": 5773, "\u0120whilst": 27157, "\u0120reachable": 22768, "\u0120fyi": 17216, ").\"": 218, "instances": 5880, "\u0120destructors": 15227, "\u0120fundamental": 17188, "\u0120describe": 15163, "\u0120throwing": 25735, "\u0120wall": 27004, "\u0120sticks": 24924, "\u0120continuing": 14323, "\u0120stands": 24845, "\u0120demonstrating": 15073, "\u0120scoping": 23902, "\u0120statics": 24875, "\u0120shaky": 24183, "\u0120intending": 18654, "\u0120rough": 23632, "\u0120vaguely": 26747, "\u0120vanilla": 26771, "\u0120utilize": 26729, "\u0120inexperienced": 18419, "\u0120fizzbuzz": 16845, "\u0120mysterious": 20558, "\u0120typecheck": 26231, "\u0120accommodate": 11591, "\u0120essence": 16245, "quotes": 8283, "\u0120accelerated": 11562, "\u0120sprites": 24740, "\u0120fps": 17060, "\u0120dedicate": 14957, "pla": 7936, "\u0120guideline": 17631, "\u0120technique": 25539, "\u0120optimizing": 21211, "\u0120massive": 19916, "pixel": 7925, "ster": 9290, "\u0120pixels": 21857, "draw": 3997, "upload": 10027, "gpu": 5139, "\u0120bulk": 13219, "\u0120redesigning": 22966, "\u0120generalizing": 17295, "\u0120cidr": 13643, "\u0120num": 20928, "ek": 4166, "il": 5638, "\u0120casted": 13411, "\u0120csv": 14644, "\u0120extracted": 16545, "\u0120evaluating": 16283, "manual": 6755, "\u0120death": 14869, "\u0120dying": 15804, "\u0120},": 27528, "\u0120wasteful": 27039, "\u0120destructed": 15222, "\u0120unsound": 26577, "\u0120misplaced": 20231, "\u0120conjunction": 14199, "\u0120sprinkle": 24735, "\u0120nil": 20770, "willy": 10399, "\u0120semi": 24053, "colon": 3237, "\u0120genericize": 17309, "\u0120\u00e2\u013b": 27596, "\u0124": 27642, "\u0120clonable": 13750, "\u0120sharepoint": 24199, "\u0120caspol": 13405, "\u0120\u00e2\u0128\u0134": 27572, "mysite": 7074, "wss": 10483, "\u0120recycle": 22950, "\u0120repeat": 23241, "\u0120granting": 17522, "\u0120predefined": 22131, "\u0120uninstalling": 26447, "\u0120enumerated": 16142, "\u0120policies": 21963, "sharepoint": 8977, "administr": 1881, "ation": 2385, "sp": 9152, "office": 7357, "studio": 9353, "configuration": 3346, "fulltrust": 4923, "assemblies": 2321, "section": 8840, "\u0120sticking": 24923, "\u0120bat": 12694, "resolve": 8536, "perm": 7857, "\u0120expiry": 16463, "exp": 4538, "iry": 6009, "tmp": 9646, "\u0120binaryheap": 12859, "\u0120leetcode": 19349, "\u0120largest": 19266, "stream": 9323, "\u0120pops": 22001, "\u0120smallest": 24490, "\u0120negate": 20671, "shepmaster": 8986, "\u0120alludes": 11935, "\u0120balance": 12645, "\u0120fin": 16779, "essing": 4430, "typ": 9801, "eref": 4370, "\u0120rts": 23679, "\u0120emitted": 15980, "\u0120unclear": 26335, "llvm": 6611, "doxygen": 3992, "ore": 7553, "ga": 4952, "29": 844, "749": 1256, "093": 542, "fba": 4640, "efa": 4138, "177": 676, "commands": 3260, "run": 8707, "clap": 3129, "\u0120emit": 15978, "mock": 6954, "!`": 32, "\u0120mocker": 20290, "\u0120sentences": 24074, "\u0120registering": 23080, "defining": 3741, "\u0120explaining": 16468, "\u0120plugins": 21927, "unfortunately": 9944, "\u0120outdated": 21301, "\u0120singleton": 24392, "\u0120esot": 16239, "ically": 5484, "\u0120weakref": 27072, "\u0120ins": 18548, "\u0120outs": 21324, "\u0120instantiating": 18606, "disclaimer": 3898, "\u0120injecting": 18518, "\u0120libloading": 19432, "\u0120inject": 18516, "\u0120jumps": 19080, "\u0120improperly": 18262, "\u0120spat": 24637, "\u0120incorrectly": 18332, "\u0120violation": 26900, "\u0120deduce": 14960, "\u0120assistance": 12372, "\u0120jquery": 19047, "\u0120recommendation": 22892, "ten": 9520, "jq": 6239, "plugins": 7961, "jquery": 6240, "ajax": 1954, "head": 5281, "request": 8514, "\u0120authenticated": 12500, "protocols": 8188, "rfc": 8579, "2616": 811, "sec": 8833, "\u0120dat": 14793, "\u0120year": 27436, "\u0120achieving": 11629, "\u0120reach": 22767, "\u0120fake": 16608, "\u0120minor": 20192, "\u0120dns": 15586, "\u0120spo": 24722, "oup": 7659, "login": 6644, "iz": 6149, "den": 3760, "ky": 6347, "jet": 6207, "cz": 3624, "ffer": 4692, "93": 1404, "134": 617, "\u0120jre": 19048, "45": 1011, "706": 1226, "\u0120relationship": 23131, "\u0120tinker": 25806, "\u0120belong": 12788, "sto": 9301, "\u0120polymorphic": 21984, "\u0120relationships": 23132, "\u0120relation": 23128, "\u0120spawning": 24641, "\u0120spawned": 24640, "\u0120linq": 19542, "\u0120sever": 24161, "\u0120reflectionpermission": 23039, "\u0120queries": 22637, "\u0120ef": 15880, "\u0120aggregated": 11837, "\u0120record": 22916, "permut": 7863, "\u0120permutations": 21727, "\u0120factorial": 16581, "\u0120cookbook": 14406, "\u0120formulas": 17027, "vall": 10154, "entin": 4306, "\u0120factorials": 16582, "\u0120flaws": 16878, "overflowing": 7691, "\u0120alternating": 11968, "\u0120division": 15566, "\u0120micro": 20119, "optimizations": 7519, "\u0120shrink": 24272, "pet": 7874, "ual": 9818, "\u0120foreword": 16995, "\u0120disappointed": 15423, "\u0120indefinitely": 18357, "\u0120sl": 24437, "\u0120rx": 23754, "tx": 9797, "\u0120hook": 17939, "codec": 3210, "\u0120principle": 22264, "\u0120reverses": 23495, "\u0120echos": 15848, "\u01205000": 11269, "\u0120amounts": 12005, "variable": 10162, "\u0120sn": 24514, "\u0120filters": 16778, "0277": 472, "\u0120continues": 14322, "\u0120origin": 21252, "((": 149, "sn": 9094, "))": 205, "264": 813, "fa": 4596, "cde": 2962, "787": 1284, "940": 1409, "123": 599, "\u0120sso": 24791, "\u0120ftp": 17154, "\u0120sqlserver": 24750, "\u0120simp": 24359, "lier": 6512, "\u0120cont": 14291, "ect": 4091, "\u0120encrypt": 16051, "\u0120kerberos": 19130, "\u0120ints": 18793, "\u0120++": 10984, "\u0120*.": 10980, "\u0120gr": 17494, "\u0120printf": 22271, "\u0120cout": 14502, "\u0120unary": 26305, "\u0120overloaded": 21360, "googlecode": 5131, "hg": 5323, "classthrust": 3135, "\u0120tiled": 25774, "\u0120shad": 24174, "\u0120frustums": 17148, "\u0120tile": 25773, "\u0120planes": 21880, "\u0120intersects": 18755, "\u0120lights": 19497, "\u0120explode": 16481, "\u0120tryfrom": 26153, "<&[": 1498, "]>": 1680, "\u0120ranked": 22725, "hrtb": 5408, "\u0120boy": 13078, "\u0120rug": 23689, "precision": 8058, "\u0120emscripten": 16006, "libc": 6486, "issuecomment": 6047, "333": 895, "\u0120wasi": 27029, "emscripten": 4217, "997": 1448, "\u0120robinson": 23588, "matching": 6790, "\u0120underscore": 26374, "\u0120bear": 12721, "analyzer": 2077, "\u0120inserts": 18559, "\u0120\"_": 10834, "\u0120cheating": 13580, "\u0120instantiate": 18602, "<_>?": 1527, "\u0120|": 27517, "\u0120decimal": 14897, "\u0120convoluted": 14401, "\u0120news": 20730, "\u0120warnings": 27021, "\u0120overwrite": 21383, "lines": 6547, "\u0120alright": 11954, "\u0120lints": 19546, "\u0120clippy": 13736, "\u0120uh": 26281, "\u0120expon": 16494, "ents": 4324, "\u0120exponent": 16495, "\u0120powers": 22075, "\u0120unambiguous": 26302, "\u0120suffix": 25220, "\u0120prettier": 22227, "\u0120eh": 15895, "\u0120digit": 15363, "\u0120multiplied": 20476, "\u0120highest": 17859, "\u0120ptr": 22499, "cols": 3241, "\u0120--------------": 10999, "----------------": 318, "\u0120presenting": 22204, "ins": 5861, "necessarily": 7126, "\u0120cudathreadsynchronize": 14675, "\u0120ago": 11844, "\u0120mismatching": 20230, "\u0120magnitude": 19782, "\u0120(!)": 10900, "sur": 9404, "\u0120discover": 15455, "\u0120theirs": 25657, "\u0120nitty": 20777, "gritty": 5175, "\u0120clever": 13719, "\u0120gained": 17223, "\u0120microseconds": 20128, "\u0120bingo": 12868, "\u0120zeroed": 27475, "\u0120simil": 24351, "\u0120synchronize": 25397, "synchronize": 9444, "enabled": 4225, "const": 3372, "\u0120__": 11463, "synchronous": 9445, "val": 10144, "replace": 8496, "\u0120ms": 20425, "repla": 8495, "imple": 5710, "\u0120gtx": 17606, "\u0120570": 11286, "\u0120ghz": 17357, "\u0120launches": 19291, "\u0120measure": 19995, "\u0120shuffled": 24277, "\u0120permuted": 21729, "axis": 2476, "\u0120raise": 22701, "\u0120sigsegv": 24335, "\u0120seal": 23948, "sig": 9015, "segv": 8876, "stuff": 9354, "context": 3405, "\u0120archlinux": 12231, "each": 4061, "modifying": 6965, "\u0120./": 11022, "\u0120acknowledge": 11633, "operation": 7502, "inl": 5850, "\u0120\u0120\u0120\u0120\u0120\u0120\u0120\u0120\u0120\u0120": 27616, "\u0120detected": 15248, "\u0120\u0120\u0120\u0120\u0120\u0120\u0120\u0120\u0120\u0120\u0120\u0120": 27618, "closure": 3177, "inputiterator": 5859, "\u0120inputiterator": 18543, "\u0120outputiterator": 21319, "\u0120setoperation": 24147, "=(": 1538, "unsigned": 9991, "par": 7755, ">>,": 1581, "less": 6459, "difference": 3866, "serial": 8915, "bounded": 2742, "578": 1124, "make": 6731, "operations": 7504, "51": 1070, "outputiterator": 7681, "560": 1114, "operator": 7505, "launch": 6391, "<(": 1503, ">]\"": 1588, "execution": 4525, "\u0120&,": 10856, "\u0120derivedpolicy": 15151, "sequential": 8911, "seq": 8907, "\u0120strictweakordering": 24988, "\u0120strictweakcompare": 24987, "randomaccessiterator": 8313, "\u0120randomaccessiterator": 22713, "\u0120executionpolicy": 16383, "general": 5001, "106": 564, "++\"": 268, "120": 592, "\u0120\"*\"": 10803, "\u0120void": 26941, ">::": 1575, "assign": 2330, "112": 576, "tmpxft": 9647, "00000000": 416, "ii": 5632, "begin": 2572, "\u0120snippets": 24533, "end": 4247, "\u0120timing": 25801, "\u0120timer": 25785, "\u0120ray": 22749, "\u0120tracer": 25925, "\u0120concerns": 14115, "\u0120chance": 13539, "\u0120theory": 25668, "\u0120rays": 22752, "\u0120width": 27190, "ox": 7717, "div": 3919, "ided": 5531, "\u0120oct": 21041, "\u0120consist": 14238, "\u0120cubes": 14656, "\u0120polygons": 21982, "\u0120fall": 16613, "\u0120viewport": 26889, "far": 4629, "\u0120polygon": 21981, "poly": 7993, "gons": 5124, "\u0120minecraft": 20174, "\u0120oc": 21013, "cluded": 3187, "\u0120discard": 15432, "\u0120weigh": 27113, "\u0120;-)": 11380, "rees": 8422, "\u0120nginx": 20739, "tr": 9692, "\u0120federate": 16688, "\u0120office": 21070, "365": 921, "\u0120accounts": 11607, "hh": 5324, "26": 808, "\u0120exp": 16426, "\u0120mex": 20111, "ranet": 8315, "services": 8936, "mex": 6883, "\u0120rerouted": 23339, "2005": 707, "usernamemixed": 10088, "\u01201025": 11061, "\u0120\"-\"": 10812, "\u0120ev": 16275, "\u0120correspond": 14456, "connect": 3357, "ivity": 6143, "sing": 9044, "les": 6458, "ign": 5616, "\u0120tr": 25920, "ow": 7703, "\u0120trough": 26100, "adfspip": 1869, "dn": 3941, "247": 794, "ef": 4137, "90": 1382, "818": 1317, "92": 1396, "/[": 403, "\u01201024": 11060, "\u0120bucket": 13178, "\u0120255": 11195, "\u0120remainder": 23173, "\u0120salient": 23781, "255": 804, "\u0120plugging": 21925, "corrupt": 3458, "fixable": 4762, "\u0120ghostscript": 17356, "\u0120thumb": 25742, "ails": 1940, "\u0120wrapped": 27331, "sharp": 8980, "\u0120dllimport": 15575, "outside": 7684, "\u0120quer": 22635, "information": 5815, "standard": 9245, "halftone": 5232, "gs": 5186, "63": 1172, "font": 4821, "\u0120emits": 15979, "\u0120tss": 26164, "\u0120tpm": 25917, "\u0120trustedgrub": 26123, "\u0120uefi": 26273, "\u0120bios": 12872, "\u0120sits": 24405, "\u0120resultant": 23437, "\u0120mult": 20456, "\u0120coalesced": 13804, "\u0120afnetworking": 11815, "loading": 6621, "\u0120sensitive": 24068, "\u0120injection": 18519, "\u0120exchanges": 16358, "urlconnection": 10055, "delegate": 3747, "\u0120subclass": 25074, "\u0120semver": 24057, "\u0120tags": 25451, "\u0120impression": 18258, "compliant": 3309, "\u0120repos": 23284, "\u0120newest": 20726, "breaking": 2767, "\u0120trend": 26051, "\u0120convince": 14398, "\u0120prop": 22412, "94": 1408, "\u0120daemon": 14766, "\u0120confirming": 14169, "\u0120quotient": 22678, "\u0120novice": 20891, "0308": 481, "\u0120targeted": 25484, "\u0120introduction": 18788, "\u0120pulls": 22523, "shadow": 8966, "erat": 4356, ",.": 296, "99": 1443, "\u0120prefers": 22158, "\u0120rhs": 23533, "flatmap": 4779, "\u0120flat": 16861, "tests": 9544, "\u0120codebases": 13816, "\u0120separation": 24084, "\u0120simplicity": 24365, "\u0120categories": 13430, "\u0120undesirable": 26387, "return": 8563, "\u0120expresion": 16509, "non": 7214, "\u0120promise": 22391, "\u0120\".": 10814, "\u0120parameterize": 21507, "\u0120es": 16228, "\u0120referent": 23019, "\u0120deallocation": 14864, "\u0120routine": 23646, "++.": 276, "\u0120lending": 19368, "\u0120prestashop": 22219, "\u0120badge": 12630, "\u0120late": 19274, "\u0120theme": 25659, "emes": 4208, "theme": 9562, "autoload": 2447, "tpl": 9689, "foot": 4826, "\u0120area": 12236, "stashop": 9259, "\u0120(+": 10926, "-*": 311, "/),": 382, "\u0120parentheses": 21529, "\u0120lexer": 19400, "descent": 3792, "parser": 7779, "\u0120conventions": 14375, "ake": 1957, "\u0120costly": 14473, "\u0120dtrace": 15755, "\u0120eb": 15839, "pf": 7882, "function": 4930, "\u0120probe": 22304, "\u0120land": 19248, "angling": 2112, "\u0120programmatic": 22360, "\u0120orthographic": 21268, "\u0120squares": 24758, "px": 8231, "\u0120matrices": 19945, "\u0120svg": 25341, "\u0120nalgebra": 20579, "glm": 5095, "\u0120cgmath": 13522, "\u0120rotation": 23628, "leetcode": 6439, "problems": 8128, "rot": 8658, "lay": 6399, "\u0120trap": 26015, "\u0120preface": 22149, "\u0120beginners": 12755, "\u0120emphasize": 15989, "sent": 8902, "inel": 5799, "\u0120skimmed": 24426, "\u0120sentinel": 24075, "\u0120singly": 24394, "\u0120gloss": 17417, "\u0120libert": 19423, "\u0120reconstruct": 22914, "\u0120largely": 19264, "\u0120reassigning": 22837, "\u0120boundaries": 13065, "\u0120pesky": 21756, "\u0120definite": 15002, "\u0120uniqueness": 26457, "\u0120integrity": 18645, "particularly": 7790, "\u0120advances": 11765, "forget": 4839, "nll": 7195, "\u0120reassign": 22835, "reborrowing": 8379, "\u0120permanently": 21714, "\u0120destroying": 15219, "\u0120unwind": 26621, "\u0120stitch": 24928, "\u0120assigns": 12369, "\u0120functionally": 17183, "\u0120appease": 12153, "\u0120finish": 16802, "\u0120rotating": 23627, "\u0120tricky": 26067, "\u0120conceptual": 14110, "ize": 6154, "\u0120marching": 19879, "iterating": 6085, "\u0120downstream": 15679, "\u0120flagging": 16851, "besides": 2607, "\u0120preserve": 22208, "\u0120chip": 13609, "gui": 5204, "hoo": 5376, "kex": 6297, "\u0120hooks": 17942, "\u0120accounting": 11606, "guard": 5197, "header": 5282, "\u0120multipart": 20468, "multipart": 7047, "\u0120deserializing": 15186, "\u0120guards": 17617, "\u0120handlers": 17691, "\u0120phantomdata": 21772, "\u0120threadsafe": 25719, "address": 1859, "\u0120wake": 26990, "\u0120semaphore": 24051, "sounds": 9147, "idiomatic": 5553, "weight": 10352, "\u0120fwiw": 17214, "\u0120bank": 12658, "nb": 7113, "\u0120spatial": 24638, "\u0120cell": 13465, ".).": 338, "\u0120held": 17806, "\u0120modelled": 20299, "\u0120consult": 14279, "container": 3397, "584": 1130, "\u0120wit": 27246, "\u0120declarations": 14907, "\u0120overriding": 21371, "ks": 6340, "\u0120rsa": 23662, "secureentity": 8846, "genkey": 5012, "pair": 7741, "alias": 1986, "\u0120secureentity": 23988, "\u0120keystone": 19149, "\u0120validates": 26755, "export": 4562, "importcert": 5725, "entities": 4311, "setproperty": 8945, "javax": 6189, "\",\"": 48, "keystorepassword": 6305, "\u0120cheers": 13598, "have": 5271, "when": 10371, "!,": 21, "\u0120misconceptions": 20217, "thank": 9553, "\u0120pretzelhammer": 22233, "\u0120opener": 21143, "\u0120correcting": 14448, "\u0120beautiful": 12731, "why": 10386, "\u0120conclusion": 14124, "future": 4942, "\u0120threadpool": 25717, "pool": 7999, "\u0120utilise": 26725, "ned": 7129, "\u0120parallelize": 21495, "omp": 7440, "\u0120surprised": 25307, "\u0120pop": 21997, "\u0120spin": 24700, "\u0120interestingly": 18690, "\u0120lying": 19754, "\u0120pid": 21816, "\u0120libg": 19426, "\u0120expanding": 16429, "\u0120ease": 15831, "\u0120cl": 13669, "ions": 5965, "take": 9473, "\u0120superfluous": 25260, "\u0120txt": 26224, "\u0120recompile": 22899, "\u0120honor": 17935, "\u0120prerequisites": 22194, "those": 9589, "\u0120substituted": 25147, "\u0120serial": 24103, "\u0120locks": 19634, "preferably": 8063, "\u0120falling": 16618, "\u0120settled": 24155, "\u0120arrived": 12290, "\u0120ties": 25766, "\u0120exits": 16422, "fixes": 4764, "\u0120threaded": 25713, "\u0120imperative": 18203, "\u0120investigate": 18826, "\u0120zipper": 27487, "\u0120reexport": 22997, "\u0120pl": 21866, "attform": 2416, "\u0120namespaces": 20589, "\u0120adjacent": 11730, "target": 9483, "\u0120threes": 25723, "\u0120tips": 25811, "\u0120becuase": 12740, "\u0120counts": 14491, "\u0120guides": 17633, "\u0120serializable": 24110, "\u0120ommit": 21106, "\u0120targeting": 25485, "\u0120wrongly": 27356, "\u0120rodrigo": 23596, "\u0120dummy": 15771, "\u0120qualified": 22611, "\u0120tackling": 25446, "unit": 9957, "\u0120bro": 13129, "swer": 9424, "\u0120refused": 23058, "import": 5723, "\"),": 41, "\u0120vast": 26795, "\u0120spring": 24732, "\u0120roo": 23609, "\u0120trustmanager": 26132, "\u0120engineer": 16087, "\u0120controller": 14357, "interface": 5904, "sts": 9350, "\u0120tiny": 25808, "\u0120feedback": 16694, "dbc": 3672, "\u0120jar": 18966, "spring": 9190, "ro": 8620, "pa": 7721, "setup": 8951, "pers": 7865, "ence": 4232, "1506": 643, "\u0120swapping": 25350, "\u0120appropriately": 12191, "\u0120convertible": 14391, "\u0120isize": 18898, "\u0120parameterless": 21510, "sample": 8769, "\u0120permitted": 21723, "\u0120criteria": 14578, "\u0120supertrait": 25267, "already": 2033, "edited": 4115, "\u0120stride": 24989, "related": 8456, "\u0120toggle": 25841, "rend": 8481, "\u0120region": 23076, "imately": 5690, "\u0120begins": 12758, "\u0120\"...": 10816, "\u0120ifs": 18128, "\u0120bind": 12861, "\u0120parlance": 21539, "irrefutable": 6003, "\u0120binaryfunction": 12858, "canned": 2890, "\u0120functors": 17187, "negative": 7133, "stand": 9243, "\u0120barrier": 12675, "robert": 8624, "\u0120average": 12556, "\u0120briefly": 13122, "\u0120zipped": 27486, "curand": 3592, "\u0120dos": 15643, "\u0120hello": 17810, "force": 4829, "bru": 2784, "lldb": 6598, "vadimcn": 10143, "vscode": 10280, "attach": 2409, "\u0120profiles": 22351, "\u0120dropdown": 15731, "...\",": 349, "\u0120elevating": 15926, "\u0120story": 24951, "\u0120ridiculously": 23541, "\u0120wins": 27228, "\u0120slowly": 24483, "\u0120unoptimized": 26514, "\u0120beat": 12728, "\u0120optimizer": 21208, "\u0120caching": 13285, "\u0120slowest": 24481, "\u0120trial": 26054, "\u0120broader": 13135, "mcarton": 6820, "\u0120answering": 12094, "\u0120beca": 12734, "mes": 6864, "\u0120terribly": 25609, "utf": 10115, "\u0120quotations": 22674, "\u0120concatenate": 14092, "embed": 4200, "\u0120surrounds": 25317, "\u0120escape": 16232, "\u0120rdbms": 22758, "catalog": 2931, "\u0120catalog": 13417, "\u0120describing": 15166, "\u0120threadblock": 25711, "\u0120dispatching": 15493, "\u0120towards": 25911, "\u0120feasible": 16681, "\u0120bridge": 13118, "\u0120specialization": 24655, "ne": 7120, "cess": 3009, "crovella": 3542, "\u0120video": 26878, "currently": 3602, "?),": 1610, "\u0120rangefull": 22721, "\u0120sliceable": 24458, "?,": 1615, "\u0120cover": 14505, "anything": 2148, "\u0120productive": 22339, ".\u00e2\u0122\u013f": 372, "\u0120(==": 10944, "\u0120panicking": 21473, "\u0120assert": 12348, "\u0120resizes": 23376, "\u0120checkout": 13591, "027": 469, "127": 606, "\u0120flagged": 16850, "among": 2063, "\u0120angle": 12057, "\u0120measur": 19993, "\u0120runnable": 23702, "\u0120bizarre": 12909, "\u0120conflicts": 14176, "\u0120pty": 22505, "\u0120pts": 22501, "pts": 8208, "\u0120trunk": 26113, "\u0120interrupt": 18744, "\u0120pe": 21649, "\u0120stm": 24930, "\u0120interrupts": 18750, "407": 966, "disc": 3896, "\u0120exti": 16542, "\u0120pa": 21408, "interrupt": 5922, "\u0120cortex": 14469, "\u0120sys": 25422, "single": 9046, "\u0120guidelines": 17632, "\u0120snake": 24517, "&[": 104, "\u0120modes": 20309, "\u0120jetbrains": 18997, "\u0120ides": 18103, "im": 5681, "\u0120clion": 13731, "\u0120intellij": 18650, "ruby": 8699, "mine": 6911, "\u0120fam": 16625, "iliar": 5649, "\u0120afterall": 11821, "\u0120powered": 22072, "\u0120investigation": 18829, "intellij": 5895, "\u0120opposing": 21185, ".(": 334, "ues": 9848, "\u0120behaiv": 12762, "\u0120lay": 19299, "\u0120dependancies": 15105, "\u0120cleanup": 13710, "\u0120caches": 13284, "\u0120entail": 16115, "table": 9461, "\u0120arises": 12255, "\u0120costs": 14474, "\u0120drag": 15693, "\u0120flic": 16888, "kers": 6292, "\u0120flicker": 16889, "cast": 2924, "\u0120curs": 14712, "orm": 7576, "ved": 10183, "left": 6440, "\u0120reinterpreting": 23108, "relative": 8460, "position": 8013, "\u0120immediate": 18184, "\u0120movement": 20406, "\u0120artifacts": 12301, "\u0120accumulated": 11611, "\u0120delt": 15057, "exclusive": 4514, "\u0120flatten": 16867, "\u0120nik": 20766, "las": 6377, "\u0120experimental": 16449, "\u0120unwrapping": 26628, "\u0120backed": 12605, "storage": 9309, "\u0120articles": 12299, "tee": 9507, "\u0120derived": 15150, "baked": 2503, "\u0120summary": 25247, "\u0120dependent": 15113, "\u0120manufacturers": 19866, "\u0120lit": 19566, "atur": 2423, "\u0120gilles": 17369, "alle": 2004, "aut": 2432, "\u0120whitepaper": 27166, "\u012026": 11197, "\u0120rustup": 23743, "\u0120alongside": 11939, "\u0120transaction": 25959, "\u0120pipes": 21845, "\u0120scaffolding": 23846, "\u0120commandline": 13918, "\u0120uns": 26558, "anit": 2117, "ized": 6155, "\u0120cleaning": 13707, "\u0120cra": 14530, "\u0120ioresult": 18859, "\u0120refuses": 23059, "\u0120turbulencetoo": 26186, "<_,_": 1525, "\u0120quits": 22668, "\u0120sake": 23778, "\u0120tomorrow": 25868, "\u0120suspended": 25329, "\u012044": 11253, "\u0120\u0120\u0120\u0120\u0120\u0120\u0120\u0120": 27614, "\u0120aux": 12547, "mid": 6894, "\u0120^~~~~~~~~~~~~~~~~": 11457, "\u0120capital": 13354, "ise": 6015, "\u0120par": 21481, "allax": 2003, "\u0120illusion": 18154, "xious": 10523, "bored": 2728, "thep": 9567, "usion": 10096, "tracking": 9700, "iphone": 5980, "symmetric": 9440, "\u0120strait": 24958, "ail": 1937, "\u0120affine": 11811, "stack": 9232, "imgur": 5698, "jb": 6192, "png": 7968, "\u0120ske": 24419, "ubuntu": 9825, "@:": 1629, "\u0120ob": 20967, "ke": 6280, "pie": 7908, "independent": 5779, "\u0120slack": 24441, "ware": 10309, "paste": 7801, "pasting": 7804, "\u0120worded": 27281, "\u0120treated": 26035, "\u0120identifies": 18095, "\u0120drivers": 15723, "\u0120irc": 18880, "\u0120month": 20372, "objects": 7301, "\u0120shuffle": 24276, "\u0120supposing": 25289, "\u0120knuth": 19208, "ul": 9869, "kn": 6329, "\u0120duplicated": 15784, "\u0120subslice": 25137, "<[": 1522, "\u0120subslicing": 25139, "\u0120loss": 19697, "\";": 60, "\u0120retain": 23447, "\u0120senders": 24061, "\u0120synchronous": 25401, "imp": 5706, "\u0120alto": 11975, "\u012028": 11202, "\u0120mp": 20412, "\u0120frames": 17079, "\u0120queues": 22652, "\u0120rep": 23235, "len": 6452, "ishes": 6023, "\u0120el": 15903, "\u0120privilege": 22292, "\u0120aarch": 11506, "\u0120loader": 19602, "bl": 2663, "firmware": 4750, "\u0120simon": 24358, "\u0120compromise": 14073, "compiler": 3297, "\u0120asm": 12326, "\u0120disassemble": 15426, "\u0120produced": 22332, "\u0120resemble": 23351, "register": 8445, "ret": 8555, "manip": 6750, "\u0120ambiguous": 11989, "\u0120preconditions": 22124, "\u0120clarification": 13680, "people": 7847, "utorial": 10127, "store": 9310, "sslexception": 9215, "\u0120fatal": 16655, "\u0120inexperience": 18418, "contained": 3396, "\u012015": 11103, "\u0120violating": 26899, "\u0120repeating": 23246, "parse": 7777, "\u0120pieces": 21821, "powered": 8031, "sl": 9070, "ining": 5831, "\u0120displaying": 15500, "\u0120():": 10917, "\u0120inverted": 18822, "ot": 7618, "\u0120statusbar": 24883, "\u0120ha": 17651, "\u0120mongodb": 20343, "\u0120driver": 15722, "\u0120operational": 21173, "\u0120carry": 13389, "updates": 10020, "\u012050": 11267, "\u0120million": 20157, "59": 1134, "threading": 9595, "\u0120disabled": 15399, "\u0120versus": 26859, "\u0120contention": 14305, "\u0120constrained": 14263, "\u0120clues": 13778, "\u0120processors": 22327, "\u0120frequency": 17110, "\u0120ryzen": 23755, "\u012037": 11232, "\u0120turbo": 26184, "ghz": 5058, "\u0120fool": 16959, "\u0120unsorted": 26576, "\u0120itertools": 18940, "\u0120stopping": 24941, "\u0120feet": 16702, "\u0120calc": 13293, "\u0120newtypes": 20732, "\u0120repetitive": 23252, "\u0120begining": 12753, "\u0120meaningless": 19986, "\u0120deduced": 14961, "\u0120restarting": 23415, "je": 6199, "ay": 2478, "ncurses": 7116, "ex": 4498, "wchar": 10331, "character": 3042, "characters": 3043, "\u0120recurse": 22940, "\u0120complaints": 14006, "stringify": 9335, "\u0120belie": 12780, "vable": 10142, "\u0120presented": 22203, "\u0120discussed": 15473, "\u0120kill": 19168, "\u0120soul": 24608, "\u0120experiences": 16446, "reading": 8360, "\u0120memorizing": 20045, "\u0120revert": 23497, "\u0120reflected": 23035, "\u0120webusb": 27105, "\u0120sensors": 24071, "\u0120hobby": 17905, "xx": 10543, "hal": 5230, "\u0120realtime": 22817, "blinky": 2680, "\u0120mv": 20525, "kk": 6324, "\u0120connectivity": 14208, "\u0120respond": 23398, "\u0120usb": 26688, "\u0120endpoints": 16074, "\u0120bidirectional": 12840, "uction": 9832, "\u0120ret": 23446, "ur": 10034, "allow": 2017, "database": 3650, "\u0120loc": 19607, "\u0120kmdreko": 19195, "\u0120shorten": 24246, "\u0120rebinding": 22841, "\u0120actively": 11663, "bound": 2740, "\u0120raising": 22704, "\u0120succed": 25187, "\u0120silverlight": 24348, "\u0120oob": 21127, "lication": 6504, "\u0120relaxed": 23136, "\u0120cons": 14214, "iation": 5468, "screen": 8809, "\u0120customization": 14731, "\u0120lifetimed": 19480, "\u0120stacked": 24811, "\u0120unavoidable": 26312, "\u0120mouthful": 20400, "\u0120cacher": 13283, "\u0120annotated": 12069, "\u0120disadvantage": 15402, "\u0120digging": 15360, "\u0120hole": 17914, "\u0120accessor": 11581, "\u0120worthwhile": 27316, "cost": 3463, "\u0120stem": 24909, "\u0120harmful": 17729, "\u0120futile": 17208, "\u0120fulfilling": 17162, "\u0120notoriously": 20883, "rustc": 8730, "\u0120overflowed": 21342, "\u0120fixable": 16838, "\u0120evening": 16288, "\u0120tensorflow": 25582, "\u012018": 11123, "\u0120ought": 21290, "\u0120prebuilt": 22099, "\u0120downloads": 15676, "\u0120des": 15154, "\u0120parallelizing": 21498, "solutions": 9122, "\u0120slowdown": 24479, "\u0120educated": 15876, "\u0120feeding": 16695, "\u0120fragments": 17074, "\u0120spend": 24692, "\u012011": 11070, "cub": 3580, "dis": 3891, "radix": 8299, "cuh": 3585, "_::": 1712, "deviceradixsort": 3838, "\u0120940": 11352, "\u0120assistant": 12373, "nvcc": 7285, "gencode": 4999, "arch": 2215, "compute": 3322, "=\\\"": 1554, "sm": 9085, "cl": 3122, "ccbin": 2953, "vc": 10172, "maxrregcount": 6808, "compile": 3295, "cudart": 3584, "dwin": 4044, "console": 3371, "mbcs": 6814, "xcompiler": 10511, "ehsc": 4159, "nologo": 7210, "zi": 10608, "rtc": 8689, "obj": 7297, "rei": 8454, "catch": 2932, "\u0120formed": 17020, "\u0120advised": 11785, "existing": 4535, "\u0120advisable": 11783, "gettime": 5045, "\u0120firsthand": 16826, "attempts": 2414, "compare": 3287, "lrt": 6685, "\u012019": 11127, "\u0120224": 11172, "644": 1184, "143": 632, "cout": 3474, "224": 761, "\u0120measurements": 19998, "\u0120viz": 26931, "\u0120resetting": 23361, "\u0120cumulative": 14693, "\u0120subtracting": 25171, "flight": 4788, "\u0120axios": 12592, "\u0120vue": 26973, "fl": 4769, "igth": 5626, "access": 1786, "cors": 3460, "\u0120apikey": 12128, "\u0120secret": 23975, "\u0120login": 19651, "implicit": 5718, "ark": 2254, "\u0120brief": 13121, "827": 1327, "fce": 4646, "212": 744, "\u0120credits": 14570, "\u0120terminology": 25601, "ls": 6686, "msb": 7024, "\u0120suffixes": 25222, "\u0120msb": 20426, "\u0120lsb": 19728, "\u0120equals": 16182, "\u0120footnote": 16967, "\u0120optimise": 21198, "\u0120bottlenecks": 13057, "\u0120rollback": 23602, "\u0120premature": 22172, "thus": 9608, "\u0120optimised": 21199, "cgi": 3021, "\u0120intuition": 18795, "\u0120decept": 14891, "ively": 6137, "mutably": 7057, "\u0120exclusive": 16368, "\u0120upheld": 26649, "directly": 3885, "\u0120races": 22686, "bs": 2786, "\u0120mass": 19910, "\u0120acceleration": 11563, "res": 8526, "scroll": 8816, "\u0120acc": 11559, "func": 4929, "())": 159, "pos": 8011, "aion": 1946, "\u0120pos": 22024, "\u0120recompute": 22902, "\u0120simulation": 24380, "\u0120apologize": 12135, "\u0120ax": 12589, "\u0120az": 12595, "\u0120dt": 15750, "\u0120operated": 21169, "\u0120race": 22684, "\u0120launched": 19288, "\u0120increment": 18340, "\u0120hazards": 17770, "\u0120raises": 22703, "\u0120expired": 16460, "lm": 6613, "prod": 8139, "\u0120enviroments": 16154, "osx": 7616, "\u0120digitalocean": 15366, "\u0120surprising": 25309, "\u0120unintuitive": 26452, "\u0120pretend": 22224, "\u0120overly": 21365, "overcommit": 7688, "\u0120bl": 12913, "uff": 9851, "\u0120minimalistic": 20185, "\u0120unwinding": 26622, "\u0120restore": 23420, "\u0120rltk": 23573, "\u0120vga": 26873, "\u0120font": 16954, "\u0120stretch": 24982, "\u0120shifts": 24222, "face": 4600, "\u0120ships": 24229, "\u0120topics": 25887, "\u0120divided": 15559, "\u0120devil": 15282, "\u0120ple": 21906, "asure": 2350, "place": 7937, "\u0120transfers": 25970, "indices": 5788, "\u0120uncommented": 26339, "\u0120960": 11355, "naive": 7086, "\u0120deconstruct": 14928, "\u0120'?'": 10894, "\u0120builder": 13202, "\u0120partialeq": 21554, "\u0120readily": 22786, "\u0120octets": 21046, "\u0120googled": 17463, "\u0120incidentally": 18297, "\u0120capable": 13349, "\u0120transitioning": 25981, "\u0120numbered": 20931, "\u0120assumed": 12390, "\u0120consumable": 14283, "\u0120joined": 19032, "\u0120algo": 11885, "peer": 7837, "\u0120sk": 24418, "\u0120certified": 13504, "387": 942, "\u0120bo": 12981, "\u0120reg": 23063, "\u0120attacking": 12455, "bent": 2598, "\u0120educate": 15875, "325": 886, "878": 1362, "caa": 2851, "\u0120conflating": 14173, "\u0120prototype": 22454, "\u0120avenues": 12554, "\u0120proceeding": 22319, "\u0120picking": 21806, "\u0120ternary": 25605, "\u0120basing": 12691, "\u0120disappears": 15421, "\u0120culprit": 14687, "\u0120malfunction": 19816, "\u0120student": 25044, "mer": 6862, "blade": 2667, "act": 1818, "\u0120css": 14640, "\u0120admin": 11740, "activity": 1831, "setting": 8949, "\u0120facade": 16566, "\u0120borrower": 13040, "\u0120increments": 18346, "\u0120decrements": 14950, "notice": 7246, "\u0120rectify": 22935, "ordering": 7546, "\u0120overthink": 21377, "traits": 9704, "\u0120burden": 13233, "\u0120smell": 24500, "\u0120abc": 11518, "center": 2985, "\u0120uboot": 26265, "ructions": 8702, "fit": 4757, "signature": 9020, "cmd": 3195, "\u0120mmc": 20277, "configs": 3345, "vexpress": 10220, "\u0120vexpress": 26871, "\u0120media": 20010, "\u0120dynamicimage": 15812, "\u0120gimp": 17370, "\u0120bitflags": 12887, "\u0120accidentally": 11587, "\u0120accidental": 11586, "\u0120300": 11211, "\u0120designated": 15192, "\u0120parameterized": 21508, "\u0120numerous": 20942, "\u0120originates": 21257, "\u0120supporting": 25283, "\u0120filed": 16755, "240": 778, "\u0120wasting": 27041, "\u0120bitfields": 12885, "\u0120bitfield": 12884, "\u0120144": 11100, "\u0120eventually": 16295, "\u0120posting": 22058, "su": 9356, "hr": 5403, "656": 1191, "\u0120exclamation": 16361, "\u0120cobble": 13807, "\u0120learnt": 19340, "\u0120700": 11314, "quote": 8281, "\u0120contra": 14329, "ctions": 3569, "\u0120multitude": 20487, "can": 2887, "green": 5166, "`\".": 1720, "internals": 5913, "\u0120informed": 18461, "stage": 9235, "often": 7363, "\u0120libstd": 19453, "\u0120bootstrap": 13027, "relevant": 8468, "yielding": 10564, "exposing": 4568, "layers": 6401, "easily": 4072, "\u0120sprinkling": 24737, "\u0120digest": 15357, "\u0120renaming": 23210, "\u0120datat": 14820, "ables": 1757, "matt": 6799, "au": 2427, "co": 3203, "acl": 1809, "authorization": 2442, "laravel": 6372, "policies": 7985, "\u0120oriented": 21250, "\u0120aws": 12588, "\u0120intervals": 18761, "\u0120tick": 25753, "\u0120scheduling": 23883, "\u0120major": 19804, "\u0120detects": 15251, "\u0120downgrade": 15668, "\u0120crossbeam": 14594, "\u0120timers": 25787, "whole": 10384, "fn": 4804, "interval": 5926, "\u0120onward": 21124, "46": 1022, "\u0120slide": 24462, "\u0120yield": 27447, "\u0120accumulate": 11610, "\u0120liner": 19526, "liner": 6546, "\u0120reuses": 23481, "\u0120interchangeable": 18682, "\u0120commas": 13920, "\u0120encoded": 16035, "\u0120metal": 20095, "\u0120phil": 21779, "opp": 7509, "bare": 2518, "metal": 6876, "pp": 8035, "\u0120brainf": 13088, "\u0120brainfuck": 13089, "\u0120pushes": 22553, "\u0120tor": 25893, "\u0120painful": 21441, "\u0120interpreters": 18738, "\u0120recursion": 22943, "\u0120intentionally": 18662, "\u0120rerun": 23340, "\u0120workspace": 27303, "tomls": 9666, "\u0120accumulator": 11615, "\u0120adapting": 11689, "\u0120clipboard": 13733, "contents": 3404, "\u0120underneath": 26371, "\u0120unimplemented": 26439, "\u0120conclude": 14120, "\u0120complicate": 14029, "\u0120visited": 26918, "proto": 8185, "tlsv": 9643, "daygeek": 3667, "bash": 2523, "\u0120cancel": 13330, "\u0120syncing": 25403, "abe": 1749, "cefd": 2974, "\u012077": 11323, "\u0120mib": 20114, "\u0120%)": 10847, "\u0120eta": 16261, "\u012054": 11276, "\u0120\u0120\u0120\u0120\u0120\u0120\u0120\u0120\u0120\u0120\u0120\u0120\u0120\u0120\u0120\u0120": 27622, "\u0120stalling": 24827, "\u0120rus": 23712, "\u0120tc": 25511, "\u0120($": 10905, "\u0120messed": 20087, "\u0120cited": 13662, "\u0120customary": 14725, "\u0120shells": 24212, "\u0120restarted": 23414, "\u0120mps": 20418, "args": 2243, "\u0120regularly": 23091, "ung": 9945, "mps": 7014, "\u0120chris": 13629, "\u0120morgan": 20380, "\u0120seams": 23954, "\u0120seam": 23951, "complement": 3302, "bug": 2809, "report": 8500, "::_": 1479, "110": 572, ")',": 202, "rustbuild": 8728, "buildbot": 2813, "slave": 9072, "libsyntax": 6502, "ast": 2344, "327": 889, "\u0120glad": 17383, "hoc": 5365, "\u0120unwraps": 26629, "\u0120outliving": 21315, "\u0120spans": 24630, "\u012033": 11223, "\u0120^^^^^^^^": 11448, "^^^^^": 1702, "\u0120\u0120\u0120\u0120\u0120\u0120\u0120\u0120\u0120\u0120\u0120": 27617, "\u0120inlining": 18526, "\u0120incurs": 18350, "\u0120forbid": 16971, "environment": 4334, "\u0120capturing": 13368, "\u0120auxiliary": 12548, "opaque": 7487, "\u0120humans": 18029, "\u0120heads": 17784, "\u0120hardcode": 17717, "\u0120hardcoding": 17719, "604": 1149, "71": 1229, "\u0120illustrated": 18157, "gor": 5133, "und": 9931, "endian": 4252, "\u0120hardly": 17725, "\u0120netcat": 20708, "await": 2468, "\u0120puzzle": 22559, "\u0120labels": 19230, "\u0120labeled": 19227, "\u0120constraining": 14264, "\u0120communicates": 13946, "\u0120exhausted": 16399, "location": 6632, "131": 615, "\u0120invitations": 18834, "preferred": 8066, "send": 8892, "business": 2833, "invitations": 5953, "history": 5353, "\u0120october": 21047, "\u0120pol": 21959, "\u0120prose": 22438, "\u0120unboxing": 26325, "\u0120duplicates": 15785, "\u0120dup": 15779, "input": 5858, "\u0120zizaco": 27491, "\u0120conform": 14178, "itive": 6108, "\u0120nix": 20778, "\u0120ioctl": 18855, "manually": 6756, "\u0120experimentation": 16451, "\u0120mocking": 20291, "\u0120mutexguard": 20522, "\u0120challeng": 13534, "\u0120conn": 14201, "undrum": 9940, "\u0120fnonce": 16923, "\u0120unlock": 26482, "ignore": 5620, "\u0120fli": 16887, "pper": 8040, "\u0120catalina": 13416, "\u0120sparse": 24635, "\u0120cusparse": 14722, "\u0120cusp": 14721, "\u0120studied": 25046, "\u0120coalescing": 13805, "\u0120millions": 20158, "\u0120unaligned": 26300, "\u0120irregular": 18889, "\u0120strides": 24992, "\u0120algorithmic": 11888, "\u0120accesses": 11577, "\u0120sequential": 24099, "\u0120throughput": 25731, "\u0120increased": 18334, "\u0120transactions": 25960, "\u0120flight": 16891, "coding": 3219, "consider": 3368, "\u0120lived": 19579, "\u0120suggesting": 25229, "\u0120eats": 15838, "chars": 3044, "\u0120walking": 27001, "\u0120brute": 13155, "\u0120cleanly": 13708, "ones": 7455, "\u0120deserve": 15187, "found": 4865, "inlined": 5852, "zn": 10618, "malloc": 6738, "allocator": 2016, "eed": 4129, "buildcustomizations": 2814, "597": 1138, "3721": 927, "\u0120\"\"": 10783, "amd": 2054, "cud": 3581, "processing": 8136, "\"\"": 36, "\u0120exited": 16420, "\u0120==========": 11402, "\u0120skipped": 24430, "\u0120pls": 21918, "\u0120configs": 14153, "routes": 8664, "model": 6958, "\u0120400": 11241, "\u0120reveals": 23490, "\u0120backslashes": 12618, "\u0120\"+=\"": 10808, "however": 5399, "\u0120prudent": 22485, "\u0120+=": 10988, "\u0120noop": 20834, "fu": 4918, "\u0120lasts": 19272, "\u0120spreadsheet": 24731, "referenced": 8427, "haha": 5228, "idding": 5525, "\u0120ruled": 23692, "\u0120monomorphization": 20356, "proc": 8129, "coll": 3230, "ision": 6026, "two": 9796, "\u0120forwards": 17044, "gives": 5082, "\u0120invocations": 18840, "hack": 5224, "nested": 7149, "started": 9253, "jmb": 6223, "\u0120mixed": 20264, "\u0120concatenating": 14095, "ters": 9534, "hood": 5377, "\u0120xy": 27421, "\u0120valuable": 26764, "\u0120globals": 17412, "expr": 4569, "\u0120stripping": 25003, "\u0120drawbacks": 15708, "\u0120handroll": 17694, "\u0120constexpr": 14256, "cell": 2980, "newbie": 7160, "convert": 3431, "\u0120fmt": 16919, "\u0120lovely": 19710, "previous": 8091, "handed": 5239, "\u0120^_^": 11453, "minimum": 6917, "ging": 5070, "\u0120saves": 23834, "\u0120tune": 26175, "\u0120ec": 15843, "openssl": 7498, "\u0120elliptic": 15945, "curve": 3607, "printing": 8112, "rov": 8668, "ides": 5549, "\u0120propagate": 22414, "\u0120complicates": 14031, "\u0120nightlies": 20762, "\u0120perl": 21710, "\u0120orthogonal": 21267, "\u0120foremost": 16986, "\u0120initially": 18507, "\u0120horribly": 17964, "intersection": 5925, "lets": 6467, "\u0120tera": 25588, "\u0120assignments": 12368, "decrement": 3724, "\u0120honestly": 17934, "\u0120happened": 17709, "work": 10440, "saving": 8783, "\u0120terabytes": 25589, "\u0120age": 11829, "\u0120separators": 24086, "\u0120iso": 18901, "yyyy": 10592, "\u0120tryed": 26152, "\u0120(\\": 10954, "}": 10643, "[.": 1634, "-/": 323, "]?)": 1685, "(\\": 192, "\u0120(.)": 10933, "\u0120awkwardness": 12586, "\u0120quicksort": 22659, "\u0120undergoing": 26364, "\u0120chained": 13529, "\u0120growing": 17590, "\u0120shame": 24186, "\u0120versed": 26853, "129": 609, "fbb": 4641, "124": 601, "170": 669, "\u0120caution": 13442, "big": 2628, "\u0120endianess": 16063, "\u0120cry": 14618, "ows": 7716, "trustmanager": 9755, "null": 7272, "acceptedissuers": 1783, "\u0120compromised": 14074, "\u0120regenerate": 23072, "\u0120removable": 23200, "\u0120fire": 16811, "proof": 8173, "\u0120stdweb": 24899, "ascii": 2291, "\u0120gigabytes": 17365, "\u0120wondered": 27270, "qualified": 8255, "\u0120loosen": 19689, "\u0120subtrait": 25173, "\u0120turbofish": 26185, "\u0120stubs": 25040, "editor": 4117, "\u0120codegen": 13821, "codegen": 3213, "erator": 4360, "openapitools": 7490, "openapi": 7489, "lock": 6633, "chrome": 3082, "svgomg": 9417, "twa": 9792, "\u0120radio": 22695, "\u012084": 11340, "\u0120javamail": 18979, "\u0120programm": 22358, "\u0120colliding": 13882, "banking": 2514, "\u0120mail": 19784, "\u0120banking": 12660, "\u0120notification": 20874, "\u0120buy": 13254, "\u0120jdk": 18988, "\u0120smtp": 24511, "\u0120unset": 26571, "appear": 2174, "ances": 2081, "\u0120respects": 23396, "jedrz": 6205, "\u0120bonus": 13009, "\u0120indirect": 18392, "\u0120interned": 18719, "\u0120unpleasant": 26528, "508": 1068, "specifically": 9166, "\u0120huh": 18026, "\u0120libary": 19414, "boolean": 2721, "mismatched": 6927, "mp": 7001, "'\"": 106, "\u0120defer": 14987, "checking": 3057, "\u0120dataflow": 14801, "twice": 9794, "\u0120expr": 16507, "\u0120mathematical": 19939, "\u0120acting": 11650, "\u0120propagated": 22415, ")...": 220, "\u0120mailbox": 19785, "\u0120neighbour": 20693, "\u0120isolated": 18903, "\u0120compat": 13979, "\u0120initiated": 18509, "\u0120seperate": 24087, "\u0120pot": 22065, "\u0120insomnia": 18570, "insomnia": 5869, "oftrust": 7364, "rest": 8546, "\u0120readconsoleinputw": 22781, "\u0120modifiers": 20315, "\u0120alt": 11957, "meta": 6874, "\u0120ansi": 12090, "\u0120siblings": 24288, "\u0120visiting": 26919, "simplified": 9039, "\u0120topic": 25886, "\u0120connects": 14211, "\u0120frequent": 17111, "hence": 5310, "\u0120seamlessly": 23953, "ied": 5560, "answers": 2136, "\u0120keymanager": 19143, "typically": 9811, "\u0120programatically": 22356, "\u0120aspect": 12329, "reload": 8469, "jcalcote": 6194, "wordpress": 10438, "2010": 714, "managing": 6745, "\u0120checkclienttrusted": 13585, "checkservertrusted": 3060, "certificateexception": 2998, "\u0120varied": 26786, "\u0120interval": 18760, "were": 10360, "\u0120retrospect": 23468, "\u0120reloading": 23160, "\u0120checkservertrusted": 13594, "trustmanagerimpl": 9758, "\u0120synchronized": 25398, "typescript": 9809, "infinite": 5811, "writer": 10472, "\u0120forbidden": 16972, "\u0120matveev": 19954, "\u0120bi": 12832, "directional": 3883, "\u0120kafka": 19098, "\u0120cluster": 13783, "\u0120initialised": 18494, "\u0120initialising": 18497, "bindings": 2645, "declare": 3711, "\u0120guarding": 17616, "\u0120claim": 13670, "\u0120renderer": 23216, "\u0120hands": 17695, "likely": 6532, "\u0120rwlock": 23751, "\u0120obtained": 21006, "\u0120sooner": 24594, "\u0120transition": 25980, "\u0120fed": 16687, "erating": 4358, "saml": 8766, "\u0120asserts": 12353, "\u0120replying": 23273, "\u0120assertions": 12352, "\u0120pingfederate": 21832, "\u0120ping": 21831, "route": 8663, "versions": 10213, "\u0120hth": 17999, "\u0120ian": 18070, "ium": 6128, "simple": 9036, "cq": 3490, "greg": 5168, "ory": 7592, "youn": 10578, "\u0120hopes": 17951, "\u0120extraneous": 16551, "\u0120implementor": 18222, "\u0120stylistic": 25067, "\u0120clutter": 13786, "\u0120rotational": 23629, "\u0120symmetry": 25385, "mem": 6841, "swap": 9421, "square": 9202, "\u0120linearized": 19522, "\u0120nv": 20949, "\u0120elementwise": 15921, "\u0120strided": 24990, "\u0120solvable": 24566, "\u0120workable": 27286, "passing": 7798, "equality": 4349, "\u0120chose": 13626, "\u0120roadmap": 23584, "\u0120refactored": 23003, "order": 7544, "\u0120scatter": 23867, "\u0120projectile": 22380, "fall": 4619, "\u0120gravity": 17543, "\u0120earth": 15829, "\u0120air": 11864, "\u0120resistance": 23372, "\u0120velocity": 26829, "\u0120baz": 12704, "\u0120defacto": 14975, "\u0120serialized": 24113, "\u0120sizing": 24416, "\u0120oddity": 21052, "\u0120prohibits": 22376, "illegal": 5663, "\u0120\"+": 10806, "\u0120\"+\"": 10807, "\u0120misunderstand": 20248, "\u0120substrings": 25157, "\u0120resp": 23390, "\u0120\"\",": 10784, "\u0120subdivide": 25083, "\u0120incremented": 18344, "\u0120decrement": 14947, "\u0120jsonrpc": 19052, "callback": 2876, "\u0120responses": 23406, "question": 8268, "ction": 3565, "\u0120appstate": 12204, "\u0120`[": 11491, "@": 1626, "cmkclientserverconfig": 3196, "\u0120\"#[": 10788, "derive": 3786, ")]\"": 235, "mkclientserverconfig": 6942, "\u0120clojure": 13748, "\u0120mutated": 20512, "\u0120downv": 15681, "otes": 7622, "\u0120occupies": 21025, "\u0120transmute": 26001, "ibly": 5476, "386": 941, "70": 1220, "\u0120forces": 16978, "\u0120benchmark": 12797, "!).": 18, "\u0120unsoundness": 26578, "\u0120fra": 17062, "mbuffer": 6818, "\u0120vulkan": 26976, "\u0120bulky": 13220, "\u0120gitlab": 17375, "\u0120layouts": 19306, "created": 3507, "\u0120strictly": 24986, "\u0120prevented": 22238, "rel": 8455, "viewport": 10237, "\u0120ndc": 20638, "normalized": 7229, "\u0120[-": 11430, "\u0120pipeline": 21841, "\u0120derefence": 15135, "\u0120hoogle": 17938, "\u0120relatedly": 23125, "turbofish": 9786, "\u0120spelled": 24688, "\u0120visibly": 26915, "functor": 4934, "\u0120nsight": 20906, "nsight": 7261, "\u0120menu": 20058, "...\"": 347, "experi": 4547, "ments": 6861, "\u0120listbox": 19554, "capture": 2903, "\u0120highlighted": 17861, "ilt": 5677, "\u0120distributing": 15539, "\u0120''": 10870, "sending": 8895, "573": 1122, "\u0120meeting": 20017, "explanations": 4555, "\u0120nickel": 20754, "\u0120mongo": 20342, "\u0120multithread": 20484, "mongodb": 6974, "\u0120december": 14886, "\u01202019": 11156, "\u0120phone": 21786, "981": 1440, "323": 884, "\u0120literature": 19572, "\u0120recommends": 22897, "dc": 3679, "recursion": 8400, "\u0120fuse": 17200, "\u0120cxf": 14745, "issuedtoken": 6049, "\u0120soapui": 24538, "standalone": 9244, "\u0120pom": 21988, "084": 536, "\u0120lts": 19734, "\u0120coll": 13861, "wsdl": 10480, "\u0120blueprint": 12970, "\u0120greet": 17555, "erimpl": 4382, "addressing": 1861, "required": 8520, "\u0120addressing": 11714, "\u0120kar": 19104, "\u0120issuing": 18918, "soap": 9102, "\u0120unprotected": 26534, "commonly": 3270, "\u0120getters": 17342, "\u0120ml": 20272, "\u0120family": 16630, "\u0120sml": 24505, "\u0120science": 23889, "\u0120ma": 19758, "\u0120intro": 18783, "constraint": 3379, "\u0120elimination": 15939, "\u0120variance": 26780, "cow": 3479, "\u0120blob": 12946, "\u0120knowledgeable": 19204, "\u0120generators": 17304, "\u0120externally": 16541, "pretty": 8085, "constructors": 3386, "whereas": 10373, "\u0120sizedness": 24413, "\u0120satisfies": 23822, "\u0120immovable": 18189, "\u0120amazingly": 11982, "solved": 9124, "\u0120parsers": 21548, "\u0120ja": 18953, "zz": 10629, "\u0120abbreviated": 11515, "\u0120lhs": 19410, "\u0120business": 13244, "\u0120unauthorized": 26310, "units": 9958, "find": 4735, "\u0120usize": 26717, "\u0120minesweeper": 20176, "\u0120strike": 24993, "\u0120reproduced": 23301, "\u0120()?": 10920, "ray": 8333, "\u0120placeholder": 21871, "reproducible": 8511, "digit": 3871, "\u0120recoverable": 22922, "\u0120translating": 25991, "\u0120till": 25776, "\u0120crossterm": 14600, "\u0120discovery": 15459, "ailed": 1938, "\u0120didnt": 15329, "\u0120shouldnt": 24260, "\u0120debuggers": 14879, "\u0120steals": 24905, "\u0120imposes": 18250, "\u0120flushing": 16913, "\u0120cdylib": 13458, "\u0120mini": 20178, "\u0120behaviors": 12771, "\u0120tough": 25908, "bucket": 2799, "\u0120wired": 27235, "\u0120wire": 27234, "\u0120conout": 14212, "$": 87, "handle": 5240, "dos": 3976, "\u0120subsystem": 25160, "\u0120emulating": 16010, "nam": 7092, "()',": 157, "\u0120lisp": 19552, "\u0120cond": 14133, "\u0120textual": 25637, "\u0120preprocessor": 22190, "parsed": 7778, "\u0120diverge": 15551, "\u0120bought": 13059, "mark": 6772, "gracefully": 5149, "\u0120invariant": 18810, "\u0120disregarded": 15509, "\u0120tcpstream": 25522, "spawn": 9157, "\u0120reallocate": 22808, "\u0120grown": 17591, "\u0120ped": 21656, "\u0120corrupt": 14463, "\u0120reallocates": 22810, "\u0120relax": 23135, "\u0120eq": 16177, "\u0120nan": 20592, "!=": 26, "nan": 7102, "\u0120inherits": 18481, "\u0120sole": 24558, "\u0120marker": 19890, "\u0120equivalence": 16187, "\u0120computational": 14078, "\u0120reactive": 22774, "rx": 8749, "\u0120friends": 17123, "\u0120geared": 17275, "\u0120observable": 20993, "observer": 7306, "\u0120spirit": 24707, "pseudocode": 8202, "\u0120unrolled": 26555, "wards": 10307, "top": 9675, "down": 3983, "forks": 4844,
[...]
