{"\u0120recently": 22885, ",": 255, "\u0120when": 27146, "\u0120i": 18131, "\u0120try": 26166, "\u0120to": 25840, "\u0120use": 26690, "\u0120cuda": 14734, "\u0120programming": 22398, "\u0120want": 27012, "\u0120send": 24055, "\u0120a": 11578, "\u0120vector": 26813, "\u0120gpu": 17540, "\u0120memory": 20079, ".": 293, "\u0120someone": 24582, "\u0120tells": 25547, "\u0120me": 20017, "\u0120that": 25640, "\u0120can": 13395, "\u0120thrust": 25739, "::": 1421, "device": 3733, "_": 1612, "vector": 10236, "\u0120and": 12122, "host": 5209, "\u0120also": 12032, "\u0120read": 22798, "\u0120the": 25644, "\u0120help": 17860, "\u0120document": 15674, "\u0120but": 13318, "\u0120still": 24926, "\u0120don": 15705, "'t": 125, "\u0120know": 19250, "\u0120how": 18049, "\u0120such": 25192, "\u0120into": 18830, "\u0120kernel": 19183, "\u0120function": 17237, "\u0120": 10910, "\u0120my": 20562, "\u0120codes": 13909, "\u0120are": 12315, "\u0120as": 12383, "\u0120following": 17003, ":": 1405, "\u0120in": 18337, "\u0120fact": 16635, "\u0120if": 18186, "\u0120you": 27467, "\u0120please": 21939, "\u0120tell": 25545, "\u0120something": 24586, "\u0120about": 11611, "\u0120this": 25692, "\u0120question": 22670, "\u0120there": 25663, "\u0120any": 12187, "\u0120better": 12893, "\u0120way": 27055, "\u0120complete": 14082, "\u0120same": 23781, "?": 1514, "\u0120thanks": 25639, "\u0120very": 26863, "\u0120much": 20478, "!": 0, "\u0120device": 15340, "\u0120vectors": 26819, "\u0120cannot": 13406, "\u0120be": 12787, "\u0120passed": 21609, "\u0120directly": 15457, "\u0120kernels": 19184, "\u0120need": 20687, "\u0120pass": 21607, "\u0120pointer": 21975, "\u0120underlying": 26379, "\u0120done": 15706, "\u0120like": 19542, "\u0120have": 17807, "\u0120an": 12087, "\u0120array": 12355, "\u0120of": 21083, "\u0120do": 15660, "\u0120what": 27139, "\u0120is": 18946, "\u0120described": 15227, "\u0120here": 17872, "\u0120hierarchy": 17906, "\u0120src": 24768, "/": 343, "main": 6639, "rs": 8672, "animal": 2028, "s": 8744, "race": 8257, "\u0120ar": 12293, "ror": 8640, "\u0120add": 11771, "\u0120modules": 20360, "\u0120properly": 22449, "\u0120so": 24542, "\u0120no": 20811, "\u0120errors": 16292, "\u0120rename": 23221, "\u0120.": 11112, "\u0120find": 16844, "\u0120more": 20406, "\u0120information": 18527, "\u0120on": 21137, "\u0120splitting": 24725, "\u0120across": 11721, "\u0120files": 16821, "\u0120am": 12052, "\u0120trying": 26169, "\u0120connect": 14270, "\u0120messaging": 20119, "\u0120provider": 22495, "\u0120over": 21360, "\u0120secure": 23983, "\u0120connection": 14273, "\u0120using": 26716, "\u0120trust": 26131, "\u0120store": 24947, "\u0120unable": 26309, "\u0120unsecure": 26571, "ly": 6615, "\u0120post": 22078, "\u0120messages": 20118, "\u0120without": 27260, "\u0120issue": 18969, "\u0120moment": 20366, "\u0120connecting": 14272, "\u0120protocol": 22479, "\u0120it": 18978, "\u0120not": 20872, "\u0120working": 27306, "\u0120received": 22879, "\u0120error": 16288, "\u0120retrieving": 23470, "\u0120jndi": 19074, "\u0120\u0120": 27611, "\u0120works": 27310, "\u0120via": 26872, "\u0120jmeter": 19068, "\u0120password": 21615, "\u0120all": 11985, "\u0120valid": 26751, "\u0120correct": 14511, "\u0120seems": 24013, "\u0120initiating": 18577, "\u0120hermes": 17875, "\u0120through": 25728, "bat": 2457, "\u0120detecting": 15311, "\u0120parameters": 21539, "\u0120added": 11773, "\u0120start": 24853, "\u0120up": 26633, "\u0120therefore": 25667, "\u0120isn": 18955, "\u0120truststore": 26156, "\u0120updated": 26640, "\u0120script": 23927, "\u0120line": 19562, "\u0120starts": 24859, "\u0120program": 22386, "\u0120tried": 26086, "\u0120sorts": 24611, "\u0120combinations": 13974, "\u0120with": 27254, "\u0120javax": 19038, "net": 7112, "ssl": 9205, "truststore": 9803, "(": 127, "password": 7767, ")": 173, "\u0120none": 20836, "\u0120them": 25650, "\u0120worked": 27298, "'s": 124, "\u0120kind": 19224, "\u0120easy": 15911, "\u0120miss": 20263, ";": 1433, "\u0120before": 12819, "\u0120main": 19819, "\u0120class": 13769, "\u0120declaration": 14972, "\u0120essential": 16313, "y": 10645, "\u0120invoked": 18900, "browser": 2703, "\u0120two": 26235, "\u0120arguments": 12331, "\u0120its": 19001, "\u0120method": 20134, "\u0120wanted": 27013, "\u0120invoke": 18899, "\u0120java": 19031, "w": 10363, "exe": 4362, "\u0120proper": 22448, "\u0120jks": 19064, "\u0120for": 17025, "\u0120example": 16398, "\u0120should": 24256, "\u0120work": 27294, "\u0120floats": 16952, "\u0120however": 18050, "\u0120filled": 16827, "\u0120zeros": 27486, "\u0120idea": 18146, "\u0120why": 27182, "\u0120required": 23338, "\u0120specifically": 24671, "\u0120allocate": 11993, "\u0120host": 18026, "\u0120?": 11515, "\u0120cudamalloc": 14740, "\u0120cudamemcpy": 14743, "\u0120copy": 14492, "\u0120assignment": 12441, "\u0120just": 19140, "\u0120fine": 16849, "\u0120between": 12895, "\u0120containers": 14365, "\u0120(": 11016, "\u0120or": 21250, "\u0120simple": 24361, "\u0120code": 13892, "\u0120imports": 18313, "\u01202": 11244, "\u0120uses": 26715, "\u0120struct": 25015, "\u0120from": 17182, "\u0120at": 12496, "'m": 122, "\u0120functions": 17243, "\u0120bots": 13122, "trait": 9742, "\u0120gamecore": 17288, "\\": 1559, "board": 2626, "\u0120they": 25676, "\u0120both": 13117, "\u0120imported": 18310, "\u0120func": 17232, "\u0120maint": 19824, "rait": 8268, "\u0120resolved": 23392, "\u0120structure": 25020, "\u0120directory": 15459, "mod": 6893, "\u0120message": 20113, "\u0120where": 27148, "\u0120wrong": 27363, "\u0120diffirent": 15419, "\u0120rust": 23718, "\u0120by": 13327, "\u0120has": 17781, "\u0120good": 17507, "\u0120similar": 24352, "\u0120appropriate": 12271, "\u0120bits": 12965, "\u0120change": 13618, "\u0120guessing": 17668, "\u0120bit": 12947, "\u0120think": 25683, "\u0120reason": 22844, "\u0120haven": 17808, "\u0120really": 22831, "\u0120defined": 15063, "\u0120,": 11098, "\u0120instead": 18682, "\u0120generic": 17361, "\u0120happens": 17756, "\u0120implement": 18281, "\u0120call": 13374, "\u0120()": 11029, "\u0120provide": 22493, "\u0120enough": 16176, "\u0120disambiguate": 15483, "the": 9587, "\u0120type": 26244, "\u0120let": 19429, ").": 193, "\u0120invitation": 18891, "\u0120link": 19573, "\u0120our": 21318, "\u0120own": 21420, "\u0120system": 25419, "\u0120api": 12207, "\u0120get": 17385, "\u0120token": 25860, "\u0120now": 20912, "\u0120problems": 22341, "\u0120\"": 10918, "403": 928, "\"": 29, "\u0120passing": 21611, "\u0120key": 19186, "\u0120well": 27127, "\u0120header": 17826, "\u0120request": 23327, "\u0120context": 14377, "\u0120documentation": 15675, "\u0120https": 18077, "://": 1413, "developers": 3731, "trustpilot": 9801, "com": 3152, "invitation": 5786, "-": 273, "api": 2082, "#": 61, "generate": 4839, "service": 8921, "review": 8549, "link": 6457, "\u0120map": 19898, "\u0120str": 24952, "\u0120reproduces": 23316, "\u0120other": 21311, "\u0120values": 26767, "\u0120note": 20880, "\u0120create": 14623, "\u0120new": 20744, "\u0120adding": 11776, "\u0120string": 24994, "\u0120literal": 19610, "\u0120owned": 21421, "\u0120case": 13466, "\u0120your": 27469, "\u0120literals": 19612, "'re": 123, "\u0120written": 27360, "\u0120binary": 12927, "\u0120together": 25852, "\u0120going": 17499, "\u0120make": 19836, "\u0120some": 24578, "\u0120s": 23754, "\u0120represent": 23301, "\u0120actual": 11750, "\u0120owning": 21427, "\u0120then": 25655, "\u0120slices": 24463, "\u0120one": 21141, "\u0120does": 15685, "\u0120sense": 24062, "\u0120convert": 14452, "\u0120another": 12165, "\u0120problem": 22339, "\u0120expects": 16501, "\u0120resulting": 23448, "\u0120size": 24415, "and": 1999, "\u0120alignment": 11978, "\u0120original": 21280, "\u0120fails": 16653, "\u0120runtime": 23710, "\u0120-": 11101, "\u0120demo": 15127, "\u0120several": 24158, "\u0120possible": 22075, "\u0120changes": 13623, "\u0120could": 14542, "\u0120declare": 14975, "\u0120would": 27327, "\u0120which": 27157, "\u0120will": 27210, "\u0120immediately": 18252, "\u0120free": 17150, "\u0120after": 11891, "\u0120creating": 14626, "\u0120output": 21343, "\u0120package": 21440, "\u0120project": 22408, "\u0120folder": 16992, "\u0120far": 16695, "\u0120did": 15390, "\u0120cargo": 13446, "\u0120extern": 16597, "\u0120dependencies": 15173, "\u0120h": 17695, "ande": 2002, "led": 6324, "\u0120:": 11468, "\u0120lines": 19568, "\u0120compile": 14064, "\u0120(),": 11031, "\u0120doing": 15691, "\u0120even": 16352, "\u0120load": 19638, "\u0120crates": 14616, "\u0120than": 25635, "\u0120file": 16810, "\u0120edit": 15937, "\u01201": 11154, "\u0120solve": 24572, "\u0120stated": 24867, "\u0120above": 11613, "\u0120root": 23621, "\u0120order": 21256, "\u0120been": 12816, "\u0120install": 18656, "\u0120windows": 27222, "\u0120sub": 25067, "sy": 9445, "tem": 9537, "\u0120linux": 19589, "wsl": 10564, "\u0120mentioned": 20088, "\u0120keeps": 19174, "\u0120erring": 16283, "\u0120answers": 12174, "\u0120mention": 20087, "\u0120around": 12349, "\u0120executed": 16440, "\u0120avail": 12617, "\u0120issues": 18975, "\u0120github": 17425, "\u0120pre": 22128, "\u0120ing": 18539, "\u0120didn": 15392, "\u0120means": 20024, "or": 7488, "\u0120downloading": 15746, "from": 4737, "\u0120)": 11074, "\u0120running": 23708, "\u0120gives": 17431, "\u0120yet": 27457, "\u0120found": 17104, "\u0120lead": 19368, "\u0120being": 12847, "\u0120able": 11605, "\u0120wsl": 27375, "\u0120env": 16219, "\u012010": 11155, "\u0120ver": 26832, "\u012020": 11245, "h": 5052, "2": 665, "\u0120certificate": 13572, "\u0120getting": 17397, "\u0120sh": 24170, "rustup": 8727, "\u0120self": 24039, "signed": 9012, "\u0120since": 24387, "\u0120advent": 11841, "\u0120authorities": 12582, "\u0120almost": 12012, "\u0120nobody": 20813, "\u0120operates": 21199, "\u0120website": 27098, "\u0120because": 12807, "\u0120vulnerable": 26976, "\u0120man": 19851, "in": 5563, "middle": 6829, "\u0120attacks": 12526, "\u0120exception": 16409, "\u0120seeing": 24005, "\u0120tampering": 25462, "\u0120non": 20831, "default": 3629, "\u0120antivirus": 12184, "\u0120programs": 22399, "\u0120scan": 23854, "\u0120traffic": 25958, "\u0120out": 21323, "\u0120machine": 19795, "\u0120viruses": 26907, "\u0120intercept": 18744, "\u0120those": 25699, "\u0120connections": 14275, "\u0120insert": 18623, "\u0120authority": 12583, "\u0120impersonate": 18273, "\u0120doesn": 15686, "\u0120sees": 24015, "\u0120attack": 12522, "\u0120data": 14863, "\u0120most": 20413, "\u0120actually": 11752, "\u0120substantially": 25135, "\u0120weaken": 27065, "\u0120security": 23989, "\u0120choosing": 13697, "\u0120worse": 27322, "\u0120versions": 26855, "\u0120tls": 25832, "\u0120ciphers": 13722, "\u0120cases": 13469, "\u0120entirely": 16195, "\u0120neglecting": 20707, "\u0120verification": 26840, "\u0120leaving": 19390, "\u0120exposed": 16564, "\u0120mitm": 20290, "\u0120anyone": 12191, "\u0120internet": 18786, "\u0120event": 16355, "\u0120soon": 24597, "\u0120fail": 16648, "\u0120encrypted": 16126, "\u0120sni": 24531, "3": 816, "\u0120thing": 25679, "\u0120fix": 16893, "\u0120computer": 14152, "\u0120either": 15973, "\u0120disable": 15466, "\u0120feature": 16739, "\u0120remove": 23216, "\u0120rogue": 23604, "\u0120ca": 13344, "\u0120completely": 14085, "\u0120uninstall": 26450, "\u0120def": 15039, "ender": 4137, "\u0120prevent": 22271, "\u0120intercepting": 18745, "\u0120allow": 12001, "\u0120currently": 14780, "\u0120diving": 15631, "\u0120writing": 27359, "\u0120little": 19617, "\u0120math": 19965, "\u0120library": 19487, "\u0120quite": 22694, "\u0120model": 20328, "\u0120fields": 16796, "\u0120rings": 23564, "\u0120lifetimes": 19523, "\u0120right": 23554, "\u0120ring": 23562, "\u0120field": 16794, "\u0120compiling": 14071, "\u0120lifetime": 19521, "\u0120section": 23976, "by": 2761, "example": 4348, "\u0120motivation": 20421, "\u0120behind": 12844, "\u0120obvious": 21034, "\u0120understand": 26386, "\u0120given": 17430, "\u0120examples": 16399, "\u0120totally": 25914, "\u0120lost": 19737, "\u0120btw": 13242, "\u0120minified": 20210, "\u0120version": 26852, "\u0120giving": 17432, "\u0120named": 20609, "\u0120impl": 18278, "\u0120various": 26789, "\u0120said": 23773, "\u0120may": 19993, "\u0120explain": 16526, "\u0120happening": 17755, "\u0120too": 25883, "\u0120specific": 24670, "\u0120traits": 25965, "\u0120king": 19230, "\u0120inheritance": 18547, "like": 6437, "\u0120pattern": 21636, "\u0120trait": 25963, "\u0120somehow": 24581, "\u0120interfaces": 18763, "\u0120provided": 22494, "\u0120languages": 19305, "\u0120only": 21149, "\u0120guaranty": 17658, "\u0120methods": 20140, "\u0120syntax": 25404, "\u0120mean": 20018, "\u0120superset": 25254, "\u0120implementing": 18288, "\u0120states": 24872, "\u0120implemented": 18285, "\u0120structs": 25017, "\u0120already": 12029, "\u0120yourself": 27471, "\u0120approach": 12265, "\u0120first": 16879, "\u0120define": 15062, "\u0120requires": 23342, "\u0120explanations": 16533, "\u0120strange": 24959, "\u0120wrote": 27365, "\u0120object": 21000, "\u0120reference": 23029, "\u0120peculiar": 21679, "\u0120require": 23337, "\u0120playing": 21932, "\u0120situation": 24411, "\u0120won": 27278, "\u0120play": 21922, "\u0120classic": 13771, "\u0120generics": 17365, "\u0120suffice": 25203, "\u0120look": 19705, "\u0120answer": 12170, "\u0120details": 15307, "\u0120learn": 19381, "\u0120wasm": 27030, "\u0120page": 21461, "\u0120input": 18609, "\u0120button": 13322, "\u0120player": 21926, "name": 7044, "button": 2758, "\u0120tutorial": 26210, "\u0120closures": 13842, "\u0120put": 22585, "\u0120behavior": 12840, "\u0120click": 13801, "\u0120got": 17520, "\u0120compiler": 14066, "\u0120follows": 17005, "toml": 9703, "\u0120caused": 13506, "\u0120causes": 13507, "\u0120variable": 26775, "\u0120used": 26695, "\u0120closure": 13841, "\u0120contains": 14368, "\u0120cause": 13505, "e": 3950, "\u0120contain": 14362, "\u0120references": 23031, "\u0120stored": 24948, "\u0120outside": 21351, "\u0120itself": 19002, "\u0120implicitly": 18298, "\u0120requirement": 23339, "\u0120variables": 26776, "\u0120second": 23967, "\u0120comparison": 14048, "\u0120replaced": 23272, "\u0120raw": 22770, "\u0120sockets": 24553, "\u0120c": 13343, "\u0120ending": 16138, "\u0120google": 17513, "\u0120available": 12619, "\u0120crate": 14613, "\u0120called": 13378, "\u0120pnet": 21964, "crates": 3401, "io": 5795, "pnet": 7936, "\u0120docs": 15668, "docs": 3845, "0": 377, "20": 666, "\u0120progress": 22400, "\u0120learning": 19385, "\u0120fun": 17231, "\u0120experience": 16506, "\u0120/": 11130, "++": 237, "\u0120complex": 14091, "\u0120paradigms": 21513, "\u0120background": 12680, "after": 1821, "),": 190, "\u0120n": 20595, "dimensional": 3773, "\u0120matrix": 19975, "\u0120practice": 22116, "\u0120development": 15334, "\u0120basic": 12755, "\u0120fill": 16826, "\u0120initializations": 18565, "\u0120forgive": 17057, "\u0120absent": 11619, "\u0120bound": 13131, "\u0120checking": 13664, "\u0120parameter": 21532, "\u0120testing": 25615, "\u0120ability": 11603, "empty": 4103, "\u0120fn": 16975, "\u0120thought": 25702, "\u0120option": 21243, "\u0120enum": 16209, "\u0120best": 12887, "\u0120accomplish": 11671, "\u0120space": 24630, "\u0120t": 25427, "\u0120automatically": 12606, "\u0120comes": 13985, "\u0120down": 15733, "\u0120set": 24141, "\u0120entries": 16203, "\u0120looked": 19708, "\u0120logic": 19683, "\u0120each": 15895, "\u0120ideally": 18148, "\u0120happen": 17752, "\u0120value": 26764, "if": 5401, "\u0120changed": 13620, "\u01200": 11142, "\u012023": 11283, "which": 10453, "\u0120returning": 23483, "\u0120).": 11076, "\u0120finally": 16843, "\u0120vec": 26809, "\u0120spots": 24731, "\u0120open": 21166, "\u0120suggestions": 25218, "\u0120:)": 11470, "\u0120final": 16836, "\u0120thoughts": 25703, "\u0120research": 23358, "\u0120impls": 18303, "\u0120see": 23999, "\u0120typed": 26252, "\u0120sized": 24416, "\u0120useful": 26697, "\u0120unsure": 26596, "\u0120few": 16775, "\u0120ways": 27058, "\u0120idiomatic": 18169, "\u0120branch": 13157, "\u0120assume": 12462, "\u0120show": 24263, "\u0120index": 18436, "\u0120definition": 15068, "\u0120feel": 16754, "\u0120safe": 23765, "\u0120assumption": 12466, "\u0120mutable": 20536, "\u0120initialized": 18568, "\u0120unlike": 26480, "\u0120pointers": 21976, "c": 2770, "\u0120point": 21972, "\u0120uninitialized": 26449, "\u0120return": 23481, "\u0120leads": 19370, "\u0120easiest": 15909, "\u0120user": 26704, "\u0120decide": 14958, "\u0120was": 27028, "\u0120close": 13832, "\u0120storing": 24950, "\u0120panic": 21500, "\u0120caller": 13380, "\u0120choose": 13695, "\u0120go": 17491, "\u0120further": 17256, "\u0120gent": 17372, "r": 8252, "ifying": 5423, "\u0120next": 20757, "\u0120allows": 12009, "\u0120rather": 22762, "\u0120wrapping": 27343, "\u0120cleans": 13788, "\u0120nicely": 20770, "\u0120access": 11652, "\u0120initialization": 18564, "\u0120were": 27129, "1": 514, "\u0120optional": 21244, "\u0120capability": 13413, "\u0120themselves": 25654, "\u0120we": 27063, "\u0120always": 12051, "\u0120losing": 19731, "\u0120functionality": 17240, "\u0120suggestion": 25217, "\u0120common": 14010, "\u0120world": 27315, "\u0120whether": 27155, "\u0120implements": 18292, "\u0120default": 15040, "\u0120returns": 23484, "\u0120ad": 11756, "itional": 5949, "\u0120info": 18521, "\u0120comments": 14001, "\u0120traps": 26035, "'ve": 126, "\u0120fallen": 16672, "\u0120dimensions": 15442, "\u0120exist": 16472, "\u0120longer": 19699, "\u0120dimension": 15439, "\u0120created": 14624, "\u0120hasn": 17797, "\u0120statically": 24874, "\u0120static": 24873, "\u0120occur": 21050, "\u0120dynamic": 15888, "\u0120else": 16024, "\u0120these": 25671, "same": 8755, ")?": 204, "\u0120stack": 24811, "\u0120allocation": 11997, "\u0120arrays": 12360, "\u0120must": 20531, "\u0120deterministic": 15321, "\u0120time": 25784, "otherwise": 7600, "\u0120known": 19254, "\u0120heap": 17833, "\u0120leaves": 19389, "\u0120real": 22813, "\u0120options": 21247, "\u0120saying": 23836, "\u0120adds": 11790, "explanatory": 4400, "\u0120resized": 23386, "\u0120cost": 14538, "\u0120overhead": 21375, "\u0120'": 10987, "\u0120discriminate": 15537, "\u0120unsafe": 26560, "\u0120territory": 25600, "\u0120chunk": 13712, "\u0120big": 12911, "\u0120hold": 17967, "\u0120unsafely": 26562, "\u0120lot": 19738, "\u0120usually": 26720, "\u0120worth": 27324, "\u0120heavily": 17843, "\u0120optimized": 21237, "\u0120stores": 24949, "\u0120magic": 19809, "\u0120null": 20946, "\u0120macro": 19801, "\u0120part": 21577, "\u0120once": 21139, "\u0120cloned": 13829, "\u0120until": 26604, "\u0120extra": 16602, "\u0120interface": 18762, "\u0120smoother": 24512, "\u0120having": 17810, "\u0120trouble": 26111, "\u0120uncrustify": 26362, "\u0120format": 17069, "\u0120lambdas": 19293, "\u0120turns": 26205, "\u0120lambda": 19292, "\u0120doe": 15684, "\u0120setting": 24148, "\u0120responsible": 23418, "\u0120positioning": 22063, "\u0120braces": 13150, "\u0120looking": 19709, "\u0120config": 14218, "\u0120settings": 24149, "23": 731, "\u0120assigning": 12440, "\u0120symbol": 25368, "\u0120additional": 11778, "\u0120newlines": 20752, "\u0120configured": 14227, "\u0120align": 11975, "\u0120sign": 24311, "\u01208": 11431, "30": 817, "33": 854, "\u0120changing": 13624, "\u0120maybe": 19994, "\u0120pair": 21476, "\u0120plausible": 21921, "\u0120might": 20174, "\u0120serious": 24117, "\u0120style": 25061, "\u0120re": 22787, "forms": 4687, "\u0120suitable": 25221, "\u0120statement": 24870, "\u0120keep": 19170, "\u0120single": 24391, "they": 9608, "\u0120stay": 24888, "\u01209": 11449, "64": 1143, "\u0120ensures": 16182, "\u0120import": 18306, "\u0120demonstrates": 15134, "\u0120rustc": 23725, "\u0120test": 25606, "i": 5273, "10": 515, "\u0120least": 19387, "\u0120according": 11677, "\u0120.)": 11114, "buf": 2723, "\u0120update": 26639, "\u0120latest": 19327, "\u0120nightly": 20787, "\u0120otherwise": 21313, "\u0120raii": 22724, "'d": 120, "\u0120delay": 15086, "\u0120dropping": 15808, "#,": 68, "\u0120gc": 17319, "keep": 6148, "alive": 1901, "\u0120prevents": 22275, "\u0120garbage": 17300, "\u0120collected": 13947, "\u0120essentially": 16314, "op": 7446, "\u0120perspective": 21769, "\u0120application": 12250, "\u0120guarantees": 17657, "\u0120flow": 16957, "\u0120mostly": 20414, "\u0120certain": 13565, "\u0120prefer": 22185, "\u0120convention": 14439, "\u0120recogn": 22899, "izable": 5997, "\u0120programmer": 22396, "\u0120drop": 15803, "\u0120explicitly": 16538, "\u0120moved": 20434, "\u0120signals": 24315, "\u0120developers": 15332, "\u0120destruction": 15286, "\u0120necessarily": 20679, "\u0120indicate": 18444, "\u0120comment": 13995, "\u0120had": 17708, "\u0120temporary": 25560, "\u0120needed": 20688, "\u0120determine": 15317, "\u0120frusta": 17197, "\u0120intersect": 18815, "\u0120intersection": 18817, "\u0120100": 11156, "%": 82, "\u0120exact": 16388, "\u0120location": 19663, "\u0120touch": 25917, "\u0120position": 22060, "\u0120volume": 26945, "\u0120sort": 24605, "\u0120took": 25884, "\u0120separating": 24079, "\u0120axis": 12662, "\u0120theorem": 25657, "\u0120collision": 13957, "\u0120detection": 15312, "\u0120figure": 16805, "\u0120exactly": 16389, "\u0120anybody": 12188, "\u0120direction": 15452, "\u0120sat": 23810, "\u0120touching": 25920, "\u0120give": 17429, "\u0120percentage": 21715, "\u0120overlap": 21379, "\u0120calculate": 13361, "\u0120po": 21967, "hedron": 5117, "\u0120intersecting": 18816, "\u0120divide": 15626, "\u0120frustum": 17203, "\u0120calculating": 13365, "\u0120overlapping": 21380, "\u0120build": 13269, "\u0120bsp": 13229, "\u0120cs": 14706, "g": 4787, "\u0120operation": 21201, "\u0120intere": 18755, "section": 8830, "\u0120poly": 22009, "\u0120tetra": 25618, "hedrons": 5118, "\u0120volumes": 26946, "\u0120academic": 11636, "\u0120papers": 21509, "hedral": 5116, "ization": 5998, "\u0120representation": 23303, "\u0120assuming": 12465, "\u0120exists": 16480, "\u0120write": 27355, "\u0120boxed": 13142, "\u0120types": 26259, "\u0120advocate": 11860, "value": 10208, "\u0120base": 12749, "\u0120implementation": 18283, "\u0120mutating": 20543, "\u0120provides": 22498, "\u0120flexibility": 16939, "boxed": 2670, "\u0120notably": 20874, "\u0120efficient": 15961, "\u0120perform": 21721, "\u0120allocations": 11998, "\u0120oli": 21121, "obk": 7283, "\u0120ker": 19180, "\u0120points": 21980, "\u0120applies": 12254, "\u0120merges": 20102, "\u0120structures": 25023, "\u0120sets": 24144, "\u0120merged": 20101, "\u0120elements": 15994, "\u0120copyable": 14493, "\u0120addressed": 11786, "\u0120taking": 25451, "\u0120merge": 20100, "\u0120trick": 26078, "\u0120move": 20432, "\u0120box": 13141, "\u0120contents": 14374, "\u0120dereferencing": 15203, "\u0120combine": 13978, "use": 10130, "\u0120boxes": 13143, "\u0120inside": 18630, "\u0120cpu": 14588, "\u0120spent": 24702, "\u0120intended": 18723, "map": 6672, "\u0120command": 13990, "\u0120compute": 14150, "\u0120crc": 14621, "32": 845, "\u0120implementations": 18284, "\u0120achieve": 11702, "\u0120intention": 18730, "\u0120interactions": 18739, "\u0120appears": 12233, "\u0120operate": 21197, "\u0120correctly": 14516, "\u0120consumes": 14356, "\u0120equivalent": 16257, "\u0120though": 25701, "\u0120compiled": 14065, "\u0120optimisations": 21226, "\u0120mac": 19792, "\u0120osx": 21309, "\u0120ssd": 24775, "\u0120executing": 16442, "\u0120eliminate": 16009, "\u0120impact": 18262, "cold": 3138, "\u0120buffers": 13260, "warm": 10384, "\u0120produces": 22366, "\u01204": 11344, "\u0120seconds": 23970, "\u0120cold": 13936, "\u0120less": 19424, "\u0120warm": 27017, "\u0120run": 23701, "\u012030": 11316, "+": 231, "\u0120util": 26724, "isation": 5857, "\u0120higher": 17908, "eg": 4041, "\u012025": 11297, "\u012080": 11432, "+%": 234, "\u0120expect": 16495, "\u0120come": 13984, "\u0120computation": 14146, "\u0120copying": 14494, "\u0120difference": 15404, "\u0120scanning": 23857, "gb": 4811, "\u0120xml": 27418, "\u0120mapping": 19902, "mb": 6727, "\u0120seen": 24014, "\u01203": 11315, "9": 1334, "\u0120os": 21296, "\u0120specifics": 24674, "\u0120expose": 16563, "\u0120probably": 22334, "\u0120treat": 26052, "\u0120differently": 15411, "\u0120flag": 16904, "\u0120specified": 24675, "\u0120making": 19842, "\u0120syscall": 25415, "\u0120slower": 24483, "\u0120back": 12674, "\u0120algorithm": 11963, "\u0120hackerrank": 17701, "\u0120times": 25793, "\u0120larger": 19313, "\u01205": 11369, "\u0120people": 21708, "\u0120who": 27173, "\u0120completed": 14083, "\u0120believe": 12852, "\u0120release": 23153, "\u0120mode": 20327, "\u0120speed": 24690, "ups": 10080, "\u0120missing": 20267, "\u0120gist": 17423, "\u0120game": 17287, "\u0120counter": 14548, "inp": 5689, "\u0120conditionally": 14205, "\u0120reduced": 22998, "\u0120based": 12751, "\u0120reduce": 22997, "\u0120winner": 27229, "\u0120chosen": 13702, "\u0120inner": 18597, "\u0120loop": 19715, "\u0120combination": 13973, "\u0120builtin": 13283, "\u0120allocating": 11996, "\u0120every": 16362, "\u0120slice": 24461, "\u0120returned": 23482, "\u0120avoiding": 12634, "\u0120speeding": 24691, "\u0120per": 21711, "\u0120avoided": 12633, "\u0120supply": 25267, "\u0120alter": 12035, "\u0120borrows": 13113, "\u0120):": 11077, "\u0120modify": 20349, "\u0120improvement": 18331, "o": 7271, "\u0120explicitness": 16539, "\u0120triggers": 26092, "\u0120buffered": 13257, "\u0120argument": 12330, "\u0120easier": 15908, "\u0120specify": 24680, "\u0120annotating": 12148, "\u0120mandatory": 19865, "\u0120borrow": 13104, "\u0120putting": 22587, "\u0120altogether": 12049, "\u0120bigger": 12913, "\u0120win": 27214, "might": 6832, "\u0120sufficient": 25205, "\u0120forget": 17054, "\u0120apply": 12255, "\u0120@": 11526, "jo": 6082, "hn": 5188, "\u0120advices": 11852, "'ll": 121, "free": 4727, "bash": 2451, "\u0120cipher": 13721, "\u0120exercise": 16456, "\u0120exercism": 16459, "\u0120round": 23643, "ort": 7553, "ured": 10094, "\u0120manipulation": 19883, "\u0120grokked": 17623, "\u0120take": 25447, "\u0120fewer": 16776, "\u0120below": 12861, "\u0120important": 18308, "\u0120concept": 14173, "\u0120min": 20199, "up": 10065, "ulating": 9931, "\u0120involves": 18905, "\u0120outputting": 21348, "\u0120character": 13632, "\u0120characters": 13635, "\u0120included": 18369, "\u0120goes": 17497, "\u0120place": 21897, "\u0120students": 25043, "\u0120search": 23953, "\u0120advice": 11850, "\u0120users": 26713, "rust": 8712, "lang": 6251, "org": 7516, "\u0120made": 19804, "\u0120split": 24723, "\u0120executable": 16437, "\u0120large": 19311, "\u0120full": 17222, "\u0120definitions": 15069, "structs": 9355, "\u0120their": 25648, "\u0120prepend": 22218, "\u0120reduces": 22999, "\u0120readability": 22799, "\u0120pub": 22536, "\u0120decomp": 14986, "osing": 7576, "\u0120multiple": 20498, "\u0120expected": 16499, "\u0120privacy": 22317, "\u0120boundary": 13133, "\u0120level": 19437, "\u0120module": 20358, "\u0120submodules": 25103, "\",": 41, "\u0120parent": 21554, "\u0120sibling": 24284, "\u0120permission": 21742, "\u0120typically": 26265, "\u0120invariants": 18869, "\u0120uphold": 26650, "\u0120public": 22537, "\u0120bounds": 13137, "\u0120preca": 22134, "ution": 10174, "\u0120programmers": 22397, "\u0120unusual": 26615, "\u0120thousands": 25705, "\u0120unless": 26479, "\u0120mirroring": 20239, "\u0120external": 16598, "\u0120consider": 14298, "\u0120auto": 12589, "generating": 4842, "\u0120coding": 13912, "\u0120defining": 15065, "\u0120&[": 10985, "u": 9862, "].": 1586, "\u0120wanna": 27011, "\u0120freely": 17156, "\u0120v": 26740, "\u0120=": 11498, "clone": 3078, "()": 139, "]": 1571, "\u0120[": 11527, "],": 1584, "\u0120obviously": 21035, "\u0120couldn": 14543, "\u0120anything": 12192, "\u0120thank": 25636, "\u0120represented": 23307, "pointer": 7945, "\u0120length": 19417, "\u0120integers": 18705, "\u0120records": 22936, "\u0120many": 19897, "\u0120hand": 17728, "\u0120literally": 19611, "some": 9124, "\u0120amount": 12078, "\".": 44, "\u0120calls": 13384, "\u0120unsized": 26575, "\u0120limited": 19555, "\u0120referenced": 23030, "\u0120indirectly": 18461, "\u0120mutate": 20540, "\u0120discovered": 15526, "\u0120calling": 13383, "\u0120clones": 13830, "\u0120shared": 24196, "\u0120instance": 18666, "length": 6353, "\u0120pointing": 21977, "\u0120generally": 17352, "\u0120result": 23445, "\u0120fresh": 17170, "\u0120except": 16408, "\u0120tracks": 25948, "\u0120capacity": 13415, "how": 5222, "\u0120allocated": 11994, "\u0120turning": 26204, "\u0120storage": 24945, "\u0120reused": 23489, "capacity": 2819, "\u0120discarded": 15501, "\u0120res": 23352, "uting": 10173, "\u0120again": 11898, "\u0120triple": 26100, "\u0120prints": 22308, "\u0120print": 22298, "\u0120opposite": 21215, "\u0120bug": 13264, "\u0120missed": 20264, "\u0120surface": 25290, "\u0120associated": 12454, "\u0120inference": 18500, "\u0120directions": 15454, "\u0120sometimes": 24588, "\u0120wording": 27291, "\u0120fits": 16890, "\u0120expectations": 16498, "\u0120situations": 24412, "\u0120feels": 16757, "\u0120backwards": 12698, "\u0120course": 14564, "\u0120difficult": 15415, "\u0120mis": 20241, "match": 6703, "\u0120reported": 23292, "\u0120cod": 13891, "\u0120human": 18090, "\u0120interpretation": 18799, "actual": 1749, "expected": 4389, "\u0120general": 17341, "\u0120agree": 11915, "\u0120confusing": 14255, "\u0120sure": 25288, "\u0120talked": 25454, "\u0120harm": 17773, "\u0120report": 23291, "\u0120followed": 17001, "\u0120guide": 17674, "\u0120draw": 15776, "\u0120lorenz": 19728, "d": 3526, "\u0120extend": 16584, "\u0120switch": 25356, "\u0120substitute": 25137, "\u0120gl": 17433, "uortho": 10062, "\u0120gluperspective": 17477, "\u0120glfrustum": 17448, "\u0120unfortunately": 26419, "\u0120whatever": 27140, "\u0120useless": 26700, "\u0120while": 27159, "\u0120visualize": 26924, "\u0120window": 27219, "\u0120black": 12982, "\u0120name": 20608, "gl": 4915, "\u0120misleading": 20256, "\u0120ever": 16361, "\u0120near": 20666, "\u0120wow": 27330, "\u0120complicated": 14099, "gen": 4829, "ious": 5811, "\u0120anyway": 12194, "\u0120nothing": 20886, "\u0120projection": 22411, "\u0120depth": 15190, "\u0120range": 22744, "\u0120perfectly": 21720, "\u0120likely": 19545, "\u0120generated": 17355, "\u0120lie": 19511, "\u0120z": 27476, "\u0120confined": 14231, "\u0120iirc": 18206, "\u0120attractor": 12541, "\u0120positive": 22065, "\u0120translation": 26008, "\u0120suggest": 25214, "5": 1017, "\u0120things": 25681, "\u0120center": 13547, "\u0120viewing": 26883, "\u0120validate": 26752, "\u0120xades": 27393, "\u0120signature": 24316, "timestamp": 9658, "element": 4063, "encoded": 4127, "\u0120block": 13015, "lib": 6392, "4": 918, "j": 6008, "\u0120basically": 12756, "\u0120validation": 26756, "\u0120manually": 19892, "\u0120inspect": 18644, "\u0120timestamp": 25794, "especially": 4289, "\u0120certificates": 13574, "\u0120validity": 26759, "\u0120etc": 16327, "\u0120tool": 25885, "\u0120openssl": 21187, "\u0120bouncy": 13129, "\u0120castle": 13479, "\u0120generate": 17354, "\u0120timestamps": 25801, "\u0120bc": 12779, "\u0120serialize": 24108, "\u0120udp": 26284, "\u0120serialization": 24107, "\u0120lives": 19621, "\u0120end": 16130, "\u0120scope": 23896, "\u0120makes": 19841, "\u0120byte": 13332, "a": 1634, "\u0120success": 25182, "\u0120playground": 21930, "\u0120outlive": 21338, "\u0120annotations": 12150, "\u0120explicit": 16536, "\u0120objects": 21004, "\u0120live": 19618, "\u0120stop": 24938, "strict": 9342, "\u0120assumptions": 12467, "\u0120ownership": 21425, "\u0120bytes": 13337, "\u0120borrowing": 13111, "\u0120candidate": 13404, "\u0120unfortunate": 26417, "\u0120luckily": 19774, "\u0120serde": 24098, "\u0120last": 19317, "\u0120long": 19697, "\u0120needs": 20694, "hi": 5152, "\u0120questions": 22675, "\u0120concerning": 14181, "\u0120port": 22042, "\u0120boost": 13088, "\u0120concepts": 14176, "here": 5139, "):": 199, "\u0120x": 27391, "\u0120y": 27437, "\u0120immutable": 18258, "\u0120saw": 23834, "\u0120internals": 18782, "\u0120talks": 25456, "\u0120parametric": 21542, "\u0120mutability": 20535, "\u0120established": 16318, "\u0120rfc": 23536, "\u0120plans": 21914, "\u0120parametri": 21541, "zation": 10711, "\u0120numeric": 20961, "\u0120guest": 17670, "\u0120solution": 24569, "\u0120cleaner": 13784, "\u0120expressed": 16571, "\u0120strong": 25008, "\u0120desire": 15265, "\u0120along": 12014, "\u0120aware": 12647, "\u0120core": 14499, "\u0120team": 25523, "\u0120definitely": 15067, "\u0120wants": 27015, "\u0120priority": 22315, "\u0120reformat": 23061, "for": 4663, "'": 94, "\u0120separated": 24076, "\u0120three": 25721, "\u0120parts": 21602, "\u0120within": 27258, "\u0120parenthesis": 21557, "\u0120sed": 23997, "\u0120formatter": 17072, "\u0120care": 13438, "\u0120formatted": 17071, "\u0120gnu": 17489, "\u0120indent": 18425, "\u0120snippet": 24538, "\u0120manual": 19891, "\u0120accessed": 11653, "\u0120clang": 13757, "format": 4680, "\u0120kinda": 19225, "\u0120talk": 25453, "native": 7058, "2013": 681, "\u0120showed": 24265, "\u0120promising": 22423, "\u0120results": 23449, "\u0120started": 24855, "\u0120regarding": 23080, "\u0120regex": 23086, "\u0120check": 13656, "\u0120matches": 19954, "\u0120text": 25622, "\u0120identical": 18151, "\u0120matching": 19955, "\u0120succeeded": 25177, "\u0120couple": 14559, "\u0120indeed": 18421, "\u0120reading": 22806, "\u0120hunch": 18093, "\u0120encountering": 16119, "\u0120alex": 11955, "\u0120larionov": 19315, "\u0120pointed": 21973, "\u0120saved": 23829, "\u0120luck": 19773, "\u0120accept": 11644, "\u0120jpg": 19099, "\u0120images": 18233, "\u0120optimal": 21222, "\u0120arrangement": 12353, "\u0120paper": 21508, "...)": 320, "\u0120image": 18229, "\u0120optimally": 21223, "\u0120arranged": 12352, "/...": 363, "\u0120libraries": 19486, "\u0120suited": 25224, "\u0120jpeg": 19098, "width": 10470, "\u0120height": 17849, "\u0120resolution": 23390, "\u0120color": 13962, "\u0120profile": 22379, "\u0120operations": 21203, "github": 4907, "pistondevelopers": 7891, "image": 5509, "\u0120released": 23154, "cra": 3394, "btw": 2716, "bindgen": 2569, "\u0120bindings": 12935, "\u0120favourite": 16727, "\u0120export": 16559, "\u0120opengl": 21175, "\u0120console": 14313, "\u0120autocompletion": 12591, "\u0120constants": 14323, "\u0120ide": 18145, "visual": 10320, "\u0120studio": 25045, "\u0120sim": 24349, "generator": 4844, "\u0120copied": 14490, "\u0120global": 17462, "\u0120different": 15406, "functions": 4770, ".,": 310, "\u0120great": 17595, "\u0120printed": 22300, "\u0120include": 18368, "\u0120lib": 19457, "as": 2209, "\u0120includes": 18370, "\u0120lazy": 19359, "static": 9266, "\u0120repeated": 23257, "graphics": 4987, "ka": 6126, "iser": 5863, "1989": 663, "game": 4796, "android": 2012, "\u0120framework": 17136, "\u0120mainly": 19822, "\u0120javascript": 19036, "\u0120python": 22612, "\u0120developer": 15331, "\u0120oop": 21159, "\u0120wrap": 27338, "\u0120head": 17822, "\u0120especially": 16310, "\u0120tcp": 25511, "\u0120server": 24125, "streams": 9339, "\u0120asynchronously": 12492, "\u0120mio": 20231, "\u0120telling": 25546, "\u0120clue": 13852, "message": 6794, "without": 10500, "\u0120whatnot": 27141, "to": 9690, "\u0120relay": 23151, "\u0120workaround": 27296, "\u0120later": 19325, "\u0120design": 15252, "\u0120inherently": 18545, "\u0120flawed": 16930, "\u0120shows": 24268, "\u0120holding": 17969, "\u0120indicated": 18445, "\u0120anymore": 12190, "\u0120fortunately": 17091, "lexical": 6382, "\u01202018": 11262, "\u0120hard": 17761, "\u0120simply": 24372, "\u0120fetch": 16771, "\u0120holds": 17970, "acqu": 1721, "ired": 5837, "\u0120iteration": 18990, "\u0120network": 20736, "\u0120relative": 23146, "\u0120performance": 21722, "\u0120penalty": 21701, "\u0120(?)": 11061, "\u0120negligible": 20708, "due": 3925, "\u0120lack": 19281, "\u0120minimal": 20214, "able": 1661, "\u0120wasn": 27034, ".)": 303, "\u0120developing": 15333, "\u0120pwa": 22595, "\u0120submit": 25098, "\u0120twa": 26215, "\u0120cant": 13409, "\u0120manage": 19853, "\u0120hide": 17899, "\u0120url": 26680, "\u0120bar": 12733, "\u0120digital": 15429, "\u0120asset": 12431, "\u0120links": 19582, "\u0120tested": 25610, "\u0120connected": 14271, "\u0120successfully": 25185, "\u0120editor": 15942, "\u0120intent": 18729, "\u0120filter": 16831, "\u0120association": 12457, "\u0120assetlinks": 12432, "json": 6104, "\u0120android": 12129, "\u0120manifest": 19873, "gradle": 4977, "\u0120app": 12219, "...": 313, "keytool": 6175, "list": 6474, "printcert": 8070, "jarfile": 6023, "release": 8436, "apk": 2084, "package": 7695, "assetlinks": 2252, "id": 5345, "\u0120simplify": 24369, "\u0120procedure": 22346, "\u0120letting": 19433, "\u0120signatures": 24317, "\u0120sha": 24171, "215": 713, "\u0120keytool": 19206, "\u0120pretty": 22265, "\u0120neat": 20670, "\u0120handle": 17733, "\u0120functional": 17238, "\u0120cool": 14476, "\u0120handling": 17739, "\u0120replacement": 23273, "\u0120custom": 14793, "\u0120standard": 24839, "\u0120generalized": 17349, "\u0120form": 17065, "\u0120propose": 22458, "\u0120requiring": 23343, "\u0120unit": 26463, "\u0120simulate": 24375, "\u0120combined": 13979, "\u0120branches": 13158, "\u0120depending": 15177, "\u0120transform": 25987, "keys": 6171, "\u0120iterators": 18995, "\u0120nonetheless": 20839, "\u0120cub": 14724, "\u0120sorry": 24604, "\u0120disappoint": 15490, "\u0120afaik": 11871, "\u0120support": 25269, "\u0120theoretically": 25660, "\u0120deeper": 15037, "\u0120templat": 25551, "\u0120lift": 19525, "\u0120template": 25552, "\u0120headache": 17823, "\u0120doable": 15661, "\u0120transformation": 25988, "side": 9001, "\u0120ui": 26295, "\u0120body": 13056, "\u0120invisible": 18890, "\u0120shown": 24267, "\u0120(\"": 11018, "1234": 563, "567": 1079, "\").": 36, "\u0120fly": 16972, "\u0120amethyst": 12071, "15": 604, "\u0120u": 26273, "ib": 5296, "ut": 10157, "ton": 9705, "builder": 2737, "amethyst": 1964, "issues": 5897, "229": 730, "8": 1249, "\u0120notation": 20878, "\u0120swift": 25349, "\u0120shorthand": 24250, "\u0120anywhere": 12196, "\u0120short": 24238, "\u0120circuit": 13728, "\u0120execution": 16443, "\u0120verbose": 26835, "\u0120familiar": 16682, "\u0120collapse": 13940, "\u0120match": 19950, "\u0120+": 11092, "\u0120clause": 13779, "\u0120failure": 16654, "\u0120path": 21627, "\u0120nest": 20726, "\u0120happy": 17759, "\u0120proposals": 22457, "\u0120flexible": 16940, "\u0120equivalents": 16259, "guards": 5028, "\u0120),": 11075, "\u00e2\u0122\u013b": 10866, "re": 8316, "\u0120exiting": 16483, "\u0120mark": 19914, "\u0120operator": 21204, "\u0120skip": 24433, "\u0120ethereum": 16330, "\u0120address": 11784, "ethkey": 4308, "\u0120doesnt": 15687, "\u0120seem": 24009, "\u0120\u0120\u0120": 27612, "\u0120eth": 16328, "key": 6166, "\u0120(/": 11050, "users": 10139, "sam": 8754, "ue": 9895, "ld": 6297, "are": 2146, "documents": 3850, "code": 3115, "th": 9580, "\u0120\u0120\u0120\u0120\u0120\u0120": 27615, "\u0120finished": 16857, "\u0120dev": 15325, "un": 9967, "optimized": 7478, "\u0120debuginfo": 14948, "\u0120target": 25476, "34": 866, "\u0120\u0120\u0120\u0120\u0120\u0120\u0120": 27616, "\u0120thread": 25710, "\u0120panicked": 21501, "should": 8991, "ioerror": 5798, "os": 7567, "\u0120{": 27514, "\u0120notfound": 20885, "no": 7176, "\u0120}": 27527, "\u0120state": 24866, "error": 4259, "\u0120backtrace": 12692, "\u0120internal": 18780, "backtrace": 2425, "\u0120})',": 27530, "libcore": 6396, "result": 8528, "999": 1400, "\u0120environment": 16224, "\u0120display": 15567, "\u0120ive": 19006, "\u0120attempt": 12529, "\u0120appreciate": 12261, "\u0120takes": 25450, "\u0120std": 24892, "path": 7775, "\u0120closing": 13840, "\u0120slash": 24446, "\u0120'/'": 11007, "\u0120sample": 23786, "\u0120reduction": 23002, "\u0120float": 16950, "\u0120glm": 17459, "\u0120'<'": 11010, "\u0120maximum": 19991, "\u0120his": 17935, "\u0120yes": 27455, "\u0120quickstart": 22687, "\u0120review": 23508, "\u0120extrema": 16612, "\u0120varieties": 26787, "\u0120algorithms": 11966, "\u0120accepts": 11650, "\u0120functor": 17244, "\u0120trivial": 26108, "\u0120consists": 14311, "\u0120pile": 21850, "this": 9617, "\u0120creates": 14625, "\u0120source": 24623, "\u0120throw": 25732, "back": 2419, "\u0120poc": 21968, "\u0120driving": 15800, "\u0120mad": 19803, "\u0120private": 22318, "module": 6902, "\u0120troubles": 26113, "\u0120accessible": 11656, "via": 10290, "\u0120manipulate": 19879, "encapsulate": 4119, "\u0120showing": 24266, "\u0120scenarios": 23868, "playground": 7920, "\u0120btreemap": 13238, "\u0120hashmap": 17791, "\u0120complaining": 14074, "\u0120confused": 14253, "\u0120stage": 24821, "\u0120marked": 19916, "\u0120clearly": 13796, "\u0120receiver": 22880, "\u0120upon": 26657, "\u0120compiles": 14068, "\u0120linked": 19577, "\u0120list": 19594, "->": 291, "\u0120cut": 14804, "\u0120off": 21086, "\u0120reverse": 23501, "\u0120compose": 14116, "\u0120=>": 11509, "<-": 1451, "\u0120node": 20815, "next": 7129, "=": 1461, "\u0120stuck": 25039, "\u0120suppose": 25273, "\u0120helps": 17868, "ult": 9947, "ra": 8253, "sa": 8745, "urus": 10124, "\u0120resource": 23399, "unofficial": 10030, "too": 9707, "many": 6671, "lists": 6481, "/.": 361, "\u0120although": 12048, "\u0120weird": 27120, "\u0120zero": 27482, "\u01207": 11416, "\u0120reads": 22811, "\u0120moving": 20439, "\u0120ok": 21110, "\u0120initial": 18557, "there": 9600, "\u0120necessary": 20680, "\u012073": 11420, "\u012094": 11454, "\u0120break": 13168, "\u0120cast": 13476, "\u0120dereference": 15199, "\u0120number": 20952, "\u012017": 11227, "\u0120today": 25847, "\u0120previous": 22277, "\u0120deleted": 15098, "\u0120sinc": 24386, "ere": 4231, "\u0120ap": 12200, "ology": 7377, "\u0120shar": 24190, "pen": 7810, "\u0120skills": 24428, "\u0120meet": 20051, "\u0120stuff": 25048, "\u0120dun": 15852, "\u0120signs": 24331, "\u0120searched": 23954, "\u0120stackoverflow": 24817, "\u0120lands": 19299, "\u0120duplicating": 15862, "\u0120stdout": 24899, "buffered": 2726, "\u0120newline": 20751, "\u0120flush": 16965, "\u0120prefix": 22197, "\u0120golang": 17500, "\u0120current": 14779, "\u0120processing": 22356, "\u0120hundreds": 18095, "\u0120gzipped": 17694, "\u0120log": 19674, "\u0120json": 19103, "\u0120attempts": 12532, "\u0120surprisingly": 25298, "\u0120slow": 24481, "\u0120investigating": 18886, "\u0120noticed": 20890, "\u0120performs": 21727, "\u0120significantly": 24326, "\u0120faster": 16708, "\u0120backend": 12677, "\u0120noob": 20851, "\u0120upload": 26653, "\u0120rusoto": 23715, "\u0120stream": 24970, "\u0120acceptable": 11645, "\u0120client": 13806, "\u0120alias": 11968, "\u0120async": 12488, "ky": 6231, "\u0120fully": 17229, "\u0120fleshed": 16937, "\u0120ecosystem": 15930, "\u0120bottom": 13125, "\u0120accepted": 11647, "\u0120removing": 23219, "\u0120annotation": 12149, "\u0120concrete": 14194, "\u0120easily": 15910, "\u0120aforementioned": 11888, "\u0120reasons": 22849, "\u0120tests": 25617, "\u0120everything": 16366, "\u0120naming": 20616, "\u0120conflict": 14241, "\u0120attributes": 12545, "\u0120().": 11032, "\u0120looks": 19710, "\u0120vs": 26962, "\u0120plugin": 21957, "\u0120builds": 13278, "\u0120dont": 15707, "afaik": 1816, "\u0120runs": 23709, "\u0120/?": 11141, "\u0120configuration": 14224, "\u0120finds": 16848, "\u0120encounters": 16120, "\u0120managed": 19855, "\u0120confuse": 14252, "\u0120figured": 16806, "\u0120attempting": 12531, "\u0120queue": 22676, "\u0120producers": 22365, "\u0120queuet": 22679, "\u0120deque": 15192, "ued": 9896, "\u0120due": 15839, "\u0120producer": 22364, "data": 3548, "\u0120avoid": 12630, "\u0120casting": 13478, "\u0120clearer": 13793, "\u0120keyword": 19208, "\u0120indirections": 18460, "\u0120whole": 27175, "\u0120setup": 24153, "comp": 3187, "lict": 6415, "ed": 3992, "kmdreko": 6203, "think": 9614, "\u0120simpler": 24362, "\u0120hash": 17782, "\u0120table": 25430, "\u0120commands": 13992, "\u0120iterate": 18986, "\u0120printing": 22303, "\u0120usage": 26686, "executing": 4370, "\u0120execute": 16439, "such": 9388, "\u0120inserting": 18626, "\u0120database": 14864, "\u0120checker": 13662, "\u0120separate": 24075, "\u0120sounds": 24620, "\u0120unwieldy": 26619, "\u0120living": 19623, "\u0120fairly": 16661, "\u0120broad": 13198, "\u0120dozen": 15755, "\u0120solutions": 24570, "\u0120--": 11104, "\u0120told": 25870, "\u0120us": 26683, "maybe": 6726, "\u0120small": 24491, "\u0120subset": 25125, "\u0120features": 16741, "\u0120title": 25824, "\u0120suspect": 25312, "\u0120besides": 12886, "\u0120delete": 15097, "\u0120implicit": 18297, "\u0120...": 11117, "\u0120becomes": 12809, "\u0120book": 13078, "\u0120patterns": 21638, "\u0120maintain": 19825, "\u0120left": 19396, "\u0120achieved": 11703, "safe": 8749, "\u0120share": 24194, "\u0120threads": 25718, "\u0120whereas": 27149, "\u0120notice": 20887, "\u0120initializer": 18569, "\u0120violate": 26893, "\u0120rules": 23697, "\u0120trustzone": 26163, "\u0120enabled": 16089, "soc": 9101, "\u0120dram": 15771, "\u0120protected": 22471, "\u0120tzasc": 26270, "\u0120tzc": 26271, "400": 920, "\u0120registers": 23094, "\u0120configure": 14226, "\u0120permissions": 21743, "\u0120regions": 23090, "\u0120controlled": 14423, "\u0120during": 15869, "\u0120boot": 13089, "\u0120lock": 19665, "time": 9653, "\u0120reconfigure": 22924, "\u0120privileged": 22324, "monitor": 6910, "\u0120register": 23091, "on": 7401, "\u0120bus": 13311, "'.": 108, "\u0120typical": 26264, "\u0120arm": 12342, "\u0120control": 14421, "\u0120devices": 15342, "\u0120mapped": 19900, "\u0120freescale": 17158, "nxp": 7267, "\u0120imx": 18336, "\u0120product": 22368, "\u0120locking": 19668, "\u0120insure": 18700, "\u0120flex": 16938, "lity": 6488, "\u0120soc": 24546, "\u0120related": 23137, "\u0120partition": 21595, "\u0120peripherals": 21734, "\u0120funny": 17252, "\u0120unwrap": 26626, "\u0120repack": 23251, "age": 1824, "\u0120words": 27293, "\u0120leave": 19388, "\u0120aren": 12318, "\u0120compatible": 14052, "\u0120noting": 20899, "wrapping": 10551, "\u0120pulling": 22551, "\u0120apart": 12203, "\u0120conversion": 14450, "\u0120branching": 13159, "\u0120equally": 16249, "\u0120sans": 23805, "early": 3963, "\u0120graphical": 17578, "\u0120picture": 21839, "\u0120img": 18244, "\u0120doc": 15662, "iced": 5316, "widget": 10468, "struct": 9354, "html": 5237, "\u0120watch": 27043, "\u0120ge": 17330, "orust": 7562, "\u0120enable": 16088, "\u0120listed": 19596, "\u0120repository": 23299, "\u0120iterator": 18994, "\u0120whose": 27181, "type": 9849, "\u0120illustrative": 18225, "\u0120purpose": 22571, "\u0120depends": 15178, "\u0120empty": 16077, "\u0120\u0120\u0120\u0120": 27613, "iter": 5924, "\u0120ugly": 26293, "\u0120erasure": 16265, "\u0120complains": 14075, "\u0120originally": 21281, "ig": 5424, "\u0120says": 23837, "\u0120safely": 23767, "\u0120\u0120\u0120\u0120\u0120": 27614, "\u0120explains": 16530, "\u0120mpsc": 20447, "channel": 2951, "\u0120hashmaps": 17792, "\u0120sync": 25382, "\u0120channel": 13625, "\u0120tag": 25439, "\u0120outer": 21328, "\u0120sharing": 24199, "\u0120thus": 25748, "\u0120ideal": 18147, "\u0120sender": 24057, "\u0120recommend": 22910, "\u0120language": 19303, "\u0120chapter": 13629, "\u0120concurrency": 14197, "\u0120introduced": 18844, "\u0120pseudocode": 22518, "\u0120gets": 17392, "\u0120&": 10978, "str": 9327, "\u0120parse": 21568, "\u0120integer": 18704, "\u0120interpret": 18798, "reference": 8391, "\u00e2\u0122\u0142": 10877, "\u0120\u00e2\u0122\u0142": 27574, "\u0120representing": 23308, "index": 5609, "\u0120e": 15893, "\u0120architecture": 12305, "\u0120removed": 23217, "\u0120third": 25687, "\u0120undefined": 26369, "\u0120behaviour": 12842, "\u0120whomever": 27179, "\u0120tries": 26087, "\u0120op": 21162, "\u0120asked": 12397, "experimental": 4395, "\u0120purposes": 22574, "\u0120org": 21268, "apache": 2072, "xml": 10617, "rpc": 8663, "rp": 8661, "ce": 2886, "xception": 10594, "\u0120communicating": 14020, "\u0120http": 18066, "\u0120sun": 25241, "security": 8840, "validator": 10205, "validatorexception": 10206, "\u0120pkix": 21892, "\u0120building": 13274, "\u0120failed": 16649, "provider": 8154, "certpath": 2917, "suncertpathbuilderexception": 9405, "\u0120certification": 13575, "\u0120requested": 23328, "\u0120dealing": 14925, "\u0120chain": 13603, "\u0120cursory": 14786, "\u0120tie": 25767, "\u0120particular": 21590, "\u0120peer": 21693, "\u0120web": 27076, "\u0120hosting": 18031, "\u0120configurations": 14225, "\u0120requesting": 23331, "\u0120ne": 20665, "vel": 10244, "\u0120men": 20082, "imum": 5562, "\u0120site": 24404, "\u0120asp": 12404, "config": 3247, "\u0120ssl": 24779, "tls": 9682, "\u0120cloud": 13846, "cloud": 3088, "ibm": 5305, "mq": 6961, "topic": 9714, "oc": 7290, "jms": 6076, "auth": 2356, "\u0120mq": 20449, "\u0120receive": 22878, "\u0120ii": 18202, "\u0120downloaded": 15745, "\u0120factory": 16645, "\u0120sslcontext": 24781, "note": 7212, "\u0120docker": 15663, "\u0120ibmmq": 18136, "..": 311, "\u0120oracle": 21251, "\u0120..": 11115, "josh": 6094, "mc": 6733, "256": 769, "withrsa": 10501, "pec": 7798, "\u0120compatibility": 14051, "\u0120ibm": 18135, "\u0120signed": 24318, "\u0120cert": 13564, "\u0120tokio": 25869, "\u0120concurrent": 14198, "\u0120parallel": 21519, "\u0120eight": 15972, "\u0120cores": 14501, "\u0120coroutines": 14507, "\u0120top": 25896, "using": 10144, "\u0120multithreaded": 20512, "\u0120beginning": 12827, "\u0120counterproductive": 14552, "\u0120ask": 12396, "\u0120myself": 20579, "\u0120multi": 20486, "threaded": 9625, "\u0120customize": 14801, "\u0120worker": 27299, "\u0120roles": 23607, "\u0120laravel": 19310, "\u0120entrust": 16206, "models": 6897, "role": 8624, "php": 7866, "\u0120assign": 12436, "\u0120role": 23606, "\u0120receiving": 22883, "method": 6807, "\u0120;)": 11482, "\u0120expression": 16575, "\u0120expressions": 16576, "check": 2969, "\u0120respectively": 23406, "\u0120drawing": 15783, "\u0120boards": 13050, "\u0120pure": 22564, "\u0120sandbox": 23792, "\u0120willing": 27211, "\u0120untrusted": 26609, "\u0120dom": 15695, "\u0120allowing": 12006, "\u0120acces": 11651, "\u0120functionalities": 17239, "\u0120chrome": 13705, "\u0120possibility": 22074, "\u0120save": 23828, "defined": 3637, "\u0120deny": 15157, "\u0120ni": 20767, "\u0120proposed": 22459, "\u0120old": 21116, "stackoverflow": 9228, "115": 548, "13": 574, "690": 1175, "76": 1224, "08": 496, "\u0120construction": 14340, "\u0120extract": 16603, "\u0120including": 18371, "\u0120goodies": 17509, "\u0120hat": 17800, "\u0120tip": 25817, "\u0120crow": 14672, "der": 3676, "267": 780, "37": 887, "80": 1250, "149": 602, "341": 868, "\u0120he": 17821, "\u0120exploit": 16544, "\u0120buffering": 13259, "char": 2956, "',": 106, "\u0120push": 22580, "version": 10273, "\u0120future": 17268, "\u0120okay": 21111, "\u0120declared": 14976, "\u0120alternatively": 12046, "\u0120construct": 14336, "\u0120constructs": 14344, "\u0120ready": 22812, "\u0120asynchronous": 12491, "\u0120activity": 11744, "\u0120hexadecimal": 17890, "16": 620, "\u0120rgb": 23538, "\u0120decided": 14959, "\u0120bitwise": 12972, "\u0120operators": 21205, "\u0120hex": 17889, "\u0120resulted": 23447, "\u0120solved": 24573, "\u0120wondering": 27282, "\u0120mistake": 20270, "\u0120matt": 19977, "\u0120mihir": 20182, "\u0120cache": 13347, "\u0120invalid": 18859, "\u0120executions": 16446, "\u0120component": 14110, "\u0120minimum": 20222, "it": 5911, "\u0120captures": 13432, "case": 2841, "\u0120imagine": 18237, "\u0120concurrently": 14199, "\u0120creds": 14637, "\u0120appreciated": 12262, "\u0120ed": 15933, "ification": 5412, "\u0120expensive": 16504, "\u0120cached": 13348, "\u0120expire": 16521, "\u0120felt": 16762, "sync": 9454, "mutex": 7006, "\u0120solves": 24575, "\u0120emitting": 16054, "sized": 9055, "\u0120restructure": 23441, "\u0120generates": 17356, "\u0120variants": 26781, "\u0120executes": 16441, "\u0120ssh": 24777, "\u0120lower": 19747, "\u0120waits": 26989, "\u0120performing": 21726, "\u0120bad": 12699, "\u0120hosts": 18034, "\u0120simultaneously": 24383, "\u0120sleep": 24455, "\u0120affects": 11879, "\u0120streams": 24976, "\u0120speeds": 24692, "\u012090": 11450, "\u012067": 11411, "\u0120offline": 21097, "\u0120debug": 14942, "\u0120analysis": 12106, "\u0120wastes": 27040, "\u0120profiling": 22383, "\u0120analyzing": 12113, "\u0120dump": 15848, "\u0120wireshark": 27242, "\u012022": 11277, "\u0120convers": 14446, "ations": 2309, "\u0120tab": 25429, "\u0120speedup": 24693, "\u0120limit": 19552, "\u0120acl": 11712, "\u0120('": 11027, "venue": 10250, "owner": 7679, "')": 98, "enue": 4197, "\u0120owner": 21423, "\u0120relations": 23143, "\u0120tables": 25431, "\u0120en": 16087, "thrust": 9633, "\u0120migration": 20179, "\u0120eloquent": 16023, "\u0120gather": 17309, "except": 4351, "\u0120perhaps": 21728, "\u0120companies": 14034, "\u0120apk": 12211, "\u0120installation": 18658, "\u0120jarsigner": 19027, "\u0120sdk": 23942, "\u0120certs": 13582, "\u0120keys": 19198, "\u0120guarantee": 17654, "\u0120degree": 15083, "\u0120rev": 23492, "ate": 2283, "\u0120crl": 14653, "issuer": 5895, "since": 9035, "v": 10191, "ouch": 7612, "es": 4275, "\u0120identity": 18161, "\u0120holder": 17968, "ri": 8569, "od": 7307, "\u0120platform": 21917, "\u0120plan": 21907, "\u0120apps": 12280, "\u0120issued": 18970, "\u0120trusted": 26137, "certificate": 2911, "author": 2364, "ities": 5946, "issuers": 5896, "even": 4332, "?).": 1529, "\u0120ensure": 16180, "\u0120normal": 20860, "\u0120factor": 16637, "\u0120person": 21765, "\u0120published": 22542, "\u0120publishes": 22545, "\u0120updates": 26641, "\u0120hacks": 17706, "\u0120account": 11679, "\u0120publish": 22541, "\u0120malicious": 19847, "\u0120entire": 16194, "\u0120say": 23835, "factor": 4448, "\u0120authentication": 12574, "\u0120publishing": 22546, "\u0120tuple": 26195, "\u0120hack": 17698, "play": 7918, "/?": 370, "stable": 9225, "&": 92, "mode": 6895, "debug": 3599, "edition": 4006, "2018": 686, "gist": 4905, "7": 1179, "bc": 2472, "f": 4438, "56": 1075, "643": 1145, "cf": 2929, "469": 996, "79": 1243, "bd": 2478, "db": 3568, "97": 1383, "\u0120compilation": 14061, "\u0120produce": 22362, "\u0120distinct": 15592, "\u0120tokens": 25865, "\u0120evaluate": 16345, "\u0120declarative": 14974, "\u0120instructions": 18690, "\u0120under": 26370, "\u0120exe": 16435, "\u0120vcruntime": 26806, "\u0120rebuild": 22866, "\u0120ideas": 18149, "347": 872, "49": 1008, "\u0120pertains": 21775, "rfcs": 8561, "blob": 2606, "master": 6701, "text": 9575, "1721": 636, "crt": 3446, "md": 6740, "\u0120qr": 22620, "buffer": 2725, "\u0120png": 21965, "\u0120thumb": 25743, "\u0120buffer": 13256, "\u0120?.": 11520, "\u0120encode": 16108, "\u0120piston": 21876, "\u0120requests": 23334, "router": 8651, "\u0120occurs": 21061, "\u0120coming": 13987, "\u0120complain": 14072, "\u0120side": 24288, "array": 2194, "hashmap": 5094, "\u0120collection": 13949, "\u0120heterogeneous": 17885, "\u0120obtain": 21028, "demand": 3652, "\u0120router": 23651, "\u0120bypass": 13328, "\u0120requirements": 23340, "\u0120abused": 11633, "only": 7425, "\u0120advantage": 11838, "\u0120rest": 23421, "\u0120boxing": 13144, "\u0120coord": 14482, "\u0120winapi": 27215, "https": 5251, "winapi": 10482, "um": 9951, "win": 10481, "con": 3231, "types": 9856, "coord": 3340, "\u0120refer": 23024, "\u0120article": 12375, "0432": 465, "\u0120toml": 25878, "\u0120unpacked": 26522, "\u0120sources": 24626, "\u0120loaded": 19639, "\u0120somewhere": 24592, "\u0120editors": 15945, "\u0120tree": 26058, "home": 5196, "\u0120convenient": 14436, "vend": 10246, "oring": 7530, "\u0120repositories": 23298, "\u0120f": 16619, "uch": 9878, "ia": 5274, "\u0120mozilla": 20440, "party": 7763, "\u0120supports": 25272, "source": 9141, "cargo": 2833, "\u0120dir": 15448, "vendor": 10247, "\u0120querying": 22667, "\u0120online": 21148, "\u0120registry": 23098, "\u0120express": 16570, "\u0120vend": 26828, "\u0120local": 19646, "\u0120filesystem": 16824, "\u0120subsets": 25126, "\u0120replacing": 23276, "\u0120checked": 13661, "\u0120packages": 21443, "\u0120acts": 11748, "alexcrichton": 1880, "\u0120populate": 22033, "\u0120wpf": 27334, "\u0120flavors": 16927, "\u0120consistent": 14308, "one": 7411, "\u0120desktop": 15269, "\u0120supposed": 25274, "\u0120xbap": 27399, "\u0120localhost": 19648, "\u0120iis": 18207, "windows": 10487, "\u0120xp": 27426, "\u0120pro": 22328, "also": 1939, "\u0120scenario": 23867, "microsoft": 6827, "url": 10103, "\u0120pfx": 21791, "\u0120installed": 18660, "\u0120ie": 18182, "\u0120browser": 13214, "\u0120sell": 24040, "\u0120customer": 14795, "\u0120centralized": 13554, "\u0120deployment": 15182, "assuming": 2266, "\u0120sp": 24628, "\u0120him": 17919, "\u0120xbaps": 27400, "\u0120partial": 21578, "\u0120granted": 17569, "\u0120fulltrust": 17227, "\u0120grant": 17568, "\u0120step": 24914, "\u0120clickonce": 13804, "\u0120engine": 16157, "\u0120deploy": 15179, "\u0120binaries": 12926, "\u0120installer": 18661, "\u0120virtual": 26900, "\u0120manifests": 19877, "\u0120contained": 14363, "\u0120notes": 20884, "\u0120dependency": 15174, "\u0120workstation": 27314, "more": 6919, "\u0120inexplicably": 18488, "\u0120invalidated": 18861, "\u0120clear": 13790, "\u0120rund": 23702, "ll": 6499, "\u0120%": 10976, "windir": 10485, "%\\": 91, "system": 9464, "df": 3738, "shim": 8982, "dll": 3830, "\u0120clean": 13782, "online": 7424, "app": 2087, "cache": 2778, "internet": 5748, "\u0120explorer": 16552, "\u0120recreated": 22944, "\u0120dotnet": 15720, "\u0120reinstalled": 23116, "\u0120poor": 22025, "\u0120deployments": 15183, "\u0120steps": 24917, "\u0120front": 17188, "\u0120forms": 17079, "\u0120auth": 12566, "not": 7208, "\u0120intranet": 18835, "\u0120proxy": 22508, "\u0120isa": 18947, "\u0120microsoft": 20163, "\u0120authenticate": 12570, "\u0120-->": 11109, "--": 280, ">": 1487, "\u0120select": 24031, "local": 6529, "custom": 3508, "...'": 319, "\u0120scroll": 23933, "\u0120logon": 19690, "automatic": 2372, "\u0120selected": 24032, "\u0120applications": 12252, "\u0120extensions": 16592, "\u0120ex": 16383, ":-": 1410, "\u0120glob": 17461, "\u0120extension": 16591, "\u0120detach": 15301, "process": 8096, "\u0120detached": 15302, "\u0120session": 24138, "\u0120posix": 22068, "exec": 4363, "\u0120id": 18144, "unix": 10016, "comm": 3161, "xt": 10632, "\u0120exposing": 16566, "\u0120syscalls": 25416, "\u0120comm": 13988, "\u0120libc": 19461, "\u0120exposes": 16565, "warp": 10387, "\u0120passes": 21610, "\u0120follow": 17000, "filters": 4571, "log": 6541, "internal": 5742, "ged": 4824, "\u0120{}": 27519, "\u0120sequence": 24091, "\u0120param": 21529, "\":": 49, "\u0120understanding": 26390, "\u0120misconception": 20246, "loganfsmyth": 6542, "\u0120modified": 20345, "\u0120afterwards": 11896, "\u0120clone": 13827, "\u0120replace": 23271, "\u0120evaluates": 16347, "\u0120mutates": 20542, "\u0120needing": 20689, "\u0120canonical": 13407, "\u0120completeness": 14086, "but": 2757, "\u0120unwrapped": 26627, "??": 1539, "\u0120alleviate": 11989, "\u0120shadow": 24176, "\u0120qt": 22623, "\u0120gave": 17314, "\u0120shot": 24254, "\u0120bunch": 13295, "\u0120folders": 16993, "\u0120{,": 27516, "\u0120py": 22600, "qt": 8219, "py": 8196, "official": 7329, "inline": 5681, "normal": 7199, "\u0120containing": 14366, "\u0120namely": 20610, "\u0120heard": 17838, "\u0120deno": 15146, "\u0120built": 13282, "\u0120fast": 16705, "\u0120js": 19102, "\u0120layer": 19348, "\u0120abstraction": 11627, "\u0120jobs": 19082, "\u0120delegated": 15093, "\u0120technologies": 25535, "written": 10559, "++),": 241, "\u0120optimize": 21236, "\u0120squeeze": 24764, "\u0120job": 19081, "\u0120delivers": 15115, "\u0120fit": 16889, "\u0120prototyping": 22484, "\u0120tools": 25893, "\u0120technical": 25530, "\u0120kinds": 19228, "\u0120technology": 25536, "\u0120components": 14112, "\u0120hypothetically": 18129, "better": 2541, "\u0120lifecycle": 19517, "\u0120irrelevant": 18943, "\u012099": 11463, "\u0120libs": 19491, "\u0120integration": 18713, "\u0120develop": 15328, "\u0120matters": 19979, "\u0120typescript": 26261, "\u0120aside": 12395, "\u0120compare": 14042, "js": 6099, "\u0120ran": 22735, "doc": 3841, "serialize": 8907, "\u0120represents": 23309, "dom": 3856, "try": 9808, "yet": 10657, "\u0120hope": 18005, "\u0120regular": 23105, "\u0120apparently": 12221, "\u0120convenience": 14434, "\u0120corresponding": 14523, "chrismorgan": 2996, "\u0120finding": 16846, "\u0120rendering": 23233, "\u0120scene": 23869, "\u0120l": 19271, "wj": 10503, "\u0120zfar": 27487, "\u0120clips": 13815, "\u0120view": 26880, "\u0120distance": 15587, "\u01201000": 11157, "\u0120ignored": 18198, "\u0120500": 11371, "\u0120units": 26465, "\u0120shaders": 24175, "\u0120interesting": 18758, "\u0120clipping": 13813, "\u0120aligned": 11976, "\u0120camera": 13392, "\u0120diagonal": 15370, "\u0120distances": 15588, "\u0120intel": 18716, "\u0120nvidia": 20977, "\u0120card": 13435, "ern": 4251, "\u0120managing": 19860, "\u0120mat": 19948, "ric": 8572, "ies": 5394, "\u0120cap": 13411, "\u0120frustrum": 17202, "\u0120vertex": 26859, "\u0120shader": 24174, "\u0120commenting": 14000, "clip": 3071, "distance": 3809, "[": 1547, "\u0120terrain": 25597, "\u0120clipped": 13812, "\u0120axes": 12659, "\u0120water": 27049, "\u0120models": 20333, "\u0120particles": 21589, "\u0120everyone": 16365, "\u0120realized": 22821, "\u0120fault": 16714, "\u0120sky": 24437, "box": 2668, "\u0120renders": 23234, "\u0120property": 22451, "\u0120counted": 14547, "owners": 7680, "\u0120cloning": 13831, "\u0120affect": 11874, "\u0120encountered": 16118, "\u0120direct": 15450, "don": 3865, "\u0120entry": 16207, "\u0120rid": 23548, "\u0120rustfmt": 23730, "\u0120assumes": 12464, "\u0120indentation": 18426, "\u0120carriage": 13451, "\u0120horizontal": 18017, "\u0120whitespace": 27170, "\u0120optionally": 21246, "\u0120spaces": 24632, "\u0120tabs": 25432, "\u0120enabling": 16091, "line": 6448, "\u0120thereby": 25665, "\u0120surrounded": 25302, "\u0120blank": 12992, "\u0120trimmed": 26096, "\u0120substitution": 25141, "fight": 4551, "\u0120exercises": 16458, "\u0120ended": 16133, "\u0120messy": 20123, "\u0120relatively": 23147, "\u0120slicing": 24464, "\u0120concatenation": 14165, "\u0120complexity": 14094, "proper": 8141, "\u0120simplified": 24367, "\u0120brackets": 13153, "\u0120occurence": 21053, "\u0120substring": 25147, "\u0120intermediate": 18775, "\u0120utf": 26723, "\u0120imply": 18304, "\u0120presence": 22232, "\u0120combining": 13981, "\u0120unicode": 26432, "\u0120ascii": 12389, "\u0120indices": 18454, "\u0120cfg": 13593, "tools": 9712, "\u0120importing": 18311, "\u0120confusion": 14257, "\u0120kept": 19179, "\u0120separately": 24077, "\u0120nodes": 20818, "\u0120weak": 27064, "\u0120yields": 27462, "\u0120borrowed": 13108, "\u0120content": 14372, "\u0120track": 25944, "\u0120consume": 14352, "your": 10679, "\u0120introduce": 18843, "\u0120achieves": 11704, "<&": 1442, "mut": 6999, ">:": 1500, "\u0120twice": 26227, "\u0120nice": 20769, "copyable": 3348, "\u0120consuming": 14357, "\u0120allowed": 12004, "\u0120copies": 14491, "\u0120aliases": 11971, "\u0120disallows": 15481, "safety": 8752, "\u0120item": 18981, "\u0120embedded": 16036, "\u0120qualifiers": 22640, "\u0120prompted": 22431, "\u0120commented": 13997, "\u0120reborrow": 22862, "\u0120mind": 20200, "bending": 2524, "read": 8322, "\u0120\u00e2\u0122\u0136": 27566, "dereference": 3679, "\u0120avoids": 12635, "\u0120db": 14902, "0599": 484, "]:": 1588, "\u0120powerful": 22104, "\u0120wraps": 27344, "\u0120bellow": 12857, "\u0120learned": 19382, "\u0120strings": 24997, "\u0120primitives": 22292, "\u0120encounter": 16117, "\u0120inefficient": 18476, "\u0120trivially": 26109, "\u0120disk": 15552, "\u0120turn": 26202, "\u0120element": 15992, "\u0120arbitrary": 12296, "\u0120strategy": 24965, "\u0120strategies": 24964, "with": 10498, "\u0120conversions": 14451, "\u0120hast": 17799, "ily": 5506, "\u0120serializing": 24113, "\u0120naturally": 20644, "\u0120deserialize": 15243, "\u0120restrict": 23434, "their": 9590, "\u0120semantic": 24044, "\u0120plain": 21905, "sendable": 8884, "\u0120tasks": 25487, "\u0120exclude": 16425, "itners": 5958, "\u0120mechanism": 20042, "\u0120intelligent": 18719, "\u0120mere": 20098, "\u0120deserialized": 15244, "\u0120paired": 21477, "des": 3687, "cribes": 3426, "\u0120reliably": 23162, "\u0120attribute": 12543, "\u0120;": 11481, "again": 1823, "\u0120automatic": 12605, "\u0120decoder": 14982, "\u0120transforms": 25993, "\u0120encoding": 16113, "\u0120decoding": 14985, "\u0120somewhat": 24591, "\u0120asymmetric": 12482, "\u0120performed": 21725, "\u0120process": 22353, "\u0120unnecessary": 26510, "\u0120encoders": 16111, "\u0120formats": 17070, "msg": 6973, "pack": 7694, "\u0120suit": 25220, "\u0120mod": 20325, "all": 1903, "fun": 4765, "\u0120projects": 22415, "\u0120replies": 23285, "\u0120doubts": 15730, "\u0120half": 17714, "way": 10401, "\u0120outputs": 21346, "\u0120doubt": 15728, "given": 4911, "\u0120googling": 17515, "\u0120posts": 22094, "\u0120forum": 17093, "cpp": 3385, "cu": 3478, "\u0120indifferent": 18456, "\u0120older": 21117, "\u0120d": 14829, "ull": 9942, "\u0120advance": 11834, "\u0120talonmies": 25458, "\u0120recent": 22884, "post": 7987, "\u0120former": 17076, "\u0120nvcc": 20974, "\u0120latter": 19332, "\u0120char": 13631, "\u0120*": 11080, "\u0120breaking": 13172, "\u0120whenever": 27147, "\u0120chars": 13639, "\u0120comparator": 14040, "\u0120};": 27533, "\u0120uncertain": 26340, "\u0120straightforward": 24956, "arr": 2192, "tos": 9719, "row": 8659, "\u0120o": 20989, "cur": 3491, "ring": 8588, "\u0120compilable": 14060, "\u0120numerical": 20962, "\u0120unchanged": 26342, "bo": 2625, "gus": 5043, "\u0120adjust": 11803, "\u0120presumably": 22254, "\u0120starting": 24858, "\u0120uid": 26296, "\u0120unstable": 26585, "\u0120meaning": 20019, "\u0120disappear": 15486, "\u0120warning": 27020, "\u0120secondly": 23969, "18": 643, "websocket": 10422, "\u0120chat": 13646, "room": 8634, "server": 8916, "websockets": 10423, "\u0120decent": 14953, "\u0120communicate": 14018, "\u0120sends": 24060, "\u0120problematic": 22340, "\u0120cross": 14662, "connection": 3263, "\u0120communication": 14021, "cyderize": 3522, "examples": 4349, "\u0120websockets": 27103, "\u0120approaching": 12268, "\u0120sending": 24059, "\u0120broadcast": 13199, "\u0120straight": 24955, "forward": 4695, "\u0120dispatcher": 15560, "\u0120act": 11723, "\u0120clients": 13808, "\u0120receives": 22882, "\u0120sent": 24069, "\u0120distrib": 15604, "utes": 10165, "blocking": 2610, "\u0120permanent": 21738, "\u0120checks": 13668, "\u0120websocket": 27102, "pastebin": 7770, "wl": 10504, "rh": 8565, "\u0120specifying": 24681, "\u0120reached": 22790, "\u0120poking": 21988, "\u0120cre": 14622, "vice": 10291, "\u0120hoping": 18011, "\u0120unfamiliar": 26413, "\u0120picked": 21829, "\u0120interior": 18768, "\u0120treemap": 26062, "\u0120dry": 15818, "\u0120plus": 21961, "\u0120enumerations": 16217, "playpen": 7921, "\u0120shortest": 24249, "\u0120saml": 23782, "\u0120adfs": 11795, "\u0120ws": 27367, "trust": 9788, "\u0120service": 24130, "#.": 69, "\u0120popular": 22032, "least": 6317, "privile": 8085, "ge": 4821, "2012": 680, "11": 538, "wcf": 10407, "identity": 5365, "external": 4427, "authentication": 2361, "ws": 10562, "\u0120username": 26711, "wstrustbinding": 10569, "msdn": 6972, "en": 4110, "us": 10126, "library": 6403, "jj": 6068, "157": 615, "091": 506, "aspx": 2239, "\u0120jump": 19129, "identitymodel": 5366, "\u0120namespace": 20612, "\u0120experimenting": 16515, "\u0120variety": 26788, "\u0120malformed": 19845, ".\".": 298, "\u0120turned": 26203, "\u0120wcf": 27060, "\u0120logging": 19682, "\u0120determined": 15318, "\u0120reviewing": 23510, "\u0120fs": 17206, "admin": 1787, "\u0120events": 16358, "\u0120indication": 18449, "\u0120farm": 16697, "\u0120mine": 20203, "\u0120diagnose": 15365, "social": 9102, "forums": 4694, "ev": 4322, "thread": 9624, "fc": 4482, "b": 2412, "505": 1026, "481": 1005, "61": 1117, "541": 1062, "cc": 2871, "\u0120wif": 27197, "\u0120tracing": 25943, ":\\": 1428, "program": 8115, "active": 1736, "\u0120federation": 16747, "\u0120services": 24134, "servicehost": 8922, "change": 2946, "\u0120trace": 25938, "\u0120listeners": 19600, "every": 4337, "logs": 6552, "\u0120refine": 23044, "\u0120auditing": 12557, "svc": 9425, "\u0120viewed": 26881, "vct": 10229, "viewer": 10298, "files": 4562, "%/": 87, "\u0120sdks": 23943, "bin": 2563, "fx": 4784, "\u0120notion": 20900, "technet": 9526, "adfs": 1777, "troubleshooting": 9781, "configuring": 3251, "comput": 3224, "ers": 4262, "\u0120production": 22369, "select": 8867, "\u0120count": 14546, "\u0120filtered": 16832, "\u0120vowels": 26956, "\u0120letter": 19431, "\u0120repeats": 23260, "around": 2189, "ahead": 1841, "behind": 2510, "\u0120documented": 15677, "\u0120backreferences": 12685, "\u0120rule": 23695, "\u0120lists": 19605, "\u0120repetition": 23263, "\u0120limiting": 19556, "\u0120practical": 22113, "\u0120fancier": 16690, "09": 505, "28": 794, "74": 1209, "af": 1814, "01": 411, "ac": 1679, "fd": 4487, "47": 997, "\u0120planning": 21913, "\u0120vbos": 26802, "\u0120tiles": 25780, "\u0120vertices": 26862, "\u0120vbo": 26801, "\u0120culling": 14755, "\u0120maths": 19972, "\u0120di": 15360, "ablo": 1664, "wherever": 10451, "ome": 7387, "tric": 9769, "\u0120fixed": 16895, "\u0120geometry": 17380, "\u0120quad": 22625, "\u0120visible": 26910, "\u0120graphics": 17580, "\u0120affecting": 11877, "\u0120pixel": 21884, "rate": 8291, "\u0120ro": 23590, "cks": 3033, "\u0120houses": 18045, "\u0120anyways": 12195, "\u0120aim": 11932, "\u0120streaming": 24974, "\u0120huge": 18086, "\u0120seamless": 23950, "\u0120chunks": 13715, "\u0120against": 11899, "\u0120bounding": 13135, "\u0120simplest": 24363, "\u0120games": 17293, "\u0120drive": 15795, "\u0120designs": 15263, "you": 10678, "\u0120effects": 15959, "\u0120instanced": 18667, "\u0120particle": 21588, "\u0120systems": 25423, "\u0120optimization": 21234, "\u0120worthy": 27326, "\u0120optimizations": 21235, "\u0120enter": 16188, "\u0120invokes": 18901, "\u0120therefor": 25666, "\u0120jonas": 19093, "\u0120disclaimer": 15506, "\u0120newbie": 20746, "\u0120played": 21925, "\u0120weeks": 27113, "\u0120effectively": 15958, "lived": 6491, "efficient": 4037, "who": 10460, "\u0120cares": 13443, "...?": 328, "?)": 1527, "\u0120everywhere": 16368, "levans": 6374, "\u0120counterintuitive": 14549, "std": 9274, "unwrap": 10060, "an": 1977, "\u0120fashion": 16703, "\u0120true": 26122, "\u0120destroyed": 15280, "\u0120freed": 17152, "\u0120response": 23414, "\u0120party": 21604, "\u0120varies": 26786, "\u0120constant": 14321, "\u0120hmac": 17952, "we": 10410, "aken": 1866, "\u0120safer": 23768, "\u0120varying": 26793, "\u0120matter": 19978, "\u0120designed": 15259, "\u0120among": 12073, "\u0120others": 21312, "\u0120integrate": 18709, "\u0120phantom": 21797, "\u0120scraping": 23915, "start": 9252, "\u0120de": 14916, "vm": 10331, "ach": 1707, "ine": 5623, "\u0120examined": 16394, "level": 6376, "\u0120unrestricted": 26554, "\u0120denied": 15144, "edit": 4004, "componentmodel": 3218, "exception": 4352, "x": 10583, "80004005": 1257, "diagnostics": 3749, "create": 3408, "info": 5640, "\u0120strength": 24977, "tracker": 9737, "controllers": 3322, "controller": 3321, "\u0120reside": 23376, "\u0120\"\\": 10964, "foo": 4658, "bar": 2445, "bla": 2590, "\u0120restrictions": 23438, "support": 9412, "sc": 8776, "kb": 6143, "317": 842, "pg": 7850, "\u0120belongs": 12860, "\u0120group": 17629, "\u0120buckets": 13251, "see": 8851, "\u0120fold": 16990, "\u0120rayon": 22773, "\u0120similarly": 24356, "\u0120breaks": 13175, "\u0120hence": 17869, "\u0120yielding": 27461, "\u0120sum": 25227, "\u0120sums": 25240, "\u0120nondeterministic": 20835, "\u0120otoh": 21314, "\u0120iterating": 18989, "\u0120items": 18982, "\u0120choice": 13689, "\u0120rustlang": 23732, "\u0120pipe": 21866, "\u0120knows": 19255, "\u0120sink": 24397, "\u0120introducing": 18846, "sink": 9041, "\u0120shall": 24182, "\u0120thinking": 25684, "\u0120outlives": 21340, "\u0120mix": 20292, "\u0120university": 26474, "\u0120homework": 17985, "\u0120task": 25483, "\u0120variant": 26780, "union": 10010, "\u0120faced": 16627, "\u0120union": 26458, "\u0120understood": 26392, "copy": 3347, "drop": 3903, "\u0120unions": 26459, "\u0120verbatim": 26834, "\u0120low": 19746, "\u0120intrinsically": 18840, "\u0120sudoku": 25198, "\u0120solver": 24574, "\u0120verbosity": 26837, "\u0120seemed": 24010, "\u0120enforce": 16151, "\u0120#": 10970, "6268": 1130, "\u0120evaluated": 16346, "\u0120thinks": 25685, "\u0120aliasing": 11972, "\u0120illegal": 18212, "fortran": 4691, "\u0120matlab": 19973, "octave": 7306, "\u0120julia": 19125, "\u0120dimensionality": 15441, "unable": 9968, "\u0120infer": 18497, "\u0120explained": 16528, "\u0120`": 11564, "`": 1627, "\u0120binding": 12933, "\u0120_": 11560, "\u0120nevertheless": 20743, "ouse": 7640, "\u0120supposedly": 25275, "\u0120expecting": 16500, "\u0120outcome": 21325, "\u0120freedom": 17153, "\u0120numbers": 20956, "\u0120alike": 11982, "\u0120loose": 19722, "\u0120ambiguity": 12061, "\u0120demonstration": 15136, "\u0120suggested": 25215, "\u0120parametrize": 21543, "\u0120glance": 17437, "wrapper": 10549, "\u0120badly": 12701, "ating": 2305, "\u0120hints": 17931, "\u0120ufcs": 26288, "randomly": 8278, "\u0120designation": 15256, "\u0120referencing": 23032, "\u0120hopping": 18013, "\u0120admit": 11817, "edly": 4010, "\u0120unboxed": 26336, "\u0120active": 11737, "\u0120conveniences": 14435, "\u0120instances": 18668, "\u0120ones": 21143, "\u0120generically": 17362, "bearing": 2488, "\u0120\u00e2\u0122\u00a6": 27562, "\u0120hmm": 17954, "t": 9470, "\u0120legal": 19402, "\u0120panics": 21504, "\u0120owns": 21428, "\u0120closest": 13837, "\u0120pull": 22549, "\u0120rely": 23182, "\u0120readable": 22800, "\u0120wouldn": 27328, "\u0120gtk": 17648, "\u0120hidden": 17898, "\u0120names": 20611, "\u0120unambiguously": 26316, "\u0120independent": 18433, "probably": 8088, "borrowed": 2653, "\u0120myst": 20584, "ified": 5414, "both": 2658, "\u0120formally": 17068, "\u0120forever": 17049, "\u0120timeout": 25788, "\u0120wrapper": 27341, "\u0120welcomed": 27126, "rd": 8308, "\u0120day": 14898, "\u0120exploring": 16553, "transform": 9748, "\u0120k": 19146, "\u0120segmentation": 24022, "\u0120r": 22705, "\u0120dispatch": 15557, "ptx": 8173, "options": 7484, "=-": 1469, "\u0120occup": 21045, "\u0120calculator": 13368, "\u0120ptx": 22532, "so": 9098, "\u0120counting": 14554, "\u0120total": 25913, "!)": 14, "\u0120occupancy": 21046, "\u0120rounding": 23646, "\u0120ptxas": 22533, "\u0120granularity": 17573, "\u0120greg": 17607, "\u0120granular": 17572, "\u0120max": 19985, "\u0120threadblocks": 25712, "\u0120sm": 24490, "usage": 10128, "\u0120exceeding": 16403, "\u0120blocks": 13023, "\u0120accuracy": 11693, "\u0120asking": 12399, "\u0120directed": 15451, "what": 10444, "\u0120gpus": 17544, "\u0120cr": 14595, "isp": 5886, "\u0120fundamentally": 17247, "\u0120incorrect": 18399, "\u0120figures": 16807, "\u0120metrics": 20142, "\u0120launch": 19334, "\u0120completes": 14087, "\u0120releases": 23155, "registers": 8418, "\u0120plenty": 21942, "\u0120documents": 15680, "\u0120screenshots": 23922, "\u0120claims": 13753, "\u0120accepting": 11648, "\u0120screen": 23920, "choose": 2990, "\u0120assertion": 12425, "\u0120navigation": 20654, "\u0120high": 17907, "\u0120licensing": 19510, "\u01202016": 11260, "\u0120edition": 15940, "\u0120upwards": 26674, "m": 6619, "\u0120helping": 17867, "\u0120friend": 17176, "\u0120study": 25046, "\u0120diameter": 15378, "\u0120upper": 26658, "gex": 4878, "vertices": 10277, "\u0120coords": 14486, "\u0120con": 14157, "\u0120sizes": 24419, "wiki": 10474, "unity": 10014, "procedural": 8094, "primitives": 8065, "\u0120mesh": 20109, "\u0120plane": 21908, "\u0120dynamically": 15889, "\u0120sides": 24292, "\u0120positions": 22064, "\u0120radius": 22721, "\u0120recreate": 22943, "\u0120triangles": 26075, "\u0120structuring": 25024, "\u0120thrown": 25735, "\u0120hacky": 17707, "\u0120gdb": 17326, "despite": 3701, "\u0120clarity": 13765, "\u0120mocked": 20321, "\u0120bin": 12925, "\u0120whats": 27142, "\u0120breakpoint": 13173, "\u0120somestruct": 24583, "\u0120unknown": 26478, "\u0120opaque": 21163, "\u0120ffi": 16778, "\u0120impossible": 18319, "\u0120boring": 13102, "\u0120transfer": 25981, "\u0120potentially": 22098, "\u0120gut": 17684, "\u0120feeling": 16755, "rusty": 8729, "\u0120educational": 15952, "\u0120neither": 20719, "\u0120moves": 20437, "\u0120dig": 15421, "\u0120pushing": 22584, "\u0120popping": 22030, "\u0120drain": 15768, "\u0120silly": 24345, "\u0120transferring": 25985, "\u0120collections": 13950, "\u0120precise": 22146, "\u0120layout": 19353, "\u0120specialized": 24665, "\u0120monadic": 20369, "\u0120tightly": 25774, "\u0120coupled": 14560, "\u0120operating": 21200, "\u0120shorter": 24248, "\u0120beware": 12897, "\u0120possibly": 22077, "\u0120moreover": 20407, "\u0120cumbersome": 14762, "binary": 2565, "\u0120independently": 18434, "\u0120frontend": 17189, "\u0120yells": 27453, "\u0120wether": 27134, "\u0120flipped": 16947, "\u0120letters": 19432, "\u0120instant": 18670, "\u0120exchanged": 16420, "\u0120variations": 26783, "\u0120hyphen": 18123, "\u0120alternative": 12045, "\u0120effect": 15956, "\u0120stupid": 25059, "\u0120overflow": 21368, "\u0120days": 14900, "\u0120dare": 14855, "\u0120^^": 11546, "crate": 3400, "\u0120executables": 16438, "\u0120lucene": 19771, "\u0120medium": 20050, "\u0120godaddy": 17495, "\u0120posted": 22081, "\u0120recommended": 22913, "\u0120quote": 22701, "\u0120email": 16031, "iirc": 5455, "\u0120overload": 21384, "\u0120flushed": 16966, "web": 10413, "archive": 2141, "ange": 2019, "k": 6125, "xu": 10635, "jy": 6122, "fw": 4782, "mh": 6820, "nd": 7075, "l": 6233, "mk": 6876, "gnu": 4942, "fo": 4647, "class": 3041, "cs": 3454, "\u0120commits": 14007, "\u0120788": 11428, "092": 507, "\u0120went": 27128, "\u0120verify": 26844, "\u0120history": 17940, "\u0120favorite": 16724, "\u0120subversion": 25171, "\u0120struggled": 25027, "\u0120pulled": 22550, "81": 1267, "\u0120verifies": 26843, "\u0120unmanaged": 26494, "\u0120rebuilt": 22869, "\u0120locally": 19654, "\u0120deployed": 15180, "\u0120implications": 18296, "\u0120appear": 12229, "\u0120precedes": 22141, "\u0120mqtt": 20450, "\u0120codec": 13897, "\u0120reexported": 23012, "\u0120relevant": 23158, "\u0120incompatibilities": 18381, "\u0120causing": 13508, "than": 9581, "obvious": 7287, "\u0120roll": 23608, "\u0120additionally": 11779, "\u0120nic": 20768, "\u0120emulator": 16086, "qemu": 8207, "\u012032": 11325, "bits": 2582, "\u0120descriptor": 15233, "\u0120addresses": 11787, "\u0120struggling": 25029, "\u0120mask": 19932, "\u0120shift": 24217, "\u0120halves": 17720, "\u0120descriptors": 15234, "\u0120hardware": 17771, "\u0120approaches": 12267, "\u0120arithmetics": 12338, "of": 7325, "\u0120initialize": 18566, "oriented": 7523, "templates": 9542, "\u0120implmented": 18302, "\u0120treating": 26054, "\u0120superclass": 25244, "number": 7254, "\u0120graph": 17574, "\u0120consisting": 14310, "memory": 6774, "wise": 10496, "\u0120conceptually": 14178, "\u0120cycles": 14820, "\u0120arena": 12319, "\u0120lets": 19430, "\u0120remaining": 23188, "allocated": 1915, "\u0120semantically": 24045, "arena": 2149, "\u0120never": 20742, "\u0120invalidate": 18860, "\u012064": 11400, "\u0120platforms": 21918, "\u0120shave": 24201, "\u0120suffer": 25200, "\u0120inability": 18338, "\u0120graphs": 17583, "where": 10449, "\u0120periodically": 21731, "\u0120unused": 26614, "\u0120akin": 11944, "\u0120collector": 13951, "\u0120progressing": 22401, "\u0120brought": 13210, "\u0120paste": 21618, "\u0120prompt": 22430, "pathbuf": 7776, "push": 8188, "\u0120replaces": 23275, "enum": 4198, "prefix": 8033, "\u0120prefixes": 22199, "\u0120\\": 11541, "share": 8964, "\u0120misunderstanding": 20278, "\u0120unix": 26475, "linux": 6469, "\u0120specification": 24672, "\u0120sorting": 24610, "filter": 4569, "ing": 5646, "\u0120random": 22737, "\u0120walk": 26997, "\u0120quiet": 22688, "\u0120recursive": 22960, "\u0120derive": 15212, "\u0120afraid": 11890, "\u0120initializers": 18570, "\u0120bytewise": 13339, "well": 10433, "\u0120constructing": 14339, "implement": 5540, "size": 9054, "\u0120constructor": 14342, "\u0120processed": 22354, "\u0120invocation": 18897, "\u0120perfect": 21719, "\u0120temporarily": 25559, "basically": 2454, "trentcl": 9766, "\u0120proc": 22342, "\u0120macros": 19802, "\u0120sd": 23940, "out": 7643, "\u0120parsed": 21570, "\u0120parses": 21574, "\u0120ast": 12471, "\u0120repo": 23289, "\u0120helpful": 17864, "pickle": 7874, "\u0120wiki": 27202, "\u0120suggests": 25219, "\u0120trustedpickle": 26142, "\u0120protection": 22473, "\u0120pickle": 21832, "\u0120author": 12578, "ised": 5861, "\u0120instructed": 18687, "\u0120iin": 18205, "python": 8200, "site": 9047, "packages": 7697, "\u0120opened": 21172, "\u0120142": 11207, "\u0120column": 13968, "\u0120download": 15743, "sourceforge": 9143, "projects": 8130, "trusted": 9791, "02": 428, "\u0120trailing": 25960, "long": 6558, "\")": 34, "\u0120covers": 14575, "\u0120modifications": 20344, "\u0120sts": 25032, "\u0120unexpected": 26409, "\u0120occured": 21052, "\u0120em": 16029, "selector": 8872, "card": 2830, "spaces": 9147, "him": 5170, "get": 4860, "space": 9146, "implementation": 5541, "()...": 149, "\u0120extremely": 16614, "\u0120dep": 15160, "ract": 8260, "\u0120years": 27449, "\u0120sc": 23841, "client": 3064, "credentials": 3418, "interactive": 5733, "\u0120false": 16678, "\u0120flavours": 16928, "\u0120nhibernate": 20766, "\u0120generator": 17359, "\u0120recieve": 22887, "\u0120assembly": 12418, "dynamic": 3947, "proxy": 8158, "assembly": 2247, "\u0120th": 25633, "ad": 1752, "\u0120dlls": 15644, "\u0120prior": 22309, "\u0120pay": 21645, "\u0120attention": 12534, "\u0120loading": 19642, "\u0120blog": 13024, "\u0120outlines": 21337, "\u0120reflection": 23051, "\u0120ner": 20722, "fed": 4499, "though": 9621, "\u0120physically": 21824, "building": 2738, "\u0120honest": 17991, "\u0120opt": 21218, "\u0120offered": 21089, "\u0120removes": 23218, "\u0120cheap": 13649, "\u0120nasty": 20635, "\u0120dedicated": 15023, "\u0120disposal": 15573, "\u0120pain": 21469, "\u0120chime": 13682, "\u0120mentioning": 20089, "\u0120answered": 12172, "\u0120forums": 17094, "http": 5239, "forum": 4693, "hibernate": 5155, "zero": 10720, "\u0120expand": 16489, "\u0120reaches": 22791, "\u0120nearest": 20668, "\u0120computed": 14151, "\u0120segmented": 24023, "\u0120inclusive": 18374, "\u0120scans": 23858, "\u0120segment": 24021, "\u0120special": 24655, "\u0120begin": 12823, "because": 2494, "undefined": 9989, "\u0120become": 12808, "\u0120evident": 16372, "\u0120lesser": 19425, "\u0120adjusting": 11806, "\u0120>": 11511, "\u0120subtract": 25158, "\u0120considered": 14303, "arbitrarily": 2132, "\u0120simulated": 24376, "<<": 1454, "\u0120areas": 12317, "\u0120improved": 18330, "\u0120particularly": 21591, "\u0120respect": 23402, "\u0120fusion": 17263, "\u0120harder": 17767, "\u0120bugs": 13267, "\u0120un": 26308, "cover": 3377, "\u0120teach": 25520, "ambiguity": 1955, "\u0120jackolantern": 19013, "\u0120present": 22234, "\u0120obscured": 21012, "\u0120mimic": 20195, "\u0120desired": 15266, "\u0120realization": 22819, "\u0120<": 11485, "\u0120...\"": 11118, "state": 9261, "\u0120whoever": 27174, ".\"": 294, "\u0120reaching": 22792, "\u0120460": 11363, "\u0120despite": 15273, "\u0120improper": 18327, "sequence": 8897, "\u0120description": 15230, "\u0120visit": 26914, "group": 5007, "__": 1624, "reductions": 8382, "203": 691, "cab": 2773, "2481": 758, "39": 908, "\u0120dispatched": 15559, "\u0120entirety": 16196, "once": 7408, "\u0120stepping": 24916, "\u0120occurrences": 21059, "effectively": 4034, "\u0120histo": 17936, "gramming": 4981, "\u0120outlined": 21336, "correctly": 3357, "sort": 9135, "\u0120methodology": 20139, "\u0120restricted": 23435, "cuda": 3481, "\u0120printouts": 22307, "\u0120subject": 25090, "\u0120limits": 19557, "\u0120sensible": 24063, "\u0120wish": 27247, "answer": 2050, "\u0120discussion": 15544, "\u0120relating": 23140, "major": 6642, "opengl": 7453, "\u0120multiplying": 20507, "z": 10704, ")*": 189, "mv": 7009, "p": 7688, "\u0120==": 11501, "\u0120centre": 13555, "\u0120clip": 13810, "\u0120mvp": 20559, "^": 1607, "(-": 161, "\u0120persists": 21764, "\u0120helper": 17862, "\u0120helpers": 17863, "\u0120commend": 13994, "\u0120constructors": 14343, "\u0120saving": 23832, "\u0120pointless": 21978, "unstable": 10044, "book": 2641, "src": 9198, "language": 6252, "features": 4498, "plugin": 7930, "me": 6746, "\u0120rustdoc": 23726, "\u0120relates": 23139, "\u0120accurate": 11694, "\u0120date": 14887, "\u0120developed": 15330, "effort": 4039, "\u0120basis": 12760, "\u0120tracking": 25947, "\u0120developments": 15335, "\u0120stderr": 24895, "\u0120stdin": 24896, "\u0120200": 11246, "200": 667, "\u0120reality": 22818, "\u0120~": 27535, "2000": 668, "\u0120insertion": 18627, "\u0120occasionally": 21042, "\u0120fragment": 17127, "count": 3366, "*": 217, "keeping": 6150, "\u0120ringbuffer": 23563, "\u0120erase": 16261, "\u0120fragmentation": 17128, "thanks": 9584, "\u0120se": 23945, "bk": 2587, "\u0120community": 14024, "\u0120draft": 15764, "\u0120questioned": 22672, "depending": 3665, "\u0120basics": 12758, "\u0120circular": 13729, "\u0120evidently": 16373, "arching": 2136, "\u0120fat": 16710, "starting": 9255, "\u0120allocator": 11999, "\u0120shifting": 24219, "\u0120sideways": 24296, "\u0120techniques": 25533, "\u0120gain": 17281, "\u0120alloc": 11992, "\u0120lose": 19729, "\u0120wide": 27186, "yi": 10660, "\u0120quick": 22680, "\u0120albeit": 11951, "fully": 4763, "\u0120warranted": 27025, "\u0120sections": 23977, "\u0120reimplement": 23107, "\u0120purely": 22565, "\u0120choices": 13690, "\u0120ahead": 11923, "sk": 9060, "ip": 5812, "\u0120comparable": 14037, "\u0120naive": 20600, "\u0120aimed": 11934, "real": 8332, "snippets": 9096, "\u0120recursively": 22961, "\u0120guess": 17665, "\u0120guesses": 17667, "\u0120aka": 11943, "\u0120bails": 12709, "\u0120continue": 14388, "\u0120wait": 26985, "folder": 4651, "/\"": 344, "\u0120\"/": 10954, "\u0120absolute": 11620, "\u0120impli": 18294, "ment": 6779, "manifest": 6663, "rules": 8694, "cfg": 2934, "=\"": 1462, "${": 81, "feature": 4496, "}\".": 10775, "\u0120individual": 18464, "\u0120#[": 10973, "\")]": 40, "\u0120peano": 21678, "\u0120abstract": 11624, "\u0120quickly": 22685, "\u0120enumeration": 16216, "\u0120experimented": 16514, "\u0120serves": 24129, "\u0120forward": 17095, "\u0120interest": 18756, "\u0120implementers": 18287, "\u0120constrain": 14330, "\u0120nonsensical": 20847, "\u0120implementer": 18286, "\u0120referred": 23039, "\u0120predecess": 22162, "\u0120constraint": 14334, "\u0120reserve": 23366, "\u0120callee": 13379, "\u0120computations": 14149, "pre": 8021, "tt": 9820, "ier": 5393, "\u0120bring": 13193, "\u0120reworked": 23528, "\u0120co": 13880, "\u0120constraints": 14335, "\u0120webserver": 27094, "\u0120rocket": 23602, "\u0120redirect": 22983, "\u0120html": 18061, "\u0120conditions": 14208, "\u0120responder": 23411, "\u0120word": 27289, "\u0120incredibly": 18407, "\u0120shouldn": 24257, "\u0120knowledge": 19252, "\u0120unnecessarily": 26509, "\u0120cleanest": 13785, "\u0120foo": 17012, "als": 1938, "form": 4679, "\u0120significant": 24325, "\u0120organize": 21273, "\u0120dialog": 15376, "uer": 9899, "\u0120searches": 23956, "\u0120typing": 26266, "\u0120press": 22248, "\u0120displays": 15571, "\u0120hitting": 17945, "\u0120nor": 20857, "\u0120clearing": 13795, "\u0120poll": 22001, "events": 4334, "\u0120pending": 21704, "67": 1160, "620": 1126, "288": 806, "ff": 4525, "de": 3590, "fea": 4494, "bcf": 2476, "68": 1167, "\u0120multiplication": 20502, "\u0120rpc": 23661, "\u0120futures": 17269, "cpupool": 3388, "\u0120blocked": 13018, "\u0120cpupool": 14590, "\u0120declaring": 14978, "\u0120container": 14364, "\u0120inventory": 18874, "remove": 8450, "\u0120heck": 17846, "\u0120lookup": 19711, "\u0120existed": 16473, "\u0120wanting": 27014, "\u0120equality": 16248, "\u0120prohibited": 22406, "\u0120alternatives": 12047, "\u0120removal": 23214, "\u0120filtering": 16833, "\u0120indicates": 18446, "\u0120depend": 15165, "\u0120elegant": 15990, "\u0120reordering": 23244, "mirror": 6860, "\u0120ordering": 21259, "\u0120mirror": 20237, "st": 9222, "\u0120switched": 25357, "\u0120unique": 26460, "\u0120reorder": 23242, "gather": 4808, "\u0120destination": 15276, "\u0120predicate": 22166, "\u0120mutation": 20544, "\u0120ab": 11588, "ve": 10233, "usually": 10156, "\u0120captured": 13431, "\u0120translate": 26004, "\u0120forbids": 17030, "references": 8393, "\u0120poison": 21981, "611": 1118, "\u0120encoder": 16110, "\u0120shortcut": 24241, "\u0120mem": 20062, "reader": 8325, "\u0120interfacing": 18764, "\u0120io": 18909, "\u0120potential": 22097, "\u0120refers": 23042, "\u0120(#": 11021, "14": 590, "302": 822, "\u0120coerce": 13914, "\u0120bool": 13083, "\u0120webassembly": 27081, "\u0120bundled": 13298, "before": 2498, "\u0120webpack": 27091, "\u0120red": 22969, "\u0120npm": 20916, "webpack": 10417, "\u0120alert": 11953, "\u0120upgraded": 26646, "wasm": 10391, "\u0120risk": 23575, "\u0120appeared": 12231, "\u0120blur": 13041, "\u0120bluetooth": 13038, "\u0120equal": 16247, "\u0120temp": 25549, "(?).": 169, "\u0120handled": 17735, "\u0120illustrate": 18220, "\u0120dropped": 15807, "\u0120action": 11727, "\u0120sugar": 25212, "\u0120deref": 15196, "\u0120coercion": 13919, "\u0120derefs": 15206, "\u0120ref": 23015, "dereferencing": 3682, "\u0120operands": 21196, "\u0120logical": 19684, "else": 4078, "\u0120eagerly": 15897, "\u0120lazily": 19357, "\u0120circumstances": 13732, "\u0120evaluation": 16349, "then": 9593, "\u0120usable": 26685, "\u0120comparing": 14046, "\u0120focused": 16984, "\u0120applicable": 12249, "(\"": 129, "string": 9346, "\u0120converting": 14458, "\u0120creation": 14627, "allocating": 1917, "\u0120excess": 16416, "\u0120stripped": 25001, "\u0120modifying": 20350, "sure": 9417, "dependent": 3664, "\u0120preferably": 22187, "fin": 4572, "ance": 1987, "labs": 6237, "\u0120verifying": 26845, "\u0120located": 19660, ".]": 338, "\u0120powershell": 22107, "\u0120bash": 12754, "\u0120fedora": 16748, "\u0120exc": 16400, "ite": 5917, "spect": 9165, "\u0120green": 17602, "\u0120indicative": 18451, "\u0120alone": 12013, "\u0120\u00e2\u0122\u013e": 27569, "\u00e2\u0122\u013f": 10870, "\u0120controlling": 14426, "\u0120iterates": 18988, "looking": 6562, "\u0120reporting": 23294, "\u0120syntactic": 25400, "\u0120mistakes": 20273, "\u0120personal": 21766, "\u0120authors": 12588, "\u0120books": 13082, "she": 8970, "\u0120decision": 14967, "\u0120ho": 17957, "bbit": 2467, "\u0120entered": 16189, "object": 7277, "\u0120vastly": 26795, "\u0120rewriting": 23533, "\u0120organizing": 21275, "ordered": 7505, "\u0120mistaken": 20271, "\u0120ids": 18180, "\u0120btree": 13237, "\u0120carefully": 13441, "\u0120leaks": 19375, "\u0120enterprise": 16191, "\u0120domains": 15699, "\u0120sites": 24406, "rather": 8293, "\u0120advising": 11858, "did": 3754, "its": 5963, "\u0120dangerous": 14849, "\u0120remote": 23209, "\u0120promote": 22424, "\u0120websites": 27099, "\u0120policy": 21994, "nc": 7067, "baa": 2414, "bf": 2547, "48": 1003, "82": 1276, "96": 1377, "19": 653, "add": 1761, "sites": 9049, "policy": 7953, "gp": 4963, "\u0120associate": 12453, "\u0120visual": 26921, "\u0120formatting": 17074, "gro": 5005, "ovy": 7673, "java": 6029, "\u0120syn": 25380, "\u0120enables": 16090, "\u0120procedural": 22344, "macro": 6627, "build": 2733, "\u0120declares": 14977, "\u0120vice": 26874, "\u0120versa": 26848, "\u0120performant": 21724, "\u0120attached": 12517, "\u0120crash": 14609, "\u0120crashes": 14611, "\u0120surprise": 25294, "\u0120failing": 16651, "\u0120deallocate": 14927, "\u0120deallocating": 14930, "\u0120mvc": 20555, "\u0120elmah": 16021, "\u0120404": 11349, "\u0120filepaths": 16820, "\u0120\"~/": 10969, "\u0120subsequently": 25124, "\u0120aspnet": 12407, "\u0120rights": 23558, "temp": 9538, "\u0120everybody": 16363, "\u0120sqlite": 24752, "\u0120yay": 27445, "\u0120vri": 26961, "\u0120pades": 21458, "\u0120pdf": 21669, "\u0120embed": 16035, "\u01201234": 11191, "567890": 1080, "abc": 1651, "def": 3628, "[...]": 1551, "\u0120etsi": 16333, "pad": 7703, "\u0120ltv": 19768, "\u012012": 11186, "stamp": 9237, "\u0120timestamptoken": 25802, "\"?": 54, "\u0120clarifies": 13762, "\u0120ts": 26171, "\u0120meanwhile": 20027, "\u0120superseded": 25253, "\u0120319": 11324, "\u0120reform": 23060, "ulated": 9929, "\u0120hashed": 17786, "\u0120dictionary": 15389, "\u0120der": 15194, "\u0120pkcs": 21889, "\u0120cms": 13875, "\u0120cades": 13353, "\u0120stamps": 24834, "\u0120proceed": 22348, "\u0120norm": 20859, "\u0120specifies": 24678, "\u0120inclusion": 18373, "\u0120material": 19958, "ss": 9202, "\u0120realised": 22815, "\u0120admittedly": 11819, "\u0120stamp": 24831, "rand": 8275, "\u0120silently": 24343, "!\"": 5, "!\".": 7, "\u0120rng": 23588, "grammar": 4980, "\u0120randomly": 22742, "\u00e2\u0122\u013f,": 10873, "\u0120implementors": 18291, "\u0120terms": 25594, "rer": 8498, "\u0120determines": 15319, "\u0120usefully": 26698, "\u0120idiom": 18168, "\u0120paths": 21632, "whitepaper": 10458, "pdf": 7793, "\u0120availability": 12618, "\u0120manuals": 19893, "tz": 9861, "\u0120deprecated": 15187, "\u0120smc": 24501, "\u0120tee": 25539, "\u0120navigate": 20650, "dash": 3546, "clou": 3087, "lare": 6258, "profile": 8112, "tokens": 9698, "\u0120assets": 12433, "\u0120brew": 13180, "er": 4220, "\u0120wr": 27335, "ang": 2018, "ler": 6359, "kit": 6196, "zu": 10754, "\u0120shell": 24209, "\u0120alternate": 12040, "\u0120nom": 20825, "\u0120deal": 14924, "\u0120separator": 24081, "\u0120parser": 21572, "\u0120combinator": 13975, "\u0120backtra": 12691, "ck": 3027, "\u0120acquired": 11716, "fileloadexception": 4559, "\u0120assemblies": 12416, "content": 3306, "disposition": 3807, "\u0120inline": 18590, "\u0120identify": 18158, "\u0120postman": 22090, "\u0120responds": 23413, "\u0120deep": 15036, "\u0120reqwest": 23346, "\u0120payload": 21647, "\u0120belonging": 12859, "reqwest": 8497, "response": 8516, "\u0120peter": 21786, "\u0120omer": 21127, "\u0120reply": 23286, "\u0120headers": 17827, "\u0120waiting": 26988, "\u0120hon": 17990, "ors": 7550, "\u0120highlights": 17913, "sys": 9461, "\u0120tail": 25443, "\u0120personally": 21767, "\u0120implies": 18300, "\u0120eliminates": 16011, "\u0120uneven": 26408, "\u0120laz": 19356, "iest": 5395, "\u0120join": 19085, "\u0120collect": 13946, "\u0120weren": 27130, "\u0120joining": 19087, "\u0120iterated": 18987, "\u0120chains": 13607, "\u0120smaller": 24492, "\u0120emptied": 16075, "\u0120consumed": 14353, "\u0120unity": 26466, "\u0120skydome": 24438, "\u012010000": 11158, "\u0120culled": 14753, "\u0120dome": 15701, "\u0120drawn": 15784, "\u0120scale": 23850, "\u0120realistic": 22816, "\u0120principles": 22297, "writing": 10558, "\u0120rendered": 23230, "000": 379, "\u0120decreases": 15010, "fighting": 4552, "effects": 4035, "\u0120cameras": 13393, "\u0120clears": 13797, "\u0120draws": 15785, "\u0120inaccurate": 18343, "\u0120polling": 22003, "\u0120fov": 17110, "\u0120directx": 15461, "\u0120dockerfile": 15664, "\u01208080": 11437, "hello": 5128, "world": 10532, "aw": 2393, "\u0120ps": 22515, "\u0120logs": 19694, "\u0120override": 21395, "\u0120audio": 12553, "\u0120associating": 12456, "\u0120readers": 22802, "\u0120extensible": 16590, "either": 4052, "\u0120plug": 21953, "\u0120conventional": 14440, "\u0120extensibility": 16589, "\u0120init": 18554, "\u0120life": 19516, "\u0120goal": 17492, "\u0120triangular": 26076, "\u0120divisors": 15636, "\u0120euler": 16338, "864": 1308, "\u0120p": 21435, "\u0120closed": 13833, "\u0120formula": 17081, "\u0120bare": 12738, "\u0120brain": 13154, "\u0120computing": 14155, "\u0120square": 24759, "\u0120lowest": 19754, "\u0120divisor": 15635, "\u0120greater": 17596, "\u0120dividing": 15629, "\u0120six": 24413, "\u0120misses": 20265, "\u01206": 11394, "\u0120factors": 16644, "\u0120loses": 19730, "\u0120curious": 14773, "\u0120trickery": 26080, "\u0120scenes": 23871, "\u0120relies": 23165, "\u0120internally": 18781, "\u0120offers": 21091, "\u0120bumping": 13294, "\u0120cursor": 14784, "man": 6653, "\u0120taken": 25449, "\u0120skips": 24436, "\u0120yielded": 27460, "\u0120primitive": 22291, "derived": 3684, "\u0120normally": 20867, "\u0120shepmaster": 24214, "\u0120delegate": 15092, "\u0120safety": 23771, "\u0120responsibility": 23417, "\u0120lang": 19301, "\u0120structural": 25018, "\u0120comparisons": 14049, "\u0120handful": 17731, "\u0120insides": 18631, "\u0120compared": 14043, "\u0120designing": 15262, "\u0120shareable": 24195, "\u0120gonna": 17505, "\u0120buildable": 13270, "\u0120reproduction": 23319, "provided": 8153, "\u0120remain": 23185, "counted": 3367, "\u0120callable": 13375, "\u0120concerned": 14180, "\u0120...),": 11120, "\u0120closes": 13836, "just": 6115, "\u0120uncomment": 26349, "\u0120occure": 21051, "\u0120expert": 16517, "\u0120writer": 27356, "\u0120placed": 21898, "\u0120placeholders": 21900, "write": 10554, "fs": 4748, "\u0120yaml": 27439, "\u012035": 11333, "\u0120nested": 20727, "\u0120leading": 19369, "based": 2450, "\u0120bounded": 13134, "\u0120regard": 23078, "stargateur": 9250, "\u0120meets": 20053, "\u0120rpncalculator": 23664, "actions": 1730, "pn": 7935, "calculator": 2792, "cannot": 2813, "\u0120appropiate": 12269, "coded": 3119, "\u0120scalar": 23848, "\u0120vtables": 26968, "\u0120leak": 19372, "\u0120im": 18227, "\u0120facing": 16634, "ptr": 8170, "\u0120defeat": 15045, "\u0120circumvented": 13734, "\u0120mess": 20112, "\u0120noted": 20882, "\u0120dlist": 15640, "\u0120curly": 14776, "\u0120insist": 18637, "\u0120hyperium": 18119, "\u0120quoting": 22704, "bounds": 2666, "higher": 5162, "ranked": 8284, "\u0120satisfied": 23817, "\u0120likewise": 19547, "\u0120often": 21103, "\u0120tutorials": 26212, "\u0120keystore": 19202, "\u0120pages": 21465, "\u0120keywords": 19209, "\u0120handshake": 17741, "failure": 4454, "pasted": 7771, "problem": 8090, "\u0120robots": 23600, "\u0120incoming": 18378, "\u0120careless": 13442, "\u0120chapters": 13630, "\u0120encapsulated": 16095, "\u0120opening": 21177, "\u0120journal": 19095, "\u0120infered": 18498, "new": 7121, "\u0120mixing": 20296, "\u0120worlds": 27316, "generics": 4847, "specific": 9158, "\u0120deciding": 14962, "\u0120dots": 15722, "\u0120stating": 24878, "\u0120brings": 13195, "\u0120tuples": 26196, "\u0120possibilities": 22073, "\u0120hardcoded": 17763, "\u0120lots": 19740, "\u0120rolled": 23610, "\u0120exponential": 16557, "\u0120bloat": 13009, "\u0120rarely": 22754, "\u0120billion": 12923, "\u0120blow": 13029, "\u0120anyhow": 12189, "\u0120finite": 16860, "\u0120bitxor": 12973, "\u0120operand": 21195, "\u0120genericity": 17363, "\u0120sacrifice": 23757, "\u0120dodgy": 15683, "\u0120redefine": 22975, ".:": 334, "\u0120uglier": 26290, "\u0120closer": 13835, "\u0120boiethios": 13061, "\u0120utilities": 26726, "cases": 2843, "86": 1305, ")'": 178, "txt": 9846, "directory": 3785, "\u0120sql": 24749, "\u0120ce": 13530, "\u0120subdirectory": 25078, ")\\": 207, "myapp": 7015, "ced": 2888, "ata": 2279, "base": 2449, "\u0120administrator": 11814, "\u0120uac": 26274, "\u0120elevated": 15999, "\u0120acess": 11697, "\u0120privileges": 22325, "\u0120frustrated": 17198, "\u0120elevation": 16001, "\u0120installing": 18663, ")'.": 180, "\u0120strongly": 25010, "\u0120locations": 19664, "applicationdata": 2104, "desktop": 3700, "aa": 1635, "36": 880, "992": 1393, "vs": 10351, "85": 1301, "\u0120regardless": 23081, "\u0120logged": 19679, "appdata": 2090, "\u0120writes": 27358, "\u0120past": 21617, "user": 10134, "installation": 5707, "\u0120infers": 18506, "\u0120existing": 16479, "\u0120taste": 25489, "\u0120initialise": 18560, "\u0120led": 19391, "\u0120indexing": 18441, "\u0120iter": 18983, "\u0120warns": 27022, "\u0120reasoning": 22848, "at": 2278, "\u0120automated": 12603, "\u0120beacuse": 12788, "\u0120deconstructing": 14996, "\u0120placing": 21903, "\u0120indexer": 18439, "yes": 10656, "\".)": 45, "\u0120soundness": 24619, "\u0120destroy": 15279, "\u0120!": 10911, "\u0120switching": 25359, "\u0120buggy": 13266, "\u0120remains": 23189, "\u0120alive": 11984, "\u0120duration": 15867, "\u0120smart": 24495, "\u0120restriction": 23437, "\u0120systematically": 25420, "!),": 15, "ives": 5987, "\u0120plays": 21934, "\u0120inherited": 18548, "immutable": 5532, "\u0120mutably": 20539, "\u0120dance": 14845, "fits": 4598, "\u0120terrible": 25598, "\u0120swap": 25338, "\u0120scrap": 23912, "\u0120pursue": 22576, "\u0120wholly": 27177, "\u0120textbook": 25623, "\u0120dyon": 15892, "lifetimes": 6428, "\u0120management": 19856, "\u0120differ": 15403, "\u0120limitation": 19553, "\u0120explanation": 16532, "\u0120acyclic": 11755, "\u0120child": 13680, "\u0120limitations": 19554, "\u0120workarounds": 27297, "\u0120exec": 16436, "\u0120append": 12235, "\u0120eof": 16231, "\u0120hit": 17941, "\u0120continuously": 14394, "\u0120ends": 16146, "\u0120myasyncstream": 20565, "async": 2276, "\u0120pin": 21854, "self": 8873, ">.": 1498, "workaround": 10523, "\u0120mutex": 20548, "mutable": 7001, "borrow": 2652, "\u0120blocking": 13022, "\u0120synchronization": 25387, "\u0120welcome": 27125, "\u0120discouraged": 15520, "\u0120reasonably": 22846, "\u0120transparent": 26024, "\u0120transparently": 26025, "running": 8701, "\u01202008": 11251, "\u0120webhost": 27088, "sorry": 9134, "uss": 10150, "\u0120reproduce": 23313, "\u0120iron": 18937, "\u0120middleware": 20167, "\u0120earlier": 15901, "\u0120unavailable": 26324, "\u0120roughly": 23641, "\u0120vendor": 26829, "jks": 6070, "\u0120jms": 19069, "\u0120proof": 22439, "\u0120websphere": 27104, "keystore": 6172, "\u0120loads": 19643, "\u0120keypair": 19195, "private": 8084, "\u0120bount": 13138, "\u0120issuer": 18972, "\u0120mutual": 20552, "aka": 1863, "someone": 9127, "loys": 6582, "\u0120pseudo": 22517, "\u012049": 11368, "\u0120curand": 14769, "\u0120pr": 22111, "n": 7029, "most": 6924, "init": 5661, "\u0120seed": 24000, "\u0120subsequence": 25122, "\u0120offset": 21099, "\u0120demonstrate": 15132, "set": 8932, "\u0120freeing": 17154, "\u0120af": 11868, "ter": 9550, "\u0120wont": 27285, "\u0120glibc": 17454, "\u0120malloc": 19849, "\u0120corruption": 14532, "sum": 9399, "\u0120calculated": 13362, "\u0120addr": 11783, "\u0120flags": 16907, "\u0120g": 17277, "\u0120geforce": 17335, "310": 834, "\u0120arithmetic": 12337, "\u0120ordinary": 21264, "\u0120hierarchical": 17905, "\u0120route": 23649, "\u0120warp": 27023, "\u0120scopes": 23899, "\u0120\u00e2\u0122\u0135": 27565, "\u0120piggy": 21849, "backing": 2424, "\u0120routes": 23652, "\u0120interpreting": 18804, "\u0120reuse": 23488, "\u0120pi": 21826, "ct": 3459, "uring": 10101, "\u0120postgresql": 22087, "\u0120terminal": 25583, "\u0120interact": 18736, "\u0120listen": 19597, "\u0120socket": 24549, "\u0120manages": 19859, "\u0120supplied": 25264, "\u0120hostname": 18032, "\u0120supplying": 25268, "\u0120\"\".": 10922, "\u0120instructing": 18688, "\u0120ip": 18921, "\u0120reflects": 23056, "\u0120yours": 27470, "\u0120listens": 19602, "\u0120loopback": 19716, "\u0120adapter": 11762, "gre": 4991, "sl": 9068, "\u01201023": 11167, "arrays": 2195, "\u0120giant": 17410, "\u0120looping": 19719, "inclusive": 5587, "\u0120annoying": 12157, "\u0120hood": 17996, "\u0120smarter": 24496, "bluss": 2620, "\u0120contributed": 14413, "\u0120impressive": 18325, "\u0120quality": 22644, "\u0120improvements": 18332, "broken": 2699, "'?": 116, "\u0120vm": 26932, "\u0120vie": 26878, "wn": 10508, "ode": 7314, "\u0120render": 23229, "node": 7180, "\u0120trees": 26064, "tree": 9763, "\u0120modeling": 20330, "\u0120resorting": 23398, "\u0120rc": 22778, "<>": 1455, "\u0120children": 13681, "\u0120force": 17031, "<>.": 1456, "\u0120inde": 18419, "ree": 8384, "\u0120(,": 11043, "..)": 312, "\u0120traversal": 26038, "\u0120downside": 15748, "removed": 8451, "\u0120dangling": 14851, "removing": 8453, "\u0120petgraph": 21788, "\u0120guaranteed": 17655, "83": 1285, "88": 1318, "eec": 4017, "346": 871, "633": 1136, "72": 1197, "\u0120pool": 22022, "\u0120tackle": 25435, "autore": 2374, "\u0120describes": 15228, "anonymous": 2045, "\u0120applied": 12253, "\u0120previously": 22278, "\u0120anonymous": 12164, "live": 6490, "\u0120int": 18701, "\u0120segfault": 24017, "detail": 3715, "scalar": 8779, "reduce": 8378, "first": 4591, "130474": 576, "0000": 380, "last": 6266, "00": 378, "values": 10210, "047": 470, "40": 919, "output": 7650, "04": 457, "600": 1106, "pred": 8025, "=...": 1472, "usr": 10149, "6": 1104, "/../": 365, "targets": 9501, "include": 5583, "\u012061": 11398, "\u0120interprets": 18805, "\u0120seg": 24016, "\u0120covered": 14573, "\u0120wonder": 27279, "raw": 8298, "\u0120stl": 24930, "\u0120permits": 21747, "\u0120mechanisms": 20043, "resident": 8505, "\u0120modification": 20343, "asm": 2232, "soft": 9111, "test": 9566, "\u0120unreachable": 26541, "\u0120var": 26772, "\u0120matched": 19951, "\u0120four": 17107, "\u0120shallow": 24183, "\u0120differentiate": 15408, "\u0120strict": 24983, "\u0120[]": 11539, "shallow": 8959, "\u0120exceptions": 16412, "\u0120shibboleth": 24215, "\u0120idp": 18179, "\u0120azure": 12667, "\u0120portal": 22047, "roll": 8626, "\u0120aad": 11583, "\u0120speak": 24650, "azure": 2410, "devices": 3735, "hy": 5265, "brid": 2694, "join": 6086, "federated": 4500, "domains": 3860, "\u0120protocols": 22480, "\u0120wich": 27184, "\u0120speaks": 24653, "federation": 4501, "clo": 3073, "ak": 1862, "\u0120passive": 21612, "\u0120w": 26978, "\u0120resolve": 23391, "\u0120resolving": 23395, "\u0120expands": 16492, "\u0120opens": 21182, "\u0120validated": 26753, "\u0120enlighten": 16170, "\u0120servers": 24128, "\u0120prove": 22487, "intermediate": 5740, "\u0120redundant": 23005, "secure": 8834, "\u0120vendors": 26831, "\u0120processes": 22355, "hypoth": 5271, "etical": 4310, "1000": 517, "\u0120b": 12668, "5000": 1020, "6000": 1107, "\u0120partitioning": 21597, "\u0120physical": 21823, "\u0120mappings": 19903, "\u0120inaccessible": 18340, "\u0120virtue": 26905, "\u0120ns": 20922, "380": 896, "\u0120successor": 25188, "\u0120unlikely": 26481, "\u0120unusable": 26613, "\u0120mmu": 20311, "\u0120hardwired": 17772, "\u0120sram": 24767, "\u0120masterapp": 19946, "\u0120slaveapp": 24450, "\u0120fe": 16733, "\u0120somebody": 24579, "\u0120slave": 24449, "\u0120providing": 22499, "\u0120goin": 17498, "\u0120encrypting": 16127, "\u0120paramaters": 21530, "\u0120encryption": 16128, "\u0120epoch": 16241, "\u0120decode": 14980, "\u0120sal": 23775, "\u0120ruby": 23687, "\u0120han": 17727, "del": 3640, "\u0120ect": 15932, "\u0120replay": 23277, "\u0120master": 19945, "\u0120->": 11110, "\u0120signing": 24330, "\u0120attacker": 12523, "\u0120clock": 13821, "\u0120establish": 16317, "\u0120forked": 17062, "\u0120nonce": 20833, "\u0120dereferences": 15202, "\u0120precedence": 22139, "\u0120whereby": 27150, "\u0120dereferenced": 15201, "\u0120endpoint": 16144, "\u0120throws": 25737, "\u0120resources": 23400, "\u0120wsdl": 27370, "byte": 2764, "\u0120improve": 18329, "\u0120pick": 21828, "\u0120biggest": 12914, "strings": 9348, "\u0120proposal": 22456, "\u0120instantiation": 18677, "\u0120templates": 25554, "entry": 4195, "selected": 8868, "\u0120manner": 19887, "\u0120arbitrarily": 12295, "\u0120scattered": 23864, "\u0120compacted": 14029, "\u0120compaction": 14031, "automatically": 2373, "\u0120premium": 22209, "\u0120intact": 18702, "presumably": 8048, "62": 1125, "\u0120nb": 20657, "\u0120discord": 15516, "\u0120loops": 19720, "\u0120stays": 24891, "\u0120locked": 19667, "\u0120occurred": 21057, "\u0120reddit": 22971, "\u0120guard": 17659, "\u0120retained": 23456, "\u0120deadlock": 14920, "\u0120mutexes": 20550, "\u0120reentrant": 23009, "\u0120lies": 19513, "\u0120fetching": 16774, "\u0120actions": 11728, "\u0120respective": 23405, "\u0120porting": 22050, "\u0120php": 21815, "\u0120multidimensional": 20491, "\u0120excerpt": 16414, "\u0120codebase": 13894, "\u0120awful": 12650, "\u0120ph": 21796, "typed": 9851, "\u0120replicate": 23279, "\u0120efficiently": 15962, "ant": 2054, "\u0120indexes": 18440, "\u0120issets": 18967, "\u0120identifiers": 18156, "\u0120associative": 12459, "\u0120maps": 19904, "\u0120dictionaries": 15388, "\u0120defines": 15064, "instead": 5715, "plus": 7932, "\u0120places": 21902, "\u0120densely": 15155, "\u0120packed": 21445, "\u0120m": 19790, "\u0120remember": 23197, "\u0120pallets": 21490, "\u0120furthermore": 17257, "generic": 4845, "\u0120pallet": 21488, "\u0120extracting": 16605, "\u0120equations": 16253, "\u0120coordinates": 14485, "\u0120corner": 14502, "\u0120trigonometry": 26094, "\u0120projected": 22409, "\u0120corners": 14503, "\u0120inverse": 18876, "inside": 5700, "\u0120coordinate": 14484, "\u0120homogeneous": 17988, "\u0120leveldb": 19438, "tag": 9477, "encoding": 4129, "usize": 10146, "\u0120deserializer": 15245, "\u0120ranges": 22747, "\u0120trentcl": 26070, "\u0120blade": 12985, "\u0120directives": 15456, "\u0120authorized": 12586, "\u0120oh": 21106, "....": 324, "entrust": 4192, "\u0120capabilities": 13412, "\u0120toy": 25928, "\u0120terminate": 25585, "\u0120ampersand": 12081, "\u0120certainly": 13566, "\u0120calculates": 13364, "\u0120splits": 24724, "\u0120advise": 11855, "\u0120traverse": 26040, "\u0120pastes": 21620, "\u0120boilerplate": 13065, "\u0120hygiene": 18115, "\u0120preventing": 22273, "hygienic": 5267, "drawing": 3893, "\u0120car": 13434, "\u0120rectangle": 22947, "defin": 3635, "itely": 5920, "\u0120aesthetics": 11866, "\u0120outline": 21335, "\u0120burdensome": 13303, "\u0120worry": 27320, "checked": 2970, "\u0120powerpc": 22105, "\u0120arch": 12301, "mlongcall": 6879, "\u0120\"-": 10945, "\u0120gcc": 17321, "call": 2794, "\u0120llvm": 19631, "\u0120invoking": 18902, "through": 9631, "\u0120interested": 18757, "\u0120llv": 19630, "ms": 6965, "\u0120asan": 12384, "\u0120ouput": 21317, "flag": 4610, "\u0120commit": 14004, "\u012031": 11320, "69": 1174, "\u0120generation": 17358, "\u0120subsequent": 25123, "\u0120bindgen": 12932, "\u0120whitelisted": 27167, "\u0120greatly": 17598, "\u0120directive": 15455, "\u0120//": 11135, "\u0120inappropriate": 18347, "\u0120bother": 13118, "\u0120eg": 15966, "\u0120moral": 20404, "\u0120statements": 24871, "\u0120efficiency": 15960, "\u0120enums": 16218, "\u0120arguably": 12325, "\u0120concise": 14184, "panicking": 7719, "\u0120comparatively": 14039, "\u0120proto": 22476, "\u0120protobuf": 22477, "\u0120kent": 19176, "ard": 2143, "\u0120confirmed": 14235, "\u0120flatbuffers": 16918, "be": 2484, "\u0120allocators": 12000, "\u0120grow": 17635, "\u0120edits": 15946, "\u0120extended": 16586, "\u0120period": 21729, "\u0120reloaded": 23172, "\u0120rear": 22838, "\u0120reclaim": 22894, "\u0120wasted": 27038, "\u0120reco": 22898, "\u0120widely": 27187, "used": 10131, "gc": 4812, "moving": 6936, "\u0120considering": 14304, "\u0120extending": 16587, "\u0120classes": 13770, "\u0120timeline": 25786, "\u0120overloading": 21387, "\u0120involved": 18904, "\u0120ergonomic": 16274, "\u0120semantics": 24046, "\u0120expressing": 16574, "\u0120imo": 18260, "\u0120ergonomics": 16276, "\u0120double": 15723, "\u0120intoiterator": 18831, "\u0120&'": 10980, "\u0120surely": 25289, "doesn": 3853, "\u0120reconc": 22922, "iled": 5468, "\u0120ubiquitous": 26278, "root": 8635, "\u0120la": 19272, "\u0120blanks": 12994, "\u0120indirection": 18459, "hide": 5158, "\u0120divergence": 15620, "\u0120obscure": 21011, "\u0120hangman": 17748, "\u0120guessed": 17666, "\u0120debugger": 14945, "\u0120j": 19009, "uts": 10180, "\u0120vscode": 26964, "\u0120lldb": 19628, "\u0120lend": 19412, "\u0120nonempty": 20837, "\u0120meant": 20025, "\u0120shadowed": 24177, "\u0120shadowing": 24178, "42": 947, "introdu": 5768, "ces": 2922, "creates": 3412, "right": 8583, "hand": 5069, "inner": 5684, "loop": 6565, "\u0120touched": 25918, "\u0120distinguish": 15596, "\u0120iiuc": 18208, "closures": 3086, "hopefully": 5205, "move": 6932, "herring": 5142, "\u0120equivalently": 16258, "\u0120nope": 20856, "\u0120inferred": 18504, "\u0120capture": 13430, "\u0120annotate": 12145, "\u0120nutshell": 20972, "\u0120params": 21546, "\u0120cloneable": 13828, "\u0120retrieve": 23466, "\u0120oauth": 20990, "\u0120trustpilot": 26152, "\u0120unsigned": 26573, "\u0120uniformly": 26439, "\u0120slowing": 24485, "\u0120hot": 18035, "\u0120scheme": 23881, "\u0120randomness": 22743, "\u0120knowing": 19251, "\u0120modern": 20340, "\u0120architectures": 12306, "\u0120instruction": 18689, "pop": 7972, "\u0120bottleneck": 13123, "\u0120cryptographically": 14697, "\u0120insecure": 18621, "\u0120qualify": 22642, "()?": 154, "\u0120listening": 19601, "\u0120ports": 22053, "\u0120handles": 17738, "\u0120packets": 21447, "\u0120bundle": 13297, "\u0120intern": 18779, "odes": 7319, "erver": 4271, "\u0120inter": 18735, "\u0120channels": 13627, "\u0120piece": 21843, "\u0120bumped": 13293, "\u0120\"!\"": 10919, "\u0120indicator": 18452, "\u0120unconditionally": 26356, "\u0120infinite": 18509, "\u0120appendix": 12239, "\u0120diverging": 15623, "diverging": 3819, "never": 7120, "\u0120stabilized": 24806, "\u0120coerced": 13915, "\u0120subtype": 25166, "bottom": 2659, "\u0120stable": 24809, "\u0120fnv": 16980, "\u0120dead": 14918, "41": 934, "799": 1248, "84": 1292, "\u01202020": 11264, "27": 785, "ieve": 5398, "\u0120ch": 13601, "aging": 1835, "pect": 7801, "\u0120pythons": 22613, "\u0120facility": 16633, "ian": 5284, "\u0120company": 14035, "yname": 10673, "\u0120official": 21095, "\u0120applying": 12256, "\u0120query": 22665, "\u0120filename": 16816, "\u0120assigned": 12438, "(),": 147, "owned": 7678, "\u0120st": 24796, "ices": 5318, "ch": 2939, "12": 555, "03": 443, "impro": 5560, "ving": 10307, "handling": 5076, "ular": 9927, "ity": 5973, "\u01202015": 11259, "\u0120beta": 12890, "\u0120testers": 25612, "\u0120heart": 17840, "burn": 2752, "full": 4758, "partial": 7751, "\u0120zone": 27505, "permissions": 7830, "\u0120forced": 17032, "\u0120regards": 23082, "superuser": 9409, "questions": 8237, "125": 566, "25": 764, "75": 1216, "install": 5706, "clickonce": 3063, "application": 2102, "settings": 8941, "\u0120asks": 12400, "\u0120permit": 21746, "\u0120machines": 19797, "fcc": 4484, "52": 1041, "480": 1004, "152": 610, "551": 1068, "bb": 2462, "click": 3061, "calculate": 2788, "visible": 10317, "blogs": 2614, "kri": 6218, "make": 6644, "2009": 676, "05": 473, "my": 7014, "permission": 7829, "contro": 3318, "ls": 6591, "go": 4945, "visualstudio": 10322, "deployment": 3669, "configure": 3250, "pro": 8087, "mpt": 6955, "behavior": 2508, "view": 10297, "2015": 683, "\u0120boils": 13067, "\u0120inserted": 18625, "\u0120omit": 21130, "\u0120falls": 16675, "\u0120subscription": 25118, "\u0120persist": 21760, "\u0120satisfying": 23820, "\u0120satisfy": 23819, "\u0120retains": 23458, "\u0120failures": 16655, "\u0120enumerates": 16214, "\u0120unspecified": 26583, "\u0120enumerate": 16212, "\u0120crazy": 14620, "\u0120cpp": 14583, "\u0120breadth": 13167, "\u0120hell": 17856, "\u0120broke": 13205, "\u0120beginner": 12825, "\u0120sco": 23894, "\u0120treenode": 26063, "\u0120highly": 17914, "\u0120thankful": 25637, "\u0120q": 22615, "\u0120dy": 15881, "li": 6389, "\u0120dylib": 15884, "\u0120dylibs": 15885, "\u0120linear": 19563, "encies": 4123, "\u0120upstream": 26668, "file": 4555, "\u0120inf": 18490, "ront": 8633, "ciate": 3006, "ning": 7157, "~": 10790, "\u0120'/": 11006, "developer": 3730, "nvidia": 7263, "\u0120crashed": 14610, "\u01202013": 11257, "\u0120gt": 17647, "\u01202048": 11266, "\u0120proces": 22352, "se": 8813, "xp": 10624, "lo": 6521, "\u0120monitor": 20375, "\u012016": 11222, "\u0120notify": 20897, "close": 3081, "]\".": 1574, "\u0120clicking": 13803, "\u0120robert": 23595, "21": 702, "22": 720, "\u0120continuous": 14393, "\u0120virtually": 26903, "\u0120raised": 22727, "\u0120catch": 13489, "henry": 5137, "oo": 7434, "wu": 10574, "fu": 4755, "eng": 4151, "\u0120sizeof": 24418, "int": 5718, "\u0120gb": 17316, "\u0120ram": 22732, "\u0120entity": 16200, "\u0120edmx": 15947, "pit": 7892, ".'": 300, "\u0120critical": 14648, "\u0120patch": 21623, "\u0120eventual": 16359, "\u0120domain": 15696, "\u0120groups": 17634, "\u0120foreign": 17040, "\u0120identifier": 18155, "\u0120sid": 24287, "\u0120ds": 15819, "enumerated": 4202, "omain": 7380, "trusts": 9802, "\u0120updating": 26642, "identifier": 5362, "\u0120converts": 14459, "\u012024": 11289, "\u0120digits": 15432, "\u0120criticism": 14650, "\u0120hopefully": 18009, "wikipedia": 10475, "machine": 6624, "ids": 5380, "\u0120ldap": 19364, "domain": 3857, "\u0120repl": 23269, "\u0120completion": 14089, "\u0120introspection": 18850, "\u0120racer": 22710, "\u0120facto": 16636, "\u0120abort": 11607, "++/": 247, "embedded": 4089, "inter": 5731, "oper": 7457, "ability": 1660, "\u0120teaches": 25521, "ty": 9847, "\u0120sucess": 25191, "++:": 248, "\u0120members": 20064, "ar": 2126, "rive": 8596, "\u0120restart": 23422, "\u0120substrate": 25146, "\u0120reload": 23171, "\u0120systemd": 25421, "\u0120echo": 15920, "\u0120vecdeque": 26810, "\u0120opencv": 21170, "decode": 3614, "\u0120addition": 11777, "\u0120uncomfortable": 26348, "\u0120embedding": 16037, "\u0120referring": 23041, "\u0120neccessary": 20677, "\u0120destructor": 15288, "\u0120brevity": 13179, "++,": 244, "\u0120interoperating": 18792, "unsafe": 10037, "\u0120versatile": 26849, "ie": 5382, "\u0120accompanied": 11668, "\u0120induces": 18470, "\u0120comfortable": 13986, "\u0120simplifying": 24370, "francis": 4723, "\u0120gagne": 17280, "\u0120ultimately": 26303, "\u0120unsafety": 26564, "typical": 9858, "\u0120interacting": 18737, "owning": 7682, "\u0120gains": 17284, "allocation": 1918, "\u0120road": 23591, "\u0120stops": 24943, "\u0120libssh": 19494, "\u0120dirty": 15464, "\u0120debian": 14940, "\u0120kb": 19161, "ci": 3005, "\u0120odd": 21075, "\u0120mb": 19998, "\u0120reader": 22801, "\u0120interrupted": 18809, "\u0120signal": 24312, "\u0120remotely": 23212, "\u0120trans": 25973, "\u0120beforehand": 12820, "\u0120yesterday": 27456, "\u0120linking": 19581, "\u0120automate": 12602, "\u0120linker": 19579, "\u0120workflow": 27303, "\u0120avr": 12636, "\u0120politely": 21999, "\u0120cutting": 14809, "\u0120edge": 15935, "\u0120contributors": 14418, "\u0120series": 24116, "\u0120scripts": 23931, "\u0120makefile": 19839, "\u0120xargo": 27397, "\u0120rumble": 23699, "\u0120subcommand": 25074, "\u0120recompiling": 22919, "\u0120maintainability": 19826, "\u0120summarized": 25233, "\u0120deploying": 15181, "\u0120precision": 22149, "env": 4204, "current": 3498, "().": 148, "rc": 8304, "\u0120manager": 19857, "\u0120tar": 25474, "\u0120zip": 27491, "\u0120decompressing": 14992, "although": 1943, "\u0120contract": 14397, "erc": 4229, "hash": 5092, "ru": 8685, "sh": 8951, "testnet": 9571, "\u0120erc": 16269, "ting": 9663, "\u0120burn": 13305, "ated": 2284, "\u0120attach": 12516, "\u0120gas": 17302, "gas": 4802, "\u0120tx": 26238, "\u0120decrease": 15008, "\u0120successful": 25183, "\u0120deposit": 15184, "31": 833, "0000000000000000": 385, "cli": 3059, "\u0120keeping": 19173, "\u0120pairs": 21478, "\u0120converted": 14454, "\u0120acheive": 11700, "implementations": 5542, "ae": 1806, "249": 760, "91": 1341, "cb": 2864, "55": 1067, "eb": 3971, "\u0120explore": 16550, "\u0120fromstr": 17186, "rr": 8670, "dispatch": 3802, "price": 8059, "\u0120bold": 13068, "{": 10761, "\\\"": 1560, "sett": 8937, "lement": 6342, "date": 3560, "\\\":": 1562, "2019": 687, "24": 740, "50": 1018, "\\\",": 1561, "region": 8412, "ic": 5307, "}\\": 10786, "\u0120recommendations": 22912, "help": 5131, "\u0120deliberately": 15104, "\u0120hurt": 18109, "angle": 2024, "\u0120ndarray": 20662, "\u0120dot": 15717, "\u0120products": 22372, "\u0120indexed": 18438, ":///": 1418, "le": 6303, "ong": 7420, "ab": 1648, "toolchains": 9711, "apple": 2100, "darwin": 3544, "\u0120threw": 25725, "template": 9539, "\u0120$": 10974, "git": 4906, "dir": 3777, "templated": 9540, "ir": 5829, "core": 3352, "exists": 4381, "\u0120git": 17424, "al": 1872, "te": 9522, "\u0120cli": 13800, "\u0120hassle": 17798, "\u0120piped": 21867, "\u0120interactive": 18740, "\u0120nowhere": 20914, "\u0120attempted": 12530, "everything": 4338, "\u0120philosophy": 21810, "bes": 2536, "ide": 5353, "\u0120atty": 12546, "is": 5854, "\u0120recognize": 22902, "\u0120attaching": 12519, "\u0120member": 20063, "integer": 5720, "95": 1368, "ca": 2771, "35": 874, "890": 1329, "cbd": 2868, "07": 489, "\u0120unsizing": 26576, "\u0120unzip": 26630, "\u0120corrupted": 14530, "\u0120actix": 11745, "\u0120viewer": 26882, "\u0120credentials": 14633, "meaning": 6749, "\u0120xor": 27423, "\u0120xored": 27424, "\u0120differnt": 15413, "\u0120glium": 17458, "\u0120redraw": 22994, "\u012060": 11395, "\u0120frame": 17131, "\u0120redrawn": 22995, "\u0120glutin": 17479, "red": 8371, "\u0120perusing": 21778, "\u0120apis": 12210, "\u0120scrolling": 23934, "\u0120handler": 17736, "\u0120subsonic": 25131, "\u0120dreaded": 15788, "cale": 2793, "\u0120increasingly": 18405, "\u0120ditch": 15612, "\u0120mike": 20183, "frame": 4718, "groups": 5009, "google": 4956, "subsonic": 9380, "project": 8125, "browse": 2702, "418": 944, "975": 1386, "\u0120planned": 21912, "repository": 8479, "\u0120focus": 16983, "\u0120door": 15710, "\u0120fixes": 16897, "\u0120outstanding": 21354, "\u0120schedule": 23875, "\u0120march": 19907, "\u01202010": 11254, "\u0120diesel": 15397, "\u0120floating": 16951, "\u0120label": 19274, "sql": 9187, "float": 4630, "\u0120mismatch": 20257, "\u0120schema": 23880, "generated": 4840, "\u0120extends": 16588, "\u0120nullable": 20947, "\u0120rational": 22766, "\u0120rewrite": 23531, "may": 6725, "\u0120stick": 24923, "initialize": 5668, "\u0120slightly": 24471, "\u00e2\u0122\u0136": 10865, "does": 3852, "\u0120merely": 20099, "\u0120desugared": 15297, "\u0120polymorphism": 22016, "\u0120school": 23883, "\u0120came": 13388, "\u0120rusts": 23739, "successful": 9386, "\u0120john": 19084, "\u0120precisely": 22147, "\u0120unpack": 26521, "\u0120constituent": 14326, "\u0120compress": 14132, "\u0120subimage": 25089, "\u0120conveniently": 14437, "\u0120ferris": 16769, "\u0120cropped": 14660, "\u0120striving": 25006, "\u0120serve": 24123, "('.": 136, "pkg": 7900, "\u0120readme": 22809, "\u0120tempting": 25562, "zer": 10719, "kms": 6205, "whitespace": 10459, "vec": 10234, "split": 9173, "off": 7327, "\u0120funcion": 17233, "ndarray": 7077, "\u0120sidebar": 24289, "\u0120views": 26887, "\u0120initializing": 18572, "\u0120gone": 17504, "chunk": 3002, "actually": 1750, "\u0120logically": 19685, "\u0120unordered": 26517, "\u0120liberty": 19469, "\u0120fiddling": 16792, "\u0120highlight": 17910, "\u0120similarities": 24354, "\u0120differences": 15405, "\u0120compet": 14057, "dk": 3823, "\u0120elaborate": 15979, "\u0120chunking": 13714, "\u0120playpen": 21933, "\u0120transformed": 25990, "\u0120stand": 24837, "eye": 4434, "\u0120glf": 17446, "ust": 10151, "rum": 8695, "\u0120face": 16625, "\u0120exploiting": 16546, "that": 9585, "\u0120denominator": 15148, "\u0120eye": 16617, "\u0120perpendicular": 21756, "\u0120scaled": 23851, "\u0120spawn": 24645, "\u0120rejects": 23133, "invisible": 5785, "\u0120claiming": 13752, "\u0120cheat": 13653, "\u0120bump": 13292, "\u0120tenet": 25570, "\u0120workers": 27302, "\u0120deferring": 15055, "\u0120cells": 13539, "\u0120wrappers": 27342, "\u0120resort": 23396, "\u0120fight": 16802, "\u0120inherit": 18546, "ble": 2599, "\u0120destructuring": 15294, "\u0120mismatched": 20258, "\u0120destructure": 15291, "\u0120dozens": 15756, "ower": 7675, "flow": 4634, "chris": 2994, "\u0120emerson": 16048, "\u0120ipv": 18932, "\u0120len": 19411, "\u0120adapt": 11758, "hey": 5146, "\u0120reinterpret": 23119, "\u0120divisible": 15633, "\u0120lax": 19346, "\u0120ignores": 18199, "\u0120critique": 14652, "\u0120harsh": 17778, "102": 525, "ea": 3951, "664": 1157, "65": 1150, "ccb": 2872, "\u0120bitcoin": 12951, "\u0120curl": 14775, "\u0120meaningful": 20020, "\u0120reset": 23370, "\u0120openmp": 21180, "\u0120behaving": 12839, "\u0120grid": 17616, "block": 2607, "\u0120globally": 17463, "\u0120broken": 13206, "\u0120launching": 19340, "idx": 5381, "\u0120blockidx": 13021, "\u0120threadidx": 25714, "unique": 10011, "correct": 3356, "kernel": 6159, "\u0120calculation": 13366, "\u0120populates": 22035, "ion": 5800, "\u0120levels": 19439, "\u0120enclosing": 16105, "\u0120frequently": 17169, "\u0120ubuntu": 26280, "\u012014": 11205, "nightly": 7153, "\u0120xlib": 27413, "\u0120libclang": 19462, "load": 6522, "dev": 3724, "\u0120boiled": 13063, "\u0120alas": 11950, "\u0120allocates": 11995, "\u0120\u00e2\u013a": 27598, "\u00ba": 10818, "\u0120sorted": 24608, "iznich": 6006, "\u0120serializ": 24105, "deserializing": 3696, "\u0120derives": 15215, "\u0120coercions": 13920, "let": 6366, "\u0120coerces": 13916, "\u0120nop": 20855, "\u0120joy": 19097, "\u0120advantages": 11840, "\u0120accessing": 11657, "\u0120solving": 24576, "\u0120glsl": 17472, "\u0120tessellation": 25605, "\u0120patches": 21625, "\u0120drastically": 15775, "\u0120increase": 18401, "\u0120margin": 19910, "\u0120dirt": 15463, "am": 1947, "\u0120triangle": 26074, "\u0120beh": 12832, "em": 4080, "\u0120cull": 14752, "\u0120curiosity": 14772, "\u0120triggered": 26090, "\u0120parsing": 21576, "fields": 4548, "0603": 487, "\u0120visibility": 26909, "\u0120oversight": 21399, "\u0120immaterial": 18249, "public": 8176, "\u0120handlebars": 17734, "\u0120ultimate": 26302, "prints": 8077, "\u0120samples": 23787, "minimal": 6851, "\u0120versioning": 26854, "ro": 8610, "sen": 8881, "mozilla": 6937, "\u0120incompatible": 18383, "\u0120careful": 13440, "\u0120usecase": 26693, "\u0120trigger": 26089, "\u0120reallocation": 22829, "\u0120exchange": 16419, "la": 6234, "ud": 9884, "\u0120refrain": 23065, "\u0120trade": 25951, "\u0120refactor": 23016, "has": 5091, "\u0120unresolved": 26552, "\u0120namespacing": 20615, "\u0120detail": 15304, "according": 1697, "\u0120bet": 12889, "\u0120refuse": 23070, "\u0120yanked": 27442, "\u0120todo": 25848, "\u0120backing": 12681, "zing": 10731, "gd": 4817, "ol": 7359, "q": 8202, "\u0120duplicate": 15859, "page": 7706, "\u0120preallocated": 22130, "\u0120confirm": 14233, "\u0120middle": 20165, "\u0120offer": 21088, "into": 5760, "\u0120prepare": 22214, "gra": 4972, "hp": 5224, "ql": 8210, "\u0120sqlx": 24755, "graphql": 4988, "\u0120chaining": 13606, "\u0120mcve": 20008, "\u0120gate": 17304, "\u0120generalize": 17348, "\u0120phrase": 21817, "\u0120concisely": 14185, "\u0120love": 19742, "\u0120respected": 23403, "\u0120engineering": 16159, "chain": 2941, "fix": 4601, "\u0120leaf": 19371, "\u0120directories": 15458, "leaf": 6306, "\u0120subdirectories": 25077, "\u0120comprehension": 14129, "\u0120virt": 26899, "\u0120standalone": 24838, "\u0120configuring": 14229, "port": 7976, "\u0120443": 11358, "\u0120vault": 26796, "\u0120dv": 15874, "\u0120jboss": 19041, "\u0120browse": 13212, "\u0120displayed": 15569, "\u0120advanced": 11835, "://:": 1419, "8443": 1298, "\u0120unsupported": 26595, "\u0120suite": 25223, "\u0120contact": 14360, "\u0120properties": 22450, "\u0120contrast": 14406, "\u0120refresh": 23066, "\u0120minutes": 20230, "\u0120sen": 24054, "sing": 9036, "\u0120dashboard": 14860, "\u0120md": 20009, "\u0120speaking": 24652, "\u0120presents": 22240, "\u0120issuers": 18974, "\u0120certify": 13579, "\u0120preceding": 22142, "pkcs": 7898, "cert": 2908, "]'": 1575, "cer": 2906, "\u0120exported": 16560, "yaml": 10646, "\u0120david": 14896, "\u0120chop": 13698, "\u0120firstly": 16882, "turn": 9836, "\u0120erroring": 16291, "\u0120sslsocket": 24787, "\u0120restrictive": 23439, "\u0120revoke": 23522, "\u0120eliminating": 16012, "\u0120pem": 21697, "\u0120revocation": 23521, "\u0120pki": 21891, "\u0120infrastructure": 18534, "\u0120ocsp": 21065, "\u0120status": 24884, "\u0120effort": 15963, "\u0120fingerprints": 16853, "white": 10456, "\u0120revoked": 23523, "blacklist": 2592, "\u0120fingerprint": 16852, "\u0120crls": 14655, "\u0120distributed": 15606, "\u0120scales": 23852, "\u0120recognizes": 22904, "\u0120multiline": 20494, "discard": 3794, "until": 10051, "\u0120discards": 15503, "\u0120concern": 14179, "\u0120ensuring": 16183, "\u0120callback": 13376, "\u0120heavy": 17844, "\u0120traditional": 25956, "\u0120threading": 25715, "\u0120arc": 12297, ">,": 1497, "\u0120constructed": 14337, "\u0120deconstructed": 14995, "masklinn": 6698, "trivial": 9775, "\u0120condition": 14203, "depth": 3674, "\u0120exit": 16481, "\u0120computers": 14153, "common": 3176, "\u0120debugging": 14947, "\u0120fullstrust": 17226, "!!": 1, "\u0120wmi": 27269, "?.": 1534, "\u0120toplevel": 25899, "handle": 5071, "dexception": 3737, "inf": 5633, "\u0120cit": 13737, "rix": 8598, "byname": 2763, "\u0120desirable": 15264, "\u0120vb": 26797, "activate": 1732, "\u0120speculate": 24687, "ran": 8273, "\u0120troubleshoot": 26114, "\u0120troubleshooting": 26115, "\u0120challenge": 13611, "\u0120reports": 23295, "\u0120hint": 17928, "\u0120stub": 25035, "\u0120majority": 19835, "\u0120shim": 24221, "\u0120fallback": 16671, "\u0120monad": 20368, "\u0120monads": 20370, "\u0120stumbled": 25053, "\u0120boolean": 13084, "false": 4462, "\u0120exhaustive": 16464, "\u0120exhausting": 16462, "89": 1328, "ee": 4016, "657": 1154, "045": 467, "ffc": 4527, "da": 3527, "98": 1389, "wigle": 10472, "swagger": 9432, "#/": 70, "network": 7117, "search": 8818, "!):": 17, "\u0120detailed": 15305, "\u0120wigle": 27200, "\u0120instan": 18665, "\u0120descriptive": 15232, "\u0120authorization": 12584, "\u0120401": 11347, "will": 10477, "\u0120variation": 26782, "\u0120desugars": 15299, "including": 5586, "\u0120intrinsic": 18839, "\u0120overridden": 21394, "\u0120stumbling": 25055, "\u0120puts": 22586, "\u0120odds": 21078, "checker": 2971, "\u0120immutably": 18259, "\u0120lexical": 19447, "\u0120arms": 12346, "\u0120mysql": 20581, "\u0120rows": 23658, "\u0120affected": 11876, "\u0120reflect": 23048, "\u0120sadly": 23762, "\u0120workspaces": 27313, "\u0120sers": 24119, "\u0120cmake": 13868, "\u0120preferred": 22190, "lite": 6482, "\u0120shamelessly": 24185, "\u0120announced": 12153, "\u0120deference": 15052, "\u0120realize": 22820, "\u0120pointlessly": 21979, "\u0120blanket": 12993, "\u0120contexts": 14379, "\u0120away": 12648, "(*": 157, ")[": 206, "]).": 1579, "fat": 4474, "\u0120resize": 23385, "built": 2743, "\u0120ordered": 21258, "\u0120compelling": 14055, "\u0120coun": 14545, "sel": 8866, "\u0120ya": 27438, "\u0120comb": 13972, "\u0120renamed": 23222, "\u0120technically": 25531, "\u0120wild": 27205, "\u0120remarks": 23193, "\u0120transforming": 25992, "\u0120lowercase": 19748, "\u0120capitalized": 13421, "\u0120rlib": 23580, "\u0120hal": 17713, "\u0120sequences": 24093, "\u0120inspecting": 18646, "rlib": 8601, "\u0120metadata": 20127, "\u0120archive": 12307, "\u0120disassembly": 15496, "\u0120symbols": 25370, "\u0120mangled": 19869, "\u0120trustbox": 26135, "\u0120componentdidmount": 14111, "frome": 4738, "\u0120hours": 18040, "\u0120widget": 27192, "\u0120brave": 13163, "\u0120navigator": 20655, "17": 632, "slice": 9071, "(&": 133, ");": 200, "\u0120\u0120\u0120\u0120\u0120\u0120\u0120\u0120\u0120\u0120\u0120\u0120\u0120\u0120\u0120\u0120\u0120\u0120\u0120\u0120\u0120\u0120\u0120\u0120\u0120\u0120\u0120\u0120\u0120\u0120\u0120\u0120": 27638, "\u0120\u0120\u0120\u0120\u0120\u0120\u0120\u0120\u0120\u0120\u0120\u0120\u0120\u0120\u0120\u0120\u0120": 27626, "\u0120^": 11545, "\u0120aborting": 11609, "44": 965, "287": 805, "0800": 498, "\u0120upgrade": 26645, "\u0120newer": 20749, "\u0120yep": 27454, "\u0120super": 25243, "\u0120unrelated": 26549, "\u0120redundancy": 23004, "\u0120dining": 15445, "\u0120philosophers": 21808, "\u0120programmatically": 22392, "\u0120pushed": 22582, "\u0120onto": 21150, "\u0120philosopher": 21807, "\u0120imho": 18245, "\u0120expressive": 16578, "her": 5138, "\u0120fork": 17061, "\u0120promoted": 22425, "extract": 4429, "optionally": 7483, "\u0120acquire": 11715, "\u0120rewrote": 23535, "\u0120crystal": 14704, "fileiopermission": 4558, "\u0120mscorlib": 20460, "\u0120culture": 14760, "neutral": 7119, "\u0120publickeytoken": 22539, "77": 1231, "561934": 1077, "089": 504, "\u0120breakpoints": 13174, "\u0120fileiopermission": 16814, "mappath": 6676, "~/": 10791, "pur": 8183, "ase": 2216, "ill": 5484, "rpt": 8668, "\u0120hosted": 18027, "\u0120environments": 16226, "www": 10577, "blake": 2595, "pe": 7796, "2008": 675, "ry": 8739, "stal": 9235, "reports": 8478, "aspnet": 2237, "iis": 5456, "\u0120impersonation": 18276, "\u0120embrace": 16039, "\u0120machinery": 19796, "\u0120nonblocking": 20832, "\u0120rustls": 23737, "\u0120redirection": 22986, ")(": 181, "\u0120stencil": 24913, "\u0120protoc": 22478, "\u0120procedurally": 22345, "\u0120prot": 22469, "\u0120youtube": 27473, "apis": 2083, "youtube": 10682, "comment": 3168, "threads": 9628, "****": 222, "plain": 7911, "part": 7750, "snippet": 9095, "vide": 10294, "oid": 7349, "ht": 5233, "max": 6720, "results": 8529, "\u0120nifi": 20782, "\u0120processor": 22357, "sslcontext": 9206, "peer": 7806, "unverifiedexception": 10058, "\u0120cacerts": 13346, "jdk": 6046, "60": 1105, "jre": 6098, "cacerts": 2776, "jira": 6065, "httpclient": 5244, "ifi": 5408, "54": 1060, "\u0120home": 17979, "\u0120confuses": 14254, "\u0120ceases": 13532, "\u0120/.": 11134, "\u0120accordingly": 11678, "\u0120overcome": 21363, "\u0120defaults": 15044, "\u0120supported": 25270, "\u0120incomplete": 18384, "\u0120mut": 20533, "\u0120\u00e2\u0122\u013b": 27568, "\u0120robust": 23601, "ness": 7108, "\u0120colored": 13963, "511": 1035, "66": 1155, "829": 1284, "\u0120swagger": 25335, "came": 2806, "\u0120vcpkg": 26805, "\u0120native": 20641, "\u0120landed": 19297, "\u0120flaw": 16929, "\u0120picks": 21834, "\u0120macos": 19798, "\u0120ios": 18916, "\u0120defeats": 15047, "\u0120legitimate": 19409, "\u0120inputs": 18612, "\u0120legit": 19408, "\u0120scoped": 23897, "\u0120encapsulates": 16096, "\u0120travis": 26044, "\u0120ci": 13716, "\u0120cython": 14827, "\u0120locates": 19661, "\u0120xcode": 27403, "dylib": 3944, "\u0120puzzled": 22590, "\u0120differs": 15414, "travis": 9761, "urschrei": 10120, "convertbng": 3331, "jobs": 6084, "136730": 585, "348": 873, "\u0120phase": 21800, "\u0120dist": 15586, "utils": 10171, "cpython": 3391, "pull": 8180, "\u0120rpath": 23660, "\u0120ba": 12669, "kes": 6161, "albeit": 1874, "\u0120refs": 23069, "\u0120elsewhere": 16025, "\u0120fore": 17037, "going": 4949, "\u0120pieced": 21844, "\u0120texture": 25628, "\u0120suspicion": 25321, "\u0120intuitively": 18857, "\u0120scoured": 23906, "requested": 8489, "\u0120180": 11231, "\u0120benchmarked": 12868, "\u00c2\u00b5s": 10829, "\u0120reversed": 23502, "\u0120reversing": 23504, "\u0120170": 11228, "\u0120tolerable": 25872, "fps": 4710, "\u0120row": 23657, "\u0120framebuffer": 17132, "\u0120fullscreen": 17225, "reverse": 8547, "\u0120tweaking": 26223, "\u0120lastly": 19319, "\u0120room": 23620, "\u0120avoidable": 12631, "\u0120mentions": 20090, "logger": 6543, "fered": 4513, "tracer": 9734, "\u0120opinion": 21206, "\u0120appealing": 12228, "\u0120ambiguities": 12060, "know": 6207, "\u0120presume": 22255, "\u0120identically": 18152, "\u0120fell": 16760, "\u0120favour": 16726, "\u0120nowadays": 20913, "\u0120consistency": 14307, "\u0120inconsistent": 18390, "\u0120camel": 13389, "\u0120reserved": 23367, "\u0120solely": 24564, "\u0120genuinely": 17376, "\u0120reflecting": 23050, "\u0120baked": 12711, "\u0120hyper": 18118, "fine": 4578, "\u0120utility": 26727, "\u0120benchmarks": 12870, "\u0120wildcard": 27206, "\u0120misunderstood": 20280, "\u0120forgot": 17059, "\u0120quotes": 22703, "\u0120finishes": 16858, "\u0120benefit": 12876, "\u0120grips": 17620, "\u0120figuring": 16808, "\u0120ton": 25880, "\u0120vladimir": 26930, "\u0120rosettacode": 23628, "\u0120choking": 13692, "\u0120multibyte": 20488, "zizaco": 10734, "driver": 3900, "\u0120caus": 13503, "\u0120combinators": 13976, "ok": 7353, "works": 10529, "\u0120abbreviate": 11593, "insert": 5698, "\u0120dubious": 15836, "\u0120sven": 25329, "\u0120marnach": 19924, "\u012013": 11199, "195": 658, "\u0120uint": 26297, "\u0120approximately": 12278, "\u0120280": 11310, "\u0120atm": 12505, "\u0120ncurses": 20659, "\u0120asian": 12394, "\u0120catches": 13493, "_*": 1617, "\u0120translates": 26006, "\u0120presses": 22250, "\u0120sensor": 24067, "\u0120specifications": 24673, "\u0120accompanying": 11670, "\u0120spec": 24654, "\u0120fetched": 16772, "\u0120docx": 15681, "\u0120peruse": 21777, "\u0120accomplished": 11672, "\u0120ole": 21119, "\u0120locate": 19659, "\u0120extraction": 16606, "\u0120256": 11303, "\u0120seek": 24006, "zip": 10732, "extensions": 4425, "\u0120central": 13552, "\u0120eocd": 16230, "\u012005": 11148, "\u012006": 11150, "\u0120awesome": 12649, "06": 485, "#\"": 62, "bytes": 2767, "cd": 2880, "\u0120\"#": 10924, "\u0120cd": 13524, "total": 9722, "\u0120excluded": 16426, "blank": 2596, "():": 151, "\u0120seeking": 24007, "\u0120searching": 23957, "\u0120recognise": 22900, "\u0120tracker": 25946, "\u0120tied": 25768, "\u0120hesitant": 17880, "\u0120benefits": 12878, "\u0120apologies": 12214, "nomicon": 7187, "splitting": 9174, "\u0120entities": 16198, "\u0120radix": 22722, "\u0120traverses": 26042, "\u0120identified": 18154, "\u0120decides": 14961, "\u0120orders": 21261, "arrange": 2193, "\u0120delivered": 15114, "\u0120transposed": 26030, "\u0120rearrange": 22840, "\u0120columns": 13970, "\u0120driven": 15796, "\u0120omitted": 21132, "\u0120hinted": 17929, "consuming": 3296, "\u0120joins": 19088, "\u0120carrying": 13456, "something": 9129, "\u0120detect": 15308, "slices": 9072, "overlapping": 7663, "\u0120producing": 22367, "\u0120disjoint": 15551, "\u0120waking": 26995, "\u0120exa": 16384, "cly": 3098, "\u0120synchronously": 25393, "\u0120rank": 22748, "king": 6191, "\u0120permutation": 21751, "iterator": 5931, "things": 9613, "\u0120rearranged": 22841, "rank": 8283, "\u0120rearranging": 22843, "\u0120arrives": 12367, "\u0120hangs": 17749, "\u0120appending": 12238, "\u0120buf": 13255, "\u0120appended": 12236, "\u0120hang": 17745, "edwardw": 4015, "ted": 9533, "\u0120worst": 27323, "\u0120trimming": 26097, "800": 1251, "800000000": 1255, "\u0120individually": 18465, "\u0120multiply": 20506, "\u0120strategic": 24962, "programming": 8120, "\u0120natural": 20643, "\u0120partic": 21583, "ula": 9926, "\u0120gotten": 17527, "\u0120early": 15903, "ures": 10096, "\u0120photoshop": 21814, "\u0120textures": 25629, "izes": 6004, "\u0120calculations": 13367, "\u0120met": 20124, "point": 7943, "\u0120fractional": 17123, "\u0120rotate": 23632, "\u0120nearly": 20669, "\u0120integral": 18707, "dh": 3746, "collect": 3140, "query": 8232, "\u0120'-": 11003, "214748": 710, "800007": 1256, "pdh": 7794, "\u0120println": 22304, "taken": 9487, "inspect": 5703, "\u0120geometric": 17379, "\u0120shapes": 24189, "\u0120shape": 24187, "\u0120refined": 23045, "\u0120subshapes": 25127, "\u0120refinement": 23046, "parent": 7735, "knows": 6210, "ref": 8387, "ined": 5624, "\u0120hypothetical": 18128, "\u0120refines": 23047, "\u0120clauses": 13780, "0038": 400, "\u0120intend": 18722, "\u0120buying": 13325, "\u0120clarify": 13763, "blog": 2613, "\u0120rookie": 23619, "\u0120toggled": 25854, "\u0120del": 15085, "\u0120succeed": 25176, "\u0120refreshing": 23068, "\u0120deleting": 15100, "\u0120deletes": 15099, "thin": 9611, "pages": 7707, "\u0120sol": 24560, "oution": 7648, "\u0120memcached": 20066, "\u0120fixing": 16898, "\u0120thses": 25742, "hed": 5115, "listed": 6475, "\u0120dpkg": 15761, "\u0120talking": 25455, "\u0120av": 12616, "memcached": 6770, "\u0120shock": 24230, "ingly": 5650, "\u0120tha": 25634, "\u0120entering": 16190, "\u0120guys": 17687, "\u0120appreci": 12259, "ative": 2311, "ini": 5658, "\u0120msgpack": 20463, "launchpad": 6278, "/+": 356, "download": 3881, "\u0120swf": 25347, "\u0120webview": 27106, "\u0120panel": 21497, "media": 6758, "documentation": 3848, "flashplayer": 4614, "manager": 6657, "ass": 2241, "isted": 5901, "\u0120networking": 20738, "adobe": 1794, "mobile": 6891, "\u0120flash": 16912, "\u0120pasting": 21621, "\u0120strangely": 24960, "ect": 3987, "\u0120morning": 20409, "\u012038": 11339, "\u012046": 11362, "\u0120confident": 14216, "\u0120compares": 14045, "\u0120tomcat": 25877, "\u0120webapp": 27078, "\u0120truststorefile": 26157, "certificates": 2915, "\u0120registered": 23092, "always": 1945, "509": 1032, "pkix": 7902, "\u0120cas": 13462, "division": 3820, "whatever": 10445, "servlet": 8927, "\u0120connector": 14277, "\u0120servlet": 24136, "\u0120feed": 16750, "resource": 8512, "\u0120privatekeys": 22321, "certs": 2921, "any": 2065, "\u0120overloads": 21388, "\u0120examine": 16393, "missing": 6865, "\u0120javadoc": 19032, "oracle": 7491, "javase": 6033, "])": 1577, "\u0120!=": 10917, "\u0120soa": 24543, "\u0120aos": 12198, "\u0120owners": 21424, "\u0120unpinned": 26529, "\u0120enforced": 16152, "\u0120ub": 26276, "\u0120snap": 24523, "\u0120alacritty": 11949, "rt": 8678, "\u0120crt": 14675, "\u0120edited": 15938, "\u0120~/.": 27537, "\u0120helped": 17861, "bit": 2579, "\u0120listing": 19603, "\u0120hoped": 18006, "\u0120generating": 17357, "\u0120anti": 12177, "virus": 10314, "\u0120software": 24558, "\u0120interfering": 18767, "\u0120disabling": 15469, "\u0120subprocess": 25109, "\u0120echoing": 15922, "\u0120footer": 17020, "\u0120terminates": 25587, "\u0120triggering": 26091, "argo": 2160, "`,": 1630, "\u0120runner": 23706, "\u0120absolutely": 11621, "\u0120whatsoever": 27143, "\u0120conditional": 14204, "disable": 3789, "686": 1168, "unknown": 10018, "\u0120macbook": 19793, "2016": 684, "\u0120journey": 19096, "\u0120toolchain": 25888, "cross": 3440, "#)": 65, "\u0120hop": 18004, "\u0120cul": 14751, "len": 6346, "intrinsics": 5766, "break": 2687, "\u0120mitigated": 20288, "dependencies": 3661, "\u0120[\"": 11528, "\"]": 55, "\u0120nicer": 20771, "\u0120negatives": 20704, "\u0120edges": 15936, "\u0120rusty": 23743, "\u0120fighting": 16803, "\u0120deals": 14933, "\u0120forcing": 17036, "\u0120lengths": 19418, "\u0120exceed": 16401, "\u0120negative": 20702, "\u0120../": 11128, "plot": 7926, "mote": 6927, "streampro": 9338, "cess": 2924, "\u0120coincidentally": 13933, "starblue": 9248, "\u0120camelcase": 13390, "recursive": 8367, "tokio": 9700, "elf": 4068, "between": 2542, "\u0120kids": 19217, "\u0120andrew": 12128, "\u0120morton": 20411, "structure": 9357, "pseudo": 8164, "\u0120reproducible": 23317, "kind": 6188, "\u0120distinction": 15593, "\u0120ignoring": 18201, "inserted": 5699, "\u0120usual": 26719, "\u0120resides": 23378, "\u0120blows": 13032, "\u0120traces": 25942, "\u0120uncommenting": 26351, "\u0120factoring": 16642, "\u0120strip": 24999, "\u0120atomic": 12508, "\u0120observe": 21019, "\u0120interleaved": 18771, "option": 7481, "\u0120colors": 13965, "\u0120\",": 10943, "\u0120unify": 26441, "\u0120heterogenous": 17886, "\u0120masking": 19934, "\u0120endianness": 16137, "platform": 7917, "num": 7253, "\u0120endian": 16134, "\u0120bitmask": 12960, "\u0120jit": 19061, "100": 516, "\u0120portion": 22051, "\u0120partially": 21580, "\u0120li": 19456, "\u0120board": 13049, "\u0120zynq": 27513, "7000": 1182, "\u0120fsbl": 17208, "abort": 1667, "handler": 5072, "xa": 10584, "304": 825, "\u00e2\u0122\u013f.": 10874, "boot": 2647, "metal": 6802, "\u0120tz": 26269, "\u0120firmware": 16877, "\u0120modeled": 20329, "initialized": 5670, "\u0120arg": 12321, "\u0120terminating": 25588, "\u0120spot": 24730, "ison": 5885, "leading": 6305, "delete": 3645, "heap": 5111, "\u0120worried": 27317, "\u0120needlessly": 20692, "\u0120replacements": 23274, "\u0120rope": 23626, "\u0120unquoted": 26539, "\u0120overkill": 21377, "\u0120delegates": 15094, "\u0120relying": 23183, "\u0120escaped": 16301, "irty": 5852, "\u0120presentation": 22235, "\u0120modifies": 20348, "\u0120consumer": 14354, "\u0120retaining": 23457, "\u0120mmap": 20306, "\u0120involve": 18903, "\u0120freshly": 17171, "\u0120provably": 22486, "\u0120undo": 26400, "\u0120elision": 16014, "allocates": 1916, "\u0120uniform": 26438, "\u0120vtable": 26967, "\u0120erases": 16263, "\u0120importantly": 18309, "\u0120assist": 12445, "please": 7922, "\u0120nature": 20645, "\u0120iss": 18966, "\u0120clap": 13758, "\u0120nodejs": 20817, "\u0120conc": 14158, "ure": 10092, "ncy": 7074, "\u0120dumb": 15845, "\u0120invo": 18895, "ling": 6455, "\u0120addon": 11782, "\u0120behalf": 12833, "_)": 1616, "\u0120deallocated": 14928, "\u0120nestings": 20729, "\u0120pressed": 22249, "\u0120clicked": 13802, "\u0120innermost": 18600, "\u0120regain": 23077, "emphasis": 4100, "reg": 8406, "ain": 1848, "\u0120glib": 17453, "\u0120nesting": 20728, "\u0120arrange": 12351, "\u0120quit": 22693, "\u0120idle": 18177, "\u0120continually": 14386, "\u0120busy": 13316, "loo": 6560, "ping": 7880, "\u0120gui": 17671, "\u0120queued": 22677, "\u0120releasing": 23156, "\u0120fourth": 17109, "\u0120fifth": 16800, "\u0120reasonable": 22845, "\u0120corresponds": 14525, "\u0120sneaky": 24530, "\u0120power": 22102, "\u0120expanded": 16490, "slightly": 9074, "\u0120cleaned": 13783, "\u0120usefulness": 26699, "\u0120focuses": 16985, "\u0120opposed": 21213, "borrowing": 2654, "\u0120sound": 24615, "\u0120ques": 22668, "show": 8993, "antic": 2057, "\u0120experienced": 16507, "\u0120sigmoid": 24310, "\u0120infinity": 18513, "\u0120inherent": 18544, "\u0120prelude": 22204, "\u0120newly": 20753, "\u0120yew": 27458, "\u0120experiment": 16510, "\u0120warned": 27019, "easy": 3969, "primitive": 8064, "512": 1036, "curl": 3496, "\u0120tasked": 25485, "\u0120determining": 15320, "\u0120dll": 15641, "\u0120tampered": 25461, "\u0120winverifytrust": 27237, "57": 1083, "\u0120gathered": 17310, "\u0120msdn": 20461, "\u0120wintrust": 27236, "software": 9113, "\u0120publisher": 22543, "\u0120soft": 24557, "pub": 8175, "\u0120guid": 17672, "invalid": 5775, "parameter": 7729, "action": 1729, "verify": 10260, "subject": 9374, "\u0120illuminating": 18217, "\u0120signtool": 24333, "\u0120discussing": 15543, "\u0120manufacturer": 19895, "\u0120favor": 16720, "\u0120hfile": 17894, "\u0120pc": 21655, "\u01202012": 11256, "\u0120===": 11502, "\u0120xm": 27415, "stak": 9233, "fire": 4585, "ice": 5315, "uk": 9924, "xm": 10615, "\u0120typo": 26267, "\u0120classical": 13772, "100000000": 521, "\u0120occurring": 21060, "prim": 8060, "\u0120profiler": 22381, "\u0120nvprof": 20979, "\u0120cmd": 13870, "scan": 8781, "\u0120cudaerror": 14736, "illegal": 5489, "ress": 8517, "\u0120iterations": 18991, "\u0120quadro": 22629, "\u0120narrow": 20626, "\u0120adress": 11828, "memcheck": 6771, "(?)": 168, "\u0120cud": 14733, "apro": 2120, "filer": 4561, "stop": 9315, "\u0120editing": 15939, "\u0120reverted": 23506, "enable": 4111, "();": 152, "other": 7598, "\u0120toolkit": 25891, "\u0120assembled": 12414, "\u0120unanswered": 26317, "\u0120accumulates": 11688, "\u0120supplier": 25265, "est": 4297, "ery": 4274, "oung": 7627, "\u0120fancy": 16691, "regex": 8410, "\u0120lookahead": 19706, "\u0120cat": 13481, "pure": 8184, "\u0120doomed": 15709, "\u0120thats": 25641, "\u0120repeatedly": 23258, "\u0120expansion": 16494, "\u0120downcast": 15735, "\u0120credit": 14635, "modules": 6903, "control": 3319, "scope": 8792, "privacy": 8083, "separ": 8893, "different": 3764, "\u0120prefixing": 22200, "\u0120forgo": 17058, "\u0120atom": 12507, "beautify": 2491, "\u0120styling": 25063, "\u0120cpplint": 14585, "usercontent": 10135, "ph": 7853, "ile": 5467, "ron": 8631, "caf": 2785, "429": 954, "dd": 3582, "107": 531, "499": 1016, "uncrustify": 9983, "preferences": 8030, "\u0120beaut": 12801, "comments": 3171, "]\"": 1572, "\u0120gap": 17296, "protected": 8145, "\u0120indented": 18428, "\u0120beautify": 12804, "\u0120lint": 19584, "\u0120spacing": 24633, "\u0120aligning": 11977, "\u0120tide": 25764, "\u0120liquid": 19591, "\u0120brand": 13161, "day": 3565, "\u0120annoyance": 12156, "elegant": 4061, "newtype": 7126, "\u0120assured": 12470, "\u0120influence": 18517, "ops": 7468, "\u0120orphan": 21291, "\u0120newtype": 20755, "\u0120term": 25581, "\u0120kring": 19263, "amongst": 1970, "binding": 2570, "ber": 2528, "scot": 8797, "tmm": 9686, "jack": 6010, "son": 9132, "\u0120newb": 20745, "ish": 5867, "\u0120additions": 11780, "geo": 4851, "/#/": 347, "traversal": 9759, "\u0120grabbing": 17549, "\u0120representations": 23304, "\u0120indicating": 18448, "\u0120populated": 22034, "\u0120inevitably": 18483, "unspecified": 10043, "\u0120mcarton": 20005, "\u0120beyond": 12898, "\u0120abi": 11600, "\u0120(~": 11068, "\u0120frees": 17157, "\u0120initital": 18580, "\u0120reloads": 23174, "bad": 2426, "alloc": 1913, "\u0120cudamemgetinfo": 14744, "\u0120crovella": 14671, "\u0120excellent": 16407, "requesting": 8490, "\u0120behaves": 12837, "108864": 536, "double": 3876, "536": 1056, "87": 1314, "\u0120reproducer": 23315, "\u0120contiguous": 14381, "\u0120successive": 25186, "allocate": 1914, "\u0120rustwasm": 23741, "\u0120submodule": 25102, "\u0120beside": 12885, "mo": 6890, "bu": 2717, "\u0120recorded": 22934, "\u0120recover": 22938, "pun": 8182, "\u0120deriving": 15216, "\u0120peeling": 21691, "\u0120derivation": 15210, "\u0120mock": 20319, "\u0120lol": 19695, "\u0120cc": 13519, "possibly": 7986, "\u0120exports": 16562, "ants": 2061, "mpsc": 6954, "sender": 8885, "unless": 10020, "\u0120overlooked": 21389, "\u0120:/": 11478, "modified": 6899, "jer": 6056, "omer": 7388, "43": 956, "935": 1358, "\u0120ignore": 18196, "\u0120responding": 23412, "\u0120executor": 16448, "\u0120concat": 14159, "\u0120comma": 13989, "\u0120stringified": 24995, "working": 10528, "jas": 6024, "per": 7817, "av": 2377, "separated": 8894, "another": 2046, "supp": 9410, "ose": 7570, "\u0120ident": 18150, "\u0120formulate": 17083, "\u0120osgi": 21301, "\u0120webservice": 27095, "\u0120ejb": 15975, "\u0120glassfish": 17440, "\u0120routing": 23656, "properties": 8142, "\u0120jsse": 19108, "\u0120vague": 26745, "\u0120pdp": 21673, "\u0120setter": 24146, "\u0120getter": 17395, "\u0120callbacks": 13377, "\u0120thye": 25752, "\u0120glue": 17474, "\u0120coded": 13899, "\u0120startup": 24861, "still": 9299, "word": 10517, "\u0120crypto": 14694, "\u0120cryptretrievetimestamp": 14702, "\u0120cryptsignmessage": 14703, "\u0120tsa": 26172, "\u0120pbmessage": 21654, "\u0120cbmessage": 13517, "\u0120signer": 24321, "\u0120verified": 26841, "hints": 5173, "\u0120magda": 19807, "\u0120encodes": 16112, "\u0120retrieves": 23469, "\u0120stamping": 24833, "tsa": 9813, "terminated": 9557, "\u0120insight": 18633, "sz": 9468, "rsa": 8673, "ist": 5898, "sha": 8952, "\u0120retrieval": 23465, "xn": 10620, "\u0120activate": 11730, "\u0120cublas": 14728, "\u0120nrm": 20921, "\u0120batch": 12763, "\u0120routines": 23655, "\u0120norms": 20869, "\u0120simultaneous": 24382, "\u0120overall": 21361, "\u0120latency": 19324, "\u0120negatively": 20703, "\u0120shed": 24205, "\u0120light": 19534, "\u0120ext": 16581, "inct": 5601, "\u0120whilst": 27160, "\u0120reachable": 22789, "\u0120fyi": 17276, ").\"": 194, "instances": 5713, "\u0120destructors": 15289, "\u0120fundamental": 17246, "\u0120describe": 15226, "\u0120throwing": 25734, "\u0120wall": 27003, "\u0120sticks": 24925, "\u0120continuing": 14391, "\u0120stands": 24847, "\u0120demonstrating": 15135, "\u0120scoping": 23900, "\u0120statics": 24877, "\u0120shaky": 24181, "\u0120intending": 18724, "\u0120rough": 23640, "\u0120vaguely": 26746, "\u0120utilize": 26729, "\u0120inexperienced": 18487, "\u0120fizzbuzz": 16901, "\u0120mysterious": 20586, "\u0120typecheck": 26246, "\u0120accommodate": 11667, "\u0120essence": 16312, "quotes": 8249, "\u0120accelerated": 11640, "\u0120sprites": 24743, "\u0120rate": 22761, "\u0120sdl": 23944, "\u0120fps": 17115, "1440": 597, "\u0120dedicate": 15022, "pl": 7904, "aform": 1820, "\u0120guideline": 17676, "\u0120technique": 25532, "\u0120optimizing": 21241, "\u0120massive": 19943, "pixel": 7894, "ster": 9293, "\u0120pixels": 21885, "draw": 3892, "upload": 10076, "gpu": 4965, "\u0120bulk": 13288, "\u0120redesigning": 22981, "\u0120cidr": 13717, "\u0120num": 20950, "he": 5107, "kl": 6199, "il": 5460, "\u0120casted": 13477, "\u0120csv": 14713, "\u0120extracted": 16604, "\u0120evaluating": 16348, "manual": 6669, "\u0120death": 14936, "\u0120dying": 15882, "\u0120},": 27532, "\u0120wasteful": 27039, "\u0120destructed": 15284, "\u0120unsound": 26578, "\u0120misplaced": 20261, "\u0120conjunction": 14267, "\u0120sprinkle": 24739, "illy": 5496, "willy": 10479, "\u0120semi": 24049, "colon": 3145, "\u0120\u00e2\u013b": 27600, "\u0124": 27645, "\u0120clonable": 13826, "\u0120sharepoint": 24197, "\u0120caspol": 13471, "\u0120\u00e2\u0128\u0134": 27576, "mysite": 7023, "wss": 10566, "\u0120recycle": 22966, "\u0120repeat": 23254, "\u0120granting": 17570, "\u0120predefined": 22164, "\u0120uninstalling": 26452, "\u0120enumerated": 16213, "\u0120policies": 21993, "sharepoint": 8966, "administr": 1790, "ation": 2307, "sp": 9145, "office": 7328, "studio": 9365, "configuration": 3249, "fulltrust": 4760, "assemblies": 2245, "\u0120sticking": 24924, "\u0120bat": 12762, "resolve": 8510, "perm": 7826, "exp": 4383, "iry": 5853, "tmp": 9687, "\u0120leetcode": 19394, "\u0120largest": 19314, "stream": 9334, "\u0120binaryheap": 12929, "\u0120pops": 22031, "\u0120smallest": 24493, "\u0120negate": 20697, "shepmaster": 8975, "\u0120alludes": 12011, "\u0120balance": 12714, "\u0120fin": 16835, "essing": 4295, "\u0120rts": 23683, "\u0120emitted": 16053, "\u0120unclear": 26347, "llvm": 6516, "doxygen": 3886, "ga": 4788, "29": 808, "749": 1215, "093": 508, "fba": 4479, "efa": 4027, "177": 640, "commands": 3167, "run": 8696, "clap": 3039, "\u0120emit": 16051, "\u0120mocker": 20322, "\u0120sentences": 24071, "\u0120registering": 23093, "defining": 3638, "\u0120explaining": 16529, "\u0120plugins": 21958, "unfortunately": 10000, "\u0120outdated": 21327, "\u0120singleton": 24392, "\u0120esot": 16307, "ically": 5310, "\u0120weakref": 27073, "\u0120ins": 18617, "\u0120outs": 21350, "\u0120instantiating": 18676, "disclaimer": 3795, "\u0120libloading": 19476, "\u0120inject": 18582, "\u0120jumps": 19132, "\u0120improperly": 18328, "\u0120spat": 24643, "\u0120incorrectly": 18400, "\u0120violation": 26897, "\u0120deduce": 15025, "\u0120assistance": 12446, "\u0120jquery": 19100, "\u0120recommendation": 22911, "ten": 9546, "jq": 6097, "plugins": 7931, "ajax": 1861, "head": 5108, "request": 8488, "\u0120authenticated": 12571, "protocols": 8149, "rfc": 8560, "2616": 774, "sec": 8824, "\u0120dat": 14862, "\u0120year": 27448, "\u0120achieving": 11705, "\u0120reach": 22788, "\u0120fake": 16664, "\u0120minor": 20223, "\u0120dns": 15657, "fing": 4579, "login": 6548, "iz": 5996, "den": 3657, "jet": 6057, "cz": 3524, "ering": 4245, "93": 1356, "134": 580, "\u0120jre": 19101, "45": 976, "706": 1186, "\u0120tinker": 25813, "\u0120belong": 12858, "sto": 9309, "\u0120relationship": 23144, "\u0120proble": 22338, "\u0120polymorphic": 22014, "\u0120relationships": 23145, "\u0120relation": 23141, "\u0120spawned": 24646, "\u0120linq": 19583, "\u0120sever": 24157, "\u0120reflectionpermission": 23053, "\u0120queries": 22664, "\u0120ef": 15954, "\u0120aggregated": 11908, "\u0120record": 22933, "\u0120permutations": 21752, "\u0120factorial": 16639, "\u0120cookbook": 14472, "\u0120formulas": 17082, "val": 10196, "lentin": 6355, "\u0120factorials": 16640, "\u0120flaws": 16932, "overflowing": 7660, "\u0120alternating": 12043, "\u0120division": 15634, "\u0120micro": 20151, "optimizations": 7476, "\u0120shrink": 24269, "\u0120foreword": 17050, "\u0120disappointed": 15491, "\u0120indefinitely": 18424, "\u0120sl": 24441, "\u0120rx": 23751, "tx": 9845, "\u0120hook": 17998, "codec": 3118, "\u0120principle": 22295, "\u0120reverses": 23503, "\u0120echos": 15923, "\u01205000": 11372, "\u0120amounts": 12079, "variable": 10214, "\u0120sn": 24519, "\u0120filters": 16834, "0277": 438, "\u0120continues": 14390, "\u0120origin": 21279, "((": 137, "sn": 9092, "))": 182, "264": 776, "fa": 4439, "cde": 2882, "787": 1242, "940": 1361, "123": 562, "\u0120ftp": 17211, "\u0120sso": 24793, "\u0120sqlserver": 24753, "\u0120simp": 24359, "lier": 6418, "\u0120cont": 14359, "\u0120encrypt": 16125, "\u0120kerberos": 19182, "\u0120ints": 18853, "\u0120++": 11093, "\u0120*.": 11089, "\u0120gr": 17545, "\u0120printf": 22302, "\u0120cout": 14568, "\u0120unary": 26318, "\u0120overloaded": 21386, "googlecode": 4959, "hg": 5149, "classthrust": 3045, "\u0120tile": 25778, "\u0120planes": 21909, "\u0120frustums": 17204, "\u0120intersects": 18818, "\u0120lights": 19539, "\u0120explode": 16542, "\u0120const": 14320, "\u0120ranked": 22749, "hrtb": 5230, "\u0120boy": 13145, "\u0120rug": 23693, "precision": 8024, "\u0120emscripten": 16080, "libc": 6394, "issuecomment": 5892, "333": 857, "\u0120wasi": 27029, "emscripten": 4105, "997": 1397, "\u0120robinson": 23597, "matching": 6706, "\u0120bear": 12792, "analyzer": 1985, "\u0120inserts": 18629, "\u0120underscore": 26383, "\u0120\"_": 10965, "\u0120cheating": 13655, "\u0120instantiate": 18673, "<_": 1459, ">?": 1508, "\u0120decimal": 14963, "\u0120convoluted": 14467, "\u0120news": 20754, "\u0120warnings": 27021, "\u0120overwrite": 21409, "lines": 6453, "\u0120alright": 12030, "\u0120lints": 19587, "\u0120clippy": 13814, "\u0120uh": 26294, "\u0120expon": 16555, "ents": 4196, "\u0120exponent": 16556, "\u0120powers": 22106, "\u0120unambiguous": 26315, "\u0120suffix": 25207, "\u0120prettier": 22261, "\u0120eh": 15969, "\u0120digit": 15428, "\u0120multiplied": 20504, "\u0120highest": 17909, "cols": 3149, "\u0120--------------": 11108, "----------------": 285, "\u0120presenting": 22238, "ins": 5693, "necessarily": 7086, "\u0120ago": 11914, "\u0120mismatching": 20260, "\u0120magnitude": 19814, "\u0120(!)": 11017, "sur": 9416, "\u0120discover": 15524, "\u0120theirs": 25649, "\u0120nitty": 20802, "gritty": 5004, "\u0120clever": 13798, "\u0120gained": 17282, "\u0120microseconds": 20160, "\u0120cudathreadsynchronize": 14745, "\u0120bingo": 12938, "\u0120zeroed": 27483, "et": 4301, "\u0120simil": 24351, "\u0120synchronize": 25388, "synchronize": 9455, "enabled": 4112, "const": 3275, "\u0120__": 11563, "synchronous": 9457, "replace": 8472, "\u0120ms": 20455, "repl": 8471, "aces": 1706, "imple": 5539, "\u0120gtx": 17651, "\u0120570": 11389, "\u0120ghz": 17409, "\u0120launches": 19339, "\u0120measure": 20031, "\u0120permuted": 21754, "axis": 2404, "\u0120seal": 23946, "sig": 9006, "segv": 8864, "stuff": 9366, "context": 3308, "\u0120archlinux": 12310, "each": 3956, "modifying": 6901, "\u0120./": 11129, "\u0120acknowledge": 11709, "operation": 7460, "inl": 5680, "\u0120\u0120\u0120\u0120\u0120\u0120\u0120\u0120\u0120\u0120": 27619, "\u0120detected": 15310, "\u0120\u0120\u0120\u0120\u0120\u0120\u0120\u0120\u0120\u0120\u0120\u0120": 27621, "closure": 3085, "inputiterator": 5691, "\u0120inputiterator": 18611, "\u0120outputiterator": 21345, "\u0120setoperation": 24143, "=(": 1468, "unsigned": 10041, "128": 570, "par": 7723, ">>,": 1504, "less": 6363, "difference": 3763, "serial": 8903, "bounded": 2664, "578": 1087, "operations": 7461, "51": 1033, "outputiterator": 7651, "560": 1076, "void": 10337, "operator": 7462, "launch": 6276, "<(": 1447, ">]\"": 1510, "execution": 4371, "\u0120&,": 10982, "\u0120derivedpolicy": 15214, "sequential": 8899, "seq": 8895, "\u0120strictweakordering": 24987, "\u0120strictweakcompare": 24986, "randomaccessiterator": 8277, "\u0120randomaccessiterator": 22738, "\u0120executionpolicy": 16445, "general": 4837, "106": 530, "++\"": 238, "120": 556, "\u0120\"*\"": 10937, "\u0120void": 26939, ">::": 1501, "assign": 2254, "112": 543, "tmpxft": 9688, "00000000": 384, "ii": 5453, "begin": 2501, "\u0120snippets": 24539, "end": 4135, "\u0120timing": 25806, "\u0120timer": 25790, "\u0120ray": 22771, "\u0120tracer": 25941, "\u0120concerns": 14182, "\u0120chance": 13615, "\u0120theory": 25661, "\u0120rays": 22774, "\u0120width": 27194, "ox": 7685, "el": 4056, "div": 3816, "ided": 5356, "\u0120oct": 21066, "\u0120consist": 14306, "\u0120cubes": 14727, "\u0120polygons": 22012, "\u0120fall": 16669, "\u0120viewport": 26886, "far": 4468, "\u0120polygon": 22011, "poly": 7961, "gons": 4952, "\u0120minecraft": 20204, "\u0120oc": 21036, "cluded": 3094, "\u0120discard": 15500, "\u0120weigh": 27114, "\u0120;-)": 11483, "rees": 8386, "\u0120nginx": 20763, "tr": 9731, "\u0120federate": 16745, "\u0120office": 21094, "365": 884, "\u0120accounts": 11683, "hh": 5150, "26": 771, "\u0120exp": 16488, "\u0120mex": 20143, "ranet": 8279, "services": 8925, "mex": 6813, "\u0120rerouted": 23350, "2005": 671, "usernamemixed": 10138, "\u01201025": 11169, "\u0120\"-\"": 10946, "\u0120ev": 16340, "\u0120correspond": 14521, "connect": 3260, "ivity": 5990, "les": 6362, "ign": 5434, "\u0120trough": 26117, "adfspip": 1778, "dn": 3837, "247": 757, "ext": 4420, "ef": 4026, "90": 1335, "818": 1273, "92": 1348, "/[": 372, "\u0120histogram": 17937, "\u01201024": 11168, "\u0120bucket": 13249, "\u0120255": 11302, "\u0120remainder": 23186, "\u0120salient": 23777, "255": 767, "\u0120plugging": 21956, "corrupt": 3359, "fixable": 4602, "\u0120ghostscript": 17408, "ails": 1846, "\u0120wrapped": 27340, "sharp": 8969, "\u0120dllimport": 15643, "outside": 7654, "\u0120quer": 22662, "information": 5643, "standard": 9243, "halftone": 5063, "gs": 5015, "63": 1134, "font": 4656, "open": 7448, "\u0120emits": 16052, "\u0120tpm": 25932, "\u0120tss": 26179, "\u0120trustedgrub": 26139, "\u0120uefi": 26286, "\u0120bios": 12942, "\u0120sits": 24408, "\u0120resultant": 23446, "\u0120mult": 20485, "\u0120coalesced": 13883, "loading": 6526, "\u0120sensitive": 24065, "\u0120afnetworking": 11886, "\u0120injection": 18585, "\u0120exchanges": 16421, "urlconnection": 10106, "delegate": 3644, "\u0120subclass": 25071, "\u0120impression": 18324, "\u0120semver": 24053, "compliant": 3213, "\u0120tags": 25442, "\u0120repos": 23297, "\u0120newest": 20750, "breaking": 2689, "\u0120trend": 26069, "\u0120convince": 14464, "\u0120prop": 22441, "94": 1360, "\u0120daemon": 14834, "\u0120confirming": 14236, "\u0120novice": 20910, "\u0120quot": 22699, "ient": 5391, "0308": 447, "\u0120targeted": 25477, "\u0120introduction": 18847, "\u0120pulls": 22552, "shadow": 8956, ",.": 265, "99": 1392, "\u0120comp": 14027, "\u0120prefers": 22192, "\u0120rhs": 23542, "\u0120flat": 16916, "tests": 9572, "\u0120codebases": 13895, "\u0120separation": 24080, "\u0120simplicity": 24364, "\u0120categories": 13497, "\u0120undesirable": 26395, "non": 7189, "\u0120promise": 22420, "\u0120\".": 10948, "\u0120parameterize": 21535, "\u0120es": 16296, "\u0120referent": 23033, "\u0120deallocation": 14931, "\u0120routine": 23653, "++.": 246, "\u0120lending": 19414, "\u0120prestashop": 22253, "\u0120badge": 12700, "\u0120late": 19322, "\u0120theme": 25651, "theme": 9592, "autoload": 2371, "tpl": 9728, "foot": 4661, "\u0120area": 12316, "stashop": 9259, "\u0120(+": 11041, "-*": 278, "/),": 351, "\u0120parentheses": 21556, "\u0120lexer": 19445, "descent": 3688, "parser": 7747, "\u0120conventions": 14442, "ake": 1864, "\u0120costly": 14539, "\u0120dtrace": 15831, "\u0120eb": 15915, "pf": 7848, "function": 4767, "\u0120probe": 22335, "\u0120land": 19296, "mangling": 6662, "\u0120programmatic": 22391, "\u0120orthographic": 21295, "\u0120squares": 24761, "px": 8195, "\u0120matrices": 19974, "\u0120svg": 25331, "\u0120nalgebra": 20606, "\u0120cgmath": 13597, "\u0120rotation": 23636, "leetcode": 6329, "problems": 8091, "rot": 8644, "lay": 6284, "\u0120trap": 26032, "\u0120preface": 22183, "\u0120beginners": 12826, "\u0120emphasize": 16063, "sent": 8892, "inel": 5626, "\u0120skimmed": 24430, "\u0120sentinel": 24072, "\u0120singly": 24394, "\u0120gloss": 17469, "\u0120libert": 19468, "\u0120reconstruct": 22931, "\u0120largely": 19312, "\u0120reassigning": 22854, "\u0120boundaries": 13132, "\u0120pesky": 21782, "\u0120definite": 15066, "\u0120uniqueness": 26462, "\u0120integrity": 18715, "particularly": 7758, "\u0120advances": 11836, "forget": 4674, "nll": 7167, "\u0120reassign": 22852, "reborrowing": 8347, "\u0120permanently": 21739, "\u0120destroying": 15281, "\u0120unwind": 26621, "\u0120stitch": 24929, "\u0120assigns": 12443, "\u0120functionally": 17241, "\u0120appease": 12234, "\u0120finish": 16856, "\u0120rotating": 23635, "\u0120tricky": 26084, "\u0120conceptual": 14177, "ize": 6000, "\u0120marching": 19908, "iterating": 5929, "\u0120downstream": 15750, "\u0120flagging": 16906, "besides": 2537, "\u0120preserve": 22242, "\u0120chip": 13684, "gui": 5034, "\u0120tdd": 25516, "\u0120hooks": 18001, "\u0120accounting": 11682, "\u0120multipart": 20496, "multipart": 6991, "\u0120deserializing": 15248, "\u0120guards": 17662, "\u0120handlers": 17737, "\u0120phantomdata": 21798, "\u0120threadsafe": 25719, "address": 1768, "\u0120wake": 26990, "\u0120semaphore": 24047, "sounds": 9140, "idiomatic": 5376, "weight": 10429, "\u0120fwiw": 17273, "\u0120bank": 12727, "nb": 7066, "\u0120spatial": 24644, "\u0120cell": 13536, ".).": 305, "\u0120held": 17853, "\u0120modelled": 20331, "\u0120consult": 14347, "container": 3300, "584": 1093, "\u0120wit": 27251, "\u0120declarations": 14973, "\u0120overriding": 21397, "ks": 6220, "\u0120rsa": 23668, "secureentity": 8836, "genkey": 4848, "pair": 7709, "alias": 1888, "\u0120secureentity": 23985, "\u0120keystone": 19200, "\u0120validates": 26754, "export": 4407, "importcert": 5554, "entities": 4185, "setproperty": 8935, "javax": 6034, "\",\"": 42, "keystorepassword": 6173, "\u0120cheers": 13673, "have": 5099, "when": 10448, "!,": 19, "\u0120misconceptions": 20247, "thank": 9583, "\u0120pretzelhammer": 22267, "\u0120opener": 21173, "\u0120correcting": 14513, "\u0120beautiful": 12803, "why": 10463, "\u0120conclusion": 14191, "pin": 7879, "pool": 7968, "\u0120utilise": 26725, "\u0120threadpool": 25717, "ned": 7090, "\u0120parallelize": 21524, "mp": 6938, "\u0120surprised": 25295, "\u0120pop": 22027, "\u0120spin": 24707, "\u0120interestingly": 18759, "\u0120lying": 19787, "\u0120pid": 21841, "\u0120ease": 15907, "\u0120cl": 13748, "ions": 5803, "\u0120nate": 20637, "\u0120superfluous": 25248, "\u0120txt": 26239, "\u0120recompile": 22917, "\u0120honor": 17993, "\u0120prerequisites": 22228, "those": 9620, "\u0120substituted": 25138, "\u0120serial": 24099, "\u0120locks": 19670, "preferably": 8029, "\u0120falling": 16674, "\u0120settled": 24151, "\u0120arrived": 12366, "\u0120ties": 25770, "\u0120exits": 16484, "fixes": 4604, "\u0120ent": 16184, "\u0120threaded": 25713, "\u0120imperative": 18271, "\u0120investigate": 18884, "\u0120zipper": 27494, "\u0120plat": 21915, "tform": 9578, "\u0120reexport": 23011, "\u0120namespaces": 20614, "\u0120adjacent": 11802, "target": 9500, "\u0120threes": 25722, "\u0120tips": 25818, "\u0120becuase": 12811, "\u0120counts": 14558, "\u0120guides": 17678, "\u0120serializable": 24106, "\u0120omm": 21134, "\u0120targeting": 25478, "\u0120wrongly": 27364, "\u0120rodrigo": 23603, "\u0120dummy": 15847, "\u0120qualified": 22638, "\u0120tackling": 25437, "unit": 10012, "\u0120bro": 13197, "swer": 9436, "\u0120refused": 23071, "import": 5552, "\"),": 35, "\u0120vast": 26794, "\u0120engineer": 16158, "\u0120controller": 14424, "interface": 5737, "\u0120roo": 23616, "sts": 9361, "\u0120tiny": 25815, "\u0120feedback": 16751, "dbc": 3571, "\u0120jar": 19022, "\u0120spring": 24736, "spring": 9182, "command": 3162, "pa": 7689, "setup": 8942, "pers": 7833, "ence": 4120, "1506": 607, "\u0120appropriately": 12272, "\u0120convertible": 14457, "\u0120parameterless": 21538, "sample": 8759, "\u0120isize": 18954, "\u0120permitted": 21748, "\u0120criteria": 14645, "ertrait": 4267, "\u0120supertrait": 25255, "already": 1937, "edited": 4005, "\u0120stride": 24988, "related": 8428, "\u0120toggle": 25853, "pt": 8167, "\u0120region": 23089, "lim": 6440, "ately": 2285, "\u0120begins": 12829, "\u0120\"...": 10950, "\u0120ifs": 18190, "take": 9486, "\u0120bind": 12931, "\u0120parlance": 21565, "irrefutable": 5847, "guard": 5027, "\u0120binaryfunction": 12928, "canned": 2812, "\u0120functors": 17245, "negative": 7094, "stand": 9241, "\u0120barrier": 12744, "robert": 8613, "\u0120average": 12624, "\u0120briefly": 13190, "\u0120zipped": 27493, "curand": 3492, "\u0120dos": 15715, "\u0120hello": 17857, "force": 4664, "bru": 2704, "lldb": 6504, "vadimcn": 10195, "vscode": 10352, "attach": 2331, "\u0120profiles": 22382, "\u0120dropdown": 15806, "...\",": 317, "\u0120elevating": 16000, "\u0120story": 24951, "\u0120ridiculously": 23551, "\u0120wins": 27234, "\u0120slowly": 24486, "\u0120unoptimized": 26516, "\u0120beat": 12799, "\u0120optimizer": 21238, "\u0120caching": 13352, "\u0120slowest": 24484, "\u0120trial": 26072, "\u0120broader": 13203, "mcarton": 6734, "\u0120answering": 12173, "\u0120became": 12806, "\u0120terribly": 25599, "\u0120concatenate": 14161, "embed": 4088, "\u0120surrounds": 25305, "\u0120escape": 16300, "\u0120rdbms": 22780, "catalog": 2854, "\u0120catalog": 13484, "\u0120describing": 15229, "\u0120dispatching": 15562, "\u0120threadblock": 25711, "\u0120towards": 25924, "\u0120feasible": 16737, "\u0120bridge": 13186, "\u0120specialization": 24662, "ne": 7079, "crovella": 3442, "\u0120video": 26875, "currently": 3500, "?),": 1528, "?,": 1533, "\u0120cover": 14571, "anything": 2066, "\u0120productive": 22370, ".\u00e2\u0122\u013f": 341, "\u0120(==": 11057, "\u0120panicking": 21502, "\u0120assert": 12422, "\u0120resizes": 23387, "\u0120checkout": 13666, "036": 452, "027": 435, "127": 569, "\u0120flagged": 16905, "among": 1969, "\u0120angle": 12133, "\u0120measur": 20029, "\u0120runnable": 23705, "\u0120bizarre": 12976, "\u0120conflicts": 14243, "\u0120pty": 22534, "\u0120pts": 22530, "pts": 8172, "\u0120trunk": 26129, "\u0120interrupts": 18814, "\u0120stm": 24931, "407": 931, "disc": 3793, "\u0120exti": 16601, "\u0120interrupt": 18808, "\u0120pe": 21674, "\u0120pa": 21436, "interrupt": 5754, "\u0120cortex": 14535, "\u0120sys": 25413, "single": 9038, "\u0120guidelines": 17677, "\u0120snake": 24522, "\u0120jetbrains": 19053, "\u0120ides": 18165, "im": 5507, "\u0120clion": 13809, "\u0120intellij": 18720, "arm": 2182, "ruby": 8688, "mine": 6846, "\u0120fa": 16620, "mm": 6880, "iliar": 5474, "\u0120afterall": 11892, "\u0120powered": 22103, "\u0120investigation": 18887, "intellij": 5728, "\u0120opposing": 21214, ".(": 301, "ues": 9900, "aiv": 1858, "\u0120lay": 19347, "\u0120dependancies": 15167, "\u0120cleanup": 13789, "\u0120caches": 13351, "\u0120entail": 16185, "table": 9473, "\u0120arises": 12334, "\u0120costs": 14540, "\u0120drag": 15765, "\u0120flicker": 16943, "cast": 2847, "moved": 6934, "left": 6330, "\u0120reinterpreting": 23122, "relative": 8432, "position": 7980, "\u0120immediate": 18251, "\u0120movement": 20435, "\u0120artifacts": 12378, "\u0120accumulated": 11687, "\u0120delt": 15119, "\u0120expanding": 16491, "exclusive": 4360, "\u0120flatten": 16921, "\u0120nik": 20790, "las": 6263, "\u0120experimental": 16511, "\u0120unwrapping": 26628, "\u0120articles": 12376, "tee": 9534, "\u0120derived": 15213, "baked": 2432, "\u0120summary": 25235, "\u0120backed": 12676, "\u0120dependent": 15175, "\u0120manufacturers": 19896, "\u0120lit": 19607, "atur": 2344, "\u0120gilles": 17420, "alle": 1906, "aut": 2355, "\u0120whitepaper": 27169, "\u0120rustup": 23740, "\u0120alongside": 12015, "\u0120transaction": 25974, "\u0120pipes": 21872, "\u0120scaffolding": 23844, "\u0120commandline": 13991, "\u0120uns": 26559, "anit": 2031, "ized": 6001, "\u0120cleaning": 13786, "\u0120cram": 14604, "med": 6756, "\u0120ioresult": 18915, "\u0120refuses": 23072, "\u0120turbulencetoo": 26200, "<": 1440, ",_": 271, "\u0120quits": 22695, "\u0120sake": 23774, "\u0120tomorrow": 25879, "\u0120suspended": 25318, "\u012044": 11356, "\u0120\u0120\u0120\u0120\u0120\u0120\u0120\u0120": 27617, "\u0120aux": 12614, "mid": 6828, "\u0120^~~~~~~~~~~~~~~~~": 11559, "\u0120capital": 13419, "ise": 5859, "\u0120par": 21510, "allax": 1905, "\u0120illusion": 18218, "anxious": 2064, "bored": 2651, "thep": 9598, "usion": 10145, "tracking": 9738, "iphone": 5819, "symmetric": 9452, "\u0120strait": 24958, "ail": 1843, "\u0120affine": 11882, "stack": 9226, "imgur": 5527, "jb": 6038, "png": 7937, "\u0120ske": 24423, "ubuntu": 9875, "@:": 1546, "\u0120ob": 20991, "ke": 6146, "pie": 7876, "independent": 5608, "\u0120slack": 24444, "ware": 10383, "paste": 7769, "pasting": 7772, "\u0120worded": 27290, "\u0120treated": 26053, "\u0120identifies": 18157, "\u0120trusting": 26143, "\u0120drivers": 15798, "\u0120irc": 18935, "\u0120month": 20400, "objects": 7280, "\u0120shuffle": 24273, "\u0120supposing": 25277, "\u0120knuth": 19257, "ul": 9925, "kn": 6206, "\u0120duplicated": 15860, "\u0120subslicing": 25130, "\u0120loss": 19732, "\u0120subslice": 25128, "\";": 53, "\u0120retain": 23455, "\u0120senders": 24058, "\u0120synchronous": 25392, "imp": 5535, "\u0120al": 11947, "\u012028": 11309, "\u0120mp": 20441, "\u0120frames": 17135, "\u0120queues": 22678, "\u0120rep": 23249, "ishes": 5869, "\u0120el": 15977, "\u0120privilege": 22323, "\u0120aarch": 11585, "\u0120loader": 19640, "bl": 2589, "firmware": 4590, "\u0120simon": 24358, "\u0120compromise": 14142, "compiler": 3202, "\u0120asm": 12402, "\u0120disassemble": 15494, "\u0120produced": 22363, "\u0120resemble": 23362, "register": 8414, "ret": 8530, "manip": 6665, "\u0120ambiguous": 12062, "\u0120preconditions": 22157, "\u0120clarification": 13759, "people": 7816, "sof": 9110, "utorial": 10178, "store": 9320, "sslexception": 9209, "\u0120fatal": 16711, "\u0120inexperience": 18486, "contained": 3299, "\u012015": 11211, "\u0120violating": 26896, "\u0120repeating": 23259, "parse": 7745, "\u0120pieces": 21846, "powered": 7998, "ining": 5659, "\u0120displaying": 15570, "\u0120():": 11033, "\u0120inverted": 18880, "ot": 7588, "\u0120statusbar": 24885, "\u0120ha": 17696, "\u0120mongodb": 20373, "\u0120driver": 15797, "\u0120operational": 21202, "\u0120carry": 13455, "updates": 10070, "\u012050": 11370, "\u0120million": 20188, "59": 1097, "threading": 9626, "\u0120disabled": 15467, "\u0120versus": 26856, "\u0120contention": 14373, "\u0120constrained": 14331, "\u0120clues": 13854, "\u0120processors": 22358, "\u0120frequency": 17167, "\u0120ryzen": 23752, "\u012037": 11337, "\u0120turbo": 26198, "ghz": 4890, "\u0120fool": 17015, "\u0120unsorted": 26577, "\u0120itertools": 18997, "\u0120stopping": 24942, "\u0120feet": 16759, "\u0120calc": 13359, "\u0120newtypes": 20756, "\u0120repetitive": 23265, "\u0120begining": 12824, "\u0120meaningless": 20022, "\u0120deduced": 15026, "\u0120restarting": 23424, "utf": 10166, "je": 6049, "ay": 2406, "ncurses": 7073, "ex": 4344, "character": 2957, "characters": 2958, "\u0120recurse": 22956, "\u0120complaints": 14077, "stringify": 9347, "\u0120belie": 12850, "vable": 10193, "\u0120presented": 22237, "\u0120discussed": 15541, "\u0120kill": 19218, "\u0120soul": 24614, "\u0120experiences": 16508, "reading": 8327, "\u0120memorizing": 20078, "\u0120revert": 23505, "\u0120reflected": 23049, "\u0120hobby": 17961, "xx": 10637, "hal": 5061, "\u0120realtime": 22834, "usb": 10129, "blinky": 2603, "\u0120mv": 20554, "kk": 6198, "\u0120connectivity": 14276, "\u0120respond": 23409, "\u0120usb": 26688, "\u0120endpoints": 16145, "\u0120bidirectional": 12910, "uction": 9883, "\u0120retur": 23480, "allow": 1921, "database": 3550, "\u0120loc": 19645, "\u0120kmdreko": 19243, "\u0120shorten": 24244, "\u0120rebinding": 22858, "\u0120actively": 11739, "bound": 2662, "\u0120raising": 22729, "\u0120succed": 25175, "lication": 6411, "\u0120silverlight": 24348, "\u0120oob": 21155, "\u0120relaxed": 23149, "\u0120cons": 14282, "ent": 4176, "iation": 5294, "screen": 8799, "\u0120customization": 14800, "\u0120lifetimed": 19522, "\u0120unavoidable": 26325, "\u0120mouthful": 20429, "\u0120cacher": 13350, "\u0120annotated": 12146, "\u0120disadvantage": 15470, "\u0120digging": 15425, "\u0120hole": 17971, "\u0120accessor": 11658, "\u0120worthwhile": 27325, "cost": 3363, "\u0120stem": 24910, "\u0120harmful": 17774, "\u0120futile": 17267, "\u0120fulfilling": 17220, "\u0120notoriously": 20902, "\u0120fixable": 16894, "\u0120evening": 16353, "\u0120tensorflow": 25573, "\u012018": 11230, "\u0120ought": 21316, "\u0120prebuilt": 22132, "\u0120downloads": 15747, "\u0120parallelizing": 21527, "\u0120des": 15217, "solutions": 9119, "\u0120slowdown": 24482, "\u0120educated": 15950, "\u0120feeding": 16752, "\u0120fragments": 17130, "\u0120spend": 24699, "\u012011": 11178, "cub": 3479, "dis": 3788, "radix": 8263, "cuh": 3484, "_::": 1620, "deviceradixsort": 3734, "\u0120940": 11455, "\u0120assistant": 12447, "nvcc": 7262, "gencode": 4832, "arch": 2135, "compute": 3226, "=\\\"": 1484, "sm": 9081, "cl": 3034, "ccbin": 2873, "vc": 10228, "maxrregcount": 6723, "compile": 3200, "cudart": 3483, "dwin": 3940, "console": 3274, "mbcs": 6728, "xcompiler": 10597, "ehsc": 4049, "nologo": 7185, "zi": 10726, "rtc": 8679, "mdd": 6742, "obj": 7276, "rei": 8423, "catch": 2855, "\u0120formed": 17075, "\u0120advised": 11856, "existing": 4380, "\u0120advisable": 11854, "\u0120firsthand": 16881, "attempts": 2336, "compare": 3192, "lrt": 6590, "\u012019": 11234, "\u0120224": 11279, "644": 1146, "143": 595, "cout": 3374, "224": 724, "\u0120measurements": 20034, "\u0120viz": 26928, "\u0120resetting": 23372, "\u0120cumulative": 14763, "\u0120subtracting": 25160, "\u0120axios": 12661, "\u0120vue": 26970, "fl": 4609, "igth": 5443, "access": 1690, "cors": 3360, "\u0120apikey": 12209, "\u0120secret": 23972, "\u0120login": 19686, "implicit": 5547, "ark": 2179, "\u0120brief": 13189, "827": 1282, "fce": 4485, "212": 708, "\u0120credits": 14636, "\u0120terminology": 25591, "msb": 6968, "\u0120suffixes": 25209, "\u0120msb": 20457, "\u0120lsb": 19761, "\u0120equals": 16250, "\u0120footnote": 17023, "\u0120optimise": 21227, "\u0120bottlenecks": 13124, "\u0120rollback": 23609, "\u0120premature": 22206, "thus": 9639, "\u0120optimised": 21228, "cgi": 2937, "\u0120intuition": 18855, "\u0120decept": 14957, "ively": 5984, "mutably": 7002, "\u0120exclusive": 16431, "\u0120upheld": 26649, "directly": 3783, "\u0120races": 22711, "bs": 2706, "\u0120mass": 19937, "\u0120acceleration": 11641, "res": 8500, "scroll": 8807, "\u0120acc": 11637, "func": 4766, "())": 144, "pos": 7978, "aion": 1853, "\u0120pos": 22054, "\u0120recompute": 22920, "\u0120simulation": 24379, "\u0120apologize": 12216, "\u0120ax": 12658, "\u0120ay": 12664, "\u0120az": 12665, "\u0120dt": 15826, "\u0120operated": 21198, "\u0120race": 22709, "\u0120launched": 19336, "\u0120increment": 18408, "\u0120hazards": 17815, "\u0120raises": 22728, "lm": 6518, "\u0120expired": 16522, "prod": 8102, "\u0120enviroments": 16222, "osx": 7587, "\u0120digitalocean": 15431, "\u0120surprising": 25297, "\u0120unintuitive": 26457, "\u0120pretend": 22258, "\u0120overly": 21391, "overcommit": 7658, "\u0120bl": 12981, "uff": 9904, "\u0120minimalistic": 20216, "\u0120unwinding": 26622, "\u0120restore": 23429, "lt": 6595, "\u0120font": 17010, "\u0120vga": 26870, "\u0120stretch": 24981, "\u0120shifts": 24220, "face": 4443, "\u0120ships": 24227, "\u0120topics": 25898, "\u0120divided": 15627, "\u0120devil": 15343, "\u0120ple": 21936, "asure": 2273, "\u0120transfers": 25986, "indices": 5617, "place": 7905, "\u0120uncommented": 26350, "\u0120960": 11458, "naive": 7034, "\u0120deconstruct": 14994, "\u0120'?'": 11012, "\u0120builder": 13271, "\u0120readily": 22804, "\u0120octets": 21070, "\u0120googled": 17514, "\u0120incidentally": 18364, "\u0120capable": 13414, "\u0120transitioning": 25997, "\u0120assumed": 12463, "\u0120numbered": 20953, "\u0120consumable": 14351, "ap": 2071, "\u0120joined": 19086, "\u0120algo": 11960, "stx": 9369, "\u0120sk": 24422, "\u0120certified": 13577, "387": 905, "\u0120boo": 13077, "\u0120reg": 23076, "\u0120attacking": 12525, "bent": 2527, "\u0120educate": 15949, "325": 848, "878": 1317, "caa": 2772, "\u0120conflating": 14240, "\u0120prototype": 22482, "\u0120avenues": 12622, "\u0120proceeding": 22350, "\u0120picking": 21831, "\u0120ternary": 25595, "\u0120basing": 12759, "\u0120disappears": 15489, "ur": 10083, "\u0120culprit": 14758, "\u0120malfunction": 19846, "\u0120student": 25042, "mer": 6788, "blade": 2593, "act": 1728, "\u0120css": 14709, "\u0120admin": 11811, "activity": 1741, "stadd": 9229, "setting": 8940, "\u0120facade": 16624, "\u0120borrower": 13109, "\u0120increments": 18413, "\u0120decrements": 15015, "notice": 7218, "\u0120rectify": 22951, "ordering": 7506, "\u0120overthink": 21403, "traits": 9743, "\u0120burden": 13302, "\u0120smell": 24503, "\u0120abc": 11597, "center": 2901, "\u0120intru": 18851, "ctions": 3466, "\u0120uboot": 26279, "fit": 4597, "signature": 9011, "cmd": 3102, "\u0120mmc": 20308, "configs": 3248, "vexpress": 10282, "\u0120vexpress": 26869, "\u0120media": 20046, "\u0120gimp": 17421, "\u0120accidentally": 11664, "\u0120accidental": 11663, "\u0120raise": 22726, "\u0120bitflags": 12957, "\u0120300": 11317, "\u0120designated": 15254, "\u0120parameterized": 21536, "\u0120numerous": 20965, "\u0120originates": 21284, "\u0120supporting": 25271, "\u0120filed": 16812, "240": 741, "\u0120wasting": 27041, "\u0120bitfields": 12955, "\u0120bitfield": 12954, "\u0120144": 11208, "\u0120eventually": 16360, "\u0120posting": 22088, "su": 9371, "hr": 5227, "656": 1153, "\u0120exclamation": 16424, "\u0120cobble": 13886, "\u0120learnt": 19386, "\u0120700": 11418, "quote": 8247, "\u0120contra": 14396, "\u0120multitude": 20514, "can": 2809, "green": 4994, "`\".": 1628, "internals": 5745, "\u0120informed": 18530, "stage": 9230, "often": 7334, "\u0120libstd": 19496, "\u0120bootstrap": 13095, "relevant": 8439, "yielding": 10662, "exposing": 4413, "layers": 6286, "easily": 3968, "\u0120sprinkling": 24741, "\u0120digest": 15422, "\u0120renaming": 23224, "\u0120datat": 14884, "ables": 1662, "matt": 6714, "sta": 9223, "uffer": 9905, "co": 3110, "acl": 1717, "authorization": 2366, "laravel": 6257, "policies": 7952, "\u0120oriented": 21277, "\u0120aws": 12657, "\u0120intervals": 18823, "\u0120tick": 25757, "\u0120scheduling": 23879, "\u0120major": 19834, "\u0120detects": 15313, "\u0120downgrade": 15740, "\u0120crossbeam": 14663, "\u0120timers": 25792, "whole": 10461, "fn": 4641, "interval": 5758, "\u0120onward": 21152, "future": 4779, "46": 986, "\u0120slide": 24465, "\u0120yield": 27459, "\u0120accumulate": 11686, "liner": 6452, "\u0120reuses": 23490, "\u0120interchangeable": 18751, "\u0120commas": 13993, "\u0120encoded": 16109, "\u0120phil": 21805, "opp": 7465, "bare": 2446, "pp": 8002, "\u0120brainfuck": 13156, "\u0120pushes": 22583, "\u0120tor": 25905, "\u0120brainf": 13155, "\u0120painful": 21470, "\u0120interpreters": 18803, "\u0120recursion": 22959, "\u0120intentionally": 18732, "\u0120imple": 18279, "nent": 7104, "\u0120rerun": 23351, "\u0120workspace": 27312, "tomls": 9704, "\u0120accumulator": 11691, "\u0120adapting": 11764, "\u0120clipboard": 13811, "contents": 3307, "\u0120underneath": 26380, "\u0120unimplemented": 26445, "\u0120conclude": 14187, "\u0120complicate": 14098, "\u0120visited": 26915, "proto": 8146, "tlsv": 9683, "\u0120|": 27523, "daygeek": 3566, "\u0120cancel": 13397, "\u0120syncing": 25394, "abe": 1654, "cefd": 2892, "rustc": 8716, "\u012077": 11427, "\u0120mib": 20146, "\u0120%)": 10977, "\u0120eta": 16326, "\u012054": 11379, "\u0120\u0120\u0120\u0120\u0120\u0120\u0120\u0120\u0120\u0120\u0120\u0120\u0120\u0120\u0120\u0120": 27625, "\u0120stalling": 24829, "\u0120rus": 23714, "\u0120tc": 25504, "\u0120($": 11022, "\u0120messed": 20120, "\u0120cited": 13739, "\u0120customary": 14794, "\u0120shells": 24210, "\u0120restarted": 23423, "\u0120mps": 20446, "args": 2162, "\u0120regularly": 23106, "ung": 10001, "mps": 6953, "\u0120chris": 13704, "\u0120morgan": 20408, "\u0120seams": 23952, "\u0120seam": 23949, "mplement": 6949, "bug": 2730, "report": 8476, "::_": 1426, "110": 539, ")',": 179, "rustbuild": 8714, "buildbot": 2734, "slave": 9069, "libsyntax": 6409, "ast": 2268, "327": 851, "\u0120glad": 17434, "hoc": 5190, "\u0120unwraps": 26629, "\u0120spans": 24637, "\u012033": 11328, "\u0120^^^^^^^^": 11550, "^^^^^": 1610, "\u0120\u0120\u0120\u0120\u0120\u0120\u0120\u0120\u0120\u0120\u0120": 27620, "\u0120inlining": 18593, "\u0120incurs": 18417, "\u0120forbid": 17027, "environment": 4206, "\u0120capturing": 13433, "\u0120auxiliary": 12615, "opaque": 7447, "\u0120humans": 18091, "\u0120heads": 17829, "\u0120hardcode": 17762, "\u0120hardcoding": 17764, "604": 1112, "71": 1189, "\u0120illustrated": 18221, "gor": 4961, "und": 9987, "endian": 4138, "\u0120hardly": 17770, "\u0120netcat": 20732, "await": 2394, "\u0120puzzle": 22589, "\u0120labels": 19278, "\u0120labeled": 19275, "\u0120constraining": 14332, "\u0120communicates": 14019, "\u0120exhausted": 16461, "location": 6536, "131": 578, "\u0120invitations": 18892, "preferred": 8032, "send": 8883, "bus": 2754, "ines": 5630, "invitations": 5787, "history": 5179, "\u0120october": 21071, "\u0120pol": 21989, "itically": 5944, "\u0120prose": 22467, "\u0120duplicates": 15861, "\u0120dup": 15855, "input": 5690, "\u0120conform": 14245, "itive": 5953, "\u0120nix": 20803, "\u0120ioctl": 18911, "manually": 6670, "\u0120experimentation": 16513, "\u0120mocking": 20323, "\u0120mutexguard": 20551, "\u0120challeng": 13610, "\u0120conn": 14269, "undrum": 9996, "\u0120fnonce": 16978, "\u0120unlock": 26486, "ignore": 5438, "\u0120fli": 16942, "pper": 8004, "\u0120catalina": 13483, "\u0120sparse": 24641, "\u0120cusparse": 14791, "\u0120cusp": 14790, "\u0120studied": 25044, "\u0120coalescing": 13884, "\u0120millions": 20189, "\u0120unaligned": 26313, "\u0120irregular": 18942, "\u0120strides": 24991, "\u0120algorithmic": 11964, "\u0120accesses": 11654, "\u0120sequential": 24095, "\u0120throughput": 25730, "\u0120increased": 18402, "\u0120transactions": 25975, "\u0120flight": 16945, "coding": 3127, "consider": 3271, "\u0120lived": 19619, "\u0120suggesting": 25216, "\u0120eats": 15914, "chars": 2959, "\u0120walking": 27000, "\u0120brute": 13224, "\u0120cleanly": 13787, "\u0120bon": 13074, "\u0120deserve": 15249, "found": 4700, "inlined": 5682, "zn": 10740, "malloc": 6651, "allocator": 1920, "eed": 4018, "buildcustomizations": 2735, "597": 1101, "3721": 890, "\u0120\"\"": 10920, "amd": 1957, "cud": 3480, "processing": 8099, "\"\"": 31, "\u0120exited": 16482, "\u0120==========": 11504, "\u0120skipped": 24434, "\u0120pls": 21948, "\u0120configs": 14220, "routes": 8652, "model": 6896, "\u0120400": 11346, "\u0120reveals": 23498, "\u0120backslashes": 12688, "\u0120\"+=\"": 10942, "however": 5223, "\u0120prudent": 22512, "\u0120+=": 11097, "\u0120noop": 20854, "\u0120lasts": 19320, "\u0120spreadsheet": 24735, "referenced": 8392, "haha": 5059, "idding": 5350, "\u0120ruled": 23696, "\u0120monomorphization": 20386, "proc": 8092, "coll": 3139, "ision": 5871, "two": 9844, "\u0120forwards": 17099, "gives": 4912, "\u0120invocations": 18898, "hack": 5055, "nested": 7111, "started": 9253, "jmb": 6075, "\u0120mixed": 20293, "ters": 9563, "hood": 5200, "\u0120xy": 27434, "\u0120valuable": 26763, "\u0120globals": 17465, "expr": 4414, "\u0120stripping": 25002, "\u0120drawbacks": 15780, "rolling": 8628, "\u0120constexpr": 14324, "cell": 2895, "newbie": 7122, "convert": 3330, "\u0120refcell": 23019, "\u0120fmt": 16974, "\u0120lovely": 19744, "previous": 8055, "handed": 5070, "\u0120^_^": 11555, "minimum": 6853, "ging": 4901, "\u0120saves": 23831, "\u0120tune": 26189, "openssl": 7456, "\u0120elliptic": 16019, "curve": 3504, "printing": 8075, "rov": 8656, "ides": 5372, "\u0120propagate": 22443, "\u0120complicates": 14100, "\u0120nightlies": 20786, "\u0120toprimitive": 25904, "\u0120perl": 21735, "\u0120orthogonal": 21294, "\u0120foremost": 17041, "\u0120initially": 18573, "\u0120horribly": 18022, "lets": 6370, "\u0120assignments": 12442, "decrement": 3622, "\u0120honestly": 17992, "return": 8540, "\u0120happened": 17754, "work": 10521, "saving": 8774, "\u0120terabytes": 25580, "\u0120age": 11900, "\u0120iso": 18957, "yyyy": 10701, "\u0120tryed": 26167, "}": 10772, "[.": 1550, "-/": 290, "]?)": 1597, "(\\": 171, "}).": 10778, "\u0120(.)": 11047, "\u0120awkwardness": 12655, "\u0120quicksort": 22686, "\u0120undergoing": 26373, "\u0120growing": 17637, "\u0120chained": 13605, "\u0120shame": 24184, "\u0120versed": 26850, "\u0120outliving": 21341, "129": 572, "fbb": 4480, "124": 564, "170": 633, "\u0120caution": 13509, "big": 2556, "\u0120endianess": 16135, "\u0120trustmanager": 26148, "\u0120cry": 14686, "\u0120fellow": 16761, "trustmanager": 9797, "null": 7249, "acceptedissuers": 1687, "\u0120compromised": 14143, "\u0120regenerate": 23085, "\u0120www": 27389, "\u0120removable": 23213, "\u0120fire": 16865, "proof": 8136, "\u0120gigabytes": 17416, "\u0120wondered": 27280, "qualified": 8224, "\u0120loosen": 19724, "\u0120subtrait": 25162, "\u0120turbofish": 26199, "\u0120stubs": 25038, "editor": 4007, "\u0120codegen": 13900, "codegen": 3121, "ener": 4146, "ator": 2324, "openapitools": 7450, "openapi": 7449, "chrome": 2997, "svgomg": 9429, "twa": 9840, "\u0120radio": 22720, "\u012084": 11443, "\u0120programm": 22389, "\u0120colliding": 13956, "banking": 2443, "\u0120mail": 19815, "\u0120banking": 12729, "\u0120notification": 20893, "\u0120buy": 13324, "\u0120jdk": 19044, "\u0120javamail": 19035, "\u0120smtp": 24516, "\u0120unset": 26572, "appear": 2093, "ances": 1990, "\u0120respects": 23407, "jedrz": 6055, "\u0120bonus": 13076, "\u0120indirect": 18458, "\u0120interned": 18785, "\u0120unpleasant": 26530, "508": 1031, "specifically": 9159, "\u0120huh": 18088, "\u0120libary": 19459, "boolean": 2644, "mismatched": 6863, "rmp": 8607, "'\"": 95, "<'": 1445, "\u0120defer": 15051, "checking": 2972, "twice": 9842, "\u0120expr": 16568, "\u0120mathematical": 19968, "\u0120acting": 11726, "\u0120propagated": 22444, ")...": 196, "\u0120mailbox": 19816, "\u0120neighbour": 20717, "\u0120isolated": 18959, "\u0120compat": 14050, "\u0120initiated": 18575, "\u0120seperate": 24084, "\u0120pot": 22095, "\u0120insomnia": 18641, "insomnia": 5702, "oftrust": 7335, "rest": 8520, "\u0120modifiers": 20347, "\u0120alt": 12033, "meta": 6800, "\u0120ansi": 12168, "\u0120siblings": 24285, "simplified": 9030, "\u0120topic": 25897, "\u0120connects": 14279, "\u0120frequent": 17168, "hence": 5136, "\u0120seamlessly": 23951, "ied": 5383, "answers": 2053, "\u0120keymanager": 19193, "typically": 9859, "\u0120programatically": 22387, "\u0120aspect": 12405, "reload": 8440, "jcalcote": 6041, "wordpress": 10519, "2010": 678, "managing": 6659, "\u0120checkclienttrusted": 13660, "checkservertrusted": 2975, "\u0120varied": 26785, "\u0120interval": 18822, "were": 10436, "\u0120retrospect": 23476, "\u0120reloading": 23173, "\u0120checkservertrusted": 13669, "trustmanagerimpl": 9800, "\u0120synchronized": 25389, "typescript": 9857, "infinite": 5638, "writer": 10555, "\u0120forbidden": 17028, "\u0120matveev": 19983, "\u0120bi": 12902, "directional": 3781, "\u0120kafka": 19150, "\u0120cluster": 13859, "\u0120initialised": 18561, "\u0120initialising": 18563, "bindings": 2572, "declare": 3609, "\u0120guarding": 17661, "\u0120claim": 13750, "\u0120renderer": 23231, "\u0120hands": 17740, "likely": 6438, "\u0120rwlock": 23748, "\u0120obtained": 21029, "\u0120sooner": 24598, "\u0120feder": 16744, "saml": 8756, "\u0120asserts": 12427, "\u0120replying": 23287, "\u0120assertions": 12426, "\u0120pingfederate": 21858, "\u0120ping": 21857, "route": 8650, "versions": 10274, "\u0120hth": 18059, "\u0120ian": 18133, "ium": 5976, "simple": 9027, "cq": 3392, "greg": 4997, "ory": 7565, "ng": 7136, "\u0120hopes": 18010, "\u0120extraneous": 16610, "\u0120implementor": 18290, "\u0120stylistic": 25064, "\u0120clutter": 13862, "\u0120rotational": 23637, "\u0120symmetry": 25376, "mem": 6765, "swap": 9433, "\u0120swapping": 25340, "square": 9194, "\u0120linearized": 19564, "\u0120nv": 20973, "\u0120elementwise": 15995, "\u0120strided": 24989, "\u0120solvable": 24571, "\u0120workable": 27295, "passing": 7766, "equality": 4217, "\u0120chose": 13701, "\u0120roadmap": 23593, "\u0120refactored": 23017, "order": 7504, "\u0120scatter": 23863, "\u0120projectile": 22410, "fall": 4458, "\u0120gravity": 17591, "\u0120earth": 15905, "\u0120air": 11938, "\u0120resistance": 23383, "\u0120velocity": 26827, "\u0120baz": 12773, "\u0120serialized": 24109, "\u0120sizing": 24420, "\u0120prohibits": 22407, "\u0120\"+": 10940, "\u0120\"+\"": 10941, "\u0120misunderstand": 20277, "\u0120substrings": 25148, "\u0120resp": 23401, "\u0120\"\",": 10921, "\u0120subdivide": 25080, "\u0120incremented": 18411, "\u0120decrement": 15012, "\u0120jsonrpc": 19105, "callback": 2796, "\u0120responses": 23416, "question": 8236, "\u0120appstate": 12283, "\u0120`[": 11574, "@": 1543, "cmkclientserverconfig": 3103, "\u0120\"#[": 10925, "derive": 3683, ")]\"": 209, "\u0120cmkclientserverconfig": 13872, "\u0120clojure": 13825, "\u0120mutated": 20541, "\u0120downv": 15752, "otes": 7595, "\u0120occupies": 21048, "\u0120transmute": 26018, "ibly": 5304, "386": 904, "70": 1180, "\u0120forces": 17034, "\u0120benchmark": 12867, "!).": 16, "\u0120unsoundness": 26579, "\u0120fra": 17118, "\u0120vulkan": 26972, "\u0120bulky": 13289, "\u0120gitlab": 17426, "\u0120transition": 25996, "\u0120layouts": 19354, "created": 3409, "\u0120strictly": 24985, "\u0120prevented": 22272, "rel": 8427, "viewport": 10300, "\u0120ndc": 20663, "normalized": 7201, "\u0120[-": 11532, "\u0120pipeline": 21868, "\u0120hoogle": 17997, "\u0120relatedly": 23138, "turbofish": 9834, "\u0120spelled": 24695, "\u0120visibly": 26912, "functor": 4771, "\u0120nsight": 20926, "nsight": 7236, "\u0120menu": 20091, "...\"": 314, "experi": 4393, "ments": 6786, "\u0120listbox": 19595, "capture": 2826, "\u0120highlighted": 17911, "ilt": 5503, "\u0120''": 10993, "sending": 8886, "573": 1085, "\u0120meeting": 20052, "explanations": 4399, "\u0120nickel": 20777, "\u0120mongo": 20372, "\u0120multithread": 20511, "mongodb": 6909, "\u0120december": 14952, "\u01202019": 11263, "\u0120phone": 21812, "132": 579, "\u0120literature": 19613, "\u0120recommends": 22915, "dc": 3578, "recursion": 8366, "\u0120fuse": 17259, "\u0120cxf": 14815, "issuedtoken": 5894, "\u0120soapui": 24545, "standalone": 9242, "\u0120pom": 22018, "084": 501, "\u0120lts": 19767, "\u0120coll": 13938, "wsdl": 10563, "\u0120blueprint": 13037, "\u0120greet": 17603, "erimpl": 4244, "addressing": 1770, "header": 5109, "required": 8493, "\u0120addressing": 11788, "\u0120kar": 19156, "\u0120issuing": 18976, "soap": 9100, "\u0120unprotected": 26536, "commonly": 3177, "\u0120getters": 17396, "\u0120ml": 20303, "\u0120family": 16686, "\u0120sml": 24508, "\u0120science": 23886, "\u0120ma": 19791, "\u0120intro": 18842, "constraint": 3282, "\u0120elimination": 16013, "\u0120variance": 26779, "\u0120blob": 13012, "\u0120knowledgeable": 19253, "\u0120generators": 17360, "\u0120externally": 16600, "pretty": 8049, "constructors": 3289, "whereas": 10450, "\u0120sizedness": 24417, "\u0120satisfies": 23818, "\u0120immovable": 18256, "\u0120amazingly": 12055, "solved": 9121, "\u0120parsers": 21573, "azz": 2411, "\u0120abbreviated": 11594, "\u0120lhs": 19455, "\u0120business": 13313, "\u0120unauthorized": 26323, "business": 2755, "units": 10013, "find": 4575, "\u0120minesweeper": 20206, "\u0120strike": 24992, "\u0120reproduced": 23314, "\u0120()?": 11036, "ray": 8300, "\u0120placeholder": 21899, "reproducible": 8485, "digit": 3768, "\u0120recoverable": 22939, "\u0120translating": 26007, "\u0120till": 25781, "\u0120crossterm": 14668, "\u0120discovery": 15528, "ailed": 1844, "\u0120didnt": 15393, "\u0120shouldnt": 24258, "\u0120debuggers": 14946, "\u0120steals": 24906, "\u0120imposes": 18316, "\u0120flushing": 16968, "\u0120cdylib": 13529, "\u0120mini": 20209, "\u0120behaviors": 12841, "\u0120tough": 25921, "bucket": 2720, "\u0120wired": 27241, "\u0120wire": 27240, "\u0120conout": 14280, "$": 77, "\u0120wh": 27138, "\u0120hoo": 17995, "dos": 3871, "\u0120subsystem": 25150, "\u0120emulating": 16084, "ascii": 2214, "refcell": 8388, "\u0120textual": 25626, "\u0120preprocessor": 22224, "parsed": 7746, "\u0120diverge": 15619, "\u0120bought": 13127, "mark": 6685, "gracefully": 4975, "\u0120invariant": 18868, "\u0120disregarded": 15579, "spawn": 9150, "\u0120tcpstream": 25514, "\u0120reallocate": 22825, "\u0120grown": 17638, "\u0120ped": 21681, "\u0120corrupt": 14529, "\u0120reallocates": 22827, "\u0120relax": 23148, "\u0120nan": 20617, "!=": 23, "nan": 7053, "\u0120inherits": 18550, "\u0120sole": 24563, "\u0120marker": 19917, "\u0120equivalence": 16255, "activex": 1739, "rx": 8738, "\u0120friends": 17179, "\u0120geared": 17332, "\u0120observable": 21016, "observer": 7285, "\u0120spirit": 24714, "pseudocode": 8165, "\u0120unrolled": 26557, "wards": 10381, "top": 9713, "down": 3878, "forks": 4678, "\u0120recomputing": 22921, "subscri": 9377, "bers": 2534, "\u0120frameworks": 17138, "\u0120considerable": 14299, "nice": 7145, "\u0120observer": 21021, "fork": 4677, "obser": 7284, "\u0120subscribe": 25114, "known": 6209, "\u0120markers": 19918, "\u0120att": 12515, "\u0120complaint": 14076, "limit": 6442, "color": 3147, "\u0120mandelbrot": 19866, "planes": 7914, "\u0120grey": 17612, "\u0120velocities": 26826, "style": 9370, "mapped": 6677, "\u0120vectorize": 26817, "\u0120gigantic": 17417, "\u0120bitmap": 12959, "\u0120sliced": 24462, "\u0120handed": 17730, "\u0120encapsulation": 16098, "\u0120slots": 24479, "\u0120specifiers": 24677, "\u0120wherever": 27154, "itution": 5971, "solution": 9118, "bind": 2568, "\u0120niko": 20791, "\u0120matsakis": 19976, "\u0120polyline": 22013, "\u0120ss": 24772, "\u0120*_": 11091, "shapes": 8963, "records": 8361, "\u0120predates": 22161, "updated": 10069, "\u0120templating": 25555, "\u0120founded": 17106, "\u0120musl": 20530, "\u0120interactively": 18741, "\u0120strace": 24954, "\u0120investigations": 18888, "\u0120entrypoint": 16208, "\u0120installs": 18664, "var": 10212, "[..]": 1552, "\u0120usize": 26717, "\u0120rethink": 23459, "\u0120await": 12640, "\u0120awaiting": 12642, "\u0120sit": 24403, "\u0120lacking": 19282, "fant": 4467, "asy": 2274, "orts": 7561, "156": 612, "159": 618, "fb": 4478, "dde": 3587, "previously": 8056, "\u0120fruit": 17194, "\u0120recourse": 22937, "\u0120summarize": 25232, "suff": 9391, "\u0120accident": 11662, "\u0120messing": 20122, "\u0120pod": 21969, "\u0120dave": 14895, "\u0120deprecation": 15188, "\u0120permalink": 21737, "\u0120objective": 21002, "\u0120vouch": 26954, "\u0120beauty": 12805, "\u0120beholder": 12846, "carbon": 2829, "five": 4600, "formatting": 4684, "xcode": 10595, "\u0120obj": 20998, "\u0120constantly": 14322, "\u0120closely": 13834, "\u0120apple": 12243, "ww": 10576, "\u0120presentations": 22236, "\u0120tweak": 26221, "\u0120cairo": 13356, "area": 2147, "\u0120circle": 13726, "\u0120attaches": 12518, "\u0120dis": 15465, "nect": 7088, "gtk": 5021, "glib": 4922, "signal": 9009, "arger": 2157, "\u0120convinced": 14465, "mutability": 7000, "\u0120throughout": 25729, "\u0120cycle": 14819, "\u0120prime": 22288, "\u0120parallelism": 21521, "\u0120unfortunatly": 26420, "\u0120flawlessly": 16931, "\u0120crashing": 14612, "\u0120540": 11380, "\u0120primary": 22287, "\u0120altering": 12038, "\u0120137": 11204, "\u0120162": 11226, "\u0120publicly": 22540, "\u0120[(": 11530, ")].": 211, "\u0120tl": 25827, "dr": 3889, "highest": 5163, "lowest": 6579, "\u0120funciton": 17235, "\u0120retrive": 23471, "\u0120cacert": 13345, "springframework": 9184, "ioexception": 5799, "\u0120com": 13971, "jsse": 6106, "util": 10168, "certpathbuilderexception": 2919, "\u0120pkixcertpathbuilderimpl": 21893, "\u0120certpath": 13581, ".;": 335, "tjava": 9676, "certpathvalidatorexception": 2920, "\u0120cn": 13877, "odc": 7312,
[...]
