{"\u0120recently": 35828, ",": 255, "\u0120when": 40089, "\u0120i": 31074, "\u0120try": 39109, "\u0120to": 38783, "\u0120use": 39633, "\u0120cuda": 27677, "\u0120programming": 35341, "\u0120want": 39955, "\u0120send": 36998, "\u0120a": 24521, "\u0120vector": 39756, "\u0120gpu": 30483, "\u0120memory": 33022, ".": 293, "\u0120someone": 37525, "\u0120tells": 38490, "\u0120me": 32960, "\u0120that": 38583, "\u0120can": 26338, "\u0120thrust": 38682, "::": 3583, "device": 8319, "_": 3774, "vector": 22499, "\u0120and": 25065, "host": 11704, "\u0120also": 24975, "\u0120read": 35741, "\u0120the": 38587, "\u0120help": 30803, "\u0120document": 28617, "\u0120but": 26261, "\u0120still": 37869, "\u0120don": 28648, "'t": 125, "\u0120know": 32193, "\u0120how": 30992, "\u0120such": 38135, "\u0120into": 31773, "\u0120kernel": 32126, "\u0120function": 30180, "\u0120": 23853, "\u0120my": 33505, "\u0120codes": 26852, "\u0120are": 25258, "\u0120as": 25326, "\u0120following": 29946, ":": 3567, "\u0120in": 31280, "\u0120fact": 29578, "\u0120if": 31129, "\u0120you": 40410, "\u0120please": 34882, "\u0120tell": 38488, "\u0120something": 37529, "\u0120about": 24554, "\u0120this": 38635, "\u0120question": 35613, "\u0120there": 38606, "\u0120any": 25130, "\u0120better": 25836, "\u0120way": 39998, "\u0120complete": 27025, "\u0120same": 36724, "?": 3676, "\u0120thanks": 38582, "\u0120very": 39806, "\u0120much": 33421, "!": 0, "thrust": 21144, "&": 92, "lt": 14334, "int": 12565, "gt": 11268, "dev": 8305, "fi": 10223, "ret": 18539, "ime": 12196, "[": 3709, "1000": 1117, "]": 3733, "global": 11069, "void": 22686, "compute": 7174, "current": 7701, "d": 7768, "ftime": 10692, "idx": 12002, "=": 3623, "block": 5832, "dim": 8421, "x": 23188, "*": 217, "+": 231, "thread": 21122, "printf": 17478, "\"": 29, "%": 82, "\\": 3721, "n": 15386, "\u0120device": 28283, "\u0120vectors": 39762, "\u0120cannot": 26349, "\u0120be": 25730, "\u0120passed": 34552, "\u0120directly": 28400, "\u0120kernels": 32127, "\u0120need": 33630, "\u0120pass": 34550, "\u0120pointer": 34918, "\u0120underlying": 39322, "\u0120done": 28649, "\u0120like": 32485, "\u0120have": 30750, "\u0120an": 25030, "\u0120array": 25298, "\u0120of": 34026, "\u0120do": 28603, "\u0120what": 40082, "\u0120is": 31889, "\u0120described": 28170, "\u0120here": 30815, "raw": 18032, "pointer": 17199, "cast": 6418, "data": 7887, "\u0120hierarchy": 30849, "\u0120src": 37711, "/": 343, "main": 14459, "rs": 18836, "animal": 4627, "s": 19016, "race": 17951, "\u0120ar": 25236, "ror": 18770, "\u0120add": 24714, "\u0120modules": 33303, "\u0120properly": 35392, "\u0120so": 37485, "\u0120no": 33754, "\u0120errors": 29235, "mod": 14976, "animals": 4628, "fn": 10453, "let": 13776, "12": 1259, "0": 377, "1": 1114, "8": 3184, "24": 1781, "white": 22928, "println": 17480, "hello": 11536, "world": 23079, "pub": 17687, "struct": 20437, "height": 11527, "f64": 9949, "weight": 22874, "age": 4289, "u32": 21738, "t": 20766, "enum": 9475, "r": 17911, "ace": 4049, "wh": 22904, "it": 12898, "black": 5800, "yellow": 23418, "-": 273, "src": 20097, "5": 2554, "|": 23682, "^": 3769, "help": 11543, "name": 15417, "the": 21049, "file": 10255, "either": 9217, "or": 16321, "inside": 12525, "directory": 8445, "error": 9591, "aborting": 3970, "due": 8759, "to": 21285, "previous": 17450, "\u0120rename": 36164, "\u0120.": 24055, "\u0120find": 29787, "\u0120more": 33349, "\u0120information": 31470, "\u0120on": 34080, "\u0120splitting": 37668, "\u0120across": 24664, "\u0120files": 29764, "\u0120am": 24995, "\u0120trying": 39112, "\u0120connect": 27213, "\u0120messaging": 33062, "\u0120provider": 35438, "\u0120over": 34303, "\u0120secure": 36926, "\u0120connection": 27216, "\u0120using": 39659, "\u0120trust": 39074, "\u0120store": 37890, "\u0120unable": 39252, "\u0120unsecure": 39514, "ly": 14400, "\u0120post": 35021, "\u0120messages": 33061, "\u0120without": 40203, "\u0120issue": 31912, "\u0120moment": 33309, "\u0120connecting": 27215, "\u0120protocol": 35422, "\u0120it": 31921, "\u0120not": 33815, "\u0120working": 40249, "\u0120received": 35822, "\u0120error": 29231, "\u0120retrieving": 36413, "\u0120jndi": 32017, "\u0120\u0120": 40554, "\u0120works": 40253, "\u0120via": 39815, "\u0120jmeter": 32011, "\u0120password": 34558, "\u0120all": 24928, "\u0120valid": 39694, "\u0120correct": 27454, "\u0120seems": 36956, "\u0120initiating": 31520, "\u0120hermes": 30818, "\u0120through": 38671, "bat": 5510, "\u0120detecting": 28254, "\u0120parameters": 34482, "\u0120added": 24716, "\u0120start": 37796, "\u0120up": 39576, "\u0120therefore": 38610, "\u0120isn": 31898, "\u0120truststore": 39099, "\u0120updated": 39583, "\u0120script": 36870, "\u0120line": 32505, "\u0120starts": 37802, "\u0120program": 35329, "\u0120tried": 39029, "\u0120sorts": 37554, "\u0120combinations": 26917, "\u0120with": 40197, "\u0120javax": 31981, "net": 15559, "ssl": 20125, "truststore": 21574, "(": 127, "password": 16788, ")": 173, "\u0120none": 33779, "\u0120them": 38593, "\u0120worked": 40241, "javax": 13095, "jms": 13172, "j": 13052, "ms": 15143, "exception": 9754, "could": 7438, "not": 15778, "create": 7523, "initial": 12450, "context": 7325, "jn": 13174, "di": 8362, "setup": 19455, "failed": 10010, "on": 16167, "sp": 19947, "server": 19403, "domain": 8611, "internal": 12627, "9001": 3383, "at": 5063, "hermes": 11561, "factory": 10000, "java": 13086, "282": 1897, "ext": 9874, "admin": 4212, "support": 20624, "discover": 8471, "destination": 8274, "configs": 7221, "441": 2391, "impl": 12230, "adapter": 4135, "82": 3235, "default": 8097, "112": 1231, "6": 2799, "browser": 6023, "tasks": 20861, "dis": 8453, "cover": 7463, "dest": 8272, "in": 12274, "ations": 5109, "task": 20859, "invoke": 12713, "77": 3098, "run": 18900, "175": 1480, "pool": 17245, "170": 1471, "lang": 13549, "745": 3062, "c": 6169, "program": 17560, "files": 10275, "x86": 23231, "jdk1": 13116, "7": 3005, "75": 3071, "bin": 5737, "w": 22748, "xx": 23372, "new": 15574, "size": 19718, "256": 1827, "m": 14405, "mx": 15279, "1024": 1157, "dhermes": 8359, "home": 11679, "opts": 16317, "log4j": 14215, "configuration": 7223, "props": 17608, "sun": 20604, "2d": 1949, "no": 15696, "dd": 7983, "true": 21544, "config": 7220, "xml": 23297, "libs": 13931, "djavax": 8531, "trust": 21555, "store": 20346, "alex": 4378, "jks": 13163, "manage": 14489, "'s": 124, "\u0120kind": 32167, "\u0120easy": 28854, "\u0120miss": 33206, ";": 3595, "\u0120before": 25762, "\u0120main": 32762, "\u0120class": 26712, "\u0120declaration": 27915, "\u0120essential": 29256, "y": 23386, "\u0120invoked": 31843, "\u0120two": 39178, "\u0120arguments": 25274, "\u0120its": 31944, "\u0120method": 33077, "\u0120wanted": 39956, "\u0120invoke": 31842, "\u0120java": 31974, "exe": 9769, "\u0120proper": 35391, "\u0120jks": 32007, "\u0120for": 29968, "\u0120example": 29341, "\u0120should": 37199, "\u0120work": 40237, "\u0120floats": 29895, "\u0120however": 30993, "\u0120filled": 29770, "\u0120zeros": 40429, "\u0120idea": 31089, "\u0120why": 40125, "\u0120required": 36281, "\u0120specifically": 37614, "\u0120allocate": 24936, "\u0120host": 30969, "\u0120?": 24458, "h": 11324, "vec": 22480, "float": 10404, "pd": 16850, "kernel": 13342, "grid": 11230, "cuda": 7668, "malloc": 14485, "memcpy": 14736, "\u0120cudamalloc": 27683, "\u0120cudamemcpy": 27686, "\u0120copy": 27435, "\u0120assignment": 25384, "\u0120just": 32083, "\u0120fine": 29792, "\u0120between": 25838, "\u0120containers": 27308, "\u0120(": 23959, "\u0120or": 34193, "std": 20252, "$": 77, "module": 15007, "load": 14174, "10": 1115, "cat": 6423, "really": 18129, "cu": 7658, "#": 61, "include": 12308, "cstdio": 7617, "if": 12028, "f": 9909, "1f": 1589, "2": 1622, "2f": 1958, "3": 1989, "3f": 2265, "4": 2285, "4f": 2528, "5f": 2769, "6f": 2990, "7f": 3160, "8f": 3368, "9": 3379, "9f": 3550, "01f": 568, "32": 2042, "synchronize": 20724, "reset": 18476, "return": 18564, "nvcc": 15912, "11": 1212, "arch": 4814, "sm": 19788, "52": 2602, "o": 15931, "100000": 1119, "200000": 1627, "300000": 1994, "400000": 2290, "500000": 2559, "00000": 381, "01": 531, "0000": 380, "\u0120simple": 37304, "\u0120code": 26835, "\u0120imports": 31256, "\u01202": 24187, "\u0120uses": 39658, "\u0120struct": 37958, "\u0120from": 30125, "\u0120at": 25439, "'m": 122, "\u0120functions": 30186, "\u0120bots": 26065, "trait": 21418, "\u0120gamecore": 30231, "board": 5866, "\u0120they": 38619, "\u0120both": 26060, "\u0120imported": 31253, "\u0120func": 30175, "\u0120maint": 32767, "rait": 17975, "\u0120resolved": 36335, "\u0120structure": 37963, "\u0120directory": 28402, "\u0120message": 33056, "\u0120where": 40091, "\u0120wrong": 40306, "\u0120diffirent": 28362, "\u251c\u2500\u2500": 40951, "bots": 5936, "\u2502": 40938, "\u2514\u2500\u2500": 40946, "game": 10805, "core": 7404, "use": 22251, "state": 20225, "bot": 5933, "dummy": 8765, "make": 14472, "turn": 21643, "get": 10934, "move": 15082, "amp": 4535, "self": 19313, "field": 10237, "empty": 9316, "rand": 17984, "'": 94, "a": 3796, "box": 5951, "mut": 15247, "uint": 21849, "side": 19609, "for": 10514, "random": 17988, "28": 1892, "resolve": 18489, "of": 16045, "undeclared": 21972, "`": 3789, "~": 23704, "unresolved": 22085, "\u0120rust": 36661, "\u0120by": 26270, "\u0120has": 30724, "\u0120good": 30450, "\u0120similar": 37295, "\u0120appropriate": 25214, "\u0120bits": 25908, "\u0120change": 26561, "\u0120guessing": 30611, "\u0120bit": 25890, "\u0120think": 38626, "\u0120reason": 35787, "\u0120haven": 30751, "\u0120really": 35774, "\u0120defined": 28006, "\u0120,": 24041, "\u0120instead": 31625, "\u0120generic": 30304, "\u0120happens": 30699, "\u0120implement": 31224, "\u0120call": 26317, "\u0120()": 23972, "\u0120provide": 35436, "\u0120enough": 29119, "\u0120disambiguate": 28426, "\u0120type": 39187, "\u0120let": 32372, ").": 193, "your": 23466, "and": 4580, "implementation": 12236, "signatures": 19635, "differ": 8399, "so": 19848, "i": 11827, "picked": 17036, "this": 21101, "one": 16183, "\u0120invitation": 31834, "\u0120link": 32516, "\u0120our": 34261, "\u0120own": 34363, "\u0120system": 38362, "\u0120api": 25150, "\u0120get": 30328, "\u0120token": 38803, "\u0120now": 33855, "\u0120problems": 35284, "\u0120\"": 23861, "403": 2298, "\u0120passing": 34554, "\u0120key": 32129, "\u0120well": 40070, "\u0120header": 30769, "\u0120request": 36270, "\u0120context": 27320, "\u0120documentation": 28618, "\u0120https": 31020, "://": 3575, "developers": 8315, "trustpilot": 21572, "com": 7054, "invitation": 12706, "api": 4718, "generate": 10888, "service": 19412, "review": 18583, "link": 14048, "apikey": 4722, "key": 13354, "\u0120map": 32841, "\u0120str": 37895, "\u0120reproduces": 36259, "\u0120other": 34254, "\u0120values": 39710, "\u0120note": 33823, "\u0120create": 27566, "\u0120new": 33687, "\u0120adding": 24719, "\u0120string": 37937, "\u0120literal": 32553, "v": 22348, "str1": 20357, "str2": 20358, "str3": 20359, "str": 20356, "res": 18465, "map": 14520, "place": 17110, "binary": 5739, "operation": 16277, "cannot": 6355, "be": 5589, "applied": 4769, "type": 21690, "\u0120owned": 34364, "\u0120case": 26409, "\u0120your": 40412, "\u0120literals": 32555, "'re": 123, "\u0120written": 40303, "\u0120binary": 25870, "\u0120together": 38795, "\u0120going": 30442, "\u0120make": 32779, "\u0120some": 37521, "\u0120s": 36697, "\u0120represent": 36244, "\u0120actual": 24693, "\u0120owning": 34370, "\u0120then": 38598, "\u0120slices": 37406, "\u0120one": 34084, "\u0120does": 28628, "\u0120sense": 37005, "string": 20403, "\u0120convert": 27395, "\u0120another": 25108, "\u0120problem": 35282, "\u0120expects": 29444, "\u0120resulting": 36391, "\u0120size": 37358, "\u0120alignment": 24921, "\u0120original": 34223, "\u0120fails": 29596, "\u0120runtime": 36653, "\u0120-": 24044, "\u0120demo": 28070, "\u0120several": 37101, "\u0120possible": 35018, "\u0120changes": 26566, "\u0120could": 27485, "\u0120declare": 27918, "\u0120would": 40270, "\u0120which": 40100, "\u0120will": 40153, "\u0120immediately": 31195, "\u0120free": 30093, "\u0120after": 24834, "\u0120creating": 27569, "\u0120output": 34286, "into": 12667, "iter": 12925, "collect": 7022, "\u0120package": 34383, "\u0120project": 35351, "\u0120folder": 29935, "\u0120far": 29638, "\u0120did": 28333, "\u0120cargo": 26389, "\u0120extern": 29540, "\u0120dependencies": 28116, "\u0120h": 30638, "ande": 4584, "led": 13710, "\u0120:": 24411, "\u0120lines": 32511, "\u0120compile": 27007, "\u0120(),": 23974, "\u0120doing": 28634, "\u0120even": 29295, "\u0120load": 32581, "\u0120crates": 27559, "\u0120than": 38578, "\u0120file": 29753, "\u0120edit": 28880, "\u01201": 24097, "\u0120solve": 37515, "sdl2": 19207, "cargo": 6396, "toml": 21317, "keyboard": 13361, "dependencies": 8194, "31": 2021, "extern": 9886, "crate": 7504, "keycode": 13363, "build": 6091, "e0433": 8897, "did": 8383, "you": 23463, "mean": 14689, "\u0120stated": 37810, "\u0120above": 24556, "\u0120root": 36564, "\u0120order": 34199, "lib": 13824, "scan": 19123, "code": 6977, "example": 9742, "below": 5651, "is": 12817, "pressed": 17437, "e": 8829, "event": 9712, "pump": 17704, "bool": 5901, "scancode": 19124, "\u0120been": 25759, "\u0120install": 31599, "\u0120windows": 40165, "\u0120sub": 38010, "sy": 20704, "tem": 20929, "\u0120linux": 32532, "wsl": 23143, "\u0120mentioned": 33031, "\u0120keeps": 32117, "\u0120erring": 29226, "\u0120answers": 25117, "\u0120mention": 33030, "\u0120around": 25292, "\u0120executed": 29383, "\u0120avail": 25560, "\u0120issues": 31918, "\u0120github": 30368, "\u0120pre": 35071, "\u0120ing": 31482, "\u0120didn": 28335, "\u0120means": 32967, "\u0120downloading": 28689, "from": 10663, "\u0120)": 24017, "\u0120running": 36651, "\u0120gives": 30374, "\u0120yet": 40400, "\u0120found": 30047, "\u0120lead": 32311, "\u0120being": 25790, "\u0120able": 24548, "\u0120wsl": 40318, "\u0120env": 29162, "\u012010": 24098, "\u0120ver": 39775, "\u012020": 24188, "rustup": 18986, "curl": 7695, "proto": 17620, "https": 11783, "tlsv1": 21258, "sf": 19469, "sh": 19484, "60": 2800, "certificate": 6570, "problem": 17510, "signed": 19637, "chain": 6630, "more": 15050, "details": 8293, "here": 11555, "ha": 11355, "se": 19212, "docs": 8587, "certs": 6581, "html": 11752, "verify": 22552, "le": 13676, "git": 11032, "ima": 12174, "cy": 7751, "therefore": 21072, "establish": 9648, "secure": 19255, "connection": 7249, "learn": 13695, "about": 3971, "situation": 19709, "how": 11725, "fix": 10349, "please": 17150, "visit": 22647, "web": 22846, "page": 16662, "mentioned": 14760, "above": 3972, "k": 13273, "insecure": 12513, "export": 9854, "rust": 18933, "hyper": 11820, "init": 12446, "\u0120certificate": 26515, "\u0120getting": 30340, "\u0120sh": 37113, "\u0120self": 36982, "\u0120since": 37330, "\u0120advent": 24784, "\u0120authorities": 25525, "\u0120almost": 24955, "\u0120nobody": 33756, "\u0120operates": 34142, "\u0120website": 40041, "\u0120because": 25750, "\u0120vulnerable": 39919, "\u0120man": 32794, "middle": 14846, "\u0120attacks": 25469, "\u0120exception": 29352, "\u0120seeing": 36948, "\u0120tampering": 38405, "\u0120non": 33774, "\u0120antivirus": 25127, "\u0120programs": 35342, "\u0120scan": 36797, "\u0120traffic": 38901, "\u0120out": 34266, "\u0120machine": 32738, "\u0120viruses": 39850, "\u0120intercept": 31687, "\u0120those": 38642, "\u0120connections": 27218, "\u0120insert": 31566, "\u0120authority": 25526, "\u0120impersonate": 31216, "\u0120doesn": 28629, "\u0120sees": 36958, "\u0120attack": 25465, "\u0120data": 27806, "\u0120most": 33356, "\u0120actually": 24695, "\u0120substantially": 38078, "\u0120weaken": 40008, "\u0120security": 36932, "\u0120choosing": 26640, "\u0120worse": 40265, "\u0120versions": 39798, "\u0120tls": 38775, "\u0120ciphers": 26665, "\u0120cases": 26412, "\u0120entirely": 29138, "\u0120neglecting": 33650, "\u0120verification": 39783, "\u0120leaving": 32333, "\u0120exposed": 29507, "\u0120mitm": 33233, "\u0120anyone": 25134, "\u0120internet": 31729, "\u0120event": 29298, "\u0120soon": 37540, "\u0120fail": 29591, "\u0120encrypted": 29069, "\u0120sni": 37474, "\u0120thing": 38622, "\u0120fix": 29836, "\u0120computer": 27095, "\u0120either": 28916, "\u0120disable": 28409, "\u0120feature": 29682, "\u0120remove": 36159, "\u0120rogue": 36547, "\u0120ca": 26287, "\u0120completely": 27028, "\u0120uninstall": 39393, "\u0120def": 27982, "ender": 9370, "\u0120prevent": 35214, "\u0120intercepting": 31688, "\u0120allow": 24944, "\u0120currently": 27723, "\u0120diving": 28574, "\u0120writing": 40302, "\u0120little": 32560, "\u0120math": 32908, "\u0120library": 32430, "\u0120quite": 35637, "\u0120model": 33271, "\u0120fields": 29739, "\u0120rings": 36507, "\u0120lifetimes": 32466, "\u0120right": 36497, "\u0120ring": 36505, "\u0120field": 29737, "\u0120compiling": 27014, "\u0120lifetime": 32464, "\u0120section": 36919, "by": 6149, "\u0120motivation": 33364, "\u0120behind": 25787, "\u0120obvious": 33977, "\u0120understand": 39329, "\u0120given": 30373, "\u0120examples": 29342, "\u0120totally": 38857, "\u0120lost": 32680, "\u0120btw": 26185, "\u0120minified": 33153, "\u0120version": 39795, "\u0120giving": 30375, "\u0120named": 33552, "\u0120impl": 31221, "\u0120various": 39732, "\u0120said": 36716, "\u0120may": 32936, "\u0120explain": 29469, "\u0120happening": 30698, "\u0120too": 38826, "\u0120specific": 37613, "\u0120traits": 38908, "ring": 18656, "characteristic": 6659, "unit": 22029, "some": 19895, "method": 14805, "15": 1400, "20": 1623, "explicit": 9843, "lifetime": 13996, "bound": 5943, "required": 18455, "\u0120king": 32173, "\u0120inheritance": 31490, "like": 14010, "\u0120pattern": 34579, "\u0120trait": 38906, "\u0120somehow": 37524, "\u0120interfaces": 31706, "\u0120provided": 35437, "\u0120languages": 32248, "\u0120only": 34092, "\u0120guaranty": 30601, "\u0120methods": 33083, "\u0120syntax": 38347, "\u0120mean": 32961, "\u0120superset": 38197, "\u0120implementing": 31231, "\u0120states": 37815, "\u0120implemented": 31228, "\u0120structs": 37960, "\u0120already": 24972, "\u0120yourself": 40414, "\u0120approach": 25208, "\u0120first": 29822, "\u0120define": 28005, "\u0120requires": 36285, "\u0120explanations": 29476, "\u0120strange": 37902, "\u0120wrote": 40308, "\u0120object": 33943, "\u0120reference": 35972, "\u0120peculiar": 34622, "\u0120require": 36280, "\u0120playing": 34875, "\u0120situation": 37354, "\u0120won": 40221, "\u0120play": 34865, "\u0120classic": 26714, "\u0120generics": 30308, "\u0120suffice": 38146, "\u0120look": 32648, "\u0120answer": 25113, "\u0120details": 28250, "foo": 10492, "bar": 5465, "value": 22412, "every": 9720, "false": 10029, "as": 4948, "well": 22883, "my": 15281, "first": 10331, "implement": 12235, "2i": 1966, "we": 22842, "override": 16583, "then": 21062, "can": 6338, "nothing": 15788, "keep": 13326, "\u0120learn": 32324, "\u0120wasm": 39973, "\u0120page": 34404, "\u0120input": 31552, "\u0120button": 26265, "\u0120player": 34869, "button": 6135, "\u0120tutorial": 39153, "\u0120closures": 26785, "\u0120put": 35528, "\u0120behavior": 25783, "\u0120click": 26744, "\u0120got": 30463, "\u0120compiler": 27009, "\u0120follows": 29948, "sys": 20742, "id": 11944, "player": 17140, "84": 3265, "closure": 6902, "wrap": 23103, "85": 3278, "input": 12498, "86": 3291, "87": 3311, "alert": 4375, "p": 16613, "favor": 10056, "infor": 12413, "me": 14687, "ome": 16148, "93": 3430, "94": 3440, "dyn": 8817, "expected": 9821, "an": 4546, "found": 10576, "@": 3705, "44": 2388, "14": 1359, "features": 10128, "gen": 10871, "element": 9247, "storage": 20344, "ot": 16458, "orage": 16325, "document": 8591, "expect": 9819, "should": 19577, "have": 11461, "num": 15879, "clicks": 6858, "else": 9274, "insert": 12517, "ref": 18242, "set": 19427, "onclick": 16179, "unchecked": 21955, "see": 19274, "comments": 7083, "clock": 6882, "why": 22940, "forget": 10535, "cdylib": 6506, "rlib": 18685, "ask": 4982, "ama": 4497, "wasm": 22804, "bindgen": 5747, "js": 13219, "37": 2169, "console": 7271, "panic": 16695, "hook": 11690, "version": 22566, "css": 7614, "style": 20476, "declaration": 8051, "dom": 8610, "token": 21302, "list": 14080, "target": 20854, "body": 5875, "location": 14194, "node": 15704, "window": 22979, "provides": 17635, "better": 5684, "debugging": 8030, "panics": 16698, "logging": 14222, "them": 21059, "with": 23015, "great": 11214, "development": 8316, "but": 6133, "requires": 18458, "all": 4412, "fmt": 10449, "panicking": 16697, "inf": 12390, "rastructure": 18018, "isn": 12854, "when": 22914, "deploy": 8201, "ing": 12421, "optional": 16311, "wee": 22869, "alloc": 4431, "tiny": 21228, "allocator": 4439, "that": 21047, "only": 16203, "compared": 7115, "slower": 19782, "than": 21042, "however": 11726, "unfortunately": 21996, "nightly": 15652, "now": 15806, "test": 20983, "profile": 17552, "release": 18340, "tell": 20926, "rustc": 18945, "optimize": 16301, "small": 19791, "opt": 16288, "level": 13795, "\u0120caused": 26449, "\u0120causes": 26450, "\u0120variable": 39718, "\u0120used": 39638, "\u0120closure": 26784, "\u0120contains": 27311, "\u0120cause": 26448, "\u0120contain": 27305, "\u0120references": 35974, "\u0120stored": 37891, "\u0120outside": 34294, "\u0120itself": 31945, "\u0120implicitly": 31241, "\u0120requirement": 36282, "\u0120variables": 39719, "\u0120second": 36910, "\u0120comparison": 26991, "\u0120replaced": 36215, "static": 20236, "once": 16174, "\u0120raw": 35713, "\u0120sockets": 37496, "\u0120c": 26286, "\u0120ending": 29081, "\u0120google": 30456, "\u0120available": 25562, "\u0120crate": 27556, "\u0120called": 26321, "\u0120pnet": 34907, "crates": 7508, "io": 12724, "pnet": 17176, "\u0120docs": 28611, "\u0120progress": 35343, "\u0120learning": 32328, "\u0120fun": 30174, "\u0120experience": 29449, "\u0120/": 24073, "++": 237, "\u0120complex": 27034, "\u0120paradigms": 34456, "\u0120background": 25623, "after": 4281, "),": 190, "\u0120n": 33538, "dimensional": 8425, "\u0120matrix": 32918, "\u0120practice": 35059, "\u0120development": 28277, "\u0120basic": 25698, "\u0120fill": 29769, "\u0120initializations": 31508, "\u0120forgive": 30000, "\u0120absent": 24562, "\u0120bound": 26074, "\u0120checking": 26607, "\u0120parameter": 34475, "\u0120testing": 38558, "\u0120ability": 24546, "\u0120fn": 29918, "\u0120thought": 38645, "\u0120option": 34186, "\u0120enum": 29152, "\u0120best": 25830, "\u0120accomplish": 24614, "\u0120space": 37573, "\u0120t": 38370, "\u0120automatically": 25549, "\u0120comes": 26928, "\u0120down": 28676, "\u0120set": 37084, "\u0120entries": 29146, "\u0120looked": 32651, "\u0120logic": 32626, "\u0120each": 28838, "\u0120ideally": 31091, "\u0120happen": 30695, "\u0120value": 39707, "\u0120changed": 26563, "\u01200": 24085, "\u012023": 24226, "which": 22921, "\u0120returning": 36426, "\u0120).": 24019, "\u0120finally": 29786, "\u0120vec": 39752, "\u0120spots": 37674, "\u0120open": 34109, "\u0120suggestions": 38161, "\u0120:)": 24413, "\u0120final": 29779, "\u0120thoughts": 38646, "\u0120research": 36301, "\u0120impls": 31246, "\u0120see": 36942, "\u0120typed": 39195, "\u0120sized": 37359, "\u0120useful": 39640, "\u0120unsure": 39539, "matrix": 14614, "option": 16307, "dimensions": 8426, "usize": 22281, "clone": 6889, "fill": 10282, "total": 21358, "len": 13746, "none": 15737, "index": 12345, "23": 1747, "ops": 16287, "indices": 12362, "output": 16554, "match": 14590, "su": 20480, "re": 18084, "what": 22906, "do": 8577, "mat": 14584, "null": 15874, "\u0120few": 29718, "\u0120ways": 40001, "\u0120idiomatic": 31112, "\u0120branch": 26100, "\u0120assume": 25405, "\u0120show": 37206, "\u0120index": 31379, "\u0120definition": 28011, "\u0120feel": 29697, "\u0120safe": 36708, "\u0120assumption": 25409, "\u0120mutable": 33479, "\u0120initialized": 31511, "\u0120unlike": 39423, "\u0120pointers": 34919, "\u0120point": 34915, "\u0120uninitialized": 39392, "\u0120return": 36424, "\u0120leads": 32313, "\u0120easiest": 28852, "\u0120user": 39647, "\u0120decide": 27901, "\u0120was": 39971, "\u0120close": 26775, "\u0120storing": 37893, "\u0120panic": 34443, "\u0120caller": 26323, "\u0120choose": 26638, "\u0120go": 30434, "\u0120further": 30199, "\u0120gent": 30315, "ifying": 12064, "\u0120next": 33700, "\u0120allows": 24952, "\u0120rather": 35705, "\u0120wrapping": 40286, "\u0120cleans": 26731, "\u0120nicely": 33713, "\u0120access": 24595, "\u0120initialization": 31507, "\u0120were": 40072, "\u0120optional": 34187, "\u0120capability": 26356, "\u0120themselves": 38597, "\u0120we": 40006, "\u0120always": 24994, "\u0120losing": 32674, "\u0120functionality": 30183, "\u0120suggestion": 38160, "\u0120common": 26953, "\u0120world": 40258, "\u0120whether": 40098, "\u0120implements": 31235, "\u0120default": 27983, "\u0120returns": 36427, "\u0120ad": 24699, "itional": 12965, "\u0120info": 31464, "\u0120comments": 26944, "\u0120traps": 38978, "'ve": 126, "\u0120fallen": 29615, "\u0120dimensions": 28385, "\u0120exist": 29415, "\u0120longer": 32642, "\u0120dimension": 28382, "\u0120created": 27567, "\u0120hasn": 30740, "\u0120statically": 37817, "\u0120static": 37816, "\u0120occur": 33993, "\u0120dynamic": 28831, "\u0120else": 28967, "\u0120these": 38614, "same": 19057, ")?": 204, "\u0120stack": 37754, "\u0120allocation": 24940, "\u0120arrays": 25303, "\u0120must": 33474, "\u0120deterministic": 28264, "\u0120time": 38727, "otherwise": 16474, "\u0120known": 32197, "\u0120heap": 30776, "\u0120leaves": 32332, "\u0120real": 35756, "\u0120options": 34190, "\u0120saying": 36779, "\u0120adds": 24733, "explanatory": 9842, "\u0120resized": 36329, "\u0120cost": 27481, "\u0120overhead": 34318, "\u0120'": 23930, "\u0120discriminate": 28480, "\u0120unsafe": 39503, "\u0120territory": 38543, "\u0120chunk": 26655, "\u0120big": 25854, "\u0120hold": 30910, "\u0120unsafely": 39505, "\u0120lot": 32681, "\u0120usually": 39663, "\u0120worth": 40267, "\u0120heavily": 30786, "\u0120optimized": 34180, "\u0120stores": 37892, "\u0120magic": 32752, "\u0120null": 33889, "\u0120macro": 32744, "\u0120part": 34520, "\u0120once": 34082, "\u0120cloned": 26772, "\u0120until": 39547, "\u0120extra": 29545, "\u0120interface": 31705, "\u0120smoother": 37455, "const": 7274, "sized": 19722, "maybe": 14651, "uninit": 22015, "\u0120having": 30753, "\u0120trouble": 39054, "\u0120uncrustify": 39305, "\u0120format": 30012, "\u0120lambdas": 32236, "\u0120turns": 39148, "\u0120lambda": 32235, "\u0120doe": 28627, "\u0120setting": 37091, "\u0120responsible": 36361, "\u0120positioning": 35006, "\u0120braces": 26093, "auto": 5217, "print": 17468, "qi": 17802, "unused": 22120, "q": 17781, "debug": 8027, "\u0120looking": 32652, "\u0120config": 27161, "\u0120settings": 37092, "\u0120assigning": 25383, "\u0120symbol": 38311, "\u0120additional": 24721, "\u0120newlines": 33695, "\u0120configured": 27170, "\u0120align": 24918, "\u0120sign": 37254, "\u01208": 24374, "30": 1990, "33": 2073, "\u0120changing": 26567, "\u0120maybe": 32937, "\u0120pair": 34419, "\u0120plausible": 34864, "\u0120might": 33117, "\u0120serious": 37060, "\u0120style": 38004, "\u0120re": 35730, "forms": 10553, "\u0120suitable": 38164, "\u0120statement": 37813, "\u0120keep": 32113, "\u0120single": 37334, "they": 21082, "\u0120stay": 37831, "\u01209": 24392, "64": 2875, "\u0120ensures": 29125, "align": 4397, "contin": 7330, "ued": 21816, "statements": 20232, "followed": 10485, "newline": 15584, "next": 15605, "line": 14028, "indent": 12341, "tab": 20805, "assign": 5024, "span": 19957, "aligning": 4401, "assignments": 5031, "don": 8620, "number": 15887, "threshold": 21133, "limit": 14015, "thresh": 21132, "\u0120import": 31249, "\u0120demonstrates": 28077, "\u0120rustc": 36668, "\u0120test": 38549, "\u0120least": 32330, "\u0120according": 24620, "\u0120.)": 24057, "buf": 6065, "strbuf": 20370, "16": 1431, "import": 12253, "there": 21070, "errors": 9596, "\u0120update": 39582, "\u0120latest": 32270, "\u0120nightly": 33730, "\u0120otherwise": 34256, "\u0120raii": 35667, "'d": 120, "\u0120delay": 28029, "\u0120dropping": 28751, "#,": 68, "\u0120gc": 30262, "alive": 4410, "\u0120prevents": 35218, "\u0120garbage": 30243, "\u0120collected": 26890, "\u0120essentially": 29257, "op": 16237, "\u0120perspective": 34712, "\u0120application": 25193, "\u0120guarantees": 30600, "\u0120flow": 29900, "\u0120mostly": 33357, "\u0120certain": 26508, "\u0120prefer": 35128, "\u0120convention": 27382, "\u0120recogn": 35842, "izable": 13036, "\u0120programmer": 35339, "func": 10720, "force": 10518, "deallocated": 8019, "does": 8599, "something": 19906, "were": 22888, "still": 20304, "would": 23088, "fail": 10009, "other": 16472, "\u0120drop": 28746, "\u0120explicitly": 29481, "\u0120moved": 33377, "\u0120signals": 37258, "\u0120developers": 28275, "\u0120destruction": 28229, "\u0120necessarily": 33622, "\u0120indicate": 31387, "\u0120comment": 26938, "\u0120had": 30651, "\u0120temporary": 38503, "\u0120needed": 33631, "mem": 14722, "drop": 8706, "tempfile": 20936, "tempdir": 20934, "temp": 20930, "dir": 8431, "things": 21093, "temporary": 20944, "without": 23018, "\u0120determine": 28260, "\u0120frusta": 30140, "\u0120intersect": 31758, "\u0120intersection": 31760, "\u0120100": 24099, "\u0120exact": 29331, "\u0120location": 32606, "\u0120touch": 38860, "\u0120position": 35003, "\u0120volume": 39888, "\u0120sort": 37548, "\u0120took": 38827, "\u0120separating": 37022, "\u0120axis": 25605, "\u0120theorem": 38600, "\u0120collision": 26900, "\u0120detection": 28255, "\u0120figure": 29748, "\u0120exactly": 29332, "\u0120anybody": 25131, "\u0120direction": 28395, "\u0120sat": 36753, "\u0120touching": 38863, "\u0120give": 30372, "\u0120percentage": 34658, "\u0120overlap": 34322, "\u0120calculate": 26304, "\u0120po": 34910, "hedron": 11519, "\u0120intersecting": 31759, "\u0120divide": 28569, "\u0120frustum": 30146, "\u0120calculating": 26308, "\u0120overlapping": 34323, "\u0120build": 26212, "\u0120bsp": 26172, "\u0120cs": 27649, "g": 10780, "\u0120operation": 34144, "\u0120intere": 31698, "section": 19249, "\u0120poly": 34952, "\u0120tetra": 38561, "hedrons": 11520, "\u0120volumes": 39889, "\u0120academic": 24579, "\u0120papers": 34452, "hedral": 11518, "ization": 13037, "\u0120representation": 36246, "\u0120assuming": 25408, "\u0120exists": 29423, "\u0120write": 40298, "\u0120boxed": 26085, "\u0120types": 39202, "merge": 14770, "a1": 3808, "a2": 3821, "implemented": 12239, "boxed": 5957, "\u0120advocate": 24803, "\u0120base": 25692, "\u0120implementation": 31226, "\u0120mutating": 33486, "\u0120provides": 35441, "\u0120flexibility": 29882, "\u0120notably": 33817, "\u0120efficient": 28904, "\u0120perform": 34664, "\u0120allocations": 24941, "\u0120oli": 34064, "obk": 15966, "\u0120ker": 32123, "\u0120points": 34923, "\u0120applies": 25197, "\u0120merges": 33045, "\u0120structures": 37966, "\u0120sets": 37087, "\u0120merged": 33044, "\u0120elements": 28937, "\u0120copyable": 27436, "\u0120addressed": 24729, "\u0120taking": 38394, "\u0120merge": 33043, "\u0120trick": 39021, "\u0120move": 33375, "\u0120box": 26084, "u8": 21748, "a3": 3830, "a4": 3838, "a7": 3871, "copy": 7395, "b": 5311, "extend": 9875, "b1": 5319, "b2": 5327, "b3": 5336, "b4": 5343, "b7": 5366, "\u0120contents": 27317, "\u0120dereferencing": 28146, "\u0120combine": 26921, "\u0120boxes": 26086, "\u0120inside": 31573, "\u0120cpu": 27531, "\u0120spent": 37645, "\u0120intended": 31666, "\u0120command": 26933, "\u0120compute": 27093, "\u0120crc": 27564, "\u0120implementations": 31227, "\u0120achieve": 24645, "\u0120intention": 31673, "\u0120interactions": 31682, "\u0120appears": 25176, "\u0120operate": 34140, "\u0120correctly": 27459, "\u0120consumes": 27299, "\u0120equivalent": 29200, "\u0120though": 38644, "\u0120compiled": 27008, "\u0120optimisations": 34169, "\u0120mac": 32735, "\u0120osx": 34252, "\u0120ssd": 37718, "\u0120executing": 29385, "\u0120eliminate": 28952, "\u0120impact": 31205, "cold": 7017, "\u0120buffers": 26203, "warm": 22794, "\u0120produces": 35309, "\u01204": 24287, "\u0120seconds": 36913, "\u0120cold": 26879, "\u0120less": 32367, "\u0120warm": 39960, "\u0120run": 36644, "\u012030": 24259, "\u0120util": 39667, "isation": 12826, "\u0120higher": 30851, "eg": 9195, "\u012025": 24240, "\u012080": 24375, "+%": 234, "\u0120expect": 29438, "\u0120come": 26927, "\u0120computation": 27089, "\u0120copying": 27437, "\u0120difference": 28347, "\u0120scanning": 36800, "gb": 10837, "\u0120xml": 40361, "\u0120mapping": 32845, "mb": 14653, "\u0120seen": 36957, "\u01203": 24258, "mmap": 14952, "crc": 7515, "crc32": 7517, "hasher": 11443, "cmp": 6950, "min": 14878, "env": 9486, "args": 4856, "fs": 10680, "metadata": 14794, "os": 16428, "unix": 22040, "fd": 10090, "slice": 19766, "parts": 16775, "time": 21192, "instant": 12549, "result": 18527, "filename": 10268, "nth": 15856, "unwrap": 22128, "t0": 20767, "open": 16246, "sz": 20761, "offset": 16058, "c32": 6211, "digest": 8409, "ieee": 12010, "while": 22923, "rem": 18359, "memory": 14743, "readable": 18098, "err": 9579, "kind": 13415, "write": 23116, "unsafe": 22088, "08": 706, "sum": 20590, "elapsed": 9234, "secs": 19245, "ok": 16093, "libc": 13836, "package": 16641, "authors": 5214, "gee": 10865, "edition": 9129, "2018": 1654, "keys": 13377, "their": 21056, "definitions": 8119, "doc": 8581, "org": 16360, "reference": 18253, "manifest": 14504, "syscall": 20743, "demo": 8170, "a77": 3878, "2d8": 1953, "c4": 6216, "978": 3489, "finished": 10314, "optimized": 16302, "debuginfo": 8031, "13": 1323, "running": 18917, "users": 22271, "lolo": 14241, "hash": 11436, "nil": 15655, "couldn": 7439, "defer": 8109, "close": 6896, "stat": 20224, "ck": 6797, "var": 22431, "off": 16049, "int64": 12576, "prot": 17612, "read": 18095, "shared": 19523, "somehow": 19900, "unmap": 22055, "sub": 20481, "seconds": 19238, "\u0120os": 34239, "\u0120specifics": 37617, "\u0120expose": 29506, "\u0120probably": 35277, "\u0120treat": 38995, "\u0120differently": 28354, "\u0120flag": 29847, "\u0120specified": 37618, "\u0120making": 32785, "\u0120syscall": 38358, "\u0120slower": 37426, "\u0120back": 25617, "non": 15732, "standard": 20196, "flags": 10371, "\u0120algorithm": 24906, "\u0120hackerrank": 30644, "\u0120times": 38736, "\u0120larger": 32256, "\u01205": 24312, "\u0120people": 34651, "\u0120who": 40116, "\u0120completed": 27026, "\u0120believe": 25795, "\u0120release": 36096, "\u0120mode": 33270, "\u0120speed": 37633, "ups": 22171, "\u0120missing": 33210, "\u0120gist": 30366, "\u0120game": 30230, "\u0120counter": 27491, "inp": 12496, "\u0120conditionally": 27148, "\u0120reduced": 35941, "\u0120based": 25694, "\u0120reduce": 35940, "\u0120winner": 40172, "\u0120chosen": 26645, "trim": 21518, "parse": 16746, "u64": 21745, "find": 10304, "winner": 22994, "win": 22965, "power": 17327, "two": 21671, "ri": 18626, "chard": 6662, "l": 13509, "ou": 16487, "ise": 12830, "stdin": 20259, "\u0120inner": 31540, "\u0120loop": 32658, "\u0120combination": 26916, "\u0120builtin": 26226, "\u0120allocating": 24939, "\u0120every": 29305, "\u0120slice": 37404, "\u0120returned": 36425, "count": 7441, "ones": 16188, "trailing": 21414, "zeros": 23542, "\u0120avoiding": 25577, "\u0120speeding": 37634, "\u0120per": 34654, "\u0120avoided": 25576, "\u0120supply": 38210, "\u0120alter": 24978, "\u0120borrows": 26056, "\u0120):": 24020, "\u0120modify": 33292, "\u0120improvement": 31274, "\u0120explicitness": 29482, "\u0120triggers": 39035, "\u0120buffered": 26200, "\u0120argument": 25273, "\u0120easier": 28851, "\u0120specify": 37623, "\u0120annotating": 25091, "\u0120mandatory": 32808, "\u0120borrow": 26047, "\u0120putting": 35530, "\u0120altogether": 24992, "\u0120bigger": 25856, "\u0120win": 40157, "might": 14854, "\u0120sufficient": 38148, "\u0120forget": 29997, "\u0120apply": 25198, "\u0120@": 24469, "jo": 13183, "hn": 11656, "\u0120advices": 24795, "'ll": 121, "free": 10628, "reader": 18104, "where": 22916, "bash": 5499, "\u0120cipher": 26664, "\u0120exercise": 29399, "\u0120exercism": 29402, "\u0120round": 36586, "ort": 16411, "ured": 22189, "\u0120manipulation": 32826, "\u0120grokked": 30566, "\u0120take": 38390, "\u0120fewer": 29719, "\u0120below": 25804, "\u0120important": 31251, "\u0120concept": 27116, "\u0120min": 33142, "up": 22138, "ulating": 21873, "\u0120involves": 31848, "\u0120outputting": 34291, "\u0120character": 26575, "\u0120characters": 26578, "\u0120included": 31312, "\u0120goes": 30440, "decode": 8063, "en": 9326, "cipher": 6773, "encode": 9351, "plain": 17123, "coded": 6984, "retain": 18544, "ascii": 4955, "alphanumeric": 4468, "lowercase": 14289, "spacing": 19953, "utf8": 22307, "bytes": 6159, "alphabetic": 4465, "122": 1267, "97": 3478, "spacer": 19951, "dec": 8032, "ipher": 12763, "out": 16526, "chars": 6666, "char": 6655, "counter": 7446, "spaces": 19952, "push": 17722, "\u0120place": 34840, "\u0120students": 37986, "\u0120search": 36896, "\u0120advice": 24793, "\u0120users": 39656, "\u0120made": 32747, "\u0120split": 37666, "\u0120executable": 29380, "\u0120large": 32254, "\u0120full": 30165, "\u0120definitions": 28012, "structs": 20446, "\u0120their": 38591, "\u0120prepend": 35161, "\u0120reduces": 35942, "\u0120readability": 35742, "\u0120pub": 35479, "\u0120decomp": 27929, "osing": 16441, "\u0120multiple": 33441, "derive": 8228, "serialize": 19387, "deserialize": 8259, "baz": 5528, "\u0120expected": 29442, "\u0120privacy": 35260, "\u0120boundary": 26076, "\u0120level": 32380, "\u0120module": 33301, "\u0120submodules": 38046, "\",": 41, "\u0120parent": 34497, "\u0120sibling": 37227, "\u0120permission": 34685, "\u0120typically": 39208, "\u0120invariants": 31812, "\u0120uphold": 39593, "\u0120public": 35480, "\u0120bounds": 26080, "\u0120preca": 35077, "ution": 22319, "\u0120programmers": 35340, "\u0120unusual": 39558, "\u0120thousands": 38648, "\u0120unless": 39422, "\u0120mirroring": 33182, "\u0120external": 29541, "\u0120consider": 27241, "\u0120auto": 25532, "generating": 10891, "\u0120coding": 26855, "\u0120defining": 28008, "\u0120&[": 23928, "u": 21719, "].": 3748, "\u0120wanna": 39954, "\u0120freely": 30099, "\u0120v": 39683, "\u0120=": 24441, "()": 139, "\u0120[": 24470, "],": 3746, "\u0120obviously": 33978, "\u0120couldn": 27486, "\u0120anything": 25135, "\u0120thank": 38579, "\u0120represented": 36250, "\u0120length": 32360, "\u0120integers": 31648, "\u0120records": 35879, "\u0120many": 32840, "\u0120hand": 30671, "\u0120literally": 32554, "\u0120amount": 25021, "\".": 44, "\u0120calls": 26327, "\u0120unsized": 39518, "\u0120limited": 32498, "\u0120referenced": 35973, "\u0120indirectly": 31404, "\u0120mutate": 33483, "\u0120discovered": 28469, "\u0120calling": 26326, "\u0120clones": 26773, "\u0120shared": 37139, "\u0120instance": 31609, "length": 13756, "\u0120pointing": 34920, "\u0120generally": 30295, "\u0120result": 36388, "\u0120fresh": 30113, "\u0120except": 29351, "\u0120tracks": 38891, "\u0120capacity": 26358, "\u0120allocated": 24937, "\u0120turning": 39147, "\u0120storage": 37888, "\u0120reused": 36432, "capacity": 6369, "\u0120discarded": 28444, "\u0120res": 36295, "uting": 22318, "\u0120again": 24841, "\u0120triple": 39043, "mutate": 15253, "through": 21137, "own": 16597, "mref": 15137, "end": 9364, "scope": 19164, "\u0120prints": 35251, "\u0120print": 35241, "\u0120opposite": 34158, "\u0120bug": 26207, "\u0120missed": 33207, "futures": 10759, "future": 10753, "stop": 20336, "tokio": 21309, "sync": 20720, "oneshot": 16189, "channel": 6648, "handler": 11397, "spawn": 19964, "join": 13192, "e0271": 8863, "mismatch": 14918, "resolving": 18493, "receiver": 18155, "recv": 18206, "note": 15783, "runtime": 18921, "threadpool": 21128, "\u0120surface": 38233, "\u0120associated": 25397, "\u0120inference": 31443, "\u0120directions": 28397, "\u0120sometimes": 37531, "\u0120wording": 40234, "\u0120fits": 29833, "\u0120expectations": 29441, "\u0120situations": 37355, "\u0120feels": 29700, "\u0120backwards": 25641, "\u0120course": 27507, "\u0120difficult": 28358, "\u0120mis": 33184, "\u0120reported": 36235, "\u0120cod": 26834, "\u0120human": 31033, "\u0120interpretation": 31742, "actual": 4118, "\u0120general": 30284, "\u0120agree": 24858, "\u0120confusing": 27198, "\u0120sure": 38231, "\u0120talked": 38397, "\u0120harm": 30716, "\u0120report": 36234, "\u0120followed": 29944, "\u0120guide": 30617, "\u0120draw": 28719, "\u0120lorenz": 32671, "\u0120extend": 29527, "\u0120switch": 38299, "\u0120substitute": 38080, "\u0120gl": 30376, "uortho": 22135, "\u0120gluperspective": 30420, "\u0120glfrustum": 30391, "\u0120unfortunately": 39362, "\u0120whatever": 40083, "\u0120useless": 39643, "\u0120while": 40102, "\u0120visualize": 39867, "\u0120window": 40162, "\u0120black": 25925, "background": 5409, "color": 7039, "gl": 11049, "clear": 6840, "0f": 763, "foreground": 10527, "pen": 16892, "02": 570, "enable": 9328, "blen": 5817, "ding": 8429, "blend": 5818, "alpha": 4462, "minus": 14904, "point": 17190, "smoothing": 19811, "mo": 14970, "oth": 16470, "viewport": 22618, "400": 2287, "projection": 17578, "camera": 6335, "mode": 14984, "identity": 11976, "glu": 11085, "ortho": 16416, "perspective": 16964, "45": 2412, "100": 1116, "sets": 19443, "frustum": 10677, "model": 14985, "view": 22613, "objects": 15960, "modelview": 14987, "buffer": 6069, "bit": 5770, "draw": 8688, "points": 17202, "begin": 5627, "go": 11110, "equ": 9519, "many": 14516, "times": 21210, "drawing": 8691, "each": 9027, "iteration": 12937, "iterations": 12938, "using": 22278, "strange": 20366, "attra": 5161, "ctor": 7641, "z": 23509, "sin": 19681, "cos": 7433, "save": 19100, "vertex3f": 22572, "swap": 20672, "buffers": 6077, "glut": 11087, "\u0120name": 33551, "\u0120misleading": 33199, "\u0120ever": 29304, "\u0120near": 33609, "\u0120wow": 40273, "\u0120complicated": 27042, "ious": 12750, "\u0120anyway": 25137, "\u0120nothing": 33829, "\u0120projection": 35354, "\u0120depth": 28133, "\u0120range": 35687, "\u0120perfectly": 34663, "\u0120likely": 32488, "\u0120generated": 30298, "\u0120lie": 32454, "\u0120z": 40419, "\u0120confined": 27174, "\u0120iirc": 31149, "\u0120attractor": 25484, "\u0120positive": 35008, "\u0120translation": 38951, "\u0120suggest": 38157, "\u0120things": 38624, "\u0120center": 26490, "\u0120viewing": 39826, "ldouble": 13674, "left": 13722, "right": 18645, "bottom": 5938, "top": 21338, "arc": 4812, "asm": 4988, "\u0120validate": 39695, "\u0120xades": 40336, "\u0120signature": 37259, "timestamp": 21214, "encoded": 9352, "\u0120block": 25958, "\u0120basically": 25699, "\u0120validation": 39699, "\u0120manually": 32835, "\u0120inspect": 31587, "\u0120timestamp": 38737, "especially": 9637, "\u0120certificates": 26517, "\u0120validity": 39702, "\u0120etc": 29270, "\u0120tool": 38828, "\u0120openssl": 34130, "\u0120bouncy": 26072, "\u0120castle": 26422, "\u0120generate": 30297, "\u0120timestamps": 38744, "\u0120bc": 25722, "\u0120serialize": 37051, "\u0120udp": 39227, "\u0120serialization": 37050, "\u0120lives": 32564, "\u0120end": 29073, "\u0120scope": 36839, "\u0120makes": 32784, "\u0120byte": 26275, "\u0120success": 38125, "\u0120playground": 34873, "serde": 19377, "json": 13225, "macro": 14438, "text": 21020, "returns": 18569, "abc": 3932, "e0597": 8929, "borrowed": 5923, "live": 14111, "long": 14245, "enough": 9420, "22": 1726, "lives": 14114, "until": 22113, "must": 15245, "valid": 22394, "anonymous": 4661, "defined": 8114, "19": 1539, "21": 1697, "\u0120outlive": 34281, "\u0120annotations": 25093, "\u0120explicit": 29479, "\u0120objects": 33947, "\u0120live": 32561, "\u0120stop": 37881, "strict": 20398, "\u0120assumptions": 25410, "\u0120ownership": 34368, "\u0120bytes": 26280, "\u0120borrowing": 26054, "\u0120candidate": 26347, "\u0120unfortunate": 39360, "\u0120luckily": 32717, "\u0120serde": 37041, "\u0120last": 32260, "\u0120long": 32640, "\u0120needs": 33637, "hi": 11582, "\u0120questions": 35618, "\u0120concerning": 27124, "\u0120port": 34985, "\u0120boost": 26031, "\u0120concepts": 27119, "):": 199, "\u0120x": 40334, "\u0120y": 40380, "\u0120immutable": 31201, "\u0120saw": 36777, "\u0120internals": 31725, "\u0120talks": 38399, "\u0120parametric": 34485, "\u0120mutability": 33478, "\u0120established": 29261, "\u0120rfc": 36479, "\u0120plans": 34857, "\u0120parametri": 34484, "zation": 23522, "\u0120numeric": 33904, "\u0120guest": 30613, "\u0120solution": 37512, "\u0120cleaner": 26727, "feature": 10125, "associated": 5039, "types": 21708, "point2d": 17193, "deriving": 8234, "show": 19581, "point2": 17192, "inline": 12483, "0i32": 772, "1i32": 1602, "immutable": 12221, "dereference": 8219, "template": 20937, "p1": 16618, "p2": 16624, "0u8": 801, "10u8": 1210, "\u0120expressed": 29514, "\u0120strong": 37951, "\u0120desire": 28208, "\u0120along": 24957, "\u0120aware": 25590, "\u0120core": 27442, "\u0120team": 38466, "\u0120definitely": 28010, "\u0120wants": 39958, "\u0120priority": 35258, "\u0120reformat": 36004, "\u0120separated": 37019, "\u0120three": 38664, "\u0120parts": 34545, "\u0120within": 40201, "\u0120parenthesis": 34500, "\u0120sed": 36940, "\u0120formatter": 30015, "\u0120care": 26381, "\u0120formatted": 30014, "double": 8644, "quaternion": 17857, "\u0120gnu": 30432, "\u0120indent": 31368, "\u0120snippet": 37481, "\u0120manual": 32834, "\u0120accessed": 24596, "np": 15812, "sl": 19742, "\u0120clang": 26700, "format": 10544, "\u0120kinda": 32168, "\u0120talk": 38396, "native": 15447, "2013": 1649, "\u0120showed": 37208, "\u0120promising": 35366, "\u0120results": 36392, "\u0120started": 37798, "\u0120regarding": 36023, "\u0120regex": 36029, "\u0120check": 26599, "\u0120matches": 32897, "\u0120text": 38565, "\u0120identical": 31094, "\u0120matching": 32898, "\u0120succeeded": 38120, "prelude": 17413, "regex": 18291, "reg": 18285, "quot": 17891, "space": 19950, "specify": 19988, "argument": 4862, "contents": 7322, "success": 20561, "\u0120couple": 27502, "\u0120indeed": 31364, "\u0120reading": 35749, "\u0120hunch": 31036, "\u0120encountering": 29062, "\u0120alex": 24898, "\u0120larionov": 32258, "\u0120pointed": 34916, "\u0120saved": 36772, "\u0120luck": 32716, "\u0120accept": 24587, "\u0120jpg": 32042, "\u0120images": 31176, "\u0120optimal": 34165, "\u0120arrangement": 25296, "\u0120paper": 34451, "...)": 320, "\u0120image": 31172, "\u0120optimally": 34166, "\u0120arranged": 25295, "/...": 363, "\u0120libraries": 32429, "\u0120suited": 38167, "\u0120jpeg": 32041, "width": 22950, "\u0120height": 30792, "\u0120resolution": 36333, "\u0120color": 26905, "\u0120profile": 35322, "\u0120operations": 34146, "github": 11034, "pistondevelopers": 17079, "image": 12176, "\u0120released": 36097, "cra": 7497, "btw": 6056, "\u0120bindings": 25878, "\u0120favourite": 29670, "\u0120export": 29502, "\u0120opengl": 34118, "\u0120console": 27256, "\u0120autocompletion": 25534, "\u0120constants": 27266, "\u0120ide": 31088, "visual": 22655, "\u0120studio": 37988, "\u0120sim": 37292, "generator": 10893, "\u0120copied": 27433, "\u0120global": 30405, "\u0120different": 28349, "functions": 10734, ".,": 310, "\u0120great": 30538, "\u0120printed": 35243, "bindings": 5750, "sdl": 19206, "video": 22606, "subsystem": 20542, "attr": 5158, "900": 3381, "700": 3007, "opengl": 16254, "resizable": 18482, "proc": 17516, "address": 4172, "loop": 14263, "42": 2346, "triggered": 21514, "128": 1307, "poll": 17223, "quit": 17888, "break": 5990, "registry": 18310, "fallback": 10025, "path": 16798, "nv": 15908, "command": 7072, "\u0120include": 31311, "\u0120lib": 32400, "\u0120includes": 31313, "\u0120lazy": 32302, "\u0120repeated": 36200, "graphics": 11203, "ka": 13282, "iser": 12834, "1989": 1561, "android": 4600, "\u0120framework": 30079, "concat": 7184, "anywhere": 4696, "lot": 14283, "constants": 7277, "array": 4911, "instance": 12543, "bind": 5743, "luint": 14364, "lenum": 13765, "lazy": 13624, "\u0120mainly": 32765, "\u0120javascript": 31979, "\u0120python": 35555, "\u0120developer": 28274, "\u0120oop": 34102, "\u0120wrap": 40281, "\u0120head": 30765, "\u0120especially": 29253, "\u0120tcp": 38454, "\u0120server": 37068, "streams": 20388, "\u0120asynchronously": 25435, "\u0120mio": 33174, "\u0120telling": 38489, "\u0120clue": 26795, "message": 14784, "\u0120whatnot": 40084, "\u0120relay": 36094, "\u0120workaround": 40239, "\u0120later": 32268, "\u0120design": 28195, "\u0120inherently": 31488, "\u0120flawed": 29873, "\u0120shows": 37211, "sock": 19858, "connections": 7252, "msg": 15156, "primitive": 17464, "request": 18449, "ips": 12774, "decoded": 8065, "noun": 15801, "ce": 6507, "bincode": 5742, "public": 17691, "unreachable": 22080, "\u0120holding": 30912, "\u0120indicated": 31388, "\u0120anymore": 25133, "\u0120fortunately": 30034, "lexical": 13805, "\u01202018": 24205, "\u0120hard": 30704, "\u0120simply": 37315, "\u0120fetch": 29714, "\u0120holds": 30913, "acqu": 4078, "ired": 12798, "\u0120iteration": 31933, "\u0120network": 33679, "\u0120relative": 36089, "\u0120performance": 34665, "\u0120penalty": 34644, "\u0120(?)": 24004, "\u0120negligible": 33651, "\u0120lack": 32224, "\u0120minimal": 33157, "able": 3960, "\u0120wasn": 39977, ".)": 303, "\u0120developing": 28276, "\u0120pwa": 35538, "\u0120submit": 38041, "\u0120twa": 39158, "\u0120cant": 26352, "\u0120manage": 32796, "\u0120hide": 30842, "\u0120url": 39623, "\u0120bar": 25676, "\u0120digital": 28372, "\u0120asset": 25374, "\u0120links": 32525, "\u0120tested": 38553, "\u0120connected": 27214, "\u0120successfully": 38128, "\u0120editor": 28885, "\u0120intent": 31672, "\u0120filter": 29774, "\u0120association": 25400, "\u0120assetlinks": 25375, "\u0120android": 25072, "\u0120manifest": 32816, "gradle": 11182, "\u0120app": 25162, "...": 313, "keytool": 13386, "printcert": 17474, "jarfile": 13080, "apk": 4727, "xmlns": 23303, "http": 11760, "schemas": 19147, "tools": 21334, "eu": 9682, "clubforceone": 6921, "mobile": 14972, "application": 4761, "allow": 4441, "backup": 5418, "icon": 11933, "mipmap": 14910, "ic": 11892, "launcher": 13602, "label": 13518, "app": 4736, "supports": 20627, "rtl": 18869, "theme": 21060, "activity": 4108, "meta": 14792, "asset": 5021, "resource": 18495, "customtabs": 7728, "trusted": 21560, "validation": 22399, "url": 22205, "login": 14226, "clubforce": 6920, "launch": 13600, "status": 20248, "primary": 17459, "splash": 20026, "drawable": 8689, "screen": 19182, "fade": 10003, "duration": 8786, "300": 1991, "provider": 17633, "author": 5207, "ity": 12998, "authority": 5209, "intent": 12601, "filter": 10292, "action": 4093, "category": 6433, "browsable": 6021, "scheme": 19148, "v4": 22363, "content": 7321, "authorities": 5208, "grant": 11195, "uri": 22197, "permissions": 16939, "exported": 9855, "paths": 16804, "enabled": 9329, "notification": 15791, "apply": 4771, "plugin": 17164, "def": 8095, "twa": 21657, "being": 5642, "opened": 16251, "start": 20207, "relative": 18334, "cl": 6806, "ubforce": 21770, "shown": 19587, "2837": 1904, "95": 3452, "used": 22254, "f6f": 9952, "ffffff": 10197, "notifications": 15792, "deleg": 8138, "ation": 5107, "compile": 7128, "sdk": 19204, "2000": 1625, "instrumentation": 12562, "runner": 18913, "will": 22961, "launching": 13603, "hostname": 11709, "building": 6096, "handle": 11391, "intents": 12604, "svgomg": 20667, "firebaseapp": 10323, "variable": 22440, "expresses": 9867, "relationship": 18332, "between": 5685, "site": 19703, "documented": 8593, "documentation": 8592, "google": 11135, "updates": 22150, "2017": 1653, "digital": 8415, "links": 14057, "inject": 12474, "ed": 9105, "relation": 18330, "delegate": 8139, "permission": 16938, "common": 7091, "urls": 22216, "namespace": 15426, "attribute": 5167, "values": 22421, "colors": 7047, "setting": 19449, "both": 5934, "places": 17121, "defaults": 8103, "specific": 19981, "needed": 15513, "defines": 8115, "fileprovider": 10273, "disable": 8454, "changing": 6647, "attributes": 5168, "minify": 14892, "proguard": 17572, "txt": 21683, "rules": 18897, "pro": 17501, "options": 16314, "source": 19941, "compatibility": 7121, "product": 17543, "flavors": 10388, "tree": 21482, "jar": 13077, "chrome": 6740, "custom": 7721, "tabs": 20812, "client": 6859, "91": 3395, "b4a": 5349, "127": 1306, "0b": 738, "511": 2586, "70": 3006, "5d": 2761, "34": 2100, "40": 2286, "e6": 8991, "26": 1836, "7762": 3107, "c5": 6222, "f1": 9919, "c6": 6231, "sha256": 19490, "cert": 6565, "fingerprints": 10311, "cd": 6491, "d5": 7806, "d1": 7779, "54": 2634, "ac": 3989, "17": 1470, "8a": 3356, "c2": 6196, "07": 693, "1d": 1582, "fc": 10073, "d7": 7819, "2c": 1943, "ee": 9143, "66": 2912, "d9": 7835, "f6": 9948, "da": 7838, "1c": 1576, "57": 2694, "1b": 1574, "a5": 3850, "f9": 9962, "signer": 19638, "signature": 19633, "owner": 16599, "deleted": 8144, "privacy": 17489, "reason": 18136, "issuer": 12877, "serial": 19380, "b8": 5375, "59": 2733, "apr": 4790, "cest": 6592, "thu": 21146, "aug": 5185, "md5": 14676, "29": 1916, "96": 3465, "6c": 2980, "d0": 7769, "e4": 8976, "69": 2964, "bc": 5560, "6d": 2983, "sha1": 19486, "00": 378, "7e": 3156, "76": 3084, "27": 1870, "5e": 2764, "51": 2584, "83": 3252, "6a": 2976, "90": 3380, "56": 2672, "99": 3514, "algorithm": 4388, "sha256with": 19492, "rsa": 18839, "extensions": 9882, "object": 15955, "criticality": 7565, "subject": 20497, "identifier": 11972, "06": 680, "63": 2858, "ae": 4245, "e8": 9004, "bd": 5578, "9a": 3543, "4e": 2522, "8b": 3360, "9c": 3545, "09": 722, "ea": 9018, "0010": 475, "c8": 6241, "e5": 8983, "assetlinks": 5022, "\u0120simplify": 37312, "\u0120procedure": 35289, "\u0120letting": 32376, "\u0120signatures": 37260, "\u0120sha": 37114, "215": 1716, "\u0120keytool": 32149, "\u0120pretty": 35208, "\u0120neat": 33613, "\u0120handle": 30676, "\u0120functional": 30181, "\u0120cool": 27419, "\u0120handling": 30682, "\u0120replacement": 36216, "\u0120custom": 27736, "\u0120standard": 37782, "work": 23061, "eprintln": 9513, "\u0120generalized": 30292, "\u0120form": 30008, "\u0120propose": 35401, "\u0120requiring": 36286, "\u0120unit": 39406, "\u0120simulate": 37318, "\u0120combined": 26922, "\u0120branches": 26101, "\u0120depending": 28120, "\u0120transform": 38930, "\u0120iterators": 31938, "\u0120nonetheless": 33782, "\u0120cub": 27667, "cub": 7660, "transform": 21435, "iterator": 12940, "tor": 21353, "radix": 17963, "sort": 19925, "elems": 9251, "\u0120sorry": 37547, "\u0120disappoint": 28433, "\u0120afaik": 24814, "\u0120support": 38212, "\u0120theoretically": 38603, "\u0120deeper": 27980, "\u0120templat": 38494, "\u0120lift": 32468, "\u0120template": 38495, "\u0120headache": 30766, "\u0120doable": 28604, "\u0120transformation": 38931, "\u0120ui": 39238, "\u0120body": 25999, "\u0120invisible": 31833, "\u0120shown": 37210, "\u0120(\"": 23961, "1234": 1274, "567": 2685, "\").": 36, "\u0120fly": 29915, "\u0120amethyst": 25014, "amethyst": 4519, "assets": 5023, "loader": 14176, "renderer": 18387, "loaders": 14177, "sr": 20092, "gba": 10839, "palette": 16684, "srgba": 20109, "texture": 21028, "ui": 21842, "anchor": 4572, "builder": 6095, "simple": 19664, "1234567": 1278, "666": 2922, "font": 10490, "position": 17295, "has": 11433, "ff": 10177, "ct": 7623, "hover": 11722, "solid": 19886, "layer": 13615, "\u0120u": 39216, "ib": 11878, "ut": 22294, "ton": 21322, "issues": 12879, "229": 1742, "\u0120notation": 33821, "\u0120swift": 38292, "\u0120shorthand": 37193, "\u0120anywhere": 25139, "\u0120short": 37181, "\u0120circuit": 26671, "\u0120execution": 29386, "\u0120verbose": 39778, "\u0120familiar": 29625, "\u0120collapse": 26883, "\u0120match": 32893, "\u0120+": 24035, "\u0120clause": 26722, "\u0120failure": 29597, "\u0120path": 34570, "\u0120nest": 33669, "\u0120happy": 30702, "guard": 11283, "function": 10728, "reqwest": 18460, "normally": 15765, "response": 18507, "ve": 22479, "mapped": 14529, "post": 17306, "complete": 7139, "basic": 5501, "auth": 5195, "username": 22268, "send": 19332, "exist": 9797, "200": 1624, "attempt": 5152, "\u0120proposals": 35400, "\u0120flexible": 29883, "\u0120equivalents": 29202, "guards": 11287, "\u0120),": 24018, "\u00e2\u0122\u013b": 23788, "\u0120exiting": 29426, "\u0120mark": 32857, "\u0120operator": 34147, "\u0120skip": 37376, "\u2026": 40884, "\u0120ethereum": 29273, "\u0120address": 24727, "ethkey": 9669, "\u0120doesnt": 28630, "\u0120seem": 36952, "\u0120\u0120\u0120": 40555, "\u0120eth": 29271, "\u0120(/": 23993, "sam": 19056, "ue": 21815, "ld": 13663, "are": 4827, "documents": 8594, "th": 21041, "\u0120\u0120\u0120\u0120\u0120\u0120": 40558, "\u0120finished": 29800, "\u0120dev": 28268, "un": 21928, "\u0120debuginfo": 27891, "\u0120target": 38419, "\u0120\u0120\u0120\u0120\u0120\u0120\u0120": 40559, "\u0120thread": 38653, "\u0120panicked": 34444, "ioerror": 12731, "\u0120{": 40457, "\u0120notfound": 33828, "\u0120}": 40470, "\u0120state": 37809, "\u0120backtrace": 25635, "\u0120internal": 31723, "backtrace": 5416, "\u0120})',": 40473, "libcore": 13843, "999": 3533, "\u0120environment": 29167, "\u0120display": 28510, "\u0120ive": 31949, "\u0120attempt": 25472, "\u0120appreciate": 25204, "eth": 9664, "account": 4034, "passwd": 16787, "\u0120takes": 38393, "\u0120std": 37835, "\u0120closing": 26783, "\u0120slash": 37389, "\u0120'/'": 23950, "\u0120sample": 36729, "05": 660, "47": 2450, "master": 14583, "\u2717": 40999, "unoptimized": 22065, "04s": 658, "0x8": 1063, "248": 1804, "af": 4263, "65": 2898, "559": 2669, "509": 2581, "060": 681, "b88": 5379, "7c": 3153, "d20": 7786, "\u0120reduction": 35945, "\u0120float": 29893, "\u0120glm": 30402, "\u0120'<'": 23953, "\u0120maximum": 32934, "\u0120his": 30878, "max": 14635, "ptr": 17673, "densities": 8187, "particles": 16767, "glm": 11067, "vec3": 22485, "sqrtf": 20083, "\u0120yes": 40398, "\u0120quickstart": 35630, "\u0120review": 36451, "\u0120extrema": 29555, "\u0120varieties": 39730, "\u0120algorithms": 24909, "\u0120accepts": 24593, "\u0120functor": 30187, "\u0120trivial": 39051, "134": 1338, "extrema": 9898, "hpp": 11729, "iostream": 12746, "comp": 7106, "typename": 21704, "operator": 16279, "t1": 20771, "t2": 20788, "sizeof": 19723, "cout": 7458, "endl": 9378, "61": 2824, "\u0120consists": 27254, "\u0120pile": 34793, "\u0120creates": 27568, "\u0120source": 37566, "\u0120throw": 38675, "back": 5402, "\u0120poc": 34911, "\u0120driving": 28743, "\u0120mad": 32746, "area": 4828, "f32": 9931, "62": 2841, "private": 17490, "e0451": 8900, "1f32": 1590, "\u0120private": 35261, "\u0120troubles": 39056, "\u0120accessible": 24599, "via": 22595, "\u0120manipulate": 32822, "encapsulate": 9340, "\u0120showing": 37209, "\u0120scenarios": 36811, "playground": 17145, "working": 23072, "perfectly": 16914, "fine": 10307, "within": 23017, "\u0120btreemap": 26181, "\u0120hashmap": 30734, "\u0120complaining": 27017, "\u0120confused": 27196, "\u0120stage": 37764, "vertices": 22574, "behind": 5641, "occurs": 15999, "because": 5609, "collections": 7027, "consider": 7266, "borrowing": 5926, "e0507": 8914, "digraph": 8417, "directed": 8437, "graph": 11198, "add": 4142, "edge": 9119, "vertex": 22570, "entry": 9470, "e0596": 8928, "borrow": 5920, "mutable": 15250, "refers": 18265, "information": 12415, "try": 21580, "explain": 9838, "\u0120marked": 32859, "\u0120clearly": 26739, "\u0120receiver": 35823, "\u0120upon": 39600, "\u0120compiles": 27011, "\u0120linked": 32520, "\u0120list": 32537, "->": 291, "\u0120cut": 27747, "\u0120off": 34029, "\u0120reverse": 36444, "\u0120compose": 27059, "\u0120=>": 24452, "<-": 3613, "\u0120node": 33758, "\u0120stuck": 37982, "\u0120suppose": 38216, "\u0120helps": 30811, "val": 22381, "reverse": 18580, "prev": 17445, "curr": 7698, "part": 16755, "tail": 20823, "take": 20832, "head": 11492, "e0499": 8905, "ult": 21896, "ra": 17943, "sa": 19033, "urus": 22241, "\u0120resource": 36342, "unofficial": 22064, "too": 21326, "lists": 14096, "/.": 361, "\u0120although": 24991, "\u0120weird": 40063, "\u0120zero": 40425, "\u01207": 24359, "\u0120reads": 35754, "\u0120moving": 33382, "\u0120ok": 34053, "\u0120initial": 31500, "\u0120necessary": 33623, "\u012073": 24363, "\u012094": 24397, "\u0120break": 26111, "\u0120cast": 26419, "\u0120dereference": 28142, "\u0120number": 33895, "\u012017": 24170, "linked": 14053, "\u0120today": 38790, "\u0120previous": 35220, "\u0120deleted": 28041, "\u0120sinc": 37329, "ere": 9548, "\u0120ap": 25143, "ology": 16131, "\u0120shar": 37133, "\u0120skills": 37371, "\u0120meet": 32994, "\u0120stuff": 37991, "\u0120dun": 28795, "\u0120signs": 37274, "\u0120searched": 36897, "\u0120stackoverflow": 37760, "\u0120lands": 32242, "\u0120duplicating": 28805, "starting": 20217, "seeking": 19283, "saving": 19103, "lock": 14200, "getline": 10954, "cin": 6767, "\u0120stdout": 37842, "buffered": 6074, "\u0120newline": 33694, "\u0120flush": 29908, "\u0120prefix": 35140, "stdout": 20267, "flush": 10433, "\u0120golang": 30443, "\u0120current": 27722, "\u0120processing": 35299, "\u0120hundreds": 31038, "\u0120gzipped": 30637, "\u0120log": 32617, "\u0120json": 32046, "\u0120attempts": 25475, "\u0120surprisingly": 38241, "\u0120slow": 37424, "\u0120investigating": 31829, "\u0120noticed": 33833, "\u0120performs": 34670, "\u0120significantly": 37269, "\u0120faster": 29651, "flate": 10381, "gzip": 11323, "decoder": 8066, "gz": 11322, "process": 17523, "lines": 14043, "events": 9716, "fp": 10586, "\u0120backend": 25620, "flate2": 10382, "zlib": 23575, "ng": 15621, "\u0120noob": 33794, "\u0120upload": 39596, "\u0120rusoto": 36658, "\u0120stream": 37913, "\u0120acceptable": 24588, "s3": 19023, "s3client": 19024, "region": 18296, "us": 22243, "east1": 9045, "await": 5271, "stream": 20377, "put": 17728, "bucket": 6060, "streaming": 20385, "\u0120client": 26749, "\u0120alias": 24911, "\u0120async": 25431, "ky": 13507, "\u0120fully": 30172, "\u0120fleshed": 29880, "\u0120ecosystem": 28873, "\u0120bottom": 26068, "\u0120accepted": 24590, "\u0120removing": 36162, "\u0120annotation": 25092, "\u0120concrete": 27137, "\u0120easily": 28853, "\u0120aforementioned": 24831, "\u0120reasons": 35792, "byte": 6154, "rusoto": 18931, "async": 5061, "upload": 22158, "thing": 21087, "\u0120tests": 38560, "mycrate": 15297, "i32": 11838, "tests": 21011, "conflicts": 7235, "imported": 12256, "meant": 14692, "e0": 8830, "254": 1822, "\u0120everything": 29309, "\u0120naming": 33559, "\u0120conflict": 27184, "\u0120attributes": 25488, "\u0120().": 23975, "\u0120looks": 32653, "\u0120vs": 39905, "\u0120plugin": 34900, "\u0120builds": 26221, "\u0120dont": 28650, "afaik": 4267, "\u0120runs": 36652, "\u0120/?": 24084, "dll": 8545, "sample": 19066, "dylib": 8816, "rusty": 18989, "\u0120configuration": 27167, "\u0120finds": 29791, "\u0120encounters": 29063, "\u0120managed": 32798, "\u0120confuse": 27195, "\u0120figured": 29749, "\u0120attempting": 25474, "\u0120queue": 35619, "\u0120producers": 35308, "\u0120queuet": 35622, "\u0120deque": 28135, "\u0120due": 28782, "\u0120producer": 35307, "\u0120avoid": 25573, "queue": 17873, "enqueue": 9421, "producer": 17540, "marker": 14553, "deque": 8213, "condvar": 7217, "mutex": 15260, "items": 12922, "qt": 17830, "notify": 15795, "dequeue": 8214, "wait": 22764, "pop": 17253, "front": 10669, "dispatch": 8481, "produce": 17538, "called": 6316, "consumer": 7304, "\u0120casting": 26421, "\u0120clearer": 26736, "\u0120keyword": 32151, "\u0120indirections": 31403, "\u0120whole": 40118, "\u0120setup": 37096, "lict": 13978, "kmdreko": 13444, "think": 21095, "\u0120simpler": 37305, "\u0120hash": 30725, "\u0120table": 38373, "\u0120commands": 26935, "\u0120iterate": 31929, "\u0120printing": 35246, "\u0120usage": 39629, "executing": 9779, "\u0120execute": 29382, "such": 20566, "\u0120inserting": 31569, "\u0120database": 27807, "\u0120checker": 26605, "\u0120separate": 37018, "\u0120sounds": 37563, "\u0120unwieldy": 39562, "execute": 9774, "change": 6642, "hey": 11574, "command1": 7073, "compiler": 7130, "complains": 7135, "making": 14476, "another": 4664, "binding": 5748, "\u0120living": 32566, "\u0120fairly": 29604, "\u0120broad": 26141, "\u0120dozen": 28698, "\u0120solutions": 37513, "\u0120--": 24047, "\u0120told": 38813, "\u0120us": 39626, "\u0120small": 37434, "\u0120subset": 38068, "\u0120features": 29684, "\u0120title": 38767, "\u0120suspect": 38255, "\u0120besides": 25829, "\u0120delete": 28040, "\u0120implicit": 31240, "\u0120...": 24060, "\u0120becomes": 25752, "docopt": 8586, "\u0120book": 26021, "\u0120patterns": 34581, "\u0120maintain": 32768, "\u0120left": 32339, "\u0120achieved": 24646, "safe": 19041, "\u0120share": 37137, "\u0120threads": 38661, "\u0120whereas": 40092, "\u0120notice": 33830, "\u0120initializer": 31512, "\u0120violate": 39836, "\u0120rules": 36640, "cell": 6533, "vers": 22555, "ible": 11887, "undo": 21985, "old": 16109, "calls": 6328, "\u0120trustzone": 39106, "\u0120enabled": 29032, "soc": 19856, "\u0120dram": 28714, "\u0120protected": 35414, "\u0120tzasc": 39213, "\u0120tzc": 39214, "\u0120registers": 36037, "\u0120configure": 27169, "\u0120permissions": 34686, "\u0120regions": 36033, "\u0120controlled": 27366, "\u0120during": 28812, "\u0120boot": 26032, "\u0120lock": 32608, "\u0120reconfigure": 35867, "\u0120privileged": 35267, "monitor": 15028, "\u0120register": 36034, "\u0120bus": 26254, "'.": 108, "\u0120typical": 39207, "\u0120arm": 25285, "\u0120control": 27364, "\u0120devices": 28285, "\u0120mapped": 32843, "\u0120freescale": 30101, "nxp": 15925, "\u0120imx": 31279, "\u0120product": 35311, "\u0120locking": 32611, "\u0120insure": 31643, "\u0120flex": 29881, "lity": 14109, "\u0120soc": 37489, "\u0120related": 36080, "\u0120partition": 34538, "\u0120peripherals": 34677, "tz": 21716, "asc": 4951, "\u0120funny": 30195, "\u0120unwrap": 39569, "\u0120repack": 36194, "\u0120words": 40236, "\u0120leave": 32331, "encaps": 9339, "ulates": 21872, "possible": 17304, "occured": 15994, "parsing": 16754, "yaml": 23397, "alias": 4391, "initialize": 12457, "e0308": 8872, "mismatched": 14919, "18": 1504, "\u0120aren": 25261, "\u0120compatible": 26995, "\u0120noting": 33842, "wrapping": 23110, "\u0120pulling": 35494, "\u0120apart": 25146, "\u0120conversion": 27393, "\u0120branching": 26102, "\u0120equally": 29192, "\u0120sans": 36748, "early": 9038, "\u0120graphical": 30521, "\u0120picture": 34782, "\u0120img": 31187, "\u0120doc": 28605, "iced": 11907, "widget": 22948, "\u0120watch": 39986, "\u0120ge": 30273, "orust": 16422, "geo": 10910, "executor": 9783, "title": 21241, "update": 22144, "img": 12204, "leg": 13727, "png": 17177, "layout": 13620, "cursor": 7714, "\u0120enable": 29031, "\u0120listed": 32539, "\u0120repository": 36242, "stackoverflow": 20171, "\u251c\u2500": 40950, "resources": 18496, "\u2514\u2500": 40945, "ferris": 10164, "container": 7313, "settings": 19450, "center": 6547, "ced": 6519, "\u0120iterator": 31937, "\u0120whose": 40124, "\u0120illustrative": 31168, "\u0120purpose": 35514, "\u0120depends": 28121, "\u0120empty": 29020, "\u0120\u0120\u0120\u0120": 40556, "\u0120ugly": 39236, "\u0120erasure": 29208, "\u0120complains": 27018, "item": 12914, "\u0120originally": 34224, "ig": 12065, "\u0120says": 36780, "\u0120safely": 36710, "\u0120\u0120\u0120\u0120\u0120": 40557, "\u0120explains": 29473, "\u0120mpsc": 33390, "\u0120hashmaps": 30735, "\u0120sync": 38325, "mpsc": 15123, "tx": 21674, "rx": 19005, "worker": 23066, "inner": 12486, "computation": 7172, "sender": 19335, "\u0120channel": 26568, "\u0120tag": 38382, "\u0120outer": 34271, "\u0120sharing": 37142, "\u0120thus": 38691, "\u0120ideal": 31090, "\u0120sender": 37000, "\u0120recommend": 35853, "\u0120language": 32246, "\u0120chapter": 26572, "\u0120concurrency": 27140, "\u0120introduced": 31787, "hashmap": 11448, "retrieved": 18559, "\u0120pseudocode": 35461, "\u0120gets": 30335, "\u0120&": 23921, "prints": 17482, "addr": 4169, "super": 20609, "obviously": 15980, "may": 14650, "even": 9710, "cause": 6438, "access": 4019, "violation": 22630, "getting": 10972, "didn": 8385, "allocate": 4433, "assert": 5013, "eq": 9518, "\u0120parse": 34511, "\u0120integer": 31647, "\u0120interpret": 31741, "\u00e2\u0122\u0142": 23799, "\u0120\u00e2\u0122\u0142": 40517, "\u0120representing": 36251, "\u0120e": 28836, "\u0120architecture": 25248, "\u0120removed": 36160, "\u0120third": 38630, "\u0120undefined": 39312, "\u0120behaviour": 25785, "\u0120whomever": 40122, "\u0120tries": 39030, "\u0120op": 34105, "\u0120asked": 25340, "experimental": 9831, "\u0120purposes": 35517, "12i32": 1319, "matches": 14594, "0x": 805, "transmute": 21453, "\u0120org": 34211, "apache": 4705, "rpc": 18818, "rp": 18814, "xception": 23249, "\u0120communicating": 26963, "\u0120http": 31009, "\u0120sun": 38184, "security": 19262, "validator": 22401, "validatorexception": 22402, "\u0120pkix": 34835, "\u0120building": 26217, "\u0120failed": 29592, "certpath": 6577, "suncertpathbuilderexception": 20606, "\u0120certification": 26518, "\u0120requested": 36271, "transport": 21457, "\u0120dealing": 27868, "\u0120chain": 26546, "\u0120cursory": 27729, "\u0120tie": 38710, "\u0120particular": 34533, "\u0120peer": 34636, "\u0120web": 40019, "\u0120hosting": 30974, "\u0120configurations": 27168, "\u0120requesting": 36274, "\u0120ne": 33608, "vel": 22525, "\u0120men": 33025, "imum": 12272, "\u0120site": 37347, "\u0120asp": 25347, "policy": 17215, "medium": 14711, "system": 20752, "full": 10706, "origin": 16378, "\u0120ssl": 37722, "tls": 21256, "\u0120cloud": 26789, "cloud": 6908, "ibm": 11889, "mq": 15130, "topic": 21339, "oc": 15982, "\u0120mq": 33392, "\u0120receive": 35821, "\u0120ii": 31145, "\u0120downloaded": 28688, "\u0120factory": 29588, "\u0120sslcontext": 37724, "\u0120docker": 28606, "\u0120ibmmq": 31079, "..": 311, "\u0120oracle": 34194, "\u0120..": 24058, "clo": 6880, "sv": 20658, "conn": 7244, "importcert": 12255, "digi": 8410, "root": 18761, "ca": 6258, "mg": 14826, "rc": 18047, "ert": 9604, "pem": 16891, "keystore": 13382, "certificates": 6574, "changeit": 6644, "manager": 14492, "select": 19302, "correct": 7420, "final": 10299, "x509key": 23221, "km": 13442, "managers": 14493, "wrapper": 23108, "socket": 19860, "ad": 4121, "apt": 4797, "needs": 15517, "pass": 16779, "cf": 6595, "remote": 18370, "posed": 17288, "attempting": 5154, "connect": 7246, "local": 14185, "cm": 6931, "yat": 23402, "ish": 12839, "kad": 13284, "am": 4496, "dcom": 7982, "cfg": 6608, "mappings": 14534, "cp": 7471, "samples": 19075, "det": 8288, "iled": 12125, "illegal": 12150, "0018": 481, "removed": 18372, "312": 2026, "check": 6681, "started": 20215, "listener": 14087, "rm": 18693, "961": 3468, "58": 2714, "984": 3502, "768": 3094, "user": 22259, "qr": 17819, "mp": 15098, "pa": 16633, "installation": 12538, "mgr": 14829, "2020": 1658, "t18": 20787, "942": 3443, "arith": 4876, "414": 2326, "comment": 7080, "bad": 5422, "ex": 9735, "pla": 17109, "encountered": 9356, "during": 8787, "handshak": 11405, "ar": 4801, "ded": 8085, "following": 10488, "reasons": 18138, "was": 22802, "formatted": 10546, "incorrectly": 12324, "validated": 22396, "correctly": 7423, "against": 4288, "certification": 6576, "held": 11533, "revocation": 18589, "crl": 7566, "ldap": 13665, "specified": 19985, "ocsp": 16010, "responder": 18503, "indicated": 12357, "rev": 18576, "oked": 16096, "cases": 6411, "its": 12986, "determined": 8303, "causes": 6440, "applies": 4770, "restart": 18516, "indicate": 12356, "configured": 7227, "wrong": 23126, "ensure": 9435, "repository": 18430, "contains": 7319, "necessary": 15507, "cc": 6463, "isa": 12818, "421": 2349, "entries": 9464, "digic": 8411, "er": 9528, "tro": 21530, "fingerprint": 10310, "6b": 2977, "68": 2952, "ec": 9066, "74": 3056, "2e": 1956, "8c": 3362, "71": 3018, "f7": 9953, "39": 2211, "8d": 3363, "b6": 5357, "49": 2483, "d3": 7790, "e1": 8954, "9e": 3548, "a8": 3879, "98": 3496, "3a": 2231, "d6": 7813, "36": 2150, "josh": 13207, "mc": 14666, "withrsa": 23019, "pec": 16868, "\u0120compatibility": 26994, "\u0120ibm": 31078, "\u0120signed": 37261, "\u0120cert": 26507, "genkey": 10903, "keyalg": 13358, "sig": 19620, "alg": 4382, "keysize": 13380, "2048": 1667, "validity": 22404, "3650": 2161, "\u0120tokio": 38812, "\u0120concurrent": 27141, "\u0120parallel": 34462, "\u0120eight": 28915, "\u0120cores": 27444, "\u0120coroutines": 27450, "\u0120top": 38839, "\u0120multithreaded": 33455, "\u0120beginning": 25770, "\u0120counterproductive": 27495, "\u0120ask": 25339, "\u0120myself": 33522, "\u0120multi": 33429, "threaded": 21125, "\u0120customize": 27744, "\u0120worker": 40242, "flavor": 10387, "multi": 15204, "threads": 21129, "\u0120roles": 36550, "\u0120laravel": 32253, "\u0120entrust": 29149, "models": 14986, "role": 18739, "php": 17022, "\u0120assign": 25379, "\u0120role": 36549, "\u0120receiving": 35826, "zizaco": 23570, "entrust": 9467, "class": 6819, "extends": 9879, "display": 8487, "project": 17574, "description": 8251, "given": 11041, "administrator": 4216, "allowed": 4443, "edit": 9125, "company": 7110, "department": 8191, "syntax": 20736, "unexpected": 21990, "expecting": 9822, "\u0120;)": 24425, "\u0120expression": 29518, "x3": 23205, "x4": 23208, "i8": 11849, "blank": 5810, "fixed": 10351, "elements": 9250, "\u0120expressions": 29519, "\u0120respectively": 36349, "\u0120drawing": 28726, "\u0120boards": 25993, "unimplemented": 22014, "4x4": 2551, "\u0120pure": 35507, "\u0120sandbox": 36735, "\u0120willing": 40154, "\u0120untrusted": 39552, "\u0120dom": 28638, "\u0120allowing": 24949, "\u0120acces": 24594, "\u0120functionalities": 30182, "\u0120chrome": 26648, "\u0120possibility": 35017, "\u0120save": 36771, "\u0120deny": 28100, "\u0120ni": 33710, "\u0120proposed": 35402, "\u0120old": 34059, "115": 1240, "690": 2965, "eval": 9697, "log": 14212, "undefined": 21974, "math": 14601, "constructor": 7294, "arguments": 4864, "9999": 3536, "73": 3040, "275": 1880, "395": 2220, "\u0120construction": 27283, "\u0120extract": 29546, "\u0120including": 31314, "\u0120goodies": 30452, "\u0120hat": 30743, "\u0120tip": 38760, "\u0120crow": 27615, "der": 8216, "267": 1857, "80": 3185, "149": 1394, "341": 2105, "\u0120he": 30764, "\u0120exploit": 29487, "\u0120buffering": 26202, "',": 106, "termion": 20971, "terminal": 20963, "asynchronous": 5062, "any": 4690, "exit": 9803, "sleep": 19754, "millis": 14872, "50": 2555, "\u0120push": 35523, "\u0120future": 30211, "\u0120okay": 34054, "satisfied": 19093, "statically": 20238, "known": 13454, "izer": 13041, "ustc": 22287, "e0277": 8865, "\u0120declared": 27919, "\u0120alternatively": 24989, "\u0120construct": 27279, "\u0120constructs": 27287, "\u0120ready": 35755, "\u0120asynchronous": 25434, "\u0120activity": 24687, "test2": 20989, "ready": 18119, "\u0120hexadecimal": 30833, "\u0120rgb": 36481, "\u0120decided": 27902, "\u0120bitwise": 25915, "\u0120operators": 34148, "\u0120hex": 30832, "\u0120resulted": 36390, "\u0120solved": 37516, "\u0120wondering": 40225, "\u0120mistake": 33213, "rgb": 18611, "hex": 11571, "16u8": 1469, "8u8": 3374, "arithmetic": 4877, "overflow": 16567, "shift": 19540, "deny": 8189, "warnings": 22797, "emitted": 9302, "checked": 6684, "shr": 19589, "u16": 21725, "h8": 11348, "\u0120matt": 32920, "\u0120mihir": 33125, "\u0120cache": 26290, "\u0120invalid": 31802, "\u0120executions": 29389, "\u0120component": 27053, "\u0120minimum": 33165, "\u0120captures": 26375, "case": 6407, "\u0120imagine": 31180, "\u0120concurrently": 27142, "\u0120creds": 27580, "\u0120appreciated": 25205, "\u0120ed": 28876, "ification": 12045, "\u0120expensive": 29447, "\u0120cached": 26291, "\u0120expire": 29464, "\u0120felt": 29705, "across": 4085, "chrono": 6743, "date": 7923, "utc": 22299, "creds": 7539, "expires": 9836, "expired": 9835, "cached": 6278, "todo": 21293, "unable": 21930, "concurrent": 7203, "logic": 14223, "periodic": 16924, "ally": 4451, "refresh": 18280, "\u0120solves": 37518, "expression": 9868, "ast": 5049, "lit": 14098, "literal": 14102, "expansion": 9816, "ends": 9386, "incomplete": 12318, "arm": 4886, "call": 6311, "doesn": 8600, "expand": 9811, "\u0120emitting": 28997, "\u0120restructure": 36384, "\u0120generates": 30299, "\u0120variants": 39724, "ident": 11966, "variant": 22445, "\u0120executes": 29384, "\u0120ssh": 37720, "\u0120lower": 32690, "\u0120waits": 39932, "\u0120performing": 34669, "\u0120bad": 25642, "\u0120hosts": 30977, "\u0120simultaneously": 37326, "\u0120sleep": 37398, "\u0120affects": 24822, "\u0120streams": 37919, "\u0120speeds": 37635, "\u012090": 24393, "\u012067": 24354, "\u0120offline": 34040, "clap": 6816, "arg": 4839, "rayon": 18038, "ssh2": 20122, "session": 19423, "tcp": 20895, "addrs": 4176, "sess": 19422, "handshake": 11406, "hosts": 11711, "aa": 3894, "aaa": 3898, "bbbb": 5545, "bbb": 5544, "creating": 7529, "install": 12537, "par": 16701, "\u0120debug": 27885, "\u0120analysis": 25049, "\u0120wastes": 39983, "\u0120profiling": 35326, "\u0120analyzing": 25056, "\u0120dump": 28791, "\u0120wireshark": 40185, "\u012022": 24220, "\u0120convers": 27389, "\u0120tab": 38372, "\u0120speedup": 37636, "\u0120limit": 32495, "\u0120acl": 24655, "\u0120('": 23970, "venue": 22538, "')": 98, "enue": 9474, "\u0120owner": 34366, "\u0120relations": 36086, "venues": 22539, "\u0120tables": 38374, "\u0120en": 29030, "\u0120migration": 33122, "\u0120eloquent": 28966, "migr": 14856, "artisan": 4939, "migration": 14858, "table": 20807, "cre": 7520, "codes": 6994, "schema": 19146, "blueprint": 5851, "increments": 12336, "integer": 12584, "unsigned": 22095, "timestamps": 21217, "ass": 5004, "rel": 18326, "ship": 19548, "fore": 10524, "ign": 12078, "foreign": 10528, "references": 18255, "delete": 8143, "cascade": 6406, "down": 8653, "illuminate": 12157, "database": 7895, "eloquent": 9271, "ven": 22530, "ues": 21821, "belongs": 5650, "roles": 18740, "\u0120gather": 30252, "except": 9753, "\u0120perhaps": 34671, "\u0120companies": 26977, "\u0120apk": 25154, "\u0120installation": 31601, "\u0120jarsigner": 31970, "\u0120sdk": 36885, "\u0120certs": 26525, "\u0120keys": 32141, "\u0120guarantee": 30597, "\u0120degree": 28026, "\u0120rev": 36435, "ate": 5076, "\u0120crl": 27596, "since": 19683, "ouch": 16491, "es": 9614, "\u0120identity": 31104, "\u0120holder": 30911, "od": 16019, "\u0120platform": 34860, "\u0120plan": 34850, "\u0120apps": 25223, "\u0120issued": 31913, "\u0120trusted": 39080, "ities": 12962, "issuers": 12878, "?).": 3691, "\u0120ensure": 29123, "\u0120normal": 33803, "\u0120factor": 29580, "\u0120person": 34708, "\u0120published": 35485, "\u0120publishes": 35488, "\u0120updates": 39584, "\u0120hacks": 30649, "\u0120account": 24622, "\u0120publish": 35484, "\u0120malicious": 32790, "\u0120entire": 29137, "\u0120say": 36778, "factor": 9995, "\u0120authentication": 25517, "\u0120publishing": 35489, "\u0120tuple": 39138, "\u0120hack": 30641, "play": 17139, "/?": 370, "stable": 20166, "gist": 11031, "643": 2882, "469": 2447, "79": 3135, "db": 7938, "\u0120compilation": 27004, "tuple": 21630, "expr": 9861, "ack": 4067, "tt": 21602, "packer": 16646, "step": 20285, "append": 4750, "pack": 16640, "invocation": 12711, "46": 2433, "calling": 6322, "\u0120produce": 35305, "\u0120distinct": 28535, "\u0120tokens": 38808, "\u0120evaluate": 29288, "\u0120declarative": 27917, "\u0120instructions": 31633, "bob": 5871, "gmail": 11093, "jz": 13271, "glfw": 11058, "dependency": 8195, "khronos": 13398, "included": 12309, "getenv": 10943, "generates": 10890, "sing": 19686, "v3": 22360, "ns": 15836, "les": 13771, "\u0120under": 39313, "\u0120exe": 29378, "\u0120vcruntime": 39749, "\u0120rebuild": 35809, "\u0120ideas": 31092, "i686": 11846, "pc": 16831, "windows": 22981, "msvc": 15174, "rustflags": 18958, "clink": 6870, "mt": 15179, "dumpbin": 8767, "dep": 8190, "ent": 9441, "vc": 22465, "140": 1360, "ie": 12008, "unstable": 22100, "crt": 7588, "347": 2118, "\u0120pertains": 34718, "rfcs": 18607, "blob": 5830, "1721": 1475, "md": 14675, "\u0120qr": 35563, "\u0120png": 34908, "\u0120thumb": 38686, "\u0120buffer": 26199, "\u0120?.": 24463, "arg1": 4841, "images": 12181, "render": 18383, "luma": 14369, "dims": 8427, "headers": 11499, "header": 11495, "encoder": 9353, "gray": 11209, "encoding": 9354, "slug": 19786, "photo": 17021, "jpg": 13213, "\u0120encode": 29051, "\u0120piston": 34819, "\u0120requests": 36277, "router": 18796, "\u0120occurs": 34004, "\u0120coming": 26930, "\u0120complain": 27015, "\u0120side": 37231, "\u0120collection": 26892, "\u0120heterogeneous": 30828, "say": 19107, "morph": 15053, "routes": 18797, "second": 19236, "also": 4477, "says": 19108, "\u0120obtain": 33971, "demand": 8167, "\u0120router": 36594, "\u0120bypass": 26271, "\u0120requirements": 36283, "\u0120abused": 24576, "\u0120advantage": 24781, "\u0120rest": 36364, "\u0120boxing": 26087, "rw": 18998, "\u0120coord": 27425, "\u0120winapi": 40158, "winapi": 22969, "um": 21904, "con": 7182, "coord": 7383, "kernel32": 13344, "ffi": 10203, "wincontypes": 22972, "e0432": 8896, "\u0120refer": 35967, "\u0120article": 25318, "0432": 645, "\u0120toml": 38821, "winuser": 23003, "\u0120unpacked": 39465, "\u0120sources": 37569, "\u0120loaded": 32582, "\u0120somewhere": 37535, "\u0120editors": 28888, "\u0120tree": 39001, "\u0120convenient": 27379, "myproject": 15338, "cache": 6276, "vend": 22531, "oring": 16383, "\u0120repositories": 36241, "\u0120f": 29562, "uch": 21782, "ia": 11850, "\u0120mozilla": 33383, "party": 16776, "\u0120supports": 38215, "\u0120dir": 28391, "vendor": 22532, "\u0120querying": 35610, "\u0120online": 34091, "\u0120registry": 36041, "\u0120express": 29513, "\u0120vend": 39771, "\u0120local": 32589, "\u0120filesystem": 29767, "\u0120subsets": 38069, "\u0120replacing": 36219, "\u0120checked": 26604, "\u0120packages": 34386, "\u0120acts": 24691, "alexcrichton": 4379, "\u0120populate": 34976, "\u0120wpf": 40277, "\u0120flavors": 29870, "\u0120consistent": 27251, "\u0120desktop": 28212, "\u0120supposed": 38217, "\u0120xbap": 40342, "\u0120localhost": 32591, "\u0120iis": 31150, "\u0120xp": 40369, "\u0120pro": 35271, "\u0120scenario": 36810, "microsoft": 14843, "\u0120pfx": 34734, "\u0120installed": 31603, "\u0120ie": 31125, "\u0120browser": 26157, "\u0120sell": 36983, "\u0120customer": 27738, "\u0120centralized": 26497, "\u0120deployment": 28125, "assuming": 5046, "\u0120sp": 37571, "\u0120him": 30862, "\u0120xbaps": 40343, "\u0120partial": 34521, "\u0120granted": 30512, "\u0120fulltrust": 30170, "\u0120grant": 30511, "\u0120step": 37857, "caspol": 6414, "ag": 4286, "exclusive": 9766, "\u0120clickonce": 26747, "\u0120engine": 29100, "\u0120deploy": 28122, "\u0120binaries": 25869, "\u0120installer": 31604, "\u0120virtual": 39843, "\u0120manifests": 32820, "\u0120contained": 27306, "\u0120notes": 33827, "\u0120dependency": 28117, "\u0120workstation": 40257, "\u0120inexplicably": 31431, "\u0120invalidated": 31804, "\u0120clear": 26733, "\u0120rund": 36645, "ll": 14130, "\u0120%": 23919, "windir": 22978, "%\\": 91, "df": 8332, "shim": 19545, "\u0120clean": 26725, "online": 16201, "internet": 12636, "\u0120explorer": 29495, "\u0120recreated": 35887, "\u0120dotnet": 28663, "\u0120reinstalled": 36059, "\u0120poor": 34968, "\u0120deployments": 28126, "\u0120steps": 37860, "\u0120front": 30131, "\u0120forms": 30022, "\u0120auth": 25509, "\u0120intranet": 31778, "\u0120proxy": 35451, "\u0120isa": 31890, "\u0120microsoft": 33106, "\u0120authenticate": 25513, "\u0120-->": 24052, "--": 280, ">": 3649, "\u0120select": 36974, "...'": 319, "\u0120scroll": 36876, "\u0120logon": 32633, "automatic": 5225, "\u0120selected": 36975, "\u0120applications": 25195, "\u0120extensions": 29535, "\u0120ex": 29326, ":-": 3572, "\u0120glob": 30404, "glob": 11068, "\u0120extension": 29534, "\u0120detach": 28244, "\u0120detached": 28245, "\u0120session": 37081, "\u0120posix": 35011, "exec": 9770, "\u0120id": 31087, "comm": 7070, "xt": 23361, "\u0120exposing": 29509, "\u0120syscalls": 38359, "\u0120comm": 26931, "setsid": 19444, "fork": 10539, "\u0120libc": 32404, "\u0120exposes": 29508, "warp": 22798, "cors": 7431, "localhost": 14187, "8090": 3214, "methods": 14809, "dash": 7883, "ba": 5388, "ord": 16339, "svc": 20661, "serve": 19400, "filters": 10297, "logged": 14219, "43": 2369, "formatter": 10547, "strings": 20411, "pretty": 17443, "instead": 12555, "originates": 16381, "builds": 6100, "info": 12410, "\u0120passes": 34553, "\u0120follow": 29943, "ged": 10864, "\u0120{}": 40462, "\u0120sequence": 37034, "\u0120param": 34472, "\":": 49, "\u0120understanding": 39333, "\u0120misconception": 33189, "exercises": 9792, "traits": 21422, "s1": 19018, "loganfsmyth": 14217, "\u0120modified": 33288, "\u0120afterwards": 24839, "\u0120clone": 26770, "\u0120replace": 36214, "s2": 19020, "longer": 14246, "usable": 22245, "\u0120evaluates": 29290, "\u0120mutates": 33485, "\u0120needing": 33632, "\u0120canonical": 26350, "\u0120completeness": 27029, "pattern": 16807, "\u0120unwrapped": 39570, "??": 3701, "\u0120alleviate": 24932, "\u0120shadow": 37119, "\u0120qt": 35566, "\u0120gave": 30257, "\u0120shot": 37197, "\u0120bunch": 26238, "\u0120folders": 29936, "\u0120{,": 40459, "\u0120py": 35543, "py": 17754, "official": 16055, "qt5": 17831, "cmake": 6932, "msvc2015": 15175, "kit": 13429, "ech": 9085, "mkdir": 14941, "sublime": 20500, "nin": 15659, "ja": 13058, "qt5core": 17832, "qt5gui": 17833, "qt5widgets": 17835, "prefix": 17405, "normal": 15760, "\u0120containing": 27309, "\u0120namely": 33553, "\u0120heard": 30781, "\u0120deno": 28089, "\u0120built": 26225, "\u0120fast": 29648, "\u0120js": 32045, "\u0120layer": 32291, "\u0120abstraction": 24570, "\u0120jobs": 32025, "\u0120delegated": 28036, "\u0120technologies": 38478, "written": 23124, "++),": 241, "\u0120optimize": 34179, "\u0120squeeze": 37707, "\u0120job": 32024, "\u0120delivers": 28058, "\u0120fit": 29832, "\u0120prototyping": 35427, "\u0120tools": 38836, "\u0120technical": 38473, "\u0120kinds": 32171, "\u0120technology": 38479, "\u0120components": 27055, "\u0120hypothetically": 31072, "\u0120lifecycle": 32460, "\u0120irrelevant": 31886, "\u012099": 24406, "\u0120libs": 32434, "\u0120integration": 31656, "\u0120develop": 28271, "\u0120matters": 32922, "\u0120typescript": 39204, "deno": 8181, "\u0120aside": 25338, "\u0120compare": 26985, "\u0120ran": 35678, "\u0120represents": 36252, "yet": 23422, "\u0120hope": 30948, "\u0120regular": 36048, "\u0120apparently": 25164, "\u0120convenience": 27377, "\u0120corresponding": 27466, "chrismorgan": 6739, "\u0120finding": 29789, "submap": 20504, "abcde": 3941, "boolean": 5904, "\u0120rendering": 36176, "\u0120scene": 36812, "\u0120l": 32214, "wj": 23021, "\u0120zfar": 40430, "\u0120clips": 26758, "\u0120view": 39823, "\u0120distance": 28530, "\u01201000": 24100, "\u0120ignored": 31141, "\u0120500": 24314, "\u0120units": 39408, "\u0120shaders": 37118, "\u0120interesting": 31701, "\u0120clipping": 26756, "\u0120aligned": 24919, "\u0120camera": 26335, "\u0120diagonal": 28313, "\u0120distances": 28531, "\u0120intel": 31659, "\u0120nvidia": 33920, "\u0120card": 26378, "ern": 9574, "\u0120managing": 32803, "\u0120mat": 32891, "ric": 18630, "ies": 12020, "\u0120cap": 26354, "\u0120frustrum": 30145, "\u0120vertex": 39802, "\u0120shader": 37117, "\u0120commenting": 26943, "clip": 6872, "distance": 8494, "\u0120terrain": 38540, "\u0120clipped": 26755, "\u0120axes": 25602, "\u0120water": 39992, "\u0120models": 33276, "\u0120particles": 34532, "aspect": 4998, "ratio": 18026, "scale": 19121, "tan": 20844, "rad": 17956, "ians": 11866, "fov": 10582, "far": 10036, "plane": 17127, "near": 15497, "matrix4f": 14621, "m32": 14417, "uniform": 22009, "mat4": 14587, "transformation": 21437, "light": 14005, "fo": 10472, "ensity": 9432, "gradient": 11181, "vec4": 22488, "vec2": 22483, "coords": 7388, "surface": 20640, "visibility": 22644, "frag": 10605, "pos": 17283, "dot": 8633, "cam": 6332, "xyz": 23382, "inverse": 12703, "exp": 9808, "pow": 17325, "clamp": 6813, "\u0120everyone": 29308, "\u0120realized": 35764, "\u0120fault": 29657, "\u0120sky": 37380, "\u0120renders": 36177, "\u0120property": 35394, "parent": 16726, "third": 21098, "e0106": 8845, "missing": 14924, "specifier": 19986, "ame": 4510, "te": 20904, "parameter": 16714, "\u0120counted": 27490, "owners": 16600, "\u0120cloning": 26774, "\u0120affect": 24817, "\u0120encountered": 29061, "\u0120direct": 28393, "\u0120entry": 29150, "\u0120rid": 36491, "\u0120rustfmt": 36673, "\u0120assumes": 25407, "\u0120indentation": 31369, "three": 21131, "captures": 6383, "group": 11241, "replace": 18412, "range": 17998, "\u0120carriage": 26394, "\u0120horizontal": 30960, "\u0120whitespace": 40113, "\u0120optionally": 34189, "\u0120spaces": 37575, "\u0120tabs": 38375, "\u0120enabling": 29034, "\u0120thereby": 38608, "\u0120surrounded": 38245, "\u0120blank": 25935, "\u0120trimmed": 39039, "\u0120substitution": 38084, "fight": 10249, "\u0120exercises": 29401, "\u0120ended": 29076, "\u0120messy": 33066, "\u0120relatively": 36090, "\u0120slicing": 37407, "\u0120concatenation": 27108, "\u0120complexity": 27037, "proper": 17602, "\u0120simplified": 37310, "\u0120brackets": 26096, "quick": 17879, "brown": 6019, "fox": 10584, "jumps": 13253, "over": 16565, "ss": 20116, "sc": 19116, "searching": 19222, "\u0120occurence": 33996, "\u0120substring": 38090, "\u0120intermediate": 31718, "\u0120utf": 39666, "\u0120imply": 31247, "\u0120presence": 35175, "\u0120combining": 26924, "\u0120unicode": 39375, "\u0120ascii": 25332, "\u0120indices": 31397, "skip": 19737, "\u0120cfg": 26536, "\u0120importing": 31254, "cfgtools": 6610, "unknown": 22043, "macos": 14436, "ios": 12744, "linux": 14063, "bsd": 6030, "drag": 8682, "fly": 10437, "netbsd": 15562, "compiling": 7133, "reco": 18174, "v0": 22349, "ses": 19421, "sho": 19558, "e0463": 8901, "\u0120confusion": 27200, "\u0120kept": 32122, "\u0120separately": 37020, "declare": 8054, "visible": 22645, "wildcard": 22958, "imports": 12261, "aren": 4831, "recommended": 18180, "confusing": 7239, "actually": 4119, "come": 7065, "outside": 16559, "\u0120nodes": 33761, "\u0120weak": 40007, "\u0120yields": 40405, "\u0120borrowed": 26051, "\u0120content": 27315, "\u0120track": 38887, "weak": 22843, "nodes": 15713, "network": 15569, "downgrade": 8655, "node1": 15706, "node2": 15707, "senders": 19336, "\u0120consume": 27295, "\u0120introduce": 31786, "upgrade": 22153, "\u0120achieves": 24647, "others": 16473, "tmp": 21270, "<&": 3604, ">:": 3662, "\u0120twice": 39170, "\u0120nice": 33712, "moved": 15084, "copyable": 7396, "\u0120consuming": 27300, "\u0120allowed": 24947, "\u0120copies": 27434, "\u0120aliases": 24914, "\u0120disallows": 28424, "safety": 19044, "\u0120item": 31924, "\u0120embedded": 28979, "\u0120qualifiers": 35583, "\u0120prompted": 35374, "\u0120commented": 26940, "\u0120reborrow": 35805, "\u0120mind": 33143, "bending": 5662, "\u0120\u00e2\u0122\u0136": 40509, "\u0120avoids": 25578, "\u0120db": 27845, "0599": 677, "]:": 3750, "oracle": 16324, "pwd": 17741, "194": 1548, "253": 1820, "sql": 20070, "anag": 4548, "ditmat": 8506, "fvl": 10767, "rows": 18812, "query": 17863, "ko": 13457, "cont": 7308, "dit": 8504, "row": 18805, "ession": 9646, "\u0120powerful": 35047, "c4b": 6221, "connecting": 7248, "\u0120wraps": 40287, "\u0120bellow": 25800, "\u0120learned": 32325, "\u0120strings": 37940, "\u0120primitives": 35235, "\u0120encounter": 29060, "\u0120inefficient": 31419, "\u0120trivially": 39052, "\u0120disk": 28495, "\u0120turn": 39145, "\u0120element": 28935, "writer": 23118, "encodable": 9350, "\u0120arbitrary": 25239, "\u0120strategy": 37908, "\u0120strategies": 37907, "\u0120conversions": 27394, "\u0120hast": 30742, "ily": 12172, "\u0120serializing": 37056, "\u0120naturally": 33587, "\u0120deserialize": 28186, "\u0120restrict": 36377, "\u0120semantic": 36987, "\u0120plain": 34848, "sendable": 19334, "\u0120tasks": 38430, "\u0120exclude": 29368, "itners": 12977, "\u0120mechanism": 32985, "\u0120intelligent": 31662, "\u0120mere": 33041, "\u0120deserialized": 28187, "\u0120paired": 34420, "des": 8236, "cribes": 7550, "\u0120reliably": 36105, "\u0120attribute": 25486, "\u0120;": 24424, "again": 4287, "\u0120automatic": 25548, "\u0120decoder": 27925, "\u0120transforms": 38936, "\u0120encoding": 29056, "\u0120decoding": 27928, "\u0120somewhat": 37534, "\u0120asymmetric": 25425, "\u0120performed": 34668, "\u0120process": 35296, "\u0120unnecessary": 39453, "\u0120encoders": 29054, "\u0120formats": 30013, "\u0120suit": 38163, "dump": 8766, "decodable": 8062, "al": 4360, "lfun": 13812, "\u0120mod": 33268, "fun": 10716, "allfun": 4426, "pull": 17701, "\u0120projects": 35358, "\u0120replies": 36228, "\u0120doubts": 28673, "\u0120half": 30657, "way": 22820, "\u0120outputs": 34289, "\u0120doubt": 28671, "\u0120googling": 30458, "\u0120posts": 35037, "\u0120forum": 30036, "cpp": 7478, "\u0120indifferent": 31399, "\u0120older": 34060, "\u0120d": 27772, "ull": 21888, "\u0120advance": 24777, "\u0120talonmies": 38401, "compact": 7107, "xc": 23247, "yc": 23407, "zc": 23525, "\u0120recent": 35827, "\u0120former": 30019, "\u0120nvcc": 33917, "\u0120latter": 32275, "\u0120char": 26574, "\u0120*": 24023, "\u0120breaking": 26115, "\u0120whenever": 40090, "\u0120chars": 26582, "\u0120comparator": 26983, "\u0120};": 40476, "\u0120uncertain": 39283, "\u0120straightforward": 37899, "arr": 4906, "tos": 21355, "\u0120o": 33932, "cur": 7688, "\u0120compilable": 27003, "o1": 15933, "o2": 15934, "compare": 7114, "dst": 8731, "detail": 8291, "tag": 20817, "indirect": 12364, "ordering": 16343, "blocked": 5834, "gk": 11048, "104": 1168, "signal": 19631, "193": 1547, "144": 1381, "blocks": 5838, "typedef": 21699, "0x0": 806, "had": 11364, "column": 7051, "strlen": 20419, "our": 16514, "original": 16379, "sorted": 19928, "reduce": 18226, "zy": 23666, "xw": 23371, "abcd": 3940, "defg": 8111, "wer": 22887, "asd": 4959, "de": 8001, "urt": 22238, "nt": 15850, "bf": 5690, "\u0120numerical": 33905, "\u0120unchanged": 39285, "bo": 5865, "gus": 11307, "\u0120adjust": 24746, "\u0120presumably": 35197, "\u0120starting": 37801, "\u0120uid": 39239, "funcs": 10726, "posix": 17300, "88": 3323, "unistd": 22028, "setuid": 19454, "\u0120unstable": 39528, "\u0120meaning": 32962, "\u0120disappear": 28429, "\u0120warning": 39963, "\u0120secondly": 36912, "websocket": 22864, "\u0120chat": 26589, "room": 18759, "websockets": 22865, "\u0120decent": 27896, "\u0120communicate": 26961, "\u0120sends": 37003, "\u0120problematic": 35283, "\u0120cross": 27605, "\u0120communication": 26964, "cyderize": 7759, "examples": 9746, "\u0120websockets": 40046, "\u0120approaching": 25211, "\u0120sending": 37002, "\u0120broadcast": 26142, "clients": 6867, "channels": 6650, "\u0120straight": 37898, "forward": 10565, "\u0120dispatcher": 28503, "\u0120act": 24666, "\u0120clients": 26751, "\u0120receives": 35825, "\u0120sent": 37012, "\u0120distrib": 28547, "utes": 22304, "blocking": 5835, "\u0120permanent": 34681, "\u0120checks": 26611, "\u0120websocket": 40045, "pastebin": 16792, "wl": 23023, "rh": 18620, "protocol": 17623, "dispatcher": 8483, "validate": 22395, "accept": 4011, "form": 10542, "protocols": 17624, "want": 22785, "ip": 12752, "peer": 16887, "connected": 7247, "split": 20030, "incoming": 12315, "messages": 14786, "opcode": 16244, "disconnected": 8467, "ping": 17059, "pong": 17240, "payload": 16814, "invalid": 12692, "utf": 22305, "sequence": 19370, "\u0120specifying": 37624, "\u0120reached": 35733, "\u0120poking": 34931, "\u0120cre": 27565, "vice": 22599, "\u0120hoping": 30954, "named": 15422, "e0310": 8874, "adding": 4158, "\u0120unfamiliar": 39356, "\u0120picked": 34772, "\u0120interior": 31711, "\u0120treemap": 39005, "\u0120dry": 28761, "en1": 9327, "val1": 22383, "val2": 22384, "val3": 22385, "fn1": 10454, "iterate": 12932, "\u0120plus": 34904, "\u0120enumerations": 29160, "playpen": 17147, "\u0120shortest": 37192, "currently": 7707, "flux": 10436, "symbolic": 20710, "names": 15424, "stringify": 20409, "cloned": 6892, "highlighting": 11602, "\u0120saml": 36725, "\u0120adfs": 24738, "\u0120ws": 40310, "\u0120service": 37073, "#.": 69, "\u0120popular": 34975, "least": 13699, "privile": 17493, "ge": 10859, "2012": 1648, "wcf": 22834, "external": 9887, "authentication": 5203, "ws": 23130, "\u0120username": 39654, "wstrustbinding": 23159, "msdn": 15151, "library": 13923, "jj": 13158, "157": 1416, "091": 725, "aspx": 5002, "\u0120jump": 32072, "identitymodel": 11977, "\u0120namespace": 33555, "\u0120experimenting": 29458, "\u0120variety": 39731, "\u0120malformed": 32788, ".\".": 298, "\u0120turned": 39146, "\u0120wcf": 40003, "\u0120logging": 32625, "\u0120determined": 28261, "\u0120reviewing": 36453, "\u0120fs": 30149, "\u0120events": 29301, "\u0120indication": 31392, "\u0120farm": 29640, "\u0120mine": 33146, "\u0120diagnose": 28308, "social": 19857, "forums": 10564, "ev": 9695, "505": 2571, "481": 2472, "541": 2636, "\u0120wif": 40140, "\u0120tracing": 38886, ":\\": 3590, "active": 4102, "\u0120federation": 29690, "\u0120services": 37077, "servicehost": 19413, "\u0120trace": 38881, "\u0120listeners": 32543, "logs": 14235, "\u0120refine": 35987, "\u0120auditing": 25500, "\u0120viewed": 39824, "vct": 22471, "viewer": 22616, "%/": 87, "\u0120sdks": 36886, "fx": 10775, "\u0120notion": 33843, "technet": 20914, "adfs": 4193, "troubleshooting": 21539, "configuring": 7228, "comput": 7171, "ers": 9599, "\u0120production": 35312, "diagnostics": 8366, "trace": 21395, "\u0120count": 27489, "\u0120filtered": 29775, "\u0120vowels": 39899, "\u0120letter": 32374, "\u0120repeats": 36203, "around": 4903, "ahead": 4321, "ab": 3923, "pq": 17352, "xy": 23379, "yy": 23503, "regexp": 18294, "rule": 18894, "whitespace": 22931, "goes": 11117, "\u0120documented": 28620, "\u0120backreferences": 25628, "\u0120rule": 36638, "\u0120lists": 32548, "\u0120repetition": 36206, "\u0120limiting": 32499, "\u0120practical": 35056, "\u0120fancier": 29633, "fancy": 10034, "corpus": 7417, "cw": 7739, "foobar": 10501, "quux": 17899, "blacklist": 5802, "vowels": 22703, "aeiou": 4254, "repeated": 18404, "letter": 13787, "ch": 6624, "\u0120planning": 34856, "\u0120vbos": 39745, "\u0120tiles": 38723, "\u0120vertices": 39805, "\u0120vbo": 39744, "\u0120culling": 27698, "\u0120maths": 32915, "\u0120di": 28303, "ablo": 3963, "wherever": 22919, "tric": 21504, "\u0120fixed": 29838, "\u0120geometry": 30323, "\u0120quad": 35568, "\u0120visible": 39853, "\u0120graphics": 30523, "\u0120affecting": 24820, "\u0120pixel": 34827, "rate": 18020, "\u0120ro": 36533, "cks": 6805, "\u0120houses": 30988, "\u0120anyways": 25138, "\u0120aim": 24875, "\u0120streaming": 37917, "\u0120huge": 31029, "\u0120seamless": 36893, "\u0120chunks": 26658, "\u0120against": 24842, "\u0120bounding": 26078, "\u0120simplest": 37306, "\u0120games": 30236, "\u0120drive": 28738, "\u0120designs": 28206, "\u0120effects": 28902, "\u0120instanced": 31610, "\u0120particle": 34531, "\u0120systems": 38366, "\u0120optimization": 34177, "\u0120worthy": 40269, "\u0120optimizations": 34178, "\u0120enter": 29131, "\u0120invokes": 31844, "\u0120therefor": 38609, "\u0120jonas": 32036, "enter": 9443, "\u0120disclaimer": 28449, "\u0120newbie": 33689, "\u0120played": 34868, "\u0120weeks": 40056, "\u0120effectively": 28901, "lived": 14112, "efficient": 9188, "who": 22935, "\u0120cares": 26386, "...?": 328, "?)": 3689, "\u0120everywhere": 29311, "levans": 13792, "\u0120counterintuitive": 27492, "\u0120fashion": 29646, "\u0120true": 39065, "\u0120destroyed": 28223, "\u0120freed": 30095, "\u0120response": 36357, "\u0120party": 34547, "\u0120varies": 39729, "\u0120constant": 27264, "\u0120hmac": 30895, "aken": 4353, "\u0120safer": 36711, "\u0120varying": 39736, "\u0120matter": 32921, "hmac": 11646, "\u0120designed": 28202, "\u0120among": 25016, "\u0120others": 34255, "\u0120integrate": 31652, "\u0120phantom": 34740, "\u0120scraping": 36858, "\u0120de": 27859, "vm": 22669, "ach": 4055, "ine": 12378, "\u0120examined": 29337, "\u0120unrestricted": 39497, "\u0120denied": 28087, "componentmodel": 7156, "80004005": 3192, "\u0120strength": 37920, "tracker": 21401, "controllers": 7349, "controller": 7348, "\u0120reside": 36319, "\u0120\"\\": 23907, "bla": 5797, "\u0120restrictions": 36381, "scrape": 19177, "redirect": 18219, "shell": 19533, "phantom": 16998, "ising": 12842, "pipe": 17067, "received": 18154, "20000": 1626, "cancel": 6342, "catch": 6428, "kb": 13314, "317": 2034, "pg": 16992, "\u0120belongs": 25803, "\u0120group": 30572, "\u0120buckets": 26194, "\u0120fold": 29933, "\u0120rayon": 35716, "fold": 10479, "m1": 14407, "m2": 14411, "m3": 14416, "acc": 4003, "parallel": 16706, "implementations": 12238, "\u0120similarly": 37299, "\u0120breaks": 26118, "\u0120hence": 30812, "\u0120yielding": 40404, "\u0120sum": 38170, "\u0120sums": 38183, "\u0120nondeterministic": 33778, "\u0120otoh": 34257, "\u0120iterating": 31932, "\u0120items": 31925, "\u0120choice": 26632, "vs": 22717, "\u0120rustlang": 36675, "\u0120pipe": 34809, "\u0120knows": 32198, "\u0120sink": 37340, "\u0120introducing": 31789, "sink": 19694, "\u0120shall": 37125, "\u0120thinking": 38627, "\u0120outlives": 34283, "\u0120mix": 33235, "sure": 20636, "themselves": 21061, "\u0120university": 39417, "\u0120homework": 30928, "\u0120task": 38426, "\u0120variant": 39723, "union": 22020, "\u0120faced": 29570, "\u0120union": 39401, "\u0120understood": 39335, "theatre": 21051, "director": 8443, "price": 17456, "i64": 11845, "childish": 6711, "adultish": 4231, "musical": 15239, "child": 6706, "ultish": 21899, "mus": 15236, "ical": 11894, "subtype": 20548, "ta": 20804, "piece": 17048, "ram": 17979, "ma": 14422, "dy": 8813, "composer": 7161, "country": 7451, "i16": 11833, "e0658": 8946, "unions": 22021, "fields": 10242, "issue": 12873, "55": 2649, "e07": 8947, "contain": 7311, "need": 15512, "dropping": 8713, "manually": 14513, "\u0120unions": 39402, "\u0120verbatim": 39777, "\u0120low": 32689, "\u0120intrinsically": 31783, "\u0120sudoku": 38141, "\u0120solver": 37517, "\u0120verbosity": 39780, "\u0120seemed": 36953, "\u0120enforce": 29094, "stdio": 20263, "dog": 8603, "bark": 5477, "\u0120#": 23913, "6268": 2850, "\u0120evaluated": 29289, "\u0120thinks": 38628, "\u0120aliasing": 24915, "\u0120illegal": 31155, "fortran": 10559, "\u0120matlab": 32916, "octave": 16012, "\u0120julia": 32068, "\u0120dimensionality": 28384, "arr1": 4907, "5555": 2662, "e0282": 8868, "infer": 12393, "macros": 14440, "annotations": 4651, "generic": 10896, "\u0120infer": 31440, "\u0120explained": 29471, "\u0120`": 24507, "\u0120binding": 25876, "\u0120_": 24503, "\u0120nevertheless": 33686, "ouse": 16523, "\u0120supposedly": 38218, "\u0120expecting": 29443, "\u0120outcome": 34268, "\u0120freedom": 30096, "\u0120numbers": 33899, "\u0120alike": 24925, "\u0120loose": 32665, "\u0120ambiguity": 25004, "\u0120demonstration": 28079, "magic": 14448, "deadbeef": 8011, "land": 13545, "0x1234": 899, "sum1": 20591, "infers": 12396, "sum2": 20592, "accumulator": 4044, "\u0120suggested": 38158, "\u0120parametrize": 34486, "\u0120glance": 30380, "\u0120badly": 25644, "ating": 5105, "\u0120hints": 30874, "\u0120ufcs": 39231, "randomly": 17992, "\u0120designation": 28199, "\u0120referencing": 35975, "\u0120hopping": 30956, "\u0120admit": 24760, "edly": 9134, "binop": 5756, "addx": 4184, "\u0120unboxed": 39279, "\u0120active": 24680, "\u0120conveniences": 27378, "\u0120instances": 31611, "\u0120ones": 34086, "\u0120generically": 30305, "unboxed": 21948, "closures": 6905, "sugar": 20576, "overloaded": 16579, "bearing": 5601, "\u0120\u00e2\u0122\u00a6": 40505, "\u0120hmm": 30897, "failure": 10014, "hit": 11631, "bug": 6085, "appreciate": 4775, "report": 18423, "complement": 7137, "assertion": 5015, "chris": 6737, "librustc": 13929, "trans": 21427, "callee": 6317, "528": 2614, "\u0120legal": 32345, "\u0120panics": 34447, "\u0120owns": 34371, "\u0120closest": 26780, "\u0120pull": 35492, "\u0120rely": 36125, "\u0120readable": 35743, "\u0120wouldn": 40271, "single": 19689, "bail": 5435, "\u0120gtk": 30591, "gtk": 11271, "timeout": 21203, "toplevel": 21344, "changed": 6643, "continue": 7333, "e0495": 8904, "appropriate": 4778, "conflicting": 7234, "requirements": 18457, "outlive": 16551, "ending": 9377, "assignable": 5025, "meet": 14714, "bounds": 5947, "\u0120hidden": 30841, "\u0120names": 33554, "\u0120unambiguously": 39259, "\u0120independent": 31376, "probably": 17505, "\u0120myst": 33527, "ified": 12047, "\u0120formally": 30011, "\u0120forever": 29992, "\u0120timeout": 38731, "\u0120wrapper": 40284, "\u0120welcomed": 40069, "rd": 18062, "\u0120day": 27841, "\u0120exploring": 29496, "zmq": 23580, "lid": 13981, "resp": 18497, "messa": 14782, "ger": 10927, "fut": 10747, "dur": 8785, "\u0120k": 32089, "\u0120segmentation": 36965, "\u0120r": 35648, "stdlib": 20265, "execution": 9780, "functor": 10735, "\u0120dispatch": 28500, "ptx": 17682, "=-": 3631, "\u0120occup": 33988, "\u0120calculator": 26311, "\u0120ptx": 35475, "\u0120counting": 27497, "\u0120total": 38856, "!)": 14, "\u0120occupancy": 33989, "\u0120rounding": 36589, "\u0120ptxas": 35476, "\u0120granularity": 30516, "\u0120greg": 30550, "\u0120granular": 30515, "\u0120max": 32928, "\u0120threadblocks": 38655, "\u0120sm": 37433, "usage": 22246, "\u0120exceeding": 29346, "\u0120blocks": 25966, "\u0120accuracy": 24636, "\u0120asking": 25342, "\u0120directed": 28394, "\u0120gpus": 30487, "\u0120cr": 27538, "isp": 12865, "\u0120fundamentally": 30190, "\u0120incorrect": 31342, "\u0120figures": 29750, "\u0120metrics": 33085, "\u0120launch": 32277, "\u0120completes": 27030, "\u0120releases": 36098, "registers": 18304, "\u0120plenty": 34885, "\u0120documents": 28623, "\u0120screenshots": 36865, "\u0120claims": 26696, "\u0120accepting": 24591, "\u0120screen": 36863, "choose": 6730, "\u0120assertion": 25368, "\u0120navigation": 33597, "\u0120high": 30850, "\u0120licensing": 32453, "\u01202016": 24203, "\u0120edition": 28883, "\u0120upwards": 39617, "\u0120helping": 30810, "\u0120friend": 30119, "\u0120study": 37989, "\u0120diameter": 28321, "\u0120upper": 39601, "gex": 10978, "\u0120coords": 27429, "\u0120con": 27100, "\u0120sizes": 37362, "wiki": 22955, "unity": 22035, "procedural": 17518, "primitives": 17465, "\u0120mesh": 33052, "\u0120plane": 34851, "\u0120dynamically": 28832, "\u0120sides": 37235, "\u0120positions": 35007, "\u0120radius": 35664, "\u0120recreate": 35886, "\u0120triangles": 39018, "dynamic": 8820, "mono": 15030, "behaviour": 5639, "mesh": 14777, "collider": 7032, "radius": 17962, "25": 1814, "nb": 15461, "sides": 19611, "pi": 17030, "mathf": 14604, "vector3": 22504, "wake": 22769, "component": 7155, "mr": 15133, "material": 14599, "shader": 19499, "rec": 18147, "editor": 9130, "playing": 17146, "endif": 9376, "cap": 6363, "endregion": 9385, "triangle": 21497, "triangles": 21498, "tri": 21493, "ulate": 21870, "ang": 4610, "ents": 9472, "\u0120structuring": 37967, "\u0120thrown": 38678, "\u0120hacky": 30650, "\u0120gdb": 30269, "despite": 8271, "\u0120clarity": 26708, "\u0120mocked": 33264, "\u0120bin": 25868, "\u0120whats": 40085, "blah": 5804, "blabla": 5799, "stack": 20167, "0x46": 953, "rt": 18861, "imp": 12224, "fe": 10114, "294": 1923, "867": 3307, "pre": 17364, "0x44": 952, "d8": 7825, "unwind": 22125, "h0": 11325, "451": 2415, "h2": 11333, "145": 1384, "fb9": 10062, "0x4": 941, "a75": 3876, "h3": 11336, "bb": 5532, "279": 1887, "e9a": 9017, "504": 2570, "a76": 3877, "he": 11491, "5c": 2759, "809": 3213, "h5": 11344, "370": 2170, "0f0": 764, "fb": 10058, "f3": 9930, "cfa": 6602, "c1": 6181, "baf": 5430, "544": 2640, "rb": 18041, "0x40": 942, "b0": 5312, "270": 1871, "329": 2066, "cf4": 6599, "faa": 9976, "862": 3296, "c0": 6170, "17a": 1491, "166": 1451, "ow": 16593, "04": 634, "72": 3029, "ci": 6752, "pe": 16861, "h90": 11351, "473": 2456, "132": 1331, "f89": 9960, "co": 6969, "32e0": 2069, "0x7ff": 1033, "547": 2643, "\u0120breakpoint": 26116, "\u0120somestruct": 37526, "\u0120unknown": 39421, "destroy": 8277, "\u0120opaque": 34106, "\u0120ffi": 29721, "\u0120impossible": 31262, "\u0120boring": 26045, "hy": 11815, "phy": 17026, "callback": 6313, "aliases": 4393, "e0404": 8890, "tea": 20905, "\u0120transfer": 38924, "\u0120potentially": 35041, "\u0120gut": 30627, "\u0120feeling": 29698, "\u0120educational": 28895, "recipient": 18169, "\u0120neither": 33662, "\u0120moves": 33380, "\u0120dig": 28364, "\u0120pushing": 35527, "\u0120popping": 34973, "\u0120drain": 28711, "\u0120silly": 37288, "\u0120transferring": 38928, "\u0120collections": 26893, "\u0120precise": 35089, "\u0120layout": 32296, "\u0120specialized": 37608, "card": 6389, "e0425": 8895, "drain": 8685, "\u0120monadic": 33312, "\u0120tightly": 38717, "\u0120coupled": 27503, "\u0120operating": 34143, "licative": 13971, "haskell": 11454, "lift": 14000, "\u0120shorter": 37191, "\u0120beware": 25840, "\u0120possibly": 35020, "\u0120moreover": 33350, "\u0120cumbersome": 27705, "oa": 15936, "ob": 15942, "\u0120independently": 31377, "\u0120frontend": 30132, "\u0120yells": 40396, "\u0120wether": 40077, "\u0120flipped": 29890, "\u0120letters": 32375, "\u0120instant": 31613, "\u0120exchanged": 29363, "\u0120variations": 39726, "\u0120hyphen": 31066, "\u0120alternative": 24988, "\u0120effect": 28899, "\u0120stupid": 38002, "\u0120overflow": 34311, "\u0120days": 27843, "\u0120dare": 27798, "\u0120^^": 24489, "myapp": 15285, "backend": 5405, "\u0120executables": 29381, "\u0120lucene": 32714, "\u0120medium": 32993, "\u0120godaddy": 30438, "\u0120posted": 35024, "\u0120recommended": 35856, "\u0120quote": 35644, "\u0120email": 28974, "iirc": 12108, "\u0120overload": 34327, "\u0120flushed": 29909, "archive": 4821, "ange": 4611, "xu": 23364, "jy": 13270, "fw": 10768, "mh": 14830, "nd": 15483, "mk": 14940, "gnu": 11105, "cs": 7606, "throw": 21139, "\u0120commits": 26950, "\u0120788": 24371, "092": 726, "\u0120went": 40071, "\u0120verify": 39787, "\u0120history": 30883, "\u0120favorite": 29667, "\u0120subversion": 38114, "\u0120struggled": 37970, "\u0120pulled": 35493, "81": 3218, "\u0120verifies": 39786, "\u0120unmanaged": 39437, "\u0120rebuilt": 35812, "\u0120locally": 32597, "\u0120deployed": 28123, "\u0120implications": 31239, "\u0120appear": 25172, "\u0120precedes": 35084, "ync": 23456, "zero": 23538, "\u0120mqtt": 33393, "\u0120codec": 26840, "\u0120reexported": 35955, "\u0120relevant": 36101, "util": 22310, "codec": 6983, "framed": 10612, "mqtt": 15131, "v5": 22365, "packet": 16647, "e0599": 8930, "perhaps": 16920, "warning": 22796, "\u0120incompatibilities": 31324, "\u0120causing": 26451, "obvious": 15979, "\u0120roll": 36551, "\u0120additionally": 24722, "\u0120nic": 33711, "\u0120emulator": 29029, "qemu": 17798, "\u012032": 24268, "bits": 5784, "\u0120descriptor": 28176, "\u0120addresses": 24730, "\u0120struggling": 37972, "\u0120mask": 32875, "\u0120shift": 37160, "\u0120halves": 30663, "\u0120descriptors": 28177, "\u0120hardware": 30714, "repr": 18431, "e1000": 8956, "desc": 8238, "checksum": 6692, "special": 19975, "cmd": 6935, "base": 5487, "register": 18300, "lo": 14173, "ffffffff": 10199, "0xffff": 1109, "x1": 23197, "x2": 23202, "isize": 12846, "\u0120approaches": 25210, "\u0120arithmetics": 25281, "\u0120initialize": 31509, "state1": 20226, "state2": 20227, "owned": 16598, "won": 23044, "caller": 6318, "automate": 5224, "feed": 10139, "aut": 5194, "omate": 16142, "oriented": 16374, "templates": 20941, "param": 16710, "\u0120implmented": 31245, "\u0120treating": 38997, "\u0120superclass": 38187, "\u0120graph": 30517, "\u0120consisting": 27253, "wise": 23012, "\u0120conceptually": 27121, "\u0120cycles": 27763, "\u0120arena": 25262, "\u0120lets": 32373, "\u0120remaining": 36131, "allocated": 4434, "\u0120semantically": 36988, "edges": 9123, "lots": 14284, "arena": 4832, "\u0120never": 33685, "\u0120invalidate": 31803, "\u012064": 24343, "\u0120platforms": 34861, "\u0120shave": 37144, "\u0120suffer": 38143, "\u0120inability": 31281, "\u0120graphs": 30526, "\u0120periodically": 34674, "\u0120unused": 39557, "\u0120akin": 24887, "\u0120collector": 26894, "\u0120progressing": 35344, "\u0120brought": 26153, "\u0120paste": 34561, "\u0120prompt": 35373, "drive": 8697, "separat": 19356, "walk": 22776, "volume": 22692, "incorrect": 12323, "123": 1271, "pathbuf": 16802, "\u0120replaces": 36218, "\u0120prefixes": 35142, "\u0120\\": 24484, "share": 19522, "\u0120misunderstanding": 33221, "\u0120unix": 39418, "\u0120specification": 37615, "\u0120sorting": 37553, "ls": 14316, "\u0120random": 35680, "\u0120walk": 39940, "petgraph": 16976, "wal": 22773, "ker": 13338, "direction": 8438, "determin": 8301, "istic": 12889, "neighbors": 15532, "exists": 9802, "candidate": 6349, "\u0120quiet": 35631, "\u0120recursive": 35903, "\u0120derive": 28155, "children": 6712, "e0204": 8853, "\u0120afraid": 24833, "\u0120initializers": 31513, "\u0120bytewise": 26282, "\u0120constructing": 27282, "\u0120constructor": 27285, "\u0120processed": 35297, "\u0120invocation": 31840, "\u0120perfect": 34662, "\u0120temporarily": 38502, "basically": 5504, "outputs": 16556, "trentcl": 21491, "\u0120proc": 35285, "\u0120macros": 32745, "\u0120sd": 36883, "\u0120parsed": 34513, "\u0120parses": 34517, "\u0120ast": 25414, "\u0120repo": 36232, "\u0120helpful": 30807, "macro2": 14439, "anything": 4694, "330": 2074, "336": 2090, "337": 2091, "340": 2101, "punct": 17706, "alone": 4457, "syn": 20719, "pickle": 17040, "\u0120wiki": 40145, "\u0120suggests": 38162, "\u0120trustedpickle": 39085, "\u0120protection": 35416, "\u0120pickle": 34775, "\u0120author": 25521, "ised": 12832, "\u0120instructed": 31630, "\u0120iin": 31148, "python": 17774, "packages": 16643, "\u0120opened": 34115, "\u0120142": 24150, "\u0120column": 26911, "\u0120download": 28686, "sourceforge": 19943, "projects": 17582, "\u0120trailing": 38903, "\")": 34, "\u0120covers": 27518, "\u0120modifications": 33287, "y1": 23388, "y2": 23389, "\u0120sts": 37975, "\u0120unexpected": 39352, "\u0120occured": 33995, "\u0120em": 28972, "selector": 19310, "him": 11614, "()...": 149, "\u0120extremely": 29557, "\u0120dep": 28103, "ract": 17954, "\u0120years": 40392, "\u0120sc": 36784, "credentials": 7536, "interactive": 12609, "\u0120false": 29621, "\u0120flavours": 29871, "\u0120nhibernate": 33709, "\u0120generator": 30302, "\u0120recieve": 35830, "\u0120assembly": 25361, "proxy": 17639, "assembly": 5012, "\u0120th": 38576, "\u0120dlls": 28587, "\u0120prior": 35252, "\u0120pay": 34588, "\u0120attention": 25477, "\u0120loading": 32585, "\u0120blog": 25967, "\u0120outlines": 34280, "\u0120reflection": 35994, "\u0120ner": 33665, "fed": 10135, "though": 21116, "\u0120physically": 34767, "\u0120honest": 30934, "\u0120opt": 34161, "\u0120offered": 34032, "\u0120removes": 36161, "\u0120cheap": 26592, "\u0120nasty": 33578, "\u0120dedicated": 27966, "\u0120disposal": 28516, "\u0120pain": 34412, "\u0120chime": 26625, "\u0120mentioning": 33032, "\u0120answered": 25115, "\u0120forums": 30037, "forum": 10563, "hibernate": 11585, "\u0120expand": 29432, "\u0120reaches": 35734, "\u0120nearest": 33611, "\u0120computed": 27094, "\u0120segmented": 36966, "\u0120inclusive": 31317, "\u0120scans": 36801, "\u0120segment": 36964, "\u0120special": 37598, "\u0120begin": 25766, "\u0120become": 25751, "\u0120evident": 29315, "\u0120lesser": 32368, "\u0120adjusting": 24749, "\u0120>": 24454, "\u0120subtract": 38101, "\u0120considered": 27246, "arbitrarily": 4810, "\u0120simulated": 37319, "<<": 3616, "\u0120areas": 25260, "\u0120improved": 31273, "\u0120particularly": 34534, "\u0120respect": 36345, "\u0120fusion": 30206, "\u0120harder": 30710, "\u0120bugs": 26210, "\u0120un": 39251, "\u0120teach": 38463, "ambiguity": 4506, "\u0120jackolantern": 31956, "\u0120present": 35177, "\u0120obscured": 33955, "\u0120mimic": 33138, "\u0120desired": 28209, "\u0120realization": 35762, "\u0120<": 24428, "\u0120...\"": 24061, "\u0120whoever": 40117, ".\"": 294, "\u0120reaching": 35735, "dist": 8492, "t6": 20799, "permutation": 16946, "counting": 7448, "zip": 23564, "functional": 10731, "define": 8113, "sums": 20603, "inc": 12295, "asing": 4978, "segmented": 19295, "based": 5497, "flag": 10367, "ors": 16408, "predicate": 17387, "segment": 19291, "representation": 18434, "equivalent": 9526, "2nd": 1973, "az": 5305, "asl": 4987, "inclusive": 12313, "combined": 7063, "results": 18535, "ostream": 16455, "\u0120460": 24306, "\u0120despite": 28216, "\u0120improper": 31270, "\u0120description": 28173, "\u0120visit": 39857, "__": 3786, "reductions": 18230, "203": 1663, "cab": 6269, "2481": 1805, "cstdlib": 7618, "fstream": 10689, "calculate": 6298, "occur": 15992, "ances": 4567, "tid": 21172, "syncthreads": 20729, "argc": 4845, "argv": 4865, "whole": 22936, "prop": 17598, "properties": 17604, "per": 16908, "counts": 7452, "\u0120dispatched": 28502, "\u0120entirety": 29139, "\u0120stepping": 37859, "\u0120occurrences": 34002, "effectively": 9184, "\u0120histo": 30879, "gramming": 11188, "\u0120outlined": 34279, "\u0120methodology": 33082, "\u0120restricted": 36378, "\u0120printouts": 35250, "\u0120subject": 38033, "\u0120limits": 32500, "\u0120sensible": 37006, "\u0120wish": 40190, "answer": 4672, "\u0120discussion": 28487, "constant": 7275, "just": 13261, "seq": 19367, "rsize": 18846, "vals": 22406, "526": 2611, "324": 2052, "325": 2053, "327": 2058, "\u0120relating": 36083, "major": 14470, "\u0120multiplying": 33450, ")*": 189, "mv": 15268, "\u0120==": 24444, "\u0120centre": 26498, "\u0120clip": 26753, "\u0120mvp": 33502, "(-": 161, "\u0120persists": 34707, "\u0120helper": 30805, "\u0120helpers": 30806, "\u0120commend": 26937, "helpers": 11546, "helper": 11544, "\u0120constructors": 27286, "\u0120saving": 36775, "\u0120pointless": 34921, "quote": 17894, "book": 5895, "language": 13553, "\u0120rustdoc": 36669, "\u0120relates": 36082, "\u0120accurate": 24637, "\u0120date": 27830, "\u0120developed": 28273, "effort": 9190, "\u0120basis": 25703, "\u0120tracking": 38890, "\u0120developments": 28278, "\u0120stderr": 37838, "\u0120stdin": 37839, "\u0120200": 24189, "\u0120reality": 35761, "\u0120~": 40478, "\u0120insertion": 31570, "\u0120occasionally": 33985, "\u0120fragment": 30070, "keeping": 13328, "\u0120ringbuffer": 36506, "\u0120erase": 29204, "\u0120fragmentation": 30071, "thanks": 21046, "\u0120se": 36888, "bk": 5794, "\u0120community": 26967, "\u0120draft": 28707, "\u0120questioned": 35615, "depending": 8199, "250": 1815, "000": 379, "\u0120basics": 25701, "\u0120circular": 26672, "\u0120evidently": 29316, "arching": 4816, "\u0120fat": 29653, "\u0120allocator": 24942, "\u0120shifting": 37162, "\u0120sideways": 37239, "\u0120techniques": 38476, "\u0120gain": 30224, "\u0120alloc": 24935, "\u0120lose": 32672, "\u0120wide": 40129, "yi": 23430, "\u0120quick": 35623, "\u0120albeit": 24894, "fully": 10714, "\u0120warranted": 39968, "\u0120sections": 36920, "\u0120reimplement": 36050, "\u0120purely": 35508, "\u0120choices": 26633, "\u0120ahead": 24866, "sk": 19730, "\u0120comparable": 26980, "\u0120naive": 33543, "\u0120aimed": 24877, "real": 18121, "byteorder": 6158, "endian": 9375, "circular": 6782, "amount": 4534, "including": 12311, "remove": 18371, "chunk": 6747, "splice": 20027, "snippets": 19842, "\u0120recursively": 35904, "xs": 23352, "\u0120guess": 30608, "\u0120guesses": 30610, "\u0120aka": 24886, "\u0120bails": 25652, "\u0120continue": 27331, "\u0120wait": 39928, "folder": 10480, "ps": 17646, "svd2rust": 20663, "last": 13575, "deps": 8208, "incremental": 12333, "240": 1782, "d2rust": 7789, "276": 1883, "372": 2173, "log2": 14213, "2016": 1652, "565": 2679, "888": 3340, "stm": 20315, "32f": 2070, "401": 2294, "912": 3398, "360": 2151, "985": 3505, "stm32": 20316, "f4": 9936, "/\"": 344, "\u0120\"/": 23897, "\u0120absolute": 24563, "\u0120impli": 31237, "ment": 14754, "h1": 11330, "v1": 22350, "=\"": 3624, "${": 81, "}\".": 23689, "\u0120individual": 31407, "\u0120#[": 23916, "\")]": 40, "\u0120peano": 34621, "\u0120abstract": 24567, "\u0120quickly": 35628, "\u0120enumeration": 29159, "\u0120experimented": 29457, "peano": 16865, "succ": 20554, "enumerate": 9480, "pred": 17381, "partial": 16758, "\u0120serves": 37072, "\u0120forward": 30038, "\u0120interest": 31699, "\u0120implementers": 31230, "\u0120constrain": 27273, "\u0120nonsensical": 33790, "\u0120implementer": 31229, "\u0120referred": 35982, "\u0120predecess": 35105, "\u0120constraint": 27277, "\u0120reserve": 36309, "\u0120callee": 26322, "\u0120computations": 27092, "ier": 12019, "\u0120bring": 26136, "\u0120reworked": 36471, "\u0120co": 26823, "\u0120constraints": 27278, "itertools": 12947, "equal": 9520, "longest": 14247, "thingy": 21094, "\u0120webserver": 40037, "\u0120rocket": 36545, "\u0120redirect": 35926, "\u0120html": 31004, "\u0120conditions": 27151, "\u0120responder": 36354, "\u0120word": 40232, "\u0120incredibly": 31350, "\u0120shouldn": 37200, "\u0120knowledge": 32195, "different": 8402, "dashboard": 7884, "responders": 18504, "respond": 18501, "\u0120unnecessarily": 39452, "\u0120cleanest": 26728, "\u0120foo": 29955, "als": 4475, "executed": 9776, "\u0120significant": 37268, "\u0120organize": 34216, "cr": 7494, "ename": 9332, "\u0120dialog": 28319, "uer": 21820, "\u0120searches": 36899, "\u0120typing": 39209, "\u0120press": 35191, "\u0120displays": 28514, "\u0120hitting": 30888, "dialoguer": 8371, "suggestion": 20580, "ctures": 7653, "prompt": 17593, "suggested": 20579, "interact": 12606, "\u0120nor": 33800, "\u0120clearing": 26738, "\u0120poll": 34944, "\u0120pending": 34647, "crossterm": 7580, "67": 2932, "620": 2842, "288": 1910, "fea": 10122, "bcf": 5570, "\u0120multiplication": 33445, "\u0120rpc": 36604, "\u0120futures": 30212, "cpupool": 7486, "\u0120blocked": 25961, "\u0120cpupool": 27533, "slacker": 19747, "cpu": 7483, "req": 18445, "sreq": 20107, "fname": 10458, "hot": 11713, "cance": 6341, "unsupported": 22104, "103": 1161, "101": 1141, "102": 1153, "133": 1334, "105": 1173, "35": 2123, "107": 1178, "packets": 16648, "\u0120declaring": 27921, "\u0120container": 27307, "\u0120inventory": 31817, "\u0120heck": 30789, "inventory": 12701, "\u0120lookup": 32654, "\u0120existed": 29416, "\u0120wanting": 39957, "\u0120equality": 29191, "\u0120prohibited": 35349, "\u0120alternatives": 24990, "\u0120removal": 36157, "\u0120filtering": 29776, "\u0120indicates": 31389, "\u0120depend": 28108, "inv": 12690, "\u0120elegant": 28933, "\u0120reordering": 36187, "mirror": 14913, "\u0120ordering": 34202, "\u0120mirror": 33180, "st": 20158, "\u0120switched": 38300, "\u0120unique": 39403, "\u0120reorder": 36185, "pair": 16673, "gather": 10831, "\u0120destination": 28219, "dsize": 8724, "\u0120predicate": 35109, "\u0120mutation": 33487, "\u0120ab": 24531, "usually": 22293, "v2": 22354, "\u0120captured": 26374, "\u0120translate": 38947, "\u0120forbids": 29973, "\u0120poison": 34924, "611": 2826, "0usize": 804, "e0594": 8927, "\u0120encoder": 29053, "\u0120shortcut": 37184, "\u0120mem": 33005, "\u0120interfacing": 31707, "\u0120io": 31852, "shortcut": 19566, "\u0120potential": 35040, "\u0120refers": 35985, "\u0120(#": 23964, "302": 2000, "\u0120coerce": 26857, "\u0120bool": 26026, "dbg": 7955, "\u0120webassembly": 40024, "\u0120bundled": 26241, "before": 5622, "\u0120webpack": 40034, "\u0120red": 35912, "\u0120npm": 33859, "npm": 15815, "jakearmendariz": 13066, "desktop": 8270, "life": 13993, "www": 23181, "webpack": 22854, "modules": 15010, "utils": 22316, "been": 5617, "initialized": 12459, "patterns": 16808, "cjs": 6796, "776": 3106, "787": 3131, "653": 2901, "593": 2738, "585": 2724, "require": 18454, "cli": 6851, "convert": 7362, "114": 1238, "116": 1244, "exports": 9857, "121": 1265, "lif": 13992, "cle": 6833, "errno": 9588, "script": 19187, "likely": 14011, "additional": 4160, "442": 2393, "bootstrap": 5913, "dirname": 8449, "plugins": 17165, "im": 12173, "ist": 12880, "pkg": 17100, "depend": 8192, "encies": 9345, "\u0120alert": 24896, "\u0120upgraded": 39589, "\u0120risk": 36518, "\u0120appeared": 25174, "\u0120blur": 25984, "\u0120bluetooth": 25981, "\u0120equal": 29190, "\u0120temp": 38492, "(?).": 169, "\u0120handled": 30678, "bt": 6043, "powered": 17328, "discovery": 8472, "\u0120illustrate": 31163, "\u0120dropped": 28750, "\u0120action": 24670, "\u0120sugar": 38155, "\u0120deref": 28139, "\u0120coercion": 26862, "\u0120derefs": 28149, "\u0120ref": 35958, "dereferencing": 8223, "dropped": 8711, "takes": 20837, "br": 5969, "ings": 12431, "immediately": 12217, "creates": 7527, "okay": 16094, "holding": 11673, "these": 21076, "deref": 8218, "coercion": 7004, "\u0120operands": 34139, "\u0120logical": 32627, "\u0120eagerly": 28840, "\u0120lazily": 32300, "\u0120circumstances": 26675, "\u0120evaluation": 29292, "\u0120usable": 39628, "\u0120comparing": 26989, "\u0120focused": 29927, "\u0120applicable": 25192, "ul": 21867, "idea": 11959, "evaluation": 9705, "(\"": 129, "surely": 20638, "\u0120converting": 27401, "\u0120creation": 27570, "allocating": 4436, "\u0120excess": 29359, "\u0120stripped": 37944, "\u0120modifying": 33293, "dependent": 8197, "\u0120preferably": 35130, "fin": 10298, "ance": 4564, "labs": 13521, "\u0120verifying": 39788, "\u0120located": 32603, ".]": 338, "\u0120powershell": 35050, "\u0120bash": 25697, "\u0120fedora": 29691, "\u0120exc": 29343, "ite": 12910, "spect": 19991, "\u0120green": 30545, "\u0120indicative": 31394, "\u0120alone": 24956, "aggreg": 4305, "ates": 5086, "finance": 10303, "formatters": 10549, "066": 690, "ea3": 9020, "b9": 5383, "passed": 16780, "ignored": 12085, "measured": 14695, "filtered": 10295, "canonical": 6357, "limited": 14017, "ubuntu": 21773, "hk": 11636, "gs": 11257, "rootfs": 18763, "mime": 14877, "guess": 11290, "890": 3349, "328": 2064, "763": 3087, "c22": 6198, "cgu": 6623, "rcgu": 18058, "\u0120\u00e2\u0122\u013e": 40512, "\u00e2\u0122\u013f": 23792, "\u0120controlling": 27369, "works": 23075, "\u0120iterates": 31931, "looking": 14258, "structopt": 20444, "pcap": 16832, "capture": 6381, "devices": 8322, "prom": 17585, "snap": 19828, "look": 14255, "\u0120reporting": 36237, "\u0120syntactic": 38343, "\u0120mistakes": 33216, "\u0120personal": 34709, "\u0120authors": 25531, "\u0120books": 26025, "she": 19529, "\u0120decision": 27910, "\u0120ho": 30900, "bbit": 5552, "\u0120entered": 29132, "\u0120vastly": 39738, "\u0120rewriting": 36476, "\u0120organizing": 34218, "ordered": 16342, "\u0120mistaken": 33214, "\u0120ids": 31123, "\u0120btree": 26180, "\u0120carefully": 26384, "\u0120leaks": 32318, "\u0120enterprise": 29134, "\u0120domains": 28642, "\u0120sites": 37349, "rather": 18023, "\u0120advising": 24801, "\u0120dangerous": 27792, "\u0120remote": 36152, "\u0120promote": 35367, "\u0120websites": 40042, "\u0120policy": 34937, "nc": 15469, "baa": 5393, "48": 2469, "sites": 19706, "gp": 11149, "\u0120associate": 25396, "\u0120visual": 39864, "\u0120formatting": 30017, "gro": 11236, "ovy": 16592, "associations": 5041, "groovy": 11239, "\u0120syn": 38323, "\u0120enables": 29033, "\u0120procedural": 35287, "\u0120declares": 27920, "\u0120vice": 39817, "\u0120versa": 39791, "parse2": 16747, "\u0120performant": 34667, "\u0120attached": 25460, "\u0120crash": 27552, "\u0120crashes": 27554, "\u0120surprise": 38237, "\u0120failing": 29594, "buff": 6068, "elem": 9243, "uninitialized": 22016, "prevent": 17446, "allocation": 4437, "allocates": 4435, "test0": 20984, "test1": 20986, "\u0120deallocate": 27870, "\u0120deallocating": 27873, "\u0120mvc": 33498, "\u0120elmah": 28964, "\u0120404": 24292, "\u0120filepaths": 29763, "\u0120\"~/": 23912, "\u0120subsequently": 38067, "website": 22862, "\u0120aspnet": 25350, "\u0120rights": 36501, "\u0120everybody": 29306, "\u0120sqlite": 37695, "\u0120yay": 40388, "\u0120vri": 39904, "\u0120pades": 34401, "\u0120pdf": 34612, "\u0120embed": 28978, "\u01201234": 24134, "567890": 2687, "[...]": 3713, "\u0120etsi": 29276, "pad": 16653, "\u0120ltv": 32711, "\u012012": 24129, "stamp": 20187, "\u0120timestamptoken": 38745, "\"?": 54, "\u0120clarifies": 26705, "1234567890abcdef": 1291, "dss": 8730, "object1": 15956, "object2": 15957, "\u0120ts": 39114, "\u0120meanwhile": 32970, "\u0120superseded": 38196, "\u0120319": 24267, "\u0120reform": 36003, "ulated": 21871, "\u0120hashed": 30729, "\u0120dictionary": 28332, "\u0120der": 28137, "\u0120pkcs": 34832, "\u0120cms": 26818, "\u0120cades": 26296, "\u0120stamps": 37777, "\u0120proceed": 35291, "\u0120norm": 33802, "\u0120specifies": 37621, "\u0120inclusion": 31316, "\u0120material": 32901, "\u0120realised": 35758, "\u0120admittedly": 24762, "\u0120stamp": 37774, "\u0120silently": 37286, "!\"": 5, "!\".": 7, "\u0120rng": 36531, "grammar": 11187, "rng": 18707, "\u0120randomly": 35685, "\u00e2\u0122\u013f,": 23795, "\u0120implementors": 31234, "\u0120terms": 38537, "rer": 18461, "\u0120determines": 28262, "\u0120usefully": 39641, "\u0120idiom": 31111, "\u0120paths": 34575, "whitepaper": 22930, "pdf": 16853, "\u0120availability": 25561, "\u0120manuals": 32836, "cour": 7455, "solutions": 19889, "produced": 17539, "ized": 13040, "software": 19878, "zone": 23643, "interface": 12617, "applications": 4767, "rich": 18631, "oper": 16269, "environment": 9490, "loaded": 14175, "\u0120deprecated": 28130, "\u0120smc": 37444, "\u0120tee": 38482, "\u0120navigate": 33593, "clou": 6907, "lare": 13562, "tokens": 21307, "\u0120assets": 25376, "\u0120brew": 26123, "\u0120wr": 40278, "ler": 13768, "brew": 5999, "wrangler": 23102, "cloudflare": 6910, "workers": 23069, "publish": 17694, "installed": 12540, "binaries": 5738, "mac": 14426, "zsh": 23656, "zu": 23661, "\u0120shell": 37152, "\u0120alternate": 24983, "\u0120nom": 33768, "za": 23515, "z0": 23510, "compound": 7164, "separated": 19358, "alt": 4478, "1usize": 1617, "flatten": 10384, "many1": 14518, "\u0120deal": 27867, "\u0120separator": 37024, "\u0120parser": 34515, "\u0120combinator": 26918, "\u0120backtra": 25634, "nom": 15727, "preceded": 17375, "nonempty": 15738, "many0": 14517, "rest": 18515, "flat": 10380, "\u0120acquired": 24659, "fileloadexception": 10267, "\u0120assemblies": 25359, "disposition": 8490, "\u0120inline": 31533, "\u0120identify": 31101, "\u0120postman": 35033, "\u0120responds": 36356, "nemlog": 15544, "au": 5179, "1h": 1599, "id1": 11945, "rrp": 18833, "dispatchprice0": 8485, "k1": 13275, "vic": 22597, "tue": 21620, "oct": 16011, "2019": 1656, "gmt": 11100, "cent": 6546, "gi": 11004, "attachment": 5144, "transfer": 21432, "chunked": 6748, "settlementdate": 19453, "22t10": 1745, "00z": 530, "regionid": 18297, "vic1": 22598, "272": 1875, "7859": 3129, "22t11": 1746, "38": 2188, "41": 2319, "465": 2442, "\u0120deep": 27979, "\u0120reqwest": 36289, "\u0120payload": 34590, "\u0120belonging": 25802, "seems": 19286, "explicitly": 9844, "\u0120peter": 34729, "\u0120omer": 34070, "\u0120reply": 36229, "\u0120headers": 30770, "\u0120waiting": 39931, "\u0120hon": 30933, "\u0120highlights": 30856, "regex1": 18292, "regex2": 18293, "var1": 22433, "field1": 10238, "gets": 10963, "var2": 22434, "field2": 10239, "completely": 7141, "\u0120tail": 38386, "\u0120personally": 34710, "\u0120implies": 31243, "\u0120eliminates": 28954, "\u0120uneven": 39351, "\u0120laz": 32299, "iest": 12021, "\u0120join": 32028, "\u0120collect": 26889, "chunks": 6750, "\u0120weren": 40073, "\u0120joining": 32030, "\u0120iterated": 31930, "\u0120chains": 26550, "\u0120smaller": 37435, "together": 21298, "\u0120emptied": 29018, "attack": 5147, "pp": 17335, "pname": 17175, "captured": 6382, "outer": 16537, "\u0120consumed": 27296, "data2": 7889, "know": 13452, "starts": 20219, "\u0120unity": 39409, "\u0120skydome": 37381, "\u012010000": 24101, "\u0120culled": 27696, "\u0120dome": 28644, "\u0120drawn": 28727, "\u0120scale": 36793, "\u0120realistic": 35759, "\u0120principles": 35240, "writing": 23123, "\u0120rendered": 36173, "\u0120decreases": 27953, "fighting": 10250, "effects": 9185, "\u0120cameras": 26336, "\u0120clears": 26740, "\u0120draws": 28728, "\u0120inaccurate": 31286, "\u0120polling": 34946, "\u0120fov": 30053, "\u0120directx": 28404, "\u0120dockerfile": 28607, "\u01208080": 24380, "aw": 5270, "\u0120ps": 35458, "\u0120logs": 32637, "experiment": 9830, "dockerfile": 8584, "pil": 17052, "workdir": 23064, "517": 2594, "cb": 6443, "113": 1233, "ce2": 6510, "3d": 2249, "d4": 7795, "146": 1387, "tain": 20827, "created": 7524, "ports": 17282, "men": 14750, "ru": 18881, "ago": 4312, "exited": 9805, "\u0120override": 34338, "docker": 8583, "8080": 3207, "\u0120audio": 25496, "\u0120associating": 25399, "\u0120readers": 35745, "\u0120extensible": 29533, "\u0120plug": 34896, "\u0120conventional": 27383, "\u0120extensibility": 29532, "audio": 5184, "\u0120init": 31497, "\u0120life": 32459, "\u0120goal": 30435, "\u0120triangular": 39019, "\u0120divisors": 28579, "\u0120euler": 29281, "864": 3302, "\u0120p": 34378, "\u0120closed": 26776, "\u0120formula": 30024, "\u0120bare": 25681, "\u0120brain": 26097, "0us": 803, "fac": 9983, "1000000": 1120, "extremely": 9899, "clever": 6849, "listing": 14093, "numbers": 15890, "calculating": 6301, "1is": 1605, "sqrt": 20080, "got": 11143, "wo": 23037, "499": 2505, "501": 2562, "502": 2563, "\u0120computing": 27098, "\u0120square": 37702, "\u0120lowest": 32697, "\u0120divisor": 28578, "\u0120greater": 30539, "\u0120dividing": 28572, "\u0120six": 37356, "\u0120misses": 33208, "\u01206": 24337, "\u0120factors": 29587, "\u0120loses": 32673, "\u0120curious": 27716, "\u0120trickery": 39023, "\u0120scenes": 36814, "\u0120relies": 36108, "\u0120internally": 31724, "\u0120offers": 34034, "\u0120bumping": 26237, "\u0120cursor": 27727, "man": 14488, "\u0120taken": 38392, "\u0120skips": 37379, "\u0120yielded": 40403, "\u0120primitive": 35234, "derived": 8231, "\u0120normally": 33810, "ii": 12103, "iii": 12107, "\u0120shepmaster": 37157, "\u0120delegate": 28035, "\u0120safety": 36714, "\u0120responsibility": 36360, "next2": 15607, "less": 13772, "next3": 15608, "checking": 6686, "9u8": 3564, "\u0120lang": 32244, "obj": 15946, "\u0120structural": 37961, "\u0120comparisons": 26992, "\u0120handful": 30674, "\u0120insides": 31574, "\u0120compared": 26986, "\u0120designing": 28205, "\u0120shareable": 37138, "\u0120gonna": 30448, "relaxed": 18337, "fast": 10043, "readed": 18102, "frequently": 10649, "\u0120buildable": 26213, "\u0120reproduction": 36262, "provided": 17632, "\u0120remain": 36128, "counted": 7445, "\u0120callable": 26318, "\u0120concerned": 27123, "\u0120...),": 24063, "\u0120closes": 26779, "\u0120uncomment": 39292, "\u0120occure": 33994, "\u0120expert": 29460, "\u0120writer": 40299, "\u0120placed": 34841, "\u0120placeholders": 34843, "\u0120yaml": 40382, "\u012035": 24276, "\u0120nested": 33670, "\u0120leading": 32312, "cfg0": 6609, "3000": 1992, "forever": 10533, "\u0120bounded": 26077, "\u0120regard": 36021, "stargateur": 20205, "\u0120meets": 32996, "ownership": 16601, "neither": 15538, "took": 21327, "\u0120rpncalculator": 36607, "actions": 4095, "pn": 17174, "calculator": 6304, "\u0120appropiate": 25212, "uct": 21794, "2518": 1818, "\u0120scalar": 36791, "\ufffd": 41130, "\u0120vtables": 39911, "\u0120leak": 32315, "\u0120im": 31170, "\u0120facing": 29577, "\u0120defeat": 27988, "\u0120circumvented": 26677, "vt": 22727, "bl": 5796, "lp": 14296, "vtbl": 22730, "\u0120mess": 33055, "dlist": 8544, "\u0120noted": 33825, "\u0120dlist": 28583, "574": 2702, "\u0120curly": 27719, "\u0120insist": 31580, "\u0120hyperium": 31062, "\u0120quoting": 35647, "higher": 11598, "ranked": 18004, "\u0120satisfied": 36760, "\u0120likewise": 32490, "\u0120often": 34046, "\u0120tutorials": 39155, "ty": 21685, "\u0120keystore": 32145, "\u0120pages": 34408, "\u0120keywords": 32152, "\u0120handshake": 30684, "pasted": 16793, "property": 17605, "sslserversocketfactory": 20141, "sslserversocket": 20140, "sslsocket": 20144, "inputstream": 12506, "inputstreamreader": 12507, "bufferedreader": 6075, "usr": 22284, "lib64": 13828, "jvm": 13266, "openjdk": 16256, "jre": 13216, "cacerts": 6274, "sslsocketfactory": 20145, "fatal": 10050, "alerts": 4376, "192": 1545, "154": 1411, "record": 18184, "1077": 1184, "perform": 16915, "702": 3010, "nio": 15664, "221": 1728, "291": 1918, "295": 1925, "141": 1364, "151": 1405, "\u0120robots": 36543, "\u0120incoming": 31321, "actor": 4113, "robots": 18723, "actors": 4116, "robot": 18722, "receive": 18153, "downcast": 8654, "anon": 4657, "\u0120careless": 26385, "\u0120chapters": 26573, "\u0120encapsulated": 29038, "\u0120opening": 34120, "\u0120journal": 32038, "\u0120infered": 31441, "journal": 13208, "etc": 9662, "\u0120mixing": 33239, "\u0120worlds": 40259, "generics": 10898, "\u0120deciding": 27905, "\u0120dots": 28665, "\u0120stating": 37821, "\u0120brings": 26138, "\u0120tuples": 39139, "\u0120possibilities": 35016, "\u0120hardcoded": 30706, "\u0120lots": 32683, "ints": 12683, "big": 5721, "\u0120rolled": 36553, "\u0120exponential": 29500, "\u0120bloat": 25952, "\u0120rarely": 35697, "\u0120billion": 25866, "\u0120blow": 25972, "\u0120anyhow": 25132, "\u0120finite": 29803, "boost": 5909, "xor": 23332, "rhs": 18625, "mis": 14915, "matched": 14591, "\u0120bitxor": 25916, "\u0120operand": 34138, "\u0120genericity": 30306, "\u0120sacrifice": 36700, "bitxor": 5790, "typing": 21714, "e0369": 8878, "\u0120dodgy": 28626, "\u0120redefine": 35918, ".:": 334, "\u0120uglier": 39233, "\u0120closer": 26778, "\u0120boiethios": 26004, "\u0120utilities": 39669, ")'": 178, "\u0120sql": 37692, "\u0120ce": 26473, "\u0120subdirectory": 38021, ")\\": 207, "ata": 5064, "\u0120administrator": 24757, "\u0120uac": 39217, "\u0120elevated": 28942, "\u0120acess": 24640, "\u0120privileges": 35268, "\u0120frustrated": 30141, "\u0120elevation": 28944, "\u0120installing": 31606, ")'.": 180, "\u0120strongly": 37953, "\u0120locations": 32607, "applicationdata": 4765, "992": 3517, "\u0120regardless": 36024, "\u0120logged": 32622, "appdata": 4743, "\u0120writes": 40301, "\u0120past": 34560, "\u0120infers": 31449, "moves": 15086, "indexed": 12350, "option1": 16308, "ranges": 18002, "\u0120existing": 29422, "\u0120taste": 38432, "\u0120initialise": 31503, "0u16": 798, "\u0120led": 32334, "\u0120indexing": 31384, "\u0120iter": 31926, "\u0120warns": 39965, "\u0120reasoning": 35791, "\u0120automated": 25546, "\u0120beacuse": 25731, "\u0120deconstructing": 27939, "\u0120placing": 34846, "updatable": 22143, "cesses": 6591, "mutates": 15255, "possibly": 17305, "updat": 22142, "ables": 3961, "\u0120indexer": 31382, "yes": 23420, "\".)": 45, "\u0120soundness": 37562, "\u0120destroy": 28222, "\u0120!": 23854, "\u0120switching": 38302, "\u0120buggy": 26209, "\u0120remains": 36132, "\u0120alive": 24927, "\u0120duration": 28810, "\u0120smart": 37438, "\u0120restriction": 36380, "\u0120systematically": 38363, "!),": 15, "ives": 13018, "\u0120plays": 34877, "\u0120inherited": 31491, "\u0120mutably": 33482, "\u0120dance": 27788, "fits": 10345, "\u0120terrible": 38541, "\u0120swap": 38281, "\u0120scrap": 36855, "\u0120pursue": 35519, "\u0120wholly": 40120, "\u0120textbook": 38566, "\u0120dyon": 28835, "lifetimes": 13999, "\u0120management": 32799, "\u0120differ": 28346, "\u0120limitation": 32496, "\u0120explanation": 29475, "\u0120acyclic": 24698, "\u0120child": 26623, "\u0120limitations": 32497, "\u0120workarounds": 40240, "\u0120exec": 29379, "\u0120append": 25178, "characters": 6661, "piped": 17068, "truncated": 21550, "\u0120eof": 29174, "\u0120hit": 30884, "\u0120continuously": 27337, "\u0120ends": 29089, "\u0120myasyncstream": 33508, "\u0120pin": 34797, ">.": 3660, "workaround": 23063, "\u0120mutex": 33491, "unpin": 22071, "pin": 17056, "cx": 7744, "\u0120blocking": 25965, "\u0120synchronization": 38330, "pinned": 17062, "\u0120welcome": 40068, "\u0120discouraged": 28463, "\u0120reasonably": 35789, "\u0120transparent": 38967, "\u0120transparently": 38968, "\u01202008": 24194, "\u0120webhost": 40031, "sorry": 19924, "uss": 22285, "\u0120reproduce": 36256, "\u0120iron": 31880, "\u0120middleware": 33110, "\u0120earlier": 28844, "\u0120unavailable": 39267, "\u0120roughly": 36584, "e0382": 8881, "\u0120vendor": 39772, "\u0120jms": 32012, "\u0120proof": 35382, "\u0120websphere": 40047, "\u0120loads": 32586, "instantiate": 12550, "ks": 13483, "hu": 11785, "u2": 21729, "\u0120keypair": 32138, "\u0120bount": 26081, "\u0120issuer": 31915, "\u0120mutual": 33495, "aka": 4350, "someone": 19903, "loys": 14295, "openssl": 16262, "port": 17272, "showcerts": 19585, "mytruststore": 15369, "\u0120pseudo": 35460, "\u012049": 24311, "\u0120curand": 27712, "\u0120pr": 35054, "most": 15058, "\u0120seed": 36943, "\u0120subsequence": 38065, "\u0120offset": 34042, "\u0120demonstrate": 28075, "curand": 7689, "seed": 19275, "subsequence": 20526, "89": 3348, "49000": 2486, "5000": 2557, "tpb": 21374, "fprintf": 10593, "stderr": 20258, "abort": 3967, "nex": 15602, "tr": 21390, "scaled": 19122, "cud": 7667, "cpy": 7489, "1st": 1610, "returned": 18566, "\u0120freeing": 30097, "\u0120af": 24811, "ter": 20956, "\u0120wont": 40228, "\u0120glibc": 30397, "\u0120malloc": 32792, "\u0120corruption": 27475, "\u0120calculated": 26305, "\u0120addr": 24726, "\u0120flags": 29850, "\u0120g": 30220, "\u0120geforce": 30278, "310": 2022, "datasetrows": 7915, "glibc": 11061, "detected": 8296, "prog": 17557, "0x00000000": 813, "180": 1505, "minor": 14901, "dataset": 7914, "cols": 7049, "o3": 15935, "wall": 22779, "wextra": 22894, "m64": 14421, "xcompiler": 23254, "\u0120arithmetic": 25280, "\u0120ordinary": 34207, "\u0120hierarchical": 30848, "\u0120route": 36592, "\u0120warp": 39966, "\u0120scopes": 36842, "\u0120\u00e2\u0122\u0135": 40508, "\u0120piggy": 34792, "backing": 5410, "\u0120routes": 36595, "articles": 4933, "simply": 19671, "demonstration": 8175, "purposes": 17720, "extract": 9893, "reply": 18420, "rejection": 18324, "\u0120interpreting": 31747, "\u0120reuse": 36431, "\u0120pi": 34769, "uring": 22200, "\u0120postgresql": 35030, "\u0120terminal": 38526, "\u0120interact": 31679, "postgres": 17314, "111": 1218, "refused": 18283, "wm": 23027, "sudo": 20568, "psql": 17658, "\u0120listen": 32540, "\u0120socket": 37492, "\u0120manages": 32802, "\u0120supplied": 38207, "\u0120hostname": 30975, "\u0120supplying": 38211, "\u0120\"\".": 23865, "\u0120instructing": 31631, "\u0120ip": 31864, "\u0120reflects": 35999, "\u0120yours": 40413, "\u0120listens": 32545, "\u0120loopback": 32659, "\u0120adapter": 24705, "gre": 11213, "directories": 8444, "libpq": 13917, "postgresql": 17315, "5432": 2638, "listen": 14086, "addresses": 4173, "hba": 11471, "conf": 7218, "\u01201023": 24110, "arrays": 4919, "\u0120giant": 30353, "\u0120looping": 32662, "arr2": 4908, "tes": 20981, "\u0120annoying": 25100, "\u0120hood": 30939, "\u0120smarter": 37439, "bluss": 5855, "\u0120contributed": 27356, "\u0120impressive": 31268, "\u0120quality": 35587, "\u0120improvements": 31275, "creation": 7530, "broken": 6013, "'?": 116, "\u0120vm": 39875, "textbox": 21023, "naive": 15404, "programmer": 17565, "accepted": 4013, "\u0120vie": 39821, "wn": 23031, "ode": 16028, "\u0120render": 36172, "\u0120trees": 39007, "\u0120modeling": 33273, "\u0120resorting": 36341, "\u0120rc": 35721, "<>": 3617, "\u0120children": 26624, "\u0120force": 29974, "<>.": 3618, "\u0120inde": 31362, "ree": 18235, "\u0120(,": 23986, "..)": 312, "\u0120traversal": 38981, "\u0120downside": 28691, "\u0120dangling": 27794, "removing": 18374, "\u0120petgraph": 34731, "sibling": 19604, "stored": 20347, "strategy": 20369, "calc": 6295, "adder": 4154, "restricting": 18523, "\u0120guaranteed": 30598, "eec": 9149, "346": 2115, "633": 2863, "aware": 5276, "characteristics": 6660, "\u0120pool": 34965, "typed": 21698, "consume": 7302, "autoref": 5229, "compatible": 7122, "\u0120tackle": 38378, "autore": 5228, "\u0120describes": 28171, "\u0120applied": 25196, "\u0120previously": 35221, "\u0120anonymous": 25107, "\u0120int": 31644, "\u0120segfault": 36960, "scalar": 19120, "130474": 1325, "047": 653, "600": 2801, "=...": 3634, "/../": 365, "targets": 20855, "\u012061": 24341, "int2": 12569, "scanf": 19125, "\u0120interprets": 31748, "\u0120seg": 36959, "\u0120covered": 27516, "\u0120wonder": 40222, "\u0120stl": 37873, "\u0120permits": 34690, "\u0120mechanisms": 32986, "resident": 18479, "\u0120modification": 33286, "soft": 19876, "var3": 22435, "var4": 22436, "nocapture": 15700, "\u0120unreachable": 39484, "\u0120var": 39715, "\u0120matched": 32894, "\u0120four": 30050, "warn": 22795, "variables": 22441, "\u0120shallow": 37126, "\u0120differentiate": 28351, "\u0120strict": 37926, "\u0120[]": 24482, "shallow": 19510, "\u0120exceptions": 29355, "cloneable": 6891, "\u0120shibboleth": 37158, "\u0120idp": 31122, "\u0120azure": 25610, "\u0120portal": 34990, "roll": 18741, "\u0120aad": 24526, "\u0120speak": 37593, "azure": 5309, "brid": 6002, "federated": 10136, "domains": 8614, "\u0120protocols": 35423, "\u0120wich": 40127, "\u0120speaks": 37596, "federation": 10137, "ak": 4349, "\u0120passive": 34555, "\u0120w": 39921, "\u0120resolve": 36334, "\u0120resolving": 36338, "\u0120expands": 29435, "\u0120opens": 34125, "\u92e8": 41100, "\u99e8": 41104, "wide": 22945, "ron": 18754, "ize": 13039, "512": 2588, "lpwstr": 14306, "utf16": 22306, "lossy": 14281, "\u0120validated": 39696, "\u0120enlighten": 29113, "intermediate": 12624, "\u0120servers": 37071, "\u0120prove": 35430, "\u0120redundant": 35948, "\u0120vendors": 39774, "\u0120processes": 35298, "hypoth": 11825, "etical": 9671, "\u0120b": 25611, "6000": 2802, "\u0120partitioning": 34540, "\u0120physical": 34766, "\u0120mappings": 32846, "\u0120inaccessible": 31283, "\u0120virtue": 39848, "\u0120ns": 33865, "380": 2189, "\u0120successor": 38131, "\u0120unlikely": 39424, "\u0120unusable": 39556, "\u0120mmu": 33254, "\u0120hardwired": 30715, "\u0120sram": 37710, "\u0120masterapp": 32889, "\u0120slaveapp": 37393, "\u0120fe": 29676, "\u0120somebody": 37522, "\u0120slave": 37392, "\u0120providing": 35442, "\u0120goin": 30441, "slave": 19749, "param1": 16711, "param2": 16712, "unique": 22026, "salt": 19054, "\u0120encrypting": 29070, "\u0120paramaters": 34473, "\u0120encryption": 29071, "\u0120epoch": 29184, "\u0120decode": 27923, "\u0120sal": 36718, "\u0120ruby": 36630, "\u0120han": 30670, "del": 8130, "\u0120ect": 28875, "aes": 4260, "cbc": 6451, "encrypt": 9357, "decrypt": 8082, "ub": 21768, "qwer": 17905, "iv": 13004, "puts": 17730, "encrypted": 9358, "uncomment": 21958, "decrypted": 8083, "epoch": 9509, "\u0120replay": 36220, "\u0120master": 32888, "\u0120->": 24053, "\u0120signing": 37273, "\u0120attacker": 25466, "\u0120clock": 26764, "\u0120establish": 29260, "\u0120forked": 30005, "\u0120nonce": 33776, "\u0120dereferences": 28145, "tra": 21394, "ver": 22541, "\u0120precedence": 35082, "\u0120whereby": 40093, "\u0120dereferenced": 28144, "implements": 12246, "\u0120endpoint": 29087, "\u0120throws": 38680, "oasis": 15939, "sx": 20701, "200512": 1638, "soap": 19854, "fault": 10053, "wsdl": 23137, "\u0120resources": 36343, "\u0120wsdl": 40313, "yn": 23453, "chronous": 6744, "completion": 7143, "completed": 7140, "obtain": 15977, "4096": 2312, "large": 13564, "means": 14691, "done": 8621, "whatever": 22907, "\u0120improve": 31272, "\u0120pick": 34771, "\u0120biggest": 25857, "\u0120proposal": 35399, "safely": 19042, "\u0120instantiation": 31620, "\u0120templates": 38497, "selected": 19305, "\u0120manner": 32830, "unary": 21935, "\u0120arbitrarily": 25238, "\u0120scattered": 36807, "\u0120compacted": 26972, "\u0120compaction": 26974, "automatically": 5226, "\u0120premium": 35152, "\u0120intact": 31645, "presumably": 17440, "\u0120nb": 33600, "beer": 5619, "nl": 15677, "lambda": 13539, "leave": 13700, "liners": 14042, "brace": 5972, "paren": 16724, "\u0120discord": 28459, "\u0120loops": 32663, "\u0120stays": 37834, "\u0120locked": 32610, "\u0120occurred": 34000, "\u0120reddit": 35914, "gateway": 10829, "updating": 22151, "receiving": 18158, "locking": 14203, "unlocked": 22051, "locked": 14202, "\u0120guard": 30602, "\u0120retained": 36399, "\u0120deadlock": 27863, "\u0120mutexes": 33493, "\u0120reentrant": 35952, "\u0120lies": 32456, "\u0120fetching": 29717, "\u0120actions": 24671, "\u0120respective": 36348, "deadlock": 8013, "\u0120porting": 34993, "\u0120php": 34758, "\u0120multidimensional": 33434, "\u0120excerpt": 29357, "\u0120codebase": 26837, "\u0120awful": 25593, "\u0120ph": 34739, "\u0120replicate": 36222, "\u0120efficiently": 28905, "ant": 4677, "\u0120indexes": 31383, "\u0120issets": 31910, "\u0120identifiers": 31099, "stmt": 20328, "fetch": 10170, "queries": 17862, "stuff": 20466, "isset": 12870, "echo": 9087, "\u0120associative": 25402, "\u0120maps": 32847, "\u0120dictionaries": 28331, "\u0120defines": 28007, "plus": 17167, "\u0120places": 34845, "\u0120densely": 28098, "\u0120packed": 34388, "\u0120m": 32733, "\u0120remember": 36140, "key1": 13355, "key2": 13356, "\u0120pallets": 34433, "\u0120furthermore": 30200, "frame": 10609, "decl": 8048, "428": 2361, "constraining": 7284, "\u0120pallet": 34431, "\u0120extracting": 29548, "\u0120equations": 29196, "\u0120coordinates": 27428, "\u0120corner": 27445, "\u0120trigonometry": 39037, "\u0120projected": 35352, "\u0120corners": 27446, "\u0120inverse": 31819, "\u0120coordinate": 27427, "\u0120homogeneous": 30931, "\u00b1": 23726, "\u0120leveldb": 32381, "\u0120deserializer": 28188, "\u0120ranges": 35690, "leveldb": 13798, "kv": 13502, "bytecode": 6155, "reading": 18110, "109": 1193, "panicked": 16696, "\u0120trentcl": 39013, "\u0120blade": 25928, "\u0120directives": 28399, "\u0120authorized": 25529, "programs": 17568, "endpermission": 9379, "\u0120oh": 34049, "....": 324, "tags": 20820, "imgs": 12210, "\u0120capabilities": 26355, "\u0120toy": 38871, "\u0120terminate": 38528, "five": 10347, "exact": 9737, "\u0120ampersand": 25024, "\u0120certainly": 26509, "\u0120calculates": 26307, "\u0120splits": 37667, "\u0120advise": 24798, "l1": 13512, "l2": 13513, "\u0120traverse": 38983, "\u0120pastes": 34563, "\u0120boilerplate": 26008, "\u0120hygiene": 31058, "\u0120preventing": 35216, "hygienic": 11818, "\u0120car": 26377, "\u0120rectangle": 35890, "defin": 8112, "itely": 12913, "\u0120aesthetics": 24809, "car": 6385, "canvas": 6362, "500": 2556, "rectangle": 18196, "certain": 6567, "rect": 18193, "boilerplate": 5884, "adds": 4177, "keeps": 13329, "erate": 9535, "commands": 7079, "\u0120outline": 34278, "\u0120burdensome": 26246, "\u0120worry": 40263, "ctx": 7654, "fps": 10594, "reserved": 18475, "keyword": 13390, "\u0120powerpc": 35048, "\u0120arch": 25244, "mlongcall": 14947, "\u0120\"-": 23888, "\u0120gcc": 30264, "ctarget": 7626, "\u0120llvm": 32574, "\u0120invoking": 31845, "\u0120interested": 31700, "\u0120llv": 32573, "\u0120asan": 25327, "\u0120ouput": 34260, "\u0120commit": 26947, "\u012031": 24263, "clean": 6834, "sanitizer": 19082, "llvm": 14157, "\u0120generation": 30301, "\u0120subsequent": 38066, "\u0120bindgen": 25875, "\u0120whitelisted": 40110, "\u0120greatly": 30541, "linking": 14056, "1181": 1251, "\u0120directive": 28398, "\u0120//": 24078, "\u0120inappropriate": 31290, "\u0120bother": 26061, "built": 6105, "\u0120eg": 28909, "\u0120moral": 33347, "\u0120statements": 37814, "\u0120efficiency": 28903, "enums": 9485, "\u0120enums": 29161, "\u0120arguably": 25268, "\u0120concise": 27127, "nope": 15752, "\u0120comparatively": 26982, "course": 7456, "itto": 12991, "\u0120proto": 35419, "\u0120protobuf": 35420, "\u0120kent": 32119, "ard": 4824, "\u0120confirmed": 27178, "\u0120flatbuffers": 29861, "\u0120allocators": 24943, "\u0120grow": 30578, "\u0120edits": 28889, "\u0120extended": 29529, "\u0120period": 34672, "\u0120reloaded": 36115, "\u0120rear": 35781, "\u0120reclaim": 35837, "\u0120wasted": 39981, "\u0120reco": 35841, "\u0120widely": 40130, "gc": 10840, "moving": 15089, "\u0120considering": 27247, "\u0120extending": 29530, "\u0120classes": 26713, "\u0120timeline": 38729, "\u0120overloading": 34330, "\u0120involved": 31847, "\u0120ergonomic": 29217, "\u0120semantics": 36989, "\u0120expressing": 29517, "pdl": 16855, "dict": 8380, "\u0120imo": 31203, "\u0120ergonomics": 29219, "\u0120double": 28666, "\u0120intoiterator": 31774, "\u0120&'": 23923, "\u0120surely": 38232, "largest": 13566, "vecvec": 22516, "\u0120reconc": 35865, "\u0120ubiquitous": 39221, "\u0120la": 32215, "\u0120blanks": 25937, "\u0120indirection": 31402, "hide": 11590, "\u0120divergence": 28563, "\u0120obscure": 33954, "\u0120hangman": 30691, "\u0120guessed": 30609, "\u0120debugger": 27888, "\u0120j": 31952, "uts": 22326, "\u0120vscode": 39907, "\u0120lldb": 32571, "\u0120lend": 32355, "guessed": 11291, "ped": 16876, "word": 23052, "letters": 13788, "sed": 19273, "\u0120nonempty": 33780, "\u0120meant": 32968, "\u0120shadowed": 37120, "\u0120shadowing": 37121, "introdu": 12677, "ces": 6585, "hand": 11388, "\u0120touched": 38861, "tells": 20927, "going": 11119, "modified": 14995, "cing": 6768, "\u0120distinguish": 28539, "\u0120iiuc": 31151, "hopefully": 11694, "herring": 11566, "\u0120equivalently": 29201, "\u0120nope": 33799, "\u0120inferred": 31447, "\u0120capture": 26373, "\u0120annotate": 25088, "\u0120nutshell": 33915, "difference": 8400, "desugared": 8287, "job": 13184, "guesses": 11292, "misses": 14922, "progress": 17569, "increment": 12331, "miss": 14920, "lose": 14278, "broadcast": 6011, "leaving": 13703, "naming": 15429, "hang": 11411, "myk": 15314, "ski": 19735, "workspace": 23077, "78": 3116, "\u0120params": 34489, "\u0120cloneable": 26771, "\u0120retrieve": 36409, "\u0120oauth": 33933, "\u0120trustpilot": 39095, "accesstoken": 4028, "tp": 21373, "secret": 19243, "oauth": 15940, "business": 6128, "setopt": 19437, "curlopt": 7696, "httpheader": 11778, "urlencoded": 22211, "la": 13516, "uth": 22309, "si": 19601, "postfields": 17311, "returntransfer": 18570, "email": 9283, "base64": 5496, "authorization": 5211, "\u0120unsigned": 39516, "\u0120uniformly": 39382, "\u0120slowing": 37428, "\u0120hot": 30978, "\u0120scheme": 36824, "mask": 14574, "choice": 6725, "\u0120randomness": 35686, "\u0120knowing": 32194, "\u0120modern": 33283, "\u0120architectures": 25249, "\u0120instruction": 31632, "\u0120bottleneck": 26066, "\u0120cryptographically": 27640, "\u0120insecure": 31564, "\u0120qualify": 35585, "()?": 154, "\u0120listening": 32544, "\u0120ports": 34996, "\u0120handles": 30681, "\u0120packets": 34390, "\u0120bundle": 26240, "\u0120intern": 31722, "odes": 16034, "erver": 9610, "acceptor": 4016, "internode": 12637, "9337": 3433, "sent": 19349, "e0283": 8869, "driver": 8699, "\u0120inter": 31678, "\u0120channels": 26570, "detached": 8290, "10101": 1143, "\u0120piece": 34786, "\u0120bumped": 26236, "\u0120\"!\"": 23862, "\u0120indicator": 31395, "\u0120unconditionally": 39299, "\u0120infinite": 31452, "\u0120appendix": 25182, "\u0120diverging": 28566, "diverging": 8511, "never": 15573, "\u0120stabilized": 37749, "\u0120coerced": 26858, "\u0120subtype": 38109, "\u0120stable": 37752, "loops": 14269, "condition": 7208, "coerced": 7003, "\u0120fnv": 29923, "\u0120dead": 27861, "799": 3145, "\u01202020": 24207, "fnv1a32": 10471, "sis": 19700, "136": 1341, "261": 1838, "prime": 17460, "777": 3108, "mul": 15196, "fnv": 10470, "0x7a": 1013, "handles": 11402, "hashes": 11445, "unk": 22042, "dead": 8009, "ieve": 12024, "\u0120ch": 26544, "aging": 4309, "nix": 15671, "pect": 16871, "\u0120pythons": 35556, "splits": 20035, "\u0120facility": 29576, "ian": 11864, "\u0120company": 26978, "yname": 23455, "div": 8507, "col": 7013, "javascript": 13092, "locale": 14186, "1234567890": 1281, "businessunit": 6129, "130px": 1327, "px": 17748, "\u0120official": 34038, "\u0120applying": 25199, "\u0120query": 35608, "\u0120filename": 29759, "\u0120assigned": 25381, "(),": 147, "\u0120st": 37739, "ices": 11909, "03": 598, "impro": 12266, "ving": 22627, "handling": 11403, "ular": 21869, "went": 22885, "conversion": 7360, "\u01202015": 24202, "\u0120beta": 25833, "\u0120testers": 38555, "\u0120heart": 30783, "burn": 6125, "\u0120zone": 40448, "\u0120forced": 29975, "\u0120regards": 36025, "reads": 18117, "writes": 23121, "ens": 9424, "person": 16957, "computer": 7176, "attach": 5141, "uses": 22273, "general": 10884, "superuser": 20618, "questions": 17870, "125": 1301, "clickonce": 6857, "\u0120asks": 25343, "\u0120permit": 34689, "\u0120machines": 32740, "fcc": 10079, "480": 2470, "152": 1408, "551": 2651, "click": 6853, "blogs": 5842, "kri": 13478, "2009": 1643, "contro": 7345, "visualstudio": 22657, "deployment": 8203, "configure": 7226, "mpt": 15124, "behavior": 5637, "2015": 1651, "\u0120boils": 26010, "subscriptions": 20523, "subscription": 20522, "subs": 20517, "suffix": 20574, "statement": 20231, "\u0120inserted": 31568, "\u0120omit": 34073, "\u0120falls": 29618, "\u0120subscription": 38061, "\u0120persist": 34703, "\u0120satisfying": 36763, "\u0120satisfy": 36762, "\u0120retains": 36401, "\u0120failures": 29598, "\u0120enumerates": 29157, "\u0120unspecified": 39526, "\u0120enumerate": 29155, "detailed": 8292, "explanation": 9840, "prevents": 17448, "subsequent": 20527, "borrows": 5927, "modification": 14994, "\u0120crazy": 27563, "\u0120cpp": 27526, "\u0120breadth": 26110, "\u0120hell": 30799, "\u0120broke": 26148, "\u0120beginner": 25768, "\u0120sco": 36837, "\u0120treenode": 39006, "\u0120highly": 30857, "\u0120thankful": 38580, "scanner": 19128, "cnt": 6965, "later": 13586, "147": 1389, "\u0120q": 35558, "\u0120dy": 28824, "li": 13820, "\u0120dylib": 28827, "libloading": 13892, "trying": 21584, "symbols": 20711, "architecture": 4819, "referenced": 18254, "\u0120dylibs": 28828, "\u0120linear": 32506, "\u0120upstream": 39611, "\u0120inf": 31433, "ront": 18756, "ciate": 6754, "parity": 16738, "uel": 21818, "ning": 15661, "\u0120'/": 23949, "developer": 8314, "nvidia": 15915, "\u0120crashed": 27553, "\u01202013": 24200, "\u0120gt": 30590, "\u01202048": 24209, "\u0120proces": 35295, "xp": 23338, "\u0120monitor": 33318, "\u012016": 24165, "\u0120notify": 33840, "]\".": 3736, "\u0120clicking": 26746, "\u0120robert": 36538, "\u0120continuous": 27336, "\u0120virtually": 39846, "\u0120raised": 35670, "\u0120catch": 26432, "henry": 11551, "oo": 16217, "wu": 23170, "fu": 10699, "eng": 9400, "serially": 19392, "846": 3274, "gtx": 11276, "formal": 10543, "\u0120sizeof": 37361, "\u0120gb": 30259, "\u0120ram": 35675, "\u0120entity": 29143, "\u0120edmx": 28890, "pit": 17080, ".'": 300, "\u0120critical": 27591, "sqlexpress": 20072, "mdf": 14682, "integrated": 12591, "entities": 9456, "multiple": 15214, "entity": 9457, "\u0120patch": 34566, "\u0120eventual": 29302, "\u0120domain": 28639, "\u0120groups": 30577, "\u0120foreign": 29983, "\u0120identifier": 31098, "\u0120sid": 37230, "\u0120ds": 28762, "enumerated": 9482, "omain": 16137, "trusts": 21573, "\u0120updating": 39585, "\u0120converts": 27402, "\u012024": 24232, "\u0120digits": 28375, "\u0120criticism": 27593, "\u0120hopefully": 30952, "wikipedia": 22956, "machine": 14431, "ids": 12000, "sid": 19607, "unpack": 22067, "substr": 20536, "foreach": 10525, "floor": 10418, "lode": 14211, "\u0120ldap": 32307, "\u0120repl": 36212, "\u0120completion": 27032, "inspect": 12531, "members": 14725, "\u0120introspection": 31793, "\u0120racer": 35653, "\u0120facto": 29579, "sign": 19630, "vendored": 22533, "108": 1186, "sb": 19109, "pkey": 17098, "keypair": 13372, "repeat": 18403, "pf": 16982, "hw": 11810, "m0": 14406, "vk": 22661, "qc": 17792, "mw": 15276, "q1": 17783, "se3": 19213, "xo": 23330, "sg": 19475, "b75": 5369, "kar": 13299, "wr": 23100, "k4": 13278, "wx": 23183, "nj": 15673, "4u": 2547, "ft": 10690, "zp": 23647, "jk": 13160, "ax": 5291, "sw": 20670, "4y": 2552, "u0": 21720, "5y": 2797, "f2": 9925, "ds": 8719, "jg": 13141, "ux": 22341, "o0": 15932, "hq": 11731, "yt": 23488, "92": 3411, "kl": 13436, "cii": 6764, "ne": 15496, "i4": 11843, "hl": 11641, "0s": 793, "dz": 8827, "scp": 19174, "fv": 10763, "a6": 3863, "y3": 23390, "ke": 13322, "r2": 17924, "wi": 22941, "e7": 8999, "y0": 23387, "ba2": 5389, "3u": 2280, "ai": 4324, "vo": 22679, "aj": 4346, "g2": 10783, "\u0120abort": 24550, "++/": 247, "ini": 12440, "division": 8521, "divide": 8513, "oops": 16232, "divided": 8514, "embedded": 9291, "inter": 12605, "ability": 3959, "\u0120teaches": 38464, "\u0120sucess": 38134, "++:": 248, "\u0120members": 33007, "uint8": 21857, "vpn": 22709, "parameters": 16718, "mangle": 14499, "rive": 18672, "aster": 5052, "\u0120restart": 36365, "\u0120substrate": 38089, "ctrl": 7647, "\u0120reload": 36114, "\u0120systemd": 38364, "\u0120echo": 28863, "\u0120vecdeque": 39753, "error2": 9593, "\u0120opencv": 34113, "opencv": 16249, "uchar": 21783, "\u0120addition": 24720, "bring": 6008, "extra": 9892, "summary": 20598, "recursion": 18203, "reached": 18089, "expanding": 9814, "offi": 16052, "summ": 20593, "ry": 19010, "tweet": 21659, "uman": 21907, "\u0120uncomfortable": 39291, "\u0120embedding": 28980, "\u0120referring": 35984, "\u0120neccessary": 33620, "\u0120destructor": 28231, "\u0120brevity": 26122, "destruct": 8280, "destructor": 8282, "direct": 8436, "++,": 244, "\u0120interoperating": 31735, "\u0120versatile": 39792, "\u0120accompanied": 24611, "\u0120induces": 31413, "\u0120comfortable": 26929, "\u0120simplifying": 37313, "francis": 10619, "\u0120gagne": 30223, "\u0120ultimately": 39246, "\u0120unsafety": 39507, "typical": 21711, "\u0120interacting": 31680, "owning": 16602, "\u0120gains": 30227, "\u0120road": 36534, "cow": 7469, "nonoverlapping": 15743, "\u0120stops": 37886, "\u0120libssh": 32437, "\u0120dirty": 28407, "\u0120debian": 27883, "\u0120kb": 32104, "\u0120odd": 34018, "\u0120mb": 32941, "myhost": 15310, "authenticated": 5201, "dbe": 7953, "aver": 5247, "\u0120reader": 35744, "\u0120interrupted": 31752, "\u0120signal": 37255, "\u0120remotely": 36155, "\u0120trans": 38916, "\u0120beforehand": 25763, "\u0120yesterday": 40399, "\u0120linking": 32524, "\u0120automate": 25545, "\u0120linker": 32522, "\u0120workflow": 40246, "avr": 5264, "atmel": 5120, "emit": 9301, "gcc": 10841, "sections": 19250, "mmcu": 14955, "atmega328p": 5119, "elf": 9255, "objcopy": 15953, "oi": 16085, "ep": 9501, "rom": 18748, "linker": 14055, "cactus": 6286, "interrupt": 12650, "stage1": 20176, "rustlib": 18969, "ce8": 6515, "eb": 9052, "5a8": 2753, "pie": 17047, "nodefaultlibs": 15709, "supported": 20625, "collect2": 7023, "\u0120avr": 25579, "\u0120politely": 34942, "\u0120cutting": 27752, "\u0120edge": 28878, "\u0120contributors": 27361, "\u0120series": 37059, "\u0120scripts": 36874, "\u0120makefile": 32782, "\u0120xargo": 40340, "\u0120rumble": 36642, "\u0120subcommand": 38017, "little": 14108, "n8": 15396, "executables": 9773, "nostartfiles": 15775, "\u0120recompiling": 35862, "\u0120maintainability": 32769, "\u0120summarized": 38176, "\u0120deploying": 28124, "\u0120precision": 35092, "().": 148, "\u0120manager": 32800, "\u0120tar": 38417, "\u0120zip": 40434, "\u0120decompressing": 27935, "although": 4489, "executable": 9772, "containing": 7317, "\u0120contract": 27340, "erc": 9543, "testnet": 21008, "\u0120erc": 29212, "ting": 21226, "\u0120burn": 26248, "ated": 5077, "\u0120attach": 25459, "\u0120gas": 30245, "gas": 10823, "\u0120tx": 39181, "\u0120decrease": 27951, "\u0120successful": 38126, "erc20": 9544, "rush": 18930, "allowance": 4442, "escrow": 9623, "facebook": 9988, "malkevych": 14483, "scheduling": 19145, "rece": 18152, "ipt": 12776, "r7": 17939, "vd": 22476, "pl": 17108, "fz": 10779, "183": 1518, "wk": 23022, "smart": 19799, "contract": 7339, "attached": 5143, "deposit": 8205, "33100000000000000000000": 2077, "462": 2439, "guest": 11294, "bohdan": 5880, "nvm": 15916, "versions": 22568, "v13": 22352, "transaction": 21428, "ticks": 21170, "jections": 13124, "queues": 17877, "schedule": 19142, "desired": 8268, "bn": 5860, "571": 2697, "556": 2664, "216": 1717, "262": 1841, "245": 1800, "271": 1874, "100000000": 1122, "000000": 382, "providers": 17634, "\u0120deposit": 28127, "0000000000000000": 392, "\u0120keeping": 32116, "\u0120pairs": 34421, "\u0120converted": 27397, "\u0120acheive": 24643, "1374": 1348, "tup": 21628, "249": 1807, "\u0120explore": 29493, "\u0120fromstr": 30129, "tk": 21245, "rr": 18829, "\u0120bold": 26011, "{": 23675, "\\\"": 3722, "sett": 19446, "lement": 13742, "\\\":": 3724, "\\\",": 3723, "}\\": 23700, "\u0120recommendations": 35855, "t12": 20779, "440": 2389, "24t13": 1813, "1406": 1361, "789": 3134, "2434": 1794, "493": 2494, "798": 3144, "173": 1476, "deserializer": 8261, "mate": 14596, "siblings": 19605, "meets": 14715, "susan": 20651, "entering": 9445, "0x7fff5": 1049, "470": 2451, "\u0120deliberately": 28047, "\u0120hurt": 31052, "angle": 4619, "\u0120ndarray": 33605, "\u0120dot": 28660, "\u0120products": 35315, "ndarray": 15486, "cosine": 7434, "e2": 8962, "dimension": 8424, "ix": 13026, "blas": 5813, "\u0120indexed": 31381, "linalg": 14022, ":///": 3580, "ong": 16195, "toolchains": 21332, "apple": 4757, "darwin": 7880, "\u0120threw": 38668, "caused": 6439, "\u0120$": 23917, "templated": 20939, "ir": 12788, "\u0120git": 30367, "libgit2": 13867, "filesystem": 10278, "130": 1324, "repo": 18421, "cwd": 7740, "\u0120cli": 26743, "\u0120hassle": 30741, "\u0120piped": 34810, "\u0120interactive": 31683, "\u0120nowhere": 33857, "\u0120attempted": 25473, "atty": 5172, "everything": 9722, "\u0120philosophy": 34753, "bes": 5678, "ide": 11958, "\u0120atty": 25489, "\u0120recognize": 35845, "\u0120attaching": 25462, "\u0120member": 33006, "cbd": 6452, "fa": 9970, "206": 1673, "\u0120unsizing": 39519, "\u0120unzip": 39573, "download": 8657, "zipfile": 23565, "anyway": 4695, "seek": 19281, "beginning": 5631, "transferred": 21433, "compiled": 7129, "properly": 17603, "tw": 21656, "bs": 6029, "\u0120corrupted": 27473, "\u0120actix": 24688, "\u0120viewer": 39825, "\u0120credentials": 27576, "actix": 4111, "greet": 11219, "srv": 20115, "simulate": 19675, "fresh": 10650, "finish": 10313, "outcome": 16535, "route": 18794, "8000": 3187, "110": 1213, "117": 1246, "118": 1250, "124": 1297, "129": 1312, "131": 1328, "arms": 4891, "incompatible": 12317, "wel": 22880, "lf": 13807, "opaque": 16242, "meaning": 14690, "\u0120xor": 40366, "\u0120xored": 40367, "\u0120differnt": 28356, "001": 474, "1223": 1268, "5667": 2684, "788": 3133, "aabb": 3906, "dde": 7995, "eff": 9181, "1020": 1154, "3040": 2009, "a0b0": 3805, "c0d0": 6179, "53": 2618, "\u0120glium": 30401, "\u0120redraw": 35937, "\u012060": 24338, "\u0120frame": 30074, "\u0120redrawn": 35938, "\u0120glutin": 30422, "red": 18213, "control": 7346, "flow": 10422, "resized": 18484, "physical": 17028, "resize": 18483, "requested": 18450, "\u0120perusing": 34721, "\u0120apis": 25153, "\u0120scrolling": 36877, "\u0120handler": 30679, "glium": 11064, "ulk": 21887, "ano": 4656, "winit": 22990, "grab": 11173, "untested": 22112, "redraw": 18224, "milliseconds": 14873, "inst": 12535, "\u0120subsonic": 38074, "\u0120dreaded": 28731, "cale": 6306, "\u0120increasingly": 31348, "\u0120ditch": 28555, "\u0120mike": 33126, "groups": 11246, "subsonic": 20531, "browse": 6022, "418": 2334, "975": 3486, "\u0120planned": 34855, "\u0120focus": 29926, "\u0120door": 28653, "\u0120fixes": 29840, "\u0120outstanding": 34297, "\u0120schedule": 36818, "\u0120march": 32850, "\u01202010": 24197, "\u0120diesel": 28340, "\u0120floating": 29894, "\u0120label": 32217, "insertable": 12518, "data1": 7888, "data3": 7890, "diesel": 8391, "numeric": 15894, "\u0120mismatch": 33200, "\u0120schema": 36823, "generated": 10889, "\u0120extends": 29531, "\u0120nullable": 33890, "nullable": 15875, "\u0120rational": 35709, "lb": 13626, "delta": 8162, "cudat": 7673, "ut13": 22295, "operands": 16273, "\u0120rewrite": 36474, "\u0120stick": 37866, "\u0120slightly": 37414, "impl1": 12231, "impl2": 12232, "e0393": 8887, "\u00e2\u0122\u0136": 23787, "\u0120merely": 33042, "\u0120desugared": 28240, "\u0120polymorphism": 34959, "\u0120school": 36826, "\u0120came": 26331, "\u0120rusts": 36682, "successful": 20562, "\u0120john": 32027, "\u0120precisely": 35090, "\u0120unpack": 39464, "\u0120constituent": 27269, "\u0120compress": 27075, "\u0120subimage": 38032, "\u0120conveniently": 27380, "vg": 22588, "imageops": 12179, "crop": 7574, "\u0120ferris": 29712, "\u0120cropped": 27603, "\u0120striving": 37949, "\u0120serve": 37066, "('.": 136, "kam": 13295, "il": 12117, "\u2139": 40908, "\ufe0f": 41124, "installing": 12542, "\uff62": 41128, "wds": 22841, "\uff63": 41129, "served": 19401, "wd": 22838, "bundle": 6118, "\u2716": 40998, "309": 2018, "pm": 17168, "226": 1739, "ki": 13399, "ansi": 4670, "135": 1339, "231": 1749, "loglevel": 14229, "strip": 20415, "161": 1436, "overlay": 16577, "964": 3470, "reload": 18348, "402": 2296, "recursive": 18204, "hidden": 11589, "lodash": 14210, "472": 2455, "497": 2503, "\u0120readme": 35752, "\u0120tempting": 38505, "born": 5919, "achieve": 4060, "ness": 15555, "upon": 22164, "words": 23059, "zer": 23537, "kms": 13448, "\u0120funcion": 30176, "array2": 4915, "axis": 5297, "\u0120sidebar": 37232, "\u0120views": 39830, "\u0120initializing": 31515, "rdwr": 18081, "shm": 19557, "0o": 789, "\u0120gone": 30447, "cpus": 7487, "four": 10579, "six": 19713, "seven": 19460, "eight": 9212, "nine": 15660, "ten": 20946, "\u0120logically": 32628, "\u0120unordered": 39460, "\u0120liberty": 32412, "\u0120fiddling": 29735, "\u0120highlight": 30853, "\u0120similarities": 37297, "\u0120differences": 28348, "\u0120compet": 27000, "dk": 8532, "\u0120elaborate": 28922, "\u0120chunking": 26657, "\u0120playpen": 34876, "\u0120transformed": 38933, "\u0120stand": 37780, "eye": 9902, "\u0120glf": 30389, "ust": 22286, "rum": 18899, "\u0120face": 29568, "\u0120exploiting": 29489, "\u0120denominator": 28091, "\u0120eye": 29560, "\u0120perpendicular": 34699, "\u0120scaled": 36794, "\u0120spawn": 37588, "\u0120rejects": 36076, "invisible": 12705, "\u0120claiming": 26695, "\u0120cheat": 26596, "\u0120bump": 26235, "\u0120tenet": 38513, "\u0120workers": 40245, "\u0120deferring": 27998, "\u0120cells": 26482, "\u0120wrappers": 40285, "\u0120resort": 36339, "\u0120fight": 29745, "\u0120inherit": 31489, "ble": 5815, "\u0120destructuring": 28237, "\u0120mismatched": 33201, "\u0120destructure": 28234, "\u0120dozens": 28699, "ower": 16594, "\u0120emerson": 28991, "\u0120ipv": 31875, "\u0120len": 32354, "\u0120adapt": 24701, "search": 19219, "slices": 19770, "half": 11371, "mid": 14845, "greater": 11215, "\u0120reinterpret": 36062, "\u0120divisible": 28576, "\u0120lax": 32289, "\u0120ignores": 31142, "ipv4addr": 12780, "eof": 9493, "\u0120critique": 27595, "\u0120harsh": 30721, "664": 2919, "ccb": 6472, "ipv6addr": 12783, "always": 4494, "definition": 8118, "octets": 16014, "\u0120bitcoin": 25894, "\u0120curl": 27718, "easy": 9046, "jsonrpc": 13229, "params": 16719, "f8": 9957, "a12": 3809, "aef": 4253, "aac": 3908, "fa1": 9972, "b06": 5315, "f00": 9911, "051": 666, "168": 1458, "uru": 22239, "spot": 20050, "separate": 19357, "\u0120meaningful": 32963, "\u0120reset": 36313, "\u0120openmp": 34123, "\u0120behaving": 25782, "cmath": 6934, "omp": 16163, "r1": 17913, "nr1": 15822, "correspond": 7424, "limits": 14020, "gpu": 11162, "gpus": 11166, "coordinates": 7386, "onto": 16212, "stride": 20401, "ceil": 6526, "distances": 8495, "subset": 20528, "pragma": 17359, "potential": 17319, "rough": 18784, "lim": 14013, "calculated": 6299, "calculation": 6302, "siz": 19717, "clipp": 6876, "ay": 5301, "sizes": 19725, "components": 7157, "pointers": 17200, "dim3": 8422, "ignore": 12084, "\u0120grid": 30559, "\u0120globally": 30406, "\u0120broken": 26149, "\u0120launching": 32283, "\u0120blockidx": 25964, "\u0120threadidx": 38657, "\u0120calculation": 26309, "\u0120populates": 34978, "ion": 12737, "\u0120levels": 32382, "\u0120enclosing": 29048, "\u0120frequently": 30112, "om": 16136, "mitted": 14934, "tyname": 21688, "\u0120ubuntu": 39223, "\u012014": 24148, "libclang": 13839, "\u0120xlib": 40356, "\u0120libclang": 32405, "xlib": 23291, "x11": 23199, "preload": 17412, "clang": 6815, "\u0120boiled": 26006, "\u0120alas": 24893, "copied": 7392, "depends": 8200, "\u0120allocates": 24938, "\u0120\u00e2\u013a": 40541, "\u00ba": 23735, "assume": 5043, "\u0120sorted": 37551, "order": 16341, "uuid": 22332, "iznich": 13047, "\u0120serializ": 37048, "deserializing": 8262, "posts": 17316, "queryable": 17864, "\u0120derives": 28158, "\u0120coercions": 26863, "\u0120coerces": 26859, "\u0120nop": 33798, "\u0120joy": 32040, "implicit": 12247, "\u0120advantages": 24783, "\u0120accessing": 24600, "itten": 12989, "tiger": 21182, "\u0120solving": 37519, "\u0120glsl": 30415, "\u0120tessellation": 38548, "\u0120patches": 34568, "\u0120drastically": 28718, "\u0120increase": 31344, "\u0120margin": 32853, "\u0120dirt": 28406, "\u0120triangle": 39017, "\u0120beh": 25775, "em": 9280, "pclip": 16840, "qclip": 17793, "rclip": 18059, "\u0120cull": 27695, "vert": 22569, "clipoffset": 6875, "ments": 14761, "mvp": 15274, "outt": 16561, "sell": 19317, "s4": 19026, "\u0120curiosity": 27715, "\u0120triggered": 39033, "\u0120parsing": 34519, "0603": 682, "\u0120visibility": 39852, "undef": 21973, "compression": 7167, "algorithms": 4389, "rot": 18776, "late": 13584, "e0603": 8933, "\u0120oversight": 34342, "\u0120immaterial": 31192, "\u0120handlebars": 30677, "\u0120ultimate": 39245, "\u0120samples": 36730, "minimal": 14895, "handlebars": 11395, "rocket": 18727, "contrib": 7343, "wow": 23091, "ignite": 12082, "engines": 9404, "mlen": 14945, "sqlite": 20073, "e0631": 8944, "184": 1520, "162": 1441, "163": 1444, "164": 1447, "165": 1449, "176": 1482, "t3": 20790, "t4": 20796, "t5": 20798, "t7": 20801, "\u0120versioning": 39797, "serves": 19410, "ro": 18711, "sen": 19330, "mozilla": 15097, "\u0120incompatible": 31326, "\u0120careful": 26383, "\u0120usecase": 39636, "\u0120trigger": 39032, "\u0120reallocation": 35772, "\u0120exchange": 29362, "ud": 21796, "\u0120refrain": 36008, "\u0120trade": 38894, "\u0120refactor": 35959, "\u0120unresolved": 39495, "mnemonic": 14966, "\u0120namespacing": 33558, "\u0120detail": 28247, "marked": 14551, "consumes": 7306, "according": 4032, "wc": 22831, "\u0120bet": 25832, "\u0120refuse": 36013, "\u0120yanked": 40385, "\u0120todo": 38791, "heap": 11506, "available": 5241, "act": 4087, "cost": 7435, "expanded": 9812, "heuristic": 11569, "hucs": 11787, "closed": 6898, "trees": 21486, "flip": 10398, "mon": 15018, "ous": 16522, "satisfies": 19094, "termin": 20962, "visited": 22649, "already": 4474, "complexity": 7147, "hard": 11420, "restore": 18519, "leaf": 13683, "older": 16111, "parents": 16732, "backed": 5403, "\u0120backing": 25624, "zing": 23563, "similar": 19659, "changes": 6645, "gd": 10851, "ol": 16103, "packed": 16645, "looks": 14259, "releases": 18342, "returning": 18568, "reader1": 18105, "reader2": 18106, "n2": 15389, "n3": 15390, "n4": 15392, "multipeek": 15213, "peek": 16879, "\u0120duplicate": 28802, "\u0120preallocated": 35073, "\u0120confirm": 27176, "\u0120middle": 33108, "\u0120offer": 34031, "\u0120prepare": 35157, "gra": 11172, "hp": 11728, "ql": 17805, "\u0120sqlx": 37698, "graphql": 11204, "sqlx": 20078, "todos": 21296, "mutation": 15257, "yield": 23431, "shouldn": 19578, "\u0120chaining": 26549, "separator": 19360, "currency": 7700, "issu": 12872, "ed25519": 9107, "inputs": 12505, "unlock": 22050, "locks": 14204, "\u0120mcve": 32951, "\u0120gate": 30247, "\u0120generalize": 30291, "\u0120phrase": 34760, "\u0120concisely": 27128, "\u0120love": 32685, "\u0120respected": 36346, "\u0120engineering": 29102, "cats": 6436, "dogs": 8604, "dsl": 8727, "\u0120leaf": 32314, "\u0120directories": 28401, "\u0120subdirectories": 38020, "\u0120comprehension": 27072, "subdir": 20490, "dirs": 8450, "follow": 10484, "\u0120virt": 39842, "\u0120standalone": 37781, "\u0120configuring": 27172, "\u0120443": 24301, "\u0120vault": 39739, "\u0120dv": 28817, "\u0120jboss": 31984, "\u0120browse": 26155, "\u0120displayed": 28512, "\u0120advanced": 24778, "://:": 3581, "8443": 3272, "\u0120unsupported": 39538, "\u0120suite": 38166, "\u0120contact": 27303, "\u0120properties": 35393, "\u0120contrast": 27349, "\u0120refresh": 36009, "\u0120minutes": 33173, "\u0120sen": 36997, "\u0120dashboard": 27803, "\u0120md": 32952, "8100": 3219, "invalidated": 12695, "ecdhe": 9081, "gcm": 10847, "tl": 21247, "sv1": 20659, "engine": 9401, "rethrowing": 18550, "\u0120speaking": 37595, "\u0120presents": 35183, "\u0120issuers": 31917, "\u0120certify": 26522, "\u0120preceding": 35085, "pkcs": 17094, "]'": 3737, "cer": 6562, "\u0120exported": 29503, "p12": 16620, "storetype": 20350, "pkcs12": 17095, "confy": 7241, "gg": 10986, "jobs": 13187, "gv": 11311, "gx": 11315, "\u0120david": 27839, "\u0120chop": 26641, "\u0120firstly": 29825, "\u0120erroring": 29234, "\u0120sslsocket": 37730, "\u0120restrictive": 36382, "\u0120revoke": 36465, "\u0120eliminating": 28955, "\u0120pem": 34640, "\u0120revocation": 36464, "\u0120pki": 34834, "\u0120infrastructure": 31477, "\u0120ocsp": 34008, "\u0120status": 37827, "\u0120effort": 28906, "\u0120fingerprints": 29796, "\u0120revoked": 36466, "\u0120fingerprint": 29795, "\u0120crls": 27598, "\u0120distributed": 28549, "\u0120scales": 36795, "\u0120recognizes": 35847, "\u0120multiline": 33437, "discard": 8463, "yo": 23462, "multiline": 15210, "ndef": 15489, "\u0120discards": 28446, "\u0120concern": 27122, "\u0120ensuring": 29126, "delimited": 8153, "\u0120callback": 26319, "\u0120heavy": 30787, "\u0120traditional": 38899, "\u0120threading": 38658, "\u0120arc": 25240, ">,": 3659, "\u0120constructed": 27280, "\u0120deconstructed": 27938, "parser": 16751, "itions": 12967, "masklinn": 14578, "trivial": 21525, "\u0120condition": 27146, "depth": 8210, "\u0120exit": 29424, "\u0120computers": 27096, "\u0120debugging": 27890, "\u0120fullstrust": 30169, "!!": 1, "\u0120wmi": 40212, "?.": 3696, "\u0120toplevel": 38842, "dexception": 8331, "startup": 20221, "\u0120cit": 26680, "rix": 18674, "byname": 6151, "\u0120desirable": 28207, "\u0120vb": 39740, "activate": 4097, "\u0120speculate": 37630, "ran": 17982, "\u0120troubleshoot": 39057, "\u0120troubleshooting": 39058, "\u0120challenge": 26554, "\u0120reports": 36238, "\u0120hint": 30871, "mytree": 15368, "\u0120stub": 37978, "\u0120majority": 32778, "\u0120shim": 37164, "\u0120fallback": 29614, "\u0120monad": 33311, "\u0120monads": 33313, "\u0120stumbled": 37996, "\u0120boolean": 26027, "\u0120exhaustive": 29407, "wtf": 23166, "e0004": 8833, "exhaustive": 9795, "covered": 7466, "2aa4c46cf": 1940, "\u0120exhausting": 29405, "657": 2909, "045": 648, "ffc": 10188, "wigle": 22953, "swagger": 20671, "#/": 70, "!):": 17, "\u0120detailed": 28248, "\u0120wigle": 40143, "trilat": 21517, "tril": 21516, "latrange1": 13595, "lat": 13581, "latrange2": 13596, "longrange1": 14250, "longrange2": 14251, "freenet": 10633, "paynet": 16818, "ssid": 20123, "159": 1421, "889": 3345, "5081": 2579, "7398": 3054, "finity": 10317, "nginx": 15627, "\u0120instan": 31608, "\u0120descriptive": 28175, "hm": 11643, "\u0120authorization": 25527, "\u0120401": 24290, "doing": 8605, "dereferences": 8222, "assignment": 5030, "notice": 15789, "\u0120variation": 39725, "e0015": 8835, "variants": 22448, "\u0120desugars": 28242, "\u0120intrinsic": 31782, "\u0120overridden": 34337, "\u0120stumbling": 37998, "\u0120puts": 35529, "\u0120odds": 34021, "checker": 6685, "\u0120immutably": 31202, "\u0120lexical": 32390, "\u0120arms": 25289, "those": 21113, "bar1": 5467, "bar2": 5468, "directly": 8442, "\u0120mysql": 33524, "dao": 7875, "\u0120rows": 36601, "\u0120affected": 24819, "\u0120reflect": 35991, "\u0120sadly": 36705, "\u0120workspaces": 40256, "\u0120sers": 37062, "\u0120cmake": 26811, "\u0120preferred": 35133, "lite": 14099, "\u0120shamelessly": 37128, "\u0120announced": 25096, "librust": 13928, "\u0120deference": 27995, "\u0120realize": 35763, "\u0120pointlessly": 34922, "\u0120blanket": 25936, "\u0120contexts": 27322, "\u0120away": 25591, "(*": 157, ")[": 206, "]).": 3741, "fat": 10049, "\u0120resize": 36328, "highest": 11599, "\u0120ordered": 34201, "\u0120compelling": 26998, "\u0120coun": 27488, "sel": 19301, "\u0120ya": 40381, "\u0120comb": 26915, "\u0120renamed": 36165, "\u0120technically": 38474, "\u0120wild": 40148, "\u0120remarks": 36136, "\u0120transforming": 38935, "\u0120lowercase": 32691, "\u0120capitalized": 26364, "further": 10742, "verbose": 22545, "requirement": 18456, "\u0120rlib": 36523, "\u0120hal": 30656, "\u0120sequences": 37036, "\u0120inspecting": 31589, "\u0120metadata": 33070, "\u0120archive": 25250, "\u0120disassembly": 28439, "\u0120symbols": 38313, "\u0120mangled": 32812, "objdump": 15954, "filt": 10291, "\u0120trustbox": 39078, "\u0120componentdidmount": 27054, "frome": 10664, "trustbox": 21558, "stars": 20206, "organization": 16363, "href": 11735, "uk": 21865, "mount": 15068, "onload": 16202, "\u0120hours": 30983, "\u0120widget": 40135, "\u0120brave": 26106, "\u0120navigator": 33598, "(&": 133, ");": 200, "\u0120\u0120\u0120\u0120\u0120\u0120\u0120\u0120\u0120\u0120\u0120\u0120\u0120\u0120\u0120\u0120\u0120\u0120\u0120\u0120\u0120\u0120\u0120\u0120\u0120\u0120\u0120\u0120\u0120\u0120\u0120\u0120": 40581, "\u0120\u0120\u0120\u0120\u0120\u0120\u0120\u0120\u0120\u0120\u0120\u0120\u0120\u0120\u0120\u0120\u0120": 40569, "\u0120^": 24488, "\u0120aborting": 24552, "287": 1909, "0800": 708, "\u0120upgrade": 39588, "\u0120newer": 33692, "ages": 4299, "persons": 16963, "nim": 15657, "ari": 4866, "sha": 19485, "mu": 15193, "je": 13121, "ah": 4319, "people": 16904, "seper": 19362, "\u0120yep": 40397, "\u0120super": 38186, "\u0120unrelated": 39492, "\u0120redundancy": 35947, "\u0120dining": 28388, "\u0120philosophers": 34751, "\u0120programmatically": 35335, "\u0120pushed": 35525, "\u0120onto": 34093, "\u0120philosopher": 34750, "philosopher": 17010, "han": 11387, "switch": 20697, "forks": 10541, "philosophers": 17011, "\u0120imho": 31188, "\u0120expressive": 29521, "her": 11553, "\u0120fork": 30004, "increase": 12328, "\u0120promoted": 35368, "appends": 4754, "thus": 21156, "holded": 11669, "holder": 11670, "1u8": 1615, "optionally": 16312, "\u0120acquire": 24658, "\u0120rewrote": 36478, "\u0120crystal": 27647, "fileiopermission": 10265, "\u0120mscorlib": 33403, "\u0120culture": 27703, "neutral": 15572, "\u0120publickeytoken": 35482, "561934": 2675, "089": 718, "\u0120breakpoints": 26117, "\u0120fileiopermission": 29757, "mappath": 14528, "~/": 23705, "pur": 17710, "ase": 4962, "ill": 12145, "rpt": 18827, "\u0120hosted": 30970, "\u0120environments": 29169, "blake": 5807, "2008": 1642, "stal": 20185, "reports": 18427, "aspnet": 5000, "iis": 12109, "\u0120impersonation": 31219, "connector": 7254, "443": 2394, "nonblocking": 15735, "unnamed": 22060, "137": 1347, "172": 1474, "217": 1718, "lv3": 14383, "x509": 23213, "temporarily": 20943, "unavailable": 21942, "\u0120embrace": 28982, "\u0120machinery": 32739, "\u0120nonblocking": 33775, "indeed": 12340, "\u0120rustls": 36680, "\u0120redirection": 35929, "rustls": 18973, "anchors": 4573, "webpki": 22856, "roots": 18765, "dns": 8575, "suite": 20585, "negot": 15525, "iated": 11872, "writeln": 23117, "plaintext": 17124, "poly": 17229, "1305": 1326, "301": 1998, "permanently": 16937, "charset": 6667, "sat": 19089, "sep": 19353, "2592000": 1834, "220": 1727, "xss": 23358, "protection": 17618, "050": 661, "046": 650, "043": 644, "qu": 17837, "equiv": 9525, ")(": 181, "\u0120stencil": 37856, "adjacent": 4204, "671": 2934, "keys1": 13378, "vals1": 22408, "keys2": 13379, "vals2": 22409, "len1": 13748, "\u0120protoc": 35421, "\u0120procedurally": 35288, "\u0120prot": 35412, "boiler": 5883, "plate": 17136, "protobuf": 17621, "pure": 17713, "war": 22788, "existential": 9800, "protos": 17625, "\u0120youtube": 40416, "apis": 4724, "youtube": 23470, "****": 222, "snippet": 19841, "vide": 22604, "oid": 16087, "ht": 11747, "\u0120nifi": 33725, "\u0120processor": 35300, "sslcontext": 20129, "unverifiedexception": 22123, "\u0120cacerts": 26289, "jdk": 13115, "jira": 13153, "httpclient": 11773, "ifi": 12039, "\u0120home": 30922, "\u0120confuses": 27197, "present": 17424, "uh": 21841, "oh": 16081, "\u0120ceases": 26475, "\u0120/.": 24077, "\u0120accordingly": 24621, "\u0120overcome": 34306, "\u0120defaults": 27987, "29661": 1930, "\u0120supported": 38213, "\u0120incomplete": 31327, "\u0120mut": 33476, "declared": 8055, "\u0120\u00e2\u0122\u013b": 40511, "green": 11217, "\u0120robust": 36544, "\u0120colored": 26906, "blue": 5850, "colored": 7044, "829": 3249, "\u0120swagger": 38278, "came": 6333, "\u0120vcpkg": 39748, "\u0120native": 33584, "wagger": 22761, "\u0120landed": 32240, "\u0120flaw": 29872, "\u0120picks": 34777, "\u0120macos": 32741, "\u0120ios": 31859, "\u0120defeats": 27990, "framework": 10615, "schannel": 19140, "\u0120legitimate": 32352, "\u0120inputs": 31555, "\u0120legit": 32351, "\u0120scoped": 36840, "\u0120encapsulates": 29039, "\u0120travis": 38987, "\u0120ci": 26659, "\u0120cython": 27770, "\u0120locates": 32604, "\u0120xcode": 40346, "\u0120puzzled": 35533, "\u0120differs": 28357, "travis": 21473, "urschrei": 22231, "convertbng": 7363, "136730": 1345, "348": 2119, "\u0120phase": 34743, "liblonlat": 13894, "bng": 5862, "traceback": 21396, "recent": 18159, "venv": 22540, "python2": 17775, "nose": 15772, "importer": 12257, "fq": 10596, "fh": 10221, "cutil": 7731, "dlopen": 8550, "lonlat": 14252, "collected": 7024, "develop": 8312, "setuptools": 19456, "tokenize": 21305, "getattr": 10937, "egg": 9199, "maker": 14474, "sources": 19944, "extension": 9881, "macosx": 14437, "fno": 10464, "aliasing": 4394, "dndebug": 8572, "fwrapv": 10772, "wstrict": 23156, "prototypes": 17627, "cellar": 6536, "frameworks": 10616, "lookup": 14260, "lconvertbng": 13650, "llonlat": 14151, "copying": 7397, "pth": 17666, "successfully": 20563, "pthread": 17668, "pic": 17034, "relro": 18354, "fortify": 10558, "fstack": 10687, "protector": 17619, "ssp": 20150, "wformat": 22898, "werror": 22890, "inplace": 12497, "otool": 16483, "lc": 13644, "jan": 13072, "1226": 1269, "tool": 21328, "rpath": 18817, "i386": 11842, "intel": 12596, "rdirs": 18070, "ldirs": 13672, "platform": 17137, "252": 1819, "190": 1540, "trick": 21506, "perfect": 16913, "libraries": 13922, "\u0120dist": 28529, "cpython": 7490, "thon": 21112, "alternative": 4485, "distutils": 8503, "osx": 16456, "finalize": 10300, "treatment": 21479, "353": 2131, "construct": 7289, "bugs": 6087, "\u0120rpath": 36603, "\u0120ba": 25612, "kes": 13347, "albeit": 4366, "\u0120refs": 36012, "\u0120elsewhere": 28968, "\u0120fore": 29980, "libname": 13904, "\u0120pieced": 34787, "\u0120texture": 38571, "\u0120suspicion": 38264, "\u0120intuitively": 31800, "\u0120scoured": 36849, "scr": 19175, "reversed": 18581, "gn": 11101, "ify": 12063, "sampler": 19070, "nearest": 15501, "\u0120180": 24174, "\u0120benchmarked": 25811, "\u00c2\u00b5s": 23747, "\u0120reversed": 36445, "\u0120reversing": 36447, "\u0120170": 24171, "\u0120tolerable": 38815, "\u0120row": 36600, "\u0120framebuffer": 30075, "\u0120fullscreen": 30168, "\u0120tweaking": 39166, "\u0120lastly": 32262, "\u0120room": 36563, "\u0120avoidable": 25574, "logger": 14220, "mytool": 15367, "bf6b4": 5693, "01a6": 566, "725": 3034, "9b": 3544, "475": 2460, "scoped": 19165, "scheduler": 19144, "omitted": 16158, "arbiter": 4809, "\u0120mentions": 33033, "fered": 10155, "tracer": 21397, "1ecc6299db9ec823": 1588, "715": 3022, "\u0120opinion": 34149, "\u0120appealing": 25171, "\u0120ambiguities": 25003, "snake": 19826, "\u0120presume": 35198, "\u0120identically": 31095, "\u0120fell": 29703, "\u0120favour": 29669, "\u0120nowadays": 33856, "\u0120consistency": 27250, "\u0120inconsistent": 31333, "\u0120camel": 26332, "\u0120reserved": 36310, "\u0120solely": 37507, "\u0120genuinely": 30319, "\u0120reflecting": 35993, "bling": 5821, "\u0120baked": 25654, "\u0120hyper": 31061, "\u0120utility": 39670, "\u0120benchmarks": 25813, "02s": 596, "177": 1485, "bench": 5656, "\u0120wildcard": 40149, "1i": 1600, "\u0120misunderstood": 33223, "\u0120forgot": 30002, "\u0120quotes": 35646, "\u0120finishes": 29801, "\u0120benefit": 25819, "\u0120grips": 30563, "\u0120figuring": 29751, "\u0120ton": 38823, "\u0120vladimir": 39873, "\u0120rosettacode": 36571, "\u0120choking": 26635, "\u4e00": 41040, "\u4e8c": 41045, "\u4e09": 41042, "\u56db": 41062, "\u4e94": 41046, "\u516d": 41053, "\u4e03": 41041, "\u516b": 41051, "\u4e5d": 41044, "\u5341": 41056, "\u0120multibyte": 33431, "\u0120caus": 26446, "\u0120combinators": 26919, "series": 19394, "wave": 22819, "linear": 14035, "handle2": 11393, "xe": 23262, "ube": 21769, "unwrapped": 22130, "mas": 14569, "transmit": 21450, "face": 9986, "errs": 9597, "fifo": 10246, "compressed": 7166, "multicast": 15207, "carrier": 6399, "s0": 19017, "119": 1253, "2728": 1876, "436": 2383, "332": 2078, "\u0120abbreviate": 24536, "vv": 22741, "\u0120dubious": 28779, "\u0120sven": 38272, "\u0120marnach": 32867, "rename": 18377, "\u012013": 24142, "195": 1551, "\u0120uint": 39240, "sieve": 19615, "primes": 17462, "600851475143": 2805, "ith": 12954, "sieved": 19616, "\u0120approximately": 25221, "\u0120280": 24253, "\u0120atm": 25448, "\u0120ncurses": 33602, "\u0120asian": 25337, "\u0120catches": 26436, "\u0107": 23850, "ncurses": 15480, "getch": 10938, "mvaddstr": 15269, "f5": 9943, "_*": 3779, "\u0120translates": 38949, "wch": 22835, "\u0120presses": 35193, "utf8error": 22308, "\u0120sensor": 37010, "\u0120specifications": 37616, "\u0120accompanying": 24613, "\u0120spec": 37597, "\u0120fetched": 29715, "sensor": 19346, "spec": 19973, "simul": 19674, "sensors": 19347, "specs": 19990, "elided": 9257, "myx": 15381, "\u0120docx": 28624, "\u0120peruse": 34720, "\u0120accomplished": 24615, "\u0120ole": 34062, "\u0120locate": 32602, "\u0120extraction": 29549, "\u0120256": 24246, "\u0120seek": 36949, "\u0120central": 26495, "\u0120eocd": 29173, "\u012005": 24091, "\u012006": 24093, "docx": 8595, "objpool": 15964, "ole": 16115, "ole10": 16116, "ra069466": 17944, "ha420": 11356, "maint": 14465, "\u0120awesome": 25592, "#\"": 62, "\u0120\"#": 23867, "\u0120cd": 26467, "\u0120excluded": 29369, "():": 151, "pk": 17093, "0x05": 861, "0x06": 862, "eo": 9492, "\u0120seeking": 36950, "\u0120searching": 36900, "\u0120recognise": 35843, "\u0120tracker": 38889, "\u0120tied": 38711, "\u0120hesitant": 30823, "\u0120benefits": 25821, "\u0120apologies": 25157, "mouse": 15072, "printer": 17476, "orientation": 16373, "fact": 9993, "much": 15195, "sense": 19343, "nomicon": 15729, "splitting": 20038, "\u0120entities": 29141, "\u0120radix": 35665, "\u0120traverses": 38985, "\u0120identified": 31097, "\u0120decides": 27904, "\u0120orders": 34204, "arrange": 4910, "\u0120delivered": 28057, "\u0120transposed": 38973, "\u0120rearrange": 35783, "\u0120columns": 26913, "\u0120driven": 28739, "\u0120omitted": 34075, "\u0120hinted": 30872, "mytype": 15371, "idx1": 12004, "idx2": 12005, "d2": 7785, "idxs": 12007, "consuming": 7307, "unbounded": 21946, "6142": 2830, "chat": 6670, "\u0120joins": 32031, "\u0120carrying": 26399, "\u0120detect": 28251, "overlapping": 16575, "\u0120producing": 35310, "\u0120disjoint": 28494, "\u0120waking": 39938, "crossbeam": 7578, "\u0120exa": 29327, "cly": 6930, "cross": 7577, "fire": 10321, "\u0120synchronously": 38336, "synchronous": 20726, "allows": 4446, "contexts": 7327, "testing": 21004, "\u0120rank": 35691, "king": 13423, "\u0120permutation": 34694, "rank": 18003, "iomanip": 12735, "nsorts": 15843, "setw": 19457, "placeholders": 17119, "vectors": 22514, "segments": 19296, "adjac": 4201, "diff": 8393, "\u0120rearranged": 35784, "\u0120rearranging": 35786, "1633": 1445, "dtype": 8752, "ncols": 15478, "k2": 13276, "nrows": 15834, "\u0120arrives": 25310, "\u0120hangs": 30692, "shutdown": 19598, "\u0120appending": 25181, "\u0120buf": 26198, "\u0120appended": 25179, "\u0120hang": 30688, "edwardw": 9141, "ted": 20923, "\u0120worst": 40266, "\u0120trimming": 39040, "0020": 485, "408": 2310, "3435": 2111, "368": 2166, "multiply": 15222, "800": 3186, "800000000": 3190, "\u0120individually": 31408, "\u0120multiply": 33449, "\u0120strategic": 37905, "programming": 17567, "\u0120natural": 33586, "\u0120partic": 34526, "ula": 21868, "\u0120gotten": 30470, "\u0120early": 28846, "ures": 22192, "\u0120photoshop": 34757, "\u0120textures": 38572, "izes": 13043, "\u0120calculations": 26310, "\u0120met": 33067, "\u0120fractional": 30066, "\u0120rotate": 36575, "\u0120nearly": 33612, "\u0120integral": 31650, "dh": 8355, "\u0120'-": 23946, "214748": 1712, "800007": 3191, "pdh": 16854, "\u0120println": 35247, "taken": 20834, "mi": 14832, "wmi": 23029, "ctypes": 7657, "winnt": 22996, "processor": 17529, "hquery": 11732, "0x25": 920, "b49": 5348, "ce3": 6512, "tchar": 20889, "tmain": 21261, "getchar": 10939, "winerror": 22986, "zeroed": 23539, "\u0120geometric": 30322, "\u0120shapes": 37132, "\u0120shape": 37130, "\u0120refined": 35988, "\u0120subshapes": 38070, "\u0120refinement": 35989, "knows": 13455, "ined": 12380, "\u0120hypothetical": 31071, "\u0120refines": 35990, "\u0120clauses": 26723, "shape": 19512, "refined": 18267, "refine": 18266, "0038": 492, "\u0120intend": 31665, "\u0120buying": 26268, "\u0120clarify": 26706, "blog": 5841, "ph": 16997, "ili": 12131, "mann": 14510, "staticlib": 20240, "eh": 9204, "personality": 16961, "f80": 9958, "s128": 19019, "redzone": 18234, "mmx": 14963, "sse": 20118, "xargo": 23241, "tester": 21002, "\u0120rookie": 36562, "\u0120toggled": 38797, "\u0120del": 28028, "\u0120succeed": 38119, "\u0120refreshing": 36011, "toggle": 21299, "wb": 22825, "kg": 13394, "initscr": 12471, "stdscr": 20268, "ln": 14166, "endwin": 9388, "\u0120deleting": 28043, "\u0120deletes": 28042, "thin": 21086, "pages": 16664, "\u0120sol": 37503, "oution": 16548, "\u0120memcached": 33009, "\u0120fixing": 29841, "\u0120thses": 38685, "hed": 11517, "listed": 14085, "\u0120dpkg": 28704, "\u0120talking": 38398, "\u0120av": 25559, "memcached": 14730, "\u0120shock": 37173, "ingly": 12428, "\u0120tha": 38577, "\u0120entering": 29133, "\u0120guys": 30630, "\u0120appreci": 25202, "ative": 5111, "ts": 21586, "copyright": 7398, "1997": 1565, "zend": 23536, "techno": 20918, "v7": 22369, "1999": 1566, "lsb": 14318, "distr": 8497, "utor": 22323, "debian": 8025, "\u0120msgpack": 33406, "mods": 15004, "fpm": 10592, "msgpack": 15157, "launchpad": 13604, "/+": 356, "\u0120swf": 38290, "\u0120webview": 40049, "\u0120panel": 34440, "media": 14707, "flashplayer": 10378, "isted": 12884, "\u0120networking": 33681, "adobe": 4219, "\u0120flash": 29855, "\u0120pasting": 34564, "\u0120strangely": 37903, "ect": 9098, "\u0120morning": 33352, "\u012038": 24282, "\u012046": 24305, "integers": 12585, "individual": 12368, "\u0120confident": 27159, "\u0120compares": 26988, "virtual": 22635, "mult": 15203, "\u0120tomcat": 38820, "\u0120webapp": 40021, "\u0120truststorefile": 39100, "\u0120registered": 36035, "pkix": 17104, "\u0120cas": 26405, "servlet": 19419, "\u0120connector": 27220, "\u0120servlet": 37079, "\u0120feed": 29693, "\u0120privatekeys": 35264, "\u0120overloads": 34331, "\u0120examine": 29336, "\u0120javadoc": 31975, "javase": 13093, "x509certificate": 23215, "x500principal": 23212, "regions": 18298, "0xe0000": 1100, "0xfffff": 1111, "initials": 12465, "])": 3739, "\u0120!=": 23860, "\u0120soa": 37486, "\u0120aos": 25141, "floats": 10414, "int4": 12575, "passes": 16781, "e0616": 8940, "\u0120owners": 34367, "fives": 10348, "555": 2661, "consumed": 7303, "twos": 21672, "222": 1730, "\u0120unpinned": 39472, "\u0120enforced": 29095, "\u0120ub": 39219, "slot": 19779, "previously": 17451, "violated": 22629, "\u0120snap": 37466, "\u0120alacritty": 24892, "\u0120crt": 27618, "\u0120edited": 28881, "\u0120~/.": 40480, "\u0120helped": 30804, "craft": 7498, "scrt1": 19197, "waiting": 22766, "wish": 23013, "introspect": 12681, "lib32": 13827, "libx": 13964, "\u0120listing": 32546, "\u0120hoped": 30949, "\u0120generating": 30300, "array1": 4913, "alph": 4461, "88ac128001ac3a9a": 3347, "bi": 5706, "torrent": 21354, "denied": 8180, "\u0120anti": 25120, "virus": 22640, "\u0120software": 37501, "\u0120interfering": 31710, "\u0120disabling": 28412, "\u0120subprocess": 38052, "\u0120echoing": 28865, "11111": 1221, "2222": 1732, "3333": 2081, "oooooooo": 16229, "readline": 18112, "281": 1895, "\u0120footer": 29963, "\u0120terminates": 38530, "\u0120triggering": 39034, "eeded": 9151, "termination": 20968, "footer": 10510, "argo": 4853, "`,": 3792, "xenial": 23270, "ox": 16606, "824": 3243, "a0": 3797, "tom": 21313, "bst": 6038, "grow": 11247, "filled": 10284, "runs": 18920, "filenames": 10270, "\u0120runner": 36649, "\u0120absolutely": 24564, "\u0120whatsoever": 40086, "\u0120conditional": 27147, "686": 2957, "\u0120macbook": 32736, "\u0120journey": 32039, "\u0120toolchain": 38831, "#)": 65, "\u0120hop": 30947, "debugger": 8029, "\u0120cul": 27694, "intrinsics": 12675, "\u0120mitigated": 33231, "\u0120[\"": 24471, "\"]": 55, "\u0120nicer": 33714, "\u0120negatives": 33647, "\u0120edges": 28879, "\u0120rusty": 36686, "nums": 15898, "bsearch": 6031, "\u0120fighting": 29746, "\u0120deals": 27876, "\u0120forcing": 29979, "\u0120lengths": 32361, "\u0120exceed": 29344, "\u0120negative": 33645, "\u0120../": 24071, "plot": 17157, "mote": 15062, "streampro": 20387, "cess": 6587, "ote": 16462, "den": 8179, "zt": 23659, "nice": 15637, "nar": 15439, "\u0120coincidentally": 26876, "starblue": 20202, "\u0120camelcase": 26333, "\u0120kids": 32160, "abcdef": 3942, "gh": 10996, "sha3": 19493, "keccak256": 13324, "vote": 22699, "alice": 4395, "178": 1489, "106": 1176, "218": 1719, "155": 1412, "120": 1260, "211": 1703, "205": 1669, "\u0120andrew": 25071, "\u0120morton": 33354, "868": 3308, "b29": 5332, "2a": 1938, "46a1": 2448, "344": 2112, "27a": 1889, "308": 2015, "629": 2854, "b5": 5352, "a64": 3864, "427": 2360, "structure": 20448, "pseudo": 17651, "\u0120reproducible": 36260, "subkeys": 20499, "myvalue": 15373, "value2": 22417, "datab": 7894, "rou": 18783, "ght": 11002, "subkey": 20498, "doesnt": 8601, "\u0120distinction": 28536, "\u0120ignoring": 31144, "inserted": 12519, "\u0120usual": 39662, "\u0120resides": 36321, "\u0120blows": 25975, "\u0120traces": 38885, "\u0120uncommenting": 39294, "\u0120factoring": 29585, "\u0120strip": 37942, "clippy": 6878, "\u0120atomic": 25451, "\u0120observe": 33962, "\u0120interleaved": 31714, "atomic": 5127, "\u0120colors": 26908, "modify": 15000, "purple": 17717, "orange": 16328, "\u0120\",": 23886, "\u0120unify": 39384, "\u0120heterogenous": 30829, "\u0120masking": 32877, "\u0120endianness": 29080, "stdint": 20261, "uint32": 21853, "i1": 11829, "dddd": 7994, "msb": 15147, "0x00": 807, "i2": 11835, "\u0120endian": 29077, "\u0120bitmask": 25903, "low": 14287, "\u0120jit": 32004, "\u0120portion": 34994, "\u0120partially": 34523, "\u0120li": 32399, "jit": 13155, "decla": 8049, "abstract": 3983, "prepare": 17418, "\u0120board": 25992, "\u0120zynq": 40456, "7000": 3008, "\u0120fsbl": 30151, "xa": 23233, "304": 2008, "\u00e2\u0122\u013f.": 23796, "boot": 5910, "metal": 14795, "\u0120tz": 39212, "p15": 16621, "r0": 17912, "0x1": 870, "mcr": 14671, "0xffffffff": 1112, "0x0000": 809, "ffff": 10196, "\u0120firmware": 29820, "\u0120modeled": 33272, "\u0120arg": 25264, "\u0120terminating": 38531, "\u0120spot": 37673, "ison": 12863, "terminate": 20965, "printing": 17479, "858": 3288, "1f6": 1591, "leading": 13681, "\u0120worried": 40260, "\u0120needlessly": 33635, "\u0120replacements": 36217, "\u0120rope": 36569, "\u0120unquoted": 39482, "june": 13255, "\u0120overkill": 34320, "\u0120delegates": 28037, "terminator": 20969, "ator": 5133, "\u0120relying": 36126, "\u0120escaped": 29244, "irty": 12815, "\u0120presentation": 35178, "anyhow": 4691, "loads": 14180, "various": 22451, "care": 6393, "anymore": 4693, "\u0120modifies": 33291, "\u0120consumer": 27297, "\u0120retaining": 36400, "\u0120mmap": 33249, "\u0120involve": 31846, "\u0120freshly": 30114, "\u0120provably": 35429, "\u0120undo": 39343, "\u0120elision": 28957, "\u0120uniform": 39381, "\u0120vtable": 39910, "\u0120erases": 29206, "\u0120importantly": 31252, "whose": 22939, "underlying": 21978, "accessed": 4021, "\u0120assist": 25388, "wan": 22783, "unless": 22045, "polled": 17224, "\u0120nature": 33588, "\u0120iss": 31909, "specifically": 19982, "effect": 9182, "alternatively": 4486, "released": 18341, "soon": 19922, "offers": 16051, "\u0120clap": 26701, "bra": 5971, "\u0120nodejs": 33760, "\u0120conc": 27101, "ure": 22187, "ncy": 15481,
[...]
