{"C": 3751, "U": 3769, "D": 3752, "A": 3749, "g": 10889, "p": 16579, "u": 21607, "v": 22225, "e": 8893, "c": 6224, "t": 20679, "o": 15898, "r": 17865, "\u0120recently": 35694, ",": 270, "\u0120when": 39952, "\u0120i": 30913, "\u0120try": 38965, "\u0120to": 38647, "\u0120use": 39500, "\u0120cuda": 27515, "\u0120programming": 35194, "\u0120want": 39821, "\u0120send": 36882, "\u0120a": 24361, "\u0120vector": 39624, "\u0120gpu": 30336, "\u0120memory": 32879, ".": 311, "\u0120someone": 37398, "\u0120tells": 38371, "\u0120me": 32815, "\u0120that": 38466, "\u0120can": 26184, "\u0120thrust": 38555, "::": 3609, "device": 8385, "_": 3842, "vector": 22371, "\u0120and": 24906, "host": 11819, "\u0120also": 24816, "\u0120read": 35604, "\u0120the": 38469, "\u0120help": 30659, "\u0120document": 28456, "\u0120but": 26104, "\u0120still": 37744, "\u0120don": 28487, "'t": 129, "\u0120know": 32040, "\u0120how": 30834, "\u0120such": 38024, "\u0120into": 31610, "\u0120kernel": 31971, "\u0120function": 30026, "\u0120": 23658, "\u0120my": 33367, "\u0120codes": 26684, "\u0120are": 25094, "\u0120as": 25164, "\u0120following": 29797, ":": 3593, "\u0120in": 31115, "\u0120fact": 29428, "\u0120if": 30969, "\u0120you": 40264, "\u0120please": 34739, "\u0120tell": 38369, "\u0120something": 37403, "\u0120about": 24394, "\u0120this": 38512, "\u0120question": 35470, "\u0120there": 38485, "\u0120any": 24966, "\u0120better": 25680, "\u0120way": 39864, "\u0120complete": 26864, "\u0120same": 36610, "?": 3715, "\u0120thanks": 38465, "\u0120very": 39675, "\u0120much": 33281, "!": 0, "thrust": 21043, "&": 96, "lt": 14365, "int": 12667, "gt": 11380, "dev": 8371, "fi": 10333, "ret": 18482, "ime": 12305, "[": 3775, "1000": 1137, "]": 3799, "global": 11182, "void": 22551, "compute": 7237, "current": 7768, "d": 7834, "ftime": 10801, "idx": 12115, "=": 3656, "block": 5887, "dim": 8486, "x": 23039, "*": 232, "+": 246, "thread": 21021, "printf": 17441, "\"": 30, "%": 86, "\\": 3788, "n": 15381, "\u0120device": 28132, "\u0120vectors": 39630, "\u0120cannot": 26195, "\u0120be": 25573, "\u0120passed": 34415, "\u0120directly": 28243, "\u0120kernels": 31972, "\u0120need": 33493, "\u0120pass": 34413, "\u0120pointer": 34775, "\u0120underlying": 39182, "\u0120done": 28488, "\u0120like": 32338, "\u0120have": 30608, "\u0120an": 24872, "\u0120array": 25136, "\u0120of": 33890, "\u0120do": 28441, "\u0120what": 39945, "\u0120is": 31733, "\u0120described": 28017, "\u0120here": 30671, "raw": 17990, "pointer": 17161, "cast": 6472, "data": 7953, "R": 3766, "s": 18953, "i": 11941, "l": 13569, "m": 14432, "\u0120hierarchy": 30701, "\u0120src": 37585, "/": 359, "main": 14484, "rs": 18772, "animal": 4694, "race": 17907, "\u0120arr": 25131, "or": 16306, "\u0120add": 24556, "\u0120modules": 33161, "\u0120properly": 35247, "\u0120so": 37357, "\u0120no": 33621, "\u0120errors": 29075, "mod": 14978, "animals": 4695, "fn": 10562, "let": 13818, "12": 1278, "0": 393, "1": 1134, "8": 3204, "24": 1801, "white": 22783, "println": 17443, "hello": 11651, "world": 22933, "pub": 17645, "struct": 20353, "height": 11642, "f64": 10059, "weight": 22730, "age": 4362, "u32": 21626, "enum": 9560, "ace": 4120, "wh": 22759, "it": 12990, "black": 5853, "yellow": 23260, "-": 289, "src": 20029, "5": 2573, "|": 23497, "^": 3837, "help": 11658, "name": 15410, "the": 20949, "file": 10365, "either": 9284, "inside": 12628, "directory": 8509, "error": 9681, "aborting": 4040, "due": 8822, "to": 21175, "previous": 17413, "\u0120rename": 36033, "\u0120.": 23878, "\u0120find": 29639, "\u0120more": 33211, "\u0120information": 31299, "\u0120on": 33940, "\u0120splitting": 37540, "\u0120across": 24506, "\u0120files": 29616, "S": 3767, "L": 3760, "H": 3756, "J": 3758, "M": 3761, "\u0120am": 24839, "\u0120trying": 38968, "\u0120connect": 27055, "\u0120messaging": 32919, "\u0120provider": 35295, "\u0120over": 34163, "\u0120secure": 36810, "\u0120connection": 27058, "\u0120using": 39526, "\u0120trust": 38929, "\u0120store": 37766, "\u0120unable": 39108, "\u0120unsecure": 39381, "ly": 14427, "\u0120post": 34878, "\u0120messages": 32918, "\u0120without": 40063, "\u0120issue": 31750, "\u0120moment": 33169, "\u0120connecting": 27057, "\u0120protocol": 35278, "\u0120it": 31759, "\u0120not": 33684, "\u0120working": 40106, "\u0120received": 35688, "\u0120error": 29070, "\u0120retrieving": 36287, "\u0120jndi": 31859, "\u0120\u0120": 40414, "\u0120works": 40110, "\u0120via": 39684, "\u0120jmeter": 31853, "\u0120password": 34421, "\u0120all": 24769, "\u0120valid": 39562, "\u0120correct": 27299, "\u0120seems": 36840, "\u0120initiating": 31352, "\u0120hermes": 30674, "\u0120through": 38544, "bat": 5563, "\u0120detecting": 28102, "\u0120parameters": 34341, "\u0120added": 24559, "\u0120start": 37670, "\u0120up": 39443, "\u0120therefore": 38489, "\u0120isn": 31738, "\u0120truststore": 38953, "\u0120updated": 39450, "\u0120script": 36754, "\u0120line": 32358, "\u0120starts": 37676, "\u0120program": 35182, "\u0120tried": 38884, "\u0120sorts": 37426, "\u0120combinations": 26754, "\u0120with": 40057, "\u0120javax": 31821, "net": 15542, "ssl": 20056, "truststore": 21465, "(": 131, "password": 16752, ")": 186, "\u0120none": 33646, "\u0120them": 38474, "\u0120worked": 40098, "javax": 13184, "jms": 13256, "j": 13142, "ms": 15140, "exception": 9863, "could": 7505, "not": 15751, "create": 7589, "initial": 12557, "context": 7389, "jn": 13257, "di": 8428, "setup": 19388, "failed": 10123, "on": 16149, "sp": 19881, "server": 19336, "domain": 8676, "internal": 12729, "9001": 3407, "at": 5122, "hermes": 11675, "factory": 10113, "java": 13175, "282": 1917, "ext": 9983, "admin": 4284, "support": 20538, "discover": 8536, "destination": 8339, "configs": 7284, "441": 2409, "impl": 12337, "adapter": 4205, "82": 3257, "default": 8162, "112": 1250, "6": 2818, "browser": 6080, "tasks": 20769, "dis": 8518, "cover": 7530, "dest": 8337, "in": 12381, "ations": 5168, "task": 20767, "invoke": 12814, "77": 3118, "run": 18836, "175": 1499, "pool": 17206, "170": 1490, "lang": 13607, "745": 3082, "program": 17523, "files": 10384, "x86": 23082, "jdk1": 13203, "7": 3025, "75": 3091, "bin": 5789, "w": 22607, "xx": 23215, "new": 15557, "size": 19650, "256": 1847, "mx": 15274, "1024": 1177, "dhermes": 8425, "home": 11794, "opts": 16300, "log4j": 14250, "configuration": 7286, "props": 17570, "sun": 20518, "2d": 1967, "no": 15670, "dd": 8049, "true": 21435, "config": 7283, "xml": 23145, "libs": 13968, "djavax": 8596, "trust": 21446, "store": 20264, "alex": 4455, "jks": 13248, "manage": 14513, "'s": 128, "\u0120kind": 32013, "\u0120easy": 28687, "\u0120miss": 33066, ";": 3622, "\u0120before": 25605, "\u0120main": 32624, "\u0120class": 26545, "\u0120declaration": 27759, "\u0120essential": 29097, "y": 23229, "\u0120invoked": 31682, "\u0120two": 39033, "\u0120arguments": 25111, "\u0120its": 31784, "\u0120method": 32935, "\u0120wanted": 39822, "\u0120invoke": 31681, "\u0120java": 31814, "exe": 9878, "\u0120proper": 35246, "\u0120jks": 31849, "\u0120for": 29818, "\u0120example": 29186, "\u0120should": 37082, "\u0120work": 40094, "V": 3770, "\u0120floats": 29747, "\u0120however": 30835, "\u0120filled": 29622, "\u0120zeros": 40287, "\u0120idea": 30928, "\u0120why": 39988, "\u0120required": 36150, "\u0120specifically": 37485, "\u0120allocate": 24777, "\u0120host": 30813, "\u0120?": 24286, "h": 11435, "vec": 22352, "float": 10513, "pd": 16813, "kernel": 13413, "grid": 11344, "cuda": 7735, "malloc": 14510, "memcpy": 14751, "\u0120cudamalloc": 27523, "\u0120cudamemcpy": 27526, "\u0120copy": 27278, "\u0120assignment": 25225, "\u0120just": 31927, "\u0120fine": 29645, "\u0120between": 25682, "\u0120containers": 27151, "\u0120(": 23777, "\u0120or": 34051, "std": 20175, "$": 81, "module": 15010, "load": 14209, "10": 1135, "cat": 6477, "really": 18087, "cu": 7725, "#": 63, "include": 12416, "cstdio": 7684, "if": 12140, "f": 10019, "1f": 1608, "2": 1641, "2f": 1976, "3": 2007, "3f": 2283, "4": 2303, "4f": 2547, "5f": 2788, "6f": 3010, "7f": 3180, "8f": 3392, "9": 3403, "9f": 3576, "01f": 584, "32": 2060, "synchronize": 20637, "reset": 18422, "return": 18506, "nvcc": 15881, "11": 1231, "arch": 4876, "sm": 19719, "52": 2621, "100000": 1139, "200000": 1646, "300000": 2012, "400000": 2308, "500000": 2578, "00000": 397, "01": 547, "0000": 396, "a": 3866, "\u0120simple": 37183, "\u0120code": 26667, "\u0120imports": 31091, "\u01202": 24011, "\u0120uses": 39525, "\u0120struct": 37836, "\u0120from": 29972, "\u0120at": 25281, "'m": 126, "\u0120functions": 30032, "\u0120bots": 25911, "trait": 21311, "\u0120gamecore": 30077, "board": 5921, "\u0120they": 38497, "\u0120both": 25906, "\u0120imported": 31088, "\u0120func": 30021, "\u0120maint": 32629, "rait": 17933, "\u0120resolved": 36206, "\u0120structure": 37841, "\u0120directory": 28245, "\u0120message": 32912, "\u0120where": 39954, "\u0120wrong": 40164, "\u0120diffirent": 28207, "\u251c\u2500\u2500": 40811, "bots": 5992, "\u2502": 40798, "\u2514\u2500\u2500": 40806, "game": 10915, "core": 7469, "use": 22131, "state": 20149, "bot": 5989, "dummy": 8828, "make": 14497, "turn": 21531, "get": 11043, "move": 15086, "amp": 4610, "self": 19248, "field": 10347, "empty": 9386, "rand": 17941, "'": 98, "box": 6007, "mut": 15242, "uint": 21731, "side": 19544, "for": 10624, "random": 17945, "28": 1912, "resolve": 18434, "of": 16019, "undeclared": 21849, "`": 3856, "~": 23513, "unresolved": 21964, "\u0120rust": 36541, "\u0120by": 26113, "\u0120has": 30582, "\u0120good": 30302, "\u0120similar": 37174, "\u0120appropriate": 25049, "\u0120bits": 25752, "\u0120change": 26397, "\u0120guessing": 30469, "\u0120bit": 25733, "\u0120think": 38503, "\u0120reason": 35653, "\u0120haven": 30609, "\u0120really": 35640, "\u0120defined": 27852, "\u0120,": 23864, "\u0120instead": 31453, "\u0120generic": 30152, "\u0120happens": 30557, "\u0120implement": 31057, "\u0120call": 26163, "\u0120()": 23790, "\u0120provide": 35293, "\u0120enough": 28957, "\u0120disambiguate": 28268, "\u0120type": 39042, "\u0120let": 32221, ").": 206, "your": 23305, "and": 4650, "implementation": 12343, "signatures": 19569, "differ": 8464, "so": 19779, "picked": 17000, "this": 21001, "one": 16164, "P": 3764, "I": 3757, "T": 3768, "\u0120invitation": 31673, "\u0120link": 32370, "\u0120our": 34122, "\u0120own": 34222, "\u0120system": 38247, "\u0120api": 24985, "\u0120get": 30177, "\u0120token": 38663, "\u0120now": 33724, "\u0120problems": 35136, "\u0120\"": 23666, "403": 2316, "\u0120passing": 34417, "\u0120key": 31974, "\u0120well": 39935, "\u0120header": 30626, "\u0120request": 36138, "\u0120context": 27162, "\u0120documentation": 28457, "\u0120https": 30861, "://": 3601, "developers": 8381, "trustpilot": 21463, "com": 7116, "invitation": 12807, "api": 4781, "generate": 10998, "service": 19345, "review": 18524, "link": 14085, "apikey": 4785, "key": 13425, "\u0120map": 32702, "\u0120str": 37771, "\u0120reproduces": 36128, "\u0120other": 34115, "\u0120values": 39578, "\u0120note": 33692, "\u0120create": 27409, "\u0120new": 33552, "\u0120adding": 24562, "\u0120string": 37814, "\u0120literal": 32407, "str1": 20275, "str2": 20276, "str3": 20277, "str": 20274, "res": 18411, "map": 14544, "place": 17073, "binary": 5791, "operation": 16259, "cannot": 6410, "be": 5641, "applied": 4832, "type": 21578, "\u0120owned": 34223, "\u0120case": 26255, "\u0120your": 40266, "\u0120literals": 32409, "'re": 127, "\u0120written": 40162, "\u0120binary": 25714, "\u0120together": 38655, "\u0120going": 30295, "\u0120make": 32641, "\u0120some": 37394, "\u0120s": 36582, "\u0120represent": 36113, "\u0120actual": 24535, "\u0120owning": 34229, "\u0120then": 38479, "\u0120slices": 37282, "\u0120one": 33944, "\u0120does": 28467, "\u0120sense": 36889, "string": 20320, "\u0120convert": 27239, "\u0120another": 24947, "\u0120problem": 35134, "\u0120expects": 29290, "\u0120resulting": 36264, "\u0120size": 37233, "\u0120alignment": 24762, "\u0120original": 34083, "\u0120fails": 29448, "\u0120runtime": 36533, "\u0120-": 23867, "\u0120demo": 27918, "\u0120several": 36986, "\u0120possible": 34875, "\u0120changes": 26403, "\u0120could": 27328, "\u0120declare": 27762, "\u0120would": 40127, "\u0120which": 39963, "\u0120will": 40013, "\u0120immediately": 31029, "\u0120free": 29941, "\u0120after": 24680, "\u0120creating": 27413, "\u0120output": 34147, "into": 12769, "iter": 13018, "collect": 7084, "\u0120package": 34241, "\u0120project": 35205, "\u0120folder": 29786, "\u0120far": 29490, "\u0120did": 28179, "\u0120cargo": 26235, "\u0120extern": 29388, "\u0120dependencies": 27964, "\u0120hand": 30528, "eled": 9309, "\u0120:": 24239, "\u0120lines": 32365, "\u0120compile": 26846, "\u0120(),": 23792, "\u0120doing": 28474, "\u0120even": 29138, "\u0120load": 32437, "\u0120crates": 27402, "\u0120than": 38461, "\u0120file": 29604, "\u0120edit": 28714, "\u01201": 23920, "\u0120solve": 37388, "sdl2": 19141, "cargo": 6450, "toml": 21209, "keyboard": 13432, "dependencies": 8260, "31": 2039, "extern": 9995, "crate": 7570, "keycode": 13434, "build": 6147, "e0433": 8961, "did": 8449, "you": 23302, "mean": 14708, "\u0120stated": 37684, "\u0120above": 24396, "\u0120root": 36438, "\u0120order": 34058, "lib": 13861, "scan": 19059, "code": 7038, "example": 9851, "below": 5703, "is": 12912, "pressed": 17400, "event": 9821, "pump": 17662, "bool": 5956, "scancode": 19060, "\u0120been": 25602, "\u0120install": 31426, "\u0120windows": 40025, "\u0120sub": 37889, "sy": 20617, "tem": 20833, "\u0120linux": 32386, "wsl": 22995, "\u0120mentioned": 32888, "\u0120keeps": 31961, "\u0120erring": 29065, "\u0120answers": 24955, "\u0120mention": 32887, "\u0120around": 25130, "\u0120executed": 29229, "\u0120avail": 25407, "\u0120issues": 31756, "\u0120github": 30221, "\u0120pre": 34924, "\u0120ing": 31311, "\u0120didn": 28181, "\u0120means": 32822, "\u0120downloading": 28526, "from": 10773, "\u0120)": 23839, "\u0120running": 36530, "\u0120gives": 30227, "\u0120yet": 40254, "\u0120found": 29897, "\u0120lead": 32160, "\u0120being": 25634, "\u0120able": 24387, "\u0120wsl": 40174, "\u0120env": 29000, "\u012010": 23921, "\u0120ver": 39643, "\u012020": 24012, "rustup": 18925, "curl": 7762, "proto": 17582, "https": 11897, "tlsv1": 21150, "sf": 19403, "sh": 19418, "60": 2819, "certificate": 6628, "problem": 17473, "signed": 19571, "chain": 6689, "more": 15054, "details": 8359, "here": 11671, "ha": 11466, "se": 19146, "docs": 8651, "certs": 6640, "html": 11866, "verify": 22423, "le": 13733, "git": 11145, "ima": 12284, "cy": 7818, "therefore": 20972, "establish": 9740, "secure": 19188, "connection": 7313, "learn": 13751, "about": 4041, "situation": 19641, "how": 11838, "fix": 10458, "please": 17113, "visit": 22515, "web": 22702, "page": 16628, "mentioned": 14773, "above": 4042, "k": 13350, "insecure": 12617, "export": 9963, "rust": 18872, "hyper": 11934, "init": 12553, "\u0120certificate": 26354, "\u0120getting": 30190, "\u0120sh": 36996, "\u0120self": 36867, "\u0120since": 37209, "\u0120advent": 24630, "\u0120authorities": 25369, "\u0120almost": 24796, "\u0120nobody": 33623, "\u0120operates": 34001, "\u0120website": 39906, "\u0120because": 25593, "\u0120vulnerable": 39789, "\u0120man": 32656, "middle": 14853, "\u0120attacks": 25314, "\u0120exception": 29197, "\u0120seeing": 36832, "\u0120tampering": 38289, "\u0120non": 33640, "\u0120antivirus": 24964, "\u0120programs": 35195, "\u0120scan": 36681, "\u0120traffic": 38757, "\u0120out": 34127, "\u0120machine": 32598, "\u0120viruses": 39719, "\u0120intercept": 31515, "\u0120those": 38518, "\u0120connections": 27060, "\u0120insert": 31394, "\u0120authority": 25370, "\u0120impersonate": 31049, "\u0120doesn": 28468, "\u0120sees": 36842, "\u0120attack": 25310, "\u0120data": 27647, "\u0120most": 33217, "\u0120actually": 24537, "\u0120substantially": 37963, "\u0120weaken": 39873, "\u0120security": 36816, "\u0120choosing": 26477, "\u0120worse": 40122, "\u0120versions": 39667, "\u0120tls": 38641, "\u0120ciphers": 26502, "\u0120cases": 26258, "\u0120entirely": 28976, "\u0120neglecting": 33513, "\u0120verification": 39652, "\u0120leaving": 32183, "\u0120exposed": 29354, "\u0120mitm": 33094, "\u0120anyone": 24970, "\u0120internet": 31561, "\u0120event": 29141, "\u0120soon": 37414, "\u0120fail": 29442, "\u0120encrypted": 28903, "\u0120sni": 37348, "\u0120thing": 38499, "\u0120fix": 29687, "\u0120computer": 26936, "\u0120either": 28751, "\u0120disable": 28251, "\u0120feature": 29534, "\u0120remove": 36029, "\u0120rogue": 36422, "\u0120ca": 26132, "\u0120completely": 26867, "\u0120uninstall": 39256, "\u0120def": 27827, "ender": 9441, "\u0120prevent": 35066, "\u0120intercepting": 31516, "\u0120allow": 24785, "\u0120currently": 27562, "\u0120diving": 28415, "\u0120writing": 40161, "\u0120little": 32414, "\u0120math": 32770, "\u0120library": 32282, "\u0120quite": 35494, "\u0120model": 33129, "\u0120fields": 29590, "\u0120rings": 36379, "\u0120lifetimes": 32319, "\u0120right": 36369, "\u0120ring": 36377, "\u0120field": 29588, "\u0120compiling": 26853, "\u0120lifetime": 32317, "\u0120section": 36803, "by": 6204, "\u0120motivation": 33225, "\u0120behind": 25631, "\u0120obvious": 33842, "\u0120understand": 39189, "\u0120given": 30226, "\u0120examples": 29187, "\u0120totally": 38717, "\u0120lost": 32538, "\u0120btw": 26027, "\u0120minified": 33012, "\u0120version": 39664, "\u0120giving": 30228, "\u0120named": 33416, "\u0120impl": 31054, "\u0120various": 39600, "\u0120said": 36602, "\u0120may": 32799, "\u0120explain": 29316, "\u0120happening": 30556, "\u0120too": 38687, "\u0120specific": 37484, "\u0120traits": 38765, "ring": 18595, "characteristic": 6718, "unit": 21907, "some": 19826, "method": 14817, "15": 1418, "20": 1642, "explicit": 9953, "lifetime": 14033, "bound": 5999, "required": 18402, "\u0120king": 32019, "\u0120inheritance": 31319, "like": 14047, "\u0120pattern": 34443, "\u0120trait": 38763, "\u0120somehow": 37397, "\u0120interfaces": 31535, "\u0120provided": 35294, "\u0120languages": 32096, "\u0120only": 33952, "\u0120guaranty": 30459, "\u0120methods": 32941, "\u0120syntax": 38232, "\u0120mean": 32816, "\u0120superset": 38085, "\u0120implementing": 31064, "\u0120states": 37689, "\u0120implemented": 31061, "\u0120structs": 37838, "\u0120already": 24813, "\u0120yourself": 40268, "\u0120approach": 25043, "\u0120first": 29674, "\u0120define": 27851, "\u0120requires": 36154, "\u0120explanations": 29323, "\u0120strange": 37778, "\u0120wrote": 40166, "\u0120object": 33808, "\u0120reference": 35841, "\u0120peculiar": 34484, "\u0120require": 36149, "\u0120playing": 34732, "\u0120situation": 37230, "\u0120won": 40077, "\u0120play": 34722, "\u0120classic": 26547, "\u0120generics": 30157, "\u0120suffice": 38035, "\u0120look": 32505, "\u0120answer": 24951, "\u0120details": 28098, "foo": 10602, "bar": 5518, "value": 22289, "every": 9829, "false": 10142, "as": 5007, "well": 22739, "my": 15276, "first": 10440, "implement": 12342, "2i": 1984, "we": 22698, "override": 16547, "then": 20962, "can": 6393, "nothing": 15761, "keep": 13398, "b": 5364, "F": 3754, "\u0120learn": 32174, "\u0120wasm": 39839, "\u0120page": 34262, "\u0120input": 31382, "\u0120button": 26108, "\u0120player": 34726, "button": 6190, "\u0120tutorial": 39008, "\u0120closures": 26620, "\u0120put": 35382, "\u0120behavior": 25627, "\u0120click": 26577, "\u0120got": 30316, "\u0120compiler": 26848, "\u0120follows": 29799, "sys": 20655, "id": 12056, "player": 17103, "84": 3287, "closure": 6963, "wrap": 22955, "85": 3300, "input": 12602, "86": 3313, "87": 3333, "alert": 4452, "favor": 10169, "infor": 12521, "me": 14706, "ome": 16131, "93": 3455, "94": 3465, "dyn": 8881, "expected": 9931, "an": 4619, "found": 10686, "@": 3745, "44": 2406, "14": 1378, "features": 10241, "gen": 10982, "element": 9315, "storage": 20262, "ot": 16423, "orage": 16309, "document": 8656, "expect": 9929, "should": 19513, "have": 11575, "num": 15848, "clicks": 6919, "else": 9342, "insert": 12620, "ref": 18198, "set": 19360, "onclick": 16160, "unchecked": 21833, "see": 19208, "comments": 7145, "clock": 6943, "why": 22795, "forget": 10645, "cdylib": 6562, "rlib": 18621, "ask": 5039, "ama": 4574, "wasm": 22662, "bindgen": 5800, "js": 13297, "37": 2188, "console": 7335, "panic": 16661, "hook": 11805, "version": 22435, "css": 7681, "style": 20390, "declaration": 8116, "dom": 8675, "token": 21192, "list": 14118, "target": 20763, "body": 5930, "location": 14229, "node": 15677, "window": 22834, "provides": 17597, "better": 5735, "debugging": 8095, "panics": 16664, "logging": 14257, "them": 20959, "with": 22870, "great": 11328, "development": 8382, "but": 6188, "requires": 18405, "all": 4490, "fmt": 10558, "panicking": 16663, "inf": 12499, "rastructure": 17975, "isn": 12946, "when": 22769, "deploy": 8267, "ing": 12529, "optional": 16294, "wee": 22725, "alloc": 4508, "tiny": 21122, "allocator": 4516, "that": 20947, "only": 16184, "compared": 7178, "slower": 19713, "than": 20942, "however": 11839, "unfortunately": 21873, "nightly": 15630, "now": 15780, "test": 20885, "profile": 17515, "release": 18290, "tell": 20830, "rustc": 18884, "optimize": 16284, "small": 19722, "opt": 16271, "level": 13835, "\u0120caused": 26294, "\u0120causes": 26295, "\u0120variable": 39586, "\u0120used": 39505, "\u0120closure": 26619, "\u0120contains": 27154, "\u0120cause": 26293, "\u0120contain": 27147, "\u0120references": 35843, "\u0120stored": 37767, "\u0120outside": 34155, "\u0120itself": 31785, "\u0120implicitly": 31075, "\u0120requirement": 36151, "\u0120variables": 39587, "\u0120second": 36794, "\u0120comparison": 26830, "\u0120replaced": 36083, "static": 20160, "once": 16155, "\u0120raw": 35575, "\u0120sockets": 37369, "\u0120c": 26131, "\u0120ending": 28917, "\u0120google": 30309, "\u0120available": 25409, "\u0120crate": 27399, "\u0120called": 26167, "\u0120pnet": 34764, "crates": 7574, "io": 12824, "pnet": 17138, "\u0120docs": 28449, "\u0120progress": 35196, "\u0120learning": 32178, "\u0120fun": 30020, "\u0120experience": 29295, "\u0120/": 23897, "++": 252, "\u0120complex": 26875, "\u0120paradigms": 34314, "\u0120background": 25467, "after": 4354, "),": 203, "\u0120n": 33400, "dimensional": 8490, "\u0120matrix": 32780, "\u0120practice": 34913, "\u0120development": 28126, "\u0120basic": 25543, "\u0120fill": 29621, "\u0120initializations": 31340, "\u0120forgive": 29850, "\u0120absent": 24402, "\u0120bound": 25920, "\u0120checking": 26444, "\u0120parameter": 34334, "\u0120testing": 38442, "\u0120ability": 24385, "\u0120fn": 29769, "\u0120thought": 38520, "\u0120option": 34044, "\u0120enum": 28990, "\u0120best": 25674, "\u0120accomplish": 24456, "\u0120space": 37444, "\u0120t": 38255, "\u0120automatically": 25396, "\u0120comes": 26765, "\u0120down": 28514, "\u0120set": 36968, "\u0120entries": 28984, "\u0120looked": 32508, "\u0120logic": 32483, "\u0120each": 28670, "\u0120ideally": 30930, "\u0120happen": 30553, "\u0120value": 39575, "\u0120changed": 26399, "\u01200": 23909, "\u012023": 24050, "which": 22776, "\u0120returning": 36299, "\u0120).": 23841, "\u0120finally": 29638, "\u0120vec": 39620, "\u0120spots": 37546, "\u0120open": 33967, "\u0120suggestions": 38050, "\u0120:)": 24241, "\u0120final": 29631, "\u0120thoughts": 38521, "\u0120research": 36172, "\u0120impls": 31081, "\u0120see": 36826, "\u0120typed": 39050, "\u0120sized": 37234, "\u0120useful": 39507, "\u0120unsure": 39406, "matrix": 14636, "option": 16290, "dimensions": 8491, "usize": 22162, "clone": 6950, "fill": 10391, "total": 21253, "len": 13797, "none": 15710, "index": 12453, "23": 1767, "ops": 16270, "indices": 12470, "output": 16518, "match": 14613, "su": 20394, "re": 18042, "what": 22761, "do": 8642, "mat": 14607, "null": 15843, "\u0120few": 29569, "\u0120ways": 39867, "\u0120idiomatic": 30952, "\u0120branch": 25946, "\u0120assume": 25247, "\u0120show": 37089, "\u0120index": 31212, "\u0120definition": 27857, "\u0120feel": 29548, "\u0120safe": 36593, "\u0120assumption": 25251, "\u0120mutable": 33340, "\u0120initialized": 31343, "\u0120unlike": 39287, "\u0120pointers": 34776, "\u0120point": 34772, "\u0120uninitialized": 39255, "\u0120return": 36297, "\u0120leads": 32162, "\u0120easiest": 28685, "\u0120user": 39514, "\u0120decide": 27745, "\u0120was": 39837, "\u0120close": 26610, "\u0120storing": 37769, "\u0120panic": 34301, "\u0120caller": 26169, "\u0120choose": 26475, "\u0120go": 30287, "\u0120further": 30044, "\u0120g": 30064, "ent": 9521, "ifying": 12179, "\u0120next": 33565, "\u0120allows": 24793, "\u0120rather": 35567, "\u0120wrapping": 40144, "\u0120cleans": 26564, "\u0120nicely": 33579, "\u0120access": 24436, "\u0120initialization": 31339, "\u0120were": 39938, "\u0120optional": 34045, "\u0120capability": 26203, "\u0120themselves": 38478, "\u0120we": 39871, "\u0120always": 24838, "\u0120losing": 32531, "\u0120functionality": 30029, "\u0120suggestion": 38049, "\u0120common": 26790, "\u0120world": 40115, "\u0120whether": 39961, "\u0120implements": 31068, "\u0120default": 27829, "\u0120returns": 36300, "\u0120ad": 24541, "itional": 13058, "\u0120info": 31293, "\u0120comments": 26781, "\u0120traps": 38833, "'ve": 130, "\u0120fallen": 29467, "\u0120dimensions": 28229, "\u0120exist": 29261, "\u0120longer": 32499, "\u0120dimension": 28226, "\u0120created": 27411, "\u0120hasn": 30598, "\u0120statically": 37691, "\u0120static": 37690, "\u0120occur": 33858, "\u0120dynamic": 28662, "\u0120else": 28802, "\u0120these": 38493, "same": 18993, ")?": 217, "\u0120stack": 37628, "\u0120allocation": 24781, "\u0120arrays": 25142, "\u0120must": 33335, "\u0120deterministic": 28112, "\u0120time": 38594, "otherwise": 16436, "\u0120known": 32044, "\u0120heap": 30634, "\u0120leaves": 32182, "\u0120real": 35622, "\u0120options": 34048, "\u0120saying": 36664, "\u0120adds": 24577, "explanatory": 9952, "\u0120resized": 36200, "\u0120cost": 27325, "\u0120overhead": 34178, "\u0120'": 23744, "\u0120discriminate": 28321, "\u0120unsafe": 39370, "\u0120territory": 38427, "\u0120chunk": 26493, "\u0120big": 25698, "\u0120hold": 30755, "\u0120unsafely": 39372, "\u0120lot": 32539, "\u0120usually": 39530, "\u0120worth": 40124, "\u0120heavily": 30644, "\u0120optimized": 34038, "\u0120stores": 37768, "\u0120magic": 32612, "\u0120null": 33755, "\u0120macro": 32603, "\u0120part": 34382, "\u0120once": 33942, "\u0120cloned": 26607, "\u0120until": 39414, "\u0120extra": 29394, "\u0120interface": 31534, "\u0120smoother": 37329, "const": 7338, "sized": 19654, "maybe": 14673, "uninit": 21893, "\u0120having": 30611, "\u0120trouble": 38908, "\u0120uncrustify": 39164, "\u0120format": 29862, "\u0120lambdas": 32084, "\u0120turns": 39004, "\u0120lambda": 32083, "\u0120doe": 28466, "\u0120setting": 36976, "\u0120responsible": 36234, "\u0120positioning": 34863, "\u0120braces": 25939, "auto": 5274, "print": 17431, "qi": 17759, "unused": 22000, "q": 17738, "debug": 8092, "\u0120looking": 32509, "\u0120config": 27004, "\u0120settings": 36977, "\u0120assigning": 25224, "\u0120symbol": 38195, "\u0120additional": 24564, "\u0120newlines": 33560, "\u0120configured": 27013, "\u0120align": 24759, "\u0120sign": 37134, "\u01208": 24201, "30": 2008, "33": 2092, "\u0120changing": 26404, "\u0120maybe": 32800, "\u0120pair": 34277, "\u0120plausible": 34721, "\u0120might": 32976, "\u0120serious": 36945, "\u0120style": 37882, "\u0120reform": 35873, "\u0120suitable": 38053, "\u0120statement": 37687, "\u0120keep": 31957, "\u0120single": 37213, "they": 20982, "\u0120stay": 37705, "\u01209": 24220, "64": 2894, "\u0120ensures": 28963, "align": 4475, "contin": 7394, "ued": 21701, "statements": 20156, "followed": 10595, "newline": 15567, "next": 15588, "line": 14065, "indent": 12449, "tab": 20718, "assign": 5081, "span": 19892, "aligning": 4479, "assignments": 5088, "don": 8684, "number": 15856, "threshold": 21032, "limit": 14052, "thresh": 21031, "B": 3750, "\u0120import": 31084, "\u0120demonstrates": 27925, "\u0120rustc": 36550, "\u0120test": 38433, "\u0120least": 32180, "\u0120according": 24462, "\u0120.)": 23880, "buf": 6121, "strbuf": 20288, "16": 1449, "import": 12360, "there": 20970, "errors": 9686, "\u0120update": 39449, "\u0120latest": 32118, "\u0120nightly": 33595, "\u0120otherwise": 34117, "\u0120raii": 35526, "'d": 124, "\u0120delay": 27876, "\u0120dropping": 28585, "#,": 71, "\u0120gc": 30109, "alive": 4488, "\u0120prevents": 35070, "\u0120garbage": 30091, "\u0120collected": 26726, "\u0120essentially": 29098, "op": 16218, "\u0120perspective": 34574, "\u0120application": 25028, "\u0120guarantees": 30458, "\u0120flow": 29751, "\u0120mostly": 33218, "\u0120certain": 26346, "\u0120prefer": 34980, "\u0120convention": 27225, "\u0120recogn": 35707, "izable": 13124, "\u0120programmer": 35192, "func": 10828, "force": 10628, "deallocated": 8084, "does": 8664, "something": 19840, "were": 22744, "still": 20224, "would": 22942, "fail": 10122, "other": 16434, "\u0120drop": 28580, "\u0120explicitly": 29328, "\u0120moved": 33238, "\u0120signals": 37138, "\u0120developers": 28124, "\u0120destruction": 28077, "\u0120necessarily": 33486, "\u0120indicate": 31220, "\u0120comment": 26775, "\u0120had": 30509, "\u0120temporary": 38385, "\u0120needed": 33494, "mem": 14737, "drop": 8770, "tempfile": 20840, "tempdir": 20838, "temp": 20834, "dir": 8495, "things": 20993, "temporary": 20848, "without": 22873, "\u0120determine": 28108, "\u0120frusta": 29988, "\u0120intersect": 31592, "\u0120intersection": 31594, "\u0120100": 23922, "\u0120exact": 29175, "\u0120location": 32462, "\u0120touch": 38719, "\u0120position": 34860, "\u0120volume": 39756, "\u0120sort": 37421, "\u0120took": 38688, "\u0120separating": 36907, "\u0120axis": 25450, "\u0120theorem": 38480, "\u0120collision": 26736, "\u0120detection": 28103, "\u0120figure": 29599, "\u0120exactly": 29176, "\u0120anybody": 24967, "\u0120direction": 28238, "\u0120sat": 36638, "\u0120touching": 38722, "\u0120give": 30225, "\u0120percentage": 34518, "\u0120overlap": 34182, "\u0120calculate": 26151, "\u0120po": 34767, "hedron": 11633, "\u0120intersecting": 31593, "\u0120divide": 28410, "\u0120frustum": 29994, "\u0120calculating": 26155, "\u0120overlapping": 34183, "\u0120build": 26056, "\u0120bsp": 26016, "\u0120cs": 27490, "\u0120operation": 34003, "\u0120interes": 31527, "ection": 9163, "\u0120poly": 34809, "\u0120tetra": 38445, "hedrons": 11634, "\u0120volumes": 39757, "\u0120academic": 24419, "\u0120papers": 34310, "hedral": 11632, "ization": 13126, "\u0120representation": 36115, "\u0120assuming": 25250, "\u0120exists": 29269, "\u0120write": 40156, "\u0120boxed": 25931, "\u0120types": 39057, "merge": 14783, "a1": 3878, "a2": 3891, "implemented": 12346, "boxed": 6013, "\u0120advocate": 24649, "\u0120base": 25537, "\u0120implementation": 31059, "\u0120mutating": 33347, "\u0120provides": 35298, "\u0120flexibility": 29734, "\u0120notably": 33686, "\u0120efficient": 28739, "\u0120perform": 34524, "\u0120allocations": 24782, "\u0120oli": 33927, "obk": 15934, "\u0120ker": 31967, "\u0120points": 34780, "\u0120applies": 25032, "\u0120merges": 32902, "\u0120structures": 37844, "\u0120sets": 36972, "\u0120merged": 32901, "\u0120elements": 28772, "\u0120copyable": 27279, "\u0120addressed": 24572, "\u0120taking": 38279, "\u0120merge": 32900, "\u0120trick": 38876, "\u0120move": 33236, "\u0120box": 25930, "u8": 21636, "a3": 3900, "a4": 3908, "a7": 3941, "copy": 7460, "extend": 9984, "b1": 5372, "b2": 5380, "b3": 5389, "b4": 5396, "b7": 5419, "\u0120contents": 27159, "\u0120dereferencing": 27994, "\u0120combine": 26758, "\u0120re": 35593, "\u0120boxes": 25932, "\u0120inside": 31401, "\u0120cpu": 27375, "\u0120spent": 37516, "\u0120intended": 31494, "\u0120command": 26770, "\u0120compute": 26934, "\u0120crc": 27407, "\u0120implementations": 31060, "\u0120achieve": 24487, "\u0120intention": 31501, "\u0120interactions": 31510, "\u0120appears": 25011, "\u0120operate": 33999, "\u0120correctly": 27304, "\u0120consumes": 27141, "\u0120equivalent": 29040, "\u0120though": 38519, "\u0120compiled": 26847, "\u0120optimisations": 34028, "\u0120mac": 32594, "\u0120osx": 34113, "\u0120ssd": 37591, "\u0120executing": 29231, "\u0120eliminate": 28787, "\u0120impact": 31039, "cold": 7079, "\u0120buffers": 26045, "warm": 22652, "\u0120produces": 35162, "\u01204": 24113, "\u0120seconds": 36797, "\u0120cold": 26712, "\u0120less": 32216, "\u0120warm": 39826, "\u0120run": 36523, "\u012030": 24084, "\u0120util": 39534, "isation": 12921, "\u0120higher": 30703, "eg": 9263, "\u012025": 24064, "\u012080": 24202, "+%": 249, "\u0120expect": 29284, "\u0120come": 26764, "\u0120computation": 26930, "\u0120copying": 27280, "\u0120difference": 28192, "\u0120scanning": 36686, "gb": 10948, "\u0120xml": 40213, "\u0120mapping": 32706, "mb": 14676, "\u0120seen": 36841, "\u01203": 24083, "mmap": 14959, "crc": 7581, "crc32": 7583, "hasher": 11557, "cmp": 7012, "min": 14885, "env": 9571, "args": 4919, "fs": 10789, "metadata": 14807, "os": 16390, "unix": 21918, "fd": 10203, "slice": 19697, "parts": 16739, "time": 21086, "instant": 12651, "result": 18470, "filename": 10378, "nth": 15827, "unwrap": 22008, "t0": 20680, "open": 16227, "sz": 20674, "offset": 16032, "c32": 6266, "digest": 8474, "ieee": 12123, "while": 22778, "rem": 18307, "memory": 14758, "readable": 18056, "err": 9670, "kind": 13485, "write": 22967, "unsafe": 21967, "08": 726, "sum": 20504, "elapsed": 9302, "secs": 19178, "ok": 16070, "libc": 13873, "package": 16607, "authors": 5271, "gee": 10976, "edition": 9195, "2018": 1673, "keys": 13448, "their": 20956, "definitions": 8184, "doc": 8646, "org": 16339, "reference": 18208, "manifest": 14527, "syscall": 20656, "demo": 8235, "a77": 3948, "2d8": 1971, "c4": 6271, "978": 3514, "finished": 10423, "optimized": 16285, "debuginfo": 8096, "13": 1342, "running": 18853, "users": 22151, "lolo": 14275, "hash": 11550, "nil": 15633, "couldn": 7506, "defer": 8174, "close": 6957, "stat": 20148, "ck": 6857, "var": 22308, "off": 16023, "int64": 12678, "prot": 17574, "read": 18053, "shared": 19458, "somehow": 19832, "unmap": 21934, "sub": 20395, "seconds": 19172, "\u0120os": 34099, "\u0120specifics": 37488, "\u0120expose": 29353, "\u0120probably": 35130, "\u0120treat": 38849, "\u0120differently": 28199, "\u0120flag": 29699, "\u0120specified": 37489, "\u0120making": 32647, "\u0120syscall": 38243, "\u0120slower": 37302, "\u0120back": 25460, "non": 15705, "standard": 20121, "flags": 10480, "\u0120algorithm": 24747, "\u0120hackerrank": 30502, "\u0120times": 38603, "\u0120larger": 32104, "\u01205": 24140, "\u0120people": 34511, "\u0120who": 39979, "\u0120completed": 26865, "\u0120believe": 25639, "\u0120release": 35966, "\u0120mode": 33128, "\u0120speed": 37504, "ups": 22051, "\u0120missing": 33070, "\u0120gist": 30219, "\u0120game": 30076, "\u0120counter": 27333, "\u0120conditionally": 26992, "\u0120reduced": 35810, "\u0120based": 25539, "\u0120reduce": 35809, "\u0120winner": 40032, "\u0120chosen": 26482, "trim": 21410, "parse": 16710, "inp": 12600, "u64": 21633, "find": 10413, "winner": 22849, "win": 22820, "power": 17287, "two": 21559, "ri": 18565, "chard": 6721, "ou": 16452, "ise": 12925, "stdin": 20182, "\u0120inner": 31371, "\u0120loop": 32515, "\u0120combination": 26753, "\u0120builtin": 26070, "\u0120allocating": 24780, "\u0120every": 29148, "\u0120slice": 37279, "\u0120returned": 36298, "count": 7508, "ones": 16169, "trailing": 21307, "zeros": 23366, "\u0120avoiding": 25423, "\u0120speeding": 37505, "\u0120per": 34515, "\u0120avoided": 25422, "\u0120supply": 38098, "\u0120alter": 24819, "\u0120borrows": 25901, "\u0120):": 23842, "\u0120modify": 33150, "\u0120improvement": 31109, "\u0120explicitness": 29329, "\u0120triggers": 38890, "\u0120buffered": 26042, "\u0120argument": 25110, "\u0120easier": 28684, "\u0120specify": 37494, "\u0120annotating": 24931, "\u0120mandatory": 32670, "\u0120borrow": 25891, "\u0120putting": 35384, "\u0120altogether": 24836, "\u0120bigger": 25700, "\u0120win": 40017, "might": 14861, "\u0120sufficient": 38037, "\u0120forget": 29847, "\u0120apply": 25033, "\u0120@": 24297, "john": 13272, "\u0120advices": 24641, "'ll": 125, "free": 10738, "reader": 18062, "where": 22771, "\u0120atbash": 25282, "\u0120cipher": 26501, "\u0120exercise": 29245, "\u0120exercism": 29248, "\u0120round": 36461, "ort": 16379, "ured": 22068, "\u0120manipulation": 32687, "\u0120grokked": 30422, "\u0120take": 38275, "\u0120fewer": 29570, "\u0120below": 25648, "\u0120important": 31086, "\u0120concept": 26959, "\u0120min": 33002, "up": 22017, "ulating": 21753, "\u0120involves": 31688, "\u0120outputting": 34152, "\u0120character": 26412, "\u0120characters": 26415, "\u0120included": 31146, "\u0120goes": 30293, "decode": 8128, "en": 9396, "cipher": 6833, "bash": 5552, "encode": 9420, "plain": 17085, "coded": 7045, "retain": 18487, "ascii": 5014, "alphanumeric": 4545, "lowercase": 14324, "spacing": 19888, "utf8": 22185, "bytes": 6214, "alphabetic": 4542, "122": 1286, "97": 3503, "spacer": 19886, "dec": 8097, "ipher": 12861, "out": 16489, "chars": 6725, "char": 6714, "counter": 7513, "spaces": 19887, "push": 17680, "\u0120place": 34699, "\u0120students": 37864, "\u0120search": 36780, "\u0120advice": 24639, "\u0120users": 39523, "\u0120made": 32607, "\u0120split": 37538, "\u0120executable": 29226, "\u0120large": 32102, "\u0120full": 30011, "\u0120definitions": 27858, "structs": 20362, "\u0120their": 38472, "\u0120prepend": 35013, "\u0120reduces": 35811, "\u0120readability": 35605, "\u0120pub": 35334, "\u0120decomp": 27773, "osing": 16405, "\u0120multiple": 33303, "derive": 8293, "serialize": 19320, "deserialize": 8324, "baz": 5580, "\u0120expected": 29288, "\u0120privacy": 35113, "\u0120boundary": 25922, "\u0120level": 32230, "\u0120module": 33159, "\u0120submodules": 37927, "\",": 43, "\u0120parent": 34357, "\u0120sibling": 37110, "\u0120permission": 34547, "\u0120typically": 39063, "\u0120invariants": 31651, "\u0120uphold": 39460, "\u0120public": 35335, "\u0120bounds": 25926, "\u0120preca": 34930, "ution": 22197, "\u0120programmers": 35193, "\u0120unusual": 39424, "\u0120thousands": 38523, "\u0120unless": 39286, "\u0120mirroring": 33041, "\u0120external": 29389, "\u0120consider": 27083, "\u0120auto": 25376, "generating": 11001, "\u0120coding": 26687, "\u0120defining": 27854, "\u0120&[": 23741, "].": 3815, "\u0120wanna": 39820, "\u0120freely": 29947, "\u0120v": 39551, "\u0120=": 24269, "()": 143, "\u0120[": 24298, "],": 3813, "\u0120obviously": 33843, "\u0120couldn": 27329, "\u0120anything": 24971, "\u0120thank": 38462, "\u0120represented": 36119, "\u0120length": 32209, "\u0120integers": 31476, "\u0120records": 35745, "\u0120many": 32701, "\u0120literally": 32408, "\u0120amount": 24864, "\".": 46, "\u0120calls": 26173, "\u0120unsized": 39385, "\u0120limited": 32351, "\u0120referenced": 35842, "\u0120indirectly": 31236, "\u0120mutate": 33344, "\u0120discovered": 28310, "\u0120calling": 26172, "\u0120clones": 26608, "\u0120shared": 37022, "\u0120instance": 31436, "length": 13803, "\u0120pointing": 34777, "\u0120generally": 30143, "\u0120result": 36261, "\u0120fresh": 29961, "\u0120except": 29196, "\u0120tracks": 38747, "\u0120capacity": 26205, "\u0120allocated": 24778, "\u0120turning": 39003, "\u0120storage": 37763, "\u0120reused": 36305, "capacity": 6424, "\u0120discarded": 28286, "\u0120res": 36166, "uting": 22196, "\u0120again": 24687, "\u0120triple": 38898, "mutate": 15248, "through": 21036, "own": 16561, "mref": 15134, "end": 9433, "scope": 19100, "E": 3753, "X": 3772, "Y": 3773, "Z": 3774, "\u0120prints": 35104, "\u0120print": 35094, "\u0120opposite": 34017, "\u0120bug": 26051, "\u0120missed": 33067, "futures": 10867, "future": 10861, "stop": 20254, "tokio": 21200, "sync": 20633, "oneshot": 16170, "channel": 6707, "handler": 11509, "spawn": 19899, "join": 13273, "e0271": 8927, "mismatch": 14923, "resolving": 18438, "receiver": 18111, "recv": 18160, "note": 15756, "runtime": 18858, "threadpool": 21027, "\u0120surface": 38121, "\u0120associated": 25238, "\u0120inference": 31272, "\u0120directions": 28240, "\u0120sometimes": 37405, "\u0120wording": 40091, "\u0120fits": 29684, "\u0120expectations": 29287, "\u0120situations": 37231, "\u0120feels": 29551, "\u0120backwards": 25485, "\u0120course": 27351, "\u0120difficult": 28203, "\u0120mis": 33043, "\u0120reported": 36104, "\u0120cod": 26666, "\u0120human": 30873, "\u0120interpretation": 31575, "actual": 4188, "\u0120general": 30131, "\u0120agree": 24705, "\u0120confusing": 27040, "\u0120sure": 38119, "\u0120talked": 38282, "\u0120harm": 30574, "\u0120report": 36103, "O": 3763, "\u0120followed": 29795, "\u0120guide": 30475, "\u0120draw": 28556, "\u0120lorenz": 32528, "\u0120extend": 29374, "\u0120switch": 38185, "\u0120substitute": 37965, "\u0120glu": 30269, "ortho": 16384, "\u0120gluperspective": 30273, "\u0120glfrustum": 30243, "\u0120unfortunately": 39223, "\u0120whatever": 39946, "\u0120useless": 39510, "\u0120while": 39965, "\u0120visualize": 39736, "\u0120window": 40022, "\u0120black": 25772, "background": 5462, "color": 7101, "gl": 11162, "clear": 6900, "0f": 783, "foreground": 10637, "pen": 16856, "02": 586, "enable": 9398, "blen": 5871, "ding": 8494, "blend": 5872, "alpha": 4539, "minus": 14909, "point": 17152, "smoothing": 19742, "mo": 14972, "oth": 16432, "viewport": 22486, "400": 2305, "projection": 17541, "camera": 6390, "mode": 14986, "identity": 12089, "glu": 11198, "perspective": 16928, "45": 2430, "100": 1136, "sets": 19376, "frustum": 10786, "model": 14987, "view": 22481, "objects": 15928, "modelview": 14989, "buffer": 6125, "bit": 5823, "draw": 8753, "points": 17164, "begin": 5679, "go": 11222, "equ": 9607, "many": 14540, "times": 21104, "drawing": 8756, "each": 9091, "iteration": 13030, "iterations": 13031, "using": 22159, "strange": 20284, "attra": 5222, "ctor": 7708, "z": 23339, "sin": 19615, "cos": 7500, "save": 19036, "vertex3f": 22441, "swap": 20585, "buffers": 6133, "glut": 11200, "\u0120name": 33414, "\u0120misleading": 33059, "\u0120ever": 29147, "\u0120near": 33473, "\u0120wow": 40130, "\u0120complicated": 26883, "ious": 12848, "\u0120anyway": 24973, "\u0120nothing": 33698, "\u0120projection": 35208, "\u0120depth": 27981, "\u0120range": 35546, "\u0120perfectly": 34523, "\u0120likely": 32341, "\u0120generated": 30146, "\u0120lie": 32307, "\u0120z": 40274, "\u0120confined": 27017, "\u0120iirc": 30987, "\u0120attractor": 25329, "\u0120positive": 34865, "\u0120translation": 38807, "\u0120suggest": 38046, "\u0120things": 38501, "\u0120center": 26328, "\u0120viewing": 39695, "ldouble": 13731, "left": 13777, "right": 18584, "bottom": 5994, "top": 21231, "arc": 4874, "asm": 5045, "\u0120validate": 39563, "\u0120xades": 40188, "\u0120signature": 37139, "timestamp": 21108, "encoded": 9421, "\u0120block": 25805, "\u0120basically": 25544, "\u0120validation": 39567, "\u0120manually": 32696, "\u0120inspect": 31414, "\u0120timestamp": 38604, "especially": 9729, "\u0120certificates": 26356, "\u0120validity": 39570, "\u0120etc": 29113, "\u0120tool": 38689, "\u0120openssl": 33988, "\u0120bouncy": 25918, "\u0120castle": 26268, "\u0120generate": 30145, "\u0120timestamps": 38611, "\u0120bc": 25566, "\u0120serialize": 36936, "\u0120udp": 39083, "\u0120serialization": 36935, "\u0120lives": 32419, "\u0120end": 28909, "\u0120scope": 36723, "\u0120makes": 32646, "\u0120byte": 26118, "\u0120success": 38013, "\u0120playground": 34730, "serde": 19310, "json": 13303, "macro": 14463, "text": 20922, "returns": 18511, "abc": 4001, "e0597": 8993, "borrowed": 5978, "live": 14149, "long": 14279, "enough": 9497, "22": 1746, "lives": 14151, "until": 21993, "must": 15240, "valid": 22270, "anonymous": 4726, "defined": 8179, "19": 1558, "21": 1716, "\u0120outlive": 34142, "\u0120annotations": 24933, "\u0120explicit": 29326, "\u0120objects": 33812, "\u0120live": 32416, "\u0120stop": 37756, "strict": 20315, "\u0120assumptions": 25252, "\u0120ownership": 34227, "\u0120bytes": 26123, "\u0120borrowing": 25898, "\u0120candidate": 26193, "\u0120unfortunate": 39221, "\u0120luckily": 32576, "\u0120serde": 36926, "\u0120last": 32108, "\u0120long": 32497, "\u0120needs": 33500, "hi": 11697, "\u0120questions": 35475, "\u0120concerning": 26967, "\u0120port": 34842, "\u0120boost": 25876, "\u0120concepts": 26962, "):": 212, "\u0120x": 40186, "\u0120y": 40233, "\u0120immutable": 31035, "\u0120saw": 36662, "\u0120internals": 31557, "\u0120talks": 38284, "\u0120parametric": 34343, "\u0120mutability": 33339, "\u0120established": 29102, "\u0120rfc": 36352, "\u0120plans": 34715, "\u0120parametr": 34342, "\u0120numeric": 33769, "\u0120guest": 30471, "\u0120solution": 37385, "\u0120cleaner": 26560, "feature": 10238, "associated": 5096, "types": 21596, "point2d": 17155, "deriving": 8299, "show": 19517, "point2": 17154, "inline": 12588, "0i32": 792, "1i32": 1621, "immutable": 12328, "dereference": 8284, "template": 20841, "p1": 16584, "p2": 16590, "0u8": 821, "10u8": 1229, "\u0120expressed": 29362, "\u0120strong": 37829, "\u0120desire": 28056, "\u0120along": 24798, "\u0120aware": 25435, "\u0120core": 27285, "\u0120team": 38347, "\u0120definitely": 27856, "\u0120wants": 39824, "\u0120priority": 35111, "\u0120reformat": 35874, "\u0120separated": 36904, "\u0120three": 38537, "\u0120parts": 34408, "\u0120within": 40061, "\u0120parenthesis": 34360, "\u0120sed": 36824, "\u0120formatter": 29865, "\u0120care": 26228, "\u0120formatted": 29864, "double": 8709, "quaternion": 17811, "\u0120gnu": 30285, "\u0120indent": 31200, "\u0120snippet": 37354, "\u0120manual": 32695, "\u0120accessed": 24437, "np": 15787, "sl": 19673, "\u0120clang": 26533, "format": 10655, "\u0120kinda": 32014, "\u0120talk": 38281, "native": 15439, "2013": 1668, "\u0120showed": 37091, "\u0120promising": 35221, "\u0120results": 36265, "\u0120started": 37672, "\u0120regarding": 35893, "\u0120regex": 35899, "\u0120check": 26436, "\u0120matches": 32761, "\u0120text": 38449, "\u0120identical": 30933, "\u0120matching": 32762, "\u0120succeeded": 38008, "prelude": 17375, "regex": 18242, "reg": 18236, "quot": 17846, "space": 19884, "specify": 19923, "argument": 4925, "contents": 7386, "success": 20476, "\u0120couple": 27346, "\u0120indeed": 31196, "\u0120reading": 35614, "\u0120hunch": 30876, "\u0120encountering": 28896, "\u0120alex": 24740, "\u0120larionov": 32106, "\u0120pointed": 34773, "\u0120saved": 36657, "\u0120luck": 32575, "G": 3755, "\u0120accept": 24427, "\u0120jpg": 31885, "\u0120images": 31013, "\u0120optimal": 34024, "\u0120arrangement": 25134, "\u0120paper": 34309, "...)": 337, "\u0120image": 31009, "\u0120optimally": 34025, "\u0120arranged": 25133, "/...": 379, "\u0120libraries": 32281, "\u0120suited": 38056, "\u0120jpeg": 31884, "width": 22805, "\u0120height": 30648, "\u0120resolution": 36204, "\u0120color": 26741, "\u0120profile": 35175, "\u0120operations": 34005, "github": 11147, "pistondevelopers": 17042, "image": 12286, "\u0120released": 35967, "cra": 7563, "btw": 6112, "\u0120bindings": 25722, "\u0120favourite": 29522, "\u0120export": 29349, "\u0120opengl": 33976, "\u0120console": 27098, "\u0120autocompletion": 25379, "\u0120gl": 30229, "\u0120constants": 27108, "\u0120ide": 30927, "visual": 22523, "\u0120studio": 37866, "\u0120sim": 37171, "generator": 11003, "\u0120copied": 27276, "\u0120global": 30256, "\u0120different": 28194, "functions": 10842, ".,": 328, "\u0120great": 30393, "\u0120printed": 35096, "bindings": 5803, "sdl": 19140, "video": 22474, "subsystem": 20457, "attr": 5219, "900": 3405, "700": 3027, "opengl": 16235, "resizable": 18427, "proc": 17479, "address": 4243, "loop": 14297, "42": 2364, "triggered": 21406, "128": 1326, "poll": 17185, "quit": 17843, "break": 6046, "registry": 18261, "fallback": 10138, "path": 16762, "nv": 15877, "command": 7134, "\u0120include": 31145, "\u0120lib": 32250, "\u0120includes": 31147, "\u0120lazy": 32150, "\u0120repeated": 36069, "graphics": 11317, "ka": 13359, "iser": 12928, "1989": 1580, "android": 4667, "\u0120framework": 29928, "concat": 7247, "anywhere": 4759, "lot": 14318, "constants": 7341, "array": 4969, "instance": 12645, "bind": 5796, "luint": 14393, "lenum": 13809, "lazy": 13682, "\u0120mainly": 32627, "\u0120javascript": 31819, "\u0120python": 35410, "\u0120developer": 28123, "\u0120oop": 33961, "\u0120wrap": 40138, "\u0120head": 30622, "\u0120especially": 29093, "\u0120tcp": 38336, "\u0120server": 36952, "streams": 20306, "\u0120asynchronously": 25277, "\u0120mio": 33033, "\u0120telling": 38370, "\u0120clue": 26630, "message": 14796, "\u0120whatnot": 39947, "\u0120relay": 35964, "\u0120workaround": 40096, "\u0120later": 32116, "\u0120design": 28043, "\u0120inherently": 31317, "\u0120flawed": 29726, "\u0120shows": 37094, "sock": 19789, "connections": 7316, "msg": 15153, "primitive": 17426, "request": 18395, "ips": 12872, "decoded": 8130, "noun": 15775, "ce": 6563, "bincode": 5795, "public": 17649, "unreachable": 21959, "\u0120holding": 30757, "\u0120indicated": 31221, "\u0120anymore": 24969, "\u0120fortunately": 29884, "lexical": 13844, "\u01202018": 24029, "\u0120hard": 30562, "\u0120simply": 37195, "\u0120fetch": 29565, "\u0120holds": 30758, "ac": 4059, "qu": 17791, "ired": 12896, "\u0120iteration": 31771, "\u0120network": 33544, "\u0120relative": 35959, "\u0120performance": 34525, "\u0120penalty": 34506, "\u0120(?)": 23824, "\u0120negligible": 33514, "\u0120lack": 32072, "\u0120minimal": 33016, "able": 4030, "\u0120wasn": 39843, ".)": 321, "\u0120developing": 28125, "\u0120pwa": 35391, "\u0120submit": 37922, "\u0120twa": 39013, "\u0120cant": 26199, "\u0120manage": 32658, "\u0120hide": 30695, "\u0120url": 39490, "\u0120bar": 25520, "\u0120digital": 28217, "\u0120asset": 25215, "\u0120links": 32379, "\u0120tested": 38437, "\u0120connected": 27056, "\u0120successfully": 38017, "\u0120editor": 28720, "\u0120intent": 31500, "\u0120filter": 29626, "\u0120association": 25241, "\u0120assetlinks": 25216, "\u0120android": 24913, "\u0120manifest": 32677, "gradle": 11297, "\u0120app": 24997, "...": 331, "keytool": 13457, "printcert": 17437, "jarfile": 13170, "apk": 4790, "xmlns": 23151, "http": 11874, "schemas": 19082, "tools": 21226, "eu": 9791, "clubforceone": 6983, "mobile": 14974, "application": 4824, "allow": 4518, "backup": 5471, "icon": 12043, "mipmap": 14915, "ic": 12004, "launcher": 13661, "label": 13578, "app": 4799, "supports": 20541, "rtl": 18804, "theme": 20960, "activity": 4178, "meta": 14805, "asset": 5078, "resource": 18440, "customtabs": 7795, "trusted": 21451, "validation": 22275, "url": 22084, "login": 14261, "clubforce": 6982, "launch": 13659, "status": 20171, "primary": 17422, "splash": 19961, "drawable": 8754, "screen": 19117, "fade": 10116, "duration": 8849, "300": 2009, "provider": 17595, "author": 5264, "ity": 13086, "authority": 5266, "intent": 12703, "filter": 10401, "action": 4163, "category": 6488, "browsable": 6078, "scheme": 19083, "v4": 22240, "content": 7385, "authorities": 5265, "grant": 11309, "uri": 22076, "permissions": 16903, "exported": 9964, "paths": 16768, "enabled": 9399, "notification": 15764, "apply": 4834, "plugin": 17125, "def": 8160, "twa": 21545, "being": 5694, "opened": 16232, "start": 20131, "relative": 18283, "cl": 6866, "ubforce": 21655, "shown": 19523, "2837": 1923, "95": 3477, "used": 22134, "f6f": 10062, "ffffff": 10308, "notifications": 15765, "deleg": 8203, "ation": 5166, "compile": 7191, "sdk": 19138, "2000": 1644, "instrumentation": 12664, "runner": 18849, "will": 22816, "launching": 13662, "hostname": 11823, "building": 6151, "handle": 11502, "intents": 12706, "svgomg": 20580, "firebaseapp": 10432, "variable": 22317, "expresses": 9976, "relationship": 18281, "between": 5736, "site": 19635, "documented": 8658, "documentation": 8657, "google": 11248, "updates": 22029, "2017": 1672, "digital": 8480, "links": 14094, "inject": 12579, "ed": 9170, "relation": 18279, "delegate": 8204, "permission": 16902, "common": 7153, "urls": 22095, "namespace": 15418, "attribute": 5228, "values": 22298, "colors": 7109, "setting": 19382, "both": 5990, "places": 17083, "defaults": 8168, "specific": 19916, "needed": 15498, "defines": 8180, "fileprovider": 10383, "disable": 8519, "changing": 6706, "attributes": 5229, "minify": 14897, "proguard": 17535, "txt": 21571, "rules": 18833, "pro": 17464, "options": 16297, "source": 19875, "compatibility": 7184, "product": 17506, "flavors": 10498, "tree": 21375, "jar": 13167, "chrome": 6798, "custom": 7788, "tabs": 20725, "client": 6920, "91": 3420, "b4a": 5402, "127": 1325, "0b": 758, "511": 2605, "70": 3026, "5d": 2780, "34": 2119, "40": 2304, "e6": 9055, "26": 1856, "7762": 3127, "c5": 6277, "f1": 10029, "c6": 6286, "sha256": 19424, "cert": 6623, "fingerprints": 10420, "cd": 6547, "d5": 7872, "d1": 7845, "54": 2653, "17": 1489, "8a": 3380, "c2": 6251, "07": 713, "1d": 1601, "fc": 10186, "d7": 7885, "2c": 1961, "ee": 9211, "66": 2931, "d9": 7901, "f6": 10058, "da": 7904, "1c": 1595, "57": 2713, "1b": 1593, "a5": 3920, "f9": 10072, "signer": 19572, "signature": 19567, "owner": 16563, "deleted": 8209, "privacy": 17452, "reason": 18093, "issuer": 12969, "serial": 19313, "b8": 5428, "59": 2752, "apr": 4853, "cest": 6651, "thu": 21045, "aug": 5245, "md5": 14696, "29": 1935, "96": 3490, "6c": 3000, "d0": 7835, "e4": 9040, "69": 2984, "bc": 5612, "6d": 3003, "sha1": 19420, "00": 394, "7e": 3176, "76": 3104, "27": 1890, "5e": 2783, "51": 2603, "83": 3274, "6a": 2996, "90": 3404, "56": 2692, "99": 3540, "algorithm": 4466, "sha256with": 19426, "rsa": 18775, "extensions": 9991, "object": 15923, "criticality": 7631, "subject": 20412, "identifier": 12085, "06": 700, "63": 2877, "ae": 4318, "e8": 9068, "bd": 5630, "9a": 3569, "4e": 2541, "8b": 3384, "9c": 3571, "09": 742, "ea": 9082, "0010": 491, "c8": 6296, "e5": 9047, "assetlinks": 5079, "\u0120simplify": 37192, "\u0120procedure": 35142, "\u0120letting": 32225, "\u0120signatures": 37140, "\u0120sha": 36997, "215": 1735, "\u0120keytool": 31995, "<": 3629, ">": 3683, "\u0120pretty": 35060, "\u0120neat": 33477, "\u0120handle": 30533, "\u0120functional": 30027, "\u0120cool": 27263, "\u0120handling": 30539, "\u0120replacement": 36084, "\u0120custom": 27577, "\u0120standard": 37656, "work": 22915, "eprintln": 9601, "\u0120generalized": 30140, "\u0120form": 29858, "\u0120propose": 35256, "\u0120requiring": 36155, "\u0120unit": 39270, "\u0120simulate": 37198, "\u0120combined": 26759, "\u0120branches": 25947, "\u0120depending": 27968, "\u0120transform": 38786, "\u0120iterators": 31777, "\u0120nonetheless": 33649, "\u0120cub": 27506, "cub": 7727, "transform": 21328, "iterator": 13033, "tor": 21246, "radix": 17921, "sort": 19859, "elems": 9319, "\u0120sorry": 37420, "\u0120disappoint": 28275, "\u0120afaik": 24660, "\u0120support": 38100, "\u0120theoretically": 38483, "\u0120deeper": 27825, "\u0120templat": 38375, "\u0120lift": 32321, "\u0120template": 38376, "\u0120headache": 30623, "\u0120doable": 28442, "\u0120transformation": 38787, "\u0120ui": 39094, "\u0120body": 25845, "\u0120invisible": 31672, "\u0120shown": 37093, "\u0120(\"": 23779, "1234": 1293, "567": 2705, "\").": 38, "\u0120fly": 29766, "\u0120amethyst": 24857, "amethyst": 4595, "assets": 5080, "loader": 14211, "renderer": 18332, "loaders": 14212, "sr": 20025, "gba": 10950, "palette": 16650, "srgba": 20041, "texture": 20930, "ui": 21725, "anchor": 4643, "builder": 6150, "simple": 19598, "1234567": 1297, "666": 2941, "font": 10600, "position": 17255, "has": 11547, "ff": 10289, "ct": 7690, "hover": 11835, "solid": 19817, "layer": 13673, "\u0120u": 39071, "ib": 11990, "ut": 22173, "ton": 21214, "issues": 12971, "229": 1762, "\u0120notation": 33690, "\u0120swift": 38178, "\u0120shorthand": 37076, "\u0120anywhere": 24975, "\u0120short": 37064, "\u0120circuit": 26507, "\u0120execution": 29232, "\u0120verbose": 39646, "\u0120familiar": 29477, "\u0120collapse": 26717, "\u0120match": 32757, "\u0120+": 23858, "\u0120clause": 26555, "\u0120failure": 29449, "\u0120path": 34434, "\u0120nest": 33534, "\u0120happy": 30560, "guard": 11395, "function": 10836, "reqwest": 18407, "normally": 15738, "response": 18452, "ve": 22351, "mapped": 14553, "post": 17266, "complete": 7202, "basic": 5554, "auth": 5253, "username": 22148, "send": 19265, "exist": 9907, "200": 1643, "attempt": 5211, "\u0120proposals": 35255, "\u0120flexible": 29735, "\u0120equivalents": 29042, "guards": 11399, "\u0120),": 23840, "\u00e2\u0122\u013b": 23591, "\u0120exiting": 29272, "\u0120mark": 32721, "\u0120operator": 34006, "\u0120skip": 37251, "\u2026": 40744, "\u0120ethereum": 29116, "\u0120address": 24570, "ethkey": 9768, "\u0120doesnt": 28469, "\u0120seem": 36836, "\u0120\u0120\u0120": 40415, "\u0120eth": 29114, "\u0120(/": 23812, "sam": 18992, "ue": 21700, "ld": 13719, "are": 4890, "documents": 8659, "th": 20941, "\u0120\u0120\u0120\u0120\u0120\u0120": 40418, "\u0120finished": 29653, "\u0120dev": 28116, "un": 21806, "\u0120debuginfo": 27734, "\u0120target": 38302, "\u0120\u0120\u0120\u0120\u0120\u0120\u0120": 40419, "\u0120thread": 38526, "\u0120panicked": 34302, "ioerror": 12830, "\u0120{": 40316, "\u0120notfound": 33697, "\u0120}": 40330, "\u0120state": 37683, "\u0120backtrace": 25479, "\u0120internal": 31555, "backtrace": 5469, "\u0120})',": 40334, "libcore": 13880, "999": 3559, "\u0120environment": 29007, "\u0120display": 28349, "\u0120ive": 31789, "\u0120attempt": 25318, "\u0120appreciate": 25039, "eth": 9762, "account": 4105, "passwd": 16751, "\u0120takes": 38278, "\u0120std": 37709, "\u0120closing": 26618, "\u0120slash": 37265, "\u0120'/'": 23766, "\u0120sample": 36615, "05": 678, "47": 2469, "master": 14606, "\u2717": 40859, "unoptimized": 21944, "04s": 676, "0x8": 1083, "248": 1824, "af": 4336, "65": 2917, "559": 2689, "509": 2600, "060": 701, "b88": 5432, "7c": 3173, "d20": 7852, "\u0120reduction": 35814, "\u0120float": 29745, "\u0120glm": 30253, "\u0120'<'": 23770, "\u0120maximum": 32796, "\u0120his": 30728, "max": 14657, "ptr": 17631, "densities": 8253, "particles": 16731, "glm": 11180, "vec3": 22357, "sqrtf": 20016, "\u0120yes": 40252, "\u0120quickstart": 35487, "\u0120review": 36325, "\u0120extrema": 29405, "\u0120varieties": 39598, "\u0120algorithms": 24750, "\u0120accepts": 24434, "\u0120functor": 30033, "\u0120trivial": 38905, "134": 1357, "extrema": 10008, "hpp": 11842, "iostream": 12844, "comp": 7168, "typename": 21592, "operator": 16262, "t1": 20684, "t2": 20701, "sizeof": 19655, "cout": 7525, "endl": 9449, "61": 2843, "\u0120consists": 27096, "\u0120pile": 34655, "\u0120creates": 27412, "\u0120source": 37438, "\u0120throw": 38548, "back": 5455, "\u0120poc": 34768, "\u0120driving": 28577, "\u0120mad": 32606, "area": 4891, "f32": 10041, "62": 2860, "private": 17453, "e0451": 8964, "1f32": 1609, "\u0120private": 35114, "\u0120troubles": 38910, "\u0120accessible": 24440, "via": 22462, "\u0120manipulate": 32683, "encapsulate": 9409, "\u0120showing": 37092, "\u0120scenarios": 36697, "playground": 17108, "working": 22926, "perfectly": 16878, "fine": 10416, "within": 22872, "\u0120btreemap": 26024, "\u0120hashmap": 30592, "\u0120complaining": 26856, "\u0120confused": 27038, "\u0120stage": 37638, "vertices": 22443, "behind": 5693, "occurs": 15967, "because": 5661, "collections": 7089, "consider": 7330, "borrowing": 5981, "e0507": 8978, "digraph": 8482, "directed": 8501, "graph": 11312, "add": 4213, "edge": 9182, "vertex": 22439, "entry": 9554, "e0596": 8992, "borrow": 5975, "mutable": 15245, "refers": 18218, "information": 12523, "try": 21470, "explain": 9948, "\u0120marked": 32723, "\u0120clearly": 26572, "\u0120receiver": 35689, "\u0120upon": 39467, "\u0120compiles": 26850, "\u0120linked": 32374, "\u0120list": 32391, "->": 309, "\u0120cut": 27588, "\u0120off": 33893, "\u0120reverse": 36318, "\u0120compose": 26900, "\u0120=>": 24280, "<-": 3642, "\u0120node": 33625, "\u0120stuck": 37860, "\u0120suppose": 38104, "\u0120helps": 30667, "val": 22258, "reverse": 18521, "prev": 17408, "curr": 7765, "part": 16719, "tail": 20735, "take": 20744, "head": 11606, "e0499": 8969, "ult": 21776, "ra": 17897, "sa": 18970, "rus": 18866, "\u0120resource": 36213, "unofficial": 21943, "too": 21218, "lists": 14134, "/.": 377, "\u0120although": 24834, "\u0120weird": 39928, "\u0120zero": 40283, "\u01207": 24186, "\u0120reads": 35620, "\u0120moving": 33243, "\u0120ok": 33915, "\u0120initial": 31331, "\u0120necessary": 33487, "\u012073": 24190, "\u012094": 24225, "\u0120break": 25957, "\u0120cast": 26265, "\u0120dereference": 27990, "\u0120number": 33761, "\u012017": 23993, "linked": 14090, "\u0120today": 38649, "\u0120previous": 35072, "\u0120deleted": 27888, "inc": 12405, "ere": 9638, "\u0120ap": 24979, "ology": 16115, "\u0120shar": 37016, "\u0120skills": 37246, "\u0120meet": 32849, "\u0120stuff": 37869, "\u0120dun": 28628, "\u0120signs": 37154, "\u0120searched": 36781, "\u0120stackoverflow": 37634, "\u0120lands": 32090, "\u0120duplicating": 28638, "starting": 20141, "seeking": 19218, "saving": 19039, "lock": 14235, "getline": 11067, "cin": 6826, "\u0120stdout": 37717, "buffered": 6130, "\u0120newline": 33559, "\u0120flush": 29759, "\u0120prefix": 34992, "stdout": 20190, "flush": 10542, "\u0120golang": 30296, "\u0120current": 27561, "\u0120processing": 35152, "\u0120hundreds": 30878, "\u0120gzipped": 30495, "\u0120log": 32474, "\u0120json": 31889, "\u0120attempts": 25321, "\u0120surprisingly": 38129, "\u0120slow": 37300, "\u0120investigating": 31668, "\u0120noticed": 33702, "\u0120performs": 34530, "\u0120significantly": 37149, "\u0120faster": 29503, "flate": 10490, "gzip": 11434, "decoder": 8131, "gz": 11433, "process": 17486, "lines": 14080, "events": 9825, "fp": 10696, "\u0120backend": 25463, "flate2": 10491, "zlib": 23394, "ng": 15602, "\u0120noob": 33662, "\u0120upload": 39463, "\u0120rusoto": 36538, "\u0120stream": 37788, "\u0120acceptable": 24428, "s3": 18960, "s3client": 18961, "region": 18247, "us": 22123, "east1": 9108, "await": 5326, "stream": 20295, "put": 17686, "bucket": 6116, "streaming": 20303, "\u0120client": 26582, "\u0120alias": 24752, "\u0120async": 25273, "\u0120tok": 38662, "\u0120fully": 30018, "\u0120fleshed": 29732, "\u0120ecosystem": 28707, "\u0120bottom": 25914, "\u0120accepted": 24431, "\u0120removing": 36032, "\u0120annotation": 24932, "\u0120concrete": 26980, "\u0120easily": 28686, "\u0120aforementioned": 24677, "\u0120reasons": 35658, "byte": 6209, "rusoto": 18870, "async": 5119, "upload": 22038, "thing": 20987, "\u0120tests": 38444, "mycrate": 15292, "i32": 11952, "tests": 20913, "conflicts": 7299, "imported": 12363, "meant": 14711, "e0": 8894, "254": 1842, "\u0120everything": 29152, "\u0120naming": 33423, "\u0120conflict": 27027, "\u0120attributes": 25333, "\u0120().": 23793, "\u0120looks": 32510, "\u0120vs": 39774, "\u0120plugin": 34756, "\u0120builds": 26065, "\u0120dont": 28489, "afaik": 4340, "\u0120runs": 36531, "\u0120/?": 23908, "dll": 8610, "sample": 19002, "dylib": 8880, "rusty": 18928, "\u0120configuration": 27010, "\u0120finds": 29644, "\u0120encounters": 28897, "\u0120managed": 32660, "\u0120confuse": 27037, "\u0120figured": 29600, "\u0120attempting": 25320, "\u0120queue": 35477, "\u0120producers": 35161, "\u0120queu": 35476, "etrait": 9782, "\u0120deque": 27983, "\u0120due": 28615, "\u0120producer": 35160, "\u0120avoid": 25419, "queue": 17827, "enqueue": 9498, "producer": 17503, "marker": 14577, "deque": 8278, "condvar": 7280, "mutex": 15255, "items": 13015, "qt": 17784, "notify": 15768, "dequeue": 8279, "wait": 22623, "pop": 17213, "front": 10778, "dispatch": 8546, "produce": 17501, "called": 6371, "consumer": 7368, "\u0120casting": 26267, "\u0120clearer": 26569, "\u0120keyword": 31997, "\u0120indirections": 31235, "\u0120whole": 39981, "\u0120setup": 36981, "lict": 14015, "kmdreko": 13510, "think": 20995, "\u0120simpler": 37185, "\u0120hash": 30583, "\u0120table": 38258, "\u0120commands": 26772, "\u0120iterate": 31767, "\u0120printing": 35099, "\u0120usage": 39496, "executing": 9888, "\u0120execute": 29228, "such": 20481, "\u0120inserting": 31397, "\u0120database": 27648, "\u0120checker": 26442, "\u0120separate": 36903, "\u0120sounds": 37435, "\u0120unwieldy": 39429, "execute": 9883, "change": 6701, "hey": 11688, "command1": 7135, "compiler": 7193, "complains": 7198, "making": 14501, "another": 4729, "binding": 5801, "\u0120living": 32421, "\u0120fairly": 29456, "\u0120broad": 25986, "\u0120dozen": 28536, "\u0120solutions": 37386, "\u0120--": 23870, "\u0120told": 38674, "\u0120us": 39493, "\u0120small": 37310, "\u0120subset": 37952, "\u0120features": 29536, "\u0120title": 38633, "\u0120suspect": 38143, "\u0120besides": 25673, "\u0120delete": 27887, "\u0120implicit": 31074, "\u0120...": 23883, "\u0120becomes": 25595, "docopt": 8650, "\u0120book": 25866, "\u0120patterns": 34445, "\u0120maintain": 32630, "\u0120left": 32189, "\u0120achieved": 24488, "safe": 18977, "\u0120share": 37020, "\u0120threads": 38534, "\u0120whereas": 39955, "\u0120notice": 33699, "\u0120initializer": 31344, "\u0120violate": 39705, "\u0120rules": 36518, "cell": 6591, "vers": 22426, "ible": 11997, "undo": 21862, "old": 16092, "calls": 6383, "\u0120trustzone": 38961, "\u0120enabled": 28868, "soc": 19787, "\u0120dram": 28551, "\u0120protected": 35270, "\u0120tzasc": 39068, "\u0120tzc": 39069, "\u0120registers": 35907, "\u0120configure": 27012, "\u0120permissions": 34548, "\u0120regions": 35903, "\u0120controlled": 27209, "\u0120during": 28644, "\u0120boot": 25877, "\u0120lock": 32464, "\u0120reconfigure": 35732, "\u0120privileged": 35120, "monitor": 15032, "\u0120register": 35904, "\u0120bus": 26098, "'.": 112, "\u0120typical": 39062, "\u0120arm": 25123, "\u0120control": 27207, "\u0120devices": 28134, "\u0120mapped": 32704, "\u0120freescale": 29949, "nxp": 15893, "\u0120imx": 31114, "\u0120product": 35164, "\u0120locking": 32468, "\u0120insure": 31471, "\u0120flex": 29733, "lity": 14147, "\u0120soc": 37361, "\u0120related": 35950, "\u0120partition": 34401, "\u0120peripherals": 34539, "tz": 21604, "asc": 5010, "\u0120funny": 30041, "\u0120unwrap": 39436, "\u0120repack": 36063, "\u0120words": 40093, "\u0120leave": 32181, "encaps": 9408, "ulates": 21752, "possible": 17264, "occured": 15962, "parsing": 16718, "yaml": 23240, "alias": 4469, "initialize": 12562, "e0308": 8936, "mismatched": 14924, "18": 1523, "\u0120aren": 25097, "\u0120compatible": 26834, "\u0120noting": 33711, "wrapping": 22962, "\u0120pulling": 35349, "\u0120apart": 24982, "\u0120conversion": 27237, "\u0120branching": 25948, "\u0120equally": 29032, "\u0120sans": 36634, "early": 9101, "\u0120graphical": 30376, "\u0120picture": 34644, "\u0120img": 31022, "\u0120doc": 28443, "iced": 12019, "widget": 22803, "\u0120watch": 39852, "\u0120ge": 30120, "orust": 16387, "geo": 11020, "executor": 9892, "title": 21134, "update": 22023, "img": 12311, "leg": 13782, "png": 17139, "layout": 13678, "cursor": 7781, "\u0120enable": 28867, "\u0120listed": 32393, "\u0120repository": 36111, "stackoverflow": 20101, "\u251c\u2500": 40810, "resources": 18441, "\u2514\u2500": 40805, "ferris": 10276, "container": 7377, "settings": 19383, "center": 6604, "ced": 6575, "\u0120iterator": 31776, "\u0120whose": 39987, "\u0120illustrative": 31005, "\u0120purpose": 35368, "\u0120depends": 27969, "\u0120empty": 28854, "\u0120\u0120\u0120\u0120": 40416, "\u0120ugly": 39092, "\u0120erasure": 29048, "\u0120complains": 26857, "item": 13007, "\u0120originally": 34084, "ig": 12180, "\u0120says": 36665, "\u0120safely": 36595, "\u0120\u0120\u0120\u0120\u0120": 40417, "\u0120explains": 29320, "\u0120mpsc": 33252, "\u0120hashmaps": 30593, "\u0120sync": 38210, "mpsc": 15124, "tx": 21562, "rx": 18942, "worker": 22920, "inner": 12591, "computation": 7235, "sender": 19268, "\u0120channel": 26405, "\u0120tag": 38267, "\u0120outer": 34132, "\u0120sharing": 37025, "\u0120thus": 38561, "\u0120ideal": 30929, "\u0120sender": 36884, "\u0120recommend": 35717, "\u0120language": 32094, "\u0120chapter": 26409, "\u0120concurrency": 26983, "\u0120introduced": 31626, "hashmap": 11562, "retrieved": 18500, "\u0120pseudocode": 35317, "\u0120gets": 30185, "\u0120&": 23731, "prints": 17445, "addr": 4240, "super": 20523, "obviously": 15949, "may": 14672, "even": 9819, "cause": 6494, "access": 4090, "violation": 22498, "getting": 11086, "didn": 8451, "allocate": 4510, "assert": 5070, "eq": 9606, "\u0120parse": 34372, "\u0120integer": 31475, "\u0120interpret": 31574, "\u00e2\u0122\u0142": 23602, "\u0120\u00e2\u0122\u0142": 40378, "\u0120representing": 36120, "\u0120e": 28668, "\u0120architecture": 25085, "\u0120removed": 36030, "\u0120third": 38507, "\u0120undefined": 39172, "\u0120behaviour": 25629, "\u0120whomever": 39985, "\u0120tries": 38885, "\u0120op": 33963, "\u0120asked": 25179, "experimental": 9940, "\u0120purposes": 35371, "12i32": 1338, "matches": 14617, "0x": 825, "transmute": 21346, "\u0120org": 34070, "apache": 4768, "rpc": 18756, "rp": 18752, "xception": 23100, "\u0120communicating": 26800, "\u0120http": 30849, "\u0120sun": 38072, "security": 19195, "validator": 22277, "validatorexception": 22278, "\u0120pkix": 34694, "\u0120building": 26061, "\u0120failed": 29444, "certpath": 6636, "suncertpathbuilderexception": 20520, "\u0120certification": 26357, "\u0120requested": 36140, "transport": 21350, "\u0120dealing": 27711, "\u0120chain": 26382, "\u0120cursory": 27570, "\u0120tie": 38578, "\u0120particular": 34396, "\u0120peer": 34498, "\u0120web": 39884, "\u0120hosting": 30818, "\u0120configurations": 27011, "\u0120requesting": 36143, "\u0120ne": 33472, "vel": 22397, "\u0120men": 32882, "imum": 12379, "\u0120site": 37223, "\u0120asp": 25186, "policy": 17177, "medium": 14727, "system": 20665, "full": 10814, "origin": 16356, "Q": 3765, "N": 3762, "\u0120ssl": 37595, "tls": 21148, "\u0120cloud": 26623, "cloud": 6969, "ibm": 11999, "mq": 15128, "topic": 21232, "oc": 15951, "\u0120ss": 37589, "la": 13576, "uth": 22187, "\u0120mq": 33254, "\u0120receive": 35687, "\u0120ii": 30984, "\u0120downloaded": 28525, "\u0120factory": 29439, "\u0120sslcontext": 37597, "\u0120docker": 28444, "\u0120ibmmq": 30918, "..": 329, "\u0120oracle": 34052, "\u0120..": 23881, "clo": 6941, "sv": 20571, "conn": 7308, "importcert": 12362, "digi": 8475, "root": 18698, "ca": 6313, "mg": 14835, "rc": 18005, "ert": 9693, "pem": 16855, "keystore": 13453, "certificates": 6633, "changeit": 6703, "manager": 14516, "select": 19237, "correct": 7485, "final": 10408, "x509key": 23072, "km": 13509, "managers": 14517, "wrapper": 22960, "socket": 19791, "ad": 4191, "apt": 4858, "needs": 15502, "pass": 16743, "cf": 6654, "remote": 18317, "posed": 17248, "attempting": 5213, "connect": 7310, "local": 14220, "cm": 6993, "yat": 23245, "ish": 12932, "kad": 13360, "am": 4573, "dcom": 8048, "cfg": 6667, "mappings": 14558, "cp": 7537, "samples": 19011, "det": 8354, "iled": 12236, "illegal": 12259, "0018": 497, "removed": 18319, "312": 2044, "check": 6740, "started": 20139, "listener": 14125, "rm": 18627, "961": 3493, "58": 2733, "984": 3528, "768": 3114, "user": 22139, "qr": 17774, "mp": 15102, "pa": 16599, "installation": 12640, "mgr": 14836, "2020": 1677, "t18": 20700, "942": 3468, "arith": 4937, "414": 2344, "comment": 7142, "bad": 5475, "ex": 9844, "pla": 17072, "encountered": 9425, "during": 8850, "handshak": 11517, "ar": 4862, "ded": 8150, "following": 10598, "reasons": 18095, "was": 22660, "formatted": 10657, "incorrectly": 12432, "validated": 22272, "correctly": 7488, "against": 4361, "certification": 6635, "held": 11648, "revocation": 18529, "crl": 7632, "ldap": 13721, "specified": 19920, "ocsp": 15979, "responder": 18448, "indicated": 12465, "rev": 18518, "oked": 16076, "cases": 6465, "its": 13076, "determined": 8369, "causes": 6496, "applies": 4833, "restart": 18461, "indicate": 12464, "configured": 7290, "wrong": 22978, "ensure": 9514, "repository": 18375, "contains": 7383, "necessary": 15492, "cc": 6519, "isa": 12913, "421": 2367, "entries": 9548, "digic": 8476, "er": 9616, "tro": 21422, "fingerprint": 10419, "6b": 2997, "68": 2971, "ec": 9129, "74": 3076, "2e": 1974, "8c": 3386, "71": 3038, "f7": 10063, "39": 2230, "8d": 3387, "b6": 5410, "49": 2502, "d3": 7856, "e1": 9018, "9e": 3574, "a8": 3949, "98": 3521, "3a": 2249, "d6": 7879, "36": 2169, "josh": 13285, "mc": 14689, "withrsa": 22874, "pec": 16831, "\u0120compatibility": 26833, "\u0120ibm": 30917, "\u0120signed": 37141, "\u0120cert": 26345, "genkey": 11013, "keyalg": 13429, "sig": 19554, "alg": 4460, "keysize": 13451, "2048": 1686, "validity": 22280, "3650": 2180, "\u0120tokio": 38673, "\u0120concurrent": 26984, "\u0120parallel": 34320, "\u0120eight": 28750, "\u0120cores": 27287, "\u0120coroutines": 27294, "\u0120top": 38700, "\u0120multithreaded": 33318, "\u0120beginning": 25613, "\u0120counterproductive": 27337, "\u0120ask": 25178, "\u0120myself": 33384, "\u0120multi": 33290, "threaded": 21024, "\u0120customize": 27585, "\u0120worker": 40099, "flavor": 10497, "multi": 15200, "threads": 21028, "\u0120roles": 36425, "\u0120laravel": 32101, "\u0120entrust": 28987, "models": 14988, "role": 18675, "php": 16986, "\u0120assign": 25220, "\u0120role": 36424, "\u0120receiving": 35692, "zizaco": 23389, "entrust": 9551, "class": 6879, "extends": 9988, "display": 8552, "project": 17537, "description": 8316, "given": 11154, "administrator": 4288, "allowed": 4520, "edit": 9191, "company": 7173, "department": 8257, "syntax": 20649, "unexpected": 21867, "expecting": 9932, "\u0120;)": 24253, "\u0120expression": 29366, "x3": 23056, "x4": 23059, "i8": 11963, "blank": 5863, "fixed": 10460, "elements": 9318, "\u0120expressions": 29367, "\u0120respectively": 36220, "\u0120drawing": 28563, "\u0120boards": 25839, "unimplemented": 21892, "4x4": 2570, "\u0120pure": 35361, "\u0120sandbox": 36622, "\u0120willing": 40014, "\u0120untrusted": 39418, "\u0120dom": 28478, "\u0120allowing": 24790, "\u0120acces": 24435, "\u0120functionalities": 30028, "\u0120chrome": 26486, "\u0120possibility": 34874, "\u0120save": 36656, "\u0120deny": 27948, "\u0120ni": 33575, "\u0120proposed": 35257, "\u0120old": 33921, "115": 1259, "690": 2985, "eval": 9806, "log": 14247, "undefined": 21851, "math": 14624, "constructor": 7358, "arguments": 4927, "9999": 3562, "73": 3060, "275": 1900, "395": 2238, "\u0120construction": 27125, "\u0120extract": 29395, "\u0120including": 31148, "\u0120goodies": 30304, "\u0120hat": 30602, "\u0120tip": 38625, "\u0120crow": 27457, "der": 8281, "267": 1877, "80": 3205, "149": 1412, "341": 2124, "\u0120he": 30621, "\u0120exploit": 29334, "\u0120buffering": 26044, "',": 110, "termion": 20873, "terminal": 20865, "asynchronous": 5120, "any": 4753, "exit": 9913, "sleep": 19685, "millis": 14879, "50": 2574, "\u0120push": 35377, "\u0120future": 30056, "\u0120okay": 33916, "satisfied": 19029, "statically": 20162, "known": 13520, "izer": 13130, "ustc": 22167, "e0277": 8929, "\u0120declared": 27763, "\u0120alternatively": 24831, "\u0120construct": 27121, "\u0120constructs": 27129, "\u0120ready": 35621, "\u0120asynchronous": 25276, "\u0120activity": 24529, "test2": 20891, "ready": 18077, "\u0120hexadecimal": 30688, "\u0120rgb": 36354, "\u0120decided": 27746, "\u0120bitwise": 25762, "\u0120operators": 34007, "\u0120hex": 30687, "\u0120resulted": 36263, "\u0120solved": 37389, "\u0120wondering": 40081, "\u0120mistake": 33074, "rgb": 18550, "hex": 11685, "16u8": 1488, "8u8": 3398, "arithmetic": 4938, "overflow": 16532, "shift": 19475, "deny": 8255, "warnings": 22655, "emitted": 9372, "checked": 6743, "shr": 19525, "u16": 21613, "h8": 11459, "\u0120matt": 32782, "\u0120mihir": 32984, "\u0120cache": 26136, "\u0120invalid": 31640, "\u0120executions": 29235, "\u0120component": 26894, "\u0120minimum": 33024, "\u0120captures": 26222, "case": 6461, "\u0120imagine": 31017, "\u0120concurrently": 26985, "\u0120creds": 27424, "\u0120appreciated": 25040, "\u0120ed": 28710, "ification": 12159, "\u0120expensive": 29293, "\u0120cached": 26137, "\u0120expire": 29310, "\u0120felt": 29556, "across": 4155, "chrono": 6801, "date": 7989, "utc": 22177, "creds": 7605, "expires": 9945, "expired": 9944, "cached": 6333, "todo": 21183, "unable": 21808, "concurrent": 7267, "logic": 14258, "periodic": 16888, "ally": 4528, "refresh": 18231, "\u0120solves": 37391, "expression": 9977, "ast": 5106, "lit": 14136, "literal": 14140, "expansion": 9926, "ends": 9457, "incomplete": 12426, "arm": 4945, "call": 6367, "doesn": 8665, "expand": 9921, "\u0120emitting": 28832, "\u0120restructure": 36257, "\u0120generates": 30147, "\u0120variants": 39592, "ident": 12078, "variant": 22322, "\u0120executes": 29230, "\u0120ssh": 37593, "\u0120lower": 32548, "\u0120waits": 39798, "\u0120performing": 34529, "\u0120bad": 25486, "\u0120hosts": 30821, "\u0120simultaneously": 37206, "\u0120sleep": 37274, "\u0120affects": 24668, "\u0120streams": 37794, "\u0120speeds": 37506, "\u012090": 24221, "\u012067": 24181, "\u0120offline": 33904, "clap": 6876, "arg": 4902, "rayon": 17996, "ssh2": 20053, "session": 19356, "tcp": 20800, "addrs": 4247, "sess": 19355, "handshake": 11518, "hosts": 11825, "aa": 3964, "aaa": 3968, "bbbb": 5597, "bbb": 5596, "creating": 7595, "install": 12639, "par": 16667, "\u0120debug": 27728, "\u0120analysis": 24890, "\u0120wastes": 39849, "\u0120profiling": 35179, "\u0120analyzing": 24898, "\u0120dump": 28624, "\u0120wireshark": 40046, "\u012022": 24044, "\u0120convers": 27233, "\u0120tab": 38257, "\u0120speedup": 37507, "\u0120limit": 32348, "\u0120acl": 24497, "\u0120('": 23788, "venue": 22409, "')": 103, "\u0120owner": 34225, "\u0120relations": 35956, "venues": 22410, "\u0120tables": 38259, "\u0120ent": 28965, "\u0120migration": 32981, "\u0120eloquent": 28801, "migr": 14863, "artisan": 4999, "migration": 14865, "table": 20720, "cre": 7586, "codes": 7055, "schema": 19081, "blueprint": 5906, "increments": 12444, "integer": 12686, "unsigned": 21975, "timestamps": 21111, "ass": 5061, "rel": 18275, "ship": 19483, "fore": 10634, "ign": 12195, "foreign": 10638, "references": 18210, "delete": 8208, "cascade": 6460, "down": 8718, "illuminate": 12267, "database": 7961, "eloquent": 9339, "ven": 22402, "ues": 21704, "belongs": 5702, "roles": 18676, "\u0120gather": 30099, "except": 9862, "\u0120perhaps": 34531, "\u0120companies": 26815, "\u0120apk": 24989, "\u0120installation": 31428, "\u0120jarsigner": 31810, "\u0120sdk": 36769, "\u0120certs": 26365, "\u0120keys": 31987, "\u0120guarantee": 30455, "\u0120degree": 27873, "\u0120rev": 36308, "ate": 5135, "\u0120crl": 27438, "since": 19617, "ouch": 16455, "es": 9707, "\u0120identity": 30944, "\u0120holder": 30756, "od": 15988, "\u0120platform": 34717, "\u0120plan": 34708, "\u0120apps": 25059, "\u0120issued": 31751, "\u0120trusted": 38935, "ities": 13055, "issuers": 12970, "?).": 3730, "\u0120ensure": 28961, "\u0120normal": 33671, "\u0120factor": 29430, "\u0120person": 34570, "\u0120published": 35341, "\u0120publishes": 35344, "\u0120updates": 39451, "\u0120hacks": 30507, "\u0120account": 24464, "\u0120publish": 35340, "\u0120malicious": 32652, "\u0120entire": 28975, "\u0120say": 36663, "factor": 10107, "\u0120authentication": 25360, "\u0120publishing": 35345, "\u0120tuple": 38994, "\u0120hack": 30499, "play": 17102, "/?": 386, "stable": 20096, "gist": 11144, "643": 2901, "469": 2466, "79": 3155, "db": 8004, "\u0120compilation": 26843, "tuple": 21518, "expr": 9970, "ack": 4136, "tt": 21491, "packer": 16612, "step": 20207, "append": 4813, "pack": 16606, "invocation": 12812, "46": 2452, "calling": 6377, "\u0120produce": 35158, "\u0120distinct": 28376, "\u0120tokens": 38668, "\u0120evaluate": 29131, "\u0120declarative": 27761, "\u0120instructions": 31461, "bob": 5926, "gmail": 11205, "jz": 13348, "glfw": 11171, "dependency": 8261, "khronos": 13468, "included": 12417, "getenv": 11054, "generates": 11000, "sing": 19620, "v3": 22237, "ns": 15808, "les": 13813, "\u0120under": 39173, "\u0120exe": 29223, "\u0120vcruntime": 39617, "\u0120rebuild": 35675, "\u0120ideas": 30931, "i686": 11960, "pc": 16795, "windows": 22836, "msvc": 15171, "rustflags": 18897, "clink": 6931, "mt": 15176, "dumpbin": 8830, "dep": 8256, "vc": 22338, "140": 1379, "ie": 12121, "unstable": 21980, "crt": 7654, "347": 2137, "\u0120pertains": 34579, "rfcs": 18546, "blob": 5885, "1721": 1494, "md": 14695, "\u0120q": 35413, "ode": 15996, "imagebuffer": 12289, "\u0120png": 34765, "\u0120th": 38459, "um": 21784, "bor": 5970, "\u0120buffer": 26041, "\u0120?.": 24291, "arg1": 4904, "images": 12292, "render": 18328, "luma": 14398, "dims": 8492, "headers": 11613, "header": 11609, "encoder": 9422, "gray": 11323, "encoding": 9423, "slug": 19717, "photo": 16985, "jpg": 13291, "\u0120encode": 28885, "\u0120piston": 34678, "\u0120requests": 36146, "outer": 16501, "\u0120occurs": 33869, "\u0120coming": 26767, "\u0120complain": 26854, "\u0120side": 37113, "\u0120collection": 26728, "\u0120heterogeneous": 30683, "say": 19043, "morph": 15057, "routes": 18734, "second": 19170, "also": 4554, "says": 19044, "\u0120obtain": 33836, "demand": 8232, "\u0120router": 36469, "\u0120bypass": 26114, "\u0120requirements": 36152, "\u0120abused": 24416, "\u0120advantage": 24627, "\u0120rest": 36237, "\u0120boxing": 25933, "rw": 18936, "\u0120coord": 27269, "\u0120winapi": 40018, "winapi": 22824, "wincon": 22826, "coord": 7448, "kernel32": 13415, "ffi": 10314, "wincontypes": 22827, "e0432": 8960, "\u0120refer": 35836, "\u0120article": 25156, "0432": 662, "\u0120toml": 38682, "winuser": 22858, "\u0120unpacked": 39331, "\u0120sources": 37441, "\u0120loaded": 32438, "\u0120somewhere": 37409, "\u0120editors": 28723, "\u0120tree": 38855, "\u0120convenient": 27222, "myproject": 15333, "cache": 6331, "vend": 22403, "oring": 16361, "\u0120repositories": 36110, "\u0120f": 29412, "uch": 21667, "ia": 11964, "\u0120mozilla": 33244, "party": 16740, "\u0120supports": 38103, "\u0120dir": 28234, "vendor": 22404, "\u0120querying": 35467, "\u0120online": 33951, "\u0120registry": 35911, "\u0120express": 29361, "\u0120vend": 39639, "\u0120local": 32445, "\u0120filesystem": 29619, "\u0120subsets": 37953, "\u0120replacing": 36087, "\u0120checked": 26441, "\u0120packages": 34244, "\u0120acts": 24533, "alexcrichton": 4456, "\u0120populate": 34833, "\u0120wpf": 40133, "\u0120flavors": 29723, "\u0120consistent": 27093, "\u0120desktop": 28060, "\u0120supposed": 38105, "\u0120xbap": 40194, "\u0120localhost": 32447, "\u0120iis": 30988, "\u0120xp": 40221, "\u0120pro": 35124, "\u0120scenario": 36696, "microsoft": 14850, "\u0120pfx": 34595, "\u0120installed": 31430, "\u0120ie": 30965, "\u0120browser": 26002, "\u0120sell": 36868, "\u0120customer": 27579, "\u0120centralized": 26335, "\u0120deployment": 27973, "assuming": 5103, "\u0120sp": 37442, "\u0120him": 30714, "\u0120xbaps": 40195, "\u0120partial": 34383, "\u0120granted": 30367, "\u0120fulltrust": 30016, "\u0120grant": 30366, "\u0120step": 37732, "caspol": 6468, "ag": 4359, "exclusive": 9875, "\u0120clickonce": 26580, "\u0120engine": 28937, "\u0120deploy": 27970, "\u0120binaries": 25713, "\u0120installer": 31431, "\u0120virtual": 39712, "\u0120manifests": 32681, "\u0120contained": 27148, "\u0120notes": 33696, "\u0120dependency": 27965, "\u0120workstation": 40114, "\u0120inexplicably": 31261, "\u0120invalidated": 31642, "\u0120clear": 26566, "\u0120rund": 36524, "ll": 14166, "\u0120%": 23729, "windir": 22833, "%\\": 95, "df": 8397, "shim": 19480, "\u0120clean": 26558, "online": 16182, "internet": 12738, "\u0120explorer": 29342, "\u0120recreated": 35753, "\u0120dotnet": 28500, "\u0120reinstalled": 35928, "\u0120poor": 34825, "\u0120deployments": 27974, "\u0120steps": 37735, "\u0120front": 29979, "\u0120forms": 29872, "\u0120auth": 25352, "\u0120intranet": 31617, "\u0120proxy": 35308, "\u0120isa": 31734, "\u0120microsoft": 32964, "\u0120authenticate": 25356, "\u0120-->": 23875, "--": 298, "\u0120select": 36858, "...'": 336, "\u0120scroll": 36759, "\u0120logon": 32490, "automatic": 5282, "\u0120selected": 36859, "\u0120applications": 25030, "\u0120extensions": 29382, "\u0120ex": 29170, ":-": 3598, "\u0120glob": 30255, "glob": 11181, "\u0120extension": 29381, "\u0120detach": 28092, "\u0120detached": 28093, "\u0120session": 36965, "\u0120posix": 34868, "exec": 9879, "\u0120id": 30926, "\u0120exposing": 29356, "\u0120syscalls": 38244, "setsid": 19377, "fork": 10650, "\u0120libc": 32254, "\u0120exposes": 29355, "warp": 22656, "cors": 7498, "localhost": 14222, "8090": 3235, "methods": 14821, "dash": 7949, "ba": 5441, "ord": 16319, "svc": 20574, "serve": 19333, "filters": 10406, "logged": 14254, "43": 2387, "formatter": 10658, "strings": 20328, "pretty": 17406, "instead": 12657, "originates": 16359, "builds": 6155, "info": 12518, "\u0120passes": 34416, "\u0120follow": 29794, "ged": 10975, "\u0120{}": 40321, "\u0120sequence": 36919, "\u0120param": 34330, "\":": 51, "\u0120understanding": 39193, "\u0120misconception": 33049, "exercises": 9902, "traits": 21315, "s1": 18955, "loganfsmyth": 14252, "\u0120modified": 33146, "\u0120afterwards": 24685, "\u0120clone": 26605, "\u0120replace": 36082, "s2": 18957, "longer": 14280, "usable": 22125, "\u0120evaluates": 29133, "\u0120mutates": 33346, "\u0120needing": 33495, "\u0120canonical": 26196, "\u0120completeness": 26868, "pattern": 16771, "\u0120unwrapped": 39437, "??": 3740, "\u0120alleviate": 24773, "\u0120shadow": 37002, "\u0120qt": 35423, "\u0120gave": 30104, "\u0120shot": 37080, "\u0120bunch": 26082, "\u0120folders": 29787, "\u0120{,": 40318, "\u0120py": 35396, "py": 17711, "official": 16029, "qt5": 17785, "cmake": 6994, "msvc2015": 15172, "kit": 13496, "ech": 9148, "mkdir": 14948, "sublime": 20415, "nin": 15637, "ja": 13148, "qt5core": 17786, "qt5gui": 17787, "qt5widgets": 17789, "prefix": 17367, "normal": 15733, "\u0120containing": 27152, "\u0120namely": 33417, "\u0120heard": 30639, "\u0120deno": 27937, "\u0120built": 26069, "\u0120fast": 29500, "\u0120js": 31888, "\u0120layer": 32139, "\u0120abstraction": 24410, "\u0120jobs": 31867, "\u0120delegated": 27883, "\u0120technologies": 38359, "written": 22976, "++),": 256, "\u0120optimize": 34037, "\u0120squeeze": 37580, "\u0120job": 31866, "\u0120delivers": 27906, "\u0120fit": 29683, "\u0120prototyping": 35283, "\u0120tools": 38697, "\u0120technical": 38354, "\u0120kinds": 32017, "\u0120technology": 38360, "\u0120components": 26896, "\u0120hypothetically": 30911, "\u0120lifecycle": 32313, "\u0120irrelevant": 31730, "\u012099": 24234, "\u0120libs": 32286, "\u0120integration": 31484, "\u0120develop": 28120, "\u0120matters": 32784, "\u0120typescript": 39059, "deno": 8247, "\u0120aside": 25177, "\u0120compare": 26824, "\u0120ran": 35537, "\u0120represents": 36121, "yet": 23264, "\u0120hope": 30791, "\u0120regular": 35916, "\u0120apparently": 24999, "\u0120convenience": 27220, "\u0120corresponding": 27311, "chrismorgan": 6797, "\u0120finding": 29642, "submap": 20419, "abcde": 4010, "boolean": 5959, "\u0120rendering": 36044, "\u0120scene": 36698, "\u0120l": 32062, "wjgl": 22876, "\u0120zfar": 40288, "\u0120clips": 26592, "\u0120view": 39692, "\u0120distance": 28371, "\u01201000": 23923, "\u0120ignored": 30980, "\u0120500": 24142, "\u0120units": 39272, "\u0120shaders": 37001, "\u0120interesting": 31530, "\u0120clipping": 26590, "\u0120aligned": 24760, "\u0120camera": 26181, "\u0120diagonal": 28162, "\u0120distances": 28372, "\u0120intel": 31487, "\u0120nvidia": 33784, "\u0120card": 26225, "modern": 14993, "\u0120managing": 32665, "\u0120mat": 32755, "ric": 18569, "ies": 12131, "\u0120cap": 26201, "\u0120frustrum": 29993, "\u0120vertex": 39671, "\u0120shader": 37000, "\u0120commenting": 26780, "clip": 6933, "distance": 8559, "\u0120terrain": 38424, "\u0120clipped": 26589, "\u0120axes": 25447, "\u0120water": 39858, "\u0120models": 33134, "\u0120particles": 34395, "aspect": 5055, "ratio": 17983, "scale": 19057, "tan": 20755, "rad": 17914, "ians": 11979, "fov": 10692, "far": 10149, "plane": 17089, "near": 15482, "matrix4f": 14643, "m32": 14444, "uniform": 21886, "mat4": 14610, "transformation": 21330, "light": 14042, "fo": 10581, "ensity": 9511, "gradient": 11296, "vec4": 22360, "vec2": 22355, "coords": 7453, "surface": 20554, "visibility": 22512, "frag": 10715, "pos": 17243, "dot": 8698, "cam": 6387, "xyz": 23225, "inverse": 12804, "exp": 9918, "pow": 17285, "clamp": 6873, "\u0120everyone": 29151, "\u0120realized": 35630, "\u0120fault": 29509, "\u0120sky": 37255, "\u0120renders": 36045, "\u0120property": 35249, "parent": 16690, "third": 20998, "e0106": 8909, "missing": 14929, "specifier": 19921, "ame": 4587, "te": 20809, "parameter": 16679, "\u0120counted": 27332, "owners": 16564, "\u0120cloning": 26609, "\u0120affect": 24663, "\u0120encountered": 28895, "\u0120direct": 28236, "\u0120entry": 28988, "\u0120rid": 36364, "\u0120rustfmt": 36555, "\u0120assumes": 25249, "\u0120indentation": 31201, "three": 21030, "captures": 6437, "group": 11355, "replace": 18357, "range": 17955, "\u0120carriage": 26240, "\u0120horizontal": 30803, "\u0120whitespace": 39976, "\u0120optionally": 34047, "\u0120spaces": 37446, "\u0120tabs": 38260, "\u0120enabling": 28870, "\u0120thereby": 38487, "\u0120surrounded": 38133, "\u0120blank": 25783, "\u0120trimmed": 38894, "\u0120substitution": 37969, "fight": 10359, "\u0120exercises": 29247, "\u0120ended": 28912, "\u0120messy": 32923, "\u0120relatively": 35960, "\u0120slicing": 37283, "\u0120concatenation": 26949, "\u0120complexity": 26878, "proper": 17564, "\u0120simplified": 37190, "\u0120brackets": 25942, "quick": 17832, "brown": 6076, "fox": 10694, "jumps": 13332, "over": 16529, "ss": 20047, "sc": 19052, "searching": 19156, "\u0120occurence": 33861, "\u0120substring": 37975, "\u0120intermediate": 31549, "\u0120utf": 39533, "\u0120imply": 31082, "\u0120presence": 35027, "\u0120combining": 26761, "\u0120unicode": 39237, "\u0120ascii": 25171, "\u0120indices": 31230, "skip": 19668, "\u0120cfg": 26374, "\u0120importing": 31089, "cfgtools": 6669, "unknown": 21921, "macos": 14461, "ios": 12842, "linux": 14100, "bsd": 6087, "drag": 8747, "fly": 10546, "netbsd": 15545, "compiling": 7196, "reco": 18129, "v0": 22226, "ses": 19354, "sho": 19493, "e0463": 8965, "\u0120confusion": 27042, "\u0120kept": 31966, "\u0120separately": 36905, "declare": 8119, "visible": 22513, "wildcard": 22813, "imports": 12368, "aren": 4894, "recommended": 18134, "confusing": 7303, "actually": 4189, "come": 7128, "outside": 16523, "\u0120nodes": 33628, "\u0120weak": 39872, "\u0120yields": 40259, "\u0120borrowed": 25895, "\u0120content": 27157, "\u0120track": 38743, "weak": 22699, "nodes": 15686, "network": 15552, "downgrade": 8720, "node1": 15679, "node2": 15680, "senders": 19269, "\u0120consume": 27137, "\u0120introduce": 31625, "upgrade": 22032, "\u0120achieves": 24489, "others": 16435, "tmp": 21161, "<&": 3631, ">:": 3699, "\u0120twice": 39025, "\u0120nice": 33578, "moved": 15088, "copyable": 7461, "\u0120consuming": 27142, "\u0120allowed": 24788, "\u0120copies": 27277, "\u0120aliases": 24755, "\u0120disallows": 28266, "safety": 18980, "\u0120item": 31762, "\u0120embedded": 28814, "\u0120qualifiers": 35440, "\u0120prompted": 35229, "\u0120commented": 26777, "\u0120reborrow": 35671, "\u0120mind": 33003, "bending": 5714, "\u0120\u00e2\u0122\u0136": 40370, "\u0120avoids": 25424, "\u0120db": 27690, "0599": 697, "]:": 3817, "oracle": 16308, "pwd": 17699, "194": 1567, "253": 1840, "sql": 20003, "anag": 4621, "ditmat": 8571, "fvl": 10875, "rows": 18749, "query": 17817, "ko": 13522, "cont": 7372, "dit": 8569, "row": 18742, "con": 7245, "ession": 9738, "\u0120powerful": 34903, "c4b": 6276, "connecting": 7312, "\u0120wraps": 40145, "\u0120bellow": 25644, "\u0120learned": 32175, "\u0120strings": 37817, "\u0120primitives": 35088, "\u0120encounter": 28894, "\u0120inefficient": 31250, "\u0120trivially": 38906, "W": 3771, "\u0120disk": 28335, "\u0120turn": 39001, "\u0120element": 28770, "writer": 22970, "encodable": 9419, "\u0120arbitrary": 25076, "\u0120strategy": 37784, "\u0120strategies": 37783, "\u0120conversions": 27238, "\u0120hast": 30601, "ily": 12282, "\u0120serializing": 36941, "\u0120naturally": 33452, "\u0120deserialize": 28033, "\u0120restrict": 36250, "\u0120semantic": 36872, "\u0120plain": 34706, "sendable": 19267, "\u0120tasks": 38313, "\u0120exclude": 29213, "ners": 15537, "\u0120mechanism": 32840, "\u0120intelligent": 31490, "\u0120mere": 32898, "\u0120deserialized": 28034, "\u0120paired": 34278, "des": 8301, "cribes": 7618, "\u0120reliably": 35975, "\u0120attribute": 25331, "\u0120;": 24252, "again": 4360, "\u0120automatic": 25395, "\u0120decoder": 27769, "\u0120transforms": 38792, "\u0120encoding": 28890, "\u0120decoding": 27772, "\u0120somewhat": 37408, "\u0120asymmetric": 25267, "\u0120performed": 34528, "\u0120process": 35149, "\u0120unnecessary": 39319, "\u0120encoders": 28888, "\u0120formats": 29863, "\u0120suit": 38052, "dump": 8829, "decodable": 8127, "al": 4436, "lfun": 13850, "\u0120mod": 33126, "fun": 10824, "allfun": 4504, "pull": 17659, "\u0120projects": 35212, "\u0120replies": 36096, "\u0120doubts": 28511, "\u0120half": 30515, "way": 22677, "\u0120outputs": 34150, "\u0120doubt": 28509, "\u0120googling": 30311, "\u0120posts": 34894, "\u0120forum": 29886, "cpp": 7544, "\u0120ind": 31193, "ifferent": 12152, "\u0120older": 33922, "\u0120d": 27614, "ull": 21768, "\u0120advance": 24623, "\u0120talonmies": 38285, "compact": 7170, "xc": 23098, "yc": 23249, "zc": 23351, "\u0120recent": 35693, "\u0120former": 29869, "\u0120nvcc": 33781, "\u0120latter": 32123, "\u0120char": 26411, "\u0120*": 23845, "\u0120breaking": 25961, "\u0120whenever": 39953, "\u0120chars": 26419, "\u0120comparator": 26822, "\u0120};": 40337, "\u0120uncertain": 39140, "\u0120straightforward": 37775, "arr": 4964, "tos": 21248, "\u0120o": 33796, "cur": 7754, "\u0120compilable": 26842, "o1": 15900, "o2": 15901, "compare": 7177, "dst": 8795, "detail": 8357, "tag": 20729, "indirect": 12473, "ordering": 16323, "blocked": 5889, "gk": 11161, "104": 1188, "signal": 19565, "193": 1566, "144": 1400, "blocks": 5893, "typedef": 21587, "0x0": 826, "had": 11475, "column": 7113, "strlen": 20336, "our": 16476, "original": 16357, "sorted": 19862, "reduce": 18181, "zy": 23482, "xw": 23214, "abcd": 4009, "defg": 8176, "wer": 22743, "asd": 5018, "de": 8066, "urt": 22119, "nt": 15821, "bf": 5741, "\u0120numerical": 33770, "\u0120unchanged": 39142, "bog": 5933, "\u0120adjust": 24591, "\u0120presumably": 35049, "\u0120starting": 37675, "\u0120uid": 39095, "funcs": 10834, "posix": 17260, "88": 3346, "unistd": 21906, "setuid": 19387, "\u0120unstable": 39395, "\u0120meaning": 32817, "\u0120disappear": 28271, "\u0120warning": 39829, "\u0120secondly": 36796, "websocket": 22720, "\u0120chat": 26426, "room": 18696, "websockets": 22721, "\u0120decent": 27740, "\u0120communicate": 26798, "\u0120sends": 36887, "\u0120problematic": 35135, "\u0120cross": 27446, "\u0120communication": 26801, "cyderize": 7826, "examples": 9855, "\u0120websockets": 39911, "\u0120approaching": 25046, "\u0120sending": 36886, "\u0120broadcast": 25987, "clients": 6928, "channels": 6709, "\u0120straight": 37774, "forward": 10676, "\u0120dispatcher": 28343, "\u0120act": 24508, "\u0120clients": 26585, "\u0120receives": 35691, "\u0120sent": 36896, "\u0120distrib": 28388, "utes": 22182, "blocking": 5890, "\u0120permanent": 34543, "\u0120checks": 26448, "\u0120websocket": 39910, "pastebin": 16756, "wl": 22878, "rh": 18559, "protocol": 17585, "dispatcher": 8548, "validate": 22271, "accept": 4082, "form": 10653, "protocols": 17586, "want": 22643, "ip": 12850, "peer": 16850, "connected": 7311, "split": 19965, "incoming": 12423, "messages": 14798, "opcode": 16225, "disconnected": 8532, "ping": 17022, "pong": 17202, "payload": 16779, "invalid": 12795, "utf": 22183, "sequence": 19303, "\u0120specifying": 37495, "\u0120reached": 35596, "\u0120poking": 34788, "\u0120cre": 27408, "vice": 22466, "\u0120hoping": 30797, "named": 15415, "e0310": 8938, "adding": 4229, "\u0120unfamiliar": 39217, "\u0120picked": 34634, "\u0120interior": 31542, "\u0120treemap": 38859, "\u0120dry": 28595, "en1": 9397, "val1": 22260, "val2": 22261, "val3": 22262, "fn1": 10563, "iterate": 13025, "\u0120plus": 34760, "\u0120enumerations": 28997, "playpen": 17110, "\u0120shortest": 37075, "currently": 7774, "flux": 10545, "symbolic": 20623, "names": 15417, "stringify": 20326, "cloned": 6953, "highlighting": 11718, "\u0120saml": 36611, "\u0120adfs": 24582, "\u0120ws": 40168, "\u0120service": 36957, "#.": 72, "\u0120popular": 34832, "least": 13755, "privile": 17456, "ge": 10970, "2012": 1667, "wcf": 22691, "external": 9996, "authentication": 5261, "ws": 22982, "\u0120username": 39521, "wstrustbinding": 23011, "msdn": 15148, "library": 13960, "jj": 13243, "157": 1434, "091": 745, "aspx": 5059, "\u0120jump": 31916, "identitymodel": 12090, "\u0120namespace": 33419, "\u0120experimenting": 29304, "\u0120variety": 39599, "\u0120malformed": 32650, ".\".": 316, "\u0120turned": 39002, "\u0120wcf": 39869, "\u0120logging": 32482, "\u0120determined": 28109, "\u0120reviewing": 36327, "\u0120fs": 29997, "\u0120events": 29144, "\u0120indication": 31225, "\u0120farm": 29492, "\u0120mine": 33006, "\u0120diagnose": 28156, "social": 19788, "forums": 10675, "ev": 9804, "505": 2590, "481": 2491, "541": 2655, "\u0120wif": 40001, "\u0120tracing": 38742, ":\\": 3617, "active": 4172, "\u0120federation": 29541, "\u0120services": 36961, "servicehost": 19347, "\u0120trace": 38737, "\u0120listeners": 32397, "logs": 14270, "\u0120refine": 35856, "\u0120auditing": 25345, "\u0120viewed": 39693, "\u0120sv": 38155, "viewer": 22484, "%/": 91, "\u0120sdks": 36770, "fx": 10883, "\u0120notion": 33712, "technet": 20819, "adfs": 4265, "troubleshooting": 21431, "configuring": 7291, "comput": 7234, "ers": 9689, "\u0120production": 35165, "diagnostics": 8432, "trace": 21288, "\u0120count": 27331, "\u0120filtered": 29627, "\u0120vowels": 39767, "\u0120letter": 32223, "\u0120repeats": 36072, "around": 4962, "ahead": 4395, "ab": 3992, "pq": 17314, "xy": 23222, "yy": 23333, "regexp": 18245, "rule": 18830, "whitespace": 22786, "goes": 11229, "\u0120documented": 28459, "\u0120backreferences": 25472, "\u0120rule": 36516, "\u0120lists": 32402, "\u0120repetition": 36075, "\u0120limiting": 32352, "\u0120practical": 34910, "\u0120fancier": 29485, "fancy": 10146, "corpus": 7482, "cw": 7806, "foobar": 10611, "quux": 17854, "blacklist": 5855, "vowels": 22566, "aeiou": 4327, "repeated": 18349, "letter": 13828, "ch": 6683, "\u0120planning": 34714, "\u0120vbos": 39613, "\u0120tiles": 38590, "\u0120vertices": 39674, "\u0120vbo": 39612, "\u0120culling": 27537, "\u0120maths": 32777, "\u0120di": 28151, "ablo": 4033, "wherever": 22774, "om": 16120, "etric": 9783, "\u0120fixed": 29689, "\u0120geometry": 30172, "\u0120quad": 35425, "\u0120visible": 39722, "\u0120graphics": 30378, "\u0120affecting": 24666, "\u0120pixel": 34686, "rate": 17977, "\u0120ro": 36406, "cks": 6865, "\u0120houses": 30831, "\u0120anyways": 24974, "\u0120aim": 24719, "\u0120streaming": 37792, "\u0120huge": 30869, "\u0120seamless": 36777, "\u0120chunks": 26496, "\u0120against": 24688, "\u0120bounding": 25924, "\u0120simplest": 37186, "\u0120games": 30082, "\u0120drive": 28572, "\u0120designs": 28054, "\u0120effects": 28737, "\u0120instanced": 31437, "\u0120particle": 34394, "\u0120systems": 38251, "\u0120optimization": 34035, "\u0120worthy": 40126, "\u0120optimizations": 34036, "\u0120enter": 28969, "\u0120invokes": 31683, "\u0120therefor": 38488, "\u0120jonas": 31879, "enter": 9523, "\u0120disclaimer": 28291, "\u0120newbie": 33554, "\u0120played": 34725, "\u0120weeks": 39921, "\u0120effectively": 28736, "lived": 14150, "efficient": 9256, "who": 22790, "\u0120cares": 26233, "...?": 343, "?)": 3728, "\u0120everywhere": 29154, "levans": 13833, "\u0120counterintuitive": 27334, "\u0120fashion": 29498, "\u0120true": 38919, "\u0120destroyed": 28071, "\u0120freed": 29943, "\u0120response": 36229, "\u0120party": 34410, "\u0120varies": 39597, "\u0120constant": 27106, "\u0120hmac": 30742, "aken": 4427, "\u0120safer": 36596, "\u0120varying": 39604, "\u0120matter": 32783, "hmac": 11760, "\u0120designed": 28050, "\u0120among": 24859, "\u0120others": 34116, "\u0120integrate": 31480, "\u0120phantom": 34601, "\u0120scraping": 36741, "\u0120de": 27702, "vm": 22535, "ach": 4125, "ine": 12487, "\u0120examined": 29182, "\u0120unrestricted": 39364, "\u0120denied": 27935, "componentmodel": 7219, "80004005": 3212, "\u0120strength": 37796, "tracker": 21294, "controllers": 7414, "controller": 7413, "\u0120reside": 36190, "\u0120\"\\": 23716, "bla": 5850, "\u0120restrictions": 36254, "scrape": 19112, "redirect": 18174, "shell": 19468, "phantom": 16962, "ising": 12935, "pipe": 17030, "received": 18110, "20000": 1645, "cancel": 6397, "catch": 6482, "kb": 13386, "317": 2052, "wp": 22947, "\u0120belongs": 25647, "\u0120group": 30428, "\u0120buckets": 26036, "\u0120fold": 29784, "\u0120rayon": 35578, "fold": 10589, "m1": 14434, "m2": 14438, "m3": 14443, "acc": 4074, "parallel": 16672, "implementations": 12345, "\u0120similarly": 37178, "\u0120breaks": 25964, "\u0120sublists": 37919, "\u0120hence": 30668, "\u0120yielding": 40258, "\u0120sum": 38059, "\u0120sums": 38071, "\u0120nondeterministic": 33645, "\u0120otoh": 34118, "\u0120iterating": 31770, "\u0120items": 31763, "\u0120choice": 26469, "vs": 22578, "\u0120rustlang": 36558, "\u0120pipe": 34669, "\u0120knows": 32045, "\u0120sink": 37219, "\u0120introducing": 31628, "sink": 19628, "\u0120shall": 37008, "\u0120thinking": 38504, "\u0120outlives": 34144, "\u0120mix": 33096, "sure": 20550, "themselves": 20961, "\u0120university": 39281, "\u0120homework": 30773, "\u0120task": 38309, "\u0120variant": 39591, "union": 21898, "\u0120faced": 29420, "\u0120union": 39264, "\u0120understood": 39195, "theatre": 20951, "director": 8507, "price": 17419, "i64": 11959, "childish": 6770, "adultish": 4304, "musical": 15234, "child": 6765, "ultish": 21779, "mus": 15231, "ical": 12006, "subtype": 20463, "ta": 20717, "piece": 17012, "ram": 17937, "ma": 14449, "dy": 8876, "composer": 7224, "country": 7518, "i16": 11947, "e0658": 9010, "unions": 21899, "fields": 10352, "issue": 12965, "55": 2669, "e07": 9011, "contain": 7375, "need": 15497, "dropping": 8777, "manually": 14537, "\u0120unions": 39265, "\u0120verbatim": 39645, "\u0120low": 32547, "\u0120intrinsically": 31622, "\u0120sudoku": 38031, "\u0120solver": 37390, "\u0120verbosity": 39648, "\u0120seemed": 36837, "\u0120enforce": 28931, "stdio": 20186, "dog": 8668, "bark": 5530, "\u0120#": 23723, "6268": 2869, "\u0120evaluated": 29132, "\u0120thinks": 38505, "\u0120aliasing": 24756, "\u0120illegal": 30992, "fortran": 10670, "\u0120matlab": 32778, "octave": 15981, "\u0120julia": 31912, "\u0120dimensionality": 28228, "arr1": 4965, "5555": 2682, "e0282": 8932, "infer": 12502, "macros": 14465, "annotations": 4716, "generic": 11006, "\u0120infer": 31270, "\u0120explained": 29318, "\u0120`_`;": 24357, "\u0120binding": 25720, "\u0120_": 24331, "\u0120nevertheless": 33551, "\u0120ar": 25073, "ouse": 16485, "\u0120supposedly": 38106, "\u0120expecting": 29289, "\u0120outcome": 34129, "\u0120freedom": 29944, "\u0120numbers": 33765, "\u0120alike": 24766, "\u0120loose": 32522, "\u0120ambiguity": 24848, "\u0120demonstration": 27927, "magic": 14473, "deadbeef": 8076, "land": 13603, "0x1234": 919, "sum1": 20505, "infers": 12505, "sum2": 20506, "accumulator": 4115, "\u0120suggested": 38047, "\u0120parametrize": 34344, "\u0120glance": 30233, "\u0120badly": 25488, "ating": 5165, "\u0120hints": 30726, "\u0120ufcs": 39087, "randomly": 17949, "\u0120designation": 28047, "\u0120referencing": 35844, "\u0120hopping": 30799, "\u0120admit": 24606, "edly": 9200, "binop": 5809, "addx": 4255, "\u0120unboxed": 39136, "\u0120active": 24522, "\u0120conveniences": 27221, "\u0120instances": 31438, "\u0120ones": 33946, "\u0120generically": 30153, "unboxed": 21826, "closures": 6966, "sugar": 20490, "overloaded": 16543, "bearing": 5653, "\u0120\u00e2\u0122\u00a6": 40365, "\u0120hmm": 30744, "failure": 10127, "hit": 11745, "bug": 6141, "appreciate": 4838, "report": 18368, "complement": 7200, "assertion": 5072, "chris": 6795, "librustc": 13966, "trans": 21320, "callee": 6372, "528": 2633, "\u0120legal": 32194, "\u0120panics": 34305, "\u0120owns": 34230, "\u0120closest": 26615, "\u0120pull": 35347, "\u0120rely": 35995, "\u0120readable": 35606, "\u0120wouldn": 40128, "single": 19623, "bail": 5488, "\u0120gtk": 30448, "gtk": 11383, "timeout": 21097, "toplevel": 21237, "changed": 6702, "continue": 7397, "e0495": 8968, "appropriate": 4841, "conflicting": 7298, "requirements": 18404, "outlive": 16515, "ending": 9448, "assignable": 5082, "meet": 14730, "bounds": 6003, "\u0120hidden": 30694, "\u0120names": 33418, "\u0120unambiguously": 39115, "\u0120independent": 31208, "probably": 17468, "\u0120myst": 33389, "ified": 12161, "\u0120formally": 29861, "\u0120forever": 29842, "\u0120timeout": 38598, "\u0120wrapper": 40141, "\u0120welcomed": 39934, "rd": 18020, "\u0120day": 27687, "\u0120exploring": 29343, "zmq": 23399, "lid": 14018, "resp": 18442, "messa": 14794, "ger": 11036, "fut": 10855, "dur": 8848, "\u0120k": 31933, "\u0120segmentation": 36849, "\u0120r": 35507, "stdlib": 20188, "execution": 9889, "functor": 10843, "\u0120dispatch": 28340, "ptx": 17640, "=-": 3665, "\u0120occup": 33853, "\u0120calculator": 26158, "\u0120ptx": 35330, "\u0120counting": 27340, "\u0120total": 38716, "!)": 15, "\u0120occupancy": 33854, "\u0120rounding": 36464, "\u0120ptxas": 35331, "\u0120granularity": 30371, "\u0120greg": 30405, "\u0120granular": 30370, "\u0120max": 32790, "\u0120threadblocks": 38528, "\u0120sm": 37309, "usage": 22126, "\u0120exceeding": 29191, "\u0120blocks": 25813, "\u0120accuracy": 24478, "\u0120asking": 25181, "\u0120directed": 28237, "\u0120gpus": 30340, "\u0120cr": 27382, "isp": 12957, "\u0120fundamentally": 30036, "\u0120incorrect": 31174, "\u0120figures": 29601, "\u0120metrics": 32943, "\u0120launch": 32125, "\u0120completes": 26870, "\u0120releases": 35968, "registers": 18255, "\u0120plenty": 34742, "\u0120documents": 28462, "\u0120screenshots": 36749, "\u0120claims": 26528, "\u0120accepting": 24432, "\u0120screen": 36747, "choose": 6789, "\u0120assertion": 25209, "\u0120navigation": 33462, "\u0120high": 30702, "\u0120licensing": 32306, "\u01202016": 24027, "\u0120edition": 28718, "\u0120upwards": 39484, "\u0120helping": 30666, "\u0120friend": 29967, "\u0120study": 37867, "\u0120diameter": 28169, "\u0120upper": 39468, "gex": 11092, "\u0120coords": 27272, "\u0120con": 26941, "\u0120sizes": 37237, "wiki": 22810, "unity": 21913, "procedural": 17481, "primitives": 17427, "\u0120mesh": 32908, "\u0120plane": 34709, "\u0120dynamically": 28663, "\u0120sides": 37116, "\u0120positions": 34864, "\u0120radius": 35523, "\u0120recreate": 35752, "\u0120triangles": 38872, "dynamic": 8884, "mono": 15034, "behaviour": 5691, "mesh": 14790, "collider": 7094, "radius": 17920, "25": 1834, "nb": 15452, "sides": 19546, "pi": 16994, "mathf": 14627, "vector3": 22376, "wake": 22628, "component": 7218, "mr": 15131, "material": 14622, "shader": 19433, "rec": 18103, "editor": 9196, "playing": 17109, "endif": 9447, "cap": 6418, "endregion": 9456, "triangle": 21390, "triangles": 21391, "tri": 21386, "ulate": 21750, "ang": 4677, "ents": 9556, "\u0120structuring": 37845, "\u0120thrown": 38551, "\u0120hacky": 30508, "\u0120gdb": 30116, "despite": 8336, "\u0120clarity": 26541, "\u0120mocked": 33122, "\u0120bin": 25712, "\u0120whats": 39948, "blah": 5857, "blabla": 5852, "stack": 20097, "0x46": 973, "rt": 18796, "imp": 12331, "fe": 10227, "294": 1941, "867": 3329, "pre": 17327, "0x44": 972, "d8": 7891, "unwind": 22004, "h0": 11436, "451": 2433, "h2": 11444, "145": 1402, "fb9": 10175, "0x4": 961, "a75": 3946, "h3": 11447, "bb": 5584, "279": 1907, "e9a": 9081, "504": 2589, "a76": 3947, "he": 11605, "5c": 2778, "809": 3234, "h5": 11455, "370": 2189, "0f0": 784, "fb": 10171, "f3": 10040, "cfa": 6661, "c1": 6236, "baf": 5483, "544": 2660, "rb": 17999, "0x40": 962, "b0": 5365, "270": 1891, "329": 2085, "cf4": 6658, "faa": 10086, "862": 3318, "c0": 6225, "17a": 1510, "166": 1470, "ow": 16556, "04": 651, "72": 3049, "ci": 6810, "pe": 16824, "h90": 11462, "473": 2475, "132": 1350, "f89": 10070, "co": 7031, "32e0": 2088, "0x7ff": 1053, "547": 2663, "\u0120breakpoint": 25962, "\u0120somestruct": 37399, "\u0120unknown": 39285, "destroy": 8342, "\u0120opaque": 33964, "\u0120ffi": 29572, "\u0120impossible": 31097, "\u0120boring": 25889, "hy": 11929, "phy": 16990, "callback": 6369, "aliases": 4471, "e0404": 8954, "tea": 20810, "\u0120transfer": 38780, "\u0120potentially": 34897, "\u0120gut": 30485, "\u0120feeling": 29549, "\u0120educational": 28730, "recipient": 18124, "\u0120neither": 33527, "\u0120moves": 33241, "\u0120dig": 28209, "\u0120pushing": 35381, "\u0120popping": 34830, "\u0120drain": 28548, "\u0120silly": 37168, "\u0120transferring": 38784, "\u0120collections": 26729, "\u0120precise": 34942, "\u0120layout": 32144, "\u0120specialized": 37479, "card": 6443, "e0425": 8959, "drain": 8750, "\u0120monadic": 33172, "\u0120tightly": 38585, "\u0120coupled": 27347, "\u0120operating": 34002, "licative": 14008, "haskell": 11568, "lift": 14037, "\u0120shorter": 37074, "\u0120beware": 25684, "\u0120possibly": 34877, "\u0120moreover": 33212, "\u0120cumbersome": 27545, "oa": 15903, "ob": 15909, "\u0120independently": 31209, "\u0120frontend": 29980, "\u0120yells": 40250, "\u0120wether": 39941, "\u0120flipped": 29742, "\u0120letters": 32224, "\u0120instant": 31440, "\u0120exchanged": 29208, "\u0120variations": 39594, "\u0120hyphen": 30905, "\u0120alternative": 24830, "\u0120effect": 28734, "\u0120stupid": 37880, "\u0120overflow": 34171, "\u0120days": 27689, "\u0120dare": 27639, "\u0120^^": 24318, "myapp": 15280, "backend": 5458, "\u0120executables": 29227, "\u0120lucene": 32573, "\u0120medium": 32848, "\u0120godaddy": 30291, "\u0120posted": 34881, "\u0120recommended": 35720, "\u0120quote": 35502, "\u0120email": 28809, "iirc": 12221, "\u0120overload": 34188, "\u0120flushed": 29760, "archive": 4883, "ange": 4678, "xu": 23207, "jy": 13347, "fw": 10876, "hnd": 11771, "mk": 14946, "gnu": 11217, "cs": 7673, "throw": 21038, "\u0120commits": 26787, "\u0120788": 24198, "092": 746, "\u0120went": 39936, "\u0120verify": 39656, "\u0120history": 30733, "\u0120favorite": 29519, "\u0120subversion": 38001, "\u0120struggled": 37848, "\u0120pulled": 35348, "81": 3239, "\u0120verifies": 39655, "\u0120unmanaged": 39301, "\u0120rebuilt": 35678, "\u0120locally": 32453, "\u0120deployed": 27971, "\u0120implications": 31073, "\u0120appear": 25007, "\u0120precedes": 34937, "ync": 23296, "zero": 23362, "\u0120mqtt": 33255, "\u0120codec": 26672, "\u0120reexported": 35824, "\u0120relevant": 35971, "util": 22188, "codec": 7044, "framed": 10722, "mqtt": 15129, "v5": 22242, "packet": 16613, "e0599": 8994, "perhaps": 16884, "warning": 22654, "\u0120incompatibilities": 31156, "\u0120causing": 26296, "obvious": 15948, "\u0120roll": 36426, "\u0120additionally": 24565, "\u0120nic": 33577, "\u0120emulator": 28863, "qemu": 17755, "\u012032": 24094, "bits": 5837, "\u0120descriptor": 28023, "\u0120addresses": 24573, "\u0120struggling": 37850, "\u0120mask": 32739, "\u0120shift": 37043, "\u0120halves": 30521, "\u0120descriptors": 28024, "\u0120hardware": 30572, "repr": 18376, "e1000": 9020, "desc": 8303, "checksum": 6751, "special": 19910, "cmd": 6997, "base": 5540, "register": 18251, "lo": 14208, "ffffffff": 10310, "0xffff": 1129, "x1": 23048, "x2": 23053, "isize": 12939, "\u0120approaches": 25045, "\u0120arithmetics": 25119, "\u0120initialize": 31341, "state1": 20150, "state2": 20151, "owned": 16562, "won": 22898, "caller": 6373, "automate": 5281, "feed": 10252, "aut": 5252, "omate": 16125, "oriented": 16353, "templates": 20845, "param": 16676, "\u0120implmented": 31080, "\u0120treating": 38851, "\u0120superclass": 38075, "\u0120graph": 30372, "\u0120consisting": 27095, "wise": 22867, "\u0120conceptually": 26964, "\u0120cycles": 27603, "\u0120arena": 25098, "\u0120lets": 32222, "\u0120remaining": 36001, "allocated": 4511, "\u0120semantically": 36873, "edges": 9186, "lots": 14319, "arena": 4895, "\u0120never": 33550, "\u0120invalidate": 31641, "\u012064": 24171, "\u0120platforms": 34718, "\u0120shave": 37027, "\u0120suffer": 38032, "\u0120inability": 31116, "\u0120graphs": 30381, "\u0120periodically": 34536, "\u0120unused": 39423, "\u0120akin": 24730, "\u0120collector": 26730, "\u0120progressing": 35197, "\u0120brought": 25998, "\u0120paste": 34425, "\u0120prompt": 35228, "drive": 8761, "separat": 19289, "walk": 22635, "volume": 22557, "incorrect": 12431, "123": 1290, "pathbuf": 16766, "\u0120replaces": 36086, "\u0120prefixes": 34994, "\u0120\\": 24313, "share": 19457, "\u0120misunderstanding": 33082, "\u0120unix": 39282, "\u0120specification": 37486, "\u0120sorting": 37425, "ls": 14349, "\u0120random": 35539, "\u0120walk": 39806, "petgraph": 16941, "wal": 22632, "ker": 13409, "direction": 8502, "determin": 8367, "istic": 12981, "neighbors": 15517, "exists": 9912, "candidate": 6404, "\u0120quiet": 35488, "\u0120recursive": 35770, "\u0120derive": 28002, "children": 6771, "e0204": 8917, "\u0120afraid": 24679, "\u0120initializers": 31345, "\u0120bytewise": 26127, "\u0120constructing": 27124, "\u0120constructor": 27127, "\u0120processed": 35150, "\u0120invocation": 31679, "\u0120perfect": 34522, "\u0120temporarily": 38384, "basically": 5557, "outputs": 16520, "trentcl": 21384, "\u0120proc": 35137, "\u0120macros": 32604, "\u0120sd": 36768, "\u0120parsed": 34374, "\u0120parses": 34379, "\u0120ast": 25257, "\u0120repo": 36100, "\u0120helpful": 30663, "macro2": 14464, "anything": 4757, "330": 2093, "336": 2109, "337": 2110, "340": 2120, "punct": 17664, "alone": 4534, "syn": 20632, "pickle": 17004, "\u0120wiki": 40005, "\u0120suggests": 38051, "\u0120trustedpickle": 38940, "\u0120protection": 35272, "\u0120pickle": 34637, "\u0120author": 25365, "ised": 12927, "\u0120instructed": 31458, "python": 17731, "packages": 16609, "\u0120opened": 33973, "\u0120142": 23973, "\u0120column": 26748, "\u0120download": 28523, "sourceforge": 19877, "projects": 17545, "\u0120trailing": 38759, "\")": 35, "\u0120covers": 27362, "\u0120modifications": 33145, "y1": 23231, "y2": 23232, "\u0120sts": 37853, "\u0120unexpected": 39213, "\u0120occured": 33860, "\u0120em": 28807, "selector": 19245, "cards": 6446, "paces": 16605, "him": 11729, "getc": 11047, "ard": 4886, "()...": 155, "\u0120extremely": 29407, "\u0120dep": 27951, "ract": 17911, "\u0120years": 40246, "\u0120sc": 36668, "credentials": 7602, "interactive": 12711, "\u0120false": 29473, "\u0120flavours": 29724, "\u0120nhibernate": 33574, "\u0120generator": 30150, "\u0120recieve": 35696, "\u0120assembly": 25202, "proxy": 17601, "assembly": 5069, "\u0120dlls": 28428, "\u0120prior": 35105, "\u0120pay": 34452, "\u0120attention": 25323, "\u0120loading": 32441, "\u0120blog": 25814, "\u0120outlines": 34141, "\u0120reflection": 35863, "\u0120ner": 33530, "fed": 10248, "though": 21015, "\u0120physically": 34629, "\u0120honest": 30778, "\u0120opt": 34020, "\u0120offered": 33896, "\u0120removes": 36031, "\u0120cheap": 26429, "\u0120nasty": 33444, "\u0120dedicated": 27811, "\u0120disposal": 28355, "\u0120pain": 34270, "\u0120chime": 26462, "\u0120mentioning": 32889, "\u0120answered": 24953, "\u0120forums": 29887, "forum": 10674, "hibernate": 11700, "\u0120expand": 29278, "\u0120reaches": 35597, "\u0120nearest": 33475, "\u0120computed": 26935, "\u0120segmented": 36850, "\u0120inclusive": 31151, "\u0120scans": 36687, "\u0120segment": 36848, "\u0120special": 37470, "\u0120begin": 25609, "\u0120become": 25594, "\u0120evident": 29158, "\u0120lesser": 32217, "\u0120adjusting": 24594, "\u0120>": 24282, "\u0120subtract": 37988, "\u0120considered": 27088, "arbitrarily": 4872, "\u0120simulated": 37199, "<<": 3647, "\u0120areas": 25096, "\u0120improved": 31108, "\u0120particularly": 34397, "\u0120respect": 36216, "\u0120fusion": 30051, "\u0120harder": 30568, "\u0120bugs": 26054, "\u0120uncover": 39161, "\u0120teach": 38344, "ambiguity": 4583, "\u0120jackolantern": 31796, "\u0120present": 35029, "\u0120obscured": 33820, "\u0120mimic": 32997, "\u0120desired": 28057, "\u0120realization": 35628, "\u0120<": 24256, "\u0120...\"": 23884, "\u0120whoever": 39980, ".\"": 312, "\u0120reaching": 35598, "dist": 8557, "t6": 20712, "permutation": 16910, "counting": 7515, "zip": 23384, "functional": 10839, "define": 8178, "sums": 20517, "asing": 5035, "segmented": 19230, "based": 5550, "flag": 10476, "ors": 16378, "predicate": 17349, "segment": 19226, "representation": 18380, "equivalent": 9614, "2nd": 1991, "az": 5359, "asl": 5044, "inclusive": 12421, "combined": 7125, "results": 18478, "ostream": 16419, "\u0120460": 24134, "\u0120despite": 28064, "\u0120improper": 31105, "\u0120description": 28020, "\u0120visit": 39726, "__": 3853, "reductions": 18185, "gad": 10905, "203": 1682, "cab": 6324, "2481": 1825, "cstdlib": 7685, "fstream": 10798, "calculate": 6354, "occur": 15960, "ances": 4639, "tid": 21068, "syncthreads": 20642, "argc": 4908, "argv": 4928, "whole": 22791, "prop": 17560, "properties": 17566, "per": 16872, "counts": 7519, "\u0120dispatched": 28342, "\u0120entirety": 28977, "\u0120stepping": 37734, "\u0120occurrences": 33867, "effectively": 9252, "\u0120histogram": 30729, "ming": 14891, "\u0120outlined": 34140, "\u0120methodology": 32940, "\u0120restricted": 36251, "\u0120printouts": 35103, "\u0120subject": 37913, "\u0120limits": 32353, "\u0120sensible": 36890, "\u0120wish": 40051, "answer": 4736, "\u0120discussion": 28328, "constant": 7339, "just": 13340, "seq": 19300, "rsize": 18781, "vals": 22283, "526": 2630, "324": 2070, "325": 2072, "327": 2077, "\u0120relating": 35953, "major": 14495, "\u0120multiplying": 33312, ")*": 202, "mv": 15263, "\u0120==": 24272, "\u0120centre": 26336, "\u0120clip": 26587, "\u0120mvp": 33364, "(-": 170, "\u0120persists": 34569, "\u0120helper": 30661, "\u0120helpers": 30662, "\u0120commend": 26774, "helpers": 11661, "helper": 11659, "\u0120constructors": 27128, "\u0120saving": 36660, "\u0120pointless": 34778, "quote": 17849, "book": 5950, "language": 13611, "\u0120rustdoc": 36551, "\u0120relates": 35952, "\u0120accurate": 24479, "\u0120date": 27676, "\u0120developed": 28122, "effort": 9258, "\u0120basis": 25549, "\u0120tracking": 38746, "\u0120developments": 28127, "\u0120stderr": 37712, "\u0120stdin": 37713, "\u0120200": 24013, "\u0120reality": 35627, "\u0120~": 40339, "\u0120insertion": 31398, "\u0120occasionally": 33850, "\u0120fragment": 29919, "keeping": 13400, "\u0120ringbuffer": 36378, "\u0120erase": 29044, "\u0120fragmentation": 29920, "thanks": 20946, "\u0120se": 36772, "bk": 5847, "\u0120community": 26804, "\u0120draft": 28544, "\u0120questioned": 35472, "depending": 8265, "250": 1835, "000": 395, "\u0120basics": 25547, "\u0120circular": 26508, "\u0120evidently": 29159, "arching": 4878, "\u0120fat": 29505, "\u0120allocator": 24783, "\u0120shifting": 37045, "\u0120sideways": 37120, "\u0120techniques": 38357, "\u0120gain": 30069, "\u0120alloc": 24776, "\u0120lose": 32529, "\u0120wide": 39992, "yi": 23271, "\u0120quick": 35480, "\u0120albeit": 24736, "fully": 10822, "\u0120warranted": 39834, "\u0120sections": 36804, "\u0120reimplement": 35918, "\u0120purely": 35362, "\u0120choices": 26470, "\u0120ahead": 24713, "\u0120comparable": 26818, "\u0120naive": 33405, "\u0120aimed": 24721, "real": 18079, "byteorder": 6213, "endian": 9446, "circular": 6842, "amount": 4609, "including": 12419, "remove": 18318, "chunk": 6805, "splice": 19962, "snippets": 19773, "\u0120recursively": 35771, "xs": 23197, "\u0120guess": 30466, "\u0120guesses": 30468, "\u0120aka": 24729, "\u0120bails": 25497, "\u0120continue": 27173, "\u0120wait": 39794, "folder": 10590, "ps": 17607, "svd2rust": 20576, "last": 13634, "deps": 8273, "incremental": 12441, "240": 1802, "d2rust": 7855, "276": 1903, "372": 2192, "log2": 14248, "2016": 1671, "565": 2699, "888": 3364, "stm": 20233, "32f": 2089, "401": 2312, "912": 3423, "360": 2170, "985": 3531, "stm32": 20234, "f4": 10046, "/\"": 360, "\u0120\"/": 23704, "\u0120absolute": 24403, "\u0120impli": 31071, "ment": 14766, "h1": 11441, "v1": 22227, "=\"": 3657, "${": 85, "}\".": 23503, "\u0120individual": 31238, "\u0120#[": 23726, "\")]": 42, "\u0120peano": 34483, "\u0120abstract": 24407, "\u0120quickly": 35485, "\u0120enumeration": 28996, "\u0120experimented": 29303, "peano": 16828, "succ": 20469, "enumerate": 9565, "pred": 17343, "partial": 16722, "\u0120serves": 36956, "\u0120forward": 29888, "\u0120interest": 31528, "\u0120implementers": 31063, "\u0120constrain": 27115, "\u0120nonsensical": 33658, "\u0120implementer": 31062, "\u0120referred": 35851, "\u0120predecess": 34958, "\u0120constraint": 27119, "\u0120reserve": 36180, "\u0120callee": 26168, "\u0120computations": 26933, "ier": 12130, "\u0120bring": 25981, "\u0120reworked": 36344, "\u0120co": 26655, "\u0120constraints": 27120, "itertools": 13040, "equal": 9608, "longest": 14281, "thingy": 20994, "\u0120webserver": 39902, "\u0120rocket": 36418, "\u0120redirect": 35795, "\u0120html": 30846, "\u0120conditions": 26995, "\u0120responder": 36225, "\u0120word": 40089, "\u0120incredibly": 31182, "\u0120shouldn": 37083, "\u0120knowledge": 32042, "different": 8467, "dashboard": 7950, "responders": 18449, "respond": 18446, "\u0120unnecessarily": 39318, "\u0120cleanest": 26561, "\u0120foo": 29805, "als": 4552, "executed": 9885, "\u0120significant": 37148, "\u0120organize": 34076, "cr": 7560, "ename": 9402, "\u0120dialog": 28167, "uer": 21703, "\u0120searches": 36783, "\u0120typing": 39064, "\u0120press": 35043, "\u0120displays": 28353, "\u0120hitting": 30736, "dialoguer": 8437, "suggestion": 20494, "ctures": 7720, "prompt": 17556, "suggested": 20493, "interact": 12708, "\u0120nor": 33668, "\u0120clearing": 26571, "\u0120poll": 34801, "\u0120pending": 34507, "crossterm": 7646, "67": 2951, "620": 2861, "288": 1929, "fea": 10235, "bcf": 5622, "\u0120multiplication": 33307, "\u0120rpc": 36479, "\u0120futures": 30057, "cpupool": 7552, "\u0120blocked": 25808, "\u0120cpupool": 27377, "slacker": 19678, "cpu": 7549, "req": 18391, "sreq": 20039, "fname": 10567, "hot": 11827, "cance": 6396, "led": 13765, "unsupported": 21984, "103": 1181, "101": 1161, "102": 1173, "133": 1353, "105": 1193, "35": 2142, "107": 1198, "packets": 16614, "\u0120declaring": 27765, "\u0120container": 27149, "\u0120inventory": 31656, "\u0120heck": 30647, "inventory": 12803, "\u0120lookup": 32511, "\u0120existed": 29262, "\u0120wanting": 39823, "\u0120equality": 29031, "\u0120prohibited": 35202, "\u0120alternatives": 24832, "\u0120removal": 36027, "\u0120filtering": 29628, "\u0120indicates": 31222, "\u0120depend": 27956, "inv": 12793, "\u0120elegant": 28768, "\u0120reordering": 36056, "mirror": 14918, "\u0120ordering": 34061, "\u0120mirror": 33039, "st": 20088, "\u0120switched": 38186, "\u0120unique": 39266, "\u0120reorder": 36054, "pair": 16639, "gather": 10941, "\u0120destination": 28067, "dsize": 8788, "\u0120predicate": 34962, "\u0120mutation": 33348, "\u0120ab": 24370, "usually": 22172, "v2": 22231, "\u0120captured": 26221, "\u0120translate": 38803, "\u0120forbids": 29823, "\u0120poison": 34781, "611": 2845, "0usize": 824, "e0594": 8991, "\u0120encoder": 28887, "\u0120shortcut": 37067, "\u0120mem": 32860, "\u0120interfacing": 31536, "\u0120io": 31692, "shortcut": 19501, "\u0120potential": 34896, "\u0120refers": 35854, "\u0120(#": 23782, "302": 2018, "\u0120coerce": 26689, "\u0120bool": 25871, "dbg": 8021, "\u0120webassembly": 39889, "\u0120bundled": 26085, "before": 5674, "\u0120webpack": 39899, "\u0120red": 35779, "\u0120npm": 33728, "npm": 15790, "jakearmendariz": 13156, "desktop": 8335, "life": 14030, "www": 23033, "webpack": 22710, "modules": 15013, "utils": 22194, "been": 5669, "initialized": 12564, "patterns": 16772, "cjs": 6856, "776": 3126, "787": 3151, "653": 2920, "593": 2757, "585": 2743, "require": 18401, "cli": 6912, "convert": 7427, "114": 1257, "116": 1263, "exports": 9966, "121": 1284, "lif": 14029, "cle": 6893, "errno": 9678, "script": 19122, "likely": 14048, "additional": 4231, "442": 2411, "bootstrap": 5968, "dirname": 8514, "plugins": 17126, "im": 12283, "ist": 12972, "pkg": 17063, "depend": 8258, "encies": 9414, "\u0120alert": 24738, "\u0120upgraded": 39456, "\u0120risk": 36390, "\u0120appeared": 25009, "\u0120blurz": 25833, "\u0120bluetooth": 25828, "\u0120equal": 29030, "\u0120temp": 38373, "(?).": 179, "\u0120handled": 30535, "bt": 6100, "powered": 17288, "discovery": 8537, "\u0120illustrate": 31000, "\u0120dropped": 28584, "\u0120action": 24512, "\u0120sugar": 38044, "\u0120deref": 27987, "\u0120coercion": 26694, "\u0120derefs": 27997, "\u0120ref": 35827, "dereferencing": 8288, "dropped": 8775, "takes": 20749, "br": 6025, "ings": 12537, "immediately": 12324, "creates": 7593, "okay": 16074, "holding": 11787, "these": 20976, "deref": 8283, "coercion": 7065, "\u0120operands": 33998, "\u0120logical": 32484, "\u0120eagerly": 28673, "\u0120lazily": 32148, "\u0120circumstances": 26511, "\u0120evaluation": 29135, "\u0120usable": 39495, "\u0120comparing": 26828, "\u0120focused": 29778, "\u0120applicable": 25027, "ul": 21747, "idea": 12071, "evaluation": 9814, "(\"": 133, "surely": 20552, "\u0120converting": 27245, "\u0120creation": 27414, "allocating": 4513, "\u0120excess": 29204, "\u0120stripped": 37821, "\u0120modifying": 33151, "dependent": 8263, "\u0120preferably": 34982, "fin": 10407, "ance": 4636, "labs": 13581, "\u0120verifying": 39657, "\u0120located": 32459, ".]": 354, "\u0120powershell": 34906, "\u0120bash": 25542, "\u0120fedora": 29542, "\u0120exc": 29188, "ite": 13003, "spect": 19926, "\u0120green": 30400, "\u0120indicative": 31227, "\u0120alone": 24797, "aggreg": 4378, "ates": 5144, "finance": 10412, "formatters": 10660, "066": 710, "ea3": 9084, "b9": 5436, "passed": 16744, "ignored": 12202, "measured": 14714, "filtered": 10404, "canonical": 6412, "limited": 14054, "ubuntu": 21658, "hk": 11750, "gs": 11371, "rootfs": 18700, "mime": 14884, "guess": 11402, "890": 3373, "328": 2083, "763": 3107, "c22": 6253, "cgu": 6682, "rcgu": 18016, "\u0120\u00e2\u0122\u013e": 40373, "\u00e2\u0122\u013f": 23595, "\u0120controlling": 27212, "works": 22929, "\u0120iterates": 31769, "looking": 14292, "structopt": 20360, "pcap": 16796, "capture": 6435, "devices": 8388, "prom": 17548, "snap": 19759, "look": 14289, "\u0120reporting": 36106, "\u0120syntactic": 38228, "\u0120mistakes": 33077, "\u0120personal": 34571, "\u0120authors": 25375, "\u0120books": 25870, "she": 19464, "\u0120decision": 27754, "\u0120ho": 30746, "bbit": 5604, "\u0120entered": 28970, "\u0120vastly": 39606, "\u0120rewriting": 36349, "\u0120organizing": 34078, "ordered": 16322, "\u0120mistaken": 33075, "\u0120ids": 30963, "\u0120btree": 26023, "\u0120carefully": 26231, "\u0120leaks": 32168, "\u0120enterprise": 28972, "\u0120domains": 28482, "\u0120sites": 37225, "rather": 17980, "\u0120advising": 24647, "\u0120dangerous": 27635, "\u0120remote": 36022, "\u0120promote": 35222, "\u0120websites": 39907, "\u0120policy": 34794, "nc": 15460, "baa": 5446, "48": 2488, "sites": 19638, "gp": 11264, "\u0120associate": 25237, "\u0120visual": 39733, "\u0120formatting": 29867, "gro": 11350, "ovy": 16555, "associations": 5098, "groovy": 11353, "\u0120syn": 38208, "\u0120enables": 28869, "\u0120procedural": 35140, "\u0120declares": 27764, "\u0120vice": 39686, "\u0120versa": 39660, "parse2": 16711, "\u0120performant": 34527, "\u0120attached": 25305, "\u0120crash": 27395, "\u0120crashes": 27397, "\u0120surprise": 38125, "\u0120failing": 29446, "buff": 6124, "elem": 9311, "uninitialized": 21894, "prevent": 17409, "allocation": 4514, "allocates": 4512, "test0": 20886, "test1": 20888, "\u0120deallocate": 27713, "\u0120deallocating": 27716, "\u0120mvc": 33359, "\u0120elmah": 28799, "\u0120404": 24118, "\u0120filepaths": 29615, "\u0120\"~/": 23722, "\u0120subsequently": 37951, "website": 22718, "\u0120aspnet": 25189, "\u0120rights": 36373, "\u0120everybody": 29149, "\u0120sqlite": 37568, "\u0120yay": 40241, "\u0120vri": 39773, "\u0120pades": 34259, "\u0120pdf": 34474, "\u0120embed": 28813, "\u0120123": 23957, "4567": 2444, "[...]": 3779, "\u0120etsi": 29119, "pad": 16619, "\u0120ltv": 32570, "\u012012": 23952, "stamp": 20112, "\u0120timestamptoken": 38612, "\"?": 56, "\u0120clarifies": 26538, "1234567890abcdef": 1310, "dss": 8794, "object1": 15924, "object2": 15925, "\u0120ts": 38971, "\u0120meanwhile": 32825, "\u0120superseded": 38084, "\u0120en": 28865, "\u0120319": 24093, "ulated": 21751, "\u0120hashed": 30587, "\u0120dictionary": 28178, "\u0120der": 27985, "\u0120pkcs": 34691, "\u0120cms": 26651, "\u0120cades": 26143, "\u0120stamps": 37651, "\u0120proceed": 35144, "\u0120norm": 33670, "\u0120specifies": 37492, "\u0120inclusion": 31150, "\u0120material": 32764, "\u0120realised": 35624, "\u0120admittedly": 24608, "\u0120stamp": 37648, "\u0120silently": 37166, "!\"": 5, "!\".": 7, "\u0120rng": 36404, "grammar": 11302, "rng": 18641, "\u0120randomly": 35544, "\u00e2\u0122\u013f,": 23598, "\u0120implementors": 31067, "\u0120terms": 38421, "rer": 18408, "\u0120determines": 28110, "\u0120usefully": 39508, "\u0120idiom": 30951, "\u0120paths": 34439, "whitepaper": 22785, "pdf": 16816, "\u0120availability": 25408, "\u0120manuals": 32697, "cour": 7522, "solutions": 19820, "produced": 17502, "ized": 13129, "software": 19809, "zone": 23459, "interface": 12719, "applications": 4830, "rich": 18570, "oper": 16251, "environment": 9575, "loaded": 14210, "\u0120deprecated": 27978, "\u0120smc": 37320, "\u0120tee": 38363, "\u0120navigate": 33458, "cloudf": 6971, "lare": 13622, "tokens": 21197, "\u0120assets": 25217, "\u0120brew": 25969, "\u0120wrangler": 40136, "brew": 6055, "wrangler": 22954, "cloudflare": 6972, "workers": 22923, "publish": 17652, "installed": 12642, "binaries": 5790, "mac": 14452, "zsh": 23472, "\u0120shell": 37035, "\u0120alternate": 24825, "\u0120nom": 33635, "za": 23345, "z0": 23340, "compound": 7227, "separated": 19291, "alt": 4555, "1usize": 1636, "flatten": 10493, "many1": 14542, "\u0120deal": 27710, "\u0120separator": 36909, "\u0120parser": 34377, "\u0120combinator": 26755, "\u0120backtra": 25478, "nom": 15700, "preceded": 17337, "nonempty": 15711, "many0": 14541, "rest": 18460, "flat": 10489, "\u0120acquired": 24501, "fileloadexception": 10377, "\u0120assemblies": 25200, "disposition": 8555, "\u0120inline": 31364, "\u0120identify": 30941, "\u0120postman": 34890, "\u0120responds": 36227, "nemlog": 15529, "au": 5239, "1h": 1618, "id1": 12057, "rrp": 18770, "dispatchprice0": 8550, "k1": 13352, "vic": 22464, "tue": 21508, "oct": 15980, "2019": 1675, "gmt": 11212, "cent": 6603, "gi": 11115, "attachment": 5203, "transfer": 21325, "chunked": 6806, "settlementdate": 19386, "22t10": 1765, "00z": 546, "regionid": 18248, "vic1": 22465, "272": 1895, "7859": 3149, "22t11": 1766, "38": 2207, "41": 2337, "465": 2461, "\u0120deep": 27824, "\u0120reqwest": 36158, "\u0120payload": 34454, "\u0120belonging": 25646, "seems": 19221, "explicitly": 9954, "\u0120peter": 34590, "\u0120omer": 33931, "\u0120reply": 36097, "\u0120headers": 30627, "\u0120waiting": 39797, "\u0120hon": 30777, "\u0120highlights": 30708, "regex1": 18243, "regex2": 18244, "var1": 22310, "field1": 10348, "gets": 11076, "var2": 22311, "field2": 10349, "completely": 7204, "\u0120tail": 38271, "\u0120personally": 34572, "\u0120implies": 31077, "\u0120eliminates": 28789, "\u0120uneven": 39212, "\u0120laz": 32147, "iest": 12132, "\u0120join": 31870, "\u0120collect": 26725, "chunks": 6808, "\u0120weren": 39939, "\u0120joining": 31873, "\u0120iterated": 31768, "\u0120chains": 26386, "\u0120smaller": 37311, "together": 21188, "\u0120emptied": 28852, "attack": 5207, "pp": 17295, "pname": 17137, "captured": 6436, "\u0120consumed": 27138, "data2": 7955, "know": 13518, "starts": 20143, "\u0120unity": 39273, "\u0120skydome": 37256, "\u012010000": 23924, "\u0120culled": 27535, "\u0120dome": 28484, "\u0120drawn": 28564, "\u0120scale": 36677, "\u0120realistic": 35625, "\u0120principles": 35093, "writing": 22975, "\u0120rendered": 36041, "\u0120decreases": 27798, "fighting": 10360, "effects": 9253, "\u0120cameras": 26182, "\u0120clears": 26573, "\u0120draws": 28565, "\u0120inaccurate": 31121, "\u0120polling": 34803, "\u0120fov": 29903, "\u0120directx": 28247, "\u0120dockerfile": 28445, "\u01208080": 24208, "aw": 5325, "\u0120ps": 35314, "\u0120logs": 32494, "experiment": 9939, "dockerfile": 8649, "pil": 17015, "workdir": 22918, "517": 2613, "cb": 6499, "113": 1252, "ce2": 6566, "3d": 2267, "d4": 7861, "146": 1405, "tain": 20739, "created": 7590, "ports": 17242, "men": 14765, "ru": 18817, "ago": 4386, "exited": 9915, "\u0120override": 34199, "docker": 8648, "8080": 3228, "\u0120audio": 25341, "\u0120associating": 25240, "\u0120readers": 35610, "\u0120extensible": 29380, "\u0120plug": 34752, "\u0120conventional": 27226, "\u0120extensibility": 29379, "audio": 5244, "\u0120init": 31327, "\u0120life": 32312, "\u0120goal": 30288, "\u0120triangular": 38873, "\u0120divisors": 28420, "\u0120euler": 29124, "864": 3324, "\u0120p": 34237, "\u0120closed": 26611, "\u0120formula": 29874, "\u0120bare": 25525, "\u0120brain": 25943, "0us": 823, "fac": 10093, "1000000": 1140, "extremely": 10009, "clever": 6910, "listing": 14131, "numbers": 15859, "calculating": 6357, "1is": 1624, "sqrt": 20013, "got": 11257, "wo": 22891, "499": 2524, "501": 2581, "502": 2582, "\u0120computing": 26939, "\u0120square": 37575, "\u0120lowest": 32555, "\u0120divisor": 28419, "\u0120greater": 30394, "\u0120dividing": 28413, "\u0120six": 37232, "\u0120misses": 33068, "\u01206": 24165, "\u0120factors": 29438, "\u0120loses": 32530, "\u0120curious": 27555, "\u0120trickery": 38878, "\u0120scenes": 36700, "\u0120relies": 35978, "\u0120internally": 31556, "\u0120offers": 33898, "\u0120bumping": 26081, "\u0120cursor": 27568, "man": 14512, "\u0120taken": 38277, "\u0120skips": 37254, "\u0120yielded": 40257, "\u0120primitive": 35087, "derived": 8296, "\u0120normally": 33679, "ii": 12217, "iii": 12220, "\u0120shepmaster": 37040, "\u0120delegate": 27882, "\u0120safety": 36600, "\u0120responsibility": 36233, "next2": 15590, "less": 13814, "next3": 15591, "checking": 6745, "9u8": 3590, "\u0120lang": 32092, "obj": 15914, "\u0120structural": 37839, "\u0120comparisons": 26831, "\u0120handful": 30531, "\u0120insides": 31402, "\u0120compared": 26825, "\u0120designing": 28053, "\u0120shareable": 37021, "\u0120gonna": 30301, "relaxed": 18287, "fast": 10156, "readed": 18060, "frequently": 10759, "\u0120buildable": 26057, "\u0120reproduction": 36131, "\u0120un": 39107, "provided": 17594, "\u0120remain": 35998, "counted": 7512, "\u0120callable": 26164, "\u0120concerned": 26966, "\u0120...),": 23886, "\u0120closes": 26614, "\u0120uncomment": 39150, "\u0120occure": 33859, "\u0120expert": 29306, "\u0120writer": 40158, "\u0120placed": 34700, "\u0120placeholders": 34702, "\u0120yaml": 40235, "\u012035": 24102, "\u0120nested": 33535, "\u0120leading": 32161, "cfg0": 6668, "3000": 2010, "forever": 10643, "\u0120bounded": 25923, "\u0120regard": 35891, "stargateur": 20129, "\u0120meets": 32851, "ownership": 16565, "neither": 15523, "took": 21219, "\u0120rpncalculator": 36483, "actions": 4165, "\u0120rpn": 36482, "calculator": 6360, "\u0120appropiate": 25047, "pn": 17136, "uct": 21678, "2518": 1838, "\u0120scalar": 36675, "\ufffd": 40994, "\u0120vtables": 39780, "\u0120leak": 32164, "\u0120im": 31007, "\u0120facing": 29427, "\u0120defeat": 27834, "\u0120circumvented": 26513, "vt": 22587, "bl": 5849, "lp": 14330, "vtbl": 22589, "\u0120mess": 32911, "dlist": 8609, "\u0120noted": 33694, "\u0120dlist": 28424, "574": 2721, "\u0120curly": 27558, "\u0120insist": 31408, "\u0120hyperium": 30901, "\u0120quoting": 35506, "higher": 11714, "ranked": 17961, "\u0120satisfied": 36646, "\u0120likewise": 32343, "\u0120often": 33910, "\u0120tutorials": 39010, "ty": 21573, "\u0120keystore": 31990, "\u0120pages": 34266, "\u0120keywords": 31998, "\u0120handshake": 30543, "pasted": 16757, "property": 17567, "sslserversocketfactory": 20071, "sslserversocket": 20070, "sslsocket": 20075, "inputstream": 12610, "inputstreamreader": 12611, "bufferedreader": 6131, "usr": 22164, "lib64": 13865, "jvm": 13343, "openjdk": 16237, "jre": 13294, "cacerts": 6329, "sslsocketfactory": 20076, "fatal": 10163, "alerts": 4453, "192": 1564, "154": 1429, "record": 18137, "1077": 1204, "perform": 16879, "702": 3030, "nio": 15642, "221": 1748, "291": 1937, "295": 1943, "141": 1383, "151": 1423, "\u0120robots": 36416, "\u0120incoming": 31154, "actor": 4183, "robots": 18658, "actors": 4186, "robot": 18657, "receive": 18109, "downcast": 8719, "anon": 4722, "\u0120careless": 26232, "\u0120chapters": 26410, "\u0120encapsulated": 28874, "\u0120opening": 33978, "\u0120journal": 31881, "\u0120infered": 31271, "journal": 13286, "etc": 9753, "\u0120mixing": 33100, "\u0120worlds": 40116, "generics": 11008, "\u0120deciding": 27749, "\u0120dots": 28502, "\u0120stating": 37695, "\u0120brings": 25983, "\u0120tuples": 38995, "\u0120possibilities": 34873, "\u0120hardcoded": 30564, "\u0120lots": 32541, "ints": 12786, "big": 5773, "\u0120rolled": 36428, "\u0120exponential": 29347, "\u0120bloat": 25799, "\u0120rarely": 35558, "\u0120billion": 25710, "\u0120blow": 25818, "\u0120anyhow": 24968, "\u0120finite": 29656, "boost": 5964, "xor": 23178, "rhs": 18564, "mis": 14920, "matched": 14614, "\u0120bitxor": 25763, "\u0120operand": 33997, "\u0120genericity": 30155, "\u0120sacrifice": 36585, "bitxor": 5843, "typing": 21602, "e0369": 8942, "\u0120dodgy": 28465, "\u0120redefine": 35786, ".:": 350, "\u0120uglier": 39089, "\u0120closer": 26613, "\u0120boiethios": 25851, "\u0120utilities": 39536, ")'": 191, "\u0120sql": 37564, "\u0120ce": 26314, "\u0120subdirectory": 37900, ")\\": 220, "ata": 5123, "\u0120administrator": 24603, "\u0120uac": 39072, "\u0120elevated": 28777, "\u0120acess": 24482, "\u0120privileges": 35121, "\u0120frustrated": 29989, "\u0120elevation": 28779, "\u0120installing": 31433, ")'.": 193, "\u0120strongly": 37831, "\u0120locations": 32463, "applicationdata": 4828, "992": 3543, "\u0120regardless": 35894, "\u0120logged": 32479, "appdata": 4806, "\u0120writes": 40160, "\u0120past": 34424, "\u0120infers": 31279, "moves": 15090, "indexed": 12458, "option1": 16291, "ranges": 17959, "\u0120existing": 29268, "\u0120taste": 38315, "\u0120initialise": 31334, "0u16": 818, "\u0120led": 32184, "\u0120indexing": 31217, "\u0120iter": 31764, "\u0120warns": 39831, "\u0120reasoning": 35657, "\u0120automated": 25393, "\u0120beacuse": 25574, "\u0120deconstructing": 27783, "\u0120placing": 34705, "updatable": 22022, "cesses": 6650, "mutates": 15250, "possibly": 17265, "updat": 22021, "ables": 4031, "\u0120indexer": 31215, "yes": 23262, "\".)": 47, "\u0120soundness": 37434, "\u0120destroy": 28070, "\u0120!": 23659, "\u0120switching": 38188, "\u0120buggy": 26053, "\u0120remains": 36002, "\u0120alive": 24768, "\u0120duration": 28642, "\u0120smart": 37314, "\u0120restriction": 36253, "\u0120systematically": 38248, "!),": 16, "ives": 13106, "\u0120plays": 34734, "\u0120inherited": 31320, "\u0120mutably": 33343, "\u0120dance": 27631, "fits": 10454, "\u0120terrible": 38425, "\u0120swap": 38167, "\u0120scrap": 36738, "\u0120pursue": 35373, "\u0120wholly": 39983, "\u0120textbook": 38450, "\u0120dyon": 28667, "lifetimes": 14036, "\u0120management": 32661, "\u0120differ": 28191, "\u0120limitation": 32349, "\u0120explanation": 29322, "\u0120acyclic": 24540, "\u0120child": 26460, "\u0120limitations": 32350, "\u0120workarounds": 40097, "\u0120exec": 29224, "\u0120append": 25013, "characters": 6720, "piped": 17031, "truncated": 21441, "\u0120eof": 29014, "\u0120hit": 30734, "\u0120continuously": 27179, "\u0120ends": 28926, "\u0120myasyncstream": 33370, "ertrait": 9698, "\u0120pin": 34658, ">.": 3697, "workaround": 22917, "\u0120mutex": 33352, "unpin": 21950, "pin": 17019, "cx": 7811, "\u0120blocking": 25812, "\u0120synchronization": 38215, "pinned": 17025, "\u0120welcome": 39933, "\u0120discouraged": 28304, "\u0120reasonably": 35655, "\u0120transparent": 38822, "\u0120transparently": 38823, "\u01202008": 24018, "\u0120webhost": 39896, "sorry": 19858, "uss": 22165, "\u0120reproduce": 36125, "\u0120iron": 31723, "\u0120middleware": 32968, "\u0120earlier": 28677, "\u0120unavailable": 39123, "\u0120roughly": 36458, "router": 18733, "e0382": 8945, "\u0120vendor": 39640, "\u0120jms": 31854, "\u0120proof": 35237, "\u0120websphere": 39912, "\u0120loads": 32442, "instantiate": 12652, "ks": 13546, "hu": 11899, "u2": 21617, "\u0120keypair": 31984, "\u0120bount": 25927, "\u0120issuer": 31753, "\u0120mutual": 33356, "aka": 4424, "someone": 19835, "loys": 14329, "openssl": 16244, "port": 17232, "showcerts": 19521, "mytruststore": 15364, "\u0120pseudo": 35316, "\u012049": 24139, "\u0120curand": 27552, "\u0120pr": 34908, "most": 15062, "\u0120seed": 36827, "\u0120subsequence": 37949, "\u0120offset": 33906, "\u0120demonstrate": 27923, "curand": 7755, "seed": 19209, "subsequence": 20441, "89": 3372, "49000": 2505, "5000": 2576, "tpb": 21268, "fprintf": 10703, "stderr": 20181, "abort": 4037, "nex": 15585, "tr": 21283, "scaled": 19058, "cud": 7734, "cpy": 7555, "1st": 1629, "returned": 18508, "datas": 7979, "et": 9750, "\u0120freeing": 29945, "\u0120af": 24657, "ter": 20859, "\u0120wont": 40084, "\u0120glibc": 30248, "\u0120malloc": 32654, "\u0120corruption": 27319, "\u0120calculated": 26152, "\u0120addr": 24569, "\u0120flags": 29702, "\u0120geforce": 30125, "310": 2040, "datasetrows": 7981, "glibc": 11174, "detected": 8362, "prog": 17520, "0x00000000": 833, "180": 1524, "minor": 14906, "dataset": 7980, "cols": 7111, "o3": 15902, "wall": 22638, "wextra": 22750, "m64": 14448, "xcompiler": 23104, "\u0120arithmetic": 25118, "\u0120ordinary": 34066, "\u0120hierarchical": 30700, "\u0120route": 36467, "\u0120warp": 39832, "\u0120scopes": 36726, "\u0120\u00e2\u0122\u0135": 40369, "\u0120piggy": 34654, "backing": 5463, "\u0120routes": 36470, "articles": 4993, "simply": 19605, "demonstration": 8240, "purposes": 17678, "extract": 10002, "reply": 18365, "rejection": 18274, "\u0120interpreting": 31580, "\u0120reuse": 36304, "\u0120pi": 34631, "uring": 22079, "\u0120postgresql": 34887, "\u0120terminal": 38409, "\u0120interact": 31507, "postgres": 17274, "111": 1237, "refused": 18234, "wm": 22880, "sudo": 20482, "psql": 17618, "\u0120listen": 32394, "\u0120socket": 37364, "\u0120manages": 32664, "\u0120supplied": 38095, "\u0120hostname": 30819, "\u0120supplying": 38099, "\u0120\"\".": 23670, "\u0120instructing": 31459, "\u0120ip": 31704, "\u0120reflects": 35868, "\u0120yours": 40267, "\u0120listens": 32399, "\u0120loopback": 32516, "\u0120adapter": 24547, "\u0120postgres": 34886, "directories": 8508, "libpq": 13954, "postgresql": 17275, "pg": 16957, "5432": 2657, "listen": 14124, "addresses": 4244, "hba": 11585, "conf": 7281, "\u01201023": 23933, "arrays": 4978, "\u0120giant": 30205, "\u0120looping": 32519, "arr2": 4966, "tes": 20883, "\u0120annoying": 24939, "\u0120hood": 30782, "\u0120smarter": 37315, "bluss": 5910, "\u0120contributed": 27199, "\u0120impressive": 31103, "\u0120quality": 35444, "\u0120improvements": 31110, "creation": 7596, "broken": 6070, "'?": 120, "\u0120vm": 39744, "textbox": 20925, "naive": 15398, "programmer": 17528, "accepted": 4084, "\u0120vie": 39690, "wn": 22884, "\u0120rend": 36039, "ern": 9664, "\u0120trees": 38861, "ree": 18190, "\u0120modeling": 33131, "\u0120resorting": 36212, "\u0120rc": 35583, "<>": 3648, "\u0120children": 26461, "\u0120force": 29824, "<>.": 3649, "\u0120inde": 31194, "xt": 23205, "\u0120(,": 23805, "..)": 330, "\u0120traversal": 38837, "\u0120downside": 28529, "\u0120dangling": 27637, "removing": 18321, "\u0120petgraph": 34592, "sibling": 19539, "stored": 20265, "strategy": 20287, "calc": 6351, "adder": 4225, "restricting": 18467, "\u0120guaranteed": 30456, "eec": 9217, "346": 2134, "633": 2882, "aware": 5331, "characteristics": 6719, "\u0120pool": 34822, "typed": 21586, "consume": 7366, "autoref": 5286, "compatible": 7185, "\u0120tackle": 38263, "autore": 5285, "\u0120describes": 28018, "\u0120applied": 25031, "\u0120previously": 35073, "\u0120anonymous": 24946, "\u0120int": 31472, "\u0120segfault": 36844, "scalar": 19056, "130474": 1344, "047": 671, "600": 2820, "=...": 3668, "/../": 381, "targets": 20764, "\u012061": 24169, "int2": 12671, "scanf": 19061, "\u0120interprets": 31581, "\u0120seg": 36843, "\u0120covered": 27360, "\u0120wonder": 40078, "\u0120stl": 37748, "\u0120permits": 34552, "\u0120mechanisms": 32841, "resident": 18424, "\u0120modification": 33144, "soft": 19807, "var3": 22312, "var4": 22313, "nocapture": 15674, "\u0120unreachable": 39350, "\u0120var": 39583, "\u0120matched": 32758, "\u0120four": 29900, "warn": 22653, "variables": 22318, "\u0120shallow": 37009, "\u0120differentiate": 28196, "\u0120strict": 37803, "\u0120[]": 24311, "shallow": 19445, "\u0120exceptions": 29200, "cloneable": 6952, "\u0120shibboleth": 37041, "\u0120idp": 30962, "\u0120azure": 25454, "\u0120portal": 34847, "roll": 18677, "\u0120aad": 24365, "\u0120speak": 37465, "azure": 5363, "brid": 6059, "federated": 10249, "domains": 8679, "\u0120protocols": 35279, "\u0120wich": 39990, "\u0120speaks": 37468, "federation": 10250, "ak": 4423, "\u0120passive": 34418, "\u0120w": 39791, "\u0120resolve": 36205, "\u0120resolving": 36209, "\u0120expands": 29281, "\u0120opens": 33983, "\u92e8": 40961, "\u99e8": 40965, "wide": 22800, "ron": 18691, "ize": 13128, "512": 2607, "lpwstr": 14341, "utf16": 22184, "lossy": 14316, "\u0120validated": 39564, "\u0120enlighten": 28950, "intermediate": 12726, "\u0120servers": 36955, "\u0120prove": 35286, "\u0120redundant": 35817, "\u0120vendors": 39642, "\u0120processes": 35151, "hypoth": 11939, "etical": 9772, "\u0120b": 25455, "6000": 2821, "\u0120partitioning": 34403, "\u0120physical": 34628, "\u0120mappings": 32707, "\u0120inaccessible": 31118, "\u0120virtue": 39717, "\u0120ns": 33733, "380": 2208, "\u0120successor": 38020, "\u0120unlikely": 39288, "\u0120unusable": 39422, "\u0120mmu": 33112, "\u0120hardwired": 30573, "\u0120sram": 37583, "\u0120masterapp": 32753, "\u0120slaveapp": 37269, "\u0120fe": 29528, "\u0120somebody": 37395, "\u0120slave": 37268, "\u0120providing": 35299, "\u0120goin": 30294, "slave": 19680, "param1": 16677, "param2": 16678, "unique": 21904, "salt": 18990, "\u0120encrypting": 28906, "\u0120paramaters": 34332, "\u0120encryption": 28907, "\u0120epoch": 29024, "\u0120decode": 27767, "\u0120sal": 36604, "\u0120ruby": 36508, "el": 9293, "\u0120ect": 28709, "aes": 4333, "cbc": 6507, "encrypt": 9426, "decrypt": 8147, "ub": 21653, "qwer": 17860, "iv": 13092, "puts": 17688, "encrypted": 9427, "uncomment": 21836, "decrypted": 8148, "epoch": 9597, "\u0120replay": 36088, "\u0120master": 32752, "\u0120->": 23876, "\u0120signing": 37153, "\u0120attacker": 25311, "\u0120clock": 26598, "\u0120establish": 29101, "\u0120forked": 29855, "\u0120nonce": 33642, "\u0120dereferences": 27993, "tra": 21287, "ver": 22412, "\u0120precedence": 34935, "\u0120whereby": 39956, "\u0120dereferenced": 27992, "implements": 12353, "\u0120endpoint": 28924, "\u0120throws": 38553, "oasis": 15906, "sx": 20614, "200512": 1657, "soap": 19785, "fault": 10166, "wsdl": 22989, "\u0120resources": 36214, "\u0120wsdl": 40170, "yn": 23293, "chronous": 6802, "completion": 7206, "completed": 7203, "obtain": 15945, "4096": 2330, "large": 13624, "means": 14710, "done": 8685, "whatever": 22762, "\u0120improve": 31107, "\u0120pick": 34633, "\u0120biggest": 25701, "\u0120proposal": 35254, "safely": 18978, "\u0120instantiation": 31448, "\u0120templates": 38378, "selected": 19240, "\u0120manner": 32691, "unary": 21813, "\u0120arbitrarily": 25075, "\u0120scattered": 36693, "\u0120compacted": 26810, "\u0120compaction": 26812, "automatically": 5283, "\u0120premium": 35004, "\u0120intact": 31473, "presumably": 17403, "\u0120nb": 33464, "beer": 5671, "nl": 15653, "lambda": 13597, "leave": 13756, "liners": 14079, "brace": 6028, "paren": 16688, "\u0120discord": 28300, "\u0120loops": 32520, "\u0120stays": 37708, "\u0120locked": 32467, "\u0120occurred": 33864, "\u0120reddit": 35781, "gateway": 10939, "updating": 22030, "receiving": 18114, "locking": 14238, "unlocked": 21930, "locked": 14237, "\u0120guard": 30460, "\u0120retained": 36273, "\u0120deadlock": 27706, "\u0120mutexes": 33354, "\u0120reentrant": 35821, "\u0120lies": 32309, "\u0120fetching": 29568, "\u0120actions": 24513, "\u0120respective": 36219, "deadlock": 8078, "\u0120porting": 34850, "\u0120php": 34620, "\u0120multidimensional": 33296, "\u0120excerpt": 29202, "\u0120codebase": 26669, "\u0120awful": 25438, "\u0120ph": 34600, "\u0120replicate": 36090, "\u0120efficiently": 28740, "tol": 21202, "ant": 4741, "\u0120indexes": 31216, "\u0120iss": 31748, "ets": 9785, "\u0120identifiers": 30939, "stmt": 20246, "fetch": 10282, "queries": 17816, "stuff": 20382, "isset": 12962, "echo": 9150, "\u0120associative": 25243, "\u0120maps": 32708, "\u0120dictionaries": 28177, "\u0120defines": 27853, "plus": 17128, "\u0120places": 34704, "\u0120densely": 27946, "\u0120packed": 34246, "\u0120m": 32592, "\u0120remember": 36010, "key1": 13426, "key2": 13427, "\u0120pallets": 34291, "\u0120furthermore": 30045, "frame": 10719, "decl": 8113, "428": 2379, "constraining": 7348, "\u0120pallet": 34288, "\u0120extracting": 29397, "\u0120equations": 29036, "\u0120coordinates": 27271, "\u0120corner": 27289, "\u0120trigonometry": 38892, "\u0120projected": 35206, "\u0120corners": 27290, "\u0120inverse": 31658, "\u0120coordinate": 27270, "\u0120homogeneous": 30775, "\u00b1": 23534, "\u0120leveldb": 32231, "\u0120deserializer": 28036, "\u0120ranges": 35550, "leveldb": 13838, "kv": 13562, "bytecode": 6210, "reading": 18068, "109": 1212, "panicked": 16662, "\u0120trentcl": 38867, "\u0120blade": 25775, "\u0120directives": 28242, "\u0120authorized": 25373, "programs": 17531, "endpermission": 9450, "\u0120oh": 33911, "....": 341, "tags": 20732, "imgs": 12317, "\u0120capabilities": 26202, "\u0120toy": 38729, "\u0120terminate": 38411, "five": 10456, "exact": 9846, "\u0120ampersand": 24867, "\u0120certainly": 26347, "\u0120calculates": 26154, "\u0120splits": 37539, "\u0120advise": 24644, "l1": 13572, "l2": 13573, "\u0120traverse": 38839, "\u0120pastes": 34427, "\u0120boilerplate": 25855, "\u0120hygiene": 30897, "\u0120preventing": 35068, "hygienic": 11932, "\u0120car": 26224, "\u0120rectangle": 35757, "defin": 8177, "itely": 13006, "\u0120aesthetics": 24656, "car": 6439, "canvas": 6417, "500": 2575, "rectangle": 18150, "certain": 6625, "rect": 18147, "boilerplate": 5939, "adds": 4248, "keeps": 13401, "erate": 9622, "commands": 7141, "\u0120outline": 34139, "\u0120burdensome": 26090, "\u0120worry": 40120, "ctx": 7721, "fps": 10704, "reserved": 18421, "keyword": 13461, "\u0120powerpc": 34904, "\u0120arch": 25081, "mlongcall": 14954, "\u0120\"-": 23695, "\u0120gcc": 30111, "ctarget": 7693, "\u0120llvm": 32429, "\u0120invoking": 31684, "\u0120interested": 31529, "\u0120llvms": 32432, "\u0120asan": 25165, "\u0120ouput": 34121, "\u0120commit": 26784, "\u012031": 24089, "clean": 6894, "sanitizer": 19018, "llvm": 14192, "\u0120generation": 30149, "\u0120subsequent": 37950, "\u0120bindgen": 25719, "\u0120whitelisted": 39973, "\u0120greatly": 30396, "linking": 14093, "1181": 1270, "\u0120directive": 28241, "\u0120//": 23902, "\u0120inappropriate": 31125, "\u0120bother": 25907, "built": 6160, "\u0120eg": 28744, "\u0120moral": 33209, "\u0120statements": 37688, "\u0120efficiency": 28738, "enums": 9570, "\u0120enums": 28999, "\u0120arguably": 25105, "\u0120concise": 26970, "nope": 15725, "\u0120comparatively": 26821, "course": 7523, "itto": 13081, "\u0120proto": 35275, "\u0120protobuf": 35276, "\u0120kent": 31963, "\u0120confirmed": 27021, "\u0120flatbuffers": 29713, "\u0120allocators": 24784, "\u0120grow": 30434, "\u0120edits": 28724, "\u0120extended": 29376, "\u0120period": 34534, "\u0120reloaded": 35985, "\u0120rear": 35647, "\u0120reclaim": 35703, "\u0120wasted": 39847, "\u0120rec": 35679, "ying": 23276, "\u0120widely": 39993, "gc": 10951, "moving": 15093, "\u0120considering": 27089, "\u0120extending": 29377, "\u0120classes": 26546, "\u0120timeline": 38596, "\u0120overloading": 34191, "\u0120involved": 31687, "\u0120ergonomic": 29057, "\u0120semantics": 36874, "\u0120expressing": 29365, "pdl": 16818, "dict": 8446, "\u0120imo": 31037, "\u0120ergonomics": 29059, "\u0120double": 28503, "\u0120intoiterator": 31612, "\u0120&'": 23734, "\u0120surely": 38120, "largest": 13626, "vecvec": 22388, "\u0120reconc": 35730, "\u0120ubiquitous": 39077, "\u0120la": 32063, "\u0120blanks": 25785, "\u0120indirection": 31234, "hide": 11705, "\u0120divergence": 28404, "\u0120obscure": 33819, "\u0120hangman": 30549, "\u0120guessed": 30467, "\u0120debugger": 27731, "\u0120j": 31791, "uts": 22204, "\u0120vscode": 39776, "\u0120lldb": 32427, "\u0120lend": 32204, "guessed": 11403, "ped": 16839, "word": 22906, "letters": 13829, "sed": 19207, "\u0120nonempty": 33647, "\u0120meant": 32823, "\u0120shadowed": 37003, "\u0120shadowing": 37004, "introdu": 12780, "ces": 6644, "hand": 11499, "\u0120touched": 38720, "tells": 20831, "going": 11231, "modified": 14998, "cing": 6827, "\u0120distinguish": 28380, "\u0120iiuc": 30989, "hopefully": 11809, "herr": 11680, "\u0120equivalently": 29041, "\u0120nope": 33667, "\u0120inferred": 31277, "\u0120capture": 26220, "\u0120annotate": 24928, "\u0120nutshell": 33779, "difference": 8465, "desugared": 8353, "job": 13266, "guesses": 11404, "misses": 14927, "progress": 17532, "increment": 12439, "miss": 14925, "lose": 14313, "broadcast": 6068, "leaving": 13759, "naming": 15421, "hang": 11523, "myk": 15309, "ski": 19666, "workspace": 22931, "78": 3136, "\u0120params": 34347, "\u0120cloneable": 26606, "\u0120retrieve": 36283, "\u0120oauth": 33797, "\u0120trustpilot": 38950, "accesstoken": 4099, "tp": 21267, "secret": 19176, "oauth": 15907, "business": 6183, "setopt": 19370, "curlopt": 7763, "httpheader": 11892, "urlencoded": 22090, "si": 19536, "postfields": 17271, "returntransfer": 18512, "email": 9351, "base64": 5549, "authorization": 5268, "\u0120unsigned": 39383, "\u0120uniformly": 39244, "\u0120slowing": 37304, "\u0120hot": 30822, "\u0120scheme": 36710, "mask": 14597, "choice": 6784, "\u0120randomness": 35545, "\u0120knowing": 32041, "\u0120modern": 33141, "\u0120architectures": 25086, "\u0120instruction": 31460, "\u0120bottleneck": 25912, "\u0120cryptographically": 27481, "\u0120insecure": 31392, "\u0120qualify": 35442, "()?": 161, "\u0120listening": 32398, "\u0120ports": 34853, "\u0120handles": 30538, "\u0120packets": 34248, "\u0120bundle": 26084, "\u0120intern": 31554, "odes": 16005, "erver": 9702, "acceptor": 4087, "internode": 12739, "9337": 3458, "sent": 19282, "e0283": 8933, "driver": 8763, "\u0120inter": 31506, "\u0120channels": 26407, "detached": 8356, "10101": 1163, "\u0120piece": 34648, "\u0120bumped": 26080, "\u0120\"!\"": 23667, "\u0120indicator": 31228, "\u0120unconditionally": 39157, "\u0120infinite": 31281, "\u0120appendix": 25017, "\u0120diverging": 28407, "diverging": 8576, "never": 15556, "\u0120stabilized": 37623, "\u0120coerced": 26690, "\u0120subtype": 37996, "\u0120stable": 37626, "loops": 14303, "condition": 7271, "coerced": 7064, "\u0120fnv": 29774, "\u0120dead": 27704, "799": 3165, "\u01202020": 24031, "fnv1a32": 10580, "sis": 19632, "136": 1360, "261": 1858, "prime": 17423, "777": 3128, "mul": 15192, "fnv": 10579, "0x7a": 1033, "handles": 11514, "hashes": 11559, "sk": 19661, "unk": 21920, "dead": 8074, "ieve": 12136, "\u0120ch": 26380, "aging": 4382, "nix": 15647, "pect": 16834, "\u0120pythons": 35411, "splits": 19970, "\u0120facility": 29426, "ian": 11978, "\u0120company": 26816, "yname": 23295, "div": 8572, "col": 7075, "javascript": 13181, "locale": 14221, "1234567890": 1300, "businessunit": 6184, "130px": 1346, "px": 17705, "\u0120official": 33902, "\u0120applying": 25034, "\u0120query": 35465, "\u0120filename": 29611, "\u0120assigned": 25222, "(),": 153, "\u0120st": 37613, "ices": 12021, "03": 615, "impro": 12373, "ving": 22494, "handling": 11515, "ular": 21749, "went": 22741, "conversion": 7425, "\u01202015": 24026, "\u0120beta": 25677, "\u0120testers": 38439, "\u0120heart": 30641, "burn": 6180, "\u0120zone": 40308, "\u0120forced": 29825, "\u0120regards": 35895, "reads": 18075, "writes": 22973, "ens": 9501, "person": 16921, "computer": 7239, "attach": 5200, "uses": 22153, "general": 10994, "superuser": 20532, "questions": 17824, "125": 1320, "clickonce": 6918, "\u0120asks": 25182, "\u0120permit": 34551, "\u0120machines": 32600, "fcc": 10192, "480": 2489, "152": 1426, "551": 2671, "click": 6914, "blogs": 5897, "rim": 18592, "akey": 4431, "2009": 1662, "controls": 7415, "visualstudio": 22525, "deployment": 8269, "configure": 7289, "pt": 17622, "behavior": 5689, "2015": 1670, "\u0120boils": 25857, "subscriptions": 20438, "subscription": 20437, "subs": 20432, "suffix": 20488, "statement": 20155, "\u0120inserted": 31396, "\u0120omit": 33933, "\u0120falls": 29470, "\u0120subscription": 37944, "\u0120persist": 34565, "\u0120satisfying": 36649, "\u0120satisfy": 36648, "\u0120retains": 36275, "\u0120failures": 29450, "\u0120enumerates": 28994, "\u0120unspecified": 39393, "\u0120enumerate": 28992, "detailed": 8358, "explanation": 9950, "prevents": 17411, "subsequent": 20442, "borrows": 5983, "modification": 14997, "\u0120crazy": 27406, "\u0120cpp": 27370, "\u0120breadth": 25956, "\u0120hell": 30655, "\u0120broke": 25993, "\u0120beginner": 25611, "\u0120sco": 36722, "\u0120treenode": 38860, "\u0120highly": 30709, "\u0120thankful": 38463, "scanner": 19064, "cnt": 7027, "later": 13645, "147": 1407, "\u0120dy": 28655, "li": 13857, "\u0120dylib": 28658, "libloading": 13929, "trying": 21474, "symbols": 20624, "architecture": 4881, "referenced": 18209, "\u0120dylibs": 28659, "\u0120linear": 32359, "\u0120upstream": 39478, "\u0120inf": 31263, "ront": 18693, "ciate": 6812, "parity": 16702, "uel": 21702, "ning": 15639, "\u0120'/": 23765, "developer": 8380, "nvidia": 15884, "\u0120crashed": 27396, "\u01202013": 24024, "\u0120gt": 30447, "\u01202048": 24033, "\u0120proces": 35148, "sex": 19399, "pl": 17071, "orer": 16336, "\u0120monitor": 33178, "\u012016": 23988, "\u0120notify": 33709, "]\".": 3802, "\u0120clicking": 26579, "\u0120robert": 36411, "\u0120continuous": 27178, "\u0120virtually": 39715, "\u0120raised": 35529, "\u0120catch": 26277, "\u0120her": 30670, "henry": 11666, "oo": 16199, "uf": 21707, "uh": 21724, "eng": 9471, "serially": 19325, "846": 3296, "gtx": 11388, "formal": 10654, "\u0120sizeof": 37236, "\u0120gb": 30106, "\u0120ram": 35534, "\u0120entity": 28981, "\u0120edmx": 28725, "pit": 17043, ".'": 318, "\u0120critical": 27433, "sqlexpress": 20005, "mdf": 14701, "integrated": 12693, "entities": 9539, "multiple": 15210, "entity": 9540, "\u0120patch": 34430, "\u0120eventual": 29145, "\u0120domain": 28479, "\u0120groups": 30433, "\u0120foreign": 29833, "\u0120identifier": 30938, "\u0120sid": 37112, "\u0120ds": 28596, "enumerated": 9567, "omain": 16121, "trusts": 21464, "\u0120updating": 39452, "\u0120converts": 27246, "\u012024": 24056, "\u0120digits": 28220, "\u0120criticism": 27435, "\u0120hopefully": 30795, "wikipedia": 22811, "machine": 14456, "ids": 12113, "sid": 19542, "unpack": 21946, "substr": 20451, "foreach": 10635, "floor": 10527, "lode": 14246, "\u0120ldap": 32155, "\u0120repl": 36080, "\u0120completion": 26873, "inspect": 12633, "members": 14740, "\u0120introspection": 31632, "\u0120racer": 35512, "\u0120facto": 29429, "sign": 19564, "vendored": 22405, "108": 1205, "sb": 19045, "pkey": 17061, "keypair": 13443, "repeat": 18348, "pf": 16947, "hw": 11924, "m0": 14433, "vk": 22529, "qc": 17749, "nd": 15469, "ky": 13567, "mw": 15271, "q1": 17740, "se3": 19147, "xo": 23177, "sg": 19409, "b75": 5422, "kar": 13374, "wr": 22952, "k4": 13355, "wx": 23035, "nj": 15649, "4u": 2566, "ft": 10799, "zp": 23463, "jk": 13245, "ax": 5345, "sw": 20583, "4y": 2571, "u0": 21608, "5y": 2816, "f2": 10035, "ds": 8783, "jg": 13227, "ux": 22219, "o0": 15899, "hq": 11844, "yt": 23323, "92": 3436, "kl": 13503, "cii": 6822, "ne": 15481, "i4": 11957, "hl": 11755, "0s": 813, "dz": 8891, "scp": 19109, "fv": 10871, "a6": 3933, "y3": 23233, "ke": 13394, "r2": 17878, "wi": 22796, "e7": 9063, "y0": 23230, "ba2": 5442, "3u": 2298, "ai": 4398, "vo": 22544, "aj": 4420, "g2": 10892, "\u0120abort": 24390, "++/": 262, "ini": 12546, "division": 8586, "divide": 8578, "oops": 16212, "divided": 8579, "embedded": 9360, "inter": 12707, "ability": 4028, "\u0120teaches": 38345, "\u0120sucess": 38023, "++:": 263, "\u0120members": 32862, "uint8": 21739, "vpn": 22572, "parameters": 16683, "mangle": 14523, "rive": 18609, "aster": 5109, "\u0120restart": 36238, "\u0120substrate": 37974, "ctrl": 7714, "\u0120reload": 35984, "\u0120systemd": 38249, "\u0120echo": 28697, "\u0120vecdeque": 39621, "error2": 9683, "\u0120opencv": 33972, "opencv": 16230, "uchar": 21668, "\u0120addition": 24563, "bring": 6065, "extra": 10001, "summary": 20512, "recursion": 18157, "reached": 18047, "expanding": 9924, "offi": 16026, "summ": 20507, "ry": 18947, "tweet": 21547, "uman": 21786, "\u0120uncomfortable": 39149, "\u0120embedding": 28815, "\u0120referring": 35853, "\u0120neccessary": 33484, "\u0120destructor": 28079, "\u0120brevity": 25968, "destruct": 8345, "destructor": 8348, "direct": 8500, "++,": 259, "\u0120interoperating": 31568, "\u0120versatile": 39661, "\u0120accompanied": 24453, "\u0120induces": 31244, "\u0120comfortable": 26766, "\u0120simplifying": 37193, "francis": 10729, "\u0120gagne": 30068, "\u0120ultimately": 39102, "\u0120unsafety": 39374, "typical": 21599, "\u0120interacting": 31508, "owning": 16566, "\u0120gains": 30072, "\u0120road": 36407, "cow": 7535, "nonoverlapping": 15716, "\u0120stops": 37761, "\u0120libssh": 32289, "\u0120dirty": 28249, "\u0120debian": 27726, "\u0120kb": 31948, "\u0120asci": 25170, "\u0120odd": 33881, "\u0120mb": 32804, "myhost": 15305, "authenticated": 5259, "dbe": 8019, "aver": 5304, "\u0120reader": 35609, "\u0120interrupted": 31586, "\u0120signal": 37135, "\u0120remotely": 36025, "\u0120trans": 38773, "\u0120beforehand": 25606, "\u0120yesterday": 40253, "\u0120linking": 32378, "\u0120automate": 25392, "\u0120linker": 32376, "\u0120workflow": 40103, "avr": 5319, "atmel": 5180, "emit": 9371, "gcc": 10952, "sections": 19183, "mmcu": 14962, "atmega328p": 5179, "elf": 9323, "objcopy": 15921, "oi": 16062, "ep": 9588, "rom": 18684, "linker": 14092, "cactus": 6342, "interrupt": 12752, "stage1": 20105, "rustlib": 18908, "ce8": 6571, "eb": 9115, "5a8": 2772, "pie": 17011, "nodefaultlibs": 15682, "supported": 20539, "collect2": 7085, "\u0120avr": 25425, "\u0120politely": 34799, "\u0120cutting": 27593, "\u0120edge": 28712, "\u0120contributors": 27204, "\u0120series": 36944, "\u0120scripts": 36758, "\u0120makefile": 32644, "\u0120xargo": 40192, "\u0120rum": 36520, "bles": 5873, "\u0120subcommand": 37896, "little": 14146, "n8": 15391, "executables": 9882, "nostartfiles": 15748, "\u0120recompiling": 35727, "\u0120maintainability": 32631, "\u0120summarized": 38064, "\u0120deploying": 27972, "\u0120precision": 34945, "().": 154, "\u0120manager": 32662, "\u0120tar": 38300, "\u0120zip": 40292, "\u0120decompressing": 27779, "although": 4566, "executable": 9881, "containing": 7381, "\u0120contract": 27183, "erc": 9632, "testnet": 20910, "\u0120erc": 29052, "ting": 21120, "\u0120burn": 26092, "ated": 5136, "\u0120attach": 25304, "\u0120gas": 30092, "gas": 10933, "\u0120tx": 39036, "\u0120decrease": 27796, "\u0120successful": 38015, "erc20": 9633, "rush": 18868, "allowance": 4519, "escrow": 9716, "facebook": 10098, "malkevych": 14508, "scheduling": 19080, "rece": 18108, "ipt": 12874, "r7": 17893, "vd": 22348, "fz": 10888, "183": 1537, "wk": 22877, "smart": 19730, "contract": 7403, "attached": 5202, "deposit": 8270, "33100000000000000000000": 2096, "462": 2458, "guest": 11406, "bohdan": 5935, "nvm": 15885, "versions": 22437, "v13": 22229, "transaction": 21321, "ticks": 21067, "jections": 13210, "queues": 17831, "schedule": 19077, "desired": 8333, "bn": 5915, "571": 2716, "556": 2684, "216": 1736, "262": 1861, "245": 1820, "271": 1894, "100000000": 1142, "000000": 398, "providers": 17596, "\u0120deposit": 27975, "0000000000000000": 408, "\u0120keeping": 31960, "\u0120pairs": 34279, "\u0120converted": 27241, "\u0120acheive": 24485, "1374": 1367, "tup": 21516, "249": 1827, "\u0120explore": 29340, "\u0120fromstr": 29977, "tk": 21138, "rr": 18766, "\u0120bold": 25858, "{": 23491, "\\\"": 3789, "tle": 21142, "\\\":": 3791, "\\\",": 3790, "}\\": 23511, "\u0120recommendations": 35719, "t12": 20692, "440": 2407, "24t13": 1833, "1406": 1380, "789": 3154, "2434": 1814, "493": 2513, "798": 3164, "173": 1495, "deserializer": 8326, "mate": 14619, "siblings": 19540, "meets": 14731, "susan": 20565, "entering": 9525, "0x7fff5": 1069, "470": 2470, "\u0120deliberately": 27893, "\u0120hurt": 30891, "\u0120wr": 40134, "angle": 4686, "\u0120ndarray": 33469, "\u0120dot": 28497, "\u0120products": 35168, "ndarray": 15472, "cosine": 7501, "e2": 9026, "dimension": 8489, "ix": 13114, "blas": 5866, "\u0120indexed": 31214, "linalg": 14059, ":///": 3606, "ong": 16176, "toolchains": 21224, "apple": 4820, "darwin": 7946, "\u0120threw": 38541, "caused": 6495, "\u0120$": 23727, "templated": 20843, "ir": 12886, "\u0120git": 30220, "libgit2": 13904, "filesystem": 10387, "130": 1343, "repo": 18366, "cwd": 7807, "\u0120cli": 26576, "\u0120hassle": 30599, "\u0120piped": 34670, "\u0120interactive": 31511, "\u0120nowhere": 33726, "\u0120attempted": 25319, "atty": 5233, "everything": 9831, "\u0120philosophy": 34614, "bes": 5729, "ide": 12070, "\u0120atty": 25334, "\u0120recognize": 35710, "\u0120attaching": 25307, "\u0120member": 32861, "cbd": 6508, "fa": 10080, "206": 1692, "\u0120unsizing": 39386, "\u0120unzip": 39440, "download": 8723, "zipfile": 23385, "anyway": 4758, "seek": 19216, "beginning": 5683, "transferred": 21326, "compiled": 7192, "properly": 17565, "tw": 21544, "bs": 6086, "\u0120corrupted": 27317, "\u0120actix": 24530, "\u0120viewer": 39694, "\u0120credentials": 27420, "actix": 4181, "greet": 11333, "srv": 20046, "simulate": 19609, "fresh": 10760, "finish": 10422, "outcome": 16498, "route": 18731, "8000": 3207, "110": 1232, "117": 1265, "118": 1269, "124": 1316, "129": 1331, "131": 1347, "arms": 4950, "incompatible": 12425, "wel": 22736, "lf": 13846, "opaque": 16223, "meaning": 14709, "\u0120xor": 40218, "\u0120xored": 40219, "\u0120differnt": 28201, "001": 490, "1223": 1287, "5667": 2704, "788": 3153, "aabb": 3976, "dde": 8061, "eff": 9249, "1020": 1174, "3040": 2027, "a0b0": 3875, "c0d0": 6234, "53": 2637, "\u0120glium": 30252, "\u0120redraw": 35806, "\u012060": 24166, "\u0120frame": 29923, "\u0120redrawn": 35807, "\u0120glutin": 30275, "red": 18168, "control": 7410, "flow": 10531, "resized": 18429, "physical": 16992, "resize": 18428, "requested": 18396, "\u0120perusing": 34582, "\u0120apis": 24988, "\u0120scrolling": 36760, "\u0120handler": 30536, "glium": 11177, "ulk": 21767, "ano": 4721, "winit": 22845, "grab": 11288, "untested": 21992, "redraw": 18179, "milliseconds": 14880, "inst": 12637, "\u0120subsonic": 37959, "\u0120dreaded": 28568, "cale": 6362, "\u0120increasingly": 31180, "\u0120ditch": 28396, "\u0120mike": 32985, "groups": 11360, "subsonic": 20446, "browse": 6079, "418": 2352, "975": 3511, "\u0120planned": 34713, "\u0120simpl": 37182, "ository": 16410, "\u0120focus": 29777, "\u0120door": 28492, "\u0120fixes": 29691, "\u0120outstanding": 34158, "\u0120schedule": 36704, "\u0120march": 32712, "\u01202010": 24021, "\u0120diesel": 28186, "\u0120floating": 29746, "\u0120label": 32065, "insertable": 12621, "data1": 7954, "data3": 7956, "diesel": 8456, "numeric": 15863, "\u0120mismatch": 33060, "\u0120schema": 36709, "generated": 10999, "\u0120extends": 29378, "\u0120nullable": 33756, "nullable": 15844, "\u0120rational": 35571, "lb": 13684, "delta": 8227, "cudat": 7740, "ut13": 22174, "operands": 16255, "\u0120rewrite": 36347, "\u0120stick": 37741, "\u0120slightly": 37290, "impl1": 12338, "impl2": 12339, "e0393": 8951, "\u00e2\u0122\u0136": 23590, "\u0120merely": 32899, "\u0120desugared": 28088, "\u0120polymorphism": 34816, "\u0120school": 36712, "\u0120came": 26177, "\u0120rusts": 36567, "successful": 20477, "\u0120john": 31869, "\u0120precisely": 34943, "\u0120unpack": 39330, "\u0120constituent": 27111, "\u0120compress": 26916, "\u0120subimage": 37912, "\u0120conveniently": 27223, "vg": 22456, "imageops": 12290, "crop": 7640, "\u0120ferris": 29563, "\u0120cropped": 27444, "\u0120striving": 37826, "\u0120serve": 36950, "('.": 140, "kam": 13370, "il": 12230, "\u2139": 40768, "\ufe0f": 40985, "installing": 12644, "\uff62": 40992, "wds": 22697, "\uff63": 40993, "served": 19334, "wd": 22695, "bundle": 6173, "\u2716": 40858, "309": 2036, "pm": 17129, "226": 1759, "ki": 13469, "ansi": 4734, "135": 1358, "231": 1769, "loglevel": 14264, "strip": 20332, "161": 1454, "overlay": 16541, "964": 3495, "reload": 18298, "402": 2314, "recursive": 18158, "hidden": 11704, "lodash": 14245, "472": 2474, "497": 2522, "\u0120readme": 35617, "\u0120tempting": 38388, "born": 5974, "achieve": 4130, "ness": 15539, "upon": 22044, "words": 22913, "zer": 23361, "\u0120funcion": 30022, "arraybase": 4975, "array2": 4973, "axis": 5351, "\u0120sidebar": 37114, "\u0120views": 39699, "\u0120initializing": 31347, "rdwr": 18039, "shm": 19492, "0o": 809, "\u0120gone": 30300, "cpus": 7553, "four": 10689, "six": 19645, "seven": 19393, "eight": 9279, "nine": 15638, "ten": 20850, "\u0120logically": 32485, "\u0120unordered": 39326, "\u0120liberty": 32262, "\u0120fiddling": 29586, "\u0120highlight": 30705, "\u0120similarities": 37176, "\u0120differences": 28193, "\u0120compet": 26839, "dk": 8597, "\u0120elaborate": 28757, "\u0120chunking": 26495, "\u0120playpen": 34733, "\u0120transformed": 38789, "\u0120stand": 37654, "eye": 10013, "\u0120glf": 30241, "ust": 22166, "rum": 18835, "\u0120face": 29418, "\u0120exploiting": 29336, "\u0120denominator": 27939, "\u0120eye": 29410, "\u0120perpendicular": 34561, "\u0120scaled": 36678, "\u0120spawn": 37460, "\u0120rejects": 35945, "invisible": 12806, "\u0120claiming": 26527, "\u0120cheat": 26433, "\u0120bump": 26079, "\u0120tenet": 38396, "\u0120workers": 40102, "\u0120deferring": 27844, "\u0120cells": 26323, "\u0120wrappers": 40143, "\u0120resort": 36210, "\u0120fight": 29596, "\u0120inherit": 31318, "ble": 5868, "\u0120destructuring": 28085, "\u0120mismatched": 33061, "\u0120destructure": 28082, "\u0120dozens": 28537, "ower": 16557, "\u0120emerson": 28826, "\u0120ipv": 31717, "\u0120len": 32203, "\u0120adapt": 24543, "search": 19153, "slices": 19701, "half": 11482, "mid": 14852, "greater": 11329, "\u0120reinterpret": 35931, "\u0120divisible": 28417, "\u0120lax": 32137, "\u0120ignores": 30981, "ipv4addr": 12878, "eof": 9579, "\u0120critique": 27437, "\u0120harsh": 30579, "664": 2938, "ccb": 6528, "ipv6addr": 12881, "always": 4571, "definition": 8183, "octets": 15983, "\u0120bitcoin": 25738, "\u0120curl": 27557, "easy": 9109, "jsonrpc": 13307, "params": 16684, "f8": 10067, "a12": 3879, "aef": 4326, "aac": 3978, "fa1": 10082, "b06": 5368, "f00": 10021, "051": 685, "168": 1477, "uru": 22120, "spot": 19984, "separate": 19290, "\u0120meaningful": 32818, "\u0120reset": 36184, "K": 3759, "\u0120openmp": 33981, "\u0120behaving": 25626, "cmath": 6996, "omp": 16147, "r1": 17867, "nr1": 15796, "correspond": 7490, "limits": 14057, "gpu": 11277, "gpus": 11281, "coordinates": 7451, "onto": 16194, "stride": 20318, "ceil": 6582, "distances": 8560, "subset": 20443, "pragma": 17322, "potential": 17279, "rough": 18722, "lim": 14050, "calculated": 6355, "calculation": 6358, "siz": 19649, "clipp": 6937, "ay": 5355, "sizes": 19657, "components": 7220, "pointers": 17162, "dim3": 8487, "ignore": 12201, "\u0120grid": 30414, "\u0120globally": 30257, "\u0120broken": 25994, "\u0120launching": 32131, "\u0120blockidx": 25811, "\u0120threadidx": 38530, "\u0120calculation": 26156, "\u0120populates": 34835, "ention": 9534, "\u0120levels": 32232, "\u0120enclosing": 28883, "\u0120frequently": 29960, "mitted": 14940, "tyname": 21576, "\u0120ubuntu": 39079, "\u012014": 23971, "libclang": 13876, "\u0120xlib": 40208, "\u0120libclang": 32255, "xlib": 23140, "x11": 23050, "preload": 17374, "clang": 6875, "\u0120boiled": 25853, "\u0120alas": 24735, "copied": 7457, "depends": 8266, "\u0120allocates": 24779, "\u0120\u00e2\u013a": 40402, "\u00ba": 23544, "assume": 5100, "\u0120sorted": 37424, "order": 16321, "uuid": 22210, "iznich": 13136, "\u0120serializ": 36933, "deserializing": 8327, "posts": 17276, "queryable": 17818, "\u0120derives": 28005, "\u0120coercions": 26695, "\u0120coerces": 26691, "\u0120nop": 33666, "\u0120joy": 31883, "implicit": 12354, "\u0120advantages": 24629, "\u0120accessing": 24441, "itten": 13078, "tiger": 21076, "\u0120solving": 37392, "\u0120glsl": 30267, "\u0120tessellation": 38432, "\u0120patches": 34432, "\u0120drastically": 28555, "\u0120increase": 31176, "\u0120margin": 32715, "irt": 12908, "\u0120nam": 33413, "\u0120triangle": 38871, "\u0120beh": 25618, "emy": 9395, "pclip": 16804, "qclip": 17750, "rclip": 18017, "\u0120cull": 27534, "vert": 22438, "clipoffset": 6936, "ments": 14774, "mvp": 15269, "outt": 16525, "sell": 19252, "s4": 18963, "\u0120curiosity": 27554, "\u0120triggered": 38888, "\u0120parsing": 34381, "0603": 702, "\u0120visibility": 39721, "undef": 21850, "compression": 7230, "algorithms": 4467, "rot": 18714, "late": 13643, "e0603": 8997, "\u0120oversight": 34203, "\u0120immaterial": 31026, "\u0120handlebars": 30534, "\u0120ultimate": 39101, "\u0120samples": 36617, "minimal": 14900, "handlebars": 11506, "rocket": 18662, "contrib": 7407, "wow": 22945, "ignite": 12199, "engines": 9477, "mlen": 14952, "sqlite": 20006, "e0631": 9008, "184": 1539, "162": 1459, "163": 1463, "164": 1466, "165": 1468, "176": 1501, "t3": 20703, "t4": 20709, "t5": 20711, "t7": 20714, "\u0120versioning": 39666, "serves": 19343, "ros": 18709, "mozilla": 15101, "\u0120incompatible": 31158, "\u0120careful": 26230, "\u0120usecase": 39503, "\u0120trigger": 38887, "\u0120reallocation": 35638, "\u0120exchange": 29207, "ud": 21681, "\u0120refrain": 35878, "\u0120trade": 38750, "\u0120refactor": 35828, "\u0120unresolved": 39362, "mnemonic": 14968, "\u0120namespacing": 33422, "\u0120detail": 28095, "marked": 14575, "consumes": 7370, "according": 4103, "wc": 22688, "\u0120bet": 25676, "\u0120refuse": 35883, "\u0120yanked": 40238, "\u0120todo": 38650, "heap": 11620, "available": 5297, "act": 4157, "cost": 7502, "expanded": 9922, "heuristic": 11683, "hucs": 11901, "closed": 6959, "trees": 21379, "flip": 10507, "mon": 15022, "ous": 16484, "satisfies": 19030, "termin": 20864, "visited": 22517, "already": 4551, "complexity": 7210, "hard": 11534, "restore": 18463, "leaf": 13740, "older": 16094, "parents": 16696, "backed": 5456, "\u0120backing": 25468, "zing": 23383, "similar": 19593, "changes": 6704, "gd": 10962, "ol": 16086, "packed": 16611, "looks": 14293, "releases": 18292, "returning": 18510, "reader1": 18063, "reader2": 18064, "n2": 15384, "n3": 15385, "n4": 15387, "multipeek": 15209, "peek": 16842, "\u0120duplicate": 28635, "\u0120preallocated": 34926, "\u0120confirm": 27019, "\u0120middle": 32966, "\u0120offer": 33895, "\u0120prepare": 35009, "gra": 11287, "hp": 11841, "ql": 17762, "\u0120sqlx": 37571, "graphql": 11318, "sqlx": 20011, "todos": 21186, "mutation": 15252, "yield": 23272, "shouldn": 19514, "\u0120chaining": 26385, "separator": 19293, "currency": 7767, "issu": 12964, "ed25519": 9172, "inputs": 12609, "unlock": 21929, "locks": 14239, "\u0120mcve": 32809, "\u0120gate": 30094, "\u0120generalize": 30139, "\u0120phrase": 34622, "\u0120concisely": 26971, "\u0120love": 32543, "\u0120respected": 36217, "\u0120engineering": 28939, "cats": 6492, "dogs": 8669, "dsl": 8791, "\u0120leaf": 32163, "\u0120directories": 28244, "\u0120subdirectories": 37899, "\u0120comprehension": 26913, "subdir": 20404, "dirs": 8515, "follow": 10594, "\u0120virt": 39711, "\u0120standalone": 37655, "\u0120configuring": 27015, "\u0120443": 24129, "\u0120vault": 39607, "\u0120dv": 28649, "\u0120jboss": 31824, "\u0120browse": 26000, "\u0120displayed": 28351, "\u0120advanced": 24624, "://:": 3607, "8443": 3294, "\u0120unsupported": 39405, "\u0120suite": 38055, "\u0120contact": 27145, "\u0120properties": 35248, "\u0120contrast": 27192, "\u0120refresh": 35879, "\u0120minutes": 33032, "\u0120sens": 36888, "\u0120dashboard": 27644, "\u0120md": 32810, "8100": 3240, "invalidated": 12798, "ecdhe": 9144, "gcm": 10958, "tl": 21139, "sv1": 20572, "engine": 9474, "rethrowing": 18492, "\u0120speaking": 37467, "\u0120presents": 35035, "\u0120issuers": 31755, "\u0120certify": 26361, "\u0120preceding": 34938, "pkcs": 17057, "]'": 3804, "cer": 6620, "\u0120exported": 29350, "p12": 16586, "storetype": 20268, "pkcs12": 17058, "confy": 7305, "gg": 11099, "jobs": 13269, "gv": 11422, "gx": 11426, "\u0120david": 27685, "\u0120chop": 26478, "\u0120firstly": 29677, "\u0120erroring": 29073, "\u0120sslsocket": 37604, "\u0120restrictive": 36255, "\u0120revoke": 36338, "\u0120eliminating": 28790, "\u0120pem": 34502, "\u0120revocation": 36337, "\u0120pki": 34693, "\u0120infrastructure": 31306, "\u0120ocsp": 33871, "\u0120status": 37701, "\u0120effort": 28741, "\u0120fingerprints": 29649, "\u0120revoked": 36339, "\u0120fingerprint": 29648, "\u0120crls": 27440, "\u0120distributed": 28390, "\u0120scales": 36679, "\u0120recognizes": 35712, "\u0120multiline": 33299, "discard": 8528, "yo": 23301, "multiline": 15206, "ndef": 15475, "\u0120discards": 28288, "\u0120concern": 26965, "\u0120ensuring": 28964, "delimited": 8218, "\u0120callback": 26165, "\u0120heavy": 30645, "\u0120traditional": 38755, "\u0120threading": 38531, "\u0120arc": 25077, ">,": 3695, "\u0120constructed": 27122, "\u0120deconstructed": 27782, "parser": 16715, "itions": 13060, "masklinn": 14601, "trivial": 21417, "\u0120condition": 26990, "depth": 8275, "\u0120exit": 29270, "\u0120computers": 26937, "\u0120debugging": 27733, "\u0120fullstrust": 30015, "!!": 1, "\u0120wmi": 40070, "?.": 3735, "\u0120toplevel": 38703, "handlede": 11508, "startup": 20145, "\u0120cit": 26515, "rix": 18611, "byname": 6206, "\u0120desirable": 28055, "\u0120vb": 39608, "activate": 4167, "\u0120speculate": 37501, "ran": 17940, "\u0120troubleshoot": 38911, "\u0120troubleshooting": 38912, "\u0120challenge": 26390, "\u0120reports": 36107, "\u0120hint": 30723, "mytree": 15363, "\u0120stub": 37856, "\u0120majority": 32640, "\u0120shim": 37047, "\u0120fallback": 29466, "\u0120monad": 33171, "\u0120monads": 33173, "\u0120stumbled": 37874, "\u0120boolean": 25872, "\u0120exhaustive": 29253, "wtf": 23018, "e0004": 8897, "exhaustive": 9905, "covered": 7533, "2aa4c46cf": 1958, "\u0120exhausting": 29251, "657": 2928, "045": 666, "ffc": 10300, "igle": 12192, "swagger": 20584, "#/": 73, "!):": 18, "\u0120detailed": 28096, "trilat": 21409, "tril": 21408, "wigle": 22808, "latrange1": 13654, "lat": 13640, "latrange2": 13655, "longrange1": 14284, "longrange2": 14285, "freenet": 10743, "paynet": 16783, "ssid": 20054, "159": 1439, "889": 3369, "5081": 2598, "7398": 3074, "finity": 10426, "nginx": 15605, "\u0120instan": 31435, "\u0120descriptive": 28022, "hm": 11757, "\u0120authorization": 25371, "\u0120401": 24116, "doing": 8670, "dereferences": 8287, "assignment": 5087, "notice": 15762, "\u0120variation": 39593, "e0015": 8899, "variants": 22325, "\u0120desugars": 28090, "\u0120intrinsic": 31621, "\u0120overridden": 34198, "\u0120stumbling": 37876, "\u0120puts": 35383, "\u0120odds": 33885, "checker": 6744, "\u0120immutably": 31036, "\u0120lexical": 32240, "\u0120arms": 25127, "those": 21012, "bar1": 5520, "bar2": 5521, "directly": 8506, "\u0120mysql": 33386, "dao": 7941, "\u0120rows": 36476, "\u0120affected": 24665, "\u0120reflect": 35860, "\u0120sadly": 36590, "\u0120workspaces": 40113, "\u0120rustpkg": 36566, "\u0120cmake": 26646, "\u0120preferred": 34985, "lite": 14137, "\u0120shamelessly": 37011, "\u0120announced": 24935, "librust": 13965, "\u0120deference": 27841, "\u0120realize": 35629, "\u0120pointlessly": 34779, "\u0120blanket": 25784, "\u0120contexts": 27164, "\u0120away": 25436, "\u0120&(": 23735, "(*": 165, ")[": 219, "]).": 3808, "fat": 10162, "\u0120resize": 36199, "highest": 11715, "\u0120ordered": 34060, "\u0120compelling": 26837, "oun": 16464, "sel": 19236, "\u0120ya": 40234, "\u0120comb": 26752, "\u0120renamed": 36034, "\u0120technically": 38355, "\u0120wild": 40008, "\u0120remarks": 36006, "\u0120transforming": 38791, "\u0120lowercase": 32549, "\u0120capitalized": 26211, "further": 10850, "verbose": 22416, "requirement": 18403, "\u0120rlib": 36395, "\u0120hal": 30514, "\u0120sequences": 36921, "\u0120inspecting": 31416, "\u0120metadata": 32927, "\u0120archive": 25087, "\u0120disassembly": 28281, "\u0120symbols": 38197, "\u0120mangled": 32674, "objdump": 15922, "filt": 10400, "\u0120trustbox": 38933, "\u0120componentdidmount": 26895, "loadfrom": 14213, "trustbox": 21449, "stars": 20130, "organization": 16342, "href": 11849, "uk": 21745, "mount": 15072, "onload": 16183, "\u0120hours": 30826, "\u0120widget": 39997, "\u0120brave": 25952, "\u0120navigator": 33463, "(&": 137, ");": 213, "\u0120\u0120\u0120\u0120\u0120\u0120\u0120\u0120\u0120\u0120\u0120\u0120\u0120\u0120\u0120\u0120\u0120\u0120\u0120\u0120\u0120\u0120\u0120\u0120\u0120\u0120\u0120\u0120\u0120\u0120\u0120\u0120": 40441, "\u0120\u0120\u0120\u0120\u0120\u0120\u0120\u0120\u0120\u0120\u0120\u0120\u0120\u0120\u0120\u0120\u0120": 40429, "\u0120^": 24317, "\u0120aborting": 24392, "287": 1928, "0800": 728, "\u0120upgrade": 39455, "\u0120newer": 33557, "ages": 4373, "persons": 16927, "nim": 15635, "ari": 4929, "sha": 19419, "mu": 15189, "je": 13207, "ah": 4393, "people": 16868, "seper": 19295, "\u0120yep": 40251, "\u0120super": 38074, "\u0120unrelated": 39359, "\u0120redundancy": 35816, "\u0120dining": 28232, "\u0120philosophers": 34612, "\u0120programmatically": 35188, "\u0120pushed": 35379, "\u0120onto": 33953, "\u0120philosopher": 34611, "philosopher": 16974, "han": 11498, "switch": 20610, "forks": 10652, "philosophers": 16975, "\u0120imho": 31023, "\u0120expressive": 29369, "her": 11669, "\u0120fork": 29854, "increase": 12436, "\u0120promoted": 35223, "appends": 4817, "thus": 21055, "holded": 11783, "holder": 11784, "1u8": 1634, "optionally": 16295, "\u0120acquire": 24500, "\u0120rewrote": 36351, "\u0120crystal": 27488, "fileiopermission": 10375, "\u0120mscorlib": 33262, "\u0120culture": 27542, "neutral": 15555, "\u0120publickeytoken": 35338, "561934": 2695, "089": 738, "\u0120breakpoints": 25963, "\u0120fileiopermission": 29608, "mappath": 14552, "~/": 23514, "pur": 17668, "ase": 5021, "ill": 12254, "rpt": 18764, "\u0120hosted": 30814, "\u0120environments": 29009, "blake": 5860, "2008": 1661, "stal": 20111, "reports": 18372, "aspnet": 5057, "iis": 12222, "\u0120impersonation": 31052, "connector": 7318, "443": 2412, "nonblocking": 15708, "unnamed": 21939, "137": 1366, "172": 1493, "217": 1737, "lv3": 14411, "x509": 23064, "temporarily": 20847, "unavailable": 21820, "\u0120embrace": 28817, "\u0120machinery": 32599, "\u0120nonblocking": 33641, "indeed": 12448, "\u0120rustls": 36564, "\u0120redirection": 35798, "rustls": 18912, "anchors": 4644, "webpki": 22712, "roots": 18702, "dns": 8640, "suite": 20499, "negot": 15511, "iated": 11984, "writeln": 22969, "plaintext": 17086, "poly": 17191, "1305": 1345, "301": 2016, "permanently": 16901, "charset": 6726, "sat": 19025, "sep": 19286, "2592000": 1854, "220": 1747, "xss": 23202, "protection": 17580, "050": 679, "046": 668, "043": 661, "equiv": 9613, ")(": 194, "\u0120stencil": 37731, "adjacent": 4276, "671": 2953, "keys1": 13449, "vals1": 22285, "keys2": 13450, "vals2": 22286, "len1": 13799, "\u0120protoc": 35277, "\u0120procedurally": 35141, "\u0120prot": 35267, "boiler": 5938, "plate": 17099, "protobuf": 17583, "pure": 17671, "war": 22646, "existential": 9910, "protos": 17587, "\u0120youtube": 40270, "apis": 4787, "youtube": 23309, "****": 237, "snippet": 19772, "vide": 22472, "oid": 16064, "ht": 11861, "oh": 16058, "\u0120nifi": 33590, "ttp": 21501, "\u0120processor": 35153, "sslcontext": 20060, "peerunverifiedexception": 16852, "\u0120cacerts": 26134, "jdk": 13202, "jira": 13238, "httpclient": 11887, "ifi": 12153, "\u0120home": 30767, "\u0120confuses": 27039, "present": 17387, "\u0120ceases": 26316, "\u0120/.": 23901, "\u0120accordingly": 24463, "\u0120overcome": 34166, "\u0120defaults": 27833, "29661": 1948, "\u0120supported": 38101, "\u0120incomplete": 31159, "\u0120mut": 33337, "declared": 8120, "\u0120\u00e2\u0122\u013b": 40372, "green": 11331, "\u0120robust": 36417, "\u0120colored": 26742, "blue": 5905, "colored": 7106, "829": 3271, "\u0120swagger": 38164, "\u0120vcpkg": 39616, "\u0120native": 33449, "wagger": 22620, "\u0120landed": 32088, "\u0120flaw": 29725, "\u0120picks": 34639, "\u0120macos": 32601, "\u0120ios": 31700, "\u0120defeats": 27836, "framework": 10725, "schannel": 19075, "\u0120legitimate": 32201, "\u0120inputs": 31385, "\u0120legit": 32200, "\u0120scoped": 36724, "\u0120encapsulates": 28875, "\u0120travis": 38843, "\u0120ci": 26497, "\u0120cython": 27612, "\u0120locates": 32460, "\u0120xcode": 40198, "\u0120puzzled": 35387, "\u0120differs": 28202, "travis": 21366, "urschrei": 22112, "convertbng": 7428, "136730": 1364, "348": 2138, "\u0120phase": 34604, "liblonlat": 13931, "bng": 5917, "traceback": 21289, "recent": 18115, "venv": 22411, "python2": 17732, "nose": 15745, "importer": 12364, "fq": 10706, "fh": 10331, "cutil": 7798, "dlopen": 8615, "lonlat": 14286, "collected": 7086, "develop": 8378, "setuptools": 19389, "tokenize": 21195, "getattr": 11046, "egg": 9267, "maker": 14499, "sources": 19878, "extension": 9990, "macosx": 14462, "fno": 10573, "aliasing": 4472, "dndebug": 8637, "fwrapv": 10880, "wstrict": 23008, "prototypes": 17589, "cellar": 6594, "frameworks": 10726, "lookup": 14294, "lconvertbng": 13707, "llonlat": 14186, "copying": 7462, "pth": 17625, "successfully": 20478, "pthread": 17626, "pic": 16998, "relro": 18303, "fortify": 10669, "fstack": 10796, "protector": 17581, "ssp": 20081, "wformat": 22754, "werror": 22746, "inplace": 12601, "otool": 16446, "lc": 13701, "jan": 13162, "1226": 1288, "tool": 21220, "rpath": 18755, "i386": 11956, "intel": 12698, "rdirs": 18028, "ldirs": 13729, "platform": 17100, "252": 1839, "190": 1559, "trick": 21398, "perfect": 16877, "libraries": 13959, "\u0120dist": 28370, "cpython": 7556, "thon": 21011, "alternative": 4562, "distutils": 8568, "osx": 16420, "finalize": 10409, "treatment": 21372, "353": 2150, "construct": 7353, "bugs": 6143, "\u0120rpath": 36478, "akes": 4430, "albeit": 4442, "\u0120refs": 35882, "\u0120elsewhere": 28803, "\u0120fore": 29830, "libname": 13941, "\u0120pieced": 34649, "\u0120texture": 38455, "\u0120render": 36040, "\u0120suspicion": 38151, "\u0120intuitively": 31638, "\u0120scoured": 36732, "scr": 19110, "reversed": 18522, "gn": 11213, "ify": 12178, "sampler": 19006, "nearest": 15486, "\u0120180": 23998, "\u0120benchmarked": 25655, "\u00c2\u00b5s": 23554, "\u0120reversed": 36319, "\u0120reversing": 36321, "\u0120170": 23994, "\u0120tolerable": 38676, "\u0120row": 36475, "\u0120framebuffer": 29924, "\u0120fullscreen": 30014, "\u0120tweaking": 39021, "\u0120lastly": 32110, "\u0120room": 36437, "\u0120avoidable": 25420, "logger": 14255, "mytool": 15362, "bf6b4": 5744, "01a6": 582, "725": 3054, "9b": 3570, "475": 2479, "scoped": 19101, "scheduler": 19079, "omitted": 16142, "arbiter": 4871, "\u0120mentions": 32890, "\u0120interfer": 31537, "tracer": 21290, "1ecc6299db9ec823": 1607, "715": 3042, "\u0120opinion": 34008, "\u0120appealing": 25006, "\u0120ambiguities": 24847, "snake": 19757, "\u0120presume": 35050, "\u0120identically": 30934, "\u0120fell": 29554, "\u0120favour": 29521, "\u0120nowadays": 33725, "\u0120consistency": 27092, "\u0120inconsistent": 31165, "\u0120camel": 26178, "\u0120reserved": 36181, "\u0120solely": 37380, "\u0120genuinely": 30167, "\u0120reflecting": 35862, "bling": 5876, "\u0120baked": 25499, "\u0120hyper": 30900, "\u0120utility": 39537, "\u0120benchmarks": 25657, "02s": 613, "177": 1504, "bench": 5708, "\u0120wildcard": 40009, "1i": 1619, "\u0120misunderstood": 33084, "\u0120forgot": 29852, "\u0120quotes": 35504, "\u0120finishes": 29654, "\u0120benefit": 25663, "\u0120grips": 30419, "\u0120figuring": 29602, "\u0120ton": 38684, "\u0120vladimir": 39742, "\u0120rosettacode": 36445, "\u0120choking": 26472, "\u4e00": 40901, "\u4e8c": 40906, "\u4e09": 40903, "\u56db": 40923, "\u4e94": 40907, "\u516d": 40914, "\u4e03": 40902, "\u516b": 40912, "\u4e5d": 40905, "\u5341": 40917, "\u0120multibyte": 33292, "\u0120caus": 26291, "\u0120combinators": 26756, "series": 19327, "wave": 22676, "linear": 14072, "handle2": 11504, "xe": 23112, "ube": 21654, "unwrapped": 22010, "mas": 14592, "transmit": 21343, "face": 10096, "errs": 9687, "fifo": 10356, "compressed": 7229, "multicast": 15203, "carrier": 6453, "s0": 18954, "119": 1272, "2728": 1896, "436": 2401, "332": 2097, "\u0120abbreviate": 24375, "vv": 22600, "\u0120dubious": 28612, "\u0120sven": 38158, "\u0120marnach": 32732, "rename": 18323, "\u012013": 23965, "195": 1570, "\u0120uint": 39096, "sieve": 19550, "primes": 17425, "600851475143": 2824, "ith": 13047, "sieved": 19551, "\u0120approximately": 25056, "\u0120280": 24077, "\u0120atm": 25291, "\u0120ncurses": 33466, "\u0120asian": 25176, "\u0120catches": 26281, "\u0107": 23655, "ncurses": 15467, "getch": 11049, "mvaddstr": 15264, "f5": 10053, "_*": 3847, "\u0120translates": 38805, "wch": 22692, "\u0120presses": 35045, "utf8error": 22186, "\u0120sensor": 36894, "\u0120specifications": 37487, "\u0120accompanying": 24455, "\u0120spec": 37469, "\u0120fetched": 29566, "sensor": 19279, "spec": 19908, "simul": 19608, "sensors": 19280, "specs": 19925, "elided": 9325, "myx": 15376, "\u0120docx": 28463, "\u0120peruse": 34581, "\u0120accomplished": 24457, "\u0120ole": 33924, "\u0120locate": 32458, "\u0120extraction": 29398, "\u0120256": 24070, "\u0120seek": 36833, "\u0120central": 26333, "\u0120eocd": 29013, "\u012005": 23914, "\u012006": 23916, "docx": 8660, "objpool": 15932, "ole": 16098, "ole10": 16099, "ra069466": 17898, "ha420": 11467, "maint": 14490, "\u0120awesome": 25437, "#\"": 64, "\u0120\"#": 23672, "\u0120cd": 26309, "\u0120excluded": 29214, "():": 157, "pk": 17056, "0x05": 881, "0x06": 882, "eo": 9578, "\u0120seeking": 36834, "\u0120searching": 36784, "\u0120recognise": 35708, "\u0120tracker": 38745, "\u0120tied": 38579, "\u0120hesitant": 30679, "\u0120benefits": 25665, "\u0120apologies": 24992, "mouse": 15076, "printer": 17439, "orientation": 16352, "fact": 10104, "much": 15191, "sense": 19276, "nomicon": 15702, "splitting": 19973, "\u0120entities": 28979, "\u0120radix": 35524, "\u0120traverses": 38841, "\u0120identified": 30937, "\u0120decides": 27748, "\u0120orders": 34063, "arrange": 4968, "\u0120delivered": 27905, "\u0120transposed": 38828, "\u0120rearrange": 35649, "\u0120columns": 26750, "\u0120driven": 28573, "\u0120omitted": 33935, "\u0120hinted": 30724, "mytype": 15366, "idx1": 12117, "idx2": 12118, "d2": 7851, "idxs": 12120, "consuming": 7371, "unbounded": 21824, "6142": 2849, "chat": 6729, "\u0120joins": 31874, "\u0120carrying": 26245, "\u0120detect": 28099, "overlapping": 16539, "\u0120producing": 35163, "\u0120disjoint": 28334, "\u0120waking": 39804, "crossbeam": 7644, "\u0120exa": 29171, "cly": 6992, "cross": 7643, "fire": 10430, "\u0120synchronously": 38221, "synchronous": 20639, "allows": 4523, "contexts": 7391, "testing": 20906, "\u0120rank": 35551, "king": 13493, "\u0120permutation": 34556, "rank": 17960, "iomanip": 12834, "nsorts": 15814, "setw": 19390, "placeholders": 17081, "vectors": 22386, "segments": 19231, "adjac": 4273, "diff": 8458, "\u0120rearranged": 35650, "\u0120rearranging": 35652, "1633": 1464, "dtype": 8815, "ncols": 15465, "k2": 13353, "nrows": 15806, "\u0120arrives": 25149, "\u0120hangs": 30550, "shutdown": 19533, "\u0120appending": 25016, "\u0120buf": 26040, "\u0120appended": 25014, "\u0120hang": 30547, "edwardw": 9208, "ted": 20826, "\u0120worst": 40123, "\u0120trimming": 38895, "0020": 501, "408": 2328, "3435": 2130, "368": 2185, "multiply": 15218, "808": 3227, "800": 3206, "800000000": 3210, "\u0120individually": 31239, "\u0120multiply": 33311, "\u0120strategic": 37781, "programming": 17530, "\u0120natural": 33451, "\u0120partic": 34389, "ula": 21748, "\u0120gotten": 30323, "\u0120early": 28679, "ures": 22071, "\u0120photoshop": 34619, "\u0120textures": 38456, "izes": 13132, "\u0120calculations": 26157, "\u0120met": 32924, "\u0120fractional": 29915, "\u0120rotate": 36449, "\u0120nearly": 33476, "\u0120integral": 31478, "dh": 8421, "\u0120'-": 23762, "214748": 1731, "800007": 3211, "pdh": 16817, "\u0120println": 35100, "taken": 20746, "mi": 14839, "wmi": 22882, "ctypes": 7724, "winnt": 22851, "processor": 17492, "hquery": 11845, "0x25": 940, "b49": 5401, "ce3": 6568, "tchar": 20794, "tmain": 21153, "getchar": 11050, "winerror": 22841, "zeroed": 23363, "\u0120geometric": 30171, "\u0120shapes": 37015, "\u0120shape": 37013, "\u0120refined": 35857, "\u0120subshapes": 37954, "\u0120refinement": 35858, "knows": 13521, "ined": 12489, "\u0120hypothetical": 30910, "\u0120refines": 35859, "\u0120clauses": 26556, "shape": 19447, "refined": 18220, "refine": 18219, "0038": 508, "\u0120intend": 31493, "\u0120buying": 26111, "\u0120clarify": 26539, "blog": 5896, "ph": 16961, "ili": 12241, "mann": 14533, "staticlib": 20164, "eh": 9272, "personality": 16925, "f80": 10068, "s128": 18956, "redzone": 18189, "mmx": 14966, "sse": 20049, "xargo": 23092, "tester": 20904, "\u0120rookie": 36436, "\u0120toggled": 38657, "\u0120del": 27875, "\u0120succeed": 38007, "\u0120refreshing": 35881, "toggle": 21189, "wb": 22682, "kg": 13465, "del": 8195, "initscr": 12576, "stdscr": 20191, "ln": 14201, "endwin": 9459, "\u0120deleting": 27890, "\u0120deletes": 27889, "thin": 20986, "pages": 16630, "\u0120sol": 37376, "oution": 16512, "\u0120memcached": 32864, "\u0120fixing": 29692, "hed": 11631, "listed": 14123, "\u0120dpkg": 28541, "\u0120talking": 38283, "\u0120av": 25406, "memcached": 14745, "\u0120shock": 37056, "ingly": 12534, "\u0120tha": 38460, "\u0120entering": 28971, "\u0120guys": 30488, "\u0120appreci": 25037, "ative": 5171, "ts": 21476, "copyright": 7463, "1997": 1584, "zend": 23360, "techno": 20823, "v7": 22246, "1999": 1585, "lsb": 14351, "distr": 8562, "utor": 22201, "debian": 8090, "\u0120msgpack": 33265, "mods": 15007, "fpm": 10702, "msgpack": 15154, "launchpad": 13663, "/+": 372, "\u0120swf": 38176, "\u0120webview": 39915, "\u0120panel": 34298, "edia": 9188, "flashplayer": 10487, "isted": 12976, "\u0120networking": 33546, "adobe": 4291, "\u0120flash": 29707, "\u0120pasting": 34428, "\u0120strangely": 37779, "\u0120exect": 29225, "\u0120morning": 33214, "\u0120h": 30496, "\u012038": 24108, "\u012046": 24133, "integers": 12687, "individual": 12477, "\u0120confident": 27002, "\u0120compares": 26827, "virtual": 22503, "mult": 15199, "\u0120tomcat": 38681, "\u0120webapp": 39886, "\u0120truststorefile": 38954, "\u0120registered": 35905, "pkix": 17067, "\u0120cas": 26251, "servlet": 19352, "\u0120connector": 27062, "\u0120servlet": 36963, "\u0120feed": 29544, "\u0120privatekeys": 35117, "\u0120overloads": 34192, "\u0120examine": 29181, "\u0120javadoc": 31815, "javase": 13182, "x509certificate": 23066, "x500principal": 23063, "regions": 18249, "0xe0000": 1120, "0xfffff": 1131, "initials": 12570, "])": 3806, "\u0120!=": 23665, "\u0120soa": 37358, "\u0120aos": 24977, "floats": 10523, "int4": 12677, "passes": 16745, "media": 14724, "e0616": 9004, "\u0120audi": 25338, "\u0120owners": 34226, "fives": 10457, "555": 2681, "consumed": 7367, "twos": 21560, "222": 1750, "\u0120unpinned": 39338, "\u0120enforced": 28932, "\u0120ub": 39075, "slot": 19710, "previously": 17414, "violated": 22497, "\u0120snap": 37340, "\u0120alacritty": 24734, "\u0120crt": 27460, "\u0120edited": 28716, "\u0120~/.": 40341, "\u0120helped": 30660, "craft": 7564, "scrt1": 19131, "waiting": 22625, "wish": 22868, "introspect": 12784, "lib32": 13864, "libx": 14001, "\u0120listing": 32400, "\u0120hoped": 30792, "\u0120generating": 30148, "array1": 4971, "alph": 4538, "88ac128001ac3a9a": 3371, "bi": 5758, "torrent": 21247, "denied": 8245, "\u0120anti": 24957, "virus": 22508, "\u0120software": 37374, "\u0120interfering": 31540, "\u0120disabling": 28254, "\u0120subprocess": 37935, "\u0120echoing": 28699, "11111": 1240, "2222": 1752, "3333": 2100, "oooooooo": 16209, "readline": 18070, "281": 1915, "\u0120footer": 29813, "\u0120terminates": 38413, "\u0120triggering": 38889, "eeded": 9219, "termination": 20870, "footer": 10620, "argo": 4916, "`,": 3860, "xenial": 23120, "ox": 16572, "824": 3265, "a0": 3867, "tom": 21205, "bst": 6095, "grow": 11361, "filled": 10393, "runs": 18856, "filenames": 10380, "\u0120runner": 36528, "\u0120absolutely": 24404, "\u0120whatsoever": 39949, "\u0120conditional": 26991, "686": 2977, "\u0120macbook": 32596, "\u0120journey": 31882, "\u0120toolchain": 38692, "#)": 68, "\u0120hop": 30790, "debugger": 8094, "intrinsics": 12778, "\u0120mitigated": 33092, "\u0120[\"": 24299, "\"]": 57, "\u0120nicer": 33580, "\u0120negatives": 33510, "\u0120edges": 28713, "\u0120rusty": 36571, "nums": 15867, "bsearch": 6088, "\u0120fighting": 29597, "\u0120deals": 27719, "\u0120forcing": 29829, "\u0120lengths": 32210, "\u0120exceed": 29189, "\u0120negative": 33508, "\u0120../": 23895, "plot": 17119, "ote": 16426, "streamp": 20305, "rocess": 18660, "den": 8244, "zt": 23475, "nice": 15615, "mote": 15066, "nar": 15432, "\u0120coincidentally": 26709, "starblue": 20126, "\u0120camelcase": 26179, "\u0120kids": 32006, "abcdef": 4011, "gh": 11107, "sha3": 19427, "keccak256": 13396, "vote": 22562, "alice": 4473, "178": 1508, "106": 1196, "218": 1738, "155": 1430, "120": 1279, "211": 1722, "205": 1688, "\u0120andrew": 24912, "\u0120morton": 33215, "868": 3330, "b29": 5385, "2a": 1956, "46a1": 2467, "344": 2131, "27a": 1909, "308": 2033, "629": 2873, "b5": 5405, "a64": 3934, "427": 2378, "structure": 20364, "pseudo": 17611, "\u0120reproducible": 36129, "subkeys": 20414, "myvalue": 15368, "value2": 22294, "datab": 7960, "rou": 18721, "ght": 11113, "subkey": 20413, "doesnt": 8666, "\u0120distinction": 28377, "\u0120ignoring": 30983, "inserted": 12622, "\u0120usual": 39529, "\u0120resides": 36192, "\u0120blows": 25821, "\u0120traces": 38741, "\u0120uncommenting": 39152, "\u0120factoring": 29435, "\u0120strip": 37819, "clippy": 6939, "\u0120atomic": 25294, "\u0120observe": 33827, "\u0120interleaved": 31545, "atomic": 5187, "\u0120colors": 26745, "modify": 15003, "purple": 17675, "orange": 16311, "\u0120\",": 23693, "\u0120unify": 39246, "\u0120heterogenous": 30684, "\u0120masking": 32741, "\u0120endianness": 28916, "stdint": 20184, "uint32": 21735, "i1": 11943, "dddd": 8060, "msb": 15144, "0x00": 827, "i2": 11949, "\u0120endian": 28913, "\u0120bitmask": 25747, "low": 14322, "\u0120jit": 31845, "\u0120portion": 34851, "\u0120partially": 34385, "\u0120li": 32249, "jit": 13240, "decla": 8114, "abstract": 4053, "prepare": 17380, "\u0120board": 25838, "\u0120zynq": 40315, "7000": 3028, "\u0120fsbl": 29998, "xa": 23084, "304": 2026, "\u00e2\u0122\u013f.": 23599, "boot": 5965, "\u0120baremetal": 25528, "\u0120tz": 39067, "p15": 16587, "r0": 17866, "0x1": 890, "mcr": 14692, "0xffffffff": 1132, "0x0000": 829, "ffff": 10307, "\u0120firmware": 29672, "\u0120modeled": 33130, "\u0120arg": 25100, "\u0120terminating": 38414, "\u0120spot": 37545, "ison": 12955, "terminate": 20867, "printing": 17442, "858": 3310, "1f6": 1610, "leading": 13738, "\u0120worried": 40117, "\u0120needlessly": 33498, "\u0120replacements": 36085, "\u0120rope": 36443, "\u0120unquoted": 39348, "june": 13334, "\u0120overkill": 34180, "\u0120delegates": 27884, "terminator": 20871, "ator": 5193, "\u0120relying": 35996, "\u0120escaped": 29084, "irty": 12910, "\u0120presentation": 35030, "anyhow": 4754, "loads": 14215, "various": 22327, "care": 6447, "anymore": 4756, "\u0120modifies": 33149,
[...]
