{"thrust": 17353, ":": 2885, "device": 6707, "_": 2895, "vector": 18488, "&": 5, "lt": 11614, "int": 10201, "gt": 9190, "dev": 6696, "fi": 8306, "ret": 15115, "ime": 9899, "[": 2891, "1000": 687, "]": 2893, "global": 9027, "void": 18639, "compute": 5690, "current": 6153, "d": 6211, "ftime": 8717, "idx": 9771, "=": 2887, "block": 4533, "dim": 6798, ".": 11, "x": 19063, "*": 7, "+": 8, "thread": 17332, "printf": 14176, "\"": 1, "%": 4, "\\": 2892, "n": 12524, ",": 9, "raw": 14669, "pointer": 13939, "cast": 5060, "data": 6324, "mod": 12156, "animals": 3575, "race": 14599, "fn": 8508, "main": 11722, "let": 11132, "s": 15511, "animal": 3574, "12": 819, "0": 13, "1": 684, "8": 2559, "24": 1297, "white": 18844, "println": 14178, "!": 0, "hello": 9423, "world": 18969, "pub": 14362, "struct": 16742, "height": 9414, "f64": 8069, "weight": 18799, "age": 3318, "u32": 17872, "t": 17032, "enum": 7691, "r": 14560, "ace": 3125, "wh": 18825, "it": 10446, "black": 4507, "yellow": 19259, "-": 10, "src": 16463, "rs": 15358, "5": 1996, "|": 19463, "^": 2894, "help": 9429, "name": 12546, "the": 17274, "file": 8333, "either": 7498, "or": 13249, "inside": 10166, "directory": 6820, "error": 7772, "aborting": 3058, "due": 7090, "to": 17473, "previous": 14150, "javax": 10588, "jms": 10646, "j": 10559, "ms": 12298, "exception": 7896, "could": 5932, "not": 12840, "create": 6010, "initial": 10107, "context": 5828, "jn": 10647, "di": 6743, "setup": 15886, "failed": 8128, "on": 13124, "sp": 16323, "/": 12, "server": 15845, "domain": 6968, "internal": 10259, "9001": 2726, "at": 3893, "hermes": 9443, "factory": 8118, "java": 10582, "282": 1391, "ext": 7997, "admin": 3259, "support": 16913, "discover": 6843, "destination": 6667, "configs": 5732, "441": 1848, "impl": 9925, "adapter": 3191, "82": 2599, "default": 6509, "112": 795, "6": 2221, "browser": 4699, "tasks": 17116, "dis": 6828, "cover": 5957, "dest": 6665, "in": 9967, "ations": 3924, "task": 17114, "invoke": 10323, "77": 2477, "run": 15413, "175": 1017, "pool": 13978, "170": 1009, "lang": 10951, "745": 2445, "c": 4826, "program": 14254, "files": 8348, "x86": 19106, "jdk1": 10604, "7": 2398, "75": 2453, "bin": 4451, "w": 18689, "xx": 19218, "new": 12670, "size": 16120, "256": 1329, "m": 11674, "mx": 12421, "1024": 725, "dhermes": 6740, "home": 9541, "opts": 13246, "log4j": 11514, "configuration": 5734, "props": 14292, "sun": 16897, "2d": 1438, "no": 12769, "dd": 6405, "true": 17711, "config": 5731, "xml": 19154, "libs": 11273, "djavax": 6898, "net": 12659, "ssl": 16490, "trust": 17721, "store": 16662, "alex": 3378, "truststore": 17733, "jks": 10640, "password": 13579, "manage": 11748, "h": 9236, "vec": 18470, "float": 8459, "pd": 13634, "kernel": 10782, "grid": 9160, "cuda": 6128, "malloc": 11745, "memcpy": 11956, "std": 16587, "$": 3, "module": 12187, "load": 11476, "10": 685, "cat": 5065, "really": 14756, "cu": 6118, "#": 2, "include": 9989, "cstdio": 6081, "if": 9791, "f": 8029, "1f": 1119, "2": 1152, "2f": 1447, "3": 1477, "3f": 1730, "4": 1750, "4f": 1970, "5f": 2191, "6f": 2383, "7f": 2535, "8f": 2711, "9": 2722, "9f": 2868, "01f": 181, "32": 1524, "synchronize": 16995, "reset": 15058, "return": 15136, "nvcc": 12949, "11": 777, "arch": 3709, "sm": 16185, "52": 2039, "o": 12965, "100000": 689, "200000": 1157, "300000": 1482, "400000": 1755, "500000": 2001, "00000": 17, "01": 154, "0000": 16, "\u251c\u2500\u2500": 19852, "bots": 4620, "\u2502": 19839, "trait": 17597, "\u2514\u2500\u2500": 19847, "game": 8815, "core": 5900, "board": 4560, "use": 18273, "state": 16562, "bot": 4617, "dummy": 7095, "make": 11734, "turn": 17788, "get": 8922, "move": 12254, "amp": 3506, "self": 15762, "field": 8317, "empty": 7577, "rand": 14626, "'": 6, "a": 2897, "box": 4634, "mut": 12391, "uint": 17958, "side": 16023, "for": 8566, "random": 14630, "28": 1387, "resolve": 15069, "of": 13050, "undeclared": 18051, "`": 2896, "~": 19464, "unresolved": 18149, "your": 19297, "and": 3541, "implementation": 9931, "signatures": 16045, "differ": 6778, "so": 16242, "i": 9654, "picked": 13793, "this": 17313, "one": 13135, "apikey": 3641, "api": 3637, "key": 10790, "v": 18354, "str1": 16672, "str2": 16673, "str3": 16674, "str": 16671, "res": 15048, "map": 11775, "place": 13860, "binary": 4453, "operation": 13213, "cannot": 5004, "be": 4333, "applied": 3677, "type": 17831, "string": 16710, "into": 10291, "iter": 10468, "collect": 5557, "sdl2": 15682, "cargo": 5041, "toml": 17503, "keyboard": 10796, "dependencies": 6596, "31": 1504, "extern": 8009, "crate": 5993, "keycode": 10797, "build": 4757, "e0433": 7224, "did": 6763, "you": 19294, "mean": 11918, "?": 2889, "lib": 11170, "scan": 15609, "code": 5520, "example": 7884, "below": 4385, "is": 10392, "pressed": 14142, "e": 7156, "event": 7857, "pump": 14377, "bool": 4589, "scancode": 15610, "rustup": 15488, "curl": 6147, "proto": 14304, "https": 9622, "tlsv1": 17449, "sf": 15899, "sh": 15913, "60": 2222, "certificate": 5197, "problem": 14207, "signed": 16047, "chain": 5241, "more": 12226, "details": 6686, "here": 9439, "ha": 9267, "se": 15687, "docs": 6946, "certs": 5201, "html": 9601, "verify": 18535, "le": 11063, "git": 8992, "ima": 9880, "cy": 6197, "therefore": 17289, "establish": 7808, "secure": 15723, "connection": 5758, "learn": 11080, "about": 3059, "situation": 16111, "how": 9579, "fix": 8414, "please": 13897, "visit": 18609, "web": 18778, "page": 13471, "mentioned": 11973, "above": 3060, "k": 10729, "insecure": 10156, "export": 7981, "rust": 15439, "hyper": 9649, "init": 10103, "ring": 15209, "characteristic": 5266, "unit": 18104, "some": 16277, "method": 12012, "15": 946, "20": 1153, "explicit": 7972, "lifetime": 11332, "bound": 4627, "required": 15039, "foo": 8544, "bar": 4225, "value": 18411, "every": 7865, "false": 8145, "as": 3804, "well": 18807, "my": 12423, "first": 8400, "implement": 9930, "2i": 1455, "we": 18774, "override": 13403, "then": 17284, "can": 4988, "nothing": 12845, "keep": 10772, "sys": 17011, "id": 9732, "player": 13887, "button": 4794, "84": 2623, "closure": 5462, "wrap": 18985, "85": 2631, "input": 10143, "86": 2642, "87": 2661, "alert": 3375, "p": 13426, "favor": 8166, "infor": 10079, "me": 11917, "ome": 13113, "93": 2765, "94": 2774, "dyn": 7146, "expected": 7955, "an": 3515, "found": 8617, "@": 2890, "44": 1845, "14": 907, "features": 8230, "gen": 8869, "element": 7523, "storage": 16660, "ot": 13324, "orage": 13252, "document": 6949, "by": 4808, "expect": 7953, "should": 15994, "have": 9358, "num": 12918, "clicks": 5424, "else": 7546, "insert": 10158, "ref": 14855, "set": 15861, "onclick": 13132, "unchecked": 18039, "see": 15728, "comments": 5611, "clock": 5442, "why": 18855, "forget": 8583, "cdylib": 5139, "rlib": 15229, "ask": 3828, "ama": 3480, "wasm": 18740, "bindgen": 4460, "js": 10686, "37": 1643, "console": 5777, "panic": 13501, "hook": 9550, "version": 18542, "css": 6078, "style": 16777, "declaration": 6466, "dom": 6967, "token": 17489, "list": 11403, "target": 17110, "body": 4566, "location": 11494, "node": 12774, "window": 18888, "provides": 14318, "better": 4408, "debugging": 6446, "panics": 13504, "logging": 11520, "them": 17281, "with": 18918, "great": 9148, "development": 6704, "but": 4792, "requires": 15042, "all": 3406, "fmt": 8504, "panicking": 13503, "inf": 10059, "rastructure": 14656, "isn": 10414, "when": 18833, "deploy": 6602, "ing": 10085, "optional": 13240, "wee": 18795, "alloc": 3420, "tiny": 17426, "allocator": 3428, "that": 17272, "only": 13152, "compared": 5636, "slower": 16180, "than": 17269, "however": 9580, "unfortunately": 18072, "nightly": 12733, "now": 12861, "test": 17216, "profile": 14246, "release": 14936, "tell": 17166, "rustc": 15450, "optimize": 13231, "small": 16188, "opt": 13221, "level": 11146, "static": 16573, "once": 13127, "matrix": 11856, "option": 13236, "dimensions": 6802, "usize": 18300, "clone": 5449, "fill": 8354, "total": 17540, "len": 11115, "none": 12804, "index": 10021, "23": 1265, "ops": 13220, "indices": 10037, "output": 13381, "match": 11834, "su": 16781, "re": 14717, "what": 18826, "do": 6937, "mat": 11828, "null": 12914, "const": 5780, "sized": 16124, "maybe": 11890, "uninit": 18090, "auto": 4008, "print": 14167, "qi": 14468, "unused": 18176, "q": 14447, "debug": 6443, "align": 3394, "contin": 5833, "ued": 17937, "statements": 16569, "followed": 8537, "newline": 12679, "next": 12698, "line": 11359, "indent": 10019, "tab": 17071, "assign": 3862, "span": 16333, "aligning": 3398, "assignments": 3869, "don": 6971, "number": 12926, "threshold": 17342, "limit": 11348, "thresh": 17341, "buf": 4734, "strbuf": 16684, "16": 972, "import": 9947, "there": 17288, "errors": 7777, "func": 8739, "force": 8570, "deallocated": 6436, "does": 6956, "something": 16287, "were": 18811, "still": 16628, "alive": 3404, "would": 18974, "fail": 8127, "other": 13333, "mem": 11944, "drop": 7046, "tempfile": 17176, "tempdir": 17174, "temp": 17170, "dir": 6806, "things": 17306, "temporary": 17182, "without": 18921, "merge": 11983, "a1": 2909, "a2": 2922, "implemented": 9934, "boxed": 4639, "u8": 17882, "a3": 2931, "a4": 2939, "a7": 2972, "copy": 5891, "b": 4085, "extend": 7998, "b1": 4093, "b2": 4101, "b3": 4110, "b4": 4117, "b7": 4140, "mmap": 12137, "crc": 6002, "crc32": 6004, "hasher": 9340, "cmp": 5497, "min": 12072, "env": 7701, "args": 3735, "fs": 8707, "metadata": 12004, "os": 13308, "unix": 18114, "io": 10331, "fd": 8195, "slice": 16164, "from": 8697, "parts": 13566, "time": 17392, "instant": 10185, "result": 15103, "filename": 8342, "nth": 12904, "unwrap": 18182, "t0": 17033, "open": 13187, "sz": 17028, "offset": 13060, "c32": 4868, "digest": 6788, "ieee": 9779, "while": 18839, "rem": 14953, "memory": 11963, "readable": 14729, "err": 7762, "kind": 10841, "write": 18997, "unsafe": 18152, "08": 283, "sum": 16883, "elapsed": 7513, "secs": 15715, "ok": 13082, "libc": 11182, "package": 13452, "authors": 4005, "gee": 8865, "edition": 7435, "2018": 1184, "keys": 10811, "their": 17279, "definitions": 6528, "doc": 6941, "org": 13271, "reference": 14865, "manifest": 11761, "syscall": 17012, "demo": 6576, "a77": 2979, "2d8": 1442, "c4": 4873, "978": 2812, "finished": 8383, "optimized": 13232, "debuginfo": 6447, "13": 877, "running": 15428, "users": 18292, "lolo": 11534, "33": 1553, "hash": 9333, "nil": 12736, "couldn": 5933, "defer": 6518, "close": 5456, "stat": 16561, "ck": 5375, "var": 18428, "off": 13053, "int64": 10212, "prot": 14296, "read": 14727, "shared": 15948, "somehow": 16282, "unmap": 18125, "sub": 16782, "seconds": 15709, "non": 12799, "standard": 16539, "flags": 8433, "trim": 17691, "parse": 13543, "inp": 10141, "u64": 17879, "find": 8374, "winner": 18901, "win": 18876, "power": 14055, "two": 17813, "ri": 15190, "chard": 5269, "l": 10915, "ou": 13345, "ise": 10404, "stdin": 16594, "count": 5935, "ones": 13138, "trailing": 17593, "zeros": 19351, "reader": 14735, "where": 18835, "decode": 6477, "en": 7583, "cipher": 5356, "bash": 4258, "encode": 7603, "plain": 13871, "coded": 5525, "retain": 15120, "ascii": 3808, "alphanumeric": 3454, "lowercase": 11578, "spacing": 16329, "utf8": 18320, "bytes": 4817, "alphabetic": 3451, "122": 825, "97": 2803, "spacer": 16327, "dec": 6448, "ipher": 10359, "out": 13357, "chars": 5273, "char": 5262, "counter": 5940, "spaces": 16328, "push": 14393, "derive": 6625, "serialize": 15830, "deserialize": 6655, "baz": 4284, "mutate": 12397, "through": 17346, "own": 13411, "mref": 12293, "end": 7615, "scope": 15646, "futures": 8775, "future": 8769, "stop": 16653, "tokio": 17495, "sync": 16991, "oneshot": 13139, "channel": 5257, "handler": 9302, "spawn": 16339, "join": 10663, "e0271": 7190, "mismatch": 12108, "resolving": 15073, "receiver": 14777, "recv": 14824, "note": 12843, "runtime": 15432, "threadpool": 17338, "background": 4179, "color": 5573, "gl": 9009, "clear": 5411, "0f": 333, "foreground": 8579, "pen": 13670, "02": 183, "enable": 7585, "blen": 4523, "ding": 6805, "blend": 4524, "alpha": 3448, "minus": 12094, "point": 13930, "smoothing": 16207, "mo": 12150, "oth": 13331, "up": 18190, "viewport": 18585, "400": 1752, "projection": 14266, "camera": 4986, "mode": 12164, "identity": 9754, "glu": 9039, "ortho": 13303, "perspective": 13733, "45": 1867, "100": 686, "sets": 15874, "frustum": 8706, "model": 12165, "view": 18581, "objects": 12992, "modelview": 12167, "buffer": 4738, "bit": 4479, "draw": 7033, "points": 13942, "begin": 4364, "go": 9058, "equ": 7730, "many": 11771, "times": 17410, "drawing": 7036, "each": 7353, "iteration": 10479, "iterations": 10480, "using": 18297, "strange": 16680, "attra": 3961, "ctor": 6101, "z": 19327, "sin": 16088, "cos": 5927, "y": 19231, "save": 15587, "vertex3f": 18548, "swap": 16951, "buffers": 4745, "glut": 9041, "g": 8794, "ldouble": 11061, "left": 11102, "right": 15201, "bottom": 4622, "top": 17523, "arc": 3707, "asm": 3833, "serde": 15821, "json": 10688, "macro": 11704, "text": 17250, "returns": 15141, "abc": 3026, "e0597": 7256, "borrowed": 4608, "live": 11429, "long": 11538, "enough": 7657, "22": 1245, "lives": 11431, "until": 18171, "must": 12389, "valid": 18396, "anonymous": 3601, "defined": 6523, "19": 1074, "21": 1222, "feature": 8228, "associated": 3875, "types": 17845, "point2d": 13933, "deriving": 6631, "show": 15998, "point2": 13932, "inline": 10133, "0i32": 342, "1i32": 1132, "immutable": 9917, "dereference": 6616, "template": 17177, "p1": 13431, "p2": 13437, "0u8": 371, "10u8": 775, "double": 6992, "quaternion": 14515, "np": 12866, "sl": 16140, "prelude": 14124, "regex": 14897, "reg": 14892, "quot": 14542, "space": 16326, "specify": 16363, "argument": 3741, "contents": 5825, "success": 16859, "bindings": 4462, "sdl": 15681, "video": 18574, "subsystem": 16841, "attr": 3958, "900": 2724, "700": 2400, "opengl": 13193, "resizable": 15062, "proc": 14213, "address": 3227, "loop": 11556, "42": 1807, "triggered": 17687, "128": 863, "poll": 13958, "quit": 14540, "break": 4669, "generator": 8888, "registry": 14912, "fallback": 8141, "path": 13587, "nv": 12945, "command": 5604, "concat": 5699, "anywhere": 3625, "lot": 11573, "constants": 5783, "array": 3773, "instance": 10180, "bind": 4456, "like": 11344, "luint": 11637, "lenum": 11127, "lazy": 11014, "sock": 16249, "connections": 5759, "msg": 12308, "message": 11996, "primitive": 14163, "request": 15034, "ips": 10366, "decoded": 6479, "noun": 12856, "ce": 5140, "bincode": 4455, "public": 14366, "unreachable": 18144, "xmlns": 19159, "android": 3551, "http": 9609, "schemas": 15631, "com": 5588, "apk": 3646, "tools": 17519, "eu": 7832, "clubforceone": 5476, "mobile": 12152, "application": 3673, "allow": 3430, "backup": 4188, "icon": 9725, "mipmap": 12100, "ic": 9702, "launcher": 10998, "label": 10924, "app": 3653, "supports": 16916, "rtl": 15388, "theme": 17282, "activity": 3168, "meta": 12002, "asset": 3859, "resource": 15075, "customtabs": 6178, "trusted": 17725, "validation": 18400, "url": 18243, "login": 11523, "clubforce": 5475, "launch": 10996, "status": 16583, "primary": 14159, "splash": 16400, "image": 9882, "able": 3051, "drawable": 7034, "screen": 15663, "fade": 8121, "duration": 7116, "300": 1479, "provider": 14316, "author": 3998, "ity": 10517, "authority": 4000, "intent": 10234, "filter": 8363, "action": 3157, "category": 5074, "browsable": 4698, "scheme": 15632, "host": 9562, "v4": 18369, "content": 5824, "authorities": 3999, "grant": 9129, "uri": 18237, "permissions": 13711, "exported": 7982, "paths": 13593, "service": 15851, "enabled": 7586, "notification": 12848, "apply": 3679, "plugin": 13907, "def": 6507, "twa": 17801, "being": 4377, "opened": 13191, "start": 16546, "relative": 14932, "cl": 5381, "ubforce": 17898, "shown": 16004, "2837": 1397, "95": 2783, "used": 18276, "f6f": 8072, "ffffff": 8282, "notifications": 12849, "deleg": 6546, "ation": 3922, "compile": 5648, "sdk": 15679, "2000": 1155, "instrumentation": 10198, "runner": 15424, "will": 18875, "launching": 10999, "hostname": 9565, "building": 4760, "handle": 9296, "intents": 10237, "svgomg": 16947, "firebaseapp": 8392, "variable": 18437, "expresses": 7992, "relationship": 14930, "between": 4409, "site": 16107, "documented": 6951, "documentation": 6950, "developers": 6703, "google": 9079, "updates": 18201, "2017": 1183, "digital": 6793, "links": 11383, "inject": 10126, "ed": 7417, "relation": 14928, "delegate": 6547, "permission": 13710, "common": 5618, "urls": 18249, "namespace": 12552, "attribute": 3967, "values": 18419, "colors": 5581, "setting": 15880, "both": 4618, "places": 13870, "defaults": 6512, "specific": 16356, "needed": 12621, "defines": 6524, "fileprovider": 8347, "disable": 6829, "changing": 5256, "attributes": 3968, "minify": 12083, "proguard": 14262, "txt": 17825, "rules": 15410, "pro": 14198, "options": 13243, "source": 16319, "compatibility": 5642, "product": 14237, "flavors": 8446, "tree": 17658, "jar": 10579, "github": 8994, "chrome": 5330, "custom": 6171, "tabs": 17078, "client": 5425, "91": 2737, "b4a": 4123, "127": 862, "0b": 308, "511": 2025, "70": 2399, "5d": 2183, "34": 1579, "40": 1751, "e6": 7318, "26": 1337, "7762": 2485, "c5": 4879, "f1": 8039, "c6": 4888, "sha256": 15919, "cert": 5192, "fingerprints": 8380, "cd": 5126, "d5": 6249, "d1": 6222, "54": 2067, "ac": 3072, "17": 1008, "8a": 2699, "c2": 4853, "07": 274, "1d": 1112, "fc": 8182, "d7": 6262, "2c": 1432, "ee": 7443, "66": 2317, "d9": 6278, "f6": 8068, "da": 6281, "1c": 1106, "57": 2121, "1b": 1104, "a5": 2951, "f9": 8082, "signer": 16048, "signature": 16043, "owner": 13413, "deleted": 6552, "privacy": 14186, "reason": 14762, "issuer": 10432, "serial": 15823, "b8": 4149, "59": 2158, "apr": 3693, "cest": 5209, "thu": 17354, "aug": 3982, "md5": 11908, "29": 1408, "96": 2791, "6c": 2373, "d0": 6212, "e4": 7303, "69": 2360, "bc": 4308, "6d": 2376, "sha1": 15915, "00": 14, "7e": 2531, "76": 2465, "27": 1366, "5e": 2186, "51": 2023, "83": 2613, "6a": 2369, "90": 2723, "56": 2102, "99": 2837, "algorithm": 3385, "sha256with": 15921, "rsa": 15361, "extensions": 8005, "object": 12988, "criticality": 6037, "subject": 16798, "identifier": 9750, "06": 263, "63": 2269, "ae": 3281, "e8": 7331, "bd": 4324, "9a": 2861, "4e": 1964, "8b": 2703, "9c": 2863, "09": 296, "ea": 7345, "0010": 105, "c8": 4898, "e5": 7310, "work": 18955, "eprintln": 7724, "op": 13178, "cub": 6120, "transform": 17613, "iterator": 10482, "tor": 17537, "radix": 14609, "sort": 16305, "elems": 7527, "amethyst": 3494, "assets": 3861, "loader": 11478, "renderer": 14978, "loaders": 11479, "sr": 16459, "gba": 8845, "palette": 13490, "srgba": 16475, "texture": 17257, "ui": 17954, "anchor": 3536, "builder": 4759, "simple": 16072, "1234567": 835, "666": 2325, "font": 8542, "position": 14025, "64": 2281, "middle": 12044, "has": 9330, "ff": 8266, "ct": 6087, "hover": 9576, "solid": 16270, "layer": 11006, "guard": 9204, "function": 8747, "reqwest": 15044, "normally": 12830, "response": 15087, "ve": 18469, "mapped": 11780, "post": 14035, "complete": 5658, "basic": 4260, "auth": 3988, "username": 18289, "send": 15778, "exist": 7931, "200": 1154, "attempt": 3953, "\u2026": 19785, "eth": 7822, "account": 3111, "generate": 8883, "passwd": 13578, "backtrace": 4186, "05": 251, "47": 1898, "master": 11827, "\u2717": 19900, "unoptimized": 18132, "04s": 249, "0x8": 633, "248": 1312, "af": 3295, "65": 2304, "559": 2099, "509": 2020, "060": 264, "b88": 4153, "7c": 2528, "d20": 6229, "max": 11875, "ptr": 14348, "densities": 6589, "particles": 13561, "glm": 9025, "vec3": 18475, "sqrtf": 16450, "134": 891, "extrema": 8020, "hpp": 9583, "iostream": 10346, "comp": 5627, "typename": 17841, "operator": 13215, "t1": 17037, "t2": 17054, "sizeof": 16125, "cout": 5952, "endl": 7629, "61": 2243, "structs": 16751, "area": 3716, "width": 18865, "f32": 8051, "length": 11121, "62": 2256, "private": 14187, "e0451": 7227, "1f32": 1120, "working": 18963, "perfectly": 13690, "fine": 8377, "within": 18920, "same": 15549, "vertices": 18550, "which": 18838, "behind": 4376, "occurs": 13024, "because": 4349, "collections": 5562, "consider": 5772, "borrowing": 4611, "e0507": 7241, "digraph": 6795, "directed": 6812, "graph": 9132, "add": 3198, "edge": 7426, "vertex": 18546, "entry": 7687, "e0596": 7255, "borrow": 4605, "mutable": 12394, "refers": 14875, "information": 10081, "try": 17735, "explain": 7969, "val": 18385, "reverse": 15151, "prev": 14146, "curr": 6150, "part": 13552, "tail": 17087, "take": 17093, "head": 9389, "e0499": 7232, "linked": 11380, "starting": 16556, "seeking": 15737, "saving": 15590, "lock": 11500, "getline": 8935, "cin": 5351, "stdout": 16602, "flush": 8488, "flate": 8440, "gzip": 9235, "decoder": 6480, "gz": 9234, "process": 14220, "lines": 11372, "events": 7861, "fp": 8625, "flate2": 8441, "zlib": 19372, "ng": 12709, "s3": 15518, "s3client": 15519, "region": 14901, "us": 18265, "east1": 7368, "await": 4053, "stream": 16690, "put": 14398, "bucket": 4731, "streaming": 16696, "byte": 4812, "rusoto": 15437, "async": 3891, "upload": 18206, "thing": 17300, "mycrate": 12438, "i32": 9665, "tests": 17242, "conflicts": 5746, "imported": 9950, "meant": 11921, "e0": 7157, "254": 1325, "dll": 6909, "sample": 15557, "dylib": 7145, "rusty": 15490, "exe": 7907, "queue": 14528, "enqueue": 7658, "producer": 14234, "marker": 11803, "deque": 6611, "condvar": 5728, "mutex": 12404, "items": 10465, "qt": 14491, "back": 4172, "notify": 12852, "dequeue": 6612, "wait": 18705, "pop": 13985, "front": 8698, "dispatch": 6850, "produce": 14232, "called": 4967, "consumer": 5809, "execute": 7912, "change": 5251, "hey": 9453, "command1": 5605, "compiler": 5650, "complains": 5655, "making": 11738, "another": 3604, "binding": 4461, "docopt": 6945, "cell": 5165, "vers": 18537, "ible": 9698, "undo": 18063, "un": 18017, "old": 13093, "calls": 4979, "tz": 17850, "asc": 3805, "encaps": 7593, "ulates": 17979, "possible": 14033, "occured": 13019, "parsing": 13551, "yaml": 19242, "alias": 3388, "initialize": 10111, "e0308": 7199, "mismatched": 12109, "18": 1040, "iced": 9714, "geo": 8903, "executor": 7918, "title": 17437, "update": 18196, "img": 9901, "widget": 18863, "leg": 11107, "png": 13919, "layout": 11010, "cursor": 6164, "stackoverflow": 16522, "\u251c\u2500": 19851, "resources": 15076, "\u2514\u2500": 19846, "ferris": 8254, "container": 5818, "settings": 15881, "center": 5177, "ced": 5152, "item": 10458, "mpsc": 12284, "tx": 17816, "rx": 15502, "worker": 18959, "inner": 10134, "computation": 5688, "sender": 15781, "hashmap": 9345, "retrieved": 15132, "prints": 14180, "addr": 3224, "format": 8590, "super": 16900, "obviously": 13008, "may": 11889, "even": 7855, "cause": 5079, "access": 3099, "violation": 18595, "getting": 8948, "didn": 6765, "allocate": 3422, "assert": 3851, "eq": 7729, "12i32": 873, "matches": 11838, "0x": 375, "transmute": 17630, "rpc": 15344, "transport": 17634, "security": 15725, "policy": 13954, "medium": 11936, "system": 17020, "full": 8730, "origin": 13284, "clo": 5441, "u": 17853, "sv": 16940, "conn": 5753, "keytool": 10818, "importcert": 9949, "digi": 6789, "root": 15296, "ca": 4915, "mg": 12028, "rc": 14683, "ert": 7782, "pem": 13669, "keystore": 10816, "certificates": 5198, "mq": 12287, "changeit": 5253, "manager": 11751, "select": 15753, "correct": 5914, "final": 8369, "x509key": 19096, "km": 10863, "managers": 11752, "wrapper": 18990, "socket": 16251, "ad": 3177, "apt": 3697, "needs": 12625, "tls": 17448, "pass": 13570, "cf": 5211, "remote": 14963, "posed": 14018, "attempting": 3955, "connect": 5755, "local": 11486, "cm": 5480, "yat": 19246, "ish": 10408, "kad": 10739, "am": 3479, "dcom": 6404, "ibm": 9700, "cfg": 5220, "mappings": 11785, "cp": 5964, "samples": 15565, "det": 6681, "iled": 9852, "illegal": 9866, "0018": 111, "removed": 14965, "312": 1508, "check": 5283, "started": 16554, "listener": 11410, "rm": 15235, "961": 2794, "58": 2141, "984": 2825, "768": 2473, "user": 18281, "qr": 14481, "mp": 12269, "pa": 13446, "installation": 10176, "mgr": 12029, "2020": 1188, "t18": 17053, "942": 2776, "arith": 3749, "414": 1790, "comment": 5608, "bad": 4192, "ex": 7878, "pla": 13859, "encountered": 7608, "during": 7117, "handshak": 9309, "ar": 3701, "ded": 6497, "following": 8540, "reasons": 14763, "was": 18738, "formatted": 8592, "incorrectly": 10002, "validated": 18398, "correctly": 5917, "against": 3317, "certification": 5199, "held": 9420, "revocation": 15159, "crl": 6038, "ldap": 11053, "specified": 16360, "ocsp": 13027, "responder": 15083, "indicated": 10032, "rev": 15148, "oked": 13085, "cases": 5054, "its": 10511, "determined": 6695, "are": 3715, "causes": 5081, "applies": 3678, "restart": 15095, "might": 12052, "indicate": 10031, "configured": 5738, "wrong": 19007, "ensure": 7666, "repository": 15018, "contains": 5823, "necessary": 12616, "cc": 5102, "isa": 10393, "421": 1809, "entries": 7683, "digic": 6790, "er": 7738, "tro": 17702, "fingerprint": 8379, "6b": 2370, "68": 2352, "ec": 7385, "74": 2439, "2e": 1445, "8c": 2705, "71": 2408, "f7": 8073, "39": 1679, "8d": 2706, "b6": 4131, "49": 1928, "d3": 6233, "e1": 7281, "9e": 2866, "a8": 2980, "98": 2819, "3a": 1696, "d6": 6256, "36": 1626, "genkey": 8897, "keyalg": 10794, "sig": 16031, "alg": 3380, "keysize": 10814, "2048": 1195, "validity": 18403, "3650": 1636, "flavor": 8445, "multi": 12351, "threads": 17339, "php": 13780, "zizaco": 19369, "entrust": 7686, "role": 15275, "class": 5393, "extends": 8002, "display": 6855, "project": 14264, "description": 6648, "given": 9001, "administrator": 3260, "allowed": 3432, "edit": 7431, "company": 5631, "department": 6593, "syntax": 17005, "unexpected": 18067, "expecting": 7956, "x3": 19080, "x4": 19083, "i8": 9676, "blank": 4517, "fixed": 8415, "elements": 7526, "unimplemented": 18089, "4x4": 1993, "safe": 15534, "eval": 7844, "log": 11511, "undefined": 18053, "math": 11845, "constructor": 5799, "arguments": 3742, "9999": 2854, "73": 2425, "275": 1375, "395": 1687, "termion": 17204, "terminal": 17197, "asynchronous": 3892, "any": 3619, "exit": 7937, "sleep": 16152, "millis": 12067, "50": 1997, "satisfied": 15580, "statically": 16575, "known": 10872, "izer": 10550, "ustc": 18304, "e0277": 7192, "test2": 17222, "ready": 14750, "rgb": 15176, "hex": 9450, "16u8": 1007, "8u8": 2717, "arithmetic": 3750, "overflow": 13390, "shift": 15961, "deny": 6591, "warnings": 18734, "emitted": 7566, "checked": 5286, "shr": 16006, "u16": 17859, "h8": 9260, "across": 3150, "chrono": 5331, "date": 6354, "utc": 18312, "creds": 6022, "expires": 7967, "expired": 7966, "cached": 4932, "todo": 17480, "unable": 18019, "threaded": 17335, "concurrent": 5716, "logic": 11521, "periodic": 13699, "ally": 3438, "refresh": 14887, "expression": 7993, "ast": 3883, "lit": 11420, "literal": 11423, "expansion": 7950, "ends": 7636, "incomplete": 9999, "arm": 3753, "call": 4963, "doesn": 6957, "expand": 7945, "playground": 13892, "ident": 9745, "variant": 18442, "clap": 5390, "arg": 3722, "rayon": 14675, "ssh2": 16487, "session": 15858, "tcp": 17143, "addrs": 3231, "sess": 15857, "handshake": 9310, "hosts": 9567, "aa": 2995, "aaa": 2999, "bbbb": 4301, "bbb": 4300, "creating": 6013, "install": 10175, "par": 13506, "venue": 18523, "venues": 18524, "migr": 12053, "artisan": 3797, "migration": 12055, "table": 17073, "cre": 6007, "codes": 5532, "schema": 15630, "blueprint": 4547, "increments": 10014, "integer": 10220, "unsigned": 18157, "timestamps": 17416, "ass": 3844, "oc": 13010, "rel": 14924, "ship": 15966, "fore": 8576, "ign": 9826, "foreign": 8580, "references": 14867, "delete": 6551, "cascade": 5050, "down": 7000, "illuminate": 9869, "database": 6331, "eloquent": 7544, "ven": 18516, "ue": 17936, "ues": 17940, "belongs": 4384, "roles": 15276, "tuple": 17776, "expr": 7986, "ack": 3137, "tt": 17753, "packer": 13456, "step": 16614, "append": 3663, "pack": 13451, "invocation": 10321, "46": 1885, "calling": 4973, "bob": 4562, "gmail": 9046, "jz": 10728, "glfw": 9016, "dependency": 6597, "khronos": 10828, "included": 9990, "getenv": 8930, "generates": 8885, "sing": 16093, "es": 7785, "v3": 18366, "ns": 12886, "les": 11129, "i686": 9673, "pc": 13617, "windows": 18890, "msvc": 12324, "rustflags": 15461, "clink": 5432, "mt": 12329, "dumpbin": 7097, "dep": 6592, "ent": 7669, "vc": 18456, "140": 908, "ie": 9777, "unstable": 18162, "crt": 6055, "arg1": 3724, "images": 9887, "render": 14974, "luma": 11641, "dims": 6803, "headers": 9396, "header": 9392, "encoder": 7605, "gray": 9143, "encoding": 7606, "slug": 16183, "photo": 13779, "jpg": 10680, "say": 15594, "morph": 12228, "routes": 15326, "second": 15707, "also": 3462, "says": 15595, "rw": 15497, "kernel32": 10784, "winapi": 18880, "ffi": 8288, "um": 18003, "wincontypes": 18883, "e0432": 7223, "winuser": 18910, "myproject": 12478, "cache": 4931, "vendor": 18518, "caspol": 5057, "ag": 3315, "exclusive": 7905, "glob": 9026, "setsid": 15875, "fork": 8585, "exec": 7908, "warp": 18735, "cors": 5925, "localhost": 11488, "8090": 2583, "methods": 12015, "dash": 6320, "ba": 4162, "ord": 13256, "svc": 16943, "serve": 15842, "filters": 8367, "logged": 11517, "43": 1828, "formatter": 8593, "strings": 16718, "pretty": 14145, "instead": 10191, "originates": 13287, "builds": 4763, "info": 10077, "exercises": 7926, "traits": 17601, "s1": 15513, "s2": 15515, "longer": 11539, "usable": 18267, "pattern": 13596, "after": 3310, "qt5": 14492, "cmake": 5481, "msvc2015": 12325, "kit": 10851, "ech": 7404, "mkdir": 12129, "sublime": 16801, "nin": 12739, "ja": 10565, "qt5core": 14493, "qt5gui": 14494, "qt5widgets": 14496, "prefix": 14117, "deno": 6584, "submap": 16805, "abcde": 3035, "boolean": 4592, "aspect": 3842, "ratio": 14664, "scale": 15607, "tan": 17103, "rad": 14602, "ians": 9687, "fov": 8623, "far": 8149, "plane": 13875, "near": 12609, "matrix4f": 11863, "m32": 11686, "uniform": 18084, "mat4": 11831, "transformation": 17615, "light": 11340, "fo": 8524, "ensity": 7664, "gradient": 9117, "vec4": 18478, "vec2": 18473, "coords": 5885, "normal": 12825, "surface": 16927, "visibility": 18606, "frag": 8642, "pos": 14013, "clip": 5433, "distance": 6862, "dot": 6982, "cam": 4983, "xyz": 19227, "inverse": 10314, "exp": 7942, "pow": 14053, "clamp": 5387, "parent": 13526, "third": 17310, "e0106": 7172, "missing": 12114, "specifier": 16361, "ame": 3488, "te": 17150, "parameter": 13516, "three": 17340, "captures": 5028, "group": 9170, "replace": 15000, "range": 14638, "quick": 14533, "brown": 4696, "fox": 8624, "jumps": 10713, "over": 13389, "ss": 16481, "sc": 15603, "searching": 15696, "capacity": 5018, "skip": 16135, "cfgtools": 5222, "unknown": 18117, "macos": 11702, "ios": 10345, "linux": 11388, "free": 8663, "bsd": 4705, "drag": 7027, "fly": 8492, "ig": 9820, "netbsd": 12661, "compiling": 5653, "reco": 14794, "v0": 18355, "ses": 15856, "sho": 15975, "e0463": 7228, "declare": 6468, "visible": 18607, "wildcard": 18872, "imports": 9954, "aren": 3719, "recommended": 14799, "they": 17297, "confusing": 5748, "actually": 3175, "come": 5598, "outside": 13384, "weak": 18775, "nodes": 12783, "network": 12665, "downgrade": 7002, "node1": 12776, "node2": 12777, "senders": 15782, "upgrade": 18203, "others": 13334, "tmp": 17459, "moved": 12255, "copyable": 5892, "oracle": 13251, "pwd": 14410, "194": 1082, "253": 1323, "db": 6368, "sql": 16439, "anag": 3517, "ditmat": 6873, "fvl": 8783, "rows": 15338, "query": 14520, "ko": 10874, "cont": 5813, "dit": 6872, "row": 15331, "con": 5697, "ession": 7806, "md": 11907, "c4b": 4878, "connecting": 5757, "writer": 18999, "encodable": 7602, "dump": 7096, "decodable": 6476, "al": 3362, "lfun": 11160, "allfun": 3417, "pull": 14375, "compact": 5628, "xc": 19118, "yc": 19249, "zc": 19337, "arr": 3768, "o1": 12967, "o2": 12968, "compare": 5635, "dst": 7067, "detail": 6684, "stable": 16518, "tag": 17082, "indirect": 10039, "ordering": 13259, "blocked": 4535, "gk": 9008, "104": 736, "signal": 16041, "193": 1081, "144": 929, "blocks": 4538, "typedef": 17839, "0x0": 376, "had": 9274, "column": 5585, "strlen": 16726, "our": 13352, "original": 13285, "sorted": 16307, "reduce": 14842, "zy": 19455, "xw": 19217, "abcd": 3034, "defg": 6520, "wer": 18810, "asd": 3812, "de": 6419, "urt": 18262, "nt": 12898, "bf": 4411, "funcs": 8745, "posix": 14029, "88": 2672, "unistd": 18103, "setuid": 15885, "clients": 5431, "channels": 5258, "websocket": 18792, "protocol": 14307, "dispatcher": 6852, "validate": 18397, "accept": 3093, "form": 8588, "protocols": 14308, "want": 18723, "ip": 10351, "peer": 13665, "connected": 5756, "split": 16404, "incoming": 9996, "messages": 11998, "opcode": 13185, "disconnected": 6839, "ping": 13815, "pong": 13974, "payload": 13603, "invalid": 10309, "utf": 18318, "sequence": 15814, "named": 12550, "e0310": 7201, "adding": 3214, "en1": 7584, "val1": 18387, "val2": 18388, "val3": 18389, "fn1": 8509, "iterate": 10474, "currently": 6158, "flux": 8491, "symbolic": 16981, "names": 12551, "stringify": 16716, "cloned": 5452, "highlighting": 9476, "adfs": 3245, "diagnostics": 6746, "trace": 17575, "logs": 11530, "ab": 3017, "pq": 14071, "xy": 19225, "yy": 19323, "regexp": 14900, "rule": 15407, "whitespace": 18846, "goes": 9063, "fancy": 8148, "corpus": 5912, "cw": 6188, "foobar": 8553, "quux": 14549, "blacklist": 4509, "vowels": 18651, "aeiou": 3289, "repeated": 14992, "letter": 11140, "ch": 5235, "enter": 7670, "hmac": 9510, "scrape": 15658, "redirect": 14836, "shell": 15955, "phantom": 13763, "ra": 14592, "ising": 10409, "pipe": 13823, "received": 14776, "20000": 1156, "cancel": 4992, "catch": 5070, "fold": 8531, "m1": 11676, "m2": 11680, "m3": 11685, "acc": 3085, "parallel": 13509, "implementations": 9933, "vs": 18662, "link": 11375, "sink": 16100, "sure": 16923, "themselves": 17283, "theatre": 17276, "director": 6818, "price": 14156, "i64": 9672, "childish": 5307, "adultish": 3271, "musical": 12384, "union": 18095, "child": 5302, "ultish": 17998, "mus": 12381, "ical": 9704, "subtype": 16847, "ta": 17070, "piece": 13805, "ram": 14623, "ma": 11691, "dy": 7142, "composer": 5677, "country": 5945, "i16": 9660, "e0658": 7273, "unions": 18096, "fields": 8322, "issue": 10429, "55": 2080, "149": 940, "issues": 10434, "e07": 7274, "contain": 5816, "need": 12620, "dropping": 7052, "manually": 11768, "stdio": 16598, "dog": 6960, "bark": 4237, "arr1": 3769, "5555": 2093, "e0282": 7195, "infer": 10061, "macros": 11706, "annotations": 3591, "generic": 8891, "magic": 11713, "deadbeef": 6428, "land": 10947, "0x1234": 469, "sum1": 16884, "infers": 10064, "sum2": 16885, "accumulator": 3121, "binop": 4466, "addx": 3237, "unboxed": 18032, "closures": 5465, "sugar": 16872, "overloaded": 13400, "failure": 8132, "hit": 9498, "bug": 4752, "appreciate": 3682, "report": 15011, "complement": 5656, "assertion": 3853, "chris": 5329, "librustc": 11271, "trans": 17606, "callee": 4968, "528": 2049, "single": 16095, "bail": 4203, "gtk": 9193, "timeout": 17403, "toplevel": 17529, "changed": 5252, "continue": 5836, "e0495": 7231, "appropriate": 3685, "conflicting": 5745, "requirements": 15041, "outlive": 13378, "ending": 7628, "assignable": 3863, "meet": 11938, "bounds": 4631, "zmq": 19377, "lid": 11321, "resp": 15077, "messa": 11994, "ger": 8917, "fut": 8763, "dur": 7115, "stdlib": 16600, "execution": 7916, "functor": 8753, "dynamic": 7148, "mono": 12210, "behaviour": 4374, "mesh": 11990, "collider": 5567, "radius": 14608, "25": 1317, "nb": 12580, "sides": 16024, "pi": 13787, "mathf": 11848, "vector3": 18493, "wake": 18710, "component": 5672, "mr": 12290, "material": 11843, "shader": 15927, "rec": 14769, "ate": 3905, "editor": 7436, "playing": 13893, "endif": 7627, "cap": 5012, "endregion": 7635, "triangle": 17671, "triangles": 17672, "tri": 17667, "ulate": 17977, "ang": 3558, "ents": 7689, "blah": 4511, "blabla": 4506, "stack": 16519, "0x46": 523, "rt": 15382, "imp": 9919, "fe": 8217, "294": 1414, "867": 2658, "pre": 14080, "0x44": 522, "d8": 6268, "unwind": 18179, "h0": 9237, "451": 1869, "30": 1478, "h2": 9245, "145": 931, "fb9": 8172, "0x4": 511, "a75": 2977, "h3": 9248, "bb": 4288, "279": 1382, "e9a": 7344, "504": 2010, "a76": 2978, "he": 9388, "5c": 2181, "809": 2582, "h5": 9256, "370": 1644, "0f0": 334, "fb": 8168, "f3": 8050, "cfa": 5218, "c1": 4838, "baf": 4198, "544": 2072, "rb": 14678, "0x40": 512, "b0": 4086, "270": 1367, "329": 1547, "cf4": 5215, "faa": 8096, "862": 2647, "c0": 4827, "17a": 1027, "166": 990, "ow": 13408, "04": 235, "72": 2416, "ci": 5340, "pe": 13644, "h90": 9263, "473": 1904, "132": 884, "f89": 8080, "co": 5515, "32e0": 1549, "0x7ff": 603, "547": 2075, "df": 6717, "destroy": 6670, "hy": 9646, "phy": 13783, "callback": 4965, "aliases": 3390, "e0404": 7217, "tea": 17151, "recipient": 14790, "card": 5034, "e0425": 7222, "drain": 7030, "licative": 11313, "haskell": 9351, "lift": 11336, "oa": 12970, "ob": 12976, "myapp": 12427, "backend": 4175, "external": 8010, "throw": 17348, "ync": 19290, "zero": 19347, "util": 18323, "codec": 5524, "framed": 8648, "mqtt": 12288, "v5": 18371, "packet": 13457, "e0599": 7257, "perhaps": 13695, "warning": 18733, "repr": 15019, "e1000": 7283, "desc": 6635, "checksum": 5293, "special": 16350, "cmd": 5483, "base": 4246, "register": 14904, "registers": 14906, "lo": 11475, "ffffffff": 8284, "hi": 9459, "0xffff": 679, "x1": 19072, "x2": 19077, "isize": 10411, "functions": 8752, "state1": 16563, "state2": 16564, "owned": 13412, "won": 18941, "caller": 4969, "automate": 4014, "feed": 8240, "aut": 3987, "omate": 13110, "param": 13513, "edges": 7429, "lots": 11574, "arena": 3720, "drive": 7038, "separat": 15800, "walk": 18716, "volume": 18643, "incorrect": 10001, "123": 828, "ls": 11599, "petgraph": 13743, "wal": 18714, "ker": 10780, "direction": 6813, "determin": 6693, "istic": 10439, "neighbors": 12637, "exists": 7936, "candidate": 4999, "children": 5308, "e0204": 7180, "outputs": 13382, "macro2": 11705, "anything": 3623, "330": 1554, "336": 1569, "337": 1570, "340": 1580, "punct": 14378, "alone": 3444, "syn": 16990, "y1": 19233, "y2": 19234, "pickle": 13797, "py": 14422, "dist": 6860, "t6": 17065, "permutation": 13717, "counting": 5942, "zip": 19364, "functional": 8750, "define": 6522, "sums": 16896, "inc": 9982, "asing": 3824, "segmented": 15747, "based": 4256, "flag": 8429, "ors": 13298, "predicate": 14101, "segment": 15743, "representation": 15021, "equivalent": 7736, "2nd": 1462, "az": 4080, "asl": 3832, "inclusive": 9994, "combined": 5596, "results": 15111, "ostream": 13321, "cstdlib": 6082, "fstream": 8714, "calculate": 4950, "occur": 13017, "ances": 3532, "tid": 17374, "syncthreads": 17000, "argc": 3728, "argv": 3743, "whole": 18851, "prop": 14283, "properties": 14288, "per": 13685, "counts": 5946, "constant": 5781, "just": 10720, "seq": 15811, "rsize": 15367, "vals": 18405, "526": 2047, "324": 1534, "325": 1535, "327": 1539, "helpers": 9432, "helper": 9430, "quote": 14545, "wrapping": 18992, "250": 1318, "000": 15, "byteorder": 4816, "native": 12569, "endian": 7626, "circular": 5363, "amount": 3505, "including": 9992, "remove": 14964, "chunk": 5335, "splice": 16401, "xs": 19204, "ps": 14326, "svd2rust": 16945, "last": 10973, "deps": 6606, "examples": 7888, "incremental": 10011, "79": 2512, "240": 1298, "d2rust": 6232, "276": 1378, "372": 1647, "log2": 11512, "2016": 1182, "565": 2108, "888": 2686, "stm": 16634, "32f": 1550, "401": 1758, "912": 2740, "360": 1627, "985": 2828, "stm32": 16635, "f4": 8056, "h1": 9242, "v1": 18356, "peano": 13648, "succ": 16852, "enumerate": 7696, "pred": 14095, "partial": 13555, "itertools": 10488, "equal": 7731, "longest": 11540, "thingy": 17307, "different": 6781, "dashboard": 6321, "responders": 15084, "respond": 15081, "executed": 7913, "als": 3460, "cr": 5985, "ename": 7589, "dialoguer": 6751, "suggestion": 16875, "ctures": 6113, "prompt": 14280, "suggested": 16874, "interact": 10239, "crossterm": 6051, "slacker": 16145, "cpu": 5975, "req": 15030, "sreq": 16473, "fname": 8512, "hot": 9568, "cance": 4991, "led": 11093, "unsupported": 18165, "103": 729, "101": 710, "102": 721, "133": 887, "105": 741, "35": 1601, "107": 746, "packets": 13458, "inventory": 10313, "inv": 10307, "pair": 13481, "gather": 8838, "dsize": 7062, "v2": 18360, "0usize": 374, "e0594": 7254, "shortcut": 15983, "dbg": 6382, "npm": 12869, "jakearmendariz": 10571, "desktop": 6664, "life": 11330, "www": 19059, "webpack": 18785, "modules": 12190, "utils": 18329, "been": 4356, "initialized": 10112, "patterns": 13597, "cjs": 5374, "776": 2484, "787": 2508, "653": 2306, "593": 2162, "585": 2149, "require": 15038, "690": 2361, "cli": 5419, "convert": 5860, "114": 800, "116": 805, "exports": 7983, "121": 824, "lif": 11329, "cle": 5405, "errno": 7769, "script": 15666, "probably": 14202, "likely": 11345, "additional": 3216, "442": 1850, "bootstrap": 4599, "dirname": 6824, "plugins": 13908, "im": 9879, "ist": 10435, "pkg": 13851, "depend": 6594, "encies": 7598, "bt": 4717, "powered": 14056, "discovery": 6844, "dropped": 7050, "takes": 17098, "br": 4649, "ings": 10092, "immediately": 9913, "creates": 6012, "okay": 13083, "holding": 9536, "these": 17292, "deref": 6615, "coercion": 5542, "since": 16090, "ul": 17974, "idea": 9742, "evaluation": 7852, "surely": 16925, "aggreg": 3327, "ates": 3911, "finance": 8373, "labs": 10927, "formatters": 8595, "066": 271, "ea3": 7347, "b9": 4157, "passed": 13571, "ignored": 9830, "measured": 11924, "filtered": 8365, "packages": 13453, "canonical": 5006, "limited": 11349, "ubuntu": 17901, "hk": 9503, "gs": 9182, "rootfs": 15297, "mime": 12071, "guess": 9211, "890": 2695, "328": 1545, "763": 2467, "c22": 4855, "cgu": 5234, "rcgu": 14693, "works": 18966, "structopt": 16749, "pcap": 13618, "capture": 5026, "devices": 6709, "prom": 14273, "snap": 16223, "look": 11548, "library": 11266, "book": 4583, "associations": 3877, "groovy": 9168, "parse2": 13544, "buff": 4737, "elem": 7519, "uninitialized": 18091, "prevent": 14147, "allocation": 3426, "allocates": 3424, "test0": 17217, "test1": 17219, "website": 18791, "1234567890abcdef": 848, "dss": 7066, "object1": 12989, "object2": 12990, "rng": 15248, "cour": 5949, "solutions": 16273, "produced": 14233, "ized": 10549, "software": 16264, "zone": 19436, "interface": 10249, "applications": 3676, "rich": 15194, "oper": 13206, "ating": 3921, "environment": 7705, "loaded": 11477, "brew": 4677, "wrangler": 18984, "cloudflare": 5468, "workers": 18961, "publish": 14369, "installed": 10177, "binaries": 4452, "mac": 11694, "zsh": 19446, "za": 19333, "z0": 19328, "compound": 5680, "separated": 15802, "alt": 3463, "1usize": 1147, "flatten": 8443, "many1": 11773, "nom": 12796, "preceded": 14089, "nonempty": 12805, "many0": 11772, "rest": 15094, "flat": 8439, "disposition": 6858, "nemlog": 12647, "au": 3976, "1h": 1129, "id1": 9733, "rrp": 15356, "dispatchprice0": 6853, "k1": 10731, "vic": 18566, "tue": 17768, "oct": 13028, "2019": 1186, "gmt": 9050, "apache": 3630, "cent": 5176, "ws": 19011, "gi": 8970, "python": 14440, "attachment": 3946, "transfer": 17611, "chunked": 5336, "settlementdate": 15884, "22t10": 1263, "00z": 153, "regionid": 14902, "vic1": 18567, "272": 1371, "7859": 2506, "22t11": 1264, "48": 1915, "38": 1660, "41": 1783, "465": 1891, "seems": 15739, "explicitly": 7973, "regex1": 14898, "regex2": 14899, "var1": 18430, "field1": 8318, "gets": 8942, "var2": 18431, "field2": 8319, "completely": 5660, "chunks": 5338, "together": 17485, "attack": 3949, "pp": 14062, "pname": 13917, "captured": 5027, "outer": 13368, "data2": 6326, "know": 10871, "starts": 16558, "experiment": 7961, "dockerfile": 6944, "pil": 13808, "workdir": 18957, "517": 2032, "cb": 5084, "67": 2335, "113": 797, "ce2": 5143, "3d": 1714, "d4": 6238, "146": 933, "tain": 17091, "created": 6011, "ports": 14012, "men": 11970, "aw": 4052, "ru": 15398, "ago": 3332, "exited": 7939, "docker": 6943, "8080": 2576, "80": 2560, "audio": 3981, "0us": 373, "fac": 8103, "1000000": 690, "extremely": 8021, "clever": 5417, "way": 18754, "listing": 11415, "numbers": 12929, "calculating": 4953, "1is": 1135, "sqrt": 16447, "got": 9083, "answer": 3611, "wo": 18934, "499": 1947, "501": 2004, "502": 2005, "ii": 9838, "iii": 9841, "jj": 10635, "next2": 12700, "less": 11130, "next3": 12701, "checking": 5288, "9u8": 2882, "obj": 12979, "relaxed": 14934, "fast": 8154, "readed": 14733, "frequently": 8683, "cfg0": 5221, "3000": 1480, "forever": 8582, "ownership": 13415, "neither": 12643, "took": 17512, "rp": 15340, "calculator": 4956, "pn": 13916, "uct": 17921, "actions": 3159, "2518": 1321, "\ufffd": 20031, "vt": 18671, "bl": 4503, "lp": 11583, "vtbl": 18673, "dlist": 6908, "574": 2129, "ty": 17827, "property": 14289, "sslserversocketfactory": 16499, "sslserversocket": 16498, "sslsocket": 16502, "inputstream": 10150, "inputstreamreader": 10151, "buffered": 4743, "bufferedreader": 4744, "usr": 18301, "lib64": 11174, "jvm": 10723, "openjdk": 13195, "jre": 10683, "cacerts": 4929, "sslsocketfactory": 16503, "fatal": 8160, "alerts": 3376, "192": 1079, "154": 956, "record": 14802, "1077": 751, "perform": 13691, "702": 2402, "nio": 12743, "cs": 6070, "221": 1247, "291": 1410, "295": 1416, "141": 912, "229": 1260, "151": 950, "actor": 3170, "robots": 15263, "actors": 3173, "robot": 15262, "receive": 14775, "downcast": 7001, "anon": 3597, "journal": 10675, "etc": 7820, "ints": 10304, "big": 4438, "boost": 4596, "xor": 19185, "rhs": 15189, "mis": 12105, "matched": 11835, "bitxor": 4499, "typing": 17848, "999": 2853, "e0369": 7205, "moves": 12257, "indexed": 10026, "option1": 13237, "ranges": 14642, "0u16": 368, "updatable": 18195, "cesses": 5208, "mutates": 12399, "possibly": 14034, "updat": 18194, "ables": 3052, "characters": 5268, "written": 19005, "piped": 13824, "truncated": 17717, "unpin": 18137, "pin": 13812, "cx": 6191, "pinned": 13818, "router": 15325, "again": 3316, "e0382": 7208, "instantiate": 10186, "ks": 10895, "hu": 9623, "u2": 17863, "openssl": 13199, "port": 14003, "showcerts": 16002, "mytruststore": 12508, "curand": 6144, "seed": 15729, "subsequence": 16826, "89": 2694, "49000": 1931, "5000": 1999, "tpb": 17555, "fprintf": 8631, "stderr": 16593, "abort": 3055, "nex": 12696, "tr": 17570, "scaled": 15608, "cur": 6143, "cud": 6127, "cpy": 5981, "1st": 1140, "returned": 15138, "datasetrows": 6346, "glibc": 9019, "detected": 6689, "prog": 14251, "0x00000000": 383, "180": 1041, "minor": 12091, "dataset": 6345, "cols": 5583, "o3": 12969, "wall": 18719, "wextra": 18816, "m64": 11690, "xcompiler": 19123, "articles": 3793, "simply": 16078, "demonstration": 6580, "purposes": 14391, "extract": 8016, "reply": 15008, "rejection": 14923, "postgres": 14042, "111": 783, "refused": 14890, "wm": 18925, "sudo": 16865, "psql": 14336, "directories": 6819, "libpq": 11261, "postgresql": 14043, "pg": 13759, "5432": 2070, "listen": 11409, "addresses": 3228, "hba": 9368, "conf": 5729, "arr2": 3770, "tes": 17214, "creation": 6014, "textbox": 17253, "vm": 18624, "naive": 12539, "programmer": 14257, "writing": 19004, "accepted": 3094, "broken": 4690, "sibling": 16019, "actual": 3174, "stored": 16663, "xt": 19211, "ree": 14850, "strategy": 16683, "calc": 4948, "adder": 3210, "restricting": 15100, "aware": 4058, "characteristics": 5267, "typed": 17838, "allocated": 3423, "consume": 5807, "autoref": 4018, "compatible": 5643, "int2": 10205, "scanf": 15611, "var3": 18432, "var4": 18433, "nocapture": 12773, "warn": 18732, "variables": 18438, "cloneable": 5451, "\u92e8": 20001, "\u99e8": 20005, "wide": 18860, "sy": 16977, "ron": 15290, "ize": 10548, "512": 2027, "lpwstr": 11592, "utf16": 18319, "lossy": 11571, "intermediate": 10256, "slave": 16147, "param1": 13514, "param2": 13515, "unique": 18101, "salt": 15546, "aes": 3293, "cbc": 5092, "encrypt": 7609, "decrypt": 6494, "ub": 17896, "qwer": 14555, "iv": 10521, "puts": 14400, "encrypted": 7610, "uncomment": 18041, "decrypted": 6495, "epoch": 7720, "tra": 17574, "ver": 18526, "implements": 9941, "oasis": 12973, "sx": 16974, "200512": 1168, "soap": 16247, "fault": 8163, "wsdl": 19018, "yn": 19289, "chronous": 5332, "completion": 5662, "completed": 5659, "obtain": 13005, "4096": 1776, "large": 10965, "means": 11920, "done": 6972, "whatever": 18827, "safely": 15535, "selected": 15756, "unary": 18023, "beer": 4358, "nl": 12754, "cpp": 5971, "lambda": 10942, "leave": 11084, "liners": 11371, "brace": 4652, "paren": 13524, "gateway": 8836, "updating": 18202, "receiving": 14780, "locking": 11503, "unlocked": 18123, "locked": 11502, "deadlock": 6430, "stmt": 16647, "fetch": 8260, "queries": 14519, "stuff": 16769, "isset": 10427, "echo": 7405, "key1": 10791, "key2": 10792, "frame": 8645, "decl": 6463, "428": 1821, "constraining": 5789, "\u00b1": 19473, "leveldb": 11149, "kv": 10909, "encoded": 7604, "bytecode": 4813, "reading": 14741, "115": 802, "109": 758, "panicked": 13502, "libcore": 11189, "programs": 14259, "endpermission": 7630, "tags": 17084, "imgs": 9907, "before": 4361, "five": 8412, "exact": 7879, "l1": 10918, "l2": 10919, "car": 5030, "though": 17327, "canvas": 5011, "500": 1998, "rate": 14658, "rectangle": 14814, "certain": 5194, "rect": 14811, "boilerplate": 4574, "adds": 3232, "around": 3767, "keeps": 10775, "erate": 7743, "commands": 5607, "ctx": 6114, "fps": 8632, "reserved": 15057, "keyword": 10821, "ctarget": 6090, "clean": 5406, "sanitizer": 15571, "llvm": 11461, "linking": 11382, "1181": 811, "built": 4767, "enums": 7700, "nope": 12818, "course": 5950, "itto": 10514, "pdl": 13639, "dict": 6760, "largest": 10967, "vecvec": 18503, "guessed": 9212, "ped": 13655, "word": 18948, "letters": 11141, "sed": 15727, "tells": 17167, "going": 9065, "modified": 12175, "introdu": 10298, "cing": 5352, "moving": 12260, "difference": 6779, "desugared": 6680, "job": 10656, "guesses": 9213, "misses": 12112, "progress": 14260, "increment": 10009, "miss": 12110, "lose": 11569, "active": 3165, "broadcast": 4688, "leaving": 11087, "naming": 12554, "hang": 9313, "man": 11747, "myk": 12454, "ski": 16133, "workspace": 18967, "78": 2494, "accesstoken": 3106, "tp": 17554, "secret": 15713, "trustpilot": 17731, "oauth": 12974, "business": 4787, "setopt": 15869, "curlopt": 6148, "httpheader": 9620, "urlencoded": 18246, "la": 10922, "uth": 18322, "si": 16017, "postfields": 14039, "returntransfer": 15142, "email": 7555, "base64": 4255, "authorization": 4002, "mask": 11820, "choice": 5319, "acceptor": 3096, "internode": 10266, "9337": 2768, "sent": 15793, "e0283": 7196, "driver": 7039, "detached": 6683, "10101": 712, "loops": 11561, "condition": 5720, "coerced": 5541, "never": 12669, "fnv1a32": 8523, "sis": 16104, "136": 893, "261": 1339, "prime": 14160, "777": 2486, "mul": 12344, "fnv": 8522, "0x7a": 583, "handles": 9306, "hashes": 9342, "sk": 16129, "unk": 18116, "dead": 6427, "nix": 12748, "splits": 16409, "div": 6874, "col": 5549, "javascript": 10586, "language": 10955, "locale": 11487, "1234567890": 838, "businessunit": 4788, "130px": 880, "px": 14416, "went": 18808, "conversion": 5858, "reads": 14748, "writes": 19002, "ens": 7660, "person": 13728, "computer": 5692, "attach": 3943, "uses": 18293, "general": 8879, "subscriptions": 16823, "subscription": 16822, "subs": 16818, "suffix": 16870, "statement": 16568, "detailed": 6685, "explanation": 7970, "prevents": 14148, "subsequent": 16827, "borrows": 4612, "modification": 12174, "scanner": 15614, "cnt": 5511, "125": 857, "later": 10984, "147": 935, "too": 17511, "libloading": 11237, "trying": 17737, "symbols": 16982, "architecture": 3711, "referenced": 14866, "documents": 6952, "th": 17268, "parity": 13536, "sam": 15548, "uel": 17938, "serially": 15835, "846": 2628, "ge": 8861, "gtx": 9198, "480": 1916, "formal": 8589, "sqlexpress": 16441, "mdf": 11913, "integrated": 10226, "entities": 7679, "multiple": 12360, "entity": 7680, "sid": 16021, "unpack": 18134, "substr": 16835, "foreach": 8577, "floor": 8473, "lode": 11510, "domains": 6969, "inspect": 10170, "members": 11946, "sign": 16040, "vendored": 18519, "108": 752, "sb": 15596, "pkey": 13849, "keypair": 10806, "repeat": 14991, "pf": 13749, "hw": 9643, "m0": 11675, "vk": 18620, "qc": 14458, "nd": 12597, "ky": 10914, "mw": 12418, "q1": 14449, "se3": 15688, "xo": 19184, "sg": 15905, "b75": 4143, "kar": 10751, "wr": 18983, "k4": 10734, "wx": 19060, "nj": 12750, "4u": 1989, "ft": 8715, "zp": 19438, "jk": 10637, "ax": 4069, "sw": 16950, "4y": 1994, "u0": 17854, "5y": 2219, "f2": 8045, "ds": 7058, "jg": 10622, "ux": 18349, "o0": 12966, "hq": 9585, "yt": 19314, "92": 2750, "kl": 10858, "cii": 5348, "ne": 12608, "i4": 9670, "hl": 9506, "0s": 363, "dz": 7154, "scp": 15655, "fv": 8779, "a6": 2964, "y3": 19235, "ke": 10768, "r2": 14573, "wi": 18856, "e7": 7326, "y0": 19232, "ba2": 4163, "3u": 1745, "ai": 3342, "vo": 18632, "aj": 3353, "g2": 8797, "ini": 10099, "division": 6888, "divide": 6880, "oops": 13174, "divided": 6881, "uint8": 17966, "vpn": 18657, "parameters": 13520, "mangle": 11757, "aster": 3885, "ctrl": 6107, "error2": 7774, "opencv": 13189, "uchar": 17911, "bring": 4685, "extra": 8015, "summary": 16891, "recursion": 14821, "reached": 14722, "expanding": 7948, "offi": 13056, "summ": 16886, "ry": 15507, "tweet": 17802, "uman": 18005, "destruct": 6673, "destructor": 6675, "direct": 6811, "cow": 5962, "owning": 13416, "nonoverlapping": 12810, "myhost": 12450, "authenticated": 3993, "dbe": 6380, "aver": 4034, "avr": 4046, "atmel": 3929, "emit": 7565, "gcc": 8847, "wl": 18923, "gc": 8846, "sections": 15720, "mmcu": 12140, "atmega328p": 3928, "elf": 7529, "objcopy": 12986, "oi": 13078, "ep": 7714, "rom": 15284, "linker": 11381, "cactus": 4940, "interrupt": 10276, "gnu": 9054, "stage1": 16526, "rustlib": 15472, "ce8": 5148, "eb": 7374, "5a8": 2175, "pie": 13804, "nodefaultlibs": 12779, "ld": 11051, "supported": 16914, "collect2": 5558, "little": 11428, "n8": 12534, "executables": 7911, "nostartfiles": 12838, "executable": 7910, "containing": 5822, "erc20": 7747, "rush": 15436, "testnet": 17239, "allowance": 3431, "escrow": 7791, "facebook": 8108, "malkevych": 11743, "scheduling": 15629, "rece": 14774, "ipt": 10368, "r7": 14588, "vd": 18466, "pl": 13858, "fz": 8793, "183": 1054, "wk": 18922, "smart": 16195, "contract": 5842, "attached": 3945, "deposit": 6604, "33100000000000000000000": 1557, "462": 1888, "guest": 9215, "bohdan": 4571, "nvm": 12953, "versions": 18544, "v13": 18358, "transaction": 17607, "ticks": 17373, "jections": 10610, "queues": 14532, "schedule": 15626, "gas": 8830, "desired": 6662, "bn": 4554, "571": 2124, "556": 2095, "216": 1238, "262": 1341, "245": 1309, "271": 1370, "100000000": 692, "000000": 18, "providers": 14317, "tokens": 17494, "1374": 898, "tup": 17774, "tk": 17439, "t12": 17045, "440": 1846, "24t13": 1316, "1406": 909, "789": 2511, "2434": 1304, "493": 1938, "798": 2520, "173": 1013, "deserializer": 6657, "mate": 11840, "siblings": 16020, "meets": 11939, "susan": 16935, "entering": 7672, "0x7fff5": 619, "470": 1899, "2015": 1181, "03": 204, "ndarray": 12599, "cosine": 5928, "e2": 7289, "dimension": 6801, "ix": 10537, "blas": 4520, "linalg": 11353, "ong": 13144, "projects": 14270, "caused": 5080, "templates": 17179, "such": 16864, "libgit2": 11212, "filesystem": 8350, "130": 878, "repo": 15009, "cwd": 6189, "atty": 3972, "fa": 8090, "206": 1199, "archive": 3712, "download": 7004, "zipfile": 19365, "anyway": 3624, "seek": 15735, "beginning": 4367, "transferred": 17612, "compiled": 5649, "properly": 14287, "tw": 17800, "bs": 4704, "actix": 3169, "greet": 9153, "srv": 16480, "simulate": 16082, "fresh": 8684, "finish": 8382, "outcome": 13366, "route": 15323, "8000": 2562, "110": 778, "117": 807, "118": 810, "124": 854, "129": 867, "131": 881, "arms": 3758, "incompatible": 9998, "wel": 18804, "lf": 11156, "ton": 17507, "toolchains": 17517, "apple": 3669, "darwin": 6318, "opaque": 13183, "001": 104, "1223": 826, "5667": 2113, "788": 2510, "aabb": 3006, "dde": 6415, "eff": 7471, "1020": 722, "3040": 1494, "a0b0": 2906, "c0d0": 4836, "53": 2052, "control": 5848, "flow": 8477, "resized": 15064, "physical": 13785, "resize": 15063, "requested": 15035, "red": 14830, "gb": 8843, "glium": 9022, "ulk": 17989, "ano": 3596, "winit": 18898, "grab": 9109, "untested": 18170, "redraw": 14841, "ting": 17424, "basically": 4263, "milliseconds": 12068, "inst": 10173, "insertable": 10159, "data1": 6325, "data3": 6327, "diesel": 6770, "numeric": 12933, "nullable": 12915, "lb": 11016, "delta": 6569, "cudat": 6132, "ut13": 18310, "operands": 13210, "impl1": 9926, "impl2": 9927, "e0393": 7214, "vg": 18558, "imageops": 9885, "crop": 6045, "kam": 10748, "il": 9848, "\u2139": 19809, "\ufe0f": 20025, "installing": 10179, "\uff62": 20029, "wds": 18773, "\uff63": 20030, "served": 15843, "wd": 18771, "bundle": 4778, "\u2716": 19899, "309": 1501, "pm": 13911, "226": 1257, "ki": 10829, "ansi": 3609, "135": 892, "231": 1267, "loglevel": 11525, "strip": 16722, "161": 977, "overlay": 13398, "964": 2796, "reload": 14944, "402": 1760, "recursive": 14822, "hidden": 9465, "lodash": 11509, "472": 1903, "497": 1945, "born": 4604, "achieve": 3133, "ness": 12656, "upon": 18212, "words": 18953, "array2": 3777, "axis": 4075, "rdwr": 14714, "shm": 15974, "0o": 359, "600": 2223, "cpus": 5979, "four": 8620, "six": 16115, "seven": 15891, "eight": 7494, "nine": 12740, "ten": 17183, "search": 15693, "slices": 16168, "half": 9281, "mid": 12043, "greater": 9149, "ipv4addr": 10370, "eof": 7708, "ipv6addr": 10373, "always": 3477, "definition": 6527, "octets": 13031, "easy": 7369, "jsonrpc": 10692, "params": 13521, "f8": 8077, "a12": 2910, "aef": 3288, "aac": 3007, "fa1": 8092, "b06": 4089, "f00": 8031, "051": 255, "168": 996, "uru": 18263, "spot": 16422, "separate": 15801, "cmath": 5482, "omp": 13123, "r1": 14562, "nr1": 12875, "correspond": 5918, "limits": 11351, "gpu": 9102, "gpus": 9103, "coordinates": 5883, "onto": 13158, "gp": 9089, "stride": 16708, "ceil": 5158, "arrays": 3781, "distances": 6863, "subset": 16828, "pragma": 14077, "potential": 14047, "rough": 15314, "lim": 11346, "ly": 11670, "calculated": 4951, "calculation": 4954, "siz": 16119, "case": 5051, "clipp": 5437, "ay": 4078, "sizes": 16127, "components": 5673, "pointers": 13940, "dim3": 6799, "successful": 16860, "ignore": 9829, "om": 13108, "mitted": 12123, "tyname": 17829, "libclang": 11185, "xlib": 19149, "x11": 19074, "preload": 14123, "clang": 5389, "copied": 5888, "depends": 6601, "assume": 3878, "order": 13257, "uuid": 18341, "models": 12166, "posts": 14044, "queryable": 14521, "implicit": 9942, "itten": 10513, "tiger": 17382, "pclip": 13626, "qclip": 14459, "rclip": 14694, "vert": 18545, "clipoffset": 5436, "ments": 11974, "mvp": 12416, "outt": 13386, "sell": 15766, "s4": 15521, "undef": 18052, "compression": 5683, "algorithms": 3386, "rot": 15306, "li": 11167, "late": 10982, "e0603": 7260, "handlebars": 9300, "rocket": 15266, "contrib": 5846, "wow": 18976, "ignite": 9827, "engines": 7647, "mlen": 12133, "sqlite": 16442, "e0631": 7271, "184": 1055, "162": 982, "163": 983, "164": 986, "165": 988, "176": 1019, "t3": 17056, "t4": 17062, "t5": 17064, "t7": 17067, "serves": 15850, "fun": 8735, "least": 11083, "mnemonic": 12146, "marked": 11801, "consumes": 5811, "wc": 18765, "heap": 9403, "available": 4028, "act": 3151, "cost": 5929, "expanded": 7946, "heuristic": 9448, "hucs": 9625, "closed": 5458, "trees": 17661, "flip": 8453, "mon": 12198, "ous": 13355, "satisfies": 15581, "termin": 17196, "visited": 18611, "already": 3459, "complexity": 5666, "hard": 9321, "ide": 9741, "restore": 15096, "mb": 11892, "leaf": 11070, "older": 13095, "parents": 13531, "backed": 4173, "similar": 16068, "changes": 5254, "packed": 13455, "timestamp": 17414, "looks": 11552, "releases": 14938, "returning": 15140, "reader1": 14736, "reader2": 14737, "n2": 12527, "n3": 12528, "n4": 12530, "multipeek": 12359, "peek": 13657, "sqlx": 16445, "graphql": 9138, "todos": 17483, "ql": 14471, "mutation": 12401, "otherwise": 13335, "yield": 19271, "shouldn": 15995, "separator": 15804, "currency": 6152, "stamp": 16532, "issu": 10428, "ers": 7780, "ed25519": 7419, "inputs": 10149, "issuers": 10433, "unlock": 18122, "locks": 11504, "cats": 5077, "dogs": 6961, "dsl": 7065, "subdir": 16791, "dirs": 6825, "follow": 8536, "8443": 2626, "8100": 2588, "invalidated": 10311, "ecdhe": 7400, "gcm": 8852, "tl": 17440, "sv1": 16941, "engine": 7646, "rethrowing": 15125, "p12": 13433, "storetype": 16666, "pkcs12": 13846, "cer": 5190, "confy": 5750, "gg": 8958, "jobs": 10659, "gv": 9226, "gx": 9229, "yo": 19293, "multiline": 12356, "ndef": 12602, "delimited": 6561, "parser": 13548, "itions": 10499, "startup": 16560, "mytree": 12507, "wtf": 19045, "e0004": 7160, "exhaustive": 7929, "covered": 5960, "2aa4c46cf": 1429, "trilat": 17690, "tril": 17689, "wigle": 18868, "latrange1": 10992, "lat": 10979, "latrange2": 10993, "longrange1": 11543, "longrange2": 11544, "freenet": 8668, "paynet": 13607, "ssid": 16488, "159": 963, "889": 2691, "5081": 2018, "7398": 2437, "finity": 8386, "fin": 8368, "nginx": 12712, "hm": 9507, "doing": 6962, "dereferences": 6619, "assignment": 3868, "notice": 12846, "e0015": 7162, "variants": 18445, "those": 17324, "bar1": 4227, "bar2": 4228, "directly": 6817, "checker": 5287, "dao": 6313, "librust": 11270, "highest": 9473, "further": 8760, "verbose": 18529, "requirement": 15040, "objdump": 12987, "filt": 8362, "trustbox": 17723, "stars": 16545, "organization": 13274, "href": 9589, "uk": 17972, "review": 15154, "mount": 12241, "onload": 13151, "ages": 3324, "persons": 13732, "nim": 12737, "him": 9484, "ari": 3744, "sha": 15914, "mu": 12341, "je": 10607, "ah": 3337, "people": 13681, "seper": 15806, "philosopher": 13771, "han": 9293, "switch": 16972, "forks": 8587, "philosophers": 13772, "increase": 10006, "appends": 3667, "thus": 17361, "holded": 9532, "holder": 9533, "1u8": 1145, "connector": 5761, "443": 1851, "nonblocking": 12802, "unnamed": 18129, "137": 897, "172": 1012, "217": 1239, "lv3": 11654, "x509": 19088, "temporarily": 17181, "unavailable": 18028, "configure": 5737, "indeed": 10018, "rustls": 15476, "anchors": 3537, "webpki": 18787, "roots": 15299, "dns": 6935, "suite": 16879, "negot": 12632, "iated": 9691, "writeln": 18998, "plaintext": 13872, "poly": 13964, "1305": 879, "301": 1486, "permanently": 13709, "charset": 5274, "sat": 15577, "sep": 15797, "2592000": 1335, "220": 1246, "xss": 19208, "protection": 14302, "sa": 15528, "050": 252, "046": 245, "043": 241, "qu": 14498, "equiv": 7735, "adjacent": 3252, "671": 2337, "keys1": 10812, "vals1": 18407, "keys2": 10813, "vals2": 18408, "len1": 11117, "assembly": 3850, "boiler": 4573, "plate": 13883, "protobuf": 14305, "pure": 14385, "war": 18726, "existential": 7934, "protos": 14309, "present": 14133, "uh": 17953, "oh": 13075, "29661": 1420, "declared": 6469, "green": 9151, "blue": 4546, "colored": 5578, "wagger": 18702, "framework": 8651, "schannel": 15624, "liblonlat": 11239, "bng": 4556, "traceback": 17576, "most": 12232, "recent": 14781, "travis": 17649, "urschrei": 18257, "convertbng": 5861, "venv": 18525, "python2": 14441, "nose": 12836, "418": 1796, "importer": 9951, "fq": 8634, "fh": 8304, "cutil": 6181, "dlopen": 6913, "lonlat": 11545, "collected": 5559, "develop": 6701, "setuptools": 15887, "tokenize": 17492, "getattr": 8925, "egg": 7486, "maker": 11736, "sources": 16320, "extension": 8004, "macosx": 11703, "fno": 8517, "strict": 16707, "aliasing": 3391, "dndebug": 6933, "fwrapv": 8787, "wstrict": 19036, "prototypes": 14311, "cellar": 5168, "frameworks": 8652, "lookup": 11553, "lconvertbng": 11039, "llonlat": 11456, "copying": 5893, "pth": 14342, "successfully": 16861, "pthread": 14343, "pic": 13791, "relro": 14949, "fortify": 8603, "fstack": 8713, "protector": 14303, "ssp": 16505, "wformat": 18820, "werror": 18812, "inplace": 10142, "otool": 13341, "lc": 11033, "jan": 10576, "1226": 827, "tool": 17513, "rpath": 15343, "i386": 9669, "intel": 10230, "rdirs": 14705, "ldirs": 11059, "platform": 13884, "252": 1322, "190": 1075, "trick": 17679, "perfect": 13689, "libraries": 11265, "thon": 17323, "alternative": 3469, "distutils": 6871, "workaround": 18956, "osx": 13322, "finalize": 8370, "treatment": 17655, "353": 1608, "construct": 5794, "proper": 14286, "bugs": 4754, "libname": 11249, "scr": 15656, "reversed": 15152, "gn": 9051, "ify": 9819, "sampler": 15561, "nearest": 12612, "logger": 11518, "mytool": 12506, "bf6b4": 4414, "01a6": 179, "725": 2419, "9b": 2862, "475": 1907, "scoped": 15647, "scheduler": 15628, "omitted": 13120, "arbiter": 3705, "tracer": 17577, "1ecc6299db9ec823": 1118, "715": 2410, "snake": 16221, "bling": 4525, "02s": 202, "177": 1022, "bench": 4390, "1i": 1130, "\u4e00": 19941, "\u4e8c": 19946, "\u4e09": 19943, "\u56db": 19963, "\u4e94": 19947, "\u516d": 19954, "\u4e03": 19942, "\u516b": 19952, "\u4e5d": 19945, "\u5341": 19957, "series": 15837, "wave": 18753, "linear": 11365, "handle2": 9298, "xe": 19129, "ube": 17897, "unwrapped": 18184, "mas": 11816, "inter": 10238, "transmit": 17627, "face": 8106, "errs": 7778, "fifo": 8326, "compressed": 5682, "multicast": 12353, "carrier": 5044, "s0": 15512, "119": 813, "2728": 1372, "436": 1840, "332": 1558, "vv": 18682, "rename": 14969, "sieve": 16027, "primes": 14162, "600851475143": 2226, "ith": 10493, "sieved": 16028, "\u0107": 19509, "ncurses": 12595, "getch": 8926, "mvaddstr": 12412, "f5": 8063, "wch": 18768, "yes": 19261, "utf8error": 18321, "sensor": 15790, "spec": 16348, "simul": 16081, "sensors": 15791, "specs": 16365, "according": 3109, "coord": 5880, "elided": 7531, "derived": 6628, "myx": 12519, "docx": 6953, "embedded": 7560, "objpool": 12994, "ole": 13099, "ole10": 13100, "ra069466": 14593, "ha420": 9268, "maint": 11728, "everything": 7867, "pk": 13844, "0x05": 431, "0x06": 432, "eo": 7707, "monitor": 12208, "mouse": 12244, "printer": 14174, "orientation": 13281, "fact": 8112, "much": 12343, "sense": 15788, "mytype": 12510, "idx1": 9773, "idx2": 9774, "d2": 6228, "idxs": 9776, "unbounded": 18030, "6142": 2248, "chat": 5276, "crossbeam": 6049, "cross": 6048, "fire": 8390, "blocking": 4536, "synchronous": 16997, "allows": 3434, "contexts": 5830, "testing": 17235, "rank": 14643, "iomanip": 10339, "nsorts": 12891, "setw": 15888, "placeholders": 13868, "vectors": 18501, "segments": 15748, "adjac": 3249, "diff": 6772, "1633": 984, "dtype": 7083, "ncols": 12593, "nc": 12588, "k2": 10732, "nrows": 12884, "effectively": 7474, "arrange": 3772, "streams": 16698, "shutdown": 16014, "ives": 10530, "0020": 115, "408": 1774, "3435": 1589, "368": 1640, "multiply": 12368, "mi": 12032, "wmi": 18927, "ctypes": 6117, "winnt": 18903, "processor": 14225, "hquery": 9586, "pdh": 13638, "0x25": 490, "b49": 4122, "ce3": 5145, "214748": 1234, "tchar": 17137, "tmain": 17451, "getchar": 8927, "winerror": 18895, "zeroed": 19348, "shape": 15938, "fully": 8734, "refined": 14877, "refine": 14876, "blog": 4541, "ph": 13762, "ili": 9856, "mann": 11765, "staticlib": 16577, "eh": 7490, "personality": 13731, "f80": 8078, "s128": 15514, "redzone": 14849, "mmx": 12144, "sse": 16483, "soft": 16263, "xargo": 19113, "tester": 17233, "toggle": 17486, "hide": 9466, "wb": 18759, "kg": 10825, "del": 6539, "initscr": 10124, "pad": 13462, "stdscr": 16603, "ln": 11468, "endwin": 7637, "ts": 17739, "copyright": 5894, "1997": 1095, "zend": 19345, "techno": 17161, "ies": 9785, "v7": 18375, "1999": 1096, "lsb": 11601, "distr": 6865, "ib": 9693, "utor": 18334, "debian": 6441, "memcached": 11950, "mods": 12184, "fpm": 8630, "msgpack": 12309, "integers": 10221, "individual": 10043, "automatically": 4016, "virtual": 18600, "mult": 12350, "ase": 3815, "x509certificate": 19090, "x500principal": 19087, "regions": 14903, "0xe0000": 670, "0xfffff": 681, "initials": 10118, "floats": 8469, "int4": 10211, "passes": 13572, "media": 11933, "play": 13886, "e0616": 7267, "fives": 8413, "555": 2092, "consumed": 5808, "twos": 17814, "222": 1249, "slot": 16177, "previously": 14151, "violated": 18594, "ning": 12741, "craft": 5989, "scrt1": 15673, "waiting": 18707, "wish": 18917, "introspect": 10302, "lib32": 11173, "libx": 11306, "array1": 3775, "eye": 8024, "alph": 3447, "crates": 5997, "88ac128001ac3a9a": 2693, "bi": 4426, "torrent": 17538, "denied": 6583, "11111": 785, "2222": 1251, "3333": 1561, "oooooooo": 13171, "readline": 14743, "281": 1389, "ia": 9677, "eeded": 7450, "termination": 17202, "footer": 8562, "xenial": 19135, "ox": 13419, "824": 2606, "a0": 2898, "tom": 17499, "bst": 4712, "ant": 3615, "grow": 9175, "filled": 8356, "runs": 15431, "filenames": 8344, "provided": 14315, "debugger": 6445, "nums": 12937, "bsearch": 4706, "plot": 13902, "ote": 13327, "den": 6582, "zt": 19448, "nice": 12720, "mote": 12235, "nar": 12562, "developer": 6702, "abcdef": 3036, "gh": 8963, "sha3": 15922, "keccak256": 10770, "vote": 18648, "alice": 3392, "152": 953, "178": 1025, "106": 744, "218": 1240, "155": 957, "120": 820, "211": 1226, "205": 1197, "868": 2659, "b29": 4106, "2a": 1427, "46a1": 1896, "344": 1590, "27a": 1384, "308": 1500, "629": 2266, "b5": 4126, "a64": 2965, "427": 1820, "subkeys": 16800, "myvalue": 12512, "value2": 18416, "datab": 6330, "rou": 15313, "ght": 8969, "subkey": 16799, "doesnt": 6958, "clippy": 5439, "atomic": 3935, "modify": 12180, "purple": 14388, "orange": 13253, "stdint": 16596, "uint32": 17962, "i1": 9656, "dddd": 6414, "msb": 12300, "0x00": 377, "i2": 9662, "low": 11576, "generated": 8884, "jit": 10632, "decla": 6464, "abstract": 3070, "prepare": 14127, "p15": 13434, "r0": 14561, "0x1": 440, "mcr": 11904, "0xffffffff": 682, "0x0000": 379, "ffff": 8281, "terminate": 17199, "printing": 14177, "858": 2639, "1f6": 1121, "june": 10715, "terminator": 17203, "ator": 3938, "anyhow": 3620, "loads": 11481, "various": 18447, "care": 5038, "anymore": 3622, "real": 14752, "whose": 18854, "underlying": 18057, "accessed": 3100, "wan": 18722, "unless": 18118, "polled": 13959, "specifically": 16357, "effect": 7472, "alternatively": 3470, "ite": 10456, "released": 14937, "soon": 16302, "offers": 13055, "bra": 4651, "inhibit": 10098, "click": 5421, "clicked": 5423, "idle": 9764, "deep": 6503, "glib": 9018, "fmtstr": 8505, "arg0": 3723, "que": 14516, "ques": 14523, "activation": 3163, "sigmoid": 16039, "wid": 18859, "fails": 8131, "classes": 5398, "yew": 19265, "fed": 8237, "hoge": 9529, "someurl": 16291, "repla": 14999, "cen": 5172, "wintrust": 18909, "wtfi": 19047, "pcwsz": 13633, "guid": 9217, "tv": 17795, "wtd": 19044, "sip": 16102, "dw": 7130, "fdw": 8216, "checks": 5292, "revoke": 15160, "stateaction": 16565, "pwsz": 14415, "prov": 14312, "2012": 1178, "processed": 14222, "terminated": 17200, "int128": 10202, "u128": 17858, "0x56": 561, "eaa": 7349, "a9": 2985, "e3": 7294, "0xa0": 648, "1e": 1114, "da9": 6287, "0x36": 506, "fbc": 8175, "c5b": 4885, "e88": 7335, "b67": 4134, "6bb": 2372, "ddb": 6412, "10b": 763, "944": 2778, "uint64": 17965, "online": 13150, "223": 1253, "237": 1287, "profiler": 14248, "crash": 5991, "accumulate": 3120, "supplier": 16911, "successors": 16863, "vector2": 18491, "parenthesis": 13530, "individually": 10044, "groups": 9174, "avoid": 4043, "overlapping": 13396, "pat": 13584, "error1": 7773, "sound": 16313, "instrument": 10197, "absolute": 3067, "clar": 5391, "inet": 10058, "submodule": 16810, "cmt": 5504, "gap": 8824, "liquid": 11396, "tide": 17376, "implementor": 9937, "renderable": 14976, "ulonglong": 17995, "indexing": 10029, "h3to": 9254, "boundary": 4628, "inspe": 10169, "ction": 6097, "h3get": 9250, "resolution": 15066, "h3is": 9252, "pent": 13677, "agon": 3333, "traversal": 17645, "istance": 10436, "hierarchy": 9469, "deg": 6531, "consts": 5804, "maximum": 11879, "wor": 18947, "st": 16511, "pentagon": 13678, "verts": 18551, "bndry": 4555, "h3index": 9251, "ial": 9678, "0x850dab63fffffff": 642, "converts": 5867, "centroid": 5184, "3977": 1690, "0888": 291, "580": 2142, "969": 2800, "indicating": 10035, "whether": 18837, "represents": 15025, "21c": 1243, "cells": 5169, "indexes": 10028, "finding": 8376, "comparable": 5633, "apart": 3632, "ort": 13299, "ion": 10341, "krings": 10892, "h3s": 9253, "resulting": 15110, "study": 16767, "ser": 15820, "lon": 11535, "earth": 7363, "latitude": 10990, "longitude": 11541, "expressed": 7991, "degrees": 6536, "expects": 7957, "radians": 14606, "transparent": 17633, "converted": 5862, "4013": 1759, "596": 2165, "191": 1077, "598": 2169, "8018": 2568, "collection": 5561, "50dab63fffffff": 2021, "6411124": 2285, "4180424": 1797, "862b9bc57ffffff": 2649, "862b9bc": 2648, "fffffff": 8283, "862b9bce": 2650, "7ffeeace1ea8": 2549, "tile": 17385, "calculations": 4955, "copies": 5889, "performs": 13694, "shrink": 16007, "fit": 8409, "tot": 17539, "5650": 2109, "304": 1493, "606": 2235, "377": 1655, "throwing": 17350, "709": 2407, "423": 1812, "800": 2561, "313": 1510, "staged": 16528, "commit": 5615, "committed": 5617, "discard": 6836, "track": 17579, "fr": 8635, "mockers": 12155, "mocked": 12154, "matchers": 11837, "scenario": 15620, "mock": 12153, "rtn": 15391, "lol": 11533, "e0608": 7263, "e0525": 7246, "tx1": 17817, "rx1": 15503, "graceful": 9111, "stopped": 16654, "listening": 11413, "tick": 17369, "consuming": 5812, "useless": 18280, "idents": 9755, "sysdev": 17015, "mapping": 11784, "setter": 15878, "getter": 8944, "psw": 14337, "1777": 1024, "bus": 4786, "devmap": 6713, "regmap": 14913, "idxb": 9775, "cor": 5895, "ris": 15215, "pon": 13972, "dynamically": 7149, "uly": 18002, "regular": 14917, "suit": 16877, "crypt": 6063, "tcontext": 17142, "hcertstore": 9375, "retrieve": 15131, "widestr": 18861, "retrieval": 15130, "oid": 13079, "pb": 13610, "wsz": 19042, "cublas": 6125, "prg": 14153, "distribution": 6868, "sn": 16216, "norm": 12824, "lion": 11393, "legs": 11110, "eat": 7370, "zoo": 19437, "kinds": 10844, "xxx": 19219, "made": 11710, "bump": 4774, "remember": 14960, "appear": 3659, "conservative": 5771, "cst": 6079, "ways": 18758, "haven": 9359, "best": 4404, "very": 18552, "lets": 11138, "instances": 10184, "keeping": 10774, "cleanup": 5410, "grade": 9114, "constraint": 5790, "clarity": 5392, "poisoned": 13944, "inefficient": 10054, "existing": 7935, "strong": 16731, "walkdir": 18717, "e05": 7233, "escapes": 7790, "makes": 11737, "away": 4060, "scalar": 15606, "fizzbuzz": 8423, "1i64": 1133, "fizz": 8422, "buzz": 4798, "buz": 4797, "ipv4network": 10371, "v6": 18373, "ipv6network": 10374, "csv": 6085, "225": 1256, "rustbuild": 15449, "buildbot": 4758, "729": 2422, "rdr": 14710, "nicer": 12721, "handling": 9307, "john": 10662, "e0515": 7245, "referencing": 14868, "\u2935": 19911, "\u2193": 19812, "608": 2240, "derives": 6630, "membership": 11947, "enumerator": 7699, "modifi": 12173, "cation": 5075, "assemblies": 3849, "atures": 3974, "ll": 11444, "conditional": 5723, "compilation": 5647, "stated": 16566, "ya": 19236, "ml": 12132, "disabled": 6830, "cker": 5377, "codegen": 5528, "singleton": 16097, "lstm": 11610, "grad": 9113, "layers": 11009, "shutting": 16015, "tiles": 17387, "dungeon": 7103, "fran": 8653, "piaic": 13789, "redis": 14838, "6379": 2278, "established": 7809, "appro": 3683, "pri": 14154, "w3": 18694, "jquery": 10682, "aaaa": 3000, "yyyy": 19325, "ajax": 3354, "xhr": 19142, "thrown": 17351, "prepend": 14130, "myalias": 12426, "jet": 10619, "soup": 16317, "iz": 10544, "cz": 6210, "validator": 18401, "pkix": 13855, "certpath": 5200, "x509trust": 19099, "relevant": 14939, "verifier": 18534, "hostnames": 9566, "jsse": 10694, "sni": 16233, "initializer": 10113, "laravel": 10963, "authenticatable": 3991, "tin": 17423, "\u00e2": 19488, "\u20ac": 19807, "\u201d": 19781, "ile": 9851, "1054": 743, "clause": 5403, "2930": 1413, "assigned": 3866, "updated": 18197, "pivot": 13834, "relations": 14929, "proxy": 14321, "submit": 16808, "reflection": 14880, "restricted": 15099, "member": 11945, "210": 1223, "factorial": 8115, "combinations": 5593, "permutations": 13718, "1200": 821, "modbus": 12163, "slow": 16179, "tec": 17158, "1001": 701, "unicode": 18078, "segmentation": 15746, "talk": 17101, "graphemes": 9135, "bodies": 4565, "snp": 16240, "gov": 9087, "unordered": 18133, "requests": 15036, "hd": 9381, "retrieving": 15134, "descript": 6647, "ive": 10523, "2u8": 1471, "sspi": 16506, "exchange": 7899, "operations": 13214, "ga": 8804, "gr": 9107, "grptr": 9179, "intersection": 10283, "corners": 5906, "planes": 13876, "normalize": 12828, "depth": 6608, "arb": 3704, "1280": 864, "720": 2417, "rug": 15404, "wasm32": 18741, "emscripten": 7579, "wasi": 18739, "selector": 15759, "specificity": 16359, "selectors": 15761, "usage": 18268, "inferred": 10063, "gettingrusty": 8949, "character": 5265, "decimal": 6456, "bits": 4493, "sixteen": 16116, "ham": 9288, "mad": 11709, "399": 1692, "2348": 1282, "hack": 9273, "ath": 3915, "prefixing": 14118, "underscore": 18058, "digit": 6791, "997": 2848, "precedence": 14090, "trip": 17693, "ary": 3803, "thes": 17291, "izing": 10553, "ambiguous": 3486, "2u32": 1469, "mykernel": 12455, "oldval": 13097, "newval": 12692, "separ": 15798, "shuff": 16008, "ling": 11374, "shuffle": 16009, "permuted": 13720, "seal": 15689, "whitelist": 18845, "march": 11791, "gdb": 8856, "unspecified": 18161, "aborted": 3057, "tesla": 17215, "c20": 4854, "capability": 5014, "overlap": 13394, "65536": 2310, "pitch": 13833, "2147483647": 1235, "alignment": 3399, "multiprocessor": 12370, "49152": 1934, "32768": 1543, "65535": 2309, "negate": 12627, "ray": 14672, "uid": 17955, "hits": 9500, "e0038": 7164, "upstream": 18221, "dc": 6395, "mydomain": 12441, "mypub": 12480, "sen": 15777, "priv": 14185, "forwarded": 8611, "p0": 13427, "503": 2008, "microsoft": 12041, "2006": 1169, "myuser": 12511, "win32": 18878, "lsa": 11600, "logon": 11527, "int32": 10208, "authentication": 3995, "msi": 12312, "0x8000": 636, "4005": 1757, "bins": 4467, "minmax": 12090, "minimum": 12088, "255": 1327, "1023": 724, "bptr": 4648, "jc": 10595, "beg": 4363, "cend": 5173, "bir": 4472, "challenge": 5245, "proposed": 14291, "credential": 6019, "vx": 18686, "daemon": 6294, "numerator": 12932, "denominator": 6586, "ient": 9783, "dereferenced": 6618, "lhs": 11166, "occurence": 13020, "1234": 831, "5678": 2115, "flatmap": 8442, "nested": 12658, "choose": 5324, "adapters": 3192, "crete": 6027, "stores": 16665, "gts": 9195, "badge": 4193, "english": 7648, "stralia": 16679, "offer": 13054, "shopping": 15981, "subaccount": 16784, "googlecommerce": 9081, "trustedstores": 17726, "plus": 13910, "tok": 17488, "floating": 8468, "lexer": 11153, "descent": 6640, "term": 17193, "exp1": 7943, "exp2": 7944, "factor": 8113, "opa": 13181, "ren": 14968, "288": 1402, "evaluate": 7848, "expressions": 7994, "parsed": 13546, "uv1": 18345, "uv2": 18346, "loc": 11485, "cgmath": 5232, "matrix4fv": 11864, "430": 1829, "translate": 17624, "rotate": 15307, "rotation": 15310, "singly": 16098, "newhead": 12678, "corner": 5905, "remains": 14957, "rotated": 15308, "rotating": 15309, "arbitrary": 3706, "steps": 16618, "chip8": 5311, "user32": 18284, "eventually": 7863, "multipart": 12358, "qq": 14480, "asdf": 3814, "\u23ce": 19825, "tenant": 17184, "removing": 14967, "referring": 14874, "e0392": 7213, "reinterpret": 14919, "0xdead": 667, "beef": 4355, "endpoint": 7631, "constructing": 5797, "practica": 14074, "ro": 15252, "cliente": 5428, "jca": 10596, "reflect": 14879, "accessor": 3103, "instance0": 10181, "delegating": 6548, "kp": 10884, "jceks": 10599, "string1": 16711, "string2": 16713, "vn": 18630, "gest": 8921, "compiles": 5652, "spawner": 16341, "code2": 5522, "spi": 16379, "htop": 9607, "wrappers": 18991, "type1": 17833, "type2": 17834, "202": 1187, "records": 14805, "repro": 15026, "736": 2433, "folder": 8532, "iomrascalai": 10340, "085aa": 288, "endef": 7620, "tree1": 17659, "smaller": 16189, "oom": 13168, "recurse": 14819, "pallet": 13494, "pal": 13489, "ment": 11971, "who": 18850, "followers": 8539, "score": 15651, "snip": 16234, "ntdll": 12902, "hmodule": 9517, "0x00007ff": 416, "5i": 2200, "somewhere": 16295, "mnt": 12148, "hg": 9456, "365": 1635, "csr": 6076, "150": 947, "storepass": 16664, "ulong": 17994, "212": 1228, "477": 1909, "107374": 747, "1819": 1049, "dbo": 6388, "osgi": 13314, "ien": 9781, "ecker": 7407, "downloads": 7008, "mssql": 12319, "spring": 16427, "roo": 15292, "838": 2620, "packaging": 13454, "jpa": 10678, "automatic": 4015, "license": 11315, "mvc": 12414, "ium": 10519, "controller": 5850, "analy": 3521, "ze": 19340, "hm1": 9508, "swapping": 16954, "maps": 11786, "sake": 15540, "complex": 5664, "reality": 14754, "dumped": 7098, "yw": 19321, "int3": 10207, "input1": 10144, "input2": 10145, "locs": 11506, "rob": 15255, "t100": 17039, "zr": 19441, "iterators": 10485, "468": 1894, "483": 1920, "979": 2814, "011": 160, "285": 1399, "348": 1597, "8118": 2590, "557": 2096, "235": 1283, "81": 2587, "587": 2151, "198": 1090, "575": 2131, "configurations": 5735, "lldb": 11448, "pick": 13792, "parentheses": 13529, "languages": 10956, "lk": 11437, "vscode": 18663, "cn": 5505, "globals": 9028, "locals": 11491, "pid": 13802, "processes": 14223, "1000000000": 693, "589": 2154, "358": 1614, "4c": 1954, "5b": 2178, "el": 7504, "patient": 13594, "handlers": 9305, "sparkle": 16337, "heart": 9408, "catalog": 5069, "figure": 8329, "policies": 13953, "<": 2886, "nofollow": 12789, "noreferrer": 12822, ">": 2888, "efficient": 7478, "duct": 7088, "productive": 14239, "statics": 16578, "d33tah": 6235, "hygiene": 9648, "angle": 3567, "rid": 15195, "angles": 3569, "newvalue": 12693, "pt": 14339, "ptsname": 14356, "pty": 14359, "bish": 4478, "e00": 7158, "supplied": 16910, "explanations": 7971, "utilities": 18326, "pipeline": 13826, "semicolon": 15774, "cortex": 5926, "semihosting": 15775, "hal": 9280, "stm32f4xx": 16646, "stm32f407": 16644, "hprintln": 9584, "exti": 8012, "gpio": 9093, "gpioe": 9096, "pe0": 13645, "peripherals": 13704, "fg": 8301, "nvic": 12951, "exti0": 8013, "trigger": 17686, "fall": 8140, "pending": 13674, "rcc": 14689, "ap": 3628, "important": 9948, "throws": 17352, "e0423": 7220, "refer": 14863, "ldd": 11057, "concrete": 5713, "substring": 16839, "dnf": 6934, "history": 9497, "nn": 12766, "timer": 17404, "interval": 10287, "aer": 3291, "lan": 10944, "overflowed": 13391, "liballoc": 11175, "755": 2458, "noisy": 12793, "aux": 4023, "mergesort": 11986, "sysv": 17027, "stripped": 16724, "97f": 2817, "2d36": 1440, "c9": 4905, "cf8": 5216, "migrate": 12054, "drivers": 7040, "scores": 15653, "subslice": 16830, "smol": 16203, "alto": 3475, "stereo": 16620, "ami": 3498, "mp3": 12270, "shit": 15970, "opens": 13198, "cant": 5009, "tex": 17248, "velocity": 18514, "el3": 7508, "globl": 9031, "mrs": 12296, "x0": 19064, "train": 17594, "bitand": 4480, "hr": 9587, "123456": 834, "sslsf": 16500, "shapes": 15943, "circle": 5360, "square": 16454, "matcher": 11836, "color3f": 5577, "exclude": 7902, "girara": 8990, "statusbar": 16584, "irara": 10378, "text2": 17252, "mongodb": 12205, "27017": 1368, "mydb": 12440, "books": 4587, "prod": 14230, "bigint": 4442, "50000000": 2002, "processing": 14224, "zen": 19344, "367": 1638, "3639": 1633, "797": 2519, "577": 2134, "43s": 1844, "448": 1861, "41s": 1806, "495": 1941, "12s": 875, "387": 1673, "766": 2471, "977": 2811, "249": 1313, "257": 1332, "45s": 1884, "smt": 16209, "906": 2732, "927": 2762, "1s": 1139, "187": 1061, "429": 1822, "785": 2505, "003": 118, "376": 1653, "259": 1334, "055": 257, "752": 2455, "4437": 1852, "570": 2122, "196": 1086, "535": 2059, "perf": 13688, "positions": 14026, "structure": 16753, "file1": 8334, "file2": 8335, "ids": 9769, "tries": 17684, "opening": 13194, "nu": 12911, "complicated": 5669, "newtype": 12691, "wrapped": 18987, "neg": 12626, "recognize": 14796, "python3": 14442, "snaps": 16225, "occurred": 13021, "vi": 18563, "364": 1634, "except": 7895, "boot": 4597, "spam": 16332, "eggs": 7487, "defin": 6521, "itely": 10457, "told": 17497, "revert": 15153, "existed": 7932, "value1": 18413, "e0502": 7237, "useful": 18278, "dbf": 6381, "attachable": 3944, "ch19": 5238, "advanced": 3274, "iterable": 10472, "e0107": 7173, "coin": 5546, "dat": 6322, "shorter": 15987, "watch": 18747, "3030": 1489, "404": 1764, "elastic": 7514, "lam": 10939, "cacher": 4935, "expensive": 7960, "strm": 16727, "slc": 16149, "rxd": 15505, "spawning": 16342, "succeeded": 16855, "tx2": 17818, "tensorflow": 17189, "ada": 3185, "optimizer": 13234, "imize": 9910, "experimental": 7962, "training": 17596, "des": 6633, "00000000": 20, "r16": 14571, "tim": 17389, "ess": 7802, "sorting": 16309, "pseudo": 14329, "measure": 11923, "timespec": 17413, "sec": 15704, "nsec": 12888, "cputime": 5980, "gettime": 8946, "taken": 17095, "authenticate": 3992, "forms": 8598, "reduction": 14845, "giving": 9005, "reduced": 14843, "hel": 9419, "diagonal": 6747, "substitution": 16834, "uces": 17909, "mutability": 12393, "cond": 5718, "0b11111111": 321, "0000000000000000": 28, "0b0": 309, "11111111": 786, "0000000": 19, "1111": 784, "edi": 7430, "mov": 12245, "dil": 6797, "rax": 14671, "shl": 15971, "dword": 7138, "rsp": 15369, "eax": 7373, "rcx": 14696, "cgi": 5231, "cbs": 5101, "subscribe": 16819, "callbacks": 4966, "fref": 8674, "lvalue": 11658, "iterator1": 10483, "iterator2": 10484, "first1": 8401, "last1": 10974, "first2": 8402, "offsets": 13064, "scatter": 15618, "nonzero": 12811, "corresponding": 5919, "filling": 8358, "ho": 9522, "advance": 3273, "particle": 13560, "bx": 4806, "acc2": 3086, "saved": 15588, "acceleration": 3092, "accordingly": 3110, "588854768": 2153, "32764": 1541, "267": 1355, "264": 1349, "228": 1259, "247": 1311, "265": 1350, "260": 1338, "nor": 12820, "dx": 7140, "r3": 14577, "mass": 11824, "dt": 7070, "vel": 18511, "po": 13924, "realm": 14757, "identities": 9753, "jboss": 10593, "mykey": 12456, "dp": 7014, "2i32": 1456, "struct2": 16744, "rltk": 15233, "vga": 18560, "ecs": 7414, "gamedata": 8816, "x16": 19075, "house": 9574, "rooms": 15295, "obble": 12978, "gloink": 9033, "paho": 13477, "topic": 17524, "qos": 14478, "msgs": 12310, "230": 1266, "e0505": 7239, "srand": 16461, "timing": 17421, "cuh": 6136, "16384": 985, "ofstream": 13068, "hold": 9531, "rr": 15352, "mur": 12380, "regs": 14916, "instruction": 10194, "02x": 203, "item1": 10459, "item2": 10460, "item3": 10461, "item4": 10462, "item5": 10463, "descr": 6641, "serv": 15841, "pol": 13950, "recoverable": 14807, "proceed": 14217, "constraints": 5793, "tmf": 17455, "finally": 8371, "cacert": 4928, "ificate": 9802, "trusts": 17732, "management": 11750, "mal": 11739, "formed": 8597, "ecx": 7416, "boo": 4582, "e0281": 7194, "e0223": 7184, "succes": 16857, "ures": 18233, "structures": 16754, "integral": 10223, "receives": 14779, "irrelevant": 10390, "lex": 11151, "student": 16763, "menu": 11975, "glyph": 9043, "star": 16543, "submenu": 16806, "mer": 11978, "it2": 10448, "seen": 15740, "avoids": 4045, "having": 9360, "wanted": 18724, "sch": 15623, "retval": 15143, "nalgebra": 12543, "mmc": 12139, "manipulation": 11764, "mk": 12128, "loading": 11480, "qemu": 14464, "qwerty": 14556, "invert": 10315, "player1": 13888, "pixels": 13839, "vbo": 18454, "0k": 346, "ans": 3605, "ug": 17948, "aca": 3082, "0e": 329, "kw": 10911, "4b": 1951, "uy": 18352, "zn": 19378, "j6": 10564, "nx": 12959, "ur": 18224, "6667": 2329, "3c": 1708, "mm": 12134, "nf": 12703, "e9": 7339, "oo": 13161, "p8": 13445, "qa": 14457, "va": 18380, "uu": 18340, "h4": 9255, "wg": 18821, "mc": 11902, "c3": 4866, "fw": 8784, "raise": 14618, "confusion": 5749, "distinct": 6864, "meaning": 11919, "bitflags": 4487, "0u32": 369, "bitflag": 4486, "operators": 13216, "eg": 7483, "additions": 3217, "forward": 8609, "bitor": 4490, "generally": 8882, "impls": 9946, "comparing": 5638, "comparison": 5639, "typ": 17830, "aving": 4040, "convenient": 5855, "cip": 5355, "urnaments": 18253, "bw": 4804, "joe": 10660, "ugh": 17949, "cry": 6061, "pairs": 13487, "awkward": 4064, "simpler": 16073, "solution": 16272, "presen": 14132, "shows": 16005, "apostrop": 3651, "quotations": 14544, "jo": 10655, "phrase": 13781, "libstd": 11286, "pipes": 13828, "stage": 16525, "testname": 17238, "stage2": 16527, "constrained": 5788, "predicates": 14102, "e0207": 7181, "smallest": 16190, "cron": 6043, "zs": 19444, "lay": 11005, "ich": 9716, "wa": 18699, "branch": 4661, "orig": 13283, "matching": 11839, "leads": 11069, "lead": 11066, "statuses": 16585, "sco": 15643, "pes": 13736, "cloudwatch": 5470, "cloud": 5467, "metric": 12017, "buckets": 4732, "alltokens": 3437, "tokvecs": 17496, "newtokens": 12689, "bracket": 4654, "em": 7552, "added": 3208, "clipboard": 5435, "dfsg1": 6731, "ubuntu1": 17902, "mps": 12283, "topics": 17527, "topic1": 17525, "topic2": 17526, "visitor": 18613, "duplicate": 7110, "achar": 3131, "alternatives": 3471, "alts": 3476, "tried": 17683, "escap": 7787, "backslash": 4183, "tera": 17192, "rendered": 14977, "signup": 16056, "158": 960, "0x80": 634, "0x100": 442, "0x200": 482, "0x400": 513, "0x800": 635, "0x1000": 443, "0x2000": 483, "0x4000": 514, "0x10000": 444, "0x2": 480, "0x80000": 637, "generics": 8892, "udp": 17934, "amt": 3512, "strace": 16676, "dg": 6732, "cloexec": 5444, "ipproto": 10363, "family": 8147, "htons": 9606, "recvfrom": 14825, "etlin": 7828, "mcve": 11905, "newsize": 12684, "t09": 17036, "569": 2119, "invitation": 10316, "dk": 6899, "preferred": 14116, "ore": 13264, "invitations": 10317, "mail": 11720, "a66": 2967, "b53": 4129, "abbb": 3022, "daf": 6295, "2014": 1180, "925": 2760, "338": 1572, "dup": 7104, "unbox": 18031, "e0225": 7185, "ensi": 7663, "ull": 17990, "customer": 6172, "middleware": 12046, "picture": 13801, "give": 8999, "ind": 10016, "icate": 9709, "usive": 18299, "ledger": 11096, "ioctl": 10335, "folders": 8533, "rj": 15220, "x04": 19069, "fm": 8493, "testcontract": 17231, "float2": 8460, "float4": 8465, "lived": 11430, "e0716": 7275, "freed": 8664, "ef": 7462, "peekable": 13658, "remainder": 14955, "doit": 6963, "jh": 10623, "tq": 17567, "242": 1301, "880": 2673, "dotenv": 6984, "services": 15852, "represent": 15020, "recs": 14810, "2021": 1189, "getopts": 8937, "cou": 5931, "init2": 10104, "spreadsheet": 16426, "dv": 7123, "138": 899, "186": 1059, "234": 1275, "266": 1351, "298": 1423, "314": 1511, "346": 1593, "362": 1630, "378": 1656, "394": 1686, "410": 1784, "426": 1816, "458": 1882, "474": 1905, "490": 1929, "506": 2014, "e06": 7258, "importing": 9952, "realms": 14758, "auctions": 3978, "auction": 3977, "uction": 17922, "nodeid": 12780, "i128": 9659, "merged": 11984, "nid": 12727, "curve": 6165, "secp": 15710, "der": 6614, "ress": 15090, "octocat": 13034, "agent": 3321, "grpcio": 9178, "succeed": 16854, "identical": 9746, "boxing": 4641, "e0618": 7268, "letra": 11137, "vocales": 18636, "size1": 16121, "size2": 16123, "endfor": 7622, "ol": 13090, "ymd": 19283, "year": 19254, "month": 12219, "day": 6365, "partition": 13563, "1u": 1142, "genrsa": 8901, "days": 6367, "tm": 17450, "equals": 7733, "careful": 5039, "usually": 18308, "\u201c": 19780, "stdweb": 16604, "cloning": 5454, "topla": 17528, "8u32": 2716, "ces": 5205, "smtp": 16211, "starttls": 16559, "smtps": 16212, "authenticator": 3996, "protected": 14301, "comm": 5602, "unic": 18076, "marshal": 11811, "smtpssl": 16213, "machines": 11699, "jdk": 10603, "importkeystore": 9953, "srckeystore": 16467, "destkeystore": 6669, "appearance": 3660, "hair": 9279, "interned": 10263, "rmp": 15241, "conc": 5698, "concatenate": 5704, "replaced": 15001, "future01": 8770, "ystem": 19312, "targets": 17111, "arn": 3765, "somnia": 16296, "ler": 11128, "1021": 723, "onexit": 13141, "283": 1396, "digit1": 6792, "brevity": 4676, "press": 14141, "fileno": 8345, "inserts": 10164, "behavior": 4372, "under": 18054, "determine": 6694, "reachable": 14721, "serializer": 15832, "preset": 14138, "sfackler": 15901, "searched": 15694, "grpc": 9177, "kafka": 10741, "tonic": 17510, "bridge": 4680, "9092": 2735, "latest": 10986, "publication": 14367, "e0381": 7207, "e0384": 7209, "twice": 17805, "mdbook": 11911, "rwlock": 15499, "adri": 3269, "expiration": 7964, "aggregate": 3328, "agg": 3325, "comit": 5601, "ted": 17163, "mark": 11799, "new2": 12672, "camel": 4985, "pieces": 13806, "rotational": 15312, "sym": 16978, "shifted": 15962, "\u00b0": 19472, "respectively": 15079, "t10": 17038, "rowidx": 15335, "moment": 12196, "accel": 3089, "locities": 11498, "powf": 14059, "maths": 11849, "entire": 7677, "r2d2": 14576, "untagged": 18168, "cmk": 5493, "zyle": 19457, "z1": 19329, "zylinder": 19458, "ap31": 3629, "xp": 19191, "linder": 11356, "ein": 7495, "zel": 19342, "ung": 18073, "z2": 19330, "lu": 11630, "\u00e4": 19490, "z3": 19331, "uf": 17943, "\u00fc": 19505, "approach": 3684, "struct1": 16743, "ptr1": 14350, "pect": 13651, "vector4": 18496, "cde": 5129, "refs": 14888, "zn6thrust6system4cuda6detail6detail": 19426, "23launch": 1296, "ins2": 10154, "18for": 1071, "ins": 10152, "12zip": 876, "5tuple": 2212, "6detail15normal": 2379, "10device": 765, "eeeesd": 7456, "9null": 2875, "ese": 7792, "eee": 7451, "ej": 7499, "30device": 1502, "i10my": 9658, "eeee": 7453, "ev": 7843, "zn6thrust": 19424, "6detail": 2378, "ins0": 10153, "grep": 9158, "cut": 6179, "0u64": 370, "5u64": 2215, "2u64": 1470, "destroyed": 6671, "reach": 14720, "\u2014": 19777, "nickel": 12724, "bson": 4709, "mongo": 12204, "firstname": 8405, "lastname": 10977, "coll": 5553, "standalone": 16538, "utilize": 18328, "appears": 3661, "maven": 11874, "pom": 13971, "xsi": 19206, "2001": 1161, "xsd": 19205, "rst": 15375, "artifact": 3794, "fuse": 8761, "repositories": 15017, "community": 5625, "snapshots": 16229, "boss": 4616, "ear": 7360, "repos": 15016, "itories": 10509, "cxf": 6193, "redhat": 14834, "1084": 755, "surefire": 16924, "bom": 4578, "defining": 6525, "fabric": 8100, "snapshot": 16226, "fabric8": 8101, "profiles": 14249, "jaxws": 10590, "084": 286, "frontend": 8699, "transports": 17636, "slf4j": 16160, "felix": 8248, "instructions": 10195, "annotation": 3590, "interceptor": 10244, "phase": 13764, "aries": 3746, "executions": 7917, "classpath": 5402, "goals": 9060, "goal": 9059, "xmlsoap": 19161, "tns": 17472, "wsu": 19040, "wss": 19030, "2004": 1164, "200401": 1165, "wssecurity": 19034, "utility": 18327, "wsp": 19028, "2007": 1170, "addressing": 3229, "securitypolicy": 15726, "200702": 1171, "wsaw": 19017, "2005": 1167, "qualified": 14508, "restri": 15097, "greeter": 9154, "asymmetric": 3889, "saml": 15550, "exactly": 7880, "initiator": 10120, "issued": 10431, "samlv2": 15554, "lax": 11004, "ire": 10381, "basic256": 4262, "wss11": 19031, "thumbprint": 17357, "trust13": 17722, "entropy": 7685, "relates": 14927, "wsrm": 19029, "nowledge": 12864, "myservice": 12488, "encryption": 7611, "crypto": 6065, "lin": 11352, "merlin": 11988, "executing": 7915, "codehaus": 5529, "springframework": 16429, "excl": 7900, "ions": 10342, "exclusion": 7904, "servlet": 15854, "aval": 4029, "commons": 5619, "beans": 4342, "mv": 12411, "wheels": 18832, "seat": 15702, "belt": 4386, "mot": 12234, "cycle": 6201, "met": 12001, "vehicle": 18510, "cons": 5765, "unconstrained": 18046, "lst": 11609, "texts": 17256, "nll": 12758, "generators": 8890, "resume": 15113, "3i32": 1735, "multispace0": 12373, "hp": 9582, "gold": 9067, "e0070": 7169, "hand": 9294, "xxxxx": 19221, "units": 18109, "mine": 12074, "labels": 10925, "wincon": 18882, "errhandlingapi": 7766, "proces": 14219, "winbase": 18881, "e0621": 7269, "preds": 14106, "cmds": 5491, "lh": 11165, "manipulate": 11763, "prefer": 14113, "views": 18586, "herp": 9447, "derp": 6632, "succesfully": 16858, "observer": 13003, "share": 15947, "configurable": 5733, "rg": 15175, "chip": 5310, "colum": 5584, "vid": 18571, "sfml": 15903, "graphics": 9137, "good": 9074, "208": 1206, "215": 1237, "originally": 13286, "shadows": 15933, "uppercase": 18215, "shadow": 15931, "shapefile": 15942, "polyline": 13968, "bbox": 4305, "320": 1525, "998": 2850, "806": 2573, "289": 1403, "2036": 1193, "335": 1567, "954": 2786, "923": 2758, "432": 1833, "939": 2772, "971": 2807, "439": 1843, "195": 1084, "750": 2454, "1696": 1002, "649": 2298, "486": 1923, "484": 1921, "244": 1306, "524": 2045, "460": 1886, "727": 2421, "decorator": 6488, "380": 1661, "layouts": 11011, "hbs": 9372, "pages": 13473, "doctype": 6948, "fairing": 8135, "2c3549fe3169": 1433, "1014": 718, "rwxr": 15501, "xr": 19199, "10383380": 735, "feb": 8231, "rls": 15232, "rustdoc": 15457, "rustfmt": 15462, "803": 2570, "interpreter": 10274, "toolchain": 17516, "musl": 12386, "gate": 8832, "0xf": 674, "7f4": 2537, "libdl": 11196, "f77": 8074, "librt": 11269, "libpthread": 11262, "libgcc": 11209, "libm": 11240, "nano": 12558, "xz": 19228, "xutils": 19213, "recommends": 14800, "rf": 15168, "lists": 11418, "2j": 1458, "pkgconfig": 13852, "tar": 17108, "cflags": 5226, "156": 958, "da6": 6284, "ff8": 8274, "execve": 7919, "0xff": 678, "dd8": 6408, "vars": 18449, "enoent": 7655, "uname": 18021, "linux32": 11389, "triple": 17694, "minimal": 12086, "memmap": 11958, "several": 15893, "fsize": 8710, "upsert": 18220, "competitions": 5645, "dr": 7024, "uw": 18347, "competition": 5644, "conns": 5763, "deserialized": 6656, "sli": 16161, "horizontal": 9558, "vertical": 18549, "slide": 16170, "multiplies": 12367, "hv": 9642, "populate": 13996, "deprecated": 6605, "section": 15719, "cairo": 4944, "gio": 8989, "initialization": 10110, "activate": 3161, "visual": 18616, "paint": 13478, "rgba": 15178, "gdk": 8860, "disconnect": 6838, "trials": 17669, "imut": 9966, "accessing": 3102, "gives": 9004, "mutating": 12400, "thought": 17328, "mutated": 12398, "unhandled": 18074, "0x76": 581, "sadd": 15532, "lowest": 11579, "cet": 5210, "00000063": 64, "153": 955, "perty": 13735, "sour": 16318, "springfox": 16428, "wagger2": 18703, "826": 2608, "sphere": 16376, "preemptive": 14110, "autowired": 4022, "credentials": 6020, "encryptor": 7612, "instanceof": 10183, "enclosing": 7600, "lexical": 11154, "specification": 16358, "dust": 7119, "settle": 15882, "ood": 13162, "combination": 5592, "tabulate": 17079, "comma": 5603, "cerr": 5191, "major": 11732, "ified": 9805, "6000": 2224, "ifdef": 9794, "fdat": 8203, "constructors": 5802, "taking": 17099, "via": 18564, "abs": 3064, "perimeter": 13697, "pjsip": 13843, "uce": 17906, "b32": 4112, "f0": 8030, "a4a": 2950, "3e": 1726, "symbol": 16980, "uninstall": 18092, "noreturn": 12823, "jump": 10711, "volatile": 18641, "movq": 12262, "rdx": 14715, "jmp": 10645, "rbp": 14680, "qword": 14557, "rdi": 14704, "rsi": 15366, "nop": 12817, "lea": 11065, "rip": 15214, "gotpcrel": 9086, "esi": 7794, "ud2": 17924, "att": 3942, "builtin": 4768, "goto": 9085, "pulse": 14376, "waker": 18712, "uristic": 18241, "233": 1273, "approx": 3689, "eps": 7725, "myprint": 12474, "yyy": 19324, "\u2714": 19898, "berg": 4398, "cidr": 5342, "e0061": 7167, "maxi": 11877, "evt": 7876, "verse": 18540, "bottles": 4621, "buy": 4796, "tle": 17442, "song": 16298, "n7": 12533, "n6": 12532, "homedir": 9543, "ssh": 16486, "2usize": 1472, "stops": 16655, "doubling": 6997, "strs": 16736, "j1": 10561, "beta": 4406, "rusqlite": 15438, "pyfunction": 14429, "gil": 8980, "acquire": 3147, "happened": 9316, "sentence": 15794, "loo": 11547, "pr": 14072, "rtsp": 15396, "753": 2456, "cbor": 5099, "sd": 15677, "epoll": 7721, "writable": 18996, "occupied": 13016, "occ": 13013, "vacant": 18382, "vac": 18381, "float3": 8461, "thiserror": 17315, "uck": 17916, "gauss": 8840, "memset": 11965, "dave": 6362, "ended": 7619, "5864": 2150, "9223372036854775": 2756, "807": 2574, "est": 7807, "853": 2635, "4600": 1887, "animation": 3577, "2368": 1285, "0700": 275, "006": 128, "queued": 14529, "007": 131, "0080": 136, "1335": 889, "9000": 2725, "binder": 4459, "picker": 13794, "egl": 7488, "ulation": 17981, "0xea": 671, "6449": 2291, "adfb": 3244, "10000": 688, "kernels": 10785, "operate": 13211, "d2h": 6231, "foos": 8560, "brainfuck": 4659, "androidbrowserhelper": 3552, "birthday": 4476, "replacement": 15002, "0x7ffd0c9": 611, "b77": 4145, "b78": 4147, "0x7ffd0c9b7": 612, "568": 2116, "0x7": 576, "charlie": 5272, "floatv": 8470, "proj": 14263, "assoc": 3872, "optionals": 13242, "placeholder": 13867, "rsync": 15381, "av": 4024, "school": 15634, "checkbox": 5285, "wnd": 18930, "widgets": 18864, "du": 7084, "msys64": 12328, "bywayboy": 4821, "518": 2036, "5f4": 2193, "hwnd": 9644, "201": 1175, "pyxel": 14444, "pyxels": 14445, "putter": 14401, "xel": 19132, "ter": 17191, "tuples": 17779, "nvec": 12950, "guards": 9208, "numthreads": 12939, "adjust": 3254, "coun": 5934, "bools": 4594, "excluded": 7903, "ach": 3130, "lesser": 11131, "matter": 11867, "elimin": 7533, "ated": 3906, "inserting": 10162, "prefixs": 14119, "uniper": 18098, "safety": 15536, "10f": 767, "20f": 1214, "bencher": 4391, "expe": 7952, "cted": 6092, "registered": 14905, "mix": 12124, "markdown": 11800, "converter": 5863, "promise": 14274, "compat": 5640, "ume": 18010, "compat01as03": 5641, "legacy": 11108, "wiki": 18869, "jp": 10677, "preview": 14149, "435": 1839, "edd": 7422, "089": 292, "eae3437df": 7356, "alphabet": 3450, "157": 959, "49146": 1933, "monotonic": 12212, "otonic": 13340, "345": 1592, "hashset": 9348, "dos": 6979, "inappropriate": 9976, "truncate": 17716, "benchmarking": 4394, "conflict": 5744, "jpeg": 10679, "dont": 6975, "feat": 8227, "formats": 8591, "gif": 8975, "mini": 12081, "vtable": 18672, "playpen": 13894, "meters": 12010, "sqlite3": 16443, "prep": 14126, "pz": 14446, "tran": 17605, "signtool": 16054, "pfx": 13758, "verisign": 18536, "scripts": 15671, "timstamp": 17422, "signals": 16042, "delimiter": 6562, "sorts": 16310, "affect": 3302, "test123": 17220, "bean": 4341, "higher": 9472, "itr": 10510, "facade": 8104, "negative": 12629, "accu": 3117, "1u32": 1143, "iron": 10387, "typemap": 17840, "authorize": 4003, "unauthorized": 18027, "hs": 9593, "awesome": 4062, "cookie": 5874, "openvpn": 13203, "deallocate": 6435, "diffs": 6786, "rv": 15492, "reactor": 14726, "cnn": 5509, "cookies": 5875, "years": 19255, "months": 12221, "columns": 5587, "clauses": 5404, "assetlinks": 3860, "mulf": 12346, "mulfed": 12347, "normalized": 12829, "gimme": 8983, "0f32": 337, "recip": 14788, "307": 1498, "point3d": 13936, "stdc": 16590, "maxn": 11882, "divisor": 6890, "key3": 10793, "value3": 18417, "glutin": 9042, "exiting": 7940, "controllers": 5851, "pseudocode": 14330, "indexable": 10025, "piston": 13830, "transformed": 17617, "019": 178, "coo": 5870, "705": 2404, "882": 2676, "717": 2412, "che": 5279, "tris": 17696, "esc": 7786, "polygon": 13966, "piston2d": 13831, "ellipse": 7538, "0xb8000": 654, "itself": 10512, "ifies": 9808, "listeners": 11411, "internals": 10262, "gar": 8825, "bage": 4200, "540": 2068, "proof": 14282, "optin": 13235, "main2": 11724, "repeating": 14994, "gnuplot": 9057, "axes": 4072, "distributions": 6869, "fid": 8314, "border": 4602, "unset": 18155, "fl": 8427, "gmp": 9048, "ds1": 7059, "ds2": 7060, "hundred": 9635, "mely": 11943, "analyzer": 3525, "yields": 19274, "entered": 7671, "street": 16699, "city": 5370, "downing": 7003, "london": 11536, "mysql": 12492, "flo": 8458, "semaphore": 15770, "lik": 11343, "interacting": 10240, "5i32": 2201, "sensitive": 15789, "ti": 17364, "e0261": 7188, "res2": 15050, "res1": 15049, "5n": 2204, "guide": 9218, "vulkano": 18680, "shaders": 15930, "tomaka": 17500, "serious": 15838, "coerce": 5540, "merchant": 11980, "cart": 5047, "products": 14240, "cents": 5187, "gu": 9200, "ava": 4025, "30000": 1481, "ak": 3356, "market": 11805, "opposite": 13219, "user1": 18282, "harfbuzz": 9326, "maps4print": 11787, "azul": 4083, "398": 1691, "457": 1879, "4d7": 1962, "bb1": 4290, "rerun": 15047, "bu": 4728, "zz": 19459, "studio": 16766, "vcvars": 18463, "rew": 15163, "checkouts": 5290, "943": 2777, "167": 992, "687": 2358, "unsynchronized": 18166, "vss": 18669, "bat": 4268, "fft": 8297, "t13": 17046, "ssw0rd": 16510, "kstore": 10899, "tomcat": 17502, "httpbin": 9617, "ically": 9705, "tamp": 17102, "pyo3": 14434, "exceptions": 7897, "leaks": 11074, "uts": 18337, "directive": 6816, "macmato": 11701, "air": 3349, "kula": 10906, "a0f": 2908, "0a": 304, "0800": 285, "xm": 19151, "tre": 17652, "wt": 19043, "nvidia": 12952, "computing": 5695, "toolkit": 17518, "inl": 10131, "996": 2847, "strerror": 16701, "bulk": 4771, "forcing": 8574, "performance": 13692, "tho": 17322, "2013": 1179, "instantiation": 10189, "zer": 19346, "contiguous": 5832, "skipped": 16136, "rather": 14661, "lifetimes": 11335, "sister": 16105, "brother": 4693, "nephew": 12650, "trail": 17591, "qml": 14474, "laf": 10931, "usa": 18266, "7d": 2530, "identification": 9748, "cxx": 6194, "detecting": 6690, "abi": 3048, "dox": 7013, "configuring": 5739, "ff7": 8273, "lone": 11537, "renamed": 14970, "procedure": 14216, "contained": 5817, "319": 1518, "351": 1605, "epsilon": 7726, "margin": 11794, "almost": 3441, "prec": 14085, "iw": 10535, "lete": 11134, "adap": 3187, "histogram": 9495, "summation": 16892, "locations": 11495, "hist": 9492, "nthreads": 12906, "rnd": 15247, "rind": 15208, "nbin": 12582, "randval": 14637, "atom": 3934, "1026": 727, "126": 860, "msec": 12305, "207": 1204, "hist2": 9493, "hist3": 9494, "\u00a5": 19466, "pascal": 13569, "x1b": 19076, "bold": 4576, "1m": 1137, "und": 18050, "foundation": 8618, "alexcrichton": 3379, "notes": 12844, "0a35038f75765ae4": 306, "510": 2024, "forbidden": 8569, "fb7": 8169, "0d": 327, "acd5": 3124, "ut": 18309, "ually": 17892, "design": 6659, "datelike": 6356, "goodbye": 9075, "yeah": 19253, "haha": 9275, "untitled": 18173, "fulfill": 8729, "funt": 8757, "practice": 14075, "simpli": 16074, "fication": 8313, "imagine": 9889, "datatype": 6352, "activated": 3162, "computations": 5689, "cname": 5506, "brush": 4702, "wndclassw": 18932, "lpfn": 11587, "cls": 5471, "idc": 9737, "hbrush": 9371, "lpsz": 11588, "fri": 8688, "week": 18797, "monday": 12201, "tuesday": 17769, "wed": 18794, "nes": 12655, "urs": 18256, "frid": 8689, "satur": 15583, "sunday": 16898, "weekday": 18798, "bing": 4464, "ureq": 18232, "isahc": 10398, "timed": 17399, "balances": 4209, "kitty": 10854, "ral": 14622, "substrate": 16836, "substratekitties": 16837, "strct": 16688, "\u2190": 19810, "art": 3790, "wbem": 18761, "ntdef": 12901, "hresult": 9590, "interfaces": 10250, "tbl": 17123, "wag": 18701, "sounds": 16315, "\u2019": 19779, "persistent": 13726, "e0478": 7230, "instantiated": 10187, "pixbuf": 13837, "subclass": 16787, "readwrite": 14749, "renderers": 14979, "mixed": 12125, "combo": 5597, "350": 1602, "ilinear": 9859, "human": 9632, "games": 8819, "players": 13891, "invol": 10328, "hint": 9488, "cel": 5160, "depending": 6600, "aspx": 3843, "ahead": 3339, "rparams": 15342, "caps": 5023, "launched": 10997, "arter": 3791, "user2": 18283, "567": 2114, "happens": 9318, "fooable": 8552, "arry": 3787, "upper": 18214, "fourth": 8621, "invoked": 10325, "rdc": 14699, "sorter": 16308, "5u32": 2214, "e0284": 7197, "\u00ab": 19470, "\u00bb": 19481, "wn": 18929, "irc": 10379, "nickname": 12725, "ight": 9823, "ute": 18314, "nick": 12723, "bananas": 4219, "apples": 3670, "identify": 9752, "ets": 7829, "sal": 15541, "lect": 11088, "ual": 17891, "desire": 6661, "mydata": 12439, "dp1": 7015, "initializes": 10115, "ule": 17985, "wbg": 18762, "302": 1487, "38f": 1678, "373": 1648, "bg": 4422, "0x16": 475, "hf": 9454, "7b": 2526, "3d9": 1721, "hb": 9367, "07b": 281, "15f": 967, "acd": 3123, "da4": 6283, "321": 1528, "0x21": 485, "a2b": 2928, "406": 1770, "cancelled": 4997, "motions": 12238, "motion": 12237, "som": 16276, "movement": 12256, "hms": 9518, "downloading": 7007, "eta": 7818, "d00": 6213, "ecf8": 7403, "5651": 2110, "b6b": 4136, "e96": 7342, "routines": 15329, "decryption": 6496, "downloader": 7006, "ots": 13343, "gether": 8932, "bounded": 4629, "odd": 13040, "nrow": 12883, "cus": 6167, "sion": 16101, "gone": 9072, "unnecessary": 18130, "descending": 6639, "nullptr": 12917, "exceeds": 7893, "although": 3472, "fraction": 8639, "memcheck": 11951, "programming": 14258, "hazard": 9365, "0x13": 471, "0x000000": 381, "0x00000": 380, "648": 2297, "sequential": 15818, "insertion": 10163, "odeint": 13043, "algebra": 3383, "n1": 12526, "goodwin": 9077, "x5": 19084, "ode": 13042, "deriv": 6622, "dxdt": 7141, "atoi": 3932, "osc": 13311, "ill": 9863, "integration": 10227, "runge": 15418, "kutta": 10908, "stepper": 16617, "integrate": 10225, "listings": 11416, "kuchiki": 10905, "descendants": 6637, "complet": 5657, "iver": 10528, "reporting": 15014, "ell": 7537, "aim": 3344, "cube": 6122, "follows": 8541, "geojson": 8909, "polygons": 13967, "attempted": 3954, "contact": 5814, "mscorlib": 12303, "culture": 6138, "neutral": 12668, "b77a5c561934e089": 4146, "regarding": 14895, "identified": 9749, "owin": 13410, "activ": 3160, "enumerable": 7695, "threading": 17337, "534": 2057, "339": 1574, "hosting": 9564, "296": 1418, "ele": 7516, "completions": 5663, "prose": 14294, "describes": 6646, "hood": 9548, "rho": 15188, "mux": 12410, "sigx": 16060, "sigy": 16061, "2500": 1319, "initiate": 10119, "na": 12536, "glue": 9040, "doe": 6955, "arrow": 3785, "int16": 10203, "statfs": 16571, "mntonname": 12149, "mn": 12145, "nul": 12913, "sty": 16776, "raptorex": 14647, "ignores": 9831, "henryboisdequin": 9436, "aptorex": 3699, "536": 2060, "chains": 5243, "conditions": 5725, "keywords": 10822, "vec1": 18472, "ix2": 10539, "converting": 5865, "f32s": 8052, "dl": 6902, "abbreviated": 3025, "dlsym": 6915, "ldl": 11060, "12345": 833, "precision": 14092, "clocks": 5443, "p3": 13439, "triang": 17670, "ular": 17976, "llu": 11460, "ym": 19281, "multirust": 12371, "bundled": 4779, "vdso": 18468, "0x00007f": 399, "81b": 2597, "b2000": 4102, "float3iterator": 8463, "322": 1531, "1ul": 1146, "0ul": 372, "arg2": 3725, "arg3": 3726, "celsius": 5171, "fahrenheit": 8124, "fah": 8123, "cels": 5170, "ans1": 3606, "conversions": 5859, "fahs": 8125, "ans2": 3607, "46s": 1897, "temperature": 17175, "formula": 8599, "ius": 10520, "shiplift": 15967, "containers": 5821, "stats": 16582, "swarm": 16955, "myvar": 12514, "sup": 16899, "pose": 14017, "uni": 18075, "\u07ff": 19669, "itf": 10492, "lboolean": 11031, "noise": 12792, "cql": 5983, "short": 15982, "ocs": 13026, "contracts": 5843, "e0309": 7200, "las": 10968, "secp256k1": 15712, "7f7": 2540, "aarch64": 3015, "fxsr": 8791, "sse2": 16484, "ffunction": 8300, "fdata": 8204, "omit": 13119, "ecdh": 7399, "duse": 7118, "buil": 4756, "exter": 8008, "nal": 12542, "148": 939, "c64": 4890, "vecs": 18482, "482": 1919, "fate": 8161, "speed": 16369, "ored": 13265, "anch": 3535, "knot": 10870, "argtype": 3738, "kn": 10868, "scratch": 15662, "phones": 13778, "\u00ed": 19497, "erl": 7757, "nif": 12731, "ater": 3909, "trie": 17682, "odbc": 13039, "iss": 10426, "ady": 3280, "alk": 3405, "ik": 9844, "hail": 9278, "ni": 12718, "enko": 7652, "scott": 15654, "kj": 10855, "ppl": 14066, "nm": 12762, "e0477": 7229, "v8": 18377, "point3": 13935, "testcode": 17230, "4d": 1960, "delaunay": 6542, "326": 1536, "friend": 8690, "dvec": 7126, "5ba": 2180, "610": 2244, "224": 1254, "lld": 11447, "d25": 6230, "drawer": 7035, "u7b": 17880, "u7d": 17881, "fmaxf": 8497, "cee": 5153, "uv": 18344, "u20": 17864, "rusttype": 15486, "0e8": 330, "h99": 9266, "a39": 2938, "rasterizer": 14655, "nw": 12956, "c7": 4892, "db9": 6373, "chan": 5248, "pixel": 13838, "heroku": 9446, "nz": 12964, "412": 1786, "preal": 14081, "iguous": 9833, "748": 2448, "nels": 12645, "question": 14525, "nsum": 12895, "cess": 5206, "transpose": 17637, "0u": 367, "pause": 13600, "pair2": 13482, "cvar": 6185, "rkda": 15223, "rk": 15222, "rval": 15494, "rname": 15246, "640": 2282, "apped": 3662, "testvec": 17245, "t8": 17068, "capable": 5015, "waits": 18709, "td": 17147, "rbegin": 14679, "rend": 14973, "intersperse": 10286, "ngram": 12713, "counteachdoc": 5938, "ngrams": 12714, "end1": 7617, "navigation": 12577, "ash": 3820, "pers": 13723, "ability": 3050, "strto": 16739, "lower": 11577, "subpers": 16812, "endforeach": 7623, "vec0": 18471, "6010": 2228, "fruitlist": 8703, "groceries": 9166, "alter": 3465, "pan": 13495, "dem": 6572, "fruit": 8702, "oranges": 13254, "happen": 9315, "mit": 12120, "virt": 18599, "xen": 19133, "digits": 6794, "subtract": 16844, "saturating": 15585, "permitted": 13713, "capturing": 5029, "geon": 8913, "iso": 10416, "declarations": 6467, "ance": 3529, "libcollections": 11186, "1805": 1044, "dictionary": 6762, "por": 14001, "perl": 13705, "sliced": 16167, "hay": 9362, "fltk": 8482, "rgb8": 15177, "10000000": 691, "476": 1908, "kq": 10886, "qw": 14553, "pu": 14361, "cv": 6183, "transactions": 17608, "payment": 13605, "fee": 8239, "multiplier": 12365, "esis": 7796, "446": 1858, "251": 1320, "portion": 14010, "balance": 4206, "305": 1496, "worked": 18958, "monster": 12213, "gfx": 8957, "sprite": 16431, "matrix2d": 11859, "kids": 10833, "upd": 18193, "transf": 17610, "stra": 16675, "quicksort": 14536, "520": 2040, "acro": 3149, "pdf": 13637, "pkcs7": 13847, "hh": 9458, "verified": 18533, "imprint": 9958, "signing": 16051, "bouncycastle": 4626, "tsp": 17745, "55ef": 2101, "asn1": 3839, "infos": 10083, "pw": 14408, "getpwnam": 8938, "my2": 12424, "libfoo": 11206, "0000000000000": 25, "c70": 4893, "c30": 4867, "sth": 16623, "budget": 4733, "spin": 16392, "dereferencing": 6620, "printable": 14171, "0x20": 481, "fits": 8411, "ascending": 3806, "ir": 10377, "batching": 4271, "recursively": 14823, "gnueabihf": 9056, "nghttp2": 12711, "libcurl": 11195, "13d": 903, "scene": 15621, "e0191": 7179, "variadic": 18439, "repeats": 14995, "uintptr": 17970, "197": 1088, "aka": 3357, "interpret": 10272, "jf": 10621, "fdf": 8207, "oin": 13081, "test12345": 17221, "splitn": 16408, "e0119": 7175, "poison": 13943, "slp": 16182, "246": 1310, "manual": 11767, "827": 2609, "gen1": 8870, "gen2": 8871, "intrinsics": 10296, "charge": 5270, "filepath": 8346, "accessible": 3101, "difficult": 6784, "difficulty": 6785, "jemalloc": 10615, "ctl": 6099, "jemallocator": 10616, "resident": 15060, "excpected": 7906, "886": 2683, "652": 2305, "508": 2017, "790": 2513, "keydown": 10799, "bgcolor": 4423, "escape": 7788, "e0615": 7266, "nexpected": 12697, "stay": 16586, "binds": 4463, "selection": 15758, "sol": 16266, "ved": 18504, "libk": 11221, "4a": 1949, "k4a": 10735, "azure": 4084, "kine": 10846, "amd64": 3487, "evaluated": 7849, "p4": 13440, "p5": 13441, "kind1": 10842, "kinds2": 10845, "assignations": 3865, "round": 15318, "assignation": 3864, "val4": 18390, "280": 1388, "forecast": 8578, "predicted": 14104, "predi": 14100, "ctions": 6098, "prediction": 14105, "iation": 9692, "rade": 14604, "bearer": 4344, "zxc": 19454, "bared": 4235, "expose": 7984, "primitives": 14164, "infallible": 10060, "incr": 10004, "fib": 8307, "fj": 8424, "xmax": 19152, "operand": 13209, "665": 2324, "lcublas": 11049, "scenes": 15622, "420": 1808, "1337": 890, "\u00d7": 19484, "bellman": 4381, "pairing": 13486, "381": 1663, "d34": 6236, "lify": 11337, "ac0": 3073, "e67": 7321, "ico": 9724, "svg": 16946, "woff": 18935, "ttf": 17760, "866": 2657, "convertible": 5864, "managed": 11749, "355": 1611, "363": 1632, "ys": 19307, "sta": 16516, "cbegin": 5096, "xcode": 19122, "aml": 3502, "fy": 8792, "uz": 18353, "memcl": 11953, "medi": 11932, "iph": 10358, "recover": 14806, "mh": 12030, "uncrustify": 18049, "unterminated": 18169, "awk": 4063, "errmsg": 7768, "kwargs": 10912, "kill": 10835, "panel": 13500, "scroll": 15672, "toms": 17506, "newly": 12682, "pagin": 13474, "envelope": 7702, "urn": 18251, "picketlink": 13796, "federation": 8238, "sts": 16759, "wst": 19035, "ew": 7877, "a24": 2924, "4528": 1871, "wstrust": 19038, "wsse": 19033, "understand": 18059, "secext": 15706, "picket": 13795, "unwinding": 18180, "imate": 9895, "intercept": 10243, "wsf": 19019, "754": 2457, "deployment": 6603, "847": 2629, "catalina": 5068, "jbossweb": 10594, "214": 1233, "valve": 18422, "481": 1918, "association": 3876, "169": 1000, "ves": 18553, "coyote": 5963, "http11": 9610, "http11processor": 9612, "http11protocol": 9613, "920": 2751, "594": 2163, "957": 2789, "aved": 4033, "interceptors": 10245, "chained": 5242, "invoker": 10326, "invok": 10322, "runnable": 15422, "471": 1900, "parsers": 13549, "handled": 9301, "javaee": 10584, "integrator": 10228, "film": 8361, "ampersand": 3507, "brackets": 4656, "dots": 6988, "ordered": 13258, "branches": 4662, "wget": 18822, "quiet": 14537, "accc": 3087, "deb": 6439, "tee": 17164, "cho": 5317, "cla": 5382, "population": 13998, "lng": 11470, "cities": 5368, "nearby": 12610, "mar": 11790, "lier": 11327, "ept": 7727, "avoided": 4044, "chapter": 5260, "apter": 3698, "ence": 7594, "ekidd": 7503, "alpine": 3457, "chown": 5327, "efgh": 7480, "ijkl": 9843, "0x01": 426, "0x02": 428, "0x03": 429, "octet": 13030, "gid": 8974, "nan": 12556, "descriptor": 6649, "823": 2605, "cstdint": 6080, "duplicates": 7112, "ouroboros": 13353, "rental": 14987, "joined": 10665, "scraper": 15660, "pixmap": 13840, "avl": 4041, "dupe": 7106, "cool": 5876, "bignum": 4443, "carry": 5045, "sales": 15544, "sale": 15543, "e0434": 7225, "ipld": 10360, "nr": 12874, "ctrlc": 6108, "multip": 12357, "lied": 11325, "needless": 12624, "nursery": 12943, "player2": 13889, "happ": 9314, "ily": 9878, "tial": 17365, "vex": 18555, "signum": 16055, "2x": 1474, "steve": 16622, "tty": 17766, "002": 114, "malformed": 11741, "hours": 9573, "pay": 13602, "hour": 9571, "mutref": 12408, "emp": 7570, "ower": 13409, "everyone": 7866, "reliable": 14942, "lv": 11651, "ua": 17888, "aria": 3745, "bill": 4449, "mary": 11815, "j2": 10562, "dive": 6875, "attempts": 3956, "gemv": 8868, "getrf": 8941, "batched": 4270, "dgetrf": 6734, "lda": 11052, "batch": 4269, "333333": 1562, "6666": 2327, "colour": 5582, "fout": 8622, "tungstenite": 17772, "mess": 11993, "referenc": 14864, "323": 1532, "1c6": 1107, "4560ea788": 1878, "rod": 15268, "touch": 17544, "corrode": 5922, "flammable": 8437, "corro": 5921, "sive": 16114, "neighbor": 12635, "corr": 5913, "flam": 8435, "uing": 17957, "criteria": 6034, "dangle": 6310, "danger": 6307, "ccc": 5114, "907": 2733, "1875": 1064, "cccc": 5115, "232": 1272, "238": 1288, "769": 2474, "rd": 14697, "xb": 19114, "erase": 7741, "0f64": 339, "servers": 15848, "gig": 8978, "1165": 806, "libunwind": 11301, "1028": 728, "1412": 913, "188": 1066, "464": 1890, "139": 900, "fd6": 8200, "aab": 3005, "933": 2767, "287": 1401, "libpanic": 11257, "396": 1688, "cluster0": 5478, "kbbbhky": 10761, "shard": 15946, "unauthenticated": 18026, "ther": 17287, "lide": 11323, "mdb": 11910, "endpoints": 7632, "superfluous": 16902, "sending": 15783, "picks": 13799, "remaining": 14956, "ctxt": 6115, "eager": 7357, "intern": 10258, "fwlink": 8786, "733558": 2430, "centered": 5178, "pip": 13822, "statistical": 16580, "alist": 3402, "6e": 2380, "bab": 4170, "intervals": 10288, "presets": 14139, "accum": 3118, "881": 2674, "e0512": 7244, "traction": 17584, "jni": 10651, "alog": 3443, "addon": 3220, "coverage": 5958, "vl": 18621, "checkout": 5289, "aba": 3019, "e19": 7287, "274": 1374, "2b": 1431, "029": 199, "yml": 19286, "sine": 16091, "adjacency": 3251, "degree": 6535, "mation": 11852, "neighborhood": 12636, "hoods": 9549, "uit": 17971, "fills": 8359, "dn": 6929, "ei": 7491, "cumsum": 6140, "addition": 3215, "table1": 17074, "turns": 17790, "histories": 9496, "nvprof": 12954, "heads": 9399, "errored": 7776, "mandatory": 11755, "765": 2470, "342": 1584, "dlen": 6905, "cb2": 5086, "longlived": 11542, "shortlived": 15990, "quickcheck": 14534, "testable": 17226, "authenticates": 3994, "logout": 11529, "modi": 12172, "futs": 8768, "introduced": 10300, "racer": 14600, "inserted": 10160, "joinable": 10664, "tables": 17076, "ugly": 17952, "intermedi": 10255, "complain": 5654, "consecutive": 5769, "wip": 18912, "serializable": 15828, "serialized": 15831, "ddd": 6413, "example1": 7885, "syntex": 17007, "codemap": 5530, "rwind": 15498, "eck": 7406, "callable": 4964, "evaluates": 7850, "mutably": 12396, "sug": 16871, "fuzzy": 8778, "bo": 4559, "goblin": 9062, "lua": 11631, "rlua": 15234, "hashbrown": 9338, "rence": 14971, "ick": 9719, "squares": 16456, "estimate": 7813, "factor1": 8114, "9801": 2821, "1103": 780, "26390": 1348, "numm": 12935, "1415926535897931159979634": 920, "185": 1058, "1615": 980, "576": 2133, "000000000000": 24, "buster": 4789, "slim": 16174, "terms": 17207, "concer": 5709, "ialize": 9681, "lem": 11113, "serializing": 15834, "2002": 1162, "3999": 1693, "elision": 7535, "x00": 19065, "179": 1026, "escaped": 7789, "759": 2463, "alien": 3393, "cov": 5953, "rus": 15435, "shortcuts": 15984, "deeper": 6504, "0x7f": 584, "accounts": 3114, "elt": 7548, "jsonplaceholder": 10691, "typicode": 17847, "lite": 11421, "yet": 19263, "kk": 10856, "\u279c": 19905, "depended": 6595, "matrices": 11855, "mat2d": 11830, "mat1d": 11829, "rm2cm": 15236, "0i64": 343, "list1": 11404, "list2": 11405, "991": 2839, "summed": 16893, "ltk": 11620, "\u2013": 19776, "foo2": 8548, "ccbin": 5113, "gencode": 8873, "corporation": 5911, "2010": 1176, "gpl": 9097, "licenses": 11317, "redistribute": 14839, "warranty": 18737, "extent": 8006, "law": 11001, "jm": 10643, "libthread": 11294, "0x7ffff": 631, "lwp": 11665, "0x78": 582, "memset32": 11966, "aligned1d": 3397, "frames": 8649, "35a": 1617, "0x5": 528, "38b": 1677, "0x55": 532, "0c": 322, "e44": 7304, "0x42": 520, "ca4": 4920, "479": 1911, "366": 1637, "1369": 896, "b1e": 4099, "0x51": 530, "204": 1194, "0xf5": 675, "pdt": 13642, "hat": 9354, "roject": 15274, "smp": 16208, "jul": 10706, "tic": 17367, "lsp": 11606, "hdmi": 9386, "gy": 9231, "rebuild": 14767, "production": 14238, "armv7": 3762, "androideabi": 3554, "hdd": 9383, "ndk": 12604, "prebuilt": 14084, "examer": 7882, "pbkdf2": 13612, "\u276f": 19904, "trimmed": 17692, "noone": 12814, "551": 2082, "fe3": 8220, "ledge": 11095, "trouble": 17708, "libssl": 11285, "devel": 6699, "think": 17308, "httparse": 9615, "getrandom": 8940, "net2": 12660, "039": 220, "fds": 8210, "ian": 9686, "brian": 4679, "posi": 14022, "ory": 13307, "patch": 13585, "58c": 2157, "397": 1689, "b7c": 4148, "sbin": 15597, "gem": 8867, "ruby": 15400, "servo": 15855, "she": 15952, "2f2d": 1448, "f9d": 8088, "a17": 2912, "androide": 3553, "pedantic": 13656, "wcast": 18766, "qual": 14507, "wconversion": 18770, "wenum": 18809, "wfloat": 18819, "winline": 18899, "winvalid": 18911, "pch": 13621, "wmissing": 18928, "initializers": 10114, "wredundant": 18994, "decls": 6472, "wshadow": 19021, "wsign": 19023, "wundef": 19050, "wwrite": 19058, "fvisibility": 8782, "g3": 8799, "aesv8": 3294, "armx": 3764, "pregenerated": 14120, "wuninitialized": 19051, "erated": 7744, "661": 2319, "noexecstack": 12788, "bdynamic": 4332, "lssl": 11608, "lcrypto": 11046, "llog": 11454, "lgcc": 11163, "lm": 11462, "iq": 10376, "demand": 6573, "crawl": 5999, "perm": 13706, "express": 7990, "linq": 11384, "istrator": 10441, "synchron": 16993, "registration": 14910, "stages": 16529, "asp": 3841, "synchronously": 16998, "quotient": 14548, "discounts": 6842, "discount": 6841, "shipping": 15968, "tax": 17119, "delivery": 6565, "preorder": 14125, "quantity": 14512, "quant": 14511, "prodsearch": 14231, "holds": 9537, "vari": 18436, "adic": 3246, "shorthand": 15989, "parens": 13525, "path3": 13590, "ither": 10494, "lasts": 10978, "datetime": 6358, "delay": 6543, "arraylist": 3780, "354": 1609, "impossible": 9956, "forced": 8571, "boolinator": 4593, "bunch": 4776, "implementors": 9940, "librustdoc": 11272, "vised": 18604, "zn6": 19421, "20h": 1216, "921": 2752, "f1d": 8044, "aee": 3287, "movl": 12261, "23e": 1294, "revparse": 15161, "git2": 8993, "logical": 11522, "inbound": 9980, "pas": 13568, "fullscreen": 8733, "bubblewrap": 4730, "gradle": 9118, "immersive": 9914, "rts": 15395, "cts": 6110, "paste": 13582, "bitfield": 4485, "0x555555": 533, "0x10": 441, "a6f": 2971, "0x18": 477, "970": 2804, "exercise": 7925, "subq": 16815, "movb": 12250, "callq": 4978, "addq": 3223, "retq": 15128, "lbb": 11017, "breakpoint": 4672, "0x0000000": 382, "0x00007ffe": 417, "efb": 7470, "ff0": 8267, "ad8": 3184, "frequency": 8681, "freq": 8676, "inic": 10100, "invo": 10319, "ice": 9711, "txn": 17822, "ization": 10546, "separators": 15805, "hc": 9373, "cro": 6042, "padding": 13467, "symm": 16987, "x01": 19066, "x02": 19067, "x03": 19068, "x08": 19070, "x10": 19073, "shy": 16016, "142": 924, "rounds": 15321, "wards": 18729, "trun": 17714, "fractional": 8641, "rust1": 15440, "abcdefg": 3037, "svc6": 16944, "handle6": 9299, "subj": 16797, "handle1": 9297, "e0562": 7249, "inherent": 10095, "oy": 13421, "iou": 10348, "badness": 4195, "badly": 4194, "forwarder": 8612, "meh": 11941, "average": 4035, "snafu": 16220, "powi": 14060, "sto": 16649, "thyst": 17363, "738": 2436, "looking": 11551, "4000": 1753, "reuse": 15146, "sur": 16921, "comes": 5599, "rc1": 14684, "mykeystore": 12457, "keypass": 10807, "noprompt": 12819, "myinternalcert": 12452, "dname": 6931, "mechanism": 11930, "itest": 10491, "constit": 5785, "uting": 18331, "stitute": 16631, "850": 2632, "015": 173, "ca1": 4917, "wordlist": 18952, "cdll": 5133, "argtypes": 3739, "restype": 15102, "errcheck": 7764, "observable": 12998, "sigint": 16035, "person1": 13729, "name1": 12547, "person2": 13730, "name2": 12548, "triggers": 17688, "squ": 16452, "reexport": 14854, "wirefilter": 18914, "e0623": 7270, "flows": 8479, "ff000": 8269, "aformatter": 3308, "286": 1400, "locate": 11492, "func1": 8741, "func2": 8742, "ch10": 5237, "func3": 8743, "01s": 182, "t17": 17050, "wheel": 18831, "flushed": 8489, "answered": 3613, "resolver": 15071, "contra": 5841, "necessarily": 12615, "covariant": 5956, "2s": 1466, "amer": 3489, "ff1": 8270, "ff2": 8271, "roms": 15289, "nme": 12764, "sq": 16437, "succeeds": 16856, "yum": 19319, "pacman": 13461, "jne": 10650, "lbb4": 11023, "literals": 11424, "splitting": 16412, "fdsfdsfd": 8215, "method1": 12013, "ret1": 15116, "partially": 13556, "fillzeros": 8360, "reserve": 15056, "crease": 6009, "carlo": 5043, "simulation": 16084, "ctr": 6106, "party": 13567, "devctrp": 6698, "ctrp": 6109, "sims": 16080, "simulated": 16083, "gener": 8878, "ori": 13278, "vr": 18660, "ier": 9784, "ure": 18230, "et": 7817, "stock": 16650, "contenue": 5827, "unwarp": 18178, "31bf3856ad364e35": 1520, "scripting": 15670, "machine": 11698, "serialization": 15829, "645": 2292, "msl": 12315, "p11": 13432, "affects": 3304, "enables": 7587, "ifically": 9800, "htm": 9600, "403": 1762, "controls": 5852, "verb": 18528, "asmx": 3837, "axd": 4071, "codedom": 5526, "compilers": 5651, "sharp": 15950, "internet": 10265, "dependent": 6598, "bcd": 4315, "circum": 5364, "vents": 18522, "inlin": 10132, "zn5": 19420, "jake": 10570, "wat": 18746, "rences": 14972, "conrod": 5764, "algo": 3384, "aps": 3695, "navigator": 12578, "dial": 6748, "rounded": 15319, "p6": 13442, "pix": 13836, "imgx": 9908, "imgy": 9909, "rgba8": 15180, "gra": 9108, "news": 12683, "elm": 7540, "routing": 15330, "kick": 10830, "sorry": 16304, "unload": 18121, "pasted": 13583, "simplicity": 16075, "vigem": 18588, "pfn": 13752, "iler": 9853, "mwe": 12419, "rtld": 15389, "ascription": 3811, "sku": 16138, "shop": 15980, "sodiumoxide": 16260, "smith": 16201, "lis": 11398, "521": 2041, "tracker": 17580, "positive": 14027, "greatest": 9150, "concat2": 5700, "submitted": 16809, "resa": 15051, "reservation": 15054, "corresponds": 5920, "u8ptr": 17885, "u16ptr": 17861, "creator": 6015, "type3": 17835, "type4": 17836, "tion": 17431, "downstream": 7011, "cheap": 5280, "lxcb": 11669, "shap": 15937, "fixes": 8417, "brad": 4657, "gametest": 8820, "xid": 19144, "semver": 15776, "nodrop": 12785, "autocfg": 4010, "scopeguard": 15648, "memoffset": 11962, "demangle": 6575, "adler32": 3258, "percent": 13686, "lz": 11673, "xi": 19143, "ound": 13349, "strsim": 16737, "fluent": 8484, "jitter": 10634, "synom": 17001, "inflate": 10071, "phf": 13769, "annotate": 3588, "snippets": 16237, "textwrap": 17263, "arrayvec": 3784, "xorshift": 19188, "isaac": 10394, "typenum": 17842, "chacha": 5240, "etype": 7831, "pcg": 13620, "fx": 8790, "deflate": 6529, "wayland": 18755, "alsa": 3461, "plural": 13909, "glsl": 9038, "freetype": 8672, "expat": 7951, "derivative": 6624, "euclid": 7834, "synstructure": 17002, "rational": 14666, "twox": 17815, "iff": 9795, "andre": 3548, "vergen": 18531, "smallvec": 16192, "geom": 8910, "parking": 13541, "hibit": 9462, "xcb": 19119, "normalization": 12827, "fern": 8252, "rodio": 15270, "interpolate": 10270, "a34": 2935, "4c99": 1956, "010": 155, "775": 2483, "618": 2252, "21d": 1244, "ccdd": 5116, "dd9": 6409, "5a": 2172, "7a": 2522, "libcompiler": 11188, "builtins": 4769, "lutil": 11650, "lrt": 11596, "lpthread": 11590, "602": 2230, "660": 2318, "upgraded": 18204, "libasound": 11176, "composite": 5678, "marker1": 11804, "materials": 11844, "interaction": 10241, "illustr": 9870, "spawned": 16340, "roll": 15277, "hovered": 9578, "interpreted": 10273, "introduce": 10299, "buttons": 4795, "btn": 4722, "ffine": 8291, "struct8": 16746, "verification": 18532, "0x22": 486, "0x23": 487, "0x24": 489, "hexadecimal": 9451, "something2": 16288, "8787": 2670, "lat2": 10981, "timezone": 17420, "america": 3491, "los": 11568, "angeles": 3562, "monkey": 12209, "brains": 4660, "united": 18108, "states": 16570, "dma": 6918, "california": 4962, "199": 1092, "asn": 3838, "san": 15567, "ran": 14625, "cisco": 5366, "4194": 1799, "decoding": 6482, "splines": 16403, "interpolation": 10271, "conv": 5853, "interpol": 10269, "trig": 17685, "spline": 16402, "additive": 3218, "ref1": 14857, "ref2": 14858, "ref3": 14859, "e0506": 7240, "win64": 18879, "follower": 8538, "fol": 8530, "presenter": 14135, "jill": 10628, "jim": 10629, "tiff": 17381, "ometric": 13115, "pret": 14143, "customers": 6173, "employee": 7573, "employees": 7574, "micros": 12039, "mic": 12033, "caching": 4939, "cach": 4930, "3s": 1743, "aking": 3361, "minima": 12085, "vice": 18568, "t373": 17060, "extractor": 8018, "simulations": 16085, "monte": 12217, "rn": 15245, "fopenmp": 8564, "lgomp": 11164, "8889": 2689, "populated": 13997, "casting": 5062, "igmp": 9825, "3be": 1706, "917": 2744, "983": 2823, "ccess": 5118, "sends": 15784, "andom": 3546, "65537": 2311, "definitely": 6526, "caches": 4938, "logos": 11528, "logo": 11526, "rfind": 15173, "located": 11493, "concept": 5708, "funtor": 8758, "bv": 4799, "dpt": 7019, "dof": 6959, "legal": 11109, "bars": 4243, "multithreaded": 12375, "compacted": 5629, "v2a": 18362, "v2b": 18363, "iterated": 10475, "3600": 1628, "readonly": 14747, "acti": 3156, "hmstimer": 9519, "dt1": 7072, "638": 2279, "generating": 8886, "lengths": 11124, "arily": 3747, "milk": 12062, "pour": 14050, "cup": 6142, "ured": 18231, "attemp": 3952, "passing": 13573, "fruits": 8704, "banana": 4218, "envy": 7706, "tracing": 17578, "227": 1258, "pract": 14073, "ices": 9715, "310": 1505, "392": 1683, "mapper": 11782, "combinator": 5594, "backward": 4189, "elif": 7532, "copi": 5887, "imageproc": 9886, "project2": 14265, "ez": 8027, "luma8": 11642, "grayscale": 9145, "colorops": 5580, "gre": 9147, "kb": 10760, "ju": 10699, "yx": 19322, "gitignore": 8995, "brief": 4681, "son": 16297, "0019": 112, "ethereum": 7824, "ecdsa": 7401, "index0": 10022, "potentially": 14048, "infinitely": 10068, "2345678": 1280, "asking": 3830, "favorite": 8167, "movie": 12258, "citizen": 5369, "kane": 10750, "1941": 1083, "notation": 12841, "cpython": 5982, "systems": 17024, "structions": 16748, "wine": 18894, "od": 13036, "calum": 4982, "cryptobox": 6067, "54e": 2079, "993": 2841, "dc8": 6398, "libcrypto": 11191, "qe": 14462, "libsodium": 11279, "bstatic": 4714, "sodium": 16259, "a0a": 2904, "ba6": 4166, "prote": 14299, "bor": 4601, "024": 193, "26f": 1363, "39f": 1695, "da8": 6286, "cba": 5090, "f96": 8085, "a27": 2926, "liblibc": 11231, "f36": 8055, "c2d": 4863, "b9d": 4160, "de8": 6425, "librand": 11264, "c8c": 4904, "f99": 8087, "297": 1421, "bcb": 4313, "da0": 6282, "deck": 6461, "cards": 5037, "shuffler": 16011, "consist": 5774, "generation": 8887, "trib": 17674, "castle": 5063, "callers": 4970, "ink": 10128, "die": 6767, "bcc": 4314, "sfa": 15900, "invite": 10318, "xxxx": 19220, "isinstance": 10410, "react": 14724, "x80": 19105, "8888": 2687, "dialog": 6750, "glade": 9011, "img2": 9903, "\u00f3": 19500, "tent": 17190, "3rd": 1741, "aniel": 3572, "focus": 8528, "bmp": 4552, "utorial": 18335, "54321": 2071, "blob": 4531, "snd": 16230, "recie": 14786, "test4": 17224, "num1": 12919, "num2": 12920, "tetra": 17247, "optr": 13244, "14159265": 917, "collapse": 5554, "d4f": 6247, "402a": 1761, "add2": 3200, "helper1": 9431, "644": 2289, "makefile": 11735, "paritytech": 13537, "icles": 9722, "dro": 7044, "wingdi": 18897, "bitmap": 4488, "windef": 18887, "refox": 14885, "hbitmap": 9370, "ieu": 9787, "ancy": 3540, "saves": 15589, "system32": 17021, "uxtheme": 18351, "enum1": 7692, "\u25cf": 19882, "curly": 6149, "view1": 18582, "view2": 18583, "shifts": 15963, "assuming": 3881, "specialization": 16353, "pyclass": 14427, "pymethods": 14431, "pymodule": 14432, "extr": 8014, "ude": 17928, "geometry": 8912, "migrations": 12056, "e0508": 7242, "alacritty": 3365, "critical": 6036, "gender": 8874, "male": 11740, "fema": 8249, "internally": 10261, "uation": 17895, "contacts": 5815, "education": 7441, "closing": 5461, "sever": 15892, "bye": 4809, "coreaudio": 5901, "hz": 9653, "deli": 6557, "leaved": 11085, "indicatif": 10034, "log4rs": 11515, "appenders": 3666, "appender": 3665, "interesting": 10248, "loggers": 11519, "itive": 10500, "interest": 10246, "reject": 14920, "deser": 6651, "ializ": 9679, "resh": 15059, "ape": 3633, "143": 926, "treat": 17654, "fake": 8136, "obtained": 13006, "cyclic": 6204, "ature": 3973, "constructed": 5795, "ict": 9730, "cpupool": 5978, "creep": 6023, "room": 15294, "energy": 7642, "tower": 17550, "x509certificates": 19092, "okhttp": 13087, "squareup": 16457, "rendering": 14980, "anced": 3530, "emptyvec": 7578, "txflag": 17820, "indicates": 10033, "msgtype": 12311, "routeoffset": 15324, "routesoffset": 15327, "chooser": 5325, "ruid": 15405, "getuid": 8950, "sete": 15866, "getgroups": 8931, "huge": 9629, "moo": 12222, "whe": 18830, "toy": 17553, "ught": 17950, "5f64": 2195, "become": 4350, "inference": 10062, "385": 1670, "1u64": 1144, "cb1": 5085, "gpointer": 9098, "cb3": 5087, "angling": 3570, "poser": 14019, "inher": 10094, "extrinsic": 8022, "datum": 6360, "test3": 17223, "stm32f3": 16641, "stm32f": 16636, "303": 1488, "ben": 4389, "moder": 12169, "0b01": 313, "r8": 14589, "r9": 14591, "r10": 14563, "r11": 14566, "r12": 14567, "r13": 14568, "r14": 14569, "r15": 14570, "e0609": 7264, "id32": 9734, "d43593c715fdd31c61141abd04a99fd6822c8558854ccde39a5684e7a56da27d": 6241, "unrecoverable": 18146, "kmf": 10865, "landing": 10948, "6767": 2345, "gamma": 8821, "bazbaz": 4286, "mystring": 12498, "qux": 14550, "waitpid": 18708, "99999": 2855, "high": 9471, "sor": 16303, "e000": 7159, "stamps": 16535, "transforms": 17619, "mday": 11909, "crlf": 6040, "app1": 3654, "finger": 8378, "normals": 12831, "assertions": 3854, "minwindef": 12097, "indicies": 10038, "ational": 3923, "liner": 11370, "14159": 915, "species": 16355, "pet": 13739, "pets": 13746, "ero": 7759, "freeze": 8673, "mylog": 12461, "02b": 201, "adf": 3243, "mhz": 12031, "8ad": 2701, "io5": 10332, "\u0432": 19593, "terminating": 17201, "acquired": 3148, "acq": 3145, "hamisi": 9291, "815": 2593, "881fa1458604c2ea": 2675, "1010": 711, "hub": 9624, "ult": 17996, "uble": 17900, "shooting": 15979, "gin": 8984, "apps": 3690, "672": 2339, "674": 2342, "676": 2344, "386": 1672, "00b": 141, "validators": 18402, "abb": 3021, "ffd": 8276, "includes": 9991, "unwrapping": 18186, "retail": 15119, "pwa": 14409, "airhorner": 3350, "ail": 3343, "fort": 8600, "unmatched": 18127, "related": 14926, "icons": 9727, "nat": 12563, "natural": 12571, "portrait": 14011, "secondary": 15708, "landscape": 10950, "suppress": 16919, "lint": 11386, "webkit": 18782, "referred": 14872, "wraps": 18993, "vey": 18556, "welcome": 18805, "autoload": 4013, "10i32": 770, "aliased": 3389, "imm": 9911, "constructs": 5803, "evalu": 7846, "evaluator": 7853, "ioerror": 10336, "rustlings": 15474, "rppal": 15350, "i2c": 9663, "0x27": 491, "lement": 11114, "241": 1300, "collated": 5555, "960": 2792, "f2b": 8048, "jun": 10714, "gitster": 8997, "fifth": 8327, "ih": 9834, "oz": 13424, "cg": 5229, "qs": 14488, "i3": 9664, "ey": 8023, "jy": 10727, "k8": 10736, "u4": 17878, "ek": 7502, "9d": 2865, "qf": 14465, "gf": 8953, "kt": 10900, "vy": 18687, "gw": 9228, "iy": 10543, "aq": 3700, "gj": 9007, "6z": 2397, "tst": 17750, "dhm": 6741, "5u": 2213, "kd": 10766, "5m": 2203, "jem": 10614, "lg": 11162, "lx": 11667, "ov": 13388, "g4": 8800, "m4": 11688, "x8": 19104, "xl": 19147, "994": 2842, "abilities": 3049, "explorer": 7975, "fla": 8428, "ine": 10051, "ali": 3387, "tunnel": 17773, "boxable": 4638, "joins": 10668, "line2": 11361, "dies": 6769, "dangling": 6311, "pv4": 14404, "pv6": 14405, "ggez": 8959, "kbd": 10762, "animate": 3576, "gifski": 8977, "\u2018": 19778, "unpacked": 18135, "simplified": 16076, "coordinate": 5882, "centroids": 5185, "datapoints": 6342, "duplex": 7108, "assemb": 3846, "ared": 3717, "trad": 17585, "mbol": 11899, "dealloc": 6434, "nh": 12715, "0px": 361, "fab": 8098, "persist": 13724, "cleared": 5412, "0b1111": 320, "0b0000": 310, "0b00000000": 311, "0b1": 316, "08b": 293, "\u00ac": 19471, "0b11": 319, "leaves": 11086, "ont": 13157, "tun": 17771, "tap": 17107, "ecode": 7409, "iface": 9792, "898": 2697, "e0117": 7174, "owns": 13417, "heapsort": 9405, "snippet": 16236, "combin": 5590, "combine": 5595, "self1": 15763, "self2": 15764, "svm": 16948, "prob": 14199, "crep": 6025, "g42": 8801, "law1": 11002, "planation": 13874, "yielding": 19273, "gpg": 9091, "borsh": 4613, "rak": 14621, "zf": 19357, "zipped": 19366, "einsum": 7497, "ij": 9842, "jon": 10671, "athan": 3916, "jonathan": 10673, "ool": 13164, "immutably": 9918, "implied": 9944, "recogn": 14795, "ised": 10405, "\u2265": 19823, "prsrc": 14324, "failing": 8130, "satisfy": 15582, "totality": 17541, "king": 10848, "chess": 5297, "posit": 14023, "bank": 4222, "ban": 4216, "cust": 6170, "withdraw": 18919, "twitter": 17811, "bounding": 4630, "succe": 16853, "aces": 3127, "initi": 10106, "do2": 6939, "dif": 6771, "html1": 9602, "diff1": 6773, "filename2": 8343, "outs": 13383, "intentional": 10236, "gracefully": 9112, "qy": 14558, "hello2": 9424, "thr": 17330, "runq": 15430, "bet": 4405, "cusp": 6168, "array1d": 3776, "ctory": 6103, "begins": 4368, "retains": 15122, "vu": 18678, "complex64": 5665, "stretch": 16702, "julia": 10707, "agree": 3334, "matlab": 11854, "msc": 12301, "initializing": 10116, "ites": 10489, "htt": 9608, "guarantee": 9201, "iden": 9744, "ancestors": 3534, "678": 2347, "sample1": 15558, "iterating": 10478, "assigning": 3867, "knows": 10873, "neighbour": 12638, "neighbourhood": 12639, "neighbourhoods": 12640, "citys": 5371, "belong": 4382, "belonging": 4383, "readme": 14745, "dna": 6930, "668": 2332, "ideally": 9743, "0111": 163, "masked": 11821, "181": 1047, "image2d": 9883, "heigth": 9416, "mf": 12024, "ake": 3358, "trm": 17700, "advent": 3277, "essential": 7803, "bla": 4504, "bytestring": 4820, "of3": 13051, "bubble": 4729, "seedable": 15730, "seeded": 15731, "rngs": 15249, "thesis": 17294, "incl": 9987, "breaks": 4673, "translation": 17625, "quat": 14514, "bevy": 4410, "replaces": 15005, "spr": 16424, "detect": 6688, "criterion": 6035, "pval": 14406, "end2": 7618, "ka": 10738, "dock": 6942, "postgre": 14041, "tts": 17763, "blake2": 4515, "blake": 4514, "d46": 6243, "aed": 3286, "a44": 2942, "a70": 2973, "16de": 1003, "566": 2111, "b19": 4098, "19e": 1099, "haviors": 9361, "behaviors": 4373, "faults": 8164, "x509find": 19095, "xxxxxxxxxxxxxxxx": 19223, "xxxxxxxxxxxxxxxxxxxxxxxx": 19224, "incip": 9986, "ws2007federation": 19014, "mex": 12020, "brow": 4695, "audience": 3980, "uris": 18240, "validating": 18399, "thumb": 17355, "assumes": 3880, "vector3d": 18494, "unsized": 18159, "stub": 16761, "sax": 15592, "0efg": 332, "efg": 7479, "hij": 9478, "padd": 13464, "0zzz": 683, "splitter": 16411, "fgh": 8303, "0123456789": 167, "fu": 8723, "0c0": 323, "52e": 2051, "laratrust": 10962, "ftype": 8722, "ild": 9850, "sgemv": 15909, "036": 216, "643": 2288, "016": 175, "2391": 1291, "037": 217, "codeblock": 5523, "rh": 15185, "glam": 9012, "mirrors": 12104, "litrature1": 11427, "litrature": 11426, "alphabets": 3453, "anot": 3602, "writer1": 19000, "cal": 4947, "amine": 3500, "klax": 10859, "slicing": 16169, "oto": 13339, "ata": 3894, "ello": 7539, "devil": 6711, "weapon": 18776, "urned": 18254, "ar1": 3702, "ar2": 3703, "formatting": 8596, "artifacts": 3795, "gram": 9121, "4467": 1859, "0x7fff": 616, "trap": 17639, "decision": 6459, "hero": 9445, "decisions": 6460, "team": 17154, "stringable": 16715, "atoms": 3937, "relax": 14933, "forces": 8573, "velocities": 18513, "initialise": 10108, "t11": 17043, "faces": 8109, "3382": 1573, "1863": 1060, "311": 1507, "1394": 901, "tiled": 17386, "intensity": 10232, "severity": 15895, "ression": 15093, "lnk2019": 11474, "fat": 8159, "tmpxft": 17466, "6db": 2377, "cpp1": 5972, "a5d": 2963, "wire": 18913, "simulator": 16086, "ned": 12618, "separable": 15799, "lcudart": 11050, "cudadevrt": 6129, "ptxas": 14358, "glew": 9014, "clusters": 5479, "cluster": 5477, "disjoint": 6846, "subsets": 16829, "optimization": 13229, "laz": 11012, "iness": 10057, "finder": 8375, "fwd": 8785, "160": 973, "0x40000000": 515, "fer": 8251, "untrusted": 18174, "10a": 762, "cdp": 5137, "mycompany": 12436, "xmodule": 19180, "strust": 16756, "sinf": 16092, "initilaize": 10121, "maze": 11891, "breaking": 4671, "extracted": 8017, "acci": 3107, "nvs": 12955, "0m0": 348, "004s": 125, "012": 165, "020s": 187, "000s": 103, "commented": 5609, "0xc0000": 663, "374": 1651, "ption": 14346, "unicodetext": 18079, "gmem": 9047, "hglob": 9457, "\u5fe0": 19970, "\u72ac": 19980, "\u30cf": 19932, "\u30c1": 19930, "\u516c": 19953, "y\u0306": 19326, "306": 1497, "\u0310": 19537, "e\u0301": 8028, "\u0308": 19534, "\u0332": 19548, "\u00a3": 19465, "halt": 9285, "inherited": 10097, "examine": 7883, "uc": 17904, "ene": 7638, "1080": 753, "peak": 13646, "bandwidth": 4221, "libcuda": 11192, "343": 1586, "libcudart": 11193, "0x17": 476, "i7469704": 9675, "parallelvoronoi": 13512, "libsolver": 11280, "pj": 13842, "jjj": 10636, "ac5": 3078, "0x43": 521, "zn10": 19379, "solver": 16275, "dia": 6744, "0x48": 524, "0x83": 641, "11q": 818, "ep7q": 7715, "pv": 14403, "0x6": 571, "0x29": 494, "zn15q": 19384, "0x32": 501, "0x30": 497, "e94": 7341, "0x308": 499, "a2e": 2929, "7q": 2555, "6q": 2388, "a48": 2948, "zn19q": 19389, "private13notify": 14188, "p6q": 13443, "0x9c": 645, "0x1534bc": 474, "zn12q": 19383, "application6notify": 3675, "0xc": 661, "0x15": 473, "zn16q": 19386, "application15notify": 3674, "internal2ep7q": 10260, "0x108": 453, "0x271e78": 492, "ps1": 14327, "f2f": 8049, "ec6": 7387, "zn22q": 19391, "gui": 9216, "private17": 14189, "epn29q": 7718, "0x12": 468, "e6q": 7325, "in10q": 9970, "loop17process": 11557, "0xbb": 656, "ad7b": 3183, "platforms": 13885, "0xb0": 651, "fa0": 8091, "libglib": 11213, "0x49": 525, "d7a": 6265, "a0b": 2905, "0x2c": 495, "a16": 2911, "0x5f": 568, "4exec": 1968, "17process": 1037, "278": 1380, "34d": 1599, "b35": 4114, "0x75": 580, "0x11": 466, "baa": 4167, "zn6thrust6system4cuda6detail": 19425, "idd": 9739, "s7": 15526, "rns": 15250, "0x9": 643, "rns2": 15251, "nsd": 12887, "4less": 1980, "0x62": 573, "3tag": 1744, "s8": 15527, "16execution": 1005, "pt0": 14340, "eeeens": 7454, "ees": 7457, "eet0": 7460, "0x34": 504, "ins7": 10155, "6system4cuda6detail": 2393, "0x58": 566, "28b": 1405, "6system": 2392, "4cuda6detail": 1959, "eeees": 7455, "590": 2159, "0x54": 531, "669": 2333, "fused": 8762, "g0": 8795, "buf1": 4735, "buf2": 4736, "signserver": 16053, "ejb": 7501, "746": 2446, "774": 2482, "seeder": 15732, "apos": 3650, "isy": 10445, "mach": 11697, "ines": 10056, "refactor": 14860, "notifier": 12851, "mos": 12229, "forwarding": 8613, "counters": 5941, "ifi": 9797, "iton": 10507, "ifiable": 9798, "astruct": 3887, "atype": 3975, "bidi": 4436, "0x41": 519, "cod": 5519, "clientpw": 5430, "serverpw": 15847, "bks": 4502, "gravity": 9142, "backing": 4180, "propagate": 14285, "quadgram": 14501, "ciphertext": 5357, "owners": 13414, "e0373": 7206, "arg4": 3727, "uint2": 17960, "expt": 7996, "extended": 8000, "modifying": 12181, "gsl": 9183, "workspaces": 18968, "ether": 7823, "markets": 11806, "bon": 4579, "srml": 16477, "tiberius": 17366, "file3": 8337, "spa": 16325, "varchar": 18435, "stmts": 16648, "fixme": 8418, "sandbox": 15569, "negotiate": 12633, "thir": 17309, "claims": 5386, "dialect": 6749, "claim": 5383, "tg": 17267, "ner": 12653, "wsa": 19016, "aae": 3010, "tc": 17131, "saml2": 15551, "crashes": 5992, "hitable": 9499, "vis": 18603, "initialised": 10109, "lchar": 11034, "uniform1f": 18085, "4fv": 1973, "uniform1i": 18086, "mat4x4": 11833, "programiv": 14256, "uniforms": 18087, "evp": 7875, "logstream": 11531, "logfile": 11516, "sample2": 15559, "came": 4984, "379": 1657, "\u0430": 19591, "\u043e": 19606, "\u043a": 19602, "\u0434": 19596, "621": 2258, "embed": 7559, "pooled": 13981, "databases": 6333, "hoc": 9525, "tested": 17232, "405": 1769, "orn": 13292, "ons": 13155, "lend": 11119, "v10": 18357, "pup": 14381, "pete": 13740, "nodejs": 12781, "c98": 4911, "1477": 937, "33d": 1575, "532": 2055, "419": 1798, "bfe": 4419, "analyze": 3524, "annot": 3586, "garlicsem": 8829, "ambiguity": 3485, "categ": 5072, "ken": 10778, "mong": 12203, "otest": 13329, "gethostname": 8933, "1120": 796, "x64": 19102, "advapi32": 3276, "ws2": 19012, "userenv": 18287, "msvcrt": 12326, "bert": 4402, "e0412": 7219, "candidates": 5000, "misspelled": 12116, "forgot": 8584, "http11nio": 9611, "t15": 17048, "rect2": 14813, "clipping": 5438, "nonce": 12803, "harsh": 9329, "ommited": 13122, "454": 1874, "646": 2293, "answers": 3614, "simpl": 16071, "cand": 4998, "urst": 18261, "topping": 17534, "pizza": 13841, "sl1": 16141, "rustling": 15473, "delicious": 6558, "snacks": 16219, "pear": 13649, "veggies": 18509, "cucumber": 6126, "veggie": 18508, "umber": 18007, "sil": 16062, "refcell": 14862, "noo": 12812, "noref": 12821, "prng": 14197, "aligned": 3396, "unaligned": 18020, "t625": 17066, "misc": 12106, "sequenced": 15815, "xorwow": 19189, "c000": 4829, "0x14": 472, "libcurand": 11194, "0xfc": 676, "3b": 1700, "987": 2831, "0xfd": 677, "0x37": 507, "swis": 16970, "asses": 3856, "deed": 6501, "371": 1645, "836": 2617, "814": 2592, "west": 18814, "0100": 156, "615": 2250, "369": 1641, "ny": 12962, "411": 1785, "000001": 70, "church": 5339, "0000000000000000000000000000000000000000000000000000000000000000000000000000000000000000000000000000000000000000000000000000000000000000000000000000000000000000000000000000000000000000000000000000000000000000000000000000000000000000000000000000000000000000000000000000000000000000000000000000000000000000": 36, "00000000000": 23, "058": 260, "0022": 116, "000020": 86, "525": 2046, "00000000000000000000000000000000": 30, "compress": 5681, "oting": 13338, "ado": 3261, "fibs": 8310, "biguint": 4445, "572": 2125, "mytuple": 12509, "myfunc": 12447, "mytable": 12503, "1207": 823, "243": 1303, "171": 1011, "suites": 16880, "rc4": 14687, "dhe": 6739, "3des": 1724, "ede": 7423, "des40": 6634, "lv2": 11652, "236": 1284, "209": 1208, "mountain": 12242, "840": 2624, "113549": 799, "exponent": 7979, "0001": 92, "modulus": 12192, "c00": 4828, "7f8": 2544, "b6c": 4137, "77d": 2491, "744": 2444, "bff": 4420, "67d": 2350, "356": 1612, "17e": 1029, "712": 2409, "995": 2846, "ceb": 5150, "7fe": 2546, "92d": 2764, "26c": 1361, "be5": 4335, "b0a": 4091, "a28": 2927, "c5e": 4886, "498": 1946, "632": 2271, "pki": 13854, "goo": 9073, "gle": 9013, "giag2": 8972, "0030": 119, "0040": 122, "0050": 127, "1a": 1101, "11129": 789, "usages": 18269, "lj": 11435, "8e": 2708, "0060": 129, "0070": 132, "0090": 138, "00a0": 139, "00b0": 142, "00c0": 143, "00d0": 145, "00e0": 148, "00f0": 149, "c2a0": 4860, "382": 1664, "bc8": 4312, "467": 1893, "08f": 294, "c5f": 4887, "189": 1068, "732": 2428, "074": 278, "5fc": 2197, "453": 1872, "4530": 1873, "f44": 8058, "c9f": 4914, "087": 289, "7ff": 2548, "3ca": 1713, "737": 2435, "b11": 4094, "317": 1516, "1fb": 1125, "32b": 1548, "584": 2148, "c62": 4889, "2011": 1177, "8e7": 2710, "269": 1358, "023": 192, "crls": 6041, "sha1with": 15917, "a1d": 2918, "6639": 2323, "805": 2572, "b76": 4144, "9846": 2826, "2008": 1172, "1415": 914, "a37": 2937, "bfc": 4417, "955": 2787, "097": 301, "2664": 1352, "d4d": 6246, "57b": 2138, "e6f": 7324, "071": 276, "d45": 6242, "333": 1559, "29c": 1425, "be8": 4336, "716": 2411, "equifax": 7734, "bbe": 4304, "ifier": 9806, "qualifier": 14509, "capt": 5024, "cting": 6096, "enc": 7590, "pubkey": 14364, "ikey": 9846, "dal": 6297, "5cbed": 2182, "c90": 4906, "cf305": 5214, "1824": 1052, "686": 2357, "xprev": 19194, "2n": 1461, "1n": 1138, "yer": 19260, "paper": 13505, "887": 2684, "597": 2167, "924": 2759, "316": 1513, "5666": 2112, "779": 2490, "described": 6645, "nov": 12859, "computes": 5694, "740": 2440, "9n": 2874, "cubes": 6123, "supply": 16912, "anging": 3566, "stuck": 16762, "uint8array": 17967, "ipfs": 10357, "learning": 11081, "vj": 18619, "qg": 14466, "8x": 2719, "ye": 19252, "mz": 12520, "provide": 14314, "uploaded": 18207, "silent": 16064, "canceled": 4994, "oned": 13136, "resolved": 15070, "mystringval": 12499, "e0368": 7204, "infinity": 10069, "preferences": 14115, "commun": 5621, "ities": 10495, "forum": 8608, "foo3": 8549, "stencil": 16613, "gindex": 8985, "lindex": 11357, "vsubtype": 18670, "vtype": 18677, "496": 1942, "out2": 13359, "period": 13698, "407": 1772, "008": 135, "isaac64rng": 10396, "genetic": 8895, "mutator": 12402, "mep": 11977, "crossover": 6050, "particular": 13562, "clos": 5455, "foo1": 8547, "transformer": 17618, "eventual": 7862, "haystack": 9363, "needle": 12623, "adv": 3272, "ctime": 6095, "describe": 6644, "ldflags": 11058, "leading": 11068, "resses": 15092, "suitable": 16878, "timestep": 17418, "timers": 17409, "vity": 18618, "repeatedly": 14993, "swapped": 16953, "earlier": 7361, "nxcompat": 12960, "libhyper": 11219, "f94": 8084, "modifier": 12176, "d18": 6227, "libmime": 11244, "812": 2591, "47f": 1913, "typeable": 17837, "583": 2147, "liblog": 11238, "liburl": 11302, "384": 1668, "b0b": 4092, "libopenssl": 11254, "libtime": 11295, "19b": 1097, "libmatches": 11242, "bf7": 4415, "f97": 8086, "018": 177, "a36": 2936, "unicase": 18077, "97b": 2815, "4e7c5e5c": 1966, "libunicode": 11300, "lws2": 11666, "lcompiler": 11038, "ac4": 3076, "reloc": 14946, "450": 1868, "fence": 8250, "temp1": 17171, "temp2": 17172, "gated": 8833, "toast": 17475, "nologo": 12795, "libpath": 11258, "jaden": 10569, "3bd7255de8fc516c": 1705, "gey": 8952, "982": 2822, "tlm": 17446, "4k": 1979, "his": 9491, "zq": 19440, "31m": 1523, "i7": 9674, "872": 2664, "noicf": 12790, "natvis": 12572, "intrinsic": 10295, "libtest": 11293, "libterm": 11292, "de7": 6424, "adb": 3195, "239": 1290, "libhashbrown": 11216, "5599": 2100, "libbacktrace": 11178, "5d9": 2184, "faf": 8122, "libcfg": 11184, "24a": 1314, "eab": 7350, "548": 2076, "df9": 6724, "009": 137, "d0b": 6221, "seem": 15738, "eas": 7364, "visualstudio": 18617, "alternate": 3467, "proceeding": 14218, "workload": 18964, "e0503": 7238, "firebase": 8391, "messaging": 11999, "nonnull": 12809, "delayed": 6544, "tas": 17113, "ition": 10497, "anim": 3573, "analytics": 3523, "mediate": 11935, "mio": 12098, "statistics": 16581, "696": 2365, "collisions": 5569, "359": 1616, "missed": 12111, "heartbeat": 9409, "bri": 4678, "i0": 9655, "inform": 10080, "opn": 13218, "drops": 7053, "gateways": 8837, "ency": 7614, "speedtest": 16370, "upt": 18222, "stun": 16772, "pnet": 13918, "datalink": 6339, "ipv4": 10369, "james": 10575, "ather": 3919, "emul": 7581, "nic": 12719, "mike": 12058, "sysinfo": 17016, "yay": 19248, "libtool": 11297, "mypackage": 12470, "861": 2646, "efa": 7469, "libmimalloc": 11243, "ac1": 3074, "imalloc": 9891, "dcmake": 6403, "chr": 5328, "mapper1": 11783, "8192": 2596, "subcommand": 16788, "u16be": 17860, "pretend": 14144, "fmod": 8501, "bigs": 4444, "t1518": 17049, "1037": 733, "texture2d": 17261, "vp": 18654, "tech": 17159, "prim": 14158, "itives": 10501, "normvec": 12833, "weather": 18777, "wood": 18944, "ilist": 9860, "shall": 15935, "redir": 14835, "filet": 8351, "ype": 19302, "endfunction": 7624, "vim": 18589, "nmap": 12763, "leader": 11067, "substitute": 16833, "throttle": 17344, "blub": 4544, "neighbours": 12641, "dfs": 6730, "excess": 7898, "lfu": 11159, "gla": 9010, "inkey": 10130, "detach": 6682, "produces": 14235, "gable": 8808, "\u2032": 19787, "i18n": 9661, "braces": 4653, "dirty": 6827, "hexdump": 9452, "infinite": 10067, "c95": 4909, "manufacturer": 11770, "greeting": 9155, "dtr": 7080, "rodata": 15269, "disallowed": 6832, "wants": 18725, "colon": 5572, "infors": 10082, "maintain": 11729, "esser": 7805, "callgrind": 4971, "profiling": 14250, "isaac64": 10395, "742": 2443, "memmove": 11959, "strcmp": 16685, "063": 266, "028": 197, "938": 2771, "tooth": 17522, "lectric": 11092, "sle": 16150, "smell": 16198, "teen": 17165, "spir": 16395, "lee": 11098, "e0005": 7161, "refutable": 14891, "comps": 5685, "wtr": 19048, "fragment": 8643, "winrt": 18906, "preference": 14114, "pref": 14111, "partner": 13565, "easier": 7365, "sheet": 15953, "poss": 14030, "ibility": 9697, "whoops": 18853, "562": 2105, "unmarshaller": 18126, "marsh": 11810, "regard": 14894, "namespaces": 12553, "ware": 18730, "implementing": 9936, "friends": 8694, "123456789": 837, "btree": 4725, "polling": 13962, "framebuffer": 8646, "glf": 9015, "wwindow": 19057, "vao": 18427, "texture1": 17259, "texture2": 17260, "attrib": 3964, "textures": 17262, "texture0": 17258, "parameteri": 13517, "mir": 12101, "mag": 11711, "apparently": 3656, "procs": 14228, "shaderiv": 15929, "lsizei": 11603, "float32": 8462, "lfloat": 11158, "sampler2d": 15562, "responding": 15085, "422": 1810, "unprocessable": 18140, "catcher": 5071, "flash": 8438, "outercount": 13371, "myprog": 12476, "applet": 3671, "baudrate": 4283, "constrain": 5787, "gpioa": 9094, "usart": 18270, "gpiob": 9095, "gpi": 9092, "levels": 11150, "attrs": 3970, "centr": 5182, "visiting": 18612, "differently": 6782, "stem": 16611, "ccm": 5121, "listenfd": 11412, "ain": 3345, "8y": 2720, "ht": 9598, "resz": 15114, "lights": 11341, "flights": 8452, "avail": 4026, "implicitly": 9943, "8s": 2713, "observed": 13002, "dto": 7077, "ley": 11155, "dsa": 7061, "5001": 2003, "nsurl": 12896, "networking": 12666, "trusting": 17728, "priority": 14183, "8001": 2565, "americ": 3490, "\u00e8": 19494, "peter": 13741, "restrict": 15098, "2c6933acc": 1435, "ws2007http": 19015, "iws": 10536, "qwe": 14554, "wss4j": 19032, "policyhandlers": 13956, "symmetric": 16988, "531": 2054, "757": 2460, "635": 2274, "627": 2263, "conversation": 5857, "among": 3504, "announce": 3593, "draft": 7026, "approve": 3687, "outgoing": 13374, "bag": 4199, "attr1": 3959, "attr2": 3960, "lock2": 11501, "reentrant": 14852, "bzlib": 4825, "fred": 8661, "tutorial": 17794, "bzip2": 4823, "tuple2": 17778, "grap": 9131, "her": 9437, "analysis": 3522, "4242": 1814, "mod1": 12157, "quotation": 14543, "\u2726": 19901, "somelib": 16283, "abo": 3054, "skill": 16134, "t14": 17047, "icates": 9710, "hashing": 9343, "mdo": 11915, "placed": 13866, "unverified": 18177, "spdk": 16344, "dpdk": 7016, "dpt1": 7020, "dothings": 6987, "blink": 4526, "adr": 3268, "crap": 5990, "postal": 14036, "libpostal": 11260, "water": 18751, "dumb": 7093, "sha2": 15918, "passphrase": 13575, "rfc3339": 15172, "orders": 13260, "usd": 18272, "varkey": 18448, "boy": 4642, "ineas": 10052, "father": 8162, "lawrence": 11003, "phineas": 13774, "barfoo": 4236, "retob": 15126, "pointed": 13938, "corrupted": 5924, "mpf": 12275, "limb": 11347, "gmpf": 9049, "rop": 15300, "op1": 13179, "op2": 13180, "1111111111111111": 787, "4294967": 1823, "chosen": 5326, "pluck": 13905, "perms": 13714, "syntact": 17003, "1034": 730, "reaches": 14723, "cpd": 5966, "prb": 14078, "sigma2": 16038, "pt1": 14341, "ksig": 10896, "razn": 14677, "calloc": 4975, "probabilities": 14200, "sigma": 16037, "probability": 14201, "p1timessp": 13436, "pxtimessp": 14421, "sumof": 16895, "diff2": 6774, "diff3": 6775, "prbn": 14079, "p1m": 13435, "pxm1": 14417, "pxm2": 14418, "pxm3": 14419, "spn": 16413, "strum": 16755, "ving": 18592, "ores": 13270, "construction": 5798, "thanks": 17271, "destructure": 6677, "uring": 18239, "oute": 13367, "lbyte": 11032, "lclamp": 11035, "lubyte": 11632, "ushort": 18296, "lsizeiptr": 11604, "lbitfield": 11029, "gli": 9017, "loat": 11483, "cstr": 6083, "purpose": 14390, "dtime": 7076, "usec": 18274, "timer2": 17407, "timer1": 17406, "result1": 15104, "r1ptr": 14572, "ms1": 12299, "vectorized": 18500, "result2": 15105, "result3": 15106, "t1761": 17052, "equivalently": 7737, "synthetic": 17010, "collective": 5563, "filing": 8353, "avg": 4038, "activities": 3167, "79ms": 2521, "64ms": 2303, "691": 2362, "603": 2231, "516": 2031, "pci": 13622, "9600": 2793, "3120": 1509, "609": 2241, "389": 1675, "601": 2227, "718": 2413, "905": 2730, "546": 2074, "677": 2346, "tpm": 17561, "vict": 18569, "computed": 5691, "communicator": 5624, "rmdir": 15238, "epub": 7728, "videotestsrc": 18576, "gst": 9187, "income": 9995, "expenses": 7959, "expense": 7958, "rustic": 15466, "gon": 9071, "measurer": 11927, "applicable": 3672, "e0034": 7163, "poke": 13946, "pokemon": 13948, "metal": 12005, "lpvoid": 11591, "chk": 5315, "stk": 16632, "0x00007": 398, "00000001": 50, "routine": 15328, "558": 2098, "w64": 18696, "mingw32": 12079, "lto": 11628, "mingw": 12078, "libexec": 11202, "objc": 12985, "fortran": 8604, "og": 13073, "gomp": 9070, "multilib": 12355, "probe": 14203, "16777216": 995, "vec3f": 18477, "ptrs": 14354, "casted": 5061, "density": 6590, "abc123": 3028, "b40": 4118, "iterates": 10477, "invoking": 10327, "odir": 13045, "relocatable": 14947, "e059": 7253, "devtoolset": 6714, "rep": 14989, "char16": 5263, "578": 2135, "5052": 2012, "656": 2313, "sharable": 15945, "iters": 10487, "portal": 14005, "cplusplus": 5968, "ji": 10625, "supposed": 16918, "quiz": 14541, "compil": 5646, "ative": 3925, "nonexhaustive": 12806, "mdns": 11914, "questions": 14526, "dthrust": 7075, "bigger": 4440, "e0210": 7182, "redirection": 14837, "shenanigans": 15958, "option10": 13238, "value10": 18414, "tidx": 17377, "changeset": 5255, "prost": 14295, "enumeration": 7698, "motive": 12239, "uxe": 18350, "sport": 16421, "nok": 12794, "referrer": 14873, "percentage": 13687, "modulo": 12191, "euclidean": 7835, "runn": 15421, "semantics": 15769, "hints": 9489, "suits": 16882, "hearts": 9411, "club": 5474, "diam": 6752, "shadowed": 15932, "jw": 10724, "e0161": 7177, "prior": 14181, "health": 9401, "dmg": 6924, "stairs": 16531, "matth": 11868, "randomizer": 14632, "collecting": 5560, "pythonhosted": 14443, "e63": 7319, "3833": 1666, "beaut": 4346, "iful": 9816, "pycharmprojects": 14426, "math1061": 11846, "58a": 2155, "258": 1333, "64d": 2301, "py3": 14424, "whl": 18849, "1749": 1016, "a000": 2900, "0450": 244, "ef8": 7466, "py2": 14423, "782": 2499, "887c": 2685, "20a": 1211, "41f": 1805, "968": 2799, "a80": 2981, "idna": 9765, "certifi": 5195, "cryptography": 6068, "a45": 2943, "a6c": 2970, "pycharm": 14425, "1061": 745, "cffi": 5219, "965": 2797, "3e4": 1727, "0342": 213, "23f": 1295, "d04": 6215, "20b": 1213, "025": 194, "caa": 4924, "9704": 2805, "fadd": 8120, "456": 1877, "ifndef": 9811, "une": 18064, "flexible": 8449, "nbar": 12581, "urlopen": 18248, "acb": 3083, "keeper": 10773, "refkeeper": 14878, "curren": 6151, "recomm": 14798, "nest": 12657, "lnk": 11472, "gettemp": 8943, "forbid": 8568, "signs": 16052, "vir": 18598, "ric": 15193, "econ": 7410, "myfunction": 12448, "fetched": 8261, "tendril": 17186, "tokenizer": 17493, "remain": 14954, "08x": 295, "chs": 5333, "bcrypt": 4320, "recurs": 14818, "ursive": 18259, "specifying": 16364, "sealed": 15690, "ceiver": 5159, "guard1": 9205, "fibonacci": 8309, "ff00": 8268, "684": 2355, "a2f5": 2930, "a68": 2968, "dwadwad": 7132, "declspec": 6473, "dllexport": 6911, "dwad": 7131, "cufft": 6135, "cudart": 6131, "hdr": 9387, "ldconfig": 11056, "libc6": 11183, "someone": 16285, "sally": 15545, "dept": 6607, "implies": 9945, "dls": 6914, "reqs": 15032, "select2": 15754, "smth": 16210, "retry": 15135, "url2": 18244, "ste": 16605, "vector3f": 18495, "masks": 11823, "hittable": 9501, "vh": 18562, "along": 3445, "parses": 13550, "html5ever": 9603, "teams": 17156, "wp": 18978, "cab": 4926, "immediate": 9912, "funnel": 8755, "compose": 5676, "fun1": 8737, "fun2": 8738, "unfold": 18069, "hir": 9490, "circuit": 5362, "858993460": 2640, "004": 121, "5544": 2091, "msp": 12316, "trade": 17586, "0x10000000": 445, "sky": 16139, "extras": 8019, "607": 2236, "980": 2820, "611": 2245, "786": 2507, "22165": 1248, "selecting": 15757, "overriding": 13405, "794": 2517, "934": 2769, "940": 2775, "\u00b7": 19479, "leak": 11072, "44100": 1849, "indexer": 10027, "constexpr": 5784, "interior": 10252, "090": 297, "rcdom": 14690, "retrie": 15129, "trait1": 17598, "disambiguate": 6834, "trait2": 17599, "otate": 13326, "transliterate": 17626, "\u0431": 19592, "\u0433": 19595, "\u0491": 19628, "\u0435": 19597, "\u0454": 19623, "\u0436": 19598, "\u0437": 19599, "\u0438": 19600, "\u0456": 19624, "\u0457": 19625, "\u0439": 19601, "\u043b": 19603, "\u043c": 19604, "\u043d": 19605, "\u043f": 19607, "\u0440": 19609, "\u0441": 19611, "\u0442": 19612, "\u0443": 19613, "\u0444": 19614, "\u0445": 19615, "\u0446": 19616, "\u0447": 19617, "\u0448": 19619, "\u0449": 19620, "\u044e": 19621, "\u044f": 19622, "keyed": 10800, "ave": 4032, "579": 2136, "005": 126, "013": 169, "2398": 1293, "multidimensional": 12354, "dwin32": 7137, "hsc": 9596, "zi": 19363, "handshaker": 9311, "orjson": 13290, "pep": 13682, "pep517": 13683, "ryu": 15509, "simd": 16067, "itoa": 10506, "associ": 3874, "wy": 19062, "unexpectedly": 18068, "reports": 15015, "noalias": 12770, "\u00f0": 19499, "\u00ff": 19506, "maturin": 11872, "manylinux": 11774, "asks": 3831, "kon": 10878, "sole": 16267, "bolt": 4577, "broadcaster": 4689, "dataframe": 6336, "classmethod": 5401, "sciter": 15637, "76ww7m4n1j5210m9vxc88hy40000gn": 2476, "oet": 13049, "anbsl": 3528, "bvu": 4803, "liblazy": 11227, "529": 2050, "fbb": 8174, "10e": 766, "f25": 8047, "dad": 6291, "538": 2062, "a4729905": 2947, "romans": 15287, "roman": 15285, "isnan": 10415, "383": 1665, "dsizew": 7064, "dsizeh": 7063, "blks": 4530, "socks": 16258, "socketpair": 16254, "proptest": 14293, "esian": 7795, "xxxxxxxx": 19222, "gtmp": 9194, "biter": 4484, "60s": 2242, "timeo": 17402, "intl": 10290, "storing": 16668, "hasn": 9352, "benchmark": 4393, "benches": 4392, "dbus": 6392, "stdintf": 16597, "freedesktop": 8665, "ializes": 9683, "timebase": 17398, "denom": 6585, "numer": 12931, "quad": 14500, "userid": 18288, "dumps": 7100, "prepared": 14128, "jwt": 10726, "rs256": 15360, "coer": 5538, "rating": 14663, "tinyint": 17427, "theorem": 17285, "quer": 14518, "assigns": 3870, "incre": 10005, "junk": 10719, "sequences": 15816, "ghidra": 8968, "zg": 19359, "pcode": 13629, "headless": 9398, "gson": 9186, "usion": 18298, "zu": 19450, "subprocess": 16814, "cacheget": 4933, "uint8memory": 17969, "wbindgen": 18763, "subarray": 16785, "uint32memory": 17964, "uint32array": 17963, "ptr0": 14349, "len0": 11116, "retptr": 15127, "typeof": 17843, "sockets": 16255, "future1": 8773, "future2": 8774, "wso2": 19026, "wso2carbon": 19027, "soapenv": 16248, "2003": 1163, "palindrome": 13493, "lar": 10961, "continuing": 5838, "larger": 10966, "demonstrate": 6579, "hardcoded": 9323, "1433": 927, "identifiers": 9751, "olve": 13106, "174": 1014, "chapter1": 5261, "gcd": 8850, "smoltcp": 16205, "390": 1680, "uploader": 18208, "lpcwstr": 11586, "istream": 10442, "wvt": 19055, "begin1": 4366, "vio": 18593, "50000": 2000, "dirent": 6823, "memo": 11960, "stm32f1": 16637, "stm32f103": 16638, "arity": 3751, "stm32f1xx": 16640, "pac": 13449, "enr": 7659, "lications": 11312, "identifiable": 9747, "wheres": 18836, "selectable": 15755, "said": 15539, "vol": 18640, "edits": 7437, "ae7": 3283, "music": 12383, "untyped": 18175, "nombre": 12797, "ust": 18303, "actividad": 3166, "clemente": 5415, "roberto": 15258, "exhausted": 7928, "dar": 6314, "nxt": 12961, "uncommented": 18042, "l3": 10920, "v9": 18379, "maxrregcount": 11883, "mbcs": 11894, "isan": 10400, "cas": 5049, "fabs": 8102, "\u200b": 19774, "inj": 10125, "injection": 10127, "ners": 12654, "today": 17479, "203": 1192, "index2": 10024, "apping": 3668, "ignoring": 9832, "rouille": 15316, "terrible": 17211, "aio": 3348, "remap": 14958, "pins": 13821, "countries": 5944, "france": 8654, "aly": 3478, "flutter": 8490, "ift": 9815, "pod": 13926, "homepage": 9544, "ulator": 17983, "i32x8": 9668, "dedup": 6500, "sleeping": 16153, "\u00f9": 19504, "multiples": 12361, "tract": 17583, "adaptor": 3193, "lattice": 10994, "decltype": 6474, "whitespaces": 18847, "decorated": 6487, "abbrev": 3024, "slice1": 16165, "slice2": 16166, "myfile": 12444, "radiosity": 14607, "emission": 7564, "upointer": 18211, "ssbo": 16482, "t30": 17057, "usecpsec": 18275, "1000000ull": 696, "timeval": 17419, "gettimeofday": 8947, "ordinary": 13263, "9527": 2785, "9s": 2878, "8081": 2579, "0x90": 644, "0x09": 436, "ebx": 7384, "\u00b2": 19474, "khr": 10827, "f4f91f7ee1aace3062571bc1f678b702fbd020cd": 8062, "d90": 6279, "e56": 7313, "a9a": 2992, "40ab": 1777, "3b5": 1701, "9949": 2844, "e90": 7340, "15d": 966, "vulkan": 18679, "popped": 13993, "rac": 14598, "basic0123": 4261, "opencv2": 13190, "randu": 14636, "strr": 16735, "mmm": 12141, "e0080": 7170, "1000001": 697, "traverse": 17646, "traver": 17644, "groom": 9167, "offs": 13059, "basename": 4257, "lix": 11432, "backwards": 4190, "e0509": 7243, "bb8": 4298, "modb": 12162, "traffic": 17589, "basdfsad": 4245, "lfas": 11157, "loon": 11555, "balloon": 4212, "faster": 8158, "mypassword": 12472, "activator": 3164, "messenger": 12000, "listed": 11408, "299": 1424, "sge": 15907, "0i": 341, "841470": 2625, "956": 2788, "setprecision": 15870, "634": 2273, "1677": 993, "1478": 938, "361": 1629, "485": 1922, "categories": 5073, "merkle": 11987, "simon": 16069, "kh": 10826, "sem": 15767, "ism": 10413, "switches": 16973, "hardware": 9325, "evidence": 7869, "supporting": 16915, "ctc": 6091, "wstx": 19039, "exc": 7890, "507": 2015, "iom": 10338, "ipr": 10364, "ange": 3559, "478": 1910, "2aa4c46cfdd726e97360c2734835aa3515e8c858": 1430, "0xbf": 657, "pex": 13748, "els": 7545, "otos": 13342, "wrote": 19009, "7878": 2509, "reliability": 14941, "1f64": 1122, "100f64": 708, "matrix4": 11862, "cull": 6137, "physics": 13786, "gizmo": 9006, "grey": 9159, "synchronization": 16994, "ffe": 8277, "responded": 15082, "myvec": 12515, "newvec": 12694, "googleapis": 9080, "blab": 4505, "taker": 17097, "decrement": 6493, "gps": 9101, "mission": 12115, "holochain": 9540, "ges": 8920, "wv": 19054, "tn": 17470, "qcx": 14460, "s6": 15524, "vb": 18453, "tender": 17185, "zm": 19374, "r5": 14584, "jb": 10592, "bundles": 4780, "maplit": 11779, "directional": 6814, "dates": 6357, "backends": 4178, "8d6": 2707, "concatenated": 5705, "qn": 14476, "oniguruma": 13148, "onig": 13146, "v61": 18374, "c40": 4874, "561": 2104, "rights": 15204, "40b": 1778, "e748": 7327, "dc2": 6396, "libbitflags": 11180, "plant": 13881, "purify": 14386, "urify": 18238, "sanitize": 15570, "plan": 13873, "lic": 11308, "hellow": 9427, "canary": 4990, "entity1": 7681, "clones": 5453, "mts": 12336, "drained": 7031, "reproduction": 15028, "59159": 2160, "stringval": 16720, "eigen": 7492, "dense": 6588, "mat4f": 11832, "t21": 17055, "219": 1241, "quoted": 14546, "w1": 18692, "w2": 18693, "dh": 6736, "lanczos": 10946, "ansport": 3610, "dag": 6296, "todoist": 17481, "ido": 9767, "accepts": 3097, "prox": 14319, "craw": 5998, "zed": 19341, "shortened": 15986, "summar": 16888, "occurrences": 13023, "consistency": 5775, "paralle": 13508, "857": 2638, "considered": 5773, "independent": 10020, "reassignment": 14764, "592": 2161, "e80": 7332, "reviews": 15155, "ccall": 5110, "lease": 11082, "leep": 11099, "summarize": 16890, "doubled": 6996, "t9": 17069, "cpt": 5974, "lections": 11090, "newarr": 12674, "often": 13070, "massive": 11826, "elem2": 7521, "summand": 16887, "iproduct": 10365, "myself": 12486, "3u8": 1746, "eatable": 7371, "atable": 3895, "vmod": 18629, "tpm2": 17562, "pcr": 13630, "hashed": 9339, "dic": 6758, "carbon": 5033, "marks": 11807, "cstring": 6084, "wise": 18916, "interested": 10247, "autorelease": 4019, "nlu": 12761, "snips": 16238, "tbl1": 17124, "\u6f22": 19979, "\u5b57": 19966, "00s": 152, "\u0ca0": 19676, "yg": 19269, "ook": 13163, "isation": 10401, "incline": 9988, "rise": 15218, "stringy": 16721, "serialisation": 15825, "4u8": 1991, "deserialised": 6652, "pops": 13995, "dq": 7022, "disk": 6847, "giver": 9003, "town": 17552, "jkl": 10638, "secting": 15718, "few": 8264, "illion": 9868, "supertrait": 16906, "multis": 12372, "lice": 11314, "windsor": 18893, "locator": 11496, "ddf": 6416, "d87": 6272, "coco": 5518, "intro": 10297, "intr": 10293, "rer": 15045, "e34": 7297, "r34r34": 14581, "r34": 14580, "5534": 2089, "lob": 11484, "jects": 10612, "mai": 11718, "lyrics": 11672, "gyro": 9232, "g1": 8796, "acceler": 3090, "segmentsizes": 15749, "idl": 9763, "idr": 9768, "uds": 17935, "ipc": 10356, "continuous": 5839, "878": 2669, "864": 2653, "lorem": 11567, "ipsum": 10367, "dolor": 6966, "sit": 16106, "amet": 3493, "4123": 1787, "2129": 1229, "adj": 3248, "sparse": 16338, "vector1": 18490, "differences": 6780, "sz1": 17029, "903": 2729, "sile": 16063, "observe": 13001, "shot": 15992, "tsr": 17748, "certum": 5202, "afile": 3307, "rfc3161": 15171, "freet": 8670, "hashname": 9347, "uld": 17984, "tsa": 17740, "insensitive": 10157, "maxx": 11887, "maxy": 11888, "sarray": 15575, "mycallback": 12433, "ica": 9703, "dra": 7025, "ingredients": 10091, "spic": 16382, "vegetarian": 18507, "veget": 18506, "deserialization": 6654, "recovery": 14808, "unmanaged": 18124, "pau": 13598, "snipsco": 16239, "ontology": 13159, "sccache": 15619, "1175": 808, "708": 2406, "41c": 1802, "dae": 6293, "fcf": 8188, "gaz": 8842, "1178": 809, "1808": 1045, "3bb1313de543aa2a8027da9fc11c435db0cce8c0": 1704, "758074a27c339fa9e0cd477baee1f378fd0c2892": 2462, "grammar": 9122, "zh": 19361, "interactive": 10242, "iser": 10406, "webserver": 18789, "guarded": 9207, "sigterm": 16059, "wf": 18817, "10u32": 774, "divis": 6886, "hill": 9482, "mber": 11896, "ever": 7864, "txc": 17819, "central": 5183, "peripheral": 13703, "mdevice": 11912, "rum": 15412, "ble": 4522, "pso": 14334, "invalidate": 10310, "constanta": 5782, "claimed": 5384, "erased": 7742, "sessions": 15859, "eloop": 7543, "fulf": 8728, "bashrc": 4259, "300000000": 1484, "mt19937": 12330, "stream1": 16692, "stream2": 16693, "happening": 9317, "lap": 10958, "both1": 4619, "393": 1685, "839": 2621, "489": 1926, "042": 240, "031": 209, "452": 1870, "038": 218, "375": 1652, "072": 277, "069": 273, "cassert": 5059, "demonstr": 6578, "allocations": 3427, "quickly": 14535, "gain": 8812, "ptrdiff": 14353, "cleaning": 5408, "ourselves": 13354, "standing": 16542, "692": 2363, "595": 2164, "463": 1889, "549": 2077, "445": 1857, "719": 2414, "413": 1788, "349": 1598, "347": 1596, "747": 2447, "831": 2614, "292": 1411, "hkey": 9504, "winreg": 18904, "qrcode": 14482, "uranus": 18228, "eslint": 7797, "workerize": 18960, "hooks": 9551, "ac9": 3081, "b2e": 4108, "69608c56": 2366, "yarn": 19245, "cript": 6032, "webassembly": 18780, "starter": 16555, "reci": 14784, "web3": 18779, "blake2b": 4516, "hm2": 9509, "bm": 4551, "yu": 19318, "memchr": 11952, "3ab": 1699, "44d": 1866, "sel": 15752, "derefs": 6621, "perpendicular": 13721, "rdp": 14709, "dmax": 6923, "1i8": 1134, "chun": 5334, "beat": 4345, "ied": 9778, "iller": 9867, "europe": 7841, "fre": 8659, "\u00f6": 19502, "uer": 17939, "ilt": 9875, "fter": 8716, "gel": 8866, "van": 18424, "asso": 3871, "ader": 3242, "getr": 8939, "veer": 18505, "oning": 13149, "\u00eb": 19496, "early": 7362, "ud": 17923, "aming": 3501, "bro": 4687, "bright": 4683, "peri": 13696, "fig": 8328, "watched": 18749, "night": 12732, "angled": 3568, "851": 2633, "675": 2343, "416": 1793, "488": 1925, "joining": 10667, "0308": 208, "\u25cc": 19881, "mysqlclient": 12493, "ultradata": 18000, "rdf": 14703, "sxd": 16976, "xpath": 19192, "nodeset": 12784, "scored": 15652, "nanos": 12560, "singl": 16094, "flattened": 8444, "lineno": 11368, "diagnostic": 6745, "deeply": 6505, "unscaled": 18154, "hough": 9570, "1415926": 916, "gccjit": 8849, "50727": 2016, "numpy": 12936, "xn": 19181, "float64": 8466, "elsewhere": 7547, "dptr": 7021, "b08": 4090, "skipping": 16137, "shim": 15964, "absol": 3066, "ely": 7551, "brain": 4658, "optionally": 13241, "bbswitch": 4306, "borrow2": 4606, "bitrate": 4492, "1500": 948, "0x0000555555": 393, "444": 1853, "intra": 10294, "gstreamer": 9188, "pads": 13470, "debuggable": 6444, "lenth": 11126, "kilo": 10838, "przv": 14325, "ligh": 11339, "fnc": 8516, "fst": 8711, "devvec": 6715, "fst61440slow149998": 8712, "149998": 943, "destructuring": 6678, "optimizely": 13233, "764986252": 2469, "iframe": 9814, "srcdoc": 16465, "213": 1230, "604049823": 2233, "53aa8912dec7e10d38f59f36": 2064, "58a3003b0000ff00059cab80": 2156, "eliquidsnow": 7534, "50px": 2022, "282050013": 1393, "800px": 2566, "64000": 2283, "5792": 2137, "partials": 13557, "tmpr": 17464, "batt": 4277, "101100": 716, "dex": 6716, "b6c32da9": 4138, "dyld": 7144, "libwep": 11305, "eal": 7359, "lcore": 11040, "hugepages": 9630, "reported": 15012, "2048k": 1196, "probing": 14205, "vfio": 18557, "pmd": 13913, "rte": 15384, "numa": 12923, "8086": 2580, "retc": 15123, "devargs": 6697, "tailq": 17090, "drv": 7055, "pdev": 13636, "aud": 3979, "br3z": 4650, "blr": 4543, "bbwmx": 4307, "oam1av": 12972, "ences": 7596, "de2": 6421, "preced": 14088, "apparent": 3655, "unsafety": 18153, "kitties": 10853, "0x000000000000000000000000000000000000000000000000000000000000000": 387, "licensed": 11316, "compli": 5667, "distrib": 6866, "uted": 18315, "warran": 18736, "ties": 17380, "gover": 9088, "keyring": 10810, "ics": 9729, "osed": 13312, "9944": 2843, "h256": 9246, "cfset": 5228, "cfhttp": 5223, "cfhttpparam": 5224, "trustcacerts": 17724, "clamped": 5388, "grace": 9110, "subpixel": 16813, "3i": 1734, "wers": 18813, "ired": 10383, "stamping": 16534, "10i": 769, "freifunk": 8675, "hein": 9417, "von": 18646, "aus": 3986, "bufsize": 4750, "sgbuf": 15906, "cnbuf": 5507, "imag": 9881, "t1751": 17051, "decor": 6486, "usual": 18307, "lens": 11125, "subcommands": 16789, "ground": 9169, "cyan": 6198, "\u25a0": 19879, "ertin": 7783, "avy": 4051, "esys": 7816, "enumber": 7693, "excel": 7894, "mob": 12151, "exemp": 7921, "\u221a": 19819, "\u2022": 19783, "revision": 15156, "268": 1357, "dart": 6316, "b01": 4088, "grams": 9123, "0257": 195, "rustlang": 15469, "saas": 15529, "dbc": 6378, "\u25b6": 19880, "telnet": 17168, "x0b": 19071, "latz": 10995, "factors": 8117, "1048576": 740, "aeabi": 3285, "libsmoltcp": 11278, "moltcp": 12195, "orwell": 13306, "intermediates": 10257, "armeabi": 3756, "v7a": 18376, "liborwell": 11256, "6352462": 2275, "sysroot": 17018, "wind": 18885, "libstdc": 11287, "mpeg": 12274, "ffmpeg": 8295, "libav": 11177, "cale": 4958, "ample": 3508, "libmy": 11247, "zl": 19371, "libz": 11307, "oolkit": 13166, "libopenvpn3": 11255, "openvpn3": 13204, "libt": 11291, "omic": 13118, "arm64": 3754, "nostdlib": 12839, "lowks": 11580, "t471": 17063, "divisible": 6887, "passive": 13574, "nonatomic": 12800, "participants": 13559, "animations": 3578, "snapshot1": 16227, "snapshot2": 16228, "hun": 9633, "kinesis": 10847, "orphic": 13295, "conj": 5751, "zref": 19442, "2960": 1419, "612": 2246, "637": 2277, "552": 2084, "784": 2503, "911": 2739, "647": 2296, "2826": 1395, "513": 2029, "4301": 1830, "916": 2743, "952": 2784, "357": 1613, "553": 2087, "1267": 861, "035": 215, "804": 2571, "0200": 185, "064": 267, "10880": 756, "932": 2766, "902": 2728, "fpath": 8627, "meshes": 11991, "topmost": 17530, "shout": 15996, "seg": 15741, "ads": 3270, "e0405": 7218, "seperator": 15807, "staff": 16523, "fonts": 8543, "ato": 3931, "stylesheet": 16779, "sans": 15572, "authorized": 4004, "iter2d": 10471, "620": 2257, "530": 2053, "630": 2270, "cartesian": 5048, "4444": 1854, "moun": 12240, "1415926536897932384626": 922, "6072529350088812561694": 2239, "elms": 7541, "1073741824": 748, "cordic": 5898, "ipow": 10361, "atan": 3900, "dac": 6290, "ea8": 7348, "0x3": 496, "0x7fff55": 621, "fea": 8225, "8u": 2715, "12f": 872, "gent": 8902, "60725": 2237, "0x0f": 439, "0x07": 433, "0625": 265, "12398": 850, "0x00ff": 424, "fff": 8279, "0078": 133, "fffe": 8280, "0039": 120, "0x001": 422, "0x000": 378, "976": 2810, "0x0001": 420, "35e": 1623, "1920": 1080, "0x00000004": 390, "29e": 1426, "0x00000001": 388, "0009": 99, "000061": 88, "000008": 80, "000004": 78, "000002": 76, "timestamptz": 17417, "spider": 16385, "frees": 8669, "itch": 10455, "ske": 16130, "leton": 11136, "lookups": 11554, "3697": 1642, "a40": 2940, "1612": 979, "fa9": 8095, "5966": 2166, "eb4": 7375, "b97": 4158, "dcb": 6400, "bb3": 4293, "764": 2468, "9050": 2731, "0110": 161, "dfe": 6727, "fa49": 8094, "1f8": 1123, "a47": 2946, "048": 246, "c19": 4844, "7832": 2501, "df4": 6720, "0df": 328, "869": 2660, "0x7ffe16": 615, "3275": 1540, "560": 2103, "ofs": 13067, "uppr": 18217, "lmt": 11467, "domestic": 6970, "wild": 18871, "assumed": 3879, "hashtable": 9349, "principal": 14166, "jndi": 10649, "ensures": 7668, "ldaps": 11054, "3269": 1538, "pword": 14414, "mylibrary": 12459, "annotated": 3589, "discriminant": 6845, "crimin": 6030, "ants": 3617, "autovideosink": 4020, "000000000": 21, "leaky": 11075, "yae": 19239, "nay": 12579, "gameloop": 8817, "ane": 3556, "tang": 17104, "ntl": 12907, "nbr": 12585, "ftr": 8721, "icion": 9718, "matrix2": 11858, "0000000000": 22, "989": 2835, "7777": 2487, "5680": 2117, "466": 1892, "614": 2247, "1242": 855, "1772": 1023, "77777777": 2488, "808": 2575, "0000000002": 45, "986": 2830, "884": 2678, "455": 1876, "537": 2061, "582": 2145, "2756": 1377, "469": 1895, "1016": 719, "918": 2746, "049": 247, "2820": 1392, "605": 2234, "izes": 10551, "sigsegv": 16058, "ters": 17212, "chart": 5275, "caption": 5025, "ranged": 14641, "anged": 3560, "minutes": 12096, "s5": 15523, "itype": 10518, "ists": 10444, "grp": 9176, "t351": 17059, "storable": 16659, "nblocks": 12583, "e0053": 7166, "0024": 117, "ebook": 7382, "edt": 7439, "cd2": 5127, "openocd": 13197, "0xc0": 662, "lma": 11463, "0x8000000": 638, "readelf": 14734, "phys": 13784, "flg": 8450, "phdr": 13767, "0x08000000": 435, "de0": 6420, "0x20000000": 484, "0x08": 434, "bss": 4711, "tlink": 17445, "eabi": 7351, "artist": 3798, "bids": 4437, "u256": 17869, "cros": 6047, "spread": 16425, "bid": 4434, "gobject": 9061, "img1": 9902, "intended": 10231, "decided": 6454, "zn3std2rt10lang": 19398, "start17h": 16548, "b4e": 4125, "p2align": 13438, "cfi": 5225, "startproc": 16557, "pushq": 14396, "leaq": 11078, "zn3std2rt": 19397, "17h": 1031, "e32": 7295, "popq": 13994, "endproc": 7633, "start28": 16552, "8632": 2652, "6report": 2389, "17hf": 1036, "zn3std": 19395, "7process": 2554, "e0c": 7278, "zn4core3": 19404, "h39": 9249, "094": 299, "zn4core3ops8function6fn": 19405, "ad0": 3178, "once9call": 13131, "once17h": 13128, "lfunc": 11161, "begin0": 4365, "ltmp0": 11622, "ltmp1": 11623, "lbb5": 11025, "ltmp2": 11624, "edx": 7442, "end0": 7616, "uleb128": 17986, "zn4core3ptr": 19406, "place17h": 13862, "0ab": 307, "xorl": 19186, "6report17h": 2390, "f16": 8041, "4main": 1981, "c48": 4877, "r8d": 14590, "zn3std2": 19396, "io5stdio": 10333, "print17h": 14168, "d8f": 6277, "e0063": 7168, "roughly": 15315, "phone": 13777, "atory": 3939, "punctuated": 14379, "ibly": 9699, "7fe1ce40b6cf488e": 2547, "1y": 1151, "7m0": 2553, "3rng": 1742, "q5": 14455, "4x": 1992, "818": 2595, "sgn": 15911, "73671a9242f94467": 2434, "d09": 6219, "3913d194bc6184af": 1682, "ce4": 5146, "da7": 6285, "2ed": 1446, "17d": 1028, "resolv": 15067, "urgent": 18236, "newer": 12676, "prof": 14241, "itness": 10505, "macho": 11700, "ckh": 5379, "dwarf": 7134, "readdir": 14731, "gxx": 9230, "develo": 6700, "xcrun": 19125, "dun": 7101, "trivial": 17698, "33e4": 1577, "37d0": 1659, "48b": 1927, "d5f": 6255, "2c69": 1434, "6223": 2260, "italic": 10453, "gallery": 8814, "standards": 16540, "oftrust": 13071, "anna": 3583, "aaf": 3011, "8ac": 2700, "749": 2449, "a74": 2976, "72c": 2423, "rates": 14660, "056": 258, "065": 268, "068": 272, "045": 243, "purchase": 14384, "purch": 14383, "bike": 4447, "brand": 4663, "ride": 15196, "othes": 13336, "edu": 7440, "cations": 5076, "cleaned": 5407, "rl": 15227, "odata": 13037, "idata": 9736, "sdata": 15678, "2097": 1210, "sharing": 15949, "preempt": 14109, "ooper": 13173, "simult": 16087, "aneous": 3557, "thebooks": 17278, "autoconfigure": 4012, "httpclient": 9618, "ster": 16619, "rab": 14594, "obank": 12977, "openapi": 13188, "oauth2": 12975, "ltd": 11615, "dam": 6302, "oll": 13104, "bb7": 4297, "ieve": 9788, "1684": 997, "3850": 1671, "277": 1379, "1257": 859, "449": 1863, "3460": 1594, "3210": 1529, "447": 1860, "0399": 223, "88410": 2679, "388": 1674, "2023": 1190, "urance": 18227, "11f": 817, "2094": 1209, "1996": 1094, "2319": 1270, "865": 2655, "554": 2090, "263": 1344, "3279": 1544, "088": 290, "2028": 1191, "cf2": 5213, "b42": 4119, "myserver": 12487, "srcstoretype": 16468, "sphrase": 16378, "trus": 17719, "imgproc": 9905, "ious": 10349, "function1": 8748, "powm": 14061, "fbase": 8173, "vin": 18590, "4f64": 1972, "2f64": 1450, "inval": 10308, "aoeu": 3627, "afa": 3298, "541": 2069, "accuracy": 3122, "acy": 3176, "saturated": 15584, "1597": 964, "9223372036": 2755, "854775": 2637, "17014118346046923": 1010, "3037158841057": 1492, "3402823": 1583, "1768": 1020, "hibernate": 9461, "lightweight": 11342, "getters": 8945, "setters": 15879, "tuplizer": 17781, "metamodel": 12007, "persister": 13727, "concurrency": 5715, "calli": 4972, "tbs": 17129, "kits": 10852, "041": 238, "loose": 11563, "renegotiation": 14983, "sslpcfg": 16496, "afe": 3300, "sha384": 15923, "nego": 12631, "sect163": 15717, "sect": 15716, "409": 1775, "secp160": 15711, "sha512with": 15926, "sha384with": 15924, "html5rocks": 9604, "5rocks": 2209, "ww": 19056, "182": 1050, "renegot": 14982, "hor": 9555, "califor": 4961, "rock": 15265, "zo": 19434, "0210": 189, "0280": 198, "rocks": 15267, "0300": 206, "5r": 2208, "cks": 5380, "0h": 340, "giag": 8971, "0380": 219, "0390": 221, "03d0": 229, "03f0": 231, "0400": 237, "9q": 2877, "fk": 8425, "0500": 253, "6720": 2340, "6448": 2290, "707": 2405, "334": 1566, "3769": 1654, "2312": 1268, "424": 1813, "2666": 1354, "5576": 2097, "4038": 1763, "1686": 998, "1119": 793, "909": 2734, "eest": 7458, "outbound": 13364, "truncation": 17718, "oose": 13176, "00000024": 57, "adc": 3197, "idcs": 9738, "uint3": 17961, "strided": 16709, "1017": 720, "pillow": 13810, "lines2": 11373, "sof": 16261, "friendly": 8691, "luck": 11633, "friendly2": 8692, "friendly2as": 8693, "objs": 12995, "875": 2667, "ably": 3053, "pow2": 14054, "somenodename": 16284, "overwrite": 13407, "781": 2497, "outliers": 13377, "measurements": 11926, "severe": 15894, "mild": 12060, "654": 2307, "vious": 18596, "adjusted": 3256, "newstr": 12686, "0x7fffc": 629, "96c": 2802, "rbt": 14681, "avlt": 4042, "balanced": 4207, "balancer": 4208, "bal": 4205, "ancer": 3531, "xff": 19139, "amazonaws": 3484, "delimiters": 6563, "pkcs": 13845, "interrupted": 10277, "throttles": 17345, "logins": 11524, "confirmed": 5743, "yect": 19256, "arer": 3721, "phi": 13770, "lip": 11394, "ani": 3571, "istry": 10443, "dfa": 6725, "dfb": 6726, "orge": 13276, "bath": 4273, "lab": 10923, "ford": 8575, "rdr2": 14711, "line1": 11360, "canada": 4989, "gues": 9210, "rando": 14629, "csbi": 6071, "let1": 11133, "fn2": 8510, "fn3": 8511, "e0573": 7250, "trol": 17703, "synth": 17008, "thing1": 17301, "thing2": 17302, "trololo": 17705, "xcs": 19126, "sslcontext": 16494, "pooling": 13982, "293": 1412, "331": 1556, "accessor36": 3104, "callsite": 4980, "pojo": 13945, "invocacao": 10320, "servico": 15853, "chamada": 5247, "pogo": 13929, "closure1": 5463, "910": 2738, "662": 2321, "vectr": 18502, "v1s": 18359, "v2s": 18365, "v3s": 18368, "fallible": 8142, "satz": 15586, "flt": 8481, "ffer": 8278, "wasn": 18744, "forwards": 8614, "variant1": 18443, "variant2": 18444, "exposed": 7985, "\u21fd": 19814, "iid": 9839, "obj2": 12982, "rustacean": 15443, "integrity": 10229, "till": 17388, "exits": 7941, "pointing": 13941, "llite": 11452, "langu": 10954, "interop": 10267, "uchar4": 17913, "tptr": 17565, "unregister": 18147, "ogltest": 13074, "quads": 14506, "coord2f": 5881, "cars": 5046, "separately": 15803, "resolvable": 15068, "tmp1": 17460, "tmp2": 17461, "dangerous": 6308, "datan": 6340, "gitlab": 8996, "519": 2037, "ache": 3132, "\u251c\u2500\u2500\u2500": 19853, "\u2514\u2500\u2500\u2500": 19848, "ece": 7402, "a8c": 2983, "505": 2011, "a25": 2925, "860": 2643, "cec": 5151, "ca7": 4922, "cac": 4927, "f42": 8057, "bf8": 4416, "crc32fast": 6005, "000e": 102, "18f8": 1070, "a02": 2902, "bdd": 4330, "dtoa": 7078, "ecc": 7396, "5ad": 2176, "07e": 282, "1694": 1001, "a19": 2917, "773": 2481, "3bf": 1707, "945": 2780, "indexmap": 10030, "3d2": 1715, "iovec": 10350, "baee": 4197, "cbd4": 5093, "a9b": 2993, "c86": 4902, "3bb": 1703, "3378": 1571, "a8f": 2984, "a69": 2969, "fe7": 8224, "c37": 4871, "b45": 4120, "801": 2567, "33e": 1576, "5116": 2026, "bee": 4354, "e18": 7286, "00d": 144, "659": 2316, "1db": 1113, "e20": 7290, "e0b": 7277, "b8d": 4156, "d80": 6269, "491": 1932, "c1b": 4845, "bdb": 4329, "eda": 7420, "ac88": 3080, "e85": 7334, "bce": 4316, "fb8": 8170, "7ae": 2524, "df7": 6721, "f5a": 8065, "04b": 248, "1ce": 1111, "f08": 8035, "b47": 4121, "cc9": 5107, "a46": 2945, "bec": 4348, "35c": 1620, "bf6": 4413, "017": 176, "acf": 3128, "26b": 1359, "54d": 2078, "761": 2466, "af8": 3297, "431": 1831, "slab": 16143, "d14": 6225, "726": 2420, "b28": 4105, "cbb": 5091, "a55": 2957, "f4f": 8061, "f03": 8033, "c0b": 4835, "fdc": 8205, "35f": 1624, "76a": 2475, "abfd": 3046, "564": 2107, "e11": 7284, "4b6": 1952, "7c9": 2529, "3ba": 1702, "a5a": 2960, "w0": 18690, "c88": 4903, "1104": 781, "equality": 7732, "recently": 14782, "dbservices": 6390, "8088": 2581, "e0220": 7183, "automock": 4017, "park": 13538, "hsets": 9597, "4z": 1995, "d86": 6271, "3fa": 1733, "0x00007f4723": 407, "libgssapi": 11215, "krb5": 10891, "libldap": 11229, "libkrb5": 11225, "0x00007f47": 406, "libk5crypto": 11222, "libcom": 11187, "libkrb5support": 11226, "libkeyutils": 11224, "b000": 4087, "libresolv": 11268, "f000": 8032, "liblber": 11228, "libsasl2": 11275, "axis1": 4076, "0x00007f6d": 412, "0x00007f6": 410, "magnitude": 11717, "mulsd": 12349, "xmm0": 19163, "xmm1": 19164, "addsd": 3233, "movsd": 12263, "dgram": 6735, "datagram": 6338, "fdgram": 8208, "woking": 18937, "overloading": 13401, "cius": 5372, "xcheck": 19120, "djava": 6897, "heinous": 9418, "robert": 15257, "sman": 16193, "thoth": 17326, "purplefrog": 14389, "sdsl": 15685, "bach": 4171, "illy": 9871, "kid": 10831, "cop": 5886, "robber": 15256, "shoot": 15978, "myfoo": 12446, "sim": 16066, "mangled": 11758, "seh": 15751, "mand": 11754, "toto": 17542, "detection": 6691, "reflexive": 14883, "pwm": 14413, "tim2": 17390, "duty": 7121, "dma1": 6919, "dier": 6768, "cc1": 5104, "ndt": 12606, "msize": 12314, "psize": 14333, "circ": 5359, "cr1": 5986, "tr2": 17572, "cr2": 5987, "waked": 18711, "nullify": 12916, "hijkl": 9479, "stolen": 16651, "food": 8554, "ories": 13282, "costs": 5930, "technology": 17162, "altered": 3466, "zzle": 19460, "puzzle": 14402, "bracketed": 4655, "phoenix": 13776, "kah": 10742, "hoenix": 9526, "crawler": 6000, "popen": 13991, "num3": 12921, "reused": 15147, "cadis": 4942, "udi": 17930, "stors": 16669, "securities": 15724, "ao": 3626, "bypass": 4810, "impersonation": 9924, "ality": 3403, "buildings": 4761, "fuel": 8726, "boom": 4595, "petrovich": 13745, "genelist": 8876, "gene": 8875, "idio": 9759, "respon": 15080, "uncaught": 18035, "fe6": 8222, "e0275": 7191, "evaluating": 7851, "movies": 12259, "vsnprintf": 18666, "stdarg": 16588, "varargs": 18434, "mtiller": 12333, "fmu": 8506, "e35": 7298, "835": 2615, "fd1": 8198, "588": 2152, "b52": 4128, "shell32": 15956, "sout": 16321, "intros": 10301, "pector": 13654, "sublist": 16802, "adoptable": 3264, "adoption": 3267, "adopting": 3266, "pitbull": 13832, "adopter": 3265, "adopt": 3263, "breed": 4674, "fluffy": 8485, "periph": 13702, "perip": 13701, "micro": 12038, "hmenus": 9513, "rag": 14613, "h6": 9257, "\u0633": 19653, "\u0627\u06cc": 19641, "\u0631": 19650, "ftp": 8720, "\u062a": 19643, "\u062e": 19647, "\u0628": 19642, "\u0631\u06cc": 19651, "\u062f\u0627\u0646\u0634\u06af\u0627\u0647": 19649, "\u06af": 19667, "\u0632": 19652, "\u06cc": 19668, "\u0646": 19663, "\u0634": 19654, "\u0645": 19662, "\u062f": 19648, "\u062d": 19646, "\u0627": 19639, "\u0643": 19660, "\u0622": 19638, "\u062b": 19644, "\u0641": 19658, "\u0648": 19665, "\u0647": 19664, "\u0639": 19656, "\u0644": 19661, "\u0638": 19655, "eme": 7563, "\u0627\u0646": 19640, "\u064a": 19666, "\u063a": 19657, "umb": 18006, "bas": 4244, "\u062c": 19645, "proble": 14206, "matic": 11850, "uniques": 18102, "dups": 7114, "relocation": 14948, "recompile": 14801, "7rcbfp3g": 2556, "zn4main": 19415, "4main17h": 1982, "e0e": 7280, "4575": 1881, "represented": 15023, "lastfilled": 10975, "jack": 10566, "andro": 3550, "cdr": 5138, "transmut": 17629, "immuta": 9916, "iops": 10343, "muta": 12392, "atok": 3933, "bp": 4643, "eexp": 7461, "gotham": 9084, "filtering": 8366, "quist": 14539, "hamming": 9292, "applying": 3680, "coefficient": 5537, "coeff": 5536, "cient": 5345, "runmode": 15420, "mycol": 12435, "vsize": 18664, "permut": 13715, "c56": 4881, "bda": 4327, "6fc": 2385, "1666": 991, "calculates": 4952, "deci": 6452, "vectorizable": 18499, "f32x4": 8053, "inherit": 10096, "0x7fffbcf": 627, "1407": 911, "0x7fffbcf48": 628, "b8a": 4154, "b8c": 4155, "toolset": 17520, "univer": 18112, "istr": 10440, "utable": 18311, "dbpulse": 6389, "mats": 11865, "ument": 18011, "xlsx": 19150, "blade": 4510, "cfoo": 5227, "gofoo": 9064, "rustfoo": 15463, "fd8": 8202, "0x00007ffff": 418, "cred": 6018, "2345": 1278, "992": 2840, "0157": 174, "t114": 17044, "row1": 15332, "row2": 15333, "col1": 5550, "meas": 11922, "coming": 5600, "solve": 16274, "hopefully": 9554, "urity": 18242, "giv": 8998, "ensive": 7665, "duplicated": 7111, "lev": 11144, "videos": 18575, "778": 2489, "reusable": 15145, "mylib": 12458, "busy": 4790, "myconst": 12437, "ival": 10522, "bval": 4802, "forwardable": 8610, "xptr": 19196, "keywd": 10820, "stm32f40x": 16645, "simplify": 16077, "shep": 15959, "newlines": 12680, "inners": 10137, "essentially": 7804, "ttime": 17762, "din": 6804, "dout": 6998, "fms": 8503, "e0243": 7186, "nav": 12574, "resolves": 15072, "zeroes": 19349, "euler": 7839, "becomes": 4351, "erp": 7760, "erq": 7761, "discord": 6840, "evented": 7858, "txprime": 17823, "shar": 15944, "radi": 14605, "speak": 16346, "dice": 6759, "rolled": 15279, "replacer": 15004, "bloc": 4532, "sndresult": 16232, "vvvvvvvvvvvvvvvv": 18685, "vvvvvvvv": 18684, "awt": 4066, "salary": 15542, "moon": 12225, "loy": 11582, "sna": 16217, "subdivisions": 16793, "lexeme": 11152, "lookahead": 11549, "terminals": 17198, "twenty": 17804, "redundant": 14847, "mactest": 11708, "anitize": 3579, "universe": 18113, "vision": 18608, "osx10": 13323, "svn": 16949, "darwin13": 6319, "1804": 1043, "663": 2322, "tv1": 17796, "tv2": 17797, "3000000": 1483, "rustless": 15471, "ampo": 3510, "subst": 16831, "anci": 3538, "valico": 18395, "conduit": 5727, "a1f": 2920, "bluetooth": 4549, "rss": 15374, "conne": 5754, "gatt": 8839, "bluez": 4550, "hci0": 9377, "function2": 8749, "strat": 16681, "unchanged": 18037, "80b3": 2585, "syncing": 16999, "uninstalling": 18093, "effective": 7473, "ala": 3364, "illa": 9864, "bitcoin": 4483, "btc": 4719, "ank": 3580, "queen": 14517, "e0312": 7203, "outlives": 13380, "dkey": 6900, "dval": 7124, "didx": 6766, "\u2068": 19791, "\u2069": 19792, "iles": 9854, "biking": 4448, "cycl": 6200, "walking": 18718, "lient": 11326, "locally": 11490, "lochain": 11497, "3c102f2d126c37d0": 1710, "gm": 9045, "tmt": 17469, "bea": 4337, "5v": 2217, "5z": 2220, "r6": 14585, "1x": 1149, "jv": 10721, "72f": 2424, "2y": 1476, "aa6": 2998, "yk": 19277, "kf": 10823, "929": 2763, "c12": 4841, "2q": 1463, "bel": 4378, "3x": 1748, "yst": 19310, "zrelro": 19443, "znow": 19433, "rustacuda": 15446, "c47": 4876, "5e8": 2189, "7fc": 2545, "1324": 886, "d88": 6273, "d64": 6260, "ba5": 4165, "dpkg": 7017, "uda": 17925, "ptx": 14357, "enforce": 7644, "pot": 14045, "bis": 4477, "20000000": 1158, "atlas": 3926, "e0391": 7212, "completing": 5661, "d55": 6253, "uch": 17910, "uchar3": 17912, "exceeded": 7892, "dlmalloc": 6912, "39a": 1694, "1047": 738, "622": 2259, "2065": 1202, "ecb": 7393, "014": 170, "recur": 14817, "javac": 10583, "stdir": 16599, "untime": 18172, "unrecognized": 18145, "trainer": 17595, "snipped": 16235, "ups": 18219, "741": 2441, "devloper": 6712, "outer1": 13369, "inner1": 10135, "outer2": 13370, "inner2": 10136, "pager": 13472, "yielded": 19272, "fira": 8389, "f09": 8036, "ce1": 5142, "cc8": 5106, "a94": 2987, "c05": 4833, "ebb": 7379, "6000000": 2225, "d10": 6223, "raspberry": 14652, "correction": 5915, "esp8266cfg": 7800, "esp8266": 7799, "ino": 10138, "communic": 5622, "blinkstick": 4527, "devicecfg": 6708, "firmware": 8399, "samp": 15555, "frequ": 8679, "berry": 4401, "esp": 7798, "mdt": 11916, "subsec": 16825, "problems": 14212, "thead": 17275, "tbody": 17126, "symfony": 16983, "rfc2822": 15170, "rrss2imap": 15357, "itain": 10451, "asy": 3888, "azip": 4082, "impersonate": 9923, "approved": 3688, "cnc": 5508, "eness": 7643, "ticker": 17370, "aaab": 3003, "deeeee": 6502, "t1004": 17040, "method2": 12014, "keylen": 10803, "kr": 10889, "ifx": 9818, "fores": 8581, "lsubpix": 11611, "usb": 18271, "wireless": 18915, "plug": 13906, "ged": 8864, "superpowered": 16904, "prototype": 14310, "nce": 12589, "samplerate": 15563, "lifecycle": 11331, "interr": 10275, "battery": 4278, "retained": 15121, "48000": 1917, "capabilities": 5013, "enabling": 7588, "disabling": 6831, "umes": 18012, "os13": 13309, "nonexistent": 12807, "neon": 12648, "990": 2838, "3ec": 1729, "84d": 2630, "b34": 4113, "nq": 12873, "offset1": 13061, "lq": 11593, "hx": 9645, "rz": 15510, "5s": 2210, "turbofish": 17785, "mingw64": 12080, "prj3": 14195, "35c36e89": 1621, "crt2": 6056, "msv": 12323, "rub": 15399, "crtexe": 6057, "permutate": 13716, "ametic": 3495, "fal": 8139, "horses": 9560, "troll": 17704, "horse": 9559, "sett": 15877, "surrounding": 16931, "abbc": 3023, "atmos": 3930, "planet": 13877, "med": 11931, "otes": 13328, "noout": 12816, "mii": 12057, "bgkqhki": 4424, "g9w0": 8803, "6i": 2387, "w8": 18697, "q2": 14451, "gd": 8855, "q0": 14448, "yr": 19305, "tai": 17086, "93f": 2773, "tb": 17122, "qid": 14469, "enumerate2d": 7697, "cbindgen": 5097, "iro": 10386, "readinginstatic": 14742, "kil": 10834, "argparse": 3734, "chee": 5294, "rustyline": 15491, "ono": 13153, "watchable": 18748, "watcher": 18750, "vectored": 18498, "dta": 7073, "xa2": 19109, "bct": 4321, "00000010": 53, "ccbc": 5112, "1600": 974, "modes": 12171, "k3": 10733, "kvp": 10910, "repetition": 14996, "happy": 9319, "mage": 11712, "grand": 9124, "qty": 14497, "htmlentities": 9605, "wav": 18752, "declares": 6470, "point1": 13931, "slaves": 16148, "diameter": 6753, "dealer": 6432, "pfs": 13757, "counted": 5939, "fidx": 8315, "sidx": 16026, "delim": 6559, "worry": 18972, "unsubscribe": 18163, "zzz": 19461, "carllerche": 5042, "collector": 5564, "numstr": 12938, "jsonwebtoken": 10693, "argon": 3733, "slog": 16176, "stdlog": 16601, "zx": 19453, "bitvec": 4497, "voices": 18638, "mstaves": 12321, "vspacer": 18668, "timesig": 17412, "retch": 15124, "servername": 15846, "continues": 5837, "deboun": 6442, "wchar": 18769, "subscriber": 16820, "subtree": 16846, "ery": 7784, "ptr2": 14351, "asserted": 3852, "failures": 8133, "feel": 8242, "eeb": 7448, "eb6": 7376, "myname": 12466, "mypass": 12471, "amazon": 3483, "aws": 4065, "keystorepath": 10817, "amzn": 3514, "iot": 10347, "0x235d0": 488, "ff6": 8272, "793": 2516, "abcdefghijklmnopqrstuvwxyz": 3042, "0x31": 500, "0x101": 449, "overflowing": 13392, "greetings": 9156, "sref": 16470, "hope": 9553, "dmap": 6921, "rkunit": 15226, "rustqml": 15481, "qmlrs": 14475, "dally": 6300, "mirror": 12103, "trusty": 17734, "iverse": 10529, "declar": 6465, "errchk": 7765, "uassert": 17893, "predecess": 14097, "15000": 949, "incomming": 9997, "responses": 15088, "closes": 5459, "mandel": 11756, "sqr": 16446, "00001": 82, "fmr": 8502, "effects": 7475, "tempor": 17180, "efficiency": 7477, "rdonly": 14708, "cuad": 6119, "nation": 12567, "nations": 12568, "rels": 14950, "relationships": 14931, "stu": 16760, "foo0": 8545, "checkpoint": 5291, "stm32f30x": 16642, "dividend": 6882, "blk": 4529, "sweep": 16959, "calendar": 4959, "x509certificate2": 19091, "jclass": 10601, "jmethod": 10644, "jobject": 10658, "csvm": 6086, "jvalue": 10722, "maple": 11778, "1112": 788, "lates": 10985, "streamdeck": 16694, "printed": 14173, "permanent": 13708, "achieved": 3134, "eget": 7485, "nis": 12744, "nec": 12614, "sigkill": 16036, "youtube": 19300, "graded": 9115, "mymod": 12465, "10001": 699, "lcode": 11037, "idnt": 9766, "protoc": 14306, "ful": 8727, "rejected": 14921, "fut1": 8765, "pinfut1": 13814, "\uff01": 20027, "a53f9df32fbb0b5f4382caaad8f1a46f36ea887c": 2956, "sendto": 15785, "sockaddr": 16250, "derived1": 6629, "fooish": 8559, "forth": 8601, "tut": 17792, "attachments": 3948, "wib": 18857, "recreate": 14809, "sortable": 16306, "tracks": 17582, "sos": 16311, "hndlr": 9521, "vier": 18580, "creature": 6016, "creatures": 6017, "fli": 8451, "slack": 16144, "sergio": 15822, "benitez": 4396, "memtable": 11968, "concerned": 5710, "utter": 18338, "duper": 7107, "dbhandle": 6384, "lmdb": 11464, "318": 1517, "bacon": 4191, "module2": 12189, "obvious": 13007, "leal": 11076, "cmpl": 5498, "lbb0": 11018, "clt": 5473, "fasta": 8155, "bio": 4470, "1013": 717, "indirectly": 10041, "feeling": 8243, "\u2764": 19903, "a53f9df32": 2955, "tickers": 17371, "tps": 17564, "procedural": 14215, "rtfm": 15386, "syst": 17019, "wfi": 18818, "tery": 17213, "thousand": 17329, "bare": 4234, "mymachine": 12462, "myidserver": 12451, "wsid": 19022, "canonicalization": 5007, "c14n": 4843, "xmlenc": 19157, "ws2007": 19013, "cture": 6112, "appveyor": 3691, "battlefield": 4281, "bzip": 4822, "pel": 13668, "embroidery": 7561, "filler": 8357, "realloc": 14755, "rfc": 15169, "spell": 16372, "lation": 10989, "opt1": 13222, "opt2": 13223, "plop": 13901, "passwords": 13580, "db9ec": 6374, "samlv1": 15553, "wsx": 19041, "722": 2418, "e0532": 7247, "bk": 4501, "functionality": 8751, "ieved": 9789, "inds": 10046, "students": 16765, "curs": 6161, "clone2": 5450, "vdpau": 18467, "drm": 7043, "libvdpau": 11304, "dab": 6289, "e64": 7320, "d66": 6261, "vary": 18450, "86400": 2654, "libg": 11208, "libu": 11299, "xproto": 19195, "bed": 4353, "aad": 3009, "ef7": 7465, "focu": 8527, "focused": 8529, "foc": 8525, "credit": 6021, "atm": 3927, "acqu": 3146, "021bd294c": 190, "bpel": 4644, "crud": 6059, "plaza": 13896, "refc": 14861, "2f9": 1453, "b68": 4135, "97d": 2816, "f05": 8034, "c04": 4831, "a924": 2986, "81c": 2598, "add7": 3204, "publickey": 14368, "gearman": 8862, "u01": 17855, "weighted": 18800, "divides": 6884, "pts": 14355, "641": 2284, "pwhash": 14411, "initially": 10117, "trial": 17668, "death": 6438, "ruct": 15401, "obs": 12996, "i5": 9671, "adapt": 3188, "controlled": 5849, "extending": 8001, "fml": 8500, "blit": 4528, "\u03c1": 19581, "\u2080": 19802, "\u2081": 19803, "dealing": 6433, "ethernet": 7825, "3a1fbbbh": 1697, "progbits": 14252, "mylist": 12460, "0m": 347, "28s": 1407, "strconv": 16686, "leh": 11111, "factorials": 8116, "tuple1": 17777, "invariant": 10312, "a59": 2958, "14a": 944, "22t": 1262, "35db": 1622, "acb7": 3084, "x509v3": 19100, "xmldsig": 19156, "protect": 14300, "x509security": 19097, "inclusion": 9993, "derivation": 6623, "confirmation": 5741, "cnt1": 5512, "cnt2": 5513, "dutylife": 7122, "granted": 9130, "vent": 18520, "lparam": 11584, "loss": 11570, "garbage": 8827, "pres": 14131, "uma": 18004, "unrestricted": 18150, "dated": 6355, "setenv": 15867, "catal": 5067, "ina": 9973, "t390": 17061, "frank": 8656, "vcpkg": 18457, "deserializing": 6658, "ix1": 10538,
[...]
