{"version":"1.0","truncation":null,"padding":null,"added_tokens":[{"id":0,"special":true,"content":"[UNK]","single_word":false,"lstrip":false,"rstrip":false,"normalized":false},{"id":1,"special":true,"content":"[CLS]","single_word":false,"lstrip":false,"rstrip":false,"normalized":false},{"id":2,"special":true,"content":"[SEP]","single_word":false,"lstrip":false,"rstrip":false,"normalized":false},{"id":3,"special":true,"content":"[PAD]","single_word":false,"lstrip":false,"rstrip":false,"normalized":false},{"id":4,"special":true,"content":"[MASK]","single_word":false,"lstrip":false,"rstrip":false,"normalized":false}],"normalizer":{"type":"Sequence","normalizers":[{"type":"Replace","pattern":{"Regex":"[\\[\\]{}\\(\\);]|[=<>\",_.&*]|::|->"},"content":" "},{"type":"Replace","pattern":{"Regex":"(?<=[a-z])(?=[A-Z])|(?<=[A-Z])(?=[A-Z][a-z])"},"content":" "},{"type":"Lowercase"},{"type":"Replace","pattern":{"Regex":"let|const|fn|if|else|self|println"},"content":" "},{"type":"Replace","pattern":{"Regex":"\\b(\\w{1})\\b\\s?"},"content":" "}]},"pre_tokenizer":{"type":"Sequence","pretokenizers":[{"type":"Punctuation"},{"type":"Whitespace"}]},"post_processor":null,"decoder":null,"model":{"type":"BPE","dropout":null,"unk_token":"[UNK]","continuing_subword_prefix":null,"end_of_word_suffix":null,"fuse_unk":false,"vocab":{"[UNK]":0,"[CLS]":1,"[SEP]":2,"[PAD]":3,"[MASK]":4,"!":5,"#":6,"$":7,"%":8,"'":9,"+":10,"-":11,"/":12,"0":13,"1":14,"2":15,"3":16,"4":17,"5":18,"6":19,"7":20,"8":21,"9":22,":":23,"?":24,"@":25,"\\":26,"^":27,"`":28,"a":29,"b":30,"c":31,"d":32,"e":33,"f":34,"g":35,"h":36,"i":37,"j":38,"k":39,"l":40,"m":41,"n":42,"o":43,"p":44,"q":45,"r":46,"s":47,"t":48,"u":49,"v":50,"w":51,"x":52,"y":53,"z":54,"|":55,"~":56,"£":57,"¤":58,"¥":59,"¦":60,"§":61,"©":62,"«":63,"®":64,"°":65,"±":66,"²":67,"³":68,"´":69,"µ":70,"¶":71,"·":72,"¸":73,"¹":74,"º":75,"»":76,"¼":77,"½":78,"¾":79,"¿":80,"×":81,"ß":82,"à":83,"á":84,"â":85,"ã":86,"ä":87,"å":88,"æ":89,"ç":90,"è":91,"é":92,"ê":93,"ë":94,"ì":95,"í":96,"î":97,"ï":98,"ñ":99,"ó":100,"ô":101,"ö":102,"÷":103,"ø":104,"ù":105,"ú":106,"û":107,"ü":108,"ą":109,"ć":110,"č":111,"đ":112,"ō":113,"ř":114,"ś":115,"ž":116,"ƒ":117,"ƙ":118,"ƭ":119,"ɠ":120,"ʲ":121,"́":122,"̇":123,"̈":124,"̐":125,"ά":126,"έ":127,"ή":128,"α":129,"β":130,"γ":131,"δ":132,"ε":133,"η":134,"θ":135,"κ":136,"λ":137,"μ":138,"ν":139,"ο":140,"ρ":141,"υ":142,"φ":143,"χ":144,"ύ":145,"а":146,"б":147,"в":148,"д":149,"е":150,"з":151,"и":152,"й":153,"к":154,"л":155,"м":156,"н":157,"о":158,"п":159,"р":160,"с":161,"т":162,"у":163,"ф":164,"х":165,"ч":166,"щ":167,"ы":168,"ь":169,"э":170,"ю":171,"я":172,"ё":173,"ا":174,"ب":175,"ة":176,"ت":177,"د":178,"ع":179,"ق":180,"ل":181,"ن":182,"ي":183,"ड":184,"प":185,"र":186,"व":187,"स":188,"ा":189,"्":190,"ᵏ":191,"ṫ":192,"‍":193,"‐":194,"‑":195,"‒":196,"–":197,"—":198,"‘":199,"’":200,"‚":201,"‛":202,"“":203,"”":204,"„":205,"•":206,"‣":207,"…":208,"′":209,"″":210,"‵":211,"‶":212,"‸":213,"‹":214,"›":215,"‼":216,"⁄":217,"⁅":218,"⁆":219,"⁇":220,"⁈":221,"⁉":222,"⁎":223,"⁏":224,"⁒":225,"⁓":226,"⁰":227,"ⁱ":228,"⁴":229,"⁵":230,"⁶":231,"⁷":232,"⁸":233,"⁹":234,"⁺":235,"⁻":236,"⁼":237,"⁽":238,"⁾":239,"₀":240,"₁":241,"₂":242,"₃":243,"₄":244,"₅":245,"₆":246,"₇":247,"₈":248,"₉":249,"₊":250,"₋":251,"₌":252,"₍":253,"₎":254,"₥":255,"€":256,"ℓ":257,"ℹ":258,"↑":259,"→":260,"↓":261,"∂":262,"∈":263,"√":264,"∞":265,"∵":266,"≠":267,"≡":268,"≤":269,"⌂":270,"␍":271,"␛":272,"␤":273,"①":274,"②":275,"③":276,"④":277,"⑤":278,"⑥":279,"⑦":280,"⑧":281,"⑨":282,"⑩":283,"⑪":284,"⑫":285,"⑬":286,"⑭":287,"⑮":288,"⑯":289,"⑰":290,"⑱":291,"⑲":292,"⑳":293,"⑴":294,"⑵":295,"⑶":296,"⑷":297,"⑸":298,"⑹":299,"⑺":300,"⑻":301,"⑼":302,"⑽":303,"⑾":304,"⑿":305,"⒀":306,"⒁":307,"⒂":308,"⒃":309,"⒄":310,"⒅":311,"⒆":312,"⒇":313,"⒈":314,"⒉":315,"⒊":316,"⒋":317,"⒌":318,"⒍":319,"⒎":320,"⒏":321,"⒐":322,"⒑":323,"⒒":324,"⒓":325,"⒔":326,"⒕":327,"⒖":328,"⒗":329,"⒘":330,"⒙":331,"⒚":332,"⒛":333,"⒜":334,"⒝":335,"⒞":336,"⒟":337,"⒠":338,"⒡":339,"⒢":340,"⒣":341,"⒤":342,"⒥":343,"⒦":344,"⒧":345,"⒨":346,"⒩":347,"⒪":348,"⒫":349,"⒬":350,"⒭":351,"⒮":352,"⒯":353,"⒰":354,"⒱":355,"⒲":356,"⒳":357,"⒴":358,"⒵":359,"⓪":360,"⓫":361,"⓬":362,"⓭":363,"⓮":364,"⓯":365,"⓰":366,"⓱":367,"⓲":368,"⓳":369,"⓴":370,"⓵":371,"⓶":372,"⓷":373,"⓸":374,"⓹":375,"⓺":376,"⓻":377,"⓼":378,"⓽":379,"⓾":380,"⓿":381,"─":382,"━":383,"│":384,"┌":385,"┐":386,"└":387,"┘":388,"├":389,"┬":390,"┻":391,"═":392,"║":393,"╔":394,"╗":395,"╚":396,"╝":397,"╭":398,"╮":399,"╯":400,"╰":401,"▁":402,"▂":403,"▃":404,"▄":405,"▅":406,"▆":407,"▇":408,"█":409,"▉":410,"▊":411,"▋":412,"▌":413,"▍":414,"▎":415,"▏":416,"░":417,"▒":418,"▓":419,"▕":420,"▖":421,"▛":422,"□":423,"▪":424,"▶":425,"▸":426,"▹":427,"▾":428,"◦":429,"☁":430,"☃":431,"★":432,"☆":433,"☑":434,"☒":435,"☛":436,"☺":437,"♂":438,"⚠":439,"✓":440,"✔":441,"✖":442,"✗":443,"❛":444,"❜":445,"❝":446,"❞":447,"❤":448,"❨":449,"❩":450,"❪":451,"❫":452,"❬":453,"❭":454,"❮":455,"❯":456,"❰":457,"❱":458,"❲":459,"❳":460,"❴":461,"❵":462,"❶":463,"❷":464,"❸":465,"❹":466,"❺":467,"❻":468,"❼":469,"❽":470,"❾":471,"❿":472,"➀":473,"➁":474,"➂":475,"➃":476,"➄":477,"➅":478,"➆":479,"➇":480,"➈":481,"➉":482,"➊":483,"➋":484,"➌":485,"➍":486,"➎":487,"➏":488,"➐":489,"➑":490,"➒":491,"➓":492,"➕":493,"➤":494,"⠁":495,"⠂":496,"⠄":497,"⠈":498,"⠉":499,"⠋":500,"⠐":501,"⠒":502,"⠓":503,"⠖":504,"⠙":505,"⠚":506,"⠠":507,"⠤":508,"⠦":509,"⠲":510,"⠴":511,"⡀":512,"⢀":513,"⫟":514,"⸨":515,"⸩":516,"、":517,"。":518,"《":519,"》":520,"あ":521,"い":522,"う":523,"え":524,"が":525,"き":526,"こ":527,"さ":528,"す":529,"そ":530,"た":531,"だ":532,"ち":533,"で":534,"と":535,"な":536,"に":537,"の":538,"は":539,"び":540,"ほ":541,"ぽ":542,"よ":543,"り":544,"る":545,"れ":546,"を":547,"ん":548,"ア":549,"ィ":550,"イ":551,"ウ":552,"ェ":553,"ク":554,"コ":555,"シ":556,"ス":557,"タ":558,"チ":559,"ッ":560,"ツ":561,"テ":562,"デ":563,"ト":564,"ド":565,"ナ":566,"ニ":567,"ヌ":568,"ハ":569,"ピ":570,"ブ":571,"ヘ":572,"ベ":573,"ホ":574,"ボ":575,"ミ":576,"ム":577,"メ":578,"ャ":579,"ュ":580,"ラ":581,"リ":582,"ル":583,"ロ":584,"ヲ":585,"ン":586,"ー":587,"㌍":588,"㌫":589,"㍑":590,"㍿":591,"一":592,"万":593,"上":594,"下":595,"不":596,"与":597,"世":598,"両":599,"两":600,"个":601,"中":602,"串":603,"临":604,"为":605,"主":606,"乐":607,"九":608,"了":609,"二":610,"于":611,"交":612,"亰":613,"人":614,"今":615,"从":616,"他":617,"代":618,"令":619,"以":620,"件":621,"但":622,"位":623,"你":624,"使":625,"依":626,"便":627,"信":628,"候":629,"值":630,"储":631,"元":632,"先":633,"免":634,"入":635,"全":636,"公":637,"其":638,"典":639,"内":640,"再":641,"冒":642,"写":643,"况":644,"出":645,"分":646,"列":647,"则":648,"初":649,"别":650,"到":651,"前":652,"功":653,"加":654,"动":655,"化":656,"北":657,"匹":658,"区":659,"半":660,"印":661,"即":662,"历":663,"反":664,"取":665,"变":666,"只":667,"可":668,"叶":669,"号":670,"合":671,"吉":672,"后":673,"向":674,"否":675,"员":676,"命":677,"咸":678,"哒":679,"啊":680,"啦":681,"回":682,"国":683,"图":684,"在":685,"型":686,"堆":687,"場":688,"士":689,"处":690,"复":691,"夏":692,"多":693,"大":694,"太":695,"失":696,"夷":697,"好":698,"始":699,"威":700,"子":701,"字":702,"存":703,"它":704,"完":705,"定":706,"容":707,"富":708,"对":709,"将":710,"小":711,"已":712,"布":713,"平":714,"年":715,"并":716,"序":717,"库":718,"应":719,"底":720,"度":721,"建":722,"式":723,"强":724,"归":725,"当":726,"径":727,"待":728,"心":729,"志":730,"忠":731,"快":732,"性":733,"息":734,"您":735,"情":736,"想":737,"成":738,"我":739,"或":740,"所":741,"打":742,"扩":743,"扱":744,"找":745,"拷":746,"持":747,"换":748,"据":749,"排":750,"接":751,"推":752,"提":753,"插":754,"撞":755,"支":756,"放":757,"效":758,"散":759,"数":760,"文":761,"新":762,"方":763,"无":764,"日":765,"时":766,"春":767,"是":768,"最":769,"有":770,"未":771,"本":772,"条":773,"析":774,"果":775,"查":776,"标":777,"校":778,"桶":779,"楽":780,"次":781,"欢":782,"正":783,"此":784,"殊":785,"残":786,"段":787,"每":788,"比":789,"水":790,"没":791,"法":792,"泡":793,"测":794,"消":795,"清":796,"滚":797,"满":798,"点":799,"父":800,"特":801,"犬":802,"玉":803,"现":804,"理":805,"甜":806,"用":807,"由":808,"申":809,"界":810,"百":811,"的":812,"目":813,"直":814,"相":815,"码":816,"确":817,"碰":818,"种":819,"称":820,"移":821,"稍":822,"空":823,"端":824,"符":825,"第":826,"等":827,"算":828,"管":829,"类":830,"精":831,"素":832,"累":833,"组":834,"经":835,"给":836,"络":837,"缀":838,"编":839,"网":840,"置":841,"老":842,"者":843,"能":844,"自":845,"至":846,"节":847,"若":848,"英":849,"获":850,"萌":851,"落":852,"薔":853,"虎":854,"行":855,"衡":856,"表":857,"装":858,"要":859,"見":860,"解":861,"語":862,"计":863,"订":864,"设":865,"证":866,"识":867,"试":868,"该":869,"误":870,"请":871,"调":872,"贝":873,"败":874,"越":875,"足":876,"路":877,"较":878,"辣":879,"达":880,"过":881,"迎":882,"返":883,"还":884,"这":885,"进":886,"迭":887,"述":888,"退":889,"选":890,"递":891,"通":892,"遍":893,"避":894,"郎":895,"部":896,"配":897,"量":898,"针":899,"错":900,"长":901,"阅":902,"除":903,"需":904,"非":905,"面":906,"音":907,"顶":908,"验":909,"點":910,"국":911,"데":912,"베":913,"분":914,"산":915,"스":916,"이":917,"터":918,"한":919,"":920,"":921,"":922,"":923,"":924,"":925,"":926,"":927,"":928,"":929,"":930,"":931,"":932,"":933,"":934,"":935,"":936,"":937,"":938,"":939,"":940,"":941,"":942,"":943,"":944,"":945,"":946,"":947,"":948,"":949,"":950,"":951,"":952,"":953,"":954,"":955,"":956,"":957,"":958,"":959,"":960,"":961,"":962,"":963,"":964,"":965,"":966,"":967,"":968,"":969,"":970,"":971,"":972,"":973,"":974,"":975,"":976,"":977,"":978,"":979,"":980,"":981,"":982,"":983,"":984,"":985,"":986,"":987,"":988,"":989,"":990,"":991,"":992,"":993,"":994,"":995,"":996,"":997,"":998,"":999,"":1000,"":1001,"":1002,"":1003,"":1004,"":1005,"":1006,"":1007,"﵂":1008,"︎":1009,"️":1010,"︵":1011,"！":1012,"＂":1013,"＃":1014,"＄":1015,"％":1016,"＆":1017,"＇":1018,"（":1019,"）":1020,"＊":1021,"＋":1022,"，":1023,"－":1024,"．":1025,"／":1026,"：":1027,"；":1028,"＜":1029,"＝":1030,"＞":1031,"？":1032,"＠":1033,"［":1034,"＼":1035,"］":1036,"＾":1037,"ａ":1038,"ｂ":1039,"ｃ":1040,"ｄ":1041,"ｅ":1042,"ｆ":1043,"｛":1044,"｝":1045,"～":1046,"ｺ":1047,"ﾁ":1048,"ﾆ":1049,"ﾊ":1050,"ﾝ":1051,"�":1052,"𝌆":1053,"𝕊":1054,"🌠":1055,"🌳":1056,"🍄":1057,"🍐":1058,"🍞":1059,"🍳":1060,"🎉":1061,"🎗":1062,"🐅":1063,"🐇":1064,"🐜":1065,"🐰":1066,"🐶":1067,"🐻":1068,"👍":1069,"👦":1070,"👧":1071,"👨":1072,"👩":1073,"💖":1074,"💣":1075,"💩":1076,"💯":1077,"📎":1078,"🔑":1079,"🔗":1080,"🕺":1081,"😀":1082,"😂":1083,"😃":1084,"😉":1085,"😊":1086,"🙄":1087,"🙈":1088,"🙉":1089,"🝄":1090,"🥜":1091,"🥺":1092,"🦹":1093,"er":1094,"re":1095,"in":1096,"on":1097,"st":1098,"at":1099,"or":1100,"se":1101,"en":1102,"al":1103,"ut":1104,"de":1105,"it":1106,"ion":1107,"err":1108,"ar":1109,"me":1110,"res":1111,"to":1112,"le":1113,"as":1114,"an":1115,"ro":1116,"ce":1117,"un":1118,"co":1119,"ct":1120,"error":1121,"ser":1122,"ch":1123,"ex":1124,"ue":1125,"mut":1126,"ge":1127,"ap":1128,"so":1129,"ne":1130,"th":1131,"0x":1132,"lo":1133,"ate":1134,"ad":1135,"fi":1136,"ent":1137,"ing":1138,"ul":1139,"id":1140,"ur":1141,"pe":1142,"li":1143,"str":1144,"val":1145,"te":1146,"is":1147,"wr":1148,"pt":1149,"con":1150,"ve":1151,"ck":1152,"ult":1153,"iz":1154,"bu":1155,"for":1156,"new":1157,"ize":1158,"ame":1159,"mat":1160,"no":1161,"ty":1162,"ed":1163,"get":1164,"resp":1165,"tr":1166,"ld":1167,"pu":1168,"respon":1169,"req":1170,"pro":1171,"response":1172,"ter":1173,"use":1174,"result":1175,"ru":1176,"ation":1177,"ca":1178,"sert":1179,"mp":1180,"set":1181,"par":1182,"uest":1183,"type":1184,"request":1185,"ref":1186,"the":1187,"ption":1188,"value":1189,"put":1190,"ite":1191,"assert":1192,"ma":1193,"some":1194,"po":1195,"and":1196,"up":1197,"ig":1198,"buf":1199,"name":1200,"ke":1201,"la":1202,"vi":1203,"00":1204,"one":1205,"size":1206,"ms":1207,"ext":1208,"soto":1209,"rusoto":1210,"code":1211,"ta":1212,"ss":1213,"pub":1214,"ret":1215,"sc":1216,"wrap":1217,"test":1218,"string":1219,"sh":1220,"ver":1221,"vec":1222,"rom":1223,"bo":1224,"from":1225,"ic":1226,"ction":1227,"mo":1228,"unwrap":1229,"um":1230,"ra":1231,"do":1232,"retur":1233,"pat":1234,"write":1235,"of":1236,"return":1237,"fa":1238,"eq":1239,"ble":1240,"cause":1241,"ri":1242,"pa":1243,"ata":1244,"ok":1245,"di":1246,"fo":1247,"vice":1248,"match":1249,"op":1250,"key":1251,"32":1252,"valid":1253,"eld":1254,"be":1255,"data":1256,"ial":1257,"input":1258,"field":1259,"ht":1260,"cl":1261,"int":1262,"read":1263,"ack":1264,"service":1265,"ine":1266,"add":1267,"len":1268,"text":1269,"map":1270,"ment":1271,"format":1272,"out":1273,"reg":1274,"by":1275,"ith":1276,"ind":1277,"arg":1278,"age":1279,"cre":1280,"il":1281,"list":1282,"with":1283,"not":1284,"msg":1285,"option":1286,"fer":1287,"64":1288,"proto":1289,"wa":1290,"path":1291,"che":1292,"scri":1293,"file":1294,"ti":1295,"ac":1296,"col":1297,"state":1298,"der":1299,"urce":1300,"none":1301,"lock":1302,"es":1303,"exce":1304,"ob":1305,"us":1306,"line":1307,"iter":1308,"end":1309,"sa":1310,"yn":1311,"serial":1312,"he":1313,"buffer":1314,"sig":1315,"mt":1316,"able":1317,"create":1318,"confi":1319,"stat":1320,"dis":1321,"fmt":1322,"config":1323,"ure":1324,"ild":1325,"sion":1326,"ev":1327,"parse":1328,"pre":1329,"reso":1330,"byte":1331,"std":1332,"fault":1333,"fe":1334,"exception":1335,"low":1336,"all":1337,"js":1338,"art":1339,"ist":1340,"am":1341,"descri":1342,"inter":1343,"event":1344,"default":1345,"cli":1346,"ren":1347,"lic":1348,"comp":1349,"coun":1350,"com":1351,"su":1352,"tp":1353,"date":1354,"pect":1355,"time":1356,"und":1357,"wn":1358,"ust":1359,"wait":1360,"usize":1361,"obj":1362,"expect":1363,"ort":1364,"stack":1365,"resource":1366,"json":1367,"invalid":1368,"block":1369,"into":1370,"start":1371,"deserial":1372,"inde":1373,"index":1374,"var":1375,"tag":1376,"u8":1377,"count":1378,"load":1379,"http":1380,"ync":1381,"ol":1382,"ive":1383,"qu":1384,"ned":1385,"build":1386,"stru":1387,"tran":1388,"await":1389,"update":1390,"has":1391,"ip":1392,"cess":1393,"wor":1394,"sen":1395,"ot":1396,"mess":1397,"message":1398,"ll":1399,"clone":1400,"info":1401,"context":1402,"fix":1403,"cur":1404,"per":1405,"lect":1406,"mem":1407,"app":1408,"mit":1409,"ition":1410,"lay":1411,"client":1412,"gen":1413,"kind":1414,"u32":1415,"ity":1416,"tok":1417,"imp":1418,"nal":1419,"ance":1420,"bytes":1421,"fal":1422,"true":1423,"off":1424,"async":1425,"wh":1426,"we":1427,"gro":1428,"em":1429,"false":1430,"ml":1431,"node":1432,"num":1433,"act":1434,"loc":1435,"protobuf":1436,"hand":1437,"push":1438,"ly":1439,"sp":1440,"unk":1441,"version":1442,"inst":1443,"ams":1444,"cont":1445,"cr":1446,"exp":1447,"tar":1448,"ect":1449,"pos":1450,"offset":1451,"group":1452,"target":1453,"deserialize":1454,"ader":1455,"box":1456,"rect":1457,"status":1458,"output":1459,"raw":1460,"ber":1461,"params":1462,"safe":1463,"region":1464,"doc":1465,"tx":1466,"16":1467,"ange":1468,"any":1469,"io":1470,"sign":1471,"options":1472,"patch":1473,"gr":1474,"vari":1475,"et":1476,"token":1477,"internal":1478,"next":1479,"mod":1480,"py":1481,"row":1482,"nown":1483,"oper":1484,"describe":1485,"stre":1486,"back":1487,"bool":1488,"dispatch":1489,"ec":1490,"ator":1491,"ull":1492,"server":1493,"sy":1494,"log":1495,"dir":1496,"0x00":1497,"max":1498,"ray":1499,"ba":1500,"found":1501,"ister":1502,"hash":1503,"rent":1504,"used":1505,"stream":1506,"unknown":1507,"spe":1508,"allow":1509,"unsafe":1510,"this":1511,"fun":1512,"db":1513,"0x0":1514,"bit":1515,"pay":1516,"im":1517,"array":1518,"ow":1519,"cf":1520,"expected":1521,"payload":1522,"ight":1523,"register":1524,"spec":1525,"ele":1526,"10":1527,"ory":1528,"but":1529,"are":1530,"run":1531,"ident":1532,"sup":1533,"check":1534,"led":1535,"coded":1536,"lag":1537,"variable":1538,"ptr":1539,"header":1540,"ctx":1541,"object":1542,"u64":1543,"flag":1544,"comm":1545,"sub":1546,"min":1547,"12":1548,"aa":1549,"move":1550,"uration":1551,"fr":1552,"instru":1553,"instruction":1554,"sche":1555,"mode":1556,"gl":1557,"args":1558,"def":1559,"ire":1560,"ted":1561,"ho":1562,"work":1563,"ger":1564,"validation":1565,"parame":1566,"parameter":1567,"can":1568,"attr":1569,"prefix":1570,"point":1571,"os":1572,"conne":1573,"spa":1574,"builder":1575,"inline":1576,"instance":1577,"ress":1578,"bind":1579,"ant":1580,"gment":1581,"rep":1582,"schema":1583,"pi":1584,"init":1585,"access":1586,"ded":1587,"ument":1588,"ated":1589,"user":1590,"ther":1591,"fields":1592,"exec":1593,"aut":1594,"account":1595,"scal":1596,"pty":1597,"izer":1598,"sto":1599,"send":1600,"formatter":1601,"ask":1602,"0x6":1603,"element":1604,"content":1605,"empty":1606,"that":1607,"cket":1608,"ner":1609,"pri":1610,"unused":1611,"null":1612,"store":1613,"ab":1614,"addr":1615,"ary":1616,"command":1617,"om":1618,"rc":1619,"source":1620,"0x7":1621,"ws":1622,"conta":1623,"encoded":1624,"win":1625,"base":1626,"rt":1627,"ci":1628,"yo":1629,"trans":1630,"char":1631,"wid":1632,"uster":1633,"cluster":1634,"i32":1635,"ft":1636,"gener":1637,"signed":1638,"impl":1639,"temp":1640,"dep":1641,"number":1642,"root":1643,"main":1644,"execut":1645,"0000":1646,"xml":1647,"cfg":1648,"fil":1649,"ied":1650,"late":1651,"variables":1652,"bug":1653,"ff":1654,"operation":1655,"color":1656,"lication":1657,"play":1658,"flags":1659,"struct":1660,"handle":1661,"ree":1662,"function":1663,"ule":1664,"rec":1665,"direct":1666,"uld":1667,"current":1668,"static":1669,"lob":1670,"debug":1671,"address":1672,"frame":1673,"0x8":1674,"order":1675,"contain":1676,"tra":1677,"0x2":1678,"windo":1679,"owned":1680,"rule":1681,"try":1682,"atch":1683,"table":1684,"call":1685,"values":1686,"position":1687,"lib":1688,"ts":1689,"cm":1690,"item":1691,"ptor":1692,"0x4":1693,"cle":1694,"cache":1695,"gra":1696,"range":1697,"vm":1698,"coder":1699,"limit":1700,"collect":1701,"mage":1702,"quer":1703,"ibut":1704,"0x5":1705,"ere":1706,"inner":1707,"man":1708,"polic":1709,"0x3":1710,"ler":1711,"filter":1712,"transa":1713,"sn":1714,"fra":1715,"ual":1716,"space":1717,"descriptor":1718,"net":1719,"other":1720,"module":1721,"insert":1722,"sty":1723,"ep":1724,"flow":1725,"0x9":1726,"ry":1727,"device":1728,"image":1729,"20":1730,"ature":1731,"cap":1732,"transaction":1733,"query":1734,"child":1735,"sing":1736,"env":1737,"local":1738,"api":1739,"opt":1740,"ings":1741,"aws":1742,"window":1743,"width":1744,"od":1745,"ink":1746,"peer":1747,"style":1748,"amp":1749,"pl":1750,"que":1751,"ls":1752,"ha":1753,"ard":1754,"ns":1755,"colum":1756,"ctor":1757,"crate":1758,"ould":1759,"texture":1760,"you":1761,"cond":1762,"display":1763,"form":1764,"reader":1765,"leve":1766,"application":1767,"gth":1768,"mis":1769,"action":1770,"length":1771,"ence":1772,"cer":1773,"change":1774,"lice":1775,"post":1776,"expr":1777,"configuration":1778,"cry":1779,"slice":1780,"sor":1781,"foo":1782,"0x1":1783,"non":1784,"url":1785,"src":1786,"ont":1787,"must":1788,"last":1789,"exist":1790,"clo":1791,"fragment":1792,"vo":1793,"port":1794,"task":1795,"auth":1796,"ics":1797,"policy":1798,"sd":1799,"reflect":1800,"writer":1801,"ies":1802,"mer":1803,"face":1804,"dy":1805,"cmd":1806,"iled":1807,"va":1808,"batch":1809,"ord":1810,"met":1811,"sec":1812,"sess":1813,"sk":1814,"arc":1815,"poll":1816,"cat":1817,"remove":1818,"sed":1819,"ir":1820,"meth":1821,"method":1822,"serde":1823,"ass":1824,"entry":1825,"should":1826,"25":1827,"types":1828,"attribut":1829,"f64":1830,"deserializer":1831,"grap":1832,"my":1833,"ide":1834,"arch":1835,"orig":1836,"gu":1837,"job":1838,"typ":1839,"render":1840,"orm":1841,"11":1842,"decoder":1843,"clear":1844,"way":1845,"enum":1846,"glob":1847,"ek":1848,"pc":1849,"af":1850,"pan":1851,"graph":1852,"tree":1853,"jo":1854,"000":1855,"vis":1856,"level":1857,"scalar":1858,"i64":1859,"ong":1860,"pack":1861,"pipe":1862,"snap":1863,"rst":1864,"ical":1865,"0xe":1866,"defin":1867,"super":1868,"ures":1869,"body":1870,"ag":1871,"lat":1872,"hel":1873,"script":1874,"case":1875,"chan":1876,"thread":1877,"session":1878,"libc":1879,"metad":1880,"0xb":1881,"metadata":1882,"f32":1883,"where":1884,"du":1885,"0xd":1886,"member":1887,"handler":1888,"uri":1889,"first":1890,"gram":1891,"shot":1892,"ched":1893,"connection":1894,"dyn":1895,"left":1896,"part":1897,"lit":1898,"origin":1899,"sym":1900,"nel":1901,"argument":1902,"socket":1903,"asso":1904,"ready":1905,"only":1906,"height":1907,"amz":1908,"0xc":1909,"whi":1910,"column":1911,"maz":1912,"mar":1913,"fail":1914,"idx":1915,"tags":1916,"amaz":1917,"lace":1918,"concat":1919,"bor":1920,"find":1921,"ication":1922,"amazon":1923,"mult":1924,"skip":1925,"lable":1926,"rea":1927,"eng":1928,"flo":1929,"0xf":1930,"panic":1931,"ute":1932,"associ":1933,"failed":1934,"sdl":1935,"global":1936,"arn":1937,"word":1938,"eded":1939,"right":1940,"take":1941,"html":1942,"was":1943,"engine":1944,"process":1945,"buffered":1946,"ill":1947,"bin":1948,"make":1949,"suc":1950,"layout":1951,"vie":1952,"connect":1953,"core":1954,"bindgen":1955,"wire":1956,"sions":1957,"dest":1958,"stor":1959,"serialize":1960,"document":1961,"cast":1962,"template":1963,"ix":1964,"commit":1965,"zer":1966,"validator":1967,"requ":1968,"location":1969,"snapshot":1970,"join":1971,"link":1972,"clu":1973,"ava":1974,"ier":1975,"view":1976,"web":1977,"float":1978,"too":1979,"duration":1980,"den":1981,"matches":1982,"el":1983,"ph":1984,"select":1985,"rece":1986,"fs":1987,"vert":1988,"aaaa":1989,"ired":1990,"parser":1991,"parsed":1992,"sm":1993,"host":1994,"definition":1995,"channel":1996,"storage":1997,"public":1998,"pr":1999,"open":2000,"parent":2001,"fixt":2002,"resol":2003,"queue":2004,"0xa":2005,"dec":2006,"tc":2007,"lection":2008,"cust":2009,"memory":2010,"ization":2011,"down":2012,"fd":2013,"author":2014,"syst":2015,"initial":2016,"avai":2017,"events":2018,"record":2019,"zero":2020,"instr":2021,"stop":2022,"custom":2023,"encry":2024,"ign":2025,"bar":2026,"timeout":2027,"util":2028,"u16":2029,"ud":2030,"inclu":2031,"sum":2032,"sw":2033,"step":2034,"ized":2035,"peek":2036,"exceeded":2037,"dom":2038,"long":2039,"fin":2040,"bad":2041,"tern":2042,"imple":2043,"sender":2044,"enable":2045,"borrow":2046,"100":2047,"ql":2048,"listen":2049,"directory":2050,"page":2051,"system":2052,"search":2053,"segment":2054,"feature":2055,"ject":2056,"loop":2057,"labe":2058,"conf":2059,"keys":2060,"symbo":2061,"bound":2062,"domain":2063,"clip":2064,"ping":2065,"ers":2066,"contains":2067,"cursor":2068,"org":2069,"mon":2070,"medi":2071,"supp":2072,"many":2073,"available":2074,"refer":2075,"enc":2076,"rot":2077,"ng":2078,"rop":2079,"align":2080,"iv":2081,"orted":2082,"func":2083,"copy":2084,"merge":2085,"ain":2086,"network":2087,"mitive":2088,"primitive":2089,"sett":2090,"ker":2091,"sco":2092,"success":2093,"rx":2094,"when":2095,"now":2096,"metr":2097,"split":2098,"world":2099,"syn":2100,"ding":2101,"dete":2102,"ali":2103,"produ":2104,"rust":2105,"24":2106,"have":2107,"span":2108,"utf":2109,"https":2110,"lu":2111,"scope":2112,"auto":2113,"drop":2114,"import":2115,"required":2116,"ten":2117,"au":2118,"inte":2119,"capac":2120,"capacity":2121,"share":2122,"second":2123,"repe":2124,"est":2125,"round":2126,"game":2127,"eval":2128,"int32":2129,"program":2130,"gin":2131,"ample":2132,"requests":2133,"txn":2134,"term":2135,"does":2136,"include":2137,"files":2138,"lan":2139,"ben":2140,"operand":2141,"after":2142,"pool":2143,"stamp":2144,"cell":2145,"bench":2146,"15":2147,"transform":2148,"lisp":2149,"meta":2150,"cc":2151,"parameters":2152,"mov":2153,"label":2154,"rg":2155,"pk":2156,"supported":2157,"lex":2158,"vector":2159,"gest":2160,"mask":2161,"plan":2162,"endpoint":2163,"mac":2164,"signature":2165,"dat":2166,"roll":2167,"sent":2168,"while":2169,"bal":2170,"ea":2171,"chunk":2172,"backend":2173,"actual":2174,"font":2175,"symbol":2176,"v2":2177,"package":2178,"quo":2179,"utf8":2180,"short":2181,"over":2182,"will":2183,"ses":2184,"cert":2185,"fut":2186,"exten":2187,"then":2188,"decode":2189,"protocol":2190,"samp":2191,"rout":2192,"print":2193,"generate":2194,"formation":2195,"chain":2196,"ces":2197,"example":2198,"cached":2199,"19":2200,"pix":2201,"settings":2202,"permis":2203,"mana":2204,"attribute":2205,"epo":2206,"unit":2207,"gate":2208,"epoch":2209,"manager":2210,"sync":2211,"hs":2212,"dead":2213,"icate":2214,"lines":2215,"ib":2216,"exists":2217,"brea":2218,"attributes":2219,"selection":2220,"associate":2221,"reference":2222,"sha":2223,"br":2224,"subscri":2225,"proper":2226,"break":2227,"gle":2228,"ending":2229,"cred":2230,"ling":2231,"tmp":2232,"top":2233,"binary":2234,"ved":2235,"class":2236,"rol":2237,"scan":2238,"ape":2239,"ential":2240,"more":2241,"fore":2242,"recv":2243,"rest":2244,"cor":2245,"depth":2246,"termin":2247,"go":2248,"bits":2249,"ef":2250,"conn":2251,"border":2252,"project":2253,"replace":2254,"pair":2255,"param":2256,"pass":2257,"execute":2258,"red":2259,"listener":2260,"sport":2261,"execution":2262,"transport":2263,"may":2264,"information":2265,"80":2266,"tail":2267,"tokio":2268,"dout":2269,"cx":2270,"close":2271,"old":2272,"latest":2273,"writ":2274,"extend":2275,"vertex":2276,"stdout":2277,"compres":2278,"identity":2279,"description":2280,"ie":2281,"255":2282,"loy":2283,"contin":2284,"13":2285,"14":2286,"front":2287,"usage":2288,"docs":2289,"ton":2290,"deploy":2291,"denied":2292,"pipeline":2293,"norm":2294,"zy":2295,"dr":2296,"ations":2297,"accessor":2298,"multip":2299,"mil":2300,"items":2301,"ular":2302,"sock":2303,"vid":2304,"draw":2305,"unt":2306,"alias":2307,"raft":2308,"mock":2309,"gateway":2310,"tcp":2311,"counter":2312,"coding":2313,"b0":2314,"full":2315,"credential":2316,"uni":2317,"acce":2318,"mail":2319,"pop":2320,"ys":2321,"123":2322,"her":2323,"rvalue":2324,"ast":2325,"blob":2326,"results":2327,"shared":2328,"entity":2329,"before":2330,"secret":2331,"sand":2332,"model":2333,"01":2334,"statement":2335,"sandbox":2336,"cmp":2337,"void":2338,"serializer":2339,"cpu":2340,"pin":2341,"istr":2342,"need":2343,"ctxt":2344,"encode":2345,"got":2346,"groups":2347,"pending":2348,"abo":2349,"lazy":2350,"organ":2351,"grpc":2352,"tax":2353,"ative":2354,"ility":2355,"runtime":2356,"control":2357,"opts":2358,"namespace":2359,"backup":2360,"errors":2361,"organization":2362,"xy":2363,"ron":2364,"encoding":2365,"condition":2366,"ateg":2367,"ffi":2368,"variant":2369,"executor":2370,"encryption":2371,"proof":2372,"dio":2373,"gh":2374,"track":2375,"tests":2376,"packet":2377,"timestamp":2378,"rows":2379,"continue":2380,"ju":2381,"exit":2382,"see":2383,"help":2384,"hello":2385,"onent":2386,"sys":2387,"simple":2388,"ced":2389,"ally":2390,"spawn":2391,"priv":2392,"99":2393,"ness":2394,"provid":2395,"headers":2396,"mi":2397,"already":2398,"rate":2399,"ui":2400,"disable":2401,"fixtures":2402,"cance":2403,"failure":2404,"jump":2405,"ible":2406,"ped":2407,"recei":2408,"container":2409,"da":2410,"compute":2411,"todo":2412,"mark":2413,"00000000":2414,"waf":2415,"alloc":2416,"ish":2417,"names":2418,"llvm":2419,"lict":2420,"conflict":2421,"place":2422,"ick":2423,"sequ":2424,"med":2425,"profile":2426,"arguments":2427,"role":2428,"note":2429,"returns":2430,"very":2431,"equal":2432,"128":2433,"href":2434,"sure":2435,"metrics":2436,"pose":2437,"desc":2438,"layer":2439,"sur":2440,"using":2441,"real":2442,"cloud":2443,"ous":2444,"logical":2445,"rel":2446,"receive":2447,"vide":2448,"component":2449,"sv":2450,"finish":2451,"lig":2452,"validate":2453,"append":2454,"depend":2455,"enabled":2456,"tw":2457,"sol":2458,"guide":2459,"button":2460,"22":2461,"scale":2462,"pattern":2463,"charact":2464,"missing":2465,"syntax":2466,"provider":2467,"mig":2468,"shader":2469,"ordering":2470,"pixel":2471,"rand":2472,"ins":2473,"registr":2474,"warn":2475,"deli":2476,"rules":2477,"your":2478,"fixture":2479,"rs":2480,"filen":2481,"rection":2482,"credentials":2483,"edit":2484,"which":2485,"directive":2486,"direction":2487,"small":2488,"mediate":2489,"tot":2490,"unavailable":2491,"apply":2492,"filename":2493,"derive":2494,"88":2495,"detail":2496,"v1":2497,"support":2498,"signal":2499,"proxy":2500,"int64":2501,"private":2502,"30":2503,"total":2504,"ids":2505,"aaaaaaaa":2506,"throt":2507,"thrott":2508,"resources":2509,"adi":2510,"quote":2511,"atta":2512,"prim":2513,"normal":2514,"50":2515,"igno":2516,"trace":2517,"ase":2518,"there":2519,"show":2520,"elements":2521,"2d":2522,"integer":2523,"future":2524,"prog":2525,"pha":2526,"lot":2527,"expres":2528,"mm":2529,"ities":2530,"active":2531,"ments":2532,"mne":2533,"reen":2534,"immediate":2535,"worker":2536,"67":2537,"flu":2538,"migr":2539,"uid":2540,"its":2541,"tensor":2542,"surface":2543,"named":2544,"sequence":2545,"rng":2546,"present":2547,"email":2548,"subscription":2549,"free":2550,"single":2551,"same":2552,"permissions":2553,"multi":2554,"40":2555,"atures":2556,"──":2557,"digest":2558,"alignment":2559,"seq":2560,"scaling":2561,"ash":2562,"wrapping":2563,"untag":2564,"graphql":2565,"receiver":2566,"unexpected":2567,"sets":2568,"45":2569,"kit":2570,"hold":2571,"dim":2572,"light":2573,"children":2574,"anch":2575,"ledger":2576,"vision":2577,"prec":2578,"encoder":2579,"ster":2580,"sort":2581,"two":2582,"200":2583,"shape":2584,"hex":2585,"mote":2586,"authorized":2587,"sql":2588,"latin":2589,"interface":2590,"partial":2591,"report":2592,"head":2593,"widget":2594,"17":2595,"tit":2596,"ency":2597,"each":2598,"256":2599,"bl":2600,"pb":2601,"logger":2602,"just":2603,"throttling":2604,"transactions":2605,"prev":2606,"nodes":2607,"ucmd":2608,"posit":2609,"about":2610,"mb":2611,"reach":2612,"bytecode":2613,"secur":2614,"boo":2615,"css":2616,"atom":2617,"18":2618,"ugh":2619,"security":2620,"audio":2621,"begin":2622,"multiple":2623,"compressed":2624,"blocks":2625,"uble":2626,"rm":2627,"export":2628,"she":2629,"typed":2630,"flush":2631,"thing":2632,"cal":2633,"llow":2634,"generic":2635,"alth":2636,"cent":2637,"pd":2638,"own":2639,"section":2640,"wasm":2641,"alpha":2642,"columns":2643,"replication":2644,"implement":2645,"double":2646,"bot":2647,"destin":2648,"callback":2649,"ward":2650,"migration":2651,"instances":2652,"ub":2653,"mnemon":2654,"union":2655,"prop":2656,"follow":2657,"stats":2658,"hdr":2659,"sched":2660,"remote":2661,"xx":2662,"cannot":2663,"reset":2664,"ffff":2665,"sample":2666,"lar":2667,"health":2668,"hig":2669,"adding":2670,"car":2671,"rgb":2672,"marg":2673,"zone":2674,"evalu":2675,"png":2676,"diem":2677,"operator":2678,"leader":2679,"ln":2680,"cb":2681,"fle":2682,"sus":2683,"33":2684,"tract":2685,"guard":2686,"pointer":2687,"less":2688,"reser":2689,"guage":2690,"envi":2691,"language":2692,"milli":2693,"environ":2694,"indi":2695,"iterator":2696,"maybe":2697,"extern":2698,"ways":2699,"admin":2700,"regex":2701,"del":2702,"edge":2703,"virt":2704,"repeated":2705,"distr":2706,"singular":2707,"fleet":2708,"flat":2709,"interval":2710,"mount":2711,"imal":2712,"cy":2713,"pkg":2714,"readable":2715,"dns":2716,"idden":2717,"resolver":2718,"registry":2719,"checked":2720,"here":2721,"fet":2722,"accept":2723,"inc":2724,"pted":2725,"dst":2726,"tex":2727,"ume":2728,"hook":2729,"rhs":2730,"lium":2731,"pers":2732,"glium":2733,"unix":2734,"title":2735,"distribut":2736,"attach":2737,"isize":2738,"reachable":2739,"sume":2740,"always":2741,"slot":2742,"deployment":2743,"tt":2744,"shake":2745,"liter":2746,"look":2747,"ww":2748,"generated":2749,"kv":2750,"returned":2751,"activ":2752,"vas":2753,"suf":2754,"binding":2755,"destination":2756,"v4":2757,"raint":2758,"sin":2759,"42":2760,"expression":2761,"sizes":2762,"propose":2763,"abc":2764,"balan":2765,"ants":2766,"suffix":2767,"wasi":2768,"0x01":2769,"once":2770,"ile":2771,"could":2772,"chars":2773,"metric":2774,"fetch":2775,"handshake":2776,"stderr":2777,"uint":2778,"agg":2779,"velo":2780,"large":2781,"ries":2782,"branch":2783,"bb":2784,"rpc":2785,"toml":2786,"comput":2787,"extra":2788,"ions":2789,"testkit":2790,"macro":2791,"cs":2792,"trait":2793,"than":2794,"router":2795,"ning":2796,"develo":2797,"big":2798,"progress":2799,"reco":2800,"entries":2801,"indices":2802,"random":2803,"pla":2804,"23":2805,"ating":2806,"tokens":2807,"parts":2808,"versions":2809,"compare":2810,"mnemonic":2811,"workspace":2812,"vious":2813,"cancel":2814,"done":2815,"route":2816,"acc":2817,"character":2818,"angle":2819,"scroll":2820,"contents":2821,"udp":2822,"lean":2823,"boolean":2824,"literal":2825,"without":2826,"ignore":2827,"dev":2828,"created":2829,"virtual":2830,"itor":2831,"hist":2832,"smb":2833,"details":2834,"dimen":2835,"padding":2836,"esis":2837,"statist":2838,"marker":2839,"unreachable":2840,"ful":2841,"sim":2842,"dict":2843,"phys":2844,"decimal":2845,"gpu":2846,"buffers":2847,"setup":2848,"imm":2849,"because":2850,"property":2851,"previous":2852,"fork":2853,"ops":2854,"aggreg":2855,"cook":2856,"fall":2857,"arrow":2858,"tile":2859,"mute":2860,"bla":2861,"ging":2862,"tls":2863,"reposit":2864,"margin":2865,"deprec":2866,"changed":2867,"secs":2868,"ds":2869,"pid":2870,"extensions":2871,"environment":2872,"coord":2873,"install":2874,"physical":2875,"correct":2876,"unauthorized":2877,"theme":2878,"selector":2879,"product":2880,"partition":2881,"lish":2882,"inputs":2883,"detect":2884,"tup":2885,"delta":2886,"bitmap":2887,"enumer":2888,"statistics":2889,"fb":2890,"common":2891,"keep":2892,"02":2893,"offsets":2894,"paths":2895,"genesis":2896,"ground":2897,"timer":2898,"near":2899,"vol":2900,"transfer":2901,"exter":2902,"kms":2903,"extension":2904,"millis":2905,"instant":2906,"site":2907,"assign":2908,"ties":2909,"collection":2910,"tuple":2911,"fixed":2912,"bro":2913,"white":2914,"tom":2915,"comment":2916,"board":2917,"producer":2918,"properties":2919,"pto":2920,"transmute":2921,"media":2922,"fect":2923,"detection":2924,"watch":2925,"optional":2926,"disassociate":2927,"balancer":2928,"plat":2929,"cla":2930,"decla":2931,"vote":2932,"compile":2933,"ited":2934,"developer":2935,"terminal":2936,"sle":2937,"external":2938,"decl":2939,"i16":2940,"relat":2941,"shut":2942,"manage":2943,"86":2944,"bounds":2945,"native":2946,"enumerate":2947,"lhs":2948,"since":2949,"gn":2950,"leg":2951,"relative":2952,"crypto":2953,"carg":2954,"screen":2955,"retr":2956,"cargo":2957,"existing":2958,"features":2959,"seek":2960,"arm":2961,"appro":2962,"cons":2963,"unsupported":2964,"s3":2965,"boxed":2966,"nt":2967,"codec":2968,"resolve":2969,"cho":2970,"imum":2971,"jobs":2972,"reas":2973,"diction":2974,"dig":2975,"inher":2976,"how":2977,"bas":2978,"bindings":2979,"lap":2980,"succe":2981,"bucket":2982,"fill":2983,"pse":2984,"pull":2985,"feed":2986,"save":2987,"such":2988,"initialized":2989,"conver":2990,"datum":2991,"anal":2992,"0usize":2993,"restore":2994,"ise":2995,"curren":2996,"1000":2997,"starts":2998,"ensure":2999,"repository":3000,"don":3001,"extract":3002,"fast":3003,"strateg":3004,"trim":3005,"rough":3006,"policies":3007,"high":3008,"distribution":3009,"scen":3010,"rev":3011,"database":3012,"platform":3013,"cks":3014,"seconds":3015,"servo":3016,"matri":3017,"owner":3018,"home":3019,"dependency":3020,"gly":3021,"canvas":3022,"matrix":3023,"arg1":3024,"cookie":3025,"actions":3026,"55":3027,"qual":3028,"sleep":3029,"bitness":3030,"dian":3031,"inv":3032,"writeln":3033,"r1":3034,"dist":3035,"hosted":3036,"framebuffer":3037,"endian":3038,"udo":3039,"side":3040,"elem":3041,"rgba":3042,"glyph":3043,"pseudo":3044,"shad":3045,"upload":3046,"strategy":3047,"boot":3048,"cases":3049,"declare":3050,"oned":3051,"uuid":3052,"adv":3053,"i8":3054,"members":3055,"computed":3056,"gas":3057,"shadow":3058,"permission":3059,"compos":3060,"facet":3061,"reason":3062,"pn":3063,"0x02":3064,"arr":3065,"convert":3066,"gc":3067,"consum":3068,"dimensions":3069,"consen":3070,"0x0f":3071,"consensus":3072,"tf":3073,"streaming":3074,"39":3075,"containing":3076,"keyword":3077,"categ":3078,"posal":3079,"area":3080,"dri":3081,"esc":3082,"levels":3083,"iced":3084,"basic":3085,"errno":3086,"lease":3087,"fold":3088,"incre":3089,"leaf":3090,"trail":3091,"proposal":3092,"ice":3093,"pkt":3094,"ear":3095,"urlen":3096,"miter":3097,"nest":3098,"advance":3099,"also":3100,"unsigned":3101,"decry":3102,"associated":3103,"grid":3104,"shell":3105,"shutdown":3106,"urlencoded":3107,"buil":3108,"ches":3109,"wal":3110,"0xff":3111,"built":3112,"messages":3113,"defined":3114,"incomp":3115,"rary":3116,"original":3117,"ranges":3118,"ital":3119,"77":3120,"opa":3121,"takes":3122,"trig":3123,"acqu":3124,"succeed":3125,"grade":3126,"unicode":3127,"volume":3128,"received":3129,"been":3130,"weight":3131,"ability":3132,"windows":3133,"neg":3134,"interest":3135,"dup":3136,"sampler":3137,"nul":3138,"26":3139,"verse":3140,"1u32":3141,"exact":3142,"video":3143,"known":3144,"integr":3145,"diag":3146,"mic":3147,"je":3148,"writing":3149,"trigger":3150,"contact":3151,"elast":3152,"k1":3153,"rte":3154,"25519":3155,"varint":3156,"iam":3157,"lin":3158,"forward":3159,"updates":3160,"mutex":3161,"thon":3162,"summ":3163,"background":3164,"mid":3165,"hint":3166,"python":3167,"unc":3168,"0x66":3169,"forb":3170,"summary":3171,"secure":3172,"vpc":3173,"doesn":3174,"compiled":3175,"micro":3176,"cover":3177,"formed":3178,"bet":3179,"cp":3180,"ux":3181,"4usize":3182,"trunc":3183,"downcast":3184,"si":3185,"forbidden":3186,"ead":3187,"master":3188,"absol":3189,"plain":3190,"x00":3191,"gradi":3192,"quota":3193,"gradient":3194,"waker":3195,"operations":3196,"0u8":3197,"users":3198,"cloned":3199,"anti":3200,"rotate":3201,"absolute":3202,"password":3203,"concurrent":3204,"remain":3205,"dictionary":3206,"black":3207,"66":3208,"nost":3209,"changes":3210,"ssl":3211,"publish":3212,"guest":3213,"allowed":3214,"effect":3215,"overflow":3216,"bottom":3217,"flex":3218,"plu":3219,"factor":3220,"inherited":3221,"oct":3222,"final":3223,"swap":3224,"subnet":3225,"bencher":3226,"resolved":3227,"nan":3228,"seed":3229,"gt":3230,"weld":3231,"av":3232,"bitfield":3233,"want":3234,"els":3235,"mapping":3236,"closed":3237,"authent":3238,"127":3239,"radi":3240,"28":3241,"states":3242,"plugin":3243,"cost":3244,"services":3245,"like":3246,"mal":3247,"delay":3248,"0x10":3249,"percent":3250,"consume":3251,"oneof":3252,"1024":3253,"accounts":3254,"upgrade":3255,"21":3256,"lookup":3257,"36":3258,"nil":3259,"consumer":3260,"visor":3261,"licen":3262,"written":3263,"detector":3264,"thr":3265,"0x04":3266,"dump":3267,"capital":3268,"provision":3269,"generics":3270,"compil":3271,"encrypted":3272,"history":3273,"dum":3274,"sal":3275,"attrs":3276,"mangle":3277,"0x73":3278,"capt":3279,"scene":3280,"ps":3281,"retrie":3282,"eof":3283,"upper":3284,"mul":3285,"deprecated":3286,"unique":3287,"atomic":3288,"cing":3289,"md":3290,"zip":3291,"0x90":3292,"heap":3293,"sst":3294,"r2":3295,"ross":3296,"both":3297,"0x34":3298,"tab":3299,"score":3300,"trust":3301,"currency":3302,"diagnost":3303,"rtp":3304,"x86":3305,"through":3306,"ulate":3307,"eg":3308,"ires":3309,"quick":3310,"blen":3311,"card":3312,"pas":3313,"nested":3314,"nullable":3315,"cow":3316,"abort":3317,"ax":3318,"pad":3319,"limited":3320,"converted":3321,"mouse":3322,"running":3323,"8usize":3324,"sz":3325,"ves":3326,"0x03":3327,"nd":3328,"spat":3329,"would":3330,"vec4":3331,"stdin":3332,"spatial":3333,"fact":3334,"────":3335,"bra":3336,"separ":3337,"famil":3338,"rd":3339,"optim":3340,"fu":3341,"indent":3342,"stmt":3343,"thru":3344,"family":3345,"dra":3346,"repeat":3347,"pf":3348,"seg":3349,"balance":3350,"mor":3351,"ferent":3352,"targets":3353,"amount":3354,"dummy":3355,"12345":3356,"streams":3357,"initi":3358,"60":3359,"oo":3360,"vcpu":3361,"0x61":3362,"0x80":3363,"vault":3364,"selected":3365,"driver":3366,"mpt":3367,"emit":3368,"hi":3369,"our":3370,"trip":3371,"oms":3372,"ories":3373,"op0":3374,"linked":3375,"stacking":3376,"rpn":3377,"alive":3378,"getter":3379,"blockchain":3380,"compression":3381,"provide":3382,"creation":3383,"traffi":3384,"traffic":3385,"cbor":3386,"rw":3387,"v6":3388,"elastic":3389,"wise":3390,"updated":3391,"orms":3392,"pixels":3393,"implemented":3394,"pow":3395,"rocks":3396,"31":3397,"wrapper":3398,"int16":3399,"infos":3400,"og":3401,"deref":3402,"broad":3403,"mutation":3404,"lower":3405,"aaaaaaaaaaaaaaaa":3406,"ov":3407,"px":3408,"expand":3409,"logging":3410,"reply":3411,"38":3412,"points":3413,"duplic":3414,"deps":3415,"jection":3416,"srgb":3417,"stand":3418,"revision":3419,"0x78":3420,"ctap":3421,"license":3422,"tasks":3423,"stenc":3424,"voke":3425,"blue":3426,"broadcast":3427,"stencil":3428,"1e":3429,"0x12":3430,"topic":3431,"clean":3432,"instanti":3433,"ums":3434,"workflow":3435,"encrypt":3436,"chunks":3437,"ution":3438,"regions":3439,"baz":3440,"x0":3441,"signer":3442,"answ":3443,"0x08":3444,"sink":3445,"based":3446,"loss":3447,"0x05":3448,"fragments":3449,"sib":3450,"fc":3451,"feedback":3452,"dt":3453,"relay":3454,"tick":3455,"istic":3456,"vals":3457,"pref":3458,"reat":3459,"perform":3460,"48":3461,"sight":3462,"stick":3463,"called":3464,"these":3465,"0x2d":3466,"entid":3467,"creates":3468,"hasher":3469,"until":3470,"digit":3471,"stage":3472,"ed25519":3473,"commands":3474,"player":3475,"alg":3476,"mation":3477,"0x56":3478,"coords":3479,"strings":3480,"rumor":3481,"53":3482,"lied":3483,"schedule":3484,"clock":3485,"mismatch":3486,"overr":3487,"██":3488,"ting":3489,"unpack":3490,"wrong":3491,"signing":3492,"connections":3493,"category":3494,"ases":3495,"dash":3496,"ibility":3497,"offer":3498,"vmm":3499,"routing":3500,"configure":3501,"succeeds":3502,"directives":3503,"removed":3504,"whitespace":3505,"hit":3506,"annot":3507,"carry":3508,"opaque":3509,"retry":3510,"arb":3511,"mime":3512,"factory":3513,"recur":3514,"authorization":3515,"uch":3516,"stri":3517,"rustfmt":3518,"oc":3519,"iness":3520,"1u8":3521,"acquire":3522,"cies":3523,"cst":3524,"mutable":3525,"sized":3526,"duplicate":3527,"peekable":3528,"giv":3529,"release":3530,"44":3531,"library":3532,"following":3533,"eric":3534,"another":3535,"added":3536,"bus":3537,"election":3538,"0x77":3539,"remaining":3540,"rat":3541,"acts":3542,"generator":3543,"ak":3544,"mix":3545,"limits":3546,"git":3547,"tun":3548,"iss":3549,"abs":3550,"df":3551,"ipv4":3552,"0x65":3553,"disabled":3554,"0x06":3555,"ani":3556,"0x67":3557,"datoms":3558,"svc":3559,"issue":3560,"mesh":3561,"entities":3562,"given":3563,"asm":3564,"fails":3565,"www":3566,"renderer":3567,"geck":3568,"gecko":3569,"1d":3570,"ither":3571,"parque":3572,"678":3573,"override":3574,"parquet":3575,"proc":3576,"monitor":3577,"0x32":3578,"reserved":3579,"radius":3580,"fuz":3581,"09":3582,"ually":3583,"ype":3584,"op1":3585,"helper":3586,"definitions":3587,"primary":3588,"bed":3589,"0x68":3590,"structure":3591,"stal":3592,"resh":3593,"0x63":3594,"linear":3595,"ec2":3596,"pages":3597,"linux":3598,"calc":3599,"mv":3600,"needed":3601,"profil":3602,"vec2":3603,"collap":3604,"cid":3605,"rem":3606,"mlink":3607,"placement":3608,"promi":3609,"aggregate":3610,"dataset":3611,"safety":3612,"visit":3613,"symlink":3614,"approval":3615,"steps":3616,"itch":3617,"licit":3618,"0x6f":3619,"circ":3620,"archive":3621,"connected":3622,"answer":3623,"controll":3624,"decoded":3625,"sl":3626,"27":3627,"upcast":3628,"ycle":3629,"prote":3630,"uses":3631,"poss":3632,"processor":3633,"selections":3634,"star":3635,"composite":3636,"cross":3637,"under":3638,"ipher":3639,"ets":3640,"supervisor":3641,"compat":3642,"s2":3643,"finished":3644,"ake":3645,"maximum":3646,"intr":3647,"stride":3648,"handles":3649,"iers":3650,"29":3651,"dispatcher":3652,"methods":3653,"hy":3654,"unable":3655,"force":3656,"dot":3657,"permit":3658,"brow":3659,"snake":3660,"ipc":3661,"x1":3662,"ecycle":3663,"recovery":3664,"gid":3665,"labels":3666,"matchstr":3667,"tain":3668,"0x0b":3669,"locked":3670,"saved":3671,"txt":3672,"records":3673,"tool":3674,"kernel":3675,"proces":3676,"prewrite":3677,"amic":3678,"accum":3679,"ruct":3680,"ctl":3681,"prot":3682,"dynamic":3683,"cipher":3684,"mq":3685,"observer":3686,"arg2":3687,"king":3688,"instead":3689,"functions":3690,"rollback":3691,"fbthr":3692,"xr":3693,"borrowed":3694,"erial":3695,"int8":3696,"successful":3697,"parsing":3698,"tempor":3699,"promise":3700,"vec3":3701,"precommit":3702,"egister":3703,"pagin":3704,"ference":3705,"filters":3706,"betwe":3707,"encies":3708,"laun":3709,"istent":3710,"between":3711,"them":3712,"they":3713,"reqs":3714,"symbols":3715,"3d":3716,"elap":3717,"ring":3718,"writable":3719,"f2":3720,"year":3721,"sive":3722,"eno":3723,"deregister":3724,"numeric":3725,"props":3726,"elapsed":3727,"agent":3728,"negative":3729,"ose":3730,"ines":3731,"vars":3732,"rl":3733,"aliases":3734,"setting":3735,"ming":3736,"0x0a":3737,"mach":3738,"appen":3739,"initialize":3740,"tera":3741,"times":3742,"0x6c":3743,"builtin":3744,"04":3745,"0x0d":3746,"0x6d":3747,"nonce":3748,"gets":3749,"lab":3750,"testing":3751,"varint32":3752,"visible":3753,"searcher":3754,"chron":3755,"threads":3756,"opcode":3757,"alog":3758,"bud":3759,"35":3760,"delivery":3761,"dur":3762,"ze":3763,"reject":3764,"unchecked":3765,"0x64":3766,"ship":3767,"numbers":3768,"datagram":3769,"decrypt":3770,"either":3771,"dependencies":3772,"des":3773,"characters":3774,"lint":3775,"perio":3776,"checks":3777,"acceler":3778,"cd":3779,"reshold":3780,"threshold":3781,"grammar":3782,"bat":3783,"actor":3784,"frames":3785,"green":3786,"ications":3787,"association":3788,"samples":3789,"waypoint":3790,"wd":3791,"prior":3792,"05":3793,"compar":3794,"cg":3795,"orer":3796,"flight":3797,"96":3798,"fing":3799,"xmm":3800,"templates":3801,"launch":3802,"ans":3803,"increment":3804,"nix":3805,"holder":3806,"unary":3807,"boun":3808,"adjust":3809,"dirty":3810,"0x07":3811,"deliver":3812,"trusted":3813,"reverse":3814,"period":3815,"touch":3816,"08":3817,"matching":3818,"peers":3819,"material":3820,"icon":3821,"ks":3822,"most":3823,"tempdir":3824,"0x55":3825,"ware":3826,"devices":3827,"what":3828,"0x70":3829,"prefer":3830,"matcher":3831,"translate":3832,"blend":3833,"rip":3834,"txns":3835,"hal":3836,"lio":3837,"sorted":3838,"committed":3839,"requires":3840,"evaluate":3841,"authentication":3842,"deta":3843,"lea":3844,"building":3845,"includes":3846,"0b":3847,"512":3848,"utin":3849,"tokenizer":3850,"glutin":3851,"provisioned":3852,"ulator":3853,"addition":3854,"0x0e":3855,"controller":3856,"nb":3857,"requested":3858,"finger":3859,"tri":3860,"0x11":3861,"validators":3862,"intrins":3863,"echo":3864,"strip":3865,"canon":3866,"34":3867,"objects":3868,"sq":3869,"vex":3870,"redu":3871,"101":3872,"0x72":3873,"attachment":3874,"aren":3875,"evex":3876,"0x0c":3877,"ysis":3878,"analysis":3879,"lation":3880,"s1":3881,"uncompressed":3882,"000000000000":3883,"did":3884,"assess":3885,"warning":3886,"eb":3887,"roo":3888,"whe":3889,"recomm":3890,"assume":3891,"lists":3892,"combin":3893,"delimited":3894,"three":3895,"far":3896,"2015":3897,"reserve":3898,"analy":3899,"escape":3900,"above":3901,"kvm":3902,"0x6e":3903,"accelerator":3904,"still":3905,"outer":3906,"packed":3907,"lossy":3908,"06":3909,"octets":3910,"f3":3911,"beha":3912,"special":3913,"0x84":3914,"lt":3915,"x2":3916,"abstr":3917,"0x2c":3918,"behavi":3919,"day":3920,"even":3921,"0x74":3922,"segments":3923,"0x09":3924,"ates":3925,"keypair":3926,"12345678":3927,"aes":3928,"f0":3929,"cmk":3930,"filepath":3931,"invit":3932,"r3":3933,"displ":3934,"activity":3935,"managed":3936,"c1":3937,"geo":3938,"limiter":3939,"percentage":3940,"capture":3941,"hmac":3942,"ient":3943,"ading":3944,"37":3945,"na":3946,"hidden":3947,"resize":3948,"0x7f":3949,"0x86":3950,"possible":3951,"u128":3952,"90":3953,"f1":3954,"v3":3955,"live":3956,"cii":3957,"standard":3958,"budget":3959,"instantiation":3960,"hsm":3961,"important":3962,"outputs":3963,"lang":3964,"projection":3965,"ilities":3966,"indexes":3967,"configurations":3968,"cnt":3969,"r0":3970,"highlight":3971,"ratio":3972,"canonical":3973,"qui":3974,"sources":3975,"0x20":3976,"again":3977,"axis":3978,"drain":3979,"dd":3980,"rb":3981,"stored":3982,"0x31":3983,"clippy":3984,"ascii":3985,"vided":3986,"0x40":3987,"dashboard":3988,"pret":3989,"executable":3990,"0x9f":3991,"eax":3992,"vsock":3993,"soft":3994,"rooted":3995,"within":3996,"grant":3997,"bail":3998,"components":3999,"sheet":4000,"behavior":4001,"great":4002,"0x48":4003,"catalog":4004,"terminated":4005,"stale":4006,"pred":4007,"nulls":4008,"orith":4009,"lenum":4010,"scanner":4011,"compiler":4012,"algorith":4013,"cu":4014,"sel":4015,"registers":4016,"lamb":4017,"0x88":4018,"apt":4019,"0x60":4020,"fx":4021,"inal":4022,"div":4023,"below":4024,"dword":4025,"waiter":4026,"disk":4027,"postings":4028,"tition":4029,"complex":4030,"rre":4031,"coming":4032,"rreil":4033,"sending":4034,"repetition":4035,"provided":4036,"suite":4037,"frag":4038,"prepa":4039,"ang":4040,"perf":4041,"0x2b":4042,"recursive":4043,"might":4044,"never":4045,"0x35":4046,"abilities":4047,"0x2e":4048,"folder":4049,"rv":4050,"enter":4051,"0x75":4052,"loon":4053,"clus":4054,"balloon":4055,"packages":4056,"half":4057,"marsh":4058,"checksum":4059,"0x1c":4060,"visibility":4061,"assessment":4062,"eth":4063,"ructor":4064,"anyhow":4065,"vertical":4066,"truncate":4067,"unimplemented":4068,"acl":4069,"invoke":4070,"loa":4071,"machine":4072,"lambda":4073,"gith":4074,"signatures":4075,"good":4076,"56":4077,"maj":4078,"rectangle":4079,"capabilities":4080,"mgr":4081,"require":4082,"cas":4083,"scancode":4084,"fingerprint":4085,"sole":4086,"compact":4087,"fixme":4088,"minimum":4089,"viewport":4090,"github":4091,"transition":4092,"tables":4093,"0x4f":4094,"0x8a":4095,"csv":4096,"otherwise":4097,"serialized":4098,"fp":4099,"mpo":4100,"graphics":4101,"separator":4102,"zeroed":4103,"declar":4104,"insight":4105,"discover":4106,"priority":4107,"greater":4108,"dle":4109,"incorrect":4110,"incoming":4111,"mempo":4112,"embed":4113,"logs":4114,"mempool":4115,"bul":4116,"mpsc":4117,"activate":4118,"roid":4119,"console":4120,"aller":4121,"phan":4122,"middle":4123,"bracket":4124,"ends":4125,"blocking":4126,"0x82":4127,"developerguide":4128,"0x54":4129,"switch":4130,"icates":4131,"diagnostics":4132,"spacing":4133,"come":4134,"0x9d":4135,"54":4136,"submit":4137,"preferred":4138,"ga":4139,"chal":4140,"readiness":4141,"k2":4142,"cade":4143,"cture":4144,"making":4145,"lenge":4146,"production":4147,"challenge":4148,"tle":4149,"timing":4150,"0x5d":4151,"vv":4152,"nels":4153,"cient":4154,"dynet":4155,"marshaller":4156,"matched":4157,"flatbuffers":4158,"abstract":4159,"c2":4160,"nfs":4161,"leading":4162,"confir":4163,"units":4164,"center":4165,"cand":4166,"integration":4167,"candid":4168,"ecx":4169,"0x42":4170,"rotation":4171,"major":4172,"intern":4173,"paint":4174,"paren":4175,"algorithm":4176,"allocation":4177,"recommend":4178,"t1":4179,"configs":4180,"0x36":4181,"avoid":4182,"atype":4183,"animation":4184,"every":4185,"hum":4186,"p2":4187,"cos":4188,"ulation":4189,"uv":4190,"works":4191,"datatype":4192,"counters":4193,"distance":4194,"hab":4195,"scheme":4196,"criter":4197,"0x62":4198,"0x69":4199,"rope":4200,"loaded":4201,"1usize":4202,"hor":4203,"little":4204,"delimiter":4205,"profiler":4206,"addres":4207,"currently":4208,"1111":4209,"float64":4210,"0x22":4211,"warnings":4212,"existent":4213,"0xc9":4214,"yet":4215,"zo":4216,"0x9e":4217,"luce":4218,"needs":4219,"ttl":4220,"r4":4221,"http2":4222,"plus":4223,"placeholder":4224,"mvcc":4225,"resume":4226,"8888":4227,"500":4228,"0xeb":4229,"acy":4230,"backward":4231,"nums":4232,"icated":4233,"tooth":4234,"prepare":4235,"creating":4236,"bg":4237,"0x16":4238,"0xba":4239,"related":4240,"bluetooth":4241,"started":4242,"nothing":4243,"0x25":4244,"aggr":4245,"processed":4246,"0x76":4247,"texture2d":4248,"channels":4249,"trailing":4250,"wake":4251,"0x41":4252,"sem":4253,"deleg":4254,"preview":4255,"locals":4256,"matic":4257,"0x1a":4258,"0xe8":4259,"webrender":4260,"rtc":4261,"0x3e":4262,"monster":4263,"0x18":4264,"queues":4265,"whether":4266,"define":4267,"0x38":4268,"verbo":4269,"weak":4270,"management":4271,"0x5a":4272,"futures":4273,"organizations":4274,"addresses":4275,"110":4276,"59":4277,"necess":4278,"0x7a":4279,"deadline":4280,"ae":4281,"hir":4282,"atte":4283,"0x7c":4284,"temporary":4285,"attempt":4286,"runs":4287,"utils":4288,"subscribe":4289,"bsd":4290,"fg":4291,"quot":4292,"0x8b":4293,"power":4294,"orum":4295,"quorum":4296,"customer":4297,"retrieve":4298,"compli":4299,"0x13":4300,"bounded":4301,"subscriber":4302,"fuzz":4303,"arena":4304,"dh":4305,"ision":4306,"refresh":4307,"hour":4308,"0x30":4309,"images":4310,"accumulator":4311,"llation":4312,"0x8d":4313,"0x19":4314,"hashes":4315,"malformed":4316,"cardinal":4317,"rad":4318,"0x21":4319,"0x27":4320,"endpoints":4321,"variants":4322,"hub":4323,"sit":4324,"indexed":4325,"0x87":4326,"0x3f":4327,"rendering":4328,"pur":4329,"ssize":4330,"0x7b":4331,"0x2a":4332,"gap":4333,"bles":4334,"reading":4335,"0xc0":4336,"dcer":4337,"spread":4338,"explicit":4339,"0x45":4340,"0x1f":4341,"exclu":4342,"subcommand":4343,"0x4d":4344,"intrinsic":4345,"b1":4346,"gray":4347,"hard":4348,"sumed":4349,"kinds":4350,"lvalue":4351,"lax":4352,"arrays":4353,"0x46":4354,"least":4355,"referr":4356,"poly":4357,"click":4358,"0x7d":4359,"0xbb":4360,"desired":4361,"0x14":4362,"0x39":4363,"kill":4364,"vir":4365,"imate":4366,"band":4367,"lability":4368,"gic":4369,"tio":4370,"caller":4371,"0x4a":4372,"intel":4373,"cardinality":4374,"destro":4375,"additional":4376,"human":4377,"sat":4378,"undefined":4379,"0x7e":4380,"0x23":4381,"alt":4382,"001":4383,"servers":4384,"0x57":4385,"svg":4386,"relax":4387,"0x43":4388,"oneshot":4389,"matchmaking":4390,"picture":4391,"0x24":4392,"macs":4393,"0x1e":4394,"virtio":4395,"0x33":4396,"0xd8":4397,"handlers":4398,"redirect":4399,"adap":4400,"stops":4401,"lane":4402,"76":4403,"tur":4404,"0x85":4405,"findings":4406,"strict":4407,"relaxed":4408,"b2":4409,"e1":4410,"0x44":4411,"queries":4412,"0x5c":4413,"0x1b":4414,"recogn":4415,"kines":4416,"lible":4417,"fallible":4418,"0x81":4419,"train":4420,"0x4e":4421,"2016":4422,"domains":4423,"evaluation":4424,"kinesis":4425,"colors":4426,"0x4b":4427,"0x15":4428,"availability":4429,"0x52":4430,"0xd0":4431,"references":4432,"person":4433,"horiz":4434,"interr":4435,"0x5e":4436,"0xf3":4437,"predicate":4438,"arp":4439,"lies":4440,"connector":4441,"0x79":4442,"0x49":4443,"0x4c":4444,"localhost":4445,"widgets":4446,"runner":4447,"destroy":4448,"op2":4449,"0x8e":4450,"0x3d":4451,"documentation":4452,"overlap":4453,"tmpdir":4454,"gil":4455,"1234":4456,"uation":4457,"intext":4458,"0x71":4459,"0x1d":4460,"joy":4461,"processing":4462,"persistent":4463,"plaintext":4464,"clause":4465,"regular":4466,"0xc3":4467,"allocate":4468,"referrer":4469,"a9":4470,"ssim":4471,"rier":4472,"portfo":4473,"0xd3":4474,"links":4475,"mk":4476,"yi":4477,"isn":4478,"0x8c":4479,"0x3a":4480,"0x9a":4481,"0x17":4482,"during":4483,"clamp":4484,"0x2f":4485,"squ":4486,"0x98":4487,"being":4488,"prototype":4489,"fficient":4490,"equals":4491,"necessary":4492,"0x83":4493,"0x29":4494,"0x51":4495,"edges":4496,"har":4497,"handled":4498,"directories":4499,"calling":4500,"0x37":4501,"sessions":4502,"a2":4503,"0xab":4504,"pot":4505,"relm":4506,"idle":4507,"nop":4508,"well":4509,"0x94":4510,"jmp":4511,"pause":4512,"comma":4513,"0x47":4514,"0x99":4515,"finite":4516,"automatic":4517,"descr":4518,"permitted":4519,"utc":4520,"0x3b":4521,"0xf0":4522,"documents":4523,"flatten":4524,"emacs":4525,"lon":4526,"restart":4527,"newline":4528,"house":4529,"structs":4530,"0x89":4531,"vmctx":4532,"collector":4533,"malink":4534,"horizont":4535,"ram":4536,"ios":4537,"ordered":4538,"0x3c":4539,"vb":4540,"ged":4541,"pessim":4542,"permalink":4543,"positions":4544,"0x5b":4545,"faces":4546,"0xf7":4547,"rr":4548,"foc":4549,"0x28":4550,"0x59":4551,"sns":4552,"east":4553,"browsing":4554,"compliance":4555,"0x6a":4556,"nanos":4557,"cube":4558,"bgra":4559,"nth":4560,"sse":4561,"their":4562,"0x26":4563,"2017":4564,"0xb8":4565,"dcerpc":4566,"adapter":4567,"pessimistic":4568,"fence":4569,"0x8f":4570,"sha256":4571,"ctap2":4572,"000000":4573,"0x53":4574,"attachments":4575,"dx":4576,"f4":4577,"gau":4578,"ipv6":4579,"0x96":4580,"swf":4581,"frontend":4582,"forms":4583,"scorer":4584,"sufficient":4585,"hapt":4586,"profiles":4587,"0xf6":4588,"supports":4589,"expressions":4590,"batches":4591,"bub":4592,"heart":4593,"moz":4594,"seccomp":4595,"couldn":4596,"pretty":4597,"haptic":4598,"spaces":4599,"0xe0":4600,"month":4601,"horizontal":4602,"0f32":4603,"c7":4604,"0xbe":4605,"routes":4606,"0xac":4607,"datetime":4608,"loader":4609,"0xb3":4610,"0xd1":4611,"candidate":4612,"0xc2":4613,"0xcc":4614,"wall":4615,"reloc":4616,"concurrency":4617,"expan":4618,"0x93":4619,"hyper":4620,"scall":4621,"syscall":4622,"included":4623,"best":4624,"0xa0":4625,"0xa3":4626,"ven":4627,"0x97":4628,"passed":4629,"bs":4630,"gfx":4631,"ito":4632,"propo":4633,"ignored":4634,"e2":4635,"lcs":4636,"0xfe":4637,"fake":4638,"keyboard":4639,"calls":4640,"49":4641,"visitor":4642,"tape":4643,"defs":4644,"username":4645,"0x95":4646,"0xe6":4647,"0xea":4648,"listeners":4649,"salt":4650,"zoom":4651,"upt":4652,"0xfa":4653,"crete":4654,"applications":4655,"0xb7":4656,"0xc4":4657,"0xf9":4658,"criterion":4659,"happen":4660,"who":4661,"nonexistent":4662,"damage":4663,"immediate8":4664,"occur":4665,"pthread":4666,"0xce":4667,"0xca":4668,"0xa2":4669,"0xa5":4670,"quiche":4671,"recorder":4672,"0x92":4673,"styles":4674,"voca":4675,"0xc1":4676,"wasm32":4677,"────────":4678,"sb":4679,"x4":4680,"clusters":4681,"0xa4":4682,"portfolio":4683,"0x5f":4684,"0xb6":4685,"schedul":4686,"alle":4687,"confirm":4688,"0xa8":4689,"bpf":4690,"lica":4691,"0x50":4692,"aging":4693,"0xbd":4694,"imageflow":4695,"0xa6":4696,"borders":4697,"ffffffff":4698,"were":4699,"xus":4700,"stro":4701,"0xde":4702,"0xaf":4703,"dedicated":4704,"qc":4705,"login":4706,"0xe9":4707,"0xb5":4708,"initiator":4709,"0xb9":4710,"lucet":4711,"0xdf":4712,"examples":4713,"rename":4714,"concrete":4715,"0xf2":4716,"8080":4717,"positive":4718,"macos":4719,"executed":4720,"sticky":4721,"0xee":4722,"0xd7":4723,"0xfc":4724,"uppercase":4725,"uled":4726,"preced":4727,"img":4728,"0xb4":4729,"increase":4730,"precedence":4731,"70":4732,"consumed":4733,"0xbc":4734,"diagnostic":4735,"grayscale":4736,"0xed":4737,"preset":4738,"presen":4739,"roots":4740,"0xd6":4741,"int32array":4742,"coordin":4743,"collections":4744,"bootstr":4745,"p1":4746,"code32":4747,"prevote":4748,"registered":4749,"0xe2":4750,"0xda":4751,"receipt":4752,"mqtt":4753,"repr":4754,"generation":4755,"stylesheet":4756,"0xb2":4757,"prefs":4758,"ran":4759,"repne":4760,"0x9b":4761,"0xa1":4762,"compatible":4763,"mip":4764,"0xdb":4765,"0x9c":4766,"0xe3":4767,"0xc7":4768,"legacy":4769,"0xad":4770,"0xe4":4771,"0xe7":4772,"0xef":4773,"0xcb":4774,"barrier":4775,"9999":4776,"scheduled":4777,"undo":4778,"android":4779,"0xe1":4780,"0xd2":4781,"0xcd":4782,"authority":4783,"sibling":4784,"conform":4785,"interpre":4786,"abi":4787,"general":4788,"0xf8":4789,"pagination":4790,"city":4791,"rig":4792,"reci":4793,"meas":4794,"0xcf":4795,"prompt":4796,"0x6b":4797,"containers":4798,"globals":4799,"0xa7":4800,"0xec":4801,"0xae":4802,"conditional":4803,"freq":4804,"0xc8":4805,"0xf1":4806,"resolution":4807,"bootstrap":4808,"ying":4809,"0xaa":4810,"responses":4811,"0x58":4812,"0x91":4813,"0xb0":4814,"including":4815,"blur":4816,"stroke":4817,"98":4818,"tion":4819,"dirs":4820,"0xbf":4821,"means":4822,"anchor":4823,"household":4824,"scheduler":4825,"glu":4826,"rtcp":4827,"0xf4":4828,"0xfb":4829,"lexer":4830,"wg":4831,"multiplex":4832,"inside":4833,"quant":4834,"0xd5":4835,"0xd9":4836,"0xa9":4837,"bt":4838,"book":4839,"0xd4":4840,"57":4841,"h3":4842,"ime":4843,"verti":4844,"outbound":4845,"waiting":4846,"gesture":4847,"46":4848,"ctrl":4849,"comments":4850,"reflector":4851,"0xc5":4852,"digits":4853,"calculate":4854,"clap":4855,"posts":4856,"0xdd":4857,"decor":4858,"tracker":4859,"expired":4860,"txs":4861,"0xe5":4862,"0xb1":4863,"spanned":4864,"protect":4865,"ee":4866,"sparse":4867,"recipe":4868,"jun":4869,"unbounded":4870,"intent":4871,"compaction":4872,"membership":4873,"41":4874,"primitives":4875,"bid":4876,"f7":4877,"outside":4878,"compress":4879,"0xc6":4880,"modules":4881,"0xfd":4882,"stable":4883,"cogn":4884,"quit":4885,"crc":4886,"0xdc":4887,"conflicts":4888,"conformance":4889,"gga":4890,"izing":4891,"quir":4892,"going":4893,"retain":4894,"curr":4895,"swarm":4896,"subscriptions":4897,"protection":4898,"altern":4899,"something":4900,"skill":4901,"655":4902,"bri":4903,"exclus":4904,"vagga":4905,"0xf5":4906,"stopped":4907,"escap":4908,"mint":4909,"recording":4910,"detach":4911,"regs":4912,"proto3":4913,"glue":4914,"gauge":4915,"crash":4916,"aaaaaaaaaaaaaaaaaaaaaaaaaaaaaaaa":4917,"tap":4918,"locks":4919,"cmdline":4920,"abcdef":4921,"defer":4922,"transformed":4923,"transact":4924,"synchron":4925,"invitation":4926,"code64":4927,"dbindex":4928,"bran":4929,"abcd":4930,"dgram":4931,"stu":4932,"cha":4933,"ablish":4934,"initiate":4935,"multis":4936,"sct":4937,"cols":4938,"branches":4939,"occ":4940,"base64":4941,"replaced":4942,"aio":4943,"f8":4944,"kle":4945,"serve":4946,"ird":4947,"float32":4948,"overlay":4949,"conditions":4950,"hw":4951,"applied":4952,"modrm":4953,"47":4954,"peg":4955,"ssh":4956,"bold":4957,"hest":4958,"97":4959,"pend":4960,"ving":4961,"stores":4962,"later":4963,"keepalive":4964,"aaa":4965,"establish":4966,"tonic":4967,"oooo":4968,"collapsed":4969,"restyle":4970,"price":4971,"roland":4972,"a1":4973,"highest":4974,"interrupt":4975,"sctp":4976,"t2":4977,"intersection":4978,"starting":4979,"minus":4980,"successfully":4981,"longer":4982,"400":4983,"words":4984,"arg3":4985,"allocated":4986,"textures":4987,"joystick":4988,"measure":4989,"ken":4990,"111":4991,"workspaces":4992,"brief":4993,"a7":4994,"sdk":4995,"scanned":4996,"wind":4997,"orient":4998,"beat":4999,"expir":5000,"download":5001,"truncated":5002,"deliverability":5003,"dl":5004,"draft":5005,"mas":5006,"pg":5007,"uint32":5008,"stdio":5009,"motion":5010,"precision":5011,"lowercase":5012,"pun":5013,"textinput":5014,"freeze":5015,"enough":5016,"0a":5017,"lsp":5018,"wb":5019,"sector":5020,"ended":5021,"paused":5022,"rtt":5023,"bulary":5024,"vocabulary":5025,"addrs":5026,"201":5027,"bc":5028,"rel8":5029,"0u32":5030,"yam":5031,"orter":5032,"asy":5033,"bund":5034,"pp":5035,"filled":5036,"terminate":5037,"deprecation":5038,"triangle":5039,"yaml":5040,"dq":5041,"xxx":5042,"administr":5043,"cognito":5044,"kb":5045,"sil":5046,"metry":5047,"verbose":5048,"ingest":5049,"assignment":5050,"yield":5051,"determ":5052,"usv":5053,"macros":5054,"avg":5055,"mipmap":5056,"expiration":5057,"51":5058,"rush":5059,"igned":5060,"blocked":5061,"workers":5062,"closing":5063,"optimize":5064,"issues":5065,"shr":5066,"engines":5067,"rustc":5068,"solution":5069,"quotes":5070,"declaration":5071,"etime":5072,"exe":5073,"paralle":5074,"rss":5075,"setter":5076,"merkle":5077,"luint":5078,"sockaddr":5079,"cycle":5080,"mmap":5081,"defaults":5082,"contexts":5083,"16usize":5084,"simd":5085,"simulation":5086,"y1":5087,"alarm":5088,"customize":5089,"tracking":5090,"know":5091,"arbit":5092,"1010":5093,"merged":5094,"corru":5095,"fallback":5096,"stmts":5097,"rocksdb":5098,"phantom":5099,"07":5100,"sensit":5101,"hostname":5102,"mmds":5103,"integrity":5104,"brush":5105,"attrib":5106,"associations":5107,"why":5108,"elems":5109,"dropped":5110,"ike":5111,"vim":5112,"2019":5113,"boundary":5114,"benchmark":5115,"throughput":5116,"pic":5117,"counts":5118,"retrieves":5119,"orientation":5120,"epoll":5121,"srv":5122,"usion":5123,"logic":5124,"produce":5125,"projects":5126,"distin":5127,"k3":5128,"subtree":5129,"minor":5130,"03":5131,"acked":5132,"ulated":5133,"respond":5134,"updat":5135,"protos":5136,"recover":5137,"offering":5138,"leaves":5139,"isol":5140,"capability":5141,"affect":5142,"ivity":5143,"quirks":5144,"0e":5145,"ider":5146,"subrout":5147,"operands":5148,"distinct":5149,"invariant":5150,"prevent":5151,"imm8":5152,"annotation":5153,"expanded":5154,"0f":5155,"kw":5156,"fire":5157,"iper":5158,"closure":5159,"zones":5160,"02x":5161,"juniper":5162,"arbitrary":5163,"58":5164,"egl":5165,"linebreak":5166,"performance":5167,"ko":5168,"intro":5169,"colon":5170,"nano":5171,"harness":5172,"heartbeat":5173,"pres":5174,"decre":5175,"learn":5176,"2013":5177,"combination":5178,"jb":5179,"smo":5180,"park":5181,"layers":5182,"parallel":5183,"dtype":5184,"np":5185,"ceil":5186,"unless":5187,"schemas":5188,"xxxx":5189,"ound":5190,"key2":5191,"bidi":5192,"administrator":5193,"viol":5194,"rcx":5195,"extended":5196,"route53":5197,"masm":5198,"cise":5199,"raints":5200,"78":5201,"eight":5202,"tid":5203,"writes":5204,"nib":5205,"rees":5206,"reload":5207,"inf":5208,"scopes":5209,"dimension":5210,"fully":5211,"facade":5212,"avail":5213,"roundtrip":5214,"goss":5215,"pairs":5216,"opcodes":5217,"gossip":5218,"ems":5219,"f6":5220,"slow":5221,"insufficient":5222,"tog":5223,"foob":5224,"a5":5225,"preserve":5226,"throw":5227,"f5":5228,"f9":5229,"xor":5230,"aler":5231,"actually":5232,"cors":5233,"140":5234,"histo":5235,"fro":5236,"tx1":5237,"renderbuffer":5238,"fleets":5239,"gs":5240,"ilo":5241,"xid":5242,"usable":5243,"wever":5244,"however":5245,"12345678h":5246,"escaped":5247,"punct":5248,"ention":5249,"scid":5250,"inten":5251,"instructions":5252,"transit":5253,"flags1":5254,"compilation":5255,"h1":5256,"revoke":5257,"sts":5258,"clang":5259,"aga":5260,"cri":5261,"rase":5262,"patter":5263,"visited":5264,"0000000000000000":5265,"monitoring":5266,"against":5267,"ja":5268,"sid":5269,"v0":5270,"ste":5271,"mapper":5272,"b9":5273,"mbuf":5274,"displacement":5275,"realtime":5276,"fat":5277,"fusion":5278,"represent":5279,"lots":5280,"themis":5281,"merger":5282,"spans":5283,"socks":5284,"margins":5285,"collapse":5286,"uu":5287,"exchange":5288,"nego":5289,"patterns":5290,"rle":5291,"rax":5292,"subscript":5293,"consider":5294,"focus":5295,"inorder":5296,"ison":5297,"int32type":5298,"elasticsearch":5299,"gluon":5300,"u8u8":5301,"plans":5302,"packets":5303,"slash":5304,"east1":5305,"catch":5306,"icator":5307,"baseline":5308,"secrets":5309,"realm":5310,"watcher":5311,"naive":5312,"bundle":5313,"asset":5314,"contr":5315,"trac":5316,"pus":5317,"estimate":5318,"decrypted":5319,"allows":5320,"days":5321,"mmio":5322,"w1":5323,"assets":5324,"ticket":5325,"etch":5326,"alice":5327,"aux":5328,"chunked":5329,"referenced":5330,"opacity":5331,"jpeg":5332,"bob":5333,"checkpoint":5334,"inser":5335,"trap":5336,"key1":5337,"effective":5338,"captures":5339,"browser":5340,"subroutine":5341,"zen":5342,"etc":5343,"phi":5344,"selectors":5345,"structured":5346,"reduce":5347,"bh":5348,"edd":5349,"rain":5350,"raster":5351,"invalidation":5352,"scenar":5353,"comparison":5354,"gv":5355,"y2":5356,"oring":5357,"stacks":5358,"frozen":5359,"bld":5360,"vq":5361,"sug":5362,"ancestor":5363,"irq":5364,"sha1":5365,"hints":5366,"68":5367,"bubbles":5368,"rank":5369,"vp":5370,"precondition":5371,"blocklist":5372,"traver":5373,"craw":5374,"room":5375,"ones":5376,"protocols":5377,"corner":5378,"evaluator":5379,"keywords":5380,"multisample":5381,"hier":5382,"positional":5383,"ebx":5384,"simpl":5385,"winit":5386,"seen":5387,"transpa":5388,"checker":5389,"delegated":5390,"proposer":5391,"uninit":5392,"limb":5393,"00000":5394,"attached":5395,"foobar":5396,"52":5397,"anom":5398,"failo":5399,"aggregation":5400,"effects":5401,"toggle":5402,"anomal":5403,"failover":5404,"0f64":5405,"due":5406,"code16":5407,"000h":5408,"999":5409,"mnemonics":5410,"gon":5411,"qword":5412,"third":5413,"forget":5414,"mainten":5415,"igate":5416,"models":5417,"cpuid":5418,"violation":5419,"crawler":5420,"maintenance":5421,"sity":5422,"mpot":5423,"assertion":5424,"formatted":5425,"pick":5426,"tempfile":5427,"idempot":5428,"scrolling":5429,"west":5430,"colorcontext":5431,"cleanup":5432,"war":5433,"lost":5434,"requester":5435,"formatting":5436,"ily":5437,"userguide":5438,"guid":5439,"40h":5440,"converts":5441,"3e":5442,"ili":5443,"mations":5444,"speed":5445,"longhand":5446,"immediately":5447,"hierarch":5448,"rewrite":5449,"0o":5450,"cen":5451,"inbound":5452,"onts":5453,"terms":5454,"fdt":5455,"fulltext":5456,"w3":5457,"authorizer":5458,"geometry":5459,"bldr":5460,"e0":5461,"anon":5462,"matter":5463,"magic":5464,"subdir":5465,"distributions":5466,"satur":5467,"clients":5468,"working":5469,"grams":5470,"descend":5471,"early":5472,"triggers":5473,"radix":5474,"square":5475,"43":5476,"nasm":5477,"redo":5478,"enums":5479,"those":5480,"blending":5481,"pfx":5482,"determine":5483,"b3":5484,"tv":5485,"vs":5486,"consist":5487,"negoti":5488,"four":5489,"ticks":5490,"idents":5491,"normalize":5492,"vasp":5493,"detected":5494,"separate":5495,"tunnel":5496,"suggest":5497,"limbs":5498,"fv":5499,"hb":5500,"mand":5501,"math":5502,"interactive":5503,"elf":5504,"imports":5505,"finalize":5506,"tikv":5507,"ia":5508,"land":5509,"uous":5510,"wat":5511,"restri":5512,"aligned":5513,"aries":5514,"symmetric":5515,"restriction":5516,"vend":5517,"things":5518,"lip":5519,"tys":5520,"incarn":5521,"gnition":5522,"sqs":5523,"yes":5524,"utes":5525,"appe":5526,"entire":5527,"fortun":5528,"responder":5529,"assertions":5530,"disconnect":5531,"evt":5532,"replica":5533,"delim":5534,"consistent":5535,"histogram":5536,"kid":5537,"lp":5538,"reko":5539,"iters":5540,"mods":5541,"directly":5542,"footer":5543,"150":5544,"smb1":5545,"confirmed":5546,"vendor":5547,"l2":5548,"ote":5549,"onom":5550,"unwind":5551,"retention":5552,"ller":5553,"traits":5554,"habit":5555,"floats":5556,"correspon":5557,"multiply":5558,"taxonom":5559,"rekognition":5560,"c0":5561,"n1":5562,"cfs":5563,"interfaces":5564,"implementation":5565,"annotations":5566,"vtable":5567,"sect":5568,"refs":5569,"illa":5570,"subst":5571,"hostedzone":5572,"b4":5573,"fm":5574,"pings":5575,"stret":5576,"backups":5577,"anomaly":5578,"incarnation":5579,"300":5580,"65":5581,"c3":5582,"hup":5583,"ural":5584,"discard":5585,"phone":5586,"moving":5587,"incompat":5588,"ciphertext":5589,"b8":5590,"noise":5591,"subject":5592,"corpus":5593,"aggregator":5594,"software":5595,"preferences":5596,"sever":5597,"ename":5598,"checking":5599,"webhook":5600,"reserv":5601,"apis":5602,"via":5603,"prefixed":5604,"locations":5605,"broker":5606,"traversal":5607,"stretch":5608,"tomb":5609,"fieldnorm":5610,"weights":5611,"mus":5612,"td":5613,"throws":5614,"nom":5615,"propa":5616,"testdata":5617,"mappings":5618,"loading":5619,"octal":5620,"interpreter":5621,"habitat":5622,"dg":5623,"gat":5624,"inference":5625,"lement":5626,"hey":5627,"floor":5628,"forecast":5629,"overrides":5630,"middleware":5631,"tombst":5632,"ahead":5633,"c4":5634,"dw":5635,"e8":5636,"wnd":5637,"choice":5638,"categories":5639,"copi":5640,"2222":5641,"balancers":5642,"hours":5643,"scenario":5644,"reme":5645,"colo":5646,"refetch":5647,"apple":5648,"caps":5649,"registration":5650,"reports":5651,"shrink":5652,"appear":5653,"2b":5654,"aead":5655,"w0":5656,"exper":5657,"lier":5658,"63":5659,"reusable":5660,"minutes":5661,"published":5662,"nibble":5663,"experi":5664,"gie":5665,"qote":5666,"san":5667,"raqote":5668,"positioned":5669,"removes":5670,"termination":5671,"blk":5672,"provisioning":5673,"datoms00":5674,"came":5675,"lsize":5676,"tz":5677,"w2":5678,"immutable":5679,"vectors":5680,"automatically":5681,"lsizei":5682,"bur":5683,"field1":5684,"tagging":5685,"partic":5686,"webgl":5687,"queued":5688,"whole":5689,"prost":5690,"mapped":5691,"iterate":5692,"describes":5693,"cancelable":5694,"editor":5695,"profiling":5696,"nav":5697,"sms":5698,"ruby":5699,"formats":5700,"lug":5701,"breaks":5702,"tools":5703,"invitations":5704,"2000":5705,"aw":5706,"give":5707,"gpr":5708,"kp":5709,"injection":5710,"mpc":5711,"codegen":5712,"peering":5713,"zeroes":5714,"appender":5715,"vot":5716,"infer":5717,"get64":5718,"rench":5719,"ecd":5720,"identities":5721,"exports":5722,"correctly":5723,"discovered":5724,"semant":5725,"2usize":5726,"dk":5727,"press":5728,"itical":5729,"fid":5730,"collation":5731,"pools":5732,"inherit":5733,"ed25519private":5734,"infin":5735,"mat4":5736,"probe":5737,"glyphs":5738,"gtk":5739,"infinity":5740,"fsp":5741,"ii":5742,"ough":5743,"vx":5744,"wrench":5745,"precise":5746,"ious":5747,"subset":5748,"swim":5749,"populate":5750,"boogie":5751,"62":5752,"gres":5753,"slots":5754,"slug":5755,"reboot":5756,"news":5757,"critical":5758,"posix":5759,"postgres":5760,"dyna":5761,"persist":5762,"recommendations":5763,"isolation":5764,"a3":5765,"fwd":5766,"repo":5767,"conversion":5768,"fami":5769,"int256":5770,"2018":5771,"signals":5772,"circled":5773,"800":5774,"d2":5775,"h2":5776,"mfa":5777,"filtered":5778,"uint64":5779,"proble":5780,"protoc":5781,"misc":5782,"executions":5783,"sqlite":5784,"transparent":5785,"hierarchy":5786,"incompatible":5787,"blan":5788,"deal":5789,"arti":5790,"ansi":5791,"pective":5792,"snapshots":5793,"systems":5794,"families":5795,"dont":5796,"rsa":5797,"stdlib":5798,"interpo":5799,"shouldn":5800,"quality":5801,"██║":5802,"75":5803,"seal":5804,"semap":5805,"scr":5806,"intersect":5807,"week":5808,"aborted":5809,"freebsd":5810,"uint8":5811,"tiles":5812,"semapho":5813,"adds":5814,"payment":5815,"characteristic":5816,"quantity":5817,"readonly":5818,"mailbox":5819,"canonicalize":5820,"vertices":5821,"drafts":5822,"crop":5823,"lings":5824,"around":5825,"unpin":5826,"filesystem":5827,"anything":5828,"website":5829,"legal":5830,"micros":5831,"occurren":5832,"compatibility":5833,"established":5834,"semaphore":5835,"d0":5836,"d1":5837,"e3":5838,"fl":5839,"nam":5840,"wi":5841,"inder":5842,"u32x4":5843,"replacement":5844,"hdrs":5845,"delegation":5846,"mozilla":5847,"flip":5848,"xec":5849,"bum":5850,"forwar":5851,"invalidate":5852,"sdlk":5853,"svr":5854,"fatal":5855,"arith":5856,"state1":5857,"flags2":5858,"ignoring":5859,"census":5860,"rfc":5861,"six":5862,"inver":5863,"indirect":5864,"serialization":5865,"bounding":5866,"sampling":5867,"accepted":5868,"shaders":5869,"blake":5870,"artist":5871,"unrooted":5872,"sound":5873,"field2":5874,"receiv":5875,"rounding":5876,"scratch":5877,"gb":5878,"nat":5879,"mes":5880,"igh":5881,"transpose":5882,"organizational":5883,"a0":5884,"mio":5885,"sep":5886,"cobal":5887,"expl":5888,"cobalt":5889,"fit":5890,"jk":5891,"rp":5892,"album":5893,"scas":5894,"msgs":5895,"ecm":5896,"register2":5897,"rootfs":5898,"int64type":5899,"corresponding":5900,"won":5901,"rema":5902,"pet":5903,"fds":5904,"balancing":5905,"updating":5906,"explorer":5907,"vy":5908,"vent":5909,"loom":5910,"opstamp":5911,"register1":5912,"pipelines":5913,"rounds":5914,"3333":5915,"ntl":5916,"occup":5917,"idempotent":5918,"remexec":5919,"remainder":5920,"dar":5921,"nr":5922,"cele":5923,"hooks":5924,"vt":5925,"teen":5926,"wrapped":5927,"divide":5928,"validity":5929,"iteration":5930,"startup":5931,"quad":5932,"animations":5933,"sensitive":5934,"ace":5935,"fru":5936,"hid":5937,"para":5938,"signers":5939,"microvm":5940,"bandwidth":5941,"celebr":5942,"fly":5943,"til":5944,"robot":5945,"value2":5946,"transcri":5947,"lanes":5948,"timestamping":5949,"approx":5950,"blank":5951,"inverted":5952,"f16":5953,"qnil":5954,"wgt":5955,"zz":5956,"urls":5957,"become":5958,"reads":5959,"apps":5960,"packaging":5961,"parents":5962,"autoscaling":5963,"previously":5964,"recommendation":5965,"ctap2status":5966,"colour":5967,"semantic":5968,"vsib":5969,"tesse":5970,"trying":5971,"searchstr":5972,"lexical":5973,"didn":5974,"turn":5975,"refetchable":5976,"c6":5977,"cstr":5978,"gcm":5979,"002":5980,"sharp":5981,"recip":5982,"failures":5983,"trees":5984,"wide":5985,"onse":5986,"usr":5987,"namespaces":5988,"cookies":5989,"mean":5990,"unhandled":5991,"tries":5992,"inet":5993,"ilar":5994,"sends":5995,"transforms":5996,"manually":5997,"clipboard":5998,"similar":5999,"choose":6000,"b7":6001,"cut":6002,"xss":6003,"x25519":6004,"══":6005,"asyn":6006,"tx2":6007,"workunit":6008,"charge":6009,"assoc":6010,"zeros":6011,"summar":6012,"ghi":6013,"cancelled":6014,"rgba8":6015,"sige":6016,"ed25519public":6017,"ror":6018,"xs":6019,"confirmation":6020,"remedi":6021,"stub":6022,"coprocessor":6023,"chase":6024,"getting":6025,"beg":6026,"partner":6027,"xyz":6028,"emitln":6029,"saturating":6030,"ske":6031,"erro":6032,"ically":6033,"transl":6034,"2012":6035,"ports":6036,"joint":6037,"visual":6038,"princ":6039,"deployments":6040,"fullnode":6041,"statements":6042,"384":6043,"retryable":6044,"bulk":6045,"princip":6046,"d3":6047,"iso":6048,"jcc":6049,"prun":6050,"u2":6051,"past":6052,"implied":6053,"implicit":6054,"windowed":6055,"overwrite":6056,"marks":6057,"brace":6058,"siblings":6059,"exclude":6060,"coordinate":6061,"rele":6062,"reuse":6063,"apigate":6064,"canceled":6065,"medical":6066,"lookahead":6067,"punctuation":6068,"apigateway":6069,"84":6070,"qpack":6071,"sint16":6072,"alled":6073,"size2d":6074,"tested":6075,"sures":6076,"http3":6077,"handling":6078,"installed":6079,"point2d":6080,"replay":6081,"fullscreen":6082,"largest":6083,"cascade":6084,"spot":6085,"inject":6086,"across":6087,"bab":6088,"192":6089,"exactly":6090,"provides":6091,"nanosecond":6092,"10000":6093,"redir":6094,"retval":6095,"deflate":6096,"framed":6097,"inspect":6098,"interpolation":6099,"94":6100,"c5":6101,"dims":6102,"outgoing":6103,"latency":6104,"printer":6105,"trackable":6106,"publishing":6107,"md5":6108,"configured":6109,"remediation":6110,"iry":6111,"ymo":6112,"snip":6113,"certs":6114,"rights":6115,"customization":6116,"titan":6117,"environments":6118,"volumes":6119,"parenthe":6120,"b5":6121,"tty":6122,"busy":6123,"race":6124,"expecting":6125,"gran":6126,"minute":6127,"204":6128,"assignments":6129,"embedder":6130,"bnd":6131,"ni":6132,"ino":6133,"cker":6134,"logy":6135,"players":6136,"rendered":6137,"skipped":6138,"php":6139,"roles":6140,"follows":6141,"overlapped":6142,"20180":6143,"simpler":6144,"camel":6145,"principal":6146,"codes":6147,"pubkey":6148,"quic":6149,"substr":6150,"2020":6151,"rx1":6152,"456":6153,"ubic":6154,"restored":6155,"studio":6156,"pressed":6157,"newer":6158,"bitset":6159,"destinations":6160,"quickcheck":6161,"cidr":6162,"b6":6163,"bi":6164,"cname":6165,"incr":6166,"subkeys":6167,"beginning":6168,"smb2":6169,"better":6170,"89":6171,"fonts":6172,"x3":6173,"utili":6174,"assigned":6175,"apb":6176,"oken":6177,"timeline":6178,"mlr":6179,"grass":6180,"hover":6181,"sdl2":6182,"perspective":6183,"buckets":6184,"occurrences":6185,"occupied":6186,"isk":6187,"guar":6188,"clips":6189,"partitions":6190,"optimized":6191,"reservation":6192,"java":6193,"rflags":6194,"neare":6195,"noop":6196,"edition":6197,"arg4":6198,"few":6199,"mixer":6200,"processes":6201,"leave":6202,"trivi":6203,"nearest":6204,"jp":6205,"assig":6206,"nee":6207,"binds":6208,"playground":6209,"gamel":6210,"compositor":6211,"ipv4addr":6212,"anonymo":6213,"wad":6214,"ctr":6215,"timed":6216,"widths":6217,"utf8bytes":6218,"grpcio":6219,"potential":6220,"inserted":6221,"anonymous":6222,"nerror":6223,"probab":6224,"lying":6225,"moved":6226,"multipart":6227,"walk":6228,"drained":6229,"experiment":6230,"tessellation":6231,"assignee":6232,"ihdr":6233,"lf":6234,"lm":6235,"larg":6236,"mont":6237,"onum":6238,"ensures":6239,"alone":6240,"thick":6241,"file1":6242,"funcs":6243,"evaluable":6244,"comparator":6245,"asynchron":6246,"87":6247,"9d":6248,"iot":6249,"uchar":6250,"vings":6251,"destruct":6252,"camp":6253,"upstream":6254,"sigs":6255,"renderable":6256,"phase":6257,"follower":6258,"8000000000000":6259,"ased":6260,"bd":6261,"kdf":6262,"enot":6263,"anstal":6264,"beanstal":6265,"savings":6266,"premi":6267,"exponent":6268,"backtrace":6269,"debugger":6270,"metapb":6271,"ttf":6272,"bbbb":6273,"detailed":6274,"sqrt":6275,"exclusive":6276,"larger":6277,"asynchronous":6278,"beanstalk":6279,"away":6280,"oid":6281,"pra":6282,"please":6283,"orth":6284,"unspec":6285,"exonum":6286,"jsb":6287,"reached":6288,"goo":6289,"millisecond":6290,"elasti":6291,"permits":6292,"dag":6293,"treat":6294,"yuv":6295,"ery":6296,"0001":6297,"0002":6298,"blah":6299,"retries":6300,"7777":6301,"revisions":6302,"analyzer":6303,"analyze":6304,"a4":6305,"ay":6306,"represen":6307,"prediction":6308,"graphe":6309,"scripts":6310,"namespaced":6311,"twice":6312,"purchase":6313,"receiving":6314,"campa":6315,"cull":6316,"farm":6317,"rds":6318,"woken":6319,"ante":6320,"illegal":6321,"flows":6322,"succeeded":6323,"coverage":6324,"123456789":6325,"aad":6326,"hang":6327,"slab":6328,"deque":6329,"made":6330,"retri":6331,"rejected":6332,"cubemap":6333,"summaries":6334,"glenum":6335,"rhw":6336,"curve":6337,"rsi":6338,"derived":6339,"drive":6340,"nbsp":6341,"reduced":6342,"premises":6343,"google":6344,"op3":6345,"observe":6346,"heat":6347,"initialization":6348,"1305":6349,"individ":6350,"passes":6351,"squash":6352,"cwd":6353,"hot":6354,"amd":6355,"4096":6356,"tilde":6357,"guarante":6358,"though":6359,"interlace":6360,"finds":6361,"synced":6362,"topics":6363,"fullwidth":6364,"throttled":6365,"sections":6366,"claim":6367,"cdc":6368,"85":6369,"gom":6370,"i128":6371,"n2":6372,"vac":6373,"wild":6374,"useful":6375,"value1":6376,"tester":6377,"exceed":6378,"prelu":6379,"2014":6380,"typename":6381,"repositories":6382,"fixed32":6383,"tabs":6384,"recipient":6385,"montgom":6386,"prelude":6387,"montgomery":6388,"600":6389,"95":6390,"fh":6391,"review":6392,"les":6393,"unset":6394,"strong":6395,"perm":6396,"grp":6397,"readers":6398,"canceller":6399,"corrupted":6400,"redox":6401,"thickness":6402,"cwnd":6403,"yy":6404,"proced":6405,"apping":6406,"iron":6407,"secondary":6408,"snippet":6409,"probably":6410,"dual":6411,"had":6412,"nn":6413,"qlog":6414,"programs":6415,"posed":6416,"date32":6417,"000080":6418,"projected":6419,"222":6420,"sampler2d":6421,"quiet":6422,"bf":6423,"ian":6424,"renew":6425,"restrict":6426,"deep":6427,"pem":6428,"typecheck":6429,"obser":6430,"expiry":6431,"scaled":6432,"texture1d":6433,"cancellation":6434,"fixed64":6435,"everything":6436,"inclus":6437,"determin":6438,"regexp":6439,"ioctl":6440,"0x0000":6441,"worlds":6442,"kvs":6443,"imm16":6444,"greengrass":6445,"mkdir":6446,"asym":6447,"dkim":6448,"fed":6449,"topo":6450,"entit":6451,"conv":6452,"timespec":6453,"iovec":6454,"grants":6455,"globs":6456,"helpers":6457,"signaling":6458,"water":6459,"dynamo":6460,"efs":6461,"tb":6462,"ude":6463,"hell":6464,"sph":6465,"translation":6466,"recent":6467,"panics":6468,"dependent":6469,"balances":6470,"arbage":6471,"underline":6472,"tracing":6473,"utiliz":6474,"gue":6475,"garbage":6476,"lz":6477,"mux":6478,"ucs":6479,"stem":6480,"cod":6481,"arg0":6482,"spr":6483,"prefixes":6484,"contention":6485,"makes":6486,"activated":6487,"oooooooo":6488,"burn":6489,"61":6490,"dcid":6491,"sg":6492,"003":6493,"dia":6494,"grad":6495,"minant":6496,"caches":6497,"prin":6498,"medium":6499,"spanning":6500,"precommits":6501,"combined":6502,"contribut":6503,"procedure":6504,"sx":6505,"sis":6506,"stos":6507,"aspect":6508,"locally":6509,"iov":6510,"staticmethod":6511,"manual":6512,"floatspace":6513,"masked":6514,"business":6515,"underlying":6516,"verbosity":6517,"excluded":6518,"sigev":6519,"bright":6520,"inverse":6521,"mutate":6522,"shar":6523,"listed":6524,"mini":6525,"polling":6526,"24usize":6527,"timers":6528,"microsecond":6529,"passph":6530,"gatt":6531,"amt":6532,"asc":6533,"obtain":6534,"capsu":6535,"clipping":6536,"synthe":6537,"cells":6538,"accessors":6539,"endianness":6540,"intrinsics":6541,"triangles":6542,"sprite":6543,"0u64":6544,"aff":6545,"fresh":6546,"pw":6547,"along":6548,"desk":6549,"arily":6550,"fie":6551,"modes":6552,"repl":6553,"grain":6554,"mission":6555,"failing":6556,"sequent":6557,"launcher":6558,"declarations":6559,"silent":6560,"smoo":6561,"bgr":6562,"really":6563,"coin":6564,"tried":6565,"kept":6566,"fixnum":6567,"backends":6568,"interests":6569,"mixed":6570,"vvvv":6571,"navig":6572,"a8":6573,"fuse":6574,"w4":6575,"chr":6576,"test2":6577,"argv":6578,"insertion":6579,"vao":6580,"rwlock":6581,"x1b":6582,"consistency":6583,"easy":6584,"m2":6585,"wl":6586,"xop":6587,"ini":6588,"chat":6589,"scm":6590,"keycode":6591,"deadlock":6592,"computer":6593,"instantiations":6594,"descendants":6595,"severity":6596,"music":6597,"problem":6598,"011":6599,"bw":6600,"cubic":6601,"dc":6602,"evi":6603,"fur":6604,"por":6605,"twin":6606,"arns":6607,"except":6608,"quid":6609,"explan":6610,"subsequent":6611,"contained":6612,"raftstore":6613,"callbacks":6614,"dnssec":6615,"authenticator":6616,"insights":6617,"explicitly":6618,"alternative":6619,"individual":6620,"hellman":6621,"69":6622,"72":6623,"blit":6624,"fine":6625,"k4":6626,"much":6627,"arms":6628,"road":6629,"liquid":6630,"0010":6631,"size64":6632,"wable":6633,"identical":6634,"multicast":6635,"synchronizer":6636,"tombstone":6637,"transcription":6638,"passphrase":6639,"hide":6640,"oip":6641,"t3":6642,"removing":6643,"iny":6644,"bufs":6645,"byoip":6646,"descriptions":6647,"cpus":6648,"migrate":6649,"imm64":6650,"screenshot":6651,"lined":6652,"forwards":6653,"rumors":6654,"desktop":6655,"preference":6656,"sr":6657,"tm":6658,"vant":6659,"congest":6660,"exceptions":6661,"importer":6662,"125":6663,"src1":6664,"continuous":6665,"sockopt":6666,"surfaces":6667,"aborts":6668,"████":6669,"crc32":6670,"learning":6671,"relevant":6672,"guess":6673,"congestion":6674,"fate":6675,"ug":6676,"pts":6677,"shares":6678,"creds":6679,"marked":6680,"advanced":6681,"builtins":6682,"acquired":6683,"fuzzer":6684,"celebrity":6685,"dan":6686,"gam":6687,"m1":6688,"warm":6689,"xim":6690,"ligh":6691,"varying":6692,"scalable":6693,"collected":6694,"encryptor":6695,"rx2":6696,"drawing":6697,"tensors":6698,"declared":6699,"appropri":6700,"ndx":6701,"fcntl":6702,"immediate8to":6703,"copied":6704,"ecdsa":6705,"vacant":6706,"asymmetric":6707,"explanation":6708,"2nd":6709,"c8":6710,"depart":6711,"coins":6712,"care":6713,"date64":6714,"nodelay":6715,"gateways":6716,"solid":6717,"bigint":6718,"quicksight":6719,"decoration":6720,"appropriate":6721,"0b0":6722,"tiny":6723,"retract":6724,"country":6725,"applica":6726,"expires":6727,"logfile":6728,"mercur":6729,"storing":6730,"blobs":6731,"paginator":6732,"smoke":6733,"010":6734,"redirection":6735,"adj":6736,"divisor":6737,"jsval":6738,"builds":6739,"dirfd":6740,"accessible":6741,"gamepad":6742,"standalone":6743,"x03":6744,"applicable":6745,"alter":6746,"0xffff":6747,"boat":6748,"keymap":6749,"playback":6750,"properly":6751,"clouddirectory":6752,"develop":6753,"standards":6754,"polygon":6755,"protected":6756,"propagate":6757,"gamma":6758,"82":6759,"eat":6760,"ka":6761,"vfs":6762,"exa":6763,"ptrace":6764,"disco":6765,"applies":6766,"traverse":6767,"eks":6768,"amazonaws":6769,"hosts":6770,"1001":6771,"ignores":6772,"fu8":6773,"ki":6774,"men":6775,"val1":6776,"isoned":6777,"poisoned":6778,"shap":6779,"prece":6780,"privi":6781,"awswaf":6782,"0006":6783,"providers":6784,"allocator":6785,"bubble":6786,"negotiate":6787,"warp":6788,"x02":6789,"expose":6790,"lain":6791,"equi":6792,"atory":6793,"bitrate":6794,"plural":6795,"slices":6796,"supplied":6797,"aggregated":6798,"s3tc":6799,"aiocb":6800,"mandatory":6801,"approximate":6802,"interlaced":6803,"capsule":6804,"privile":6805,"79":6806,"e9":6807,"eu":6808,"fty":6809,"malloc":6810,"xlib":6811,"rever":6812,"lear":6813,"unsubscribe":6814,"party":6815,"addon":6816,"acces":6817,"disconnected":6818,"imported":6819,"vmdq":6820,"epsil":6821,"deployed":6822,"relation":6823,"radii":6824,"mipmaps":6825,"epsilon":6826,"au8":6827,"jg":6828,"oes":6829,"rdi":6830,"sip":6831,"tvm":6832,"neigh":6833,"reflow":6834,"iterations":6835,"comb":6836,"120":6837,"plane":6838,"poly1305":6839,"interpreted":6840,"exclusions":6841,"newsboat":6842,"wildcard":6843,"inclusive":6844,"rq":6845,"vor":6846,"dele":6847,"splits":6848,"absolutely":6849,"ticker":6850,"circum":6851,"────────────────":6852,"colours":6853,"utilization":6854,"lb":6855,"lum":6856,"wgpu":6857,"val2":6858,"tes":6859,"mlw":6860,"views":6861,"phrase":6862,"ctap1":6863,"materialize":6864,"subscribers":6865,"decrement":6866,"tidb":6867,"alert":6868,"trivial":6869,"discovery":6870,"8000h":6871,"aud":6872,"zadd":6873,"infra":6874,"uninitialized":6875,"msrc":6876,"pathname":6877,"coll":6878,"endfor":6879,"time32":6880,"appy":6881,"movement":6882,"framework":6883,"discoverer":6884,"mercury":6885,"ah":6886,"hkdf":6887,"reconfig":6888,"alge":6889,"unstable":6890,"thus":6891,"pod":6892,"datasets":6893,"subtract":6894,"mysql":6895,"piped":6896,"viewer":6897,"suppres":6898,"looking":6899,"bitmaps":6900,"taxonomy":6901,"224":6902,"dry":6903,"p3":6904,"wig":6905,"wops":6906,"testdir":6907,"umb":6908,"outcome":6909,"rects":6910,"fff":6911,"f32f32":6912,"websocket":6913,"quoted":6914,"smaller":6915,"hibit":6916,"circular":6917,"decrease":6918,"sanit":6919,"sixteen":6920,"1u64":6921,"2fo":6922,"81":6923,"rint":6924,"uff":6925,"fi2fo":6926,"entory":6927,"tell":6928,"acute":6929,"interce":6930,"perman":6931,"explain":6932,"goto":6933,"alphabet":6934,"chosen":6935,"inventory":6936,"circle":6937,"int8type":6938,"chrono":6939,"substit":6940,"muxer":6941,"infrastructure":6942,"permanent":6943,"dn":6944,"jl":6945,"stac":6946,"demo":6947,"errs":6948,"unded":6949,"withdraw":6950,"senti":6951,"contextstr":6952,"locale":6953,"0004":6954,"phen":6955,"borrows":6956,"rustls":6957,"suspend":6958,"adjusted":6959,"11111111":6960,"feder":6961,"learner":6962,"bloom":6963,"dcb":6964,"farg":6965,"k0":6966,"rebuild":6967,"semi":6968,"encod":6969,"meter":6970,"toclient":6971,"bump":6972,"taken":6973,"mos":6974,"rai":6975,"returning":6976,"pager":6977,"sponse":6978,"nonblock":6979,"opened":6980,"opengl":6981,"triggered":6982,"offerings":6983,"hyphen":6984,"delegate":6985,"2u32":6986,"4d":6987,"ellation":6988,"deactivate":6989,"aps":6990,"ints":6991,"deserialized":6992,"ared":6993,"transmit":6994,"boring":6995,"u16u16":6996,"splitter":6997,"utf16":6998,"restapi":6999,"gov":7000,"csswg":7001,"cha20":7002,"sentiment":7003,"bpp":7004,"fq":7005,"w5":7006,"zig":7007,"zag":7008,"leak":7009,"rounded":7010,"fish":7011,"moder":7012,"obstac":7013,"curses":7014,"prime":7015,"panick":7016,"jour":7017,"higher":7018,"deprecate":7019,"themes":7020,"products":7021,"rather":7022,"cript":7023,"topology":7024,"fargate":7025,"icons":7026,"vc":7027,"x01":7028,"encounter":7029,"nets":7030,"vest":7031,"dictor":7032,"predictor":7033,"suit":7034,"tokenize":7035,"exprs":7036,"ellow":7037,"exited":7038,"partitioning":7039,"i16i16":7040,"i8i8":7041,"blacklist":7042,"2e":7043,"4u8":7044,"droid":7045,"ess":7046,"ever":7047,"frequ":7048,"lapping":7049,"p256":7050,"doing":7051,"data1":7052,"ips":7053,"oton":7054,"glsl":7055,"descriptors":7056,"binop":7057,"overlapping":7058,"composition":7059,"reduction":7060,"65535":7061,"stuff":7062,"brightness":7063,"equival":7064,"aarch":7065,"bill":7066,"cgroup":7067,"hls":7068,"jpg":7069,"ulong":7070,"conce":7071,"rusqlite":7072,"foreg":7073,"indicator":7074,"statuses":7075,"networks":7076,"broken":7077,"foreground":7078,"hsts":7079,"ymm":7080,"yellow":7081,"redis":7082,"sex":7083,"design":7084,"arse":7085,"toserver":7086,"creator":7087,"odd":7088,"ularity":7089,"simulator":7090,"fuzzy":7091,"waiters":7092,"satis":7093,"recognizer":7094,"focused":7095,"a6":7096,"ors":7097,"unload":7098,"unprocess":7099,"ables":7100,"interner":7101,"time64":7102,"subnets":7103,"loops":7104,"symbolic":7105,"242":7106,"67f3":7107,"404":7108,"votes":7109,"aes256":7110,"aarch64":7111,"unprocessable":7112,"fla":7113,"quest":7114,"tbl":7115,"uce":7116,"zu":7117,"untyped":7118,"verage":7119,"dominant":7120,"arg5":7121,"prestat":7122,"jsonrpc":7123,"reporter":7124,"250":7125,"seems":7126,"accepts":7127,"likely":7128,"201504":7129,"abcdefghi":7130,"reversed":7131,"4e":7132,"5e":7133,"sir":7134,"infinite":7135,"loo":7136,"forgot":7137,"lave":7138,"32usize":7139,"bypass":7140,"interpret":7141,"12usize":7142,"voice":7143,"downgrade":7144,"enables":7145,"listening":7146,"permalinks":7147,"proposed":7148,"particular":7149,"circumflex":7150,"l1":7151,"tored":7152,"unnamed":7153,"idge":7154,"doco":7155,"predict":7156,"emon":7157,"specs":7158,"0x8000":7159,"inserts":7160,"aaaaaaa":7161,"brand":7162,"daemon":7163,"abcde":7164,"branch16":7165,"sides":7166,"affected":7167,"xxxxxxxx":7168,"fruit":7169,"smooth":7170,"development":7171,"algebr":7172,"encodings":7173,"bile":7174,"fri":7175,"mtype":7176,"vk":7177,"tou":7178,"prod":7179,"rases":7180,"whose":7181,"grow":7182,"commun":7183,"generating":7184,"lsr":7185,"agree":7186,"lua":7187,"operators":7188,"compared":7189,"measurement":7190,"average":7191,"i2":7192,"lc":7193,"pong":7194,"pitch":7195,"sadd":7196,"edn":7197,"maker":7198,"belong":7199,"indicates":7200,"optionally":7201,"u32u32":7202,"charset":7203,"sequential":7204,"highligh":7205,"123456":7206,"delivered":7207,"journal":7208,"h0":7209,"rame":7210,"unordered":7211,"convol":7212,"size32":7213,"scis":7214,"outline":7215,"outpost":7216,"workdir":7217,"origins":7218,"webkit":7219,"immediate32":7220,"implementor":7221,"csi":7222,"ed25519signature":7223,"nbt":7224,"longhands":7225,"interceptor":7226,"2u8":7227,"emp":7228,"kaf":7229,"vin":7230,"x7":7231,"ropy":7232,"adverti":7233,"tess":7234,"proj":7235,"shard":7236,"tier":7237,"emr":7238,"nodegroup":7239,"expire":7240,"boxes":7241,"options1":7242,"pivot":7243,"metas":7244,"decision":7245,"clauses":7246,"int16type":7247,"agents":7248,"actors":7249,"tracer":7250,"equivalent":7251,"scissor":7252,"kafka":7253,"1128":7254,"83":7255,"jbe":7256,"pvec":7257,"inval":7258,"edx":7259,"typescript":7260,"andx":7261,"ereg":7262,"lsb":7263,"scalars":7264,"multiplied":7265,"sequences":7266,"milliseconds":7267,"clockwise":7268,"annotated":7269,"specialization":7270,"20161128":7271,"happens":7272,"steal":7273,"blake2b":7274,"dark":7275,"ball":7276,"r32":7277,"t0":7278,"tics":7279,"vbox":7280,"wm":7281,"unlink":7282,"coarse":7283,"file2":7284,"filestat":7285,"imated":7286,"subcommands":7287,"minimal":7288,"connecting":7289,"connectivity":7290,"phrases":7291,"initializer":7292,"sampled":7293,"sha512":7294,"activities":7295,"coordinates":7296,"ancestors":7297,"parenthesized":7298,"printed":7299,"navigation":7300,"menu":7301,"m128":7302,"omit":7303,"sible":7304,"camer":7305,"codepoint":7306,"fered":7307,"subsystem":7308,"having":7309,"afd":7310,"sha3":7311,"placements":7312,"devtools":7313,"workflows":7314,"camera":7315,"gp":7316,"i1":7317,"pended":7318,"tanti":7319,"rex":7320,"alexa":7321,"unlock":7322,"coer":7323,"maps":7324,"sky":7325,"masks":7326,"plugins":7327,"passing":7328,"brackets":7329,"allocations":7330,"xidmap":7331,"campaign":7332,"sharing":7333,"tantivy":7334,"fdir":7335,"hp":7336,"kde":7337,"norms":7338,"rereg":7339,"xff":7340,"reh":7341,"unchanged":7342,"apic":7343,"newlines":7344,"mag":7345,"0040h":7346,"mobile":7347,"compreh":7348,"whate":7349,"versioned":7350,"positioning":7351,"202":7352,"lengths":7353,"socket1":7354,"udf":7355,"analytics":7356,"personal":7357,"retrieval":7358,"eli":7359,"jne":7360,"zmm":7361,"series":7362,"msr":7363,"dere":7364,"netbsd":7365,"8042":7366,"dhcp":7367,"20160":7368,"socks5":7369,"inspector":7370,"combine":7371,"jge":7372,"lr":7373,"alproto":7374,"uninstall":7375,"excer":7376,"vers":7377,"vectored":7378,"notice":7379,"hemer":7380,"tpl":7381,"grab":7382,"ephemer":7383,"continuation":7384,"40usize":7385,"paginated":7386,"adjustment":7387,"radial":7388,"whatever":7389,"ephemeral":7390,"74":7391,"92":7392,"jle":7393,"jae":7394,"inconsistent":7395,"decompress":7396,"robo":7397,"contract":7398,"ruction":7399,"upsert":7400,"scsi":7401,"scram":7402,"dog":7403,"ording":7404,"bridge":7405,"effi":7406,"possib":7407,"quotas":7408,"recognized":7409,"training":7410,"sensitivity":7411,"docopt":7412,"6c":7413,"hat":7414,"jnp":7415,"kt":7416,"simp":7417,"sozu":7418,"negate":7419,"ofs":7420,"food":7421,"state2":7422,"102":7423,"suppress":7424,"conflicting":7425,"healthy":7426,"branch32":7427,"computation":7428,"666":7429,"0x77a9":7430,"purge":7431,"aaaaaaaaaaaaaaaaaaaaaaaaaaaaaaaaaaaaaaaaaaaaaaaaaaaaaaaaaaaaaaaa":7432,"taxonomies":7433,"frequency":7434,"btree":7435,"dtable":7436,"s4":7437,"staging":7438,"0011":7439,"data2":7440,"dates":7441,"logged":7442,"i32i32":7443,"rangeby":7444,"nonblocking":7445,"metic":7446,"transport1":7447,"universe":7448,"according":7449,"simulate":7450,"acquires":7451,"integral":7452,"observers":7453,"incremental":7454,"arithmetic":7455,"destructor":7456,"1f64":7457,"377":7458,"c9":7459,"hack":7460,"nused":7461,"attest":7462,"saver":7463,"compo":7464,"pii":7465,"deny":7466,"chaining":7467,"cxx":7468,"populated":7469,"solve":7470,"followed":7471,"earlier":7472,"dragon":7473,"wheel":7474,"forwarded":7475,"paragraph":7476,"restricted":7477,"cmsg":7478,"i8042":7479,"sun":7480,"x5":7481,"alphan":7482,"uth":7483,"equ":7484,"indexing":7485,"0008":7486,"illu":7487,"147":7488,"lucetc":7489,"ingestion":7490,"attribs":7491,"reregister":7492,"attestation":7493,"alphanum":7494,"3u8":7495,"fan":7496,"i3":7497,"nsec":7498,"t5":7499,"deg":7500,"demand":7501,"rote":7502,"rown":7503,"pup":7504,"testarray":7505,"docker":7506,"backslash":7507,"ecs":7508,"facebook":7509,"descending":7510,"avx":7511,"detectors":7512,"uumain":7513,"voting":7514,"intersects":7515,"preceding":7516,"moderation":7517,"excerpt":7518,"testarrayof":7519,"bp":7520,"zstd":7521,"id1":7522,"veget":7523,"uploaded":7524,"mentat":7525,"timezone":7526,"tagged":7527,"metafile":7528,"sha384":7529,"redund":7530,"uiid":7531,"505":7532,"headless":7533,"languages":7534,"rbp":7535,"candidates":7536,"criteria":7537,"201807":7538,"audit":7539,"dragonfly":7540,"blog":7541,"cdr":7542,"ech":7543,"gus":7544,"pdu":7545,"tso":7546,"uapi":7547,"toy":7548,"dial":7549,"lowp":7550,"509":7551,"comparable":7552,"dashboards":7553,"fxb":7554,"recursively":7555,"nfsproc":7556,"http2frame":7557,"uucore":7558,"comprehend":7559,"ban":7560,"cn":7561,"fbo":7562,"sint32":7563,"w6":7564,"zlib":7565,"orphan":7566,"semb":7567,"itude":7568,"arq":7569,"uninterpreted":7570,"five":7571,"useless":7572,"bogus":7573,"disp":7574,"eventually":7575,"regional":7576,"docset":7577,"checkout":7578,"rc4":7579,"0x1000":7580,"elli":7581,"termion":7582,"equality":7583,"175":7584,"boost":7585,"answers":7586,"dtor":7587,"w7":7588,"ce9d":7589,"unregister":7590,"unpark":7591,"ctype":7592,"entropy":7593,"0016":7594,"0012":7595,"disc":7596,"certain":7597,"terminator":7598,"gold":7599,"tracks":7600,"virtq":7601,"shutting":7602,"attempts":7603,"harvest":7604,"forwarder":7605,"portrait":7606,"encountered":7607,"krb":7608,"tch":7609,"u1":7610,"xacquire":7611,"xrelease":7612,"depar":7613,"iding":7614,"typegen":7615,"0020":7616,"intermediate":7617,"aliased":7618,"vector2d":7619,"planning":7620,"carded":7621,"65536":7622,"appears":7623,"sharpen":7624,"lz4":7625,"dereference":7626,"departed":7627,"gla":7628,"nice":7629,"p0":7630,"sass":7631,"resample":7632,"toge":7633,"cop":7634,"msb":7635,"op4":7636,"counting":7637,"point2":7638,"instrument":7639,"socklen":7640,"pinpoint":7641,"syntaxes":7642,"pointers":7643,"gnu":7644,"microsoft":7645,"batter":7646,"whatwg":7647,"deferred":7648,"fortune":7649,"redundant":7650,"together":7651,"fbb":7652,"jno":7653,"jns":7654,"r8":7655,"exer":7656,"exha":7657,"fig":7658,"tem":7659,"icing":7660,"discarded":7661,"loadbalancing":7662,"ledge":7663,"termios":7664,"aster":7665,"normalized":7666,"therefore":7667,"3339":7668,"imm32":7669,"basis":7670,"negated":7671,"elasticloadbalancing":7672,"illumos":7673,"exhaust":7674,"hn":7675,"mtime":7676,"iting":7677,"entids":7678,"pemd":7679,"0018":7680,"001e":7681,"size2":7682,"codecs":7683,"ripemd":7684,"datastore":7685,"dataflow":7686,"independ":7687,"hashmap":7688,"hose":7689,"voc":7690,"linking":7691,"pricing":7692,"vectorlike":7693,"gles":7694,"cloudfront":7695,"digests":7696,"mb4":7697,"retrieved":7698,"optimization":7699,"indentation":7700,"temporal":7701,"firehose":7702,"adjac":7703,"semicolon":7704,"aaaaaaaaaaaaaaaaaaaaaaaaaaaaaaaaaaaaaaaaaaaaaaaaaaaaaaaaaaaaaaaaaaaaaaa":7705,"battery":7706,"independent":7707,"1a":7708,"1c":7709,"2s":7710,"9b9":7711,"lw":7712,"rer":7713,"wt":7714,"cov":7715,"extr":7716,"0xffffffff":7717,"acknow":7718,"prepend":7719,"locate":7720,"splice":7721,"bitindex":7722,"register3":7723,"pie":7724,"snmp":7725,"styled":7726,"srcs":7727,"markdown":7728,"invok":7729,"shadows":7730,"remains":7731,"stages":7732,"particip":7733,"sanitize":7734,"satisfi":7735,"dp":7736,"mir":7737,"nine":7738,"ox":7739,"team":7740,"trie":7741,"extent":7742,"disas":7743,"charpos":7744,"cacheable":7745,"2048":7746,"crypt":7747,"finding":7748,"dense":7749,"elt":7750,"rxq":7751,"lexe":7752,"utf8mb4":7753,"buttons":7754,"activation":7755,"extracted":7756,"microseconds":7757,"authenticate":7758,"toolchain":7759,"corrupt":7760,"representation":7761,"k5":7762,"nbytes":7763,"insensitive":7764,"ges":7765,"lod":7766,"tee":7767,"prob":7768,"prox":7769,"thelen":7770,"buff":7771,"matchers":7772,"preload":7773,"u8vector":7774,"0x40000":7775,"floating":7776,"subscribed":7777,"solar":7778,"50h":7779,"wards":7780,"databases":7781,"decryption":7782,"sia":7783,"optimizer":7784,"productions":7785,"presence":7786,"l2r":7787,"skew":7788,"prune":7789,"billing":7790,"1b":7791,"73":7792,"drt":7793,"ebad":7794,"rfb":7795,"alp":7796,"dee":7797,"lef":7798,"chsia":7799,"gem":7800,"ury":7801,"izable":7802,"sensor":7803,"permutation":7804,"160":7805,"108":7806,"builders":7807,"grave":7808,"copyable":7809,"tensorflow":7810,"currencies":7811,"italic":7812,"rdp":7813,"fuchsia":7814,"drawable":7815,"considered":7816,"inserter":7817,"prag":7818,"lexeme":7819,"cash":7820,"d8":7821,"fpath":7822,"gm":7823,"o1":7824,"o2":7825,"tl":7826,"ane":7827,"pump":7828,"test1":7829,"validated":7830,"disallowed":7831,"ptrd":7832,"gling":7833,"aband":7834,"playing":7835,"merging":7836,"binlink":7837,"eager":7838,"suspended":7839,"branch64":7840,"whitelist":7841,"cpp":7842,"duplicates":7843,"temporarily":7844,"ferences":7845,"decorator":7846,"descendant":7847,"federation":7848,"question":7849,"alphanumeric":7850,"bre":7851,"d10":7852,"dtls":7853,"kil":7854,"fieldnorms":7855,"arg6":7856,"impo":7857,"lags":7858,"subsec":7859,"depending":7860,"cleared":7861,"openssl":7862,"filenames":7863,"calle":7864,"pkgs":7865,"expander":7866,"datoms01":7867,"requirements":7868,"presenter":7869,"propag":7870,"observed":7871,"raises":7872,"6e":7873,"ield":7874,"kan":7875,"treas":7876,"u5":7877,"xbegin":7878,"infix":7879,"invariants":7880,"thrown":7881,"usecs":7882,"bytepos":7883,"interned":7884,"speech":7885,"subtype":7886,"density":7887,"openbsd":7888,"234":7889,"decls":7890,"elasticbeanstalk":7891,"recognize":7892,"occurred":7893,"translator":7894,"departure":7895,"asterisk":7896,"abandon":7897,"treasury":7898,"dro":7899,"ffered":7900,"han":7901,"kset":7902,"r64":7903,"s0":7904,"erase":7905,"unrecognized":7906,"cold":7907,"idl":7908,"0028":7909,"racer":7910,"acme":7911,"siginfo":7912,"spliter":7913,"flags3":7914,"optflag":7915,"skipping":7916,"doesnt":7917,"tracked":7918,"sitemap":7919,"platforms":7920,"dictionaries":7921,"compositing":7922,"recurse":7923,"recursion":7924,"00000000000080":7925,"8080h":7926,"alternate":7927,"represents":7928,"agreement":7929,"simply":7930,"116":7931,"cial":7932,"d7":7933,"gain":7934,"kers":7935,"mcu":7936,"nx":7937,"vl":7938,"atty":7939,"bust":7940,"poses":7941,"ctional":7942,"streamer":7943,"254":7944,"000a":7945,"bars":7946,"ec2instance":7947,"captured":7948,"transitions":7949,"quoting":7950,"granted":7951,"warmup":7952,"3u32":7953,"dm":7954,"g1":7955,"ku":7956,"slave":7957,"tgt":7958,"x6":7959,"refill":7960,"inp":7961,"deser":7962,"conference":7963,"thesa":7964,"shuff":7965,"excess":7966,"sae":7967,"userdata":7968,"foo2":7969,"columnar":7970,"rel32":7971,"rsr":7972,"capitalize":7973,"separated":7974,"submitted":7975,"majority":7976,"tapes":7977,"synchronization":7978,"wiki":7979,"inode":7980,"pragma":7981,"112":7982,"3000":7983,"bser":7984,"e4":7985,"insecure":7986,"meet":7987,"0014":7988,"scrol":7989,"bye":7990,"preopen":7991,"interaction":7992,"bare":7993,"impro":7994,"parameteriv":7995,"stype":7996,"image2d":7997,"0005":7998,"resolvers":7999,"correctness":8000,"highlights":8001,"convolution":8002,"krb5":8003,"solaris":8004,"lefto":8005,"5a":8006,"gge":8007,"iq":8008,"sizing":8009,"invert":8010,"unterminated":8011,"chro":8012,"entr":8013,"strat":8014,"pure":8015,"icd10":8016,"colli":8017,"ami":8018,"performed":8019,"manu":8020,"eps":8021,"downstream":8022,"1006":8023,"scores":8024,"goes":8025,"805":8026,"evaluated":8027,"consumers":8028,"bottommost":8029,"annotate":8030,"collapsible":8031,"leased":8032,"stripped":8033,"0x9e377":8034,"destroyed":8035,"updater":8036,"suitability":8037,"ggez":8038,"icd10cm":8039,"0x9e3779b9":8040,"71":8041,"e6":8042,"l3":8043,"lun":8044,"zpage":8045,"ather":8046,"apon":8047,"thetype":8048,"vise":8049,"clas":8050,"company":8051,"objc":8052,"memcmp":8053,"backing":8054,"backdrop":8055,"logue":8056,"0x00u8":8057,"allowlist":8058,"texture3d":8059,"foo1":8060,"skim":8061,"0007":8062,"connects":8063,"generates":8064,"asts":8065,"hexa":8066,"watched":8067,"meshes":8068,"recognition":8069,"flattened":8070,"contrib":8071,"naming":8072,"natural":8073,"graphemes":8074,"acknowledge":8075,"854":8076,"bon":8077,"gone":8078,"ortable":8079,"noun":8080,"6467":8081,"confid":8082,"discri":8083,"configur":8084,"wel":8085,"weapon":8086,"initrd":8087,"recor":8088,"writers":8089,"assum":8090,"opening":8091,"macro2":8092,"ntstatus":8093,"rdx":8094,"nbss":8095,"0ah":8096,"possibly":8097,"0c":8098,"2f":8099,"az":8100,"cpl":8101,"cvt":8102,"ei":8103,"einval":8104,"gi":8105,"gur":8106,"plist":8107,"rtx":8108,"rsw":8109,"r15":8110,"sregs":8111,"reaction":8112,"influ":8113,"mutations":8114,"mpx":8115,"refcount":8116,"rets":8117,"shan":8118,"evcx":8119,"compose":8120,"performs":8121,"filtering":8122,"ordinal":8123,"marke":8124,"applying":8125,"migrations":8126,"invite":8127,"categor":8128,"ructed":8129,"201508":8130,"syscalls":8131,"veness":8132,"tombstones":8133,"withdrawal":8134,"rerun":8135,"recorded":8136,"evcxr":8137,"0dh":8138,"5000":8139,"7e":8140,"cv":8141,"efd":8142,"gzip":8143,"pul":8144,"sut":8145,"rols":8146,"chmod":8147,"bu8":8148,"newly":8149,"lacing":8150,"exts":8151,"bey":8152,"ances":8153,"weather":8154,"controls":8155,"signup":8156,"0x0009":8157,"subpixel":8158,"reported":8159,"0000000":8160,"framebuffers":8161,"layouts":8162,"prer":8163,"monoton":8164,"248":8165,"int64array":8166,"approved":8167,"0bh":8168,"recommended":8169,"0eh":8170,"becomes":8171,"shapes":8172,"efficient":8173,"composer":8174,"golden":8175,"vocation":8176,"participant":8177,"influence":8178,"shannon":8179,"0ch":8180,"1i64":8181,"bmp":8182,"csplit":8183,"d9":8184,"hl":8185,"nu":8186,"nor":8187,"risk":8188,"tre":8189,"tld":8190,"react":8191,"inactive":8192,"asn1":8193,"mutability":8194,"nomin":8195,"0030":8196,"0026":8197,"shl":8198,"vercmd":8199,"vary":8200,"http1":8201,"pushed":8202,"outputln":8203,"dir1":8204,"butter":8205,"moves":8206,"masking":8207,"multibyte":8208,"watchman":8209,"uploads":8210,"775":8211,"vaults":8212,"float64array":8213,"isolated":8214,"nanoseconds":8215,"blake2s":8216,"3c":8217,"lated":8218,"deinit":8219,"chart":8220,"buf2":8221,"dialog":8222,"dialer":8223,"compound":8224,"subcmd":8225,"abis":8226,"fsctl":8227,"projector":8228,"redraw":8229,"pbm":8230,"ownership":8231,"covered":8232,"optimistic":8233,"suggester":8234,"grapheme":8235,"guaranteed":8236,"ucs4":8237,"butterfly":8238,"4f":8239,"bis":8240,"cue":8241,"ey":8242,"eas":8243,"ely":8244,"fps":8245,"hap":8246,"happy":8247,"mdata":8248,"rval":8249,"remo":8250,"atime":8251,"robust":8252,"ceed":8253,"val3":8254,"matte":8255,"notrack":8256,"promote":8257,"proto2":8258,"lling":8259,"readed":8260,"stopping":8261,"finally":8262,"multival":8263,"333":8264,"sliding":8265,"xmm2":8266,"quantities":8267,"f7f7":8268,"rfc3339":8269,"scratchpad":8270,"obstacle":8271,"4u32":8272,"91":8273,"bio":8274,"tut":8275,"tan":8276,"u4":8277,"vlan":8278,"wants":8279,"x8":8280,"═╝":8281,"enqueue":8282,"apdu":8283,"prover":8284,"proceed":8285,"pol":8286,"division":8287,"strukt":8288,"cron":8289,"subquery":8290,"frac":8291,"closes":8292,"wasn":8293,"130":8294,"uint16":8295,"vpce":8296,"f16f16":8297,"http3req":8298,"guru":8299,"5u8":8300,"ai":8301,"cpy":8302,"night":8303,"qrst":8304,"xdg":8305,"sta":8306,"unreferenced":8307,"cores":8308,"scry":8309,"unwrapped":8310,"saml":8311,"preprocessor":8312,"deserialization":8313,"variation":8314,"operating":8315,"socket2":8316,"dename":8317,"printing":8318,"fluent":8319,"salsa":8320,"instantiate":8321,"expansion":8322,"lmnop":8323,"concepts":8324,"elimin":8325,"monotonic":8326,"1f":8327,"till":8328,"u10":8329,"zv":8330,"unresolved":8331,"reqwest":8332,"prologue":8333,"value3":8334,"premultiplied":8335,"loads":8336,"grand":8337,"modul":8338,"dedup":8339,"others":8340,"archite":8341,"fsid":8342,"clipped":8343,"copying":8344,"passwd":8345,"extends":8346,"exiting":8347,"edits":8348,"tunn":8349,"excludes":8350,"overlaps":8351,"10101010":8352,"pressure":8353,"██║██║":8354,"culling":8355,"further":8356,"privileges":8357,"loope":8358,"figure":8359,"imposs":8360,"nominal":8361,"scrypt":8362,"bstr":8363,"rsp":8364,"r16":8365,"s5":8366,"renamed":8367,"alarms":8368,"asing":8369,"threat":8370,"texts":8371,"spection":8372,"dbg":8373,"uleb":8374,"framewise":8375,"cmpe":8376,"sliced":8377,"dests":8378,"actuals":8379,"integers":8380,"nesting":8381,"0630":8382,"abstraction":8383,"predicates":8384,"trainer":8385,"chacha20":8386,"advertise":8387,"luna":8388,"confidence":8389,"impossible":8390,"3f":8391,"d6":8392,"hu":8393,"sans":8394,"uide":8395,"ushort":8396,"vr":8397,"orial":8398,"orers":8399,"lements":8400,"chroot":8401,"thumb":8402,"threaded":8403,"adming":8404,"veloc":8405,"macron":8406,"bes":8407,"regard":8408,"indicate":8409,"exported":8410,"supposed":8411,"substring":8412,"abortable":8413,"rcv":8414,"myapp":8415,"pango":8416,"john":8417,"changing":8418,"instrs":8419,"untu":8420,"raftdb":8421,"jumps":8422,"ubuntu":8423,"6667":8424,"numbers50":8425,"0fh":8426,"meaning":8427,"algebrizer":8428,"i3bar":8429,"tutorial":8430,"adminguide":8431,"velocity":8432,"93":8433,"gw":8434,"grea":8435,"lcd":8436,"pip":8437,"smt":8438,"tdf":8439,"decoding":8440,"unbind":8441,"unbound":8442,"unprocessed":8443,"resulting":8444,"reftest":8445,"popup":8446,"mss":8447,"scorers":8448,"test4":8449,"clic":8450,"cier":8451,"executing":8452,"snd":8453,"aws242":8454,"entrypoint":8455,"splitn":8456,"cccc":8457,"shortcut":8458,"goal":8459,"x06":8460,"controllers":8461,"fences":8462,"several":8463,"gather":8464,"sanity":8465,"fruits":8466,"isolate":8467,"pract":8468,"aws242service":8469,"9a":8470,"cmov":8471,"ntp":8472,"ered":8473,"invocation":8474,"ond":8475,"assumed":8476,"tele":8477,"edi":8478,"pacm":8479,"321":8480,"usually":8481,"backed":8482,"fraud":8483,"agnost":8484,"rolling":8485,"rng256":8486,"dnsr":8487,"delayed":8488,"emitter":8489,"bazel":8490,"accumulate":8491,"vex2":8492,"sectors":8493,"watermark":8494,"relationship":8495,"lumin":8496,"sembler":8497,"glacier":8498,"pacman":8499,"agnostic":8500,"501":8501,"5678":8502,"bash":8503,"h4":8504,"ltr":8505,"lbl":8506,"mc":8507,"s8":8508,"y0":8509,"resend":8510,"rewriter":8511,"atoms":8512,"mat3":8513,"0024":8514,"paste":8515,"key3":8516,"int96":8517,"weird":8518,"registering":8519,"minator":8520,"collecting":8521,"webxr":8522,"needle":8523,"proofs":8524,"cloudformation":8525,"registrations":8526,"decline":8527,"samplers":8528,"turned":8529,"entitlement":8530,"highlighter":8531,"mirror":8532,"hexadecimal":8533,"cmpeq":8534,"2a":8535,"3a":8536,"4b":8537,"ji":8538,"ny":8539,"ou":8540,"pal":8541,"uped":8542,"vul":8543,"x11":8544,"reconfiguration":8545,"reconnect":8546,"ascent":8547,"lods":8548,"ldaps":8549,"setsockopt":8550,"ssn":8551,"moun":8552,"dove":8553,"lens":8554,"accur":8555,"usb":8556,"preburn":8557,"fronts":8558,"canop":8559,"orders":8560,"senders":8561,"mac1":8562,"unistd":8563,"producers":8564,"contacts":8565,"ec2container":8566,"starling":8567,"painting":8568,"20130630":8569,"ucs2":8570,"synthesis":8571,"scrollable":8572,"epi":8573,"ict":8574,"linter":8575,"s6":8576,"spect":8577,"reput":8578,"id2":8579,"rum":8580,"caf":8581,"caret":8582,"0032":8583,"0022":8584,"shield":8585,"faq":8586,"obso":8587,"sums":8588,"104":8589,"1011":8590,"minim":8591,"hole":8592,"postorder":8593,"000c":8594,"view1":8595,"loopne":8596,"151":8597,"breaking":8598,"projective":8599,"exitcode":8600,"privkey":8601,"registries":8602,"pdpb":8603,"slee":8604,"revs":8605,"avr":8606,"authenticated":8607,"embedded":8608,"memberships":8609,"affects":8610,"introspection":8611,"jklmnop":8612,"entitlements":8613,"accessed":8614,"grease":8615,"vulkan":8616,"canopy":8617,"7a":8618,"aware":8619,"bun":8620,"freqs":8621,"hr":8622,"k7":8623,"mib":8624,"pname":8625,"s7":8626,"v5":8627,"wo":8628,"wer":8629,"zn":8630,"deboun":8631,"0x1234":8632,"urus":8633,"ters":8634,"wrappers":8635,"testnet":8636,"begv":8637,"path2":8638,"line2":8639,"sigset":8640,"disallow":8641,"cliargs":8642,"backface":8643,"129":8644,"plant":8645,"sockets":8646,"multil":8647,"markers":8648,"rm64":8649,"carller":8650,"lnk":8651,"uintptr":8652,"octet":8653,"calculated":8654,"combinator":8655,"firewall":8656,"flavor":8657,"thesaurus":8658,"reputation":8659,"rumble":8660,"cliargsparser":8661,"carllerche":8662,"0123456789":8663,"1000000":8664,"ach":8665,"rsh":8666,"s9":8667,"t4":8668,"witch":8669,"toc":8670,"chap":8671,"chip":8672,"exc":8673,"conic":8674,"fauce":8675,"displacements":8676,"complement":8677,"info2":8678,"rowspan":8679,"hashing":8680,"replic":8681,"grace":8682,"phdr":8683,"smr":8684,"lump":8685,"dropping":8686,"transformer":8687,"tons":8688,"multiplier":8689,"factors":8690,"compiling":8691,"psis":8692,"symlinks":8693,"presigned":8694,"inflate":8695,"authorizers":8696,"bbbbbbbb":8697,"danger":8698,"interners":8699,"exercise":8700,"nightly":8701,"faucet":8702,"7f":8703,"b10":8704,"cstring":8705,"eip":8706,"fpu":8707,"gre":8708,"hscroll":8709,"las":8710,"nv":8711,"saddr":8712,"x509":8713,"relu":8714,"alpn":8715,"ari":8716,"resized":8717,"unnecessary":8718,"liveness":8719,"magn":8720,"prototypes":8721,"tim":8722,"line1":8723,"preconditions":8724,"prepopulated":8725,"invalidations":8726,"offline":8727,"graded":8728,"0x5505":8729,"haz":8730,"nondec":8731,"graphic":8732,"rightmost":8733,"cxt":8734,"migrated":8735,"caron":8736,"cyan":8737,"literals":8738,"licenses":8739,"ogg":8740,"occlu":8741,"shipping":8742,"uvw":8743,"npm":8744,"emscript":8745,"auxili":8746,"neighbor":8747,"designated":8748,"dialect":8749,"utf8mb4bin":8750,"classes":8751,"pulse":8752,"beyond":8753,"emscripten":8754,"2c":8755,"737":8756,"bm":8757,"ium":8758,"tk":8759,"wan":8760,"mp4":8761,"mpid":8762,"icc":8763,"lowest":8764,"compactions":8765,"addressing":8766,"netns":8767,"miss":8768,"associat":8769,"rotated":8770,"lexicon":8771,"overview":8772,"timestamps":8773,"ligatures":8774,"223":8775,"cyclic":8776,"429":8777,"bbb":8778,"bigger":8779,"smbhdr":8780,"proposals":8781,"26h":8782,"gitignore":8783,"goodbye":8784,"ipv6addr":8785,"prevotes":8786,"999999":8787,"cycles":8788,"kdeconnect":8789,"architecture":8790,"hazard":8791,"0u16":8792,"8000":8793,"nl":8794,"rdata":8795,"v2014":8796,"eresis":8797,"onal":8798,"advisor":8799,"fort":8800,"ational":8801,"refine":8802,"retire":8803,"racker":8804,"arg7":8805,"pream":8806,"interconnect":8807,"tps":8808,"expects":8809,"spin":8810,"nonzero":8811,"ongo":8812,"joining":8813,"smart":8814,"smalle":8815,"tcb":8816,"termino":8817,"notebook":8818,"depends":8819,"2233":8820,"503":8821,"pdl":8822,"427":8823,"0218":8824,"sale":8825,"cgmath":8826,"0623":8827,"backwards":8828,"consists":8829,"diaeresis":8830,"evict":8831,"panicked":8832,"vincent":8833,"preamble":8834,"smallest":8835,"180":8836,"bject":8837,"e7":8838,"eff":8839,"hg":8840,"preserved":8841,"rid":8842,"tst":8843,"zset":8844,"released":8845,"res2":8846,"resu":8847,"resident":8848,"unmap":8849,"unshare":8850,"codename":8851,"upgraded":8852,"0036":8853,"writeset":8854,"causes":8855,"beta":8856,"reg2":8857,"evol":8858,"presets":8859,"preboot":8860,"anyway":8861,"10px":8862,"ptrs":8863,"tempids":8864,"webrtc":8865,"1970":8866,"cmpsd":8867,"cars":8868,"district":8869,"looks":8870,"legs":8871,"lapic":8872,"morph":8873,"budgets":8874,"20150623":8875,"semble":8876,"attempting":8877,"bootstrapped":8878,"introspect":8879,"oooooooooooooooo":8880,"20150413":8881,"daemonize":8882,"callee":8883,"20150824":8884,"wanted":8885,"bpt":8886,"dms":8887,"fre":8888,"hits":8889,"srtp":8890,"mechan":8891,"toler":8892,"strs":8893,"size16":8894,"fade":8895,"htm":8896,"122":8897,"xmlns":8898,"envvar":8899,"cats":8900,"orgs":8901,"classic":8902,"restapis":8903,"immediate16":8904,"stickiness":8905,"authorizations":8906,"purpose":8907,"768":8908,"affine":8909,"suppressed":8910,"leftover":8911,"luminance":8912,"bptc":8913,"1f32":8914,"5f32":8915,"720":8916,"elicit":8917,"gg":8918,"vdev":8919,"xi":8920,"inlined":8921,"lorem":8922,"stra":8923,"lake":8924,"ssrc":8925,"doll":8926,"atable":8927,"listing":8928,"notation":8929,"qux":8930,"hasn":8931,"grouped":8932,"105":8933,"126":8934,"transformation":8935,"templated":8936,"maintain":8937,"panel":8938,"fdstat":8939,"scoped":8940,"associates":8941,"popularity":8942,"immediate64":8943,"██╗":8944,"ebs":8945,"aes128":8946,"nail":8947,"datatypes":8948,"float64type":8949,"001c":8950,"coordinator":8951,"introdu":8952,"potentially":8953,"experimental":8954,"eviction":8955,"substitute":8956,"testarrayofstring":8957,"aneous":8958,"breve":8959,"dollar":8960,"48usize":8961,"80000":8962,"aur":8963,"dname":8964,"qt":8965,"vint":8966,"inity":8967,"att":8968,"ater":8969,"decompressed":8970,"unmasked":8971,"chrom":8972,"requesting":8973,"reg1":8974,"endblock":8975,"backoff":8976,"syms":8977,"skil":8978,"amazonswf":8979,"searching":8980,"successors":8981,"scopestart":8982,"estimated":8983,"places":8984,"surf":8985,"fetched":8986,"matrix4":8987,"microtraffic":8988,"detached":8989,"accelerators":8990,"determines":8991,"20130218":8992,"positionals":8993,"similarity":8994,"affinity":8995,"dangling":8996,"hibited":8997,"zigzag":8998,"regardless":8999,"evolved":9000,"chromium":9001,"8e":9002,"f36":9003,"ik":9004,"mf":9005,"nation":9006,"sso":9007,"z3":9008,"数据":9009,"ath":9010,"uname":9011,"gep":9012,"lode":9013,"005":9014,"test3":9015,"raise":9016,"readme":9017,"outset":9018,"sighup":9019,"block1":9020,"ipsum":9021,"curl":9022,"crt":9023,"logdir":9024,"spelling":9025,"commas":9026,"handlebars":9027,"000d":9028,"authorities":9029,"implements":9030,"cloudwatch":9031,"200d":9032,"installer":9033,"eady":9034,"padded":9035,"0x55u8":9036,"schemes":9037,"wakeup":9038,"blessed":9039,"turk":9040,"clamping":9041,"vocab":9042,"btn":9043,"represented":9044,"obtained":9045,"personalize":9046,"vegetation":9047,"adjacency":9048,"ongoing":9049,"bix":9050,"cw":9051,"d4":9052,"fst":9053,"g3":9054,"nable":9055,"nick":9056,"sint64":9057,"steady":9058,"atlas":9059,"announ":9060,"unindent":9061,"uncacheable":9062,"ately":9063,"opted":9064,"contig":9065,"1212":9066,"stylist":9067,"0009":9068,"joined":9069,"zeroing":9070,"rel16":9071,"504":9072,"multipage":9073,"sheets":9074,"enumeration":9075,"s3object":9076,"radians":9077,"duplicated":9078,"483":9079,"strike":9080,"complexity":9081,"zola":9082,"negotiation":9083,"ecdhe":9084,"exceeds":9085,"proxied":9086,"improve":9087,"hapg":9088,"qrstuvw":9089,"associativity":9090,"2u64":9091,"3b":9092,"4000":9093,"econn":9094,"fz":9095,"g2":9096,"jso":9097,"nack":9098,"yml":9099,"z2":9100,"enet":9101,"ionally":9102,"chown":9103,"nofile":9104,"igns":9105,"kevent":9106,"oney":9107,"keyframes":9108,"mention":9109,"iler":9110,"sigus":9111,"various":9112,"located":9113,"0x0002":9114,"graphs":9115,"000e":9116,"skiplist":9117,"flo32":9118,"webp":9119,"authorize":9120,"1003":9121,"ccw":9122,"normalization":9123,"partially":9124,"feeds":9125,"trimmed":9126,"distro":9127,"folding":9128,"decryptor":9129,"likes":9130,"hardware":9131,"bgra32":9132,"ceiling":9133,"sketch":9134,"permanently":9135,"jsobject":9136,"1click":9137,"100000":9138,"6h":9139,"dut":9140,"fy":9141,"fdef":9142,"k6":9143,"krate":9144,"wned":9145,"realloc":9146,"infallible":9147,"coal":9148,"adb":9149,"ulating":9150,"lis":9151,"typedef":9152,"buf1":9153,"agement":9154,"deriv":9155,"saving":9156,"functional":9157,"manip":9158,"nonoverlapping":9159,"src2":9160,"myprog":9161,"packs":9162,"resolving":9163,"authors":9164,"initializing":9165,"boundaries":9166,"overhead":9167,"rm16":9168,"detects":9169,"clai":9170,"triple":9171,"assumes":9172,"prepared":9173,"u8u8u8u8":9174,"secretsmanager":9175,"rained":9176,"restrictions":9177,"33333333":9178,"002e":9179,"iot1click":9180,"contributor":9181,"invoked":9182,"welcome":9183,"refinement":9184,"contiguous":9185,"440":9186,"g5":9187,"gy":9188,"gled":9189,"held":9190,"lite":9191,"mpeg":9192,"money":9193,"nc":9194,"nf":9195,"pm":9196,"pbo":9197,"wit":9198,"xdx":9199,"seven":9200,"prohibited":9201,"vecs":9202,"moment":9203,"diver":9204,"dispose":9205,"evts":9206,"modb":9207,"backtest":9208,"backspace":9209,"207":9210,"0x100":9211,"159":9212,"older":9213,"142":9214,"button1":9215,"elasticfilesystem":9216,"periodic":9217,"specialized":9218,"fuzzing":9219,"synchronous":9220,"entirely":9221,"dynamodb":9222,"problems":9223,"abcdefghijklmnop":9224,"degrees":9225,"multiline":9226,"freed":9227,"surfman":9228,"coales":9229,"90000":9230,"ache":9231,"bk":9232,"g9":9233,"n0":9234,"varg":9235,"vity":9236,"w8":9237,"zed":9238,"╚═╝":9239,"remap":9240,"st0":9241,"uter":9242,"uncommitted":9243,"think":9244,"newtype":9245,"mat2":9246,"noscript":9247,"vec1":9248,"beuter":9249,"64usize":9250,"path1":9251,"esi":9252,"countries":9253,"hassh":9254,"emulation":9255,"log2":9256,"124":9257,"orderable":9258,"gravity":9259,"postcondition":9260,"113":9261,"0003":9262,"rgtc":9263,"transport2":9264,"transports":9265,"frontmatter":9266,"continues":9267,"183":9268,"consuming":9269,"gradients":9270,"seedable":9271,"balanceid":9272,"0x8632":9273,"comes":9274,"bgra8":9275,"4967":9276,"float32array":9277,"nibbles":9278,"traps":9279,"newsbeuter":9280,"003c":9281,"sexp":9282,"sozubalanceid":9283,"robustness":9284,"3usize":9285,"92233":9286,"fw":9287,"ices":9288,"nfa":9289,"rbuf":9290,"sfixed32":9291,"ua":9292,"unscanned":9293,"apot":9294,"soon":9295,"neither":9296,"lize":9297,"teapot":9298,"poke":9299,"003e":9300,"msrs":9301,"sccache":9302,"bom":9303,"bots":9304,"defaultcf":9305,"hasis":9306,"group2":9307,"etur":9308,"tokenized":9309,"bools":9310,"aa5":9311,"framer":9312,"20usize":9313,"sdp":9314,"cmds":9315,"257":9316,"merges":9317,"providing":9318,"integerv":9319,"dsl":9320,"s3resources":9321,"strategies":9322,"trails":9323,"x05":9324,"██╔":9325,"aggregates":9326,"xmm1":9327,"assessments":9328,"analyses":9329,"spreads":9330,"rasterizer":9331,"gives":9332,"busybox":9333,"0b0100":9334,"alphabetic":9335,"bumps":9336,"panicking":9337,"emphasis":9338,"prerele":9339,"auxiliary":9340,"4294967":9341,"straight":9342,"1101":9343,"bn":9344,"fms":9345,"gz":9346,"hc":9347,"lsh":9348,"s12":9349,"tical":9350,"t123":9351,"wchar":9352,"zrem":9353,"dealer":9354,"lead":9355,"contra":9356,"nope":9357,"resps":9358,"promo":9359,"thetical":9360,"pothetical":9361,"0034":9362,"readpool":9363,"pathseg":9364,"say":9365,"serializing":9366,"bytestring":9367,"memtable":9368,"modu":9369,"specpdl":9370,"frin":9371,"account1":9372,"abling":9373,"colormap":9374,"existence":9375,"engagement":9376,"el1":9377,"resolv":9378,"swgl":9379,"copyright":9380,"label1":9381,"datums":9382,"sentine":9383,"linger":9384,"spawner":9385,"rm32":9386,"statistic":9387,"shadowsocks":9388,"hypothetical":9389,"1234567890":9390,"recipes":9391,"kbd":9392,"musl":9393,"granularity":9394,"77777777":9395,"suppression":9396,"fqn":9397,"20180704":9398,"satisfied":9399,"mpidr":9400,"eliciting":9401,"skills":9402,"nickel":9403,"duty":9404,"900":9405,"c12":9406,"dbus":9407,"emo":9408,"eserialize":9409,"kno":9410,"lng":9411,"nip":9412,"tor":9413,"v11":9414,"xsp":9415,"retransmit":9416,"als":9417,"mesa":9418,"proactive":9419,"theus":9420,"codeguru":9421,"ssa":9422,"scoring":9423,"opc":9424,"sigaction":9425,"worth":9426,"tx3":9427,"0x0006":9428,"runnable":9429,"checkpoints":9430,"subr":9431,"defines":9432,"displayed":9433,"catnip":9434,"joblog":9435,"115":9436,"clears":9437,"level0":9438,"definite":9439,"automation":9440,"planner":9441,"restar":9442,"effort":9443,"vascript":9444,"pseudovector":9445,"initiated":9446,"underflow":9447,"56usize":9448,"0a0a":9449,"proposers":9450,"separately":9451,"reservations":9452,"e820":9453,"elasticache":9454,"observ":9455,"ellipse":9456,"shuffle":9457,"sentinel":9458,"0100":9459,"345":9460,"e5":9461,"hop":9462,"hart":9463,"ilio":9464,"kick":9465,"nic":9466,"oom":9467,"pwd":9468,"tint":9469,"uc":9470,"reconfigure":9471,"ener":9472,"enroll":9473,"metheus":9474,"ching":9475,"conven":9476,"getattr":9477,"prometheus":9478,"0050h":9479,"shown":9480,"icant":9481,"faster":9482,"648":9483,"saw":9484,"statfs":9485,"preblock":9486,"sense":9487,"emilio":9488,"safely":9489,"supervise":9490,"view2":9491,"downscale":9492,"txn1":9493,"utf8error":9494,"privacy":9495,"disables":9496,"shows":9497,"texcoord":9498,"x08":9499,"underscore":9500,"0000000000000040h":9501,"f040h":9502,"5433":9503,"delimiters":9504,"bgp":9505,"00000040h":9506,"uptime":9507,"ikev1":9508,"javascript":9509,"picking":9510,"22222222":9511,"ught":9512,"rangebyscore":9513,"killed":9514,"chrome":9515,"ariables":9516,"emoji":9517,"restarted":9518,"016":9519,"1s":9520,"d5":9521,"mx":9522,"osupport":9523,"pv4":9524,"r13":9525,"inhibit":9526,"deci":9527,"itive":9528,"ression":9529,"unmatched":9530,"0038":9531,"rich":9532,"okay":9533,"stateful":9534,"parses":9535,"precache":9536,"ip32":9537,"ipproto":9538,"messaging":9539,"offs":9540,"txq":9541,"103":9542,"10ff":9543,"spawned":9544,"debugging":9545,"hostcall":9546,"shortcode":9547,"efgh":9548,"normally":9549,"counter1":9550,"uniqu":9551,"approve":9552,"cp1":9553,"3600":9554,"x07":9555,"rrtype":9556,"dxt1":9557,"ffffffffffffffff":9558,"benchmarks":9559,"idempotency":9560,"burst":9561,"iiii":9562,"campaigns":9563,"guarantee":9564,"deterministic":9565,"touched":9566,"robomaker":9567,"nfsproc3":9568,"debounced":9569,"72036":9570,"mentioned":9571,"9223372036":9572,"6usize":9573,"654":9574,"bx":9575,"gent":9576,"gover":9577,"hm":9578,"rns":9579,"v2017":9580,"ym":9581,"ymd":9582,"eres":9583,"asian":9584,"ctures":9585,"apache":9586,"adam":9587,"usec":9588,"mable":9589,"disposition":9590,"tplace":9591,"tprint":9592,"dated":9593,"vartime":9594,"sentry":9595,"memcpy":9596,"gency":9597,"crlf":9598,"bitwise":9599,"subfield":9600,"rtl":9601,"color8":9602,"stylesheets":9603,"footprint":9604,"supertype":9605,"linker":9606,"elded":9607,"dingbat":9608,"goaway":9609,"cmpsw":9610,"cmpsb":9611,"suric":9612,"securityhub":9613,"texel":9614,"handshakes":9615,"randomnumber":9616,"legend":9617,"s3client":9618,"uploading":9619,"sampler1d":9620,"datagram1":9621,"yielded":9622,"happened":9623,"eeee":9624,"float32type":9625,"navigate":9626,"celebrities":9627,"predictions":9628,"leaked":9629,"20150416":9630,"xxxxxxxxxxxxxxxx":9631,"extras":9632,"marketplace":9633,"eliminate":9634,"9223372036854":9635,"301":9636,"7u8":9637,"bb0":9638,"h5":9639,"h7":9640,"rk":9641,"sfixed64":9642,"stm":9643,"mega":9644,"pedia":9645,"is64":9646,"vel":9647,"prov":9648,"somewhere":9649,"0041":9650,"mssp":9651,"sho":9652,"obarray":9653,"configpaths":9654,"compla":9655,"time1":9656,"169":9657,"hashed":9658,"areas":9659,"basename":9660,"fts":9661,"temper":9662,"tempid":9663,"odcid":9664,"ords":9665,"000b":9666,"amazonclouddirectory":9667,"elf64":9668,"monito":9669,"808":9670,"notes":9671,"receives":9672,"reachability":9673,"carrier":9674,"cbc":9675,"transfers":9676,"brokers":9677,"factorial":9678,"xmm3":9679,"0810":9680,"selves":9681,"situation":9682,"bundles":9683,"ntlmssp":9684,"u2f":9685,"pagers":9686,"exhausted":9687,"discriminator":9688,"varyings":9689,"resumed":9690,"abcdefghijklmnopqrstuvw":9691,"429496729":9692,"modulo":9693,"1k":9694,"1127":9695,"2147":9696,"blink":9697,"bcst":9698,"cz":9699,"ew":9700,"jni":9701,"k9":9702,"lfs":9703,"nance":9704,"rap":9705,"uard":9706,"wrote":9707,"xt":9708,"debu":9709,"deca":9710,"proven":9711,"ssian":9712,"reguard":9713,"creat":9714,"fe4f":9715,"fixup":9716,"backfill":9717,"minmax":9718,"fron":9719,"store1":9720,"haven":9721,"crates":9722,"ir4":9723,"mymod":9724,"114":9725,"pipelined":9726,"open0":9727,"txn2":9728,"ease":9729,"credit":9730,"bitsfield":9731,"close0":9732,"freedesktop":9733,"rpcclient":9734,"traitm":9735,"clam":9736,"braces":9737,"drag":9738,"4444":9739,"erialize":9740,"xmmm128":9741,"requirement":9742,"0x5432":9743,"confirmations":9744,"20171127":9745,"dwrote":9746,"wireguard":9747,"scasb":9748,"scasw":9749,"equip":9750,"banner":9751,"u4u4":9752,"u10u10":9753,"501ef":9754,"terminology":9755,"framerate":9756,"contrast":9757,"knows":9758,"enrollment":9759,"governance":9760,"monitored":9761,"etag":9762,"hz":9763,"jem":9764,"lru":9765,"mur":9766,"rto":9767,"v2015":9768,"xctx":9769,"zs":9770,"rewind":9771,"orb":9772,"decess":9773,"unorm":9774,"neq":9775,"atest":9776,"idio":9777,"tech":9778,"forall":9779,"upted":9780,"0046":9781,"len255":9782,"64bit":9783,"predecess":9784,"ambig":9785,"varint64":9786,"0x0008":9787,"rayon":9788,"impls":9789,"snappy":9790,"quee":9791,"haha":9792,"gui":9793,"pcwal":9794,"opener":9795,"rotating":9796,"144":9797,"traceable":9798,"kvrpc":9799,"2345":9800,"resolves":9801,"x04":9802,"strides":9803,"interrupted":9804,"corruption":9805,"inferred":9806,"scasd":9807,"vsib64":9808,"bias":9809,"friend":9810,"disassembler":9811,"collision":9812,"modulus":9813,"bm25":9814,"provenance":9815,"len255deserializer":9816,"pcwalton":9817,"kvrpcpb":9818,"767":9819,"cdef":9820,"gd":9821,"gdt":9822,"ntest":9823,"nbits":9824,"ndigits":9825,"overt":9826,"rcode":9827,"rdr":9828,"rsv":9829,"sf":9830,"spark":9831,"xattr":9832,"to64":9833,"unrelated":9834,"mutated":9835,"adc":9836,"ingress":9837,"lim":9838,"isak":9839,"caching":9840,"puts":9841,"nameservers":9842,"dil":9843,"328":9844,"acm":9845,"fee":9846,"evented":9847,"perms":9848,"offscreen":9849,"backlog":9850,"submodule":9851,"subdomains":9852,"gln":9853,"irectional":9854,"replacing":9855,"absent":9856,"2097":9857,"cloexec":9858,"entry2":9859,"heights":9860,"mono":9861,"cpuset":9862,"heading":9863,"although":9864,"xx00":9865,"guardduty":9866,"bb1":9867,"231":9868,"crossing":9869,"cdab":9870,"comparing":9871,"bounce":9872,"nfs3":9873,"sitter":9874,"keepalives":9875,"rounds4":9876,"pruned":9877,"003a":9878,"privileged":9879,"friends":9880,"touches":9881,"immediate32to64":9882,"sleeper":9883,"debugln":9884,"jemalloc":9885,"isakmp":9886,"132":9887,"567":9888,"700":9889,"b11":9890,"dce":9891,"gf":9892,"hue":9893,"ky":9894,"knn":9895,"rh":9896,"tbody":9897,"v2019":9898,"wand":9899,"wks":9900,"xz":9901,"erased":9902,"ank":9903,"chen":9904,"exposed":9905,"getpid":9906,"ldb":9907,"parity":9908,"0040":9909,"taking":9910,"ramp":9911,"clon":9912,"readwrite":9913,"bypassed":9914,"counted":9915,"block2":9916,"oldest":9917,"ipng":9918,"info1":9919,"exps":9920,"168":9921,"hash2":9922,"temppath":9923,"bugs":9924,"0x400000":9925,"wayland":9926,"skips":9927,"fsx":9928,"supply":9929,"successor":9930,"bring":9931,"closest":9932,"spawning":9933,"finishes":9934,"guards":9935,"externs":9936,"costs":9937,"broadcaster":9938,"x09":9939,"mvp":9940,"xmm0":9941,"000000000000000":9942,"kinesisvideo":9943,"overlays":9944,"slowdown":9945,"displacement64":9946,"representative":9947,"tdn":9948,"nrf5":9949,"vsib32":9950,"002a":9951,"translations":9952,"parenthesis":9953,"ascending":9954,"immediate8to64":9955,"oxipng":9956,"witx":9957,"0i64":9958,"024":9959,"2f64":9960,"6d":9961,"8state":9962,"aac":9963,"cinfo":9964,"cds":9965,"dent":9966,"eh":9967,"elect":9968,"nar":9969,"pdb":9970,"t00":9971,"vgic":9972,"in6":9973,"ined":9974,"tol":9975,"animated":9976,"unsorted":9977,"unescape":9978,"exam":9979,"soa":9980,"adic":9981,"izz":9982,"tru":9983,"pats":9984,"outdated":9985,"stateless":9986,"context2d":9987,"anymore":9988,"backlight":9989,"bitrange":9990,"109":9991,"gls":9992,"numbering":9993,"traction":9994,"inserting":9995,"missed":9996,"batch1":9997,"batched":9998,"1113":9999,"partuuid":10000,"commits":10001,"pingreq":10002,"needless":10003,"attache":10004,"bb2":10005,"2840":10006,"4467":10007,"dynamically":10008,"paginate":10009,"rbx":10010,"http2event":10011,"turbo":10012,"bs8state":10013,"occurs":10014,"decorations":10015,"alternation":10016,"w3c":10017,"fortunes":10018,"weekday":10019,"crypter":10020,"categorize":10021,"uleb128":10022,"witcher":10023,"overture":10024,"2097151":10025,"3rd":10026,"8u8":10027,"dwrite":10028,"g0":10029,"g4":10030,"g8":10031,"gfp":10032,"iro":10033,"minfo":10034,"mill":10035,"nlines":10036,"qps":10037,"zm":10038,"zoo":10039,"█╗":10040,"sea":10041,"enforce":10042,"devi":10043,"coeff":10044,"sode":10045,"idf":10046,"urious":10047,"isatty":10048,"prof":10049,"mpf":10050,"outdent":10051,"tip":10052,"tipb":10053,"acq":10054,"lockfile":10055,"sigmask":10056,"spaced":10057,"opticon":10058,"panopticon":10059,"swizz":10060,"medialive":10061,"supplier":10062,"produced":10063,"datas":10064,"rolled":10065,"807":10066,"got2":10067,"sysroot":10068,"attack":10069,"migrating":10070,"kitchen":10071,"184467":10072,"implementing":10073,"sin6":10074,"opsz":10075,"disassociates":10076,"tabstop":10077,"standby":10078,"offers":10079,"prevents":10080,"000000000000000000000000":10081,"transcribe":10082,"════":10083,"translated":10084,"20120810":10085,"yyy":10086,"────────────────────────":10087,"interpretation":10088,"avx512":10089,"nfsproc4":10090,"polled":10091,"episode":10092,"fringe":10093,"suricata":10094,"decay":10095,"gfp256":10096,"fuid":10097,"lss":10098,"pstate":10099,"rfind":10100,"sage":10101,"tmm":10102,"vargs":10103,"v2016":10104,"xgc":10105,"zx":10106,"unquote":10107,"unfortun":10108,"unrestricted":10109,"tevent":10110,"parking":10111,"refused":10112,"doctype":10113,"die":10114,"matchstmt":10115,"int4":10116,"buffer2":10117,"sudo":10118,"grocer":10119,"numer":10120,"spurious":10121,"variadic":10122,"rowgroup":10123,"0x0001":10124,"hood":10125,"transient":10126,"structmatch":10127,"imagefilter":10128,"childwidget":10129,"tree1":10130,"networking":10131,"datom":10132,"redsh":10133,"sv20160":10134,"304":10135,"freez":10136,"555":10137,"26c":10138,"python3":10139,"delays":10140,"hiber":10141,"444":10142,"circu":10143,"datagram2":10144,"highlighting":10145,"suites":10146,"entered":10147,"5432":10148,"humans":10149,"789":10150,"minibuffer":10151,"immediate8to16":10152,"wikipedia":10153,"bonus":10154,"removal":10155,"minimize":10156,"dangerous":10157,"htmle":10158,"clamped":10159,"501efcdab":10160,"sv20160101":10161,"233":10162,"6u8":10163,"7c":10164,"9c":10165,"bv":10166,"iw":10167,"iec":10168,"kni":10169,"lpad":10170,"north":10171,"pit":10172,"sate":10173,"vmov":10174,"yd":10175,"yarn":10176,"zmq":10177,"reused":10178,"onential":10179,"stfl":10180,"semanu":10181,"ensive":10182,"town":10183,"undeprecate":10184,"errorpb":10185,"sosemanu":10186,"netes":10187,"issu":10188,"somehow":10189,"bez":10190,"sigma":10191,"eving":10192,"parse2":10193,"rency":10194,"neditor":10195,"actix":10196,"exponential":10197,"tarpc":10198,"bernetes":10199,"dbname":10200,"array2":10201,"runst":10202,"libname":10203,"20px":10204,"hawks":10205,"concaten":10206,"splitting":10207,"141":10208,"executors":10209,"flushed":10210,"fetcher":10211,"devs":10212,"dicts":10213,"inherits":10214,"interested":10215,"flexbuffer":10216,"mismatched":10217,"archives":10218,"parens":10219,"rasterized":10220,"transparency":10221,"determined":10222,"immediate8to32":10223,"coerce":10224,"pieces":10225,"kubernetes":10226,"tutorials":10227,"73709":10228,"44073709":10229,"prerelease":10230,"18446744073709":10231,"sosemanuk":10232,"0d":10233,"csp":10234,"gcs":10235,"hms":10236,"k8":10237,"lut":10238,"mu":10239,"ple":10240,"slen":10241,"uption":10242,"vring":10243,"yank":10244,"atan":10245,"rock":10246,"cedil":10247,"unlocked":10248,"charg":10249,"conv2":10250,"rusty":10251,"andb":10252,"0019":10253,"0023":10254,"wraps":10255,"umask":10256,"pable":10257,"paired":10258,"oking":10259,"intspec":10260,"arg8":10261,"line3":10262,"says":10263,"evset":10264,"interp":10265,"combo":10266,"ip4":10267,"group1":10268,"dir2":10269,"schema1":10270,"00008080h":10271,"ampl":10272,"srcdir":10273,"117":10274,"v2job":10275,"routers":10276,"8060":10277,"149":10278,"cmpl":10279,"registrar":10280,"888":10281,"titandb":10282,"evaluations":10283,"suspect":10284,"keeping":10285,"carry4":10286,"lintsrc":10287,"0000000000008080h":10288,"necessarily":10289,"radio":10290,"interruption":10291,"crawlers":10292,"persisted":10293,"80000000000000":10294,"obstacles":10295,"coerc":10296,"9223372036854775":10297,"provoking":10298,"nrf52840":10299,"hibern":10300,"cedilla":10301,"8060h":10302,"1st":10303,"4c":10304,"clob":10305,"dfs":10306,"dpr":10307,"eaddr":10308,"h8":10309,"hind":10310,"hbox":10311,"haps":10312,"kk":10313,"k11":10314,"mr":10315,"m32":10316,"otype":10317,"pkey":10318,"sstr":10319,"snow":10320,"targ":10321,"tdeps":10322,"v20161128":10323,"zc":10324,"znear":10325,"zfar":10326,"rethrow":10327,"alized":10328,"dequeue":10329,"arches":10330,"robin":10331,"cose":10332,"coop":10333,"apo":10334,"firec":10335,"trad":10336,"icating":10337,"dos":10338,"favi":10339,"behind":10340,"wave":10341,"heur":10342,"time0":10343,"perhaps":10344,"0x0010":10345,"0x0004":10346,"0x000a":10347,"baud":10348,"hash1":10349,"dbs":10350,"hope":10351,"inlines":10352,"deduce":10353,"condvar":10354,"portion":10355,"takeable":10356,"fsm":10357,"uds":10358,"programming":10359,"cmpsq":10360,"helpful":10361,"6767":10362,"flushing":10363,"accepting":10364,"driven":10365,"trailers":10366,"1234567":10367,"algorithms":10368,"clicked":10369,"rigid":10370,"retained":10371,"treats":10372,"retrieving":10373,"stosd":10374,"eye":10375,"practice":10376,"eturns":10377,"examine":10378,"htmlelement":10379,"bezier":10380,"coercion":10381,"clobber":10382,"firecracker":10383,"232":10384,"3i":10385,"7usize":10386,"eis":10387,"fu32":10388,"hmap":10389,"ij":10390,"jit":10391,"kn":10392,"mvec":10393,"osc":10394,"rf":10395,"vnet":10396,"wss":10397,"ream":10398,"onto":10399,"atter":10400,"tocode":10401,"unblock":10402,"cool":10403,"serv":10404,"chance":10405,"idat":10406,"consec":10407,"forloop":10408,"upon":10409,"0021":10410,"004e":10411,"shop":10412,"shallow":10413,"ril":10414,"32f":10415,"cls":10416,"acks":10417,"wav":10418,"acct":10419,"statvfs":10420,"evp":10421,"sentries":10422,"bitor":10423,"subclass":10424,"mainloop":10425,"fffd":10426,"hair":10427,"facets":10428,"panner":10429,"latitude":10430,"amzn":10431,"casts":10432,"instr2":10433,"bar1":10434,"timeouts":10435,"swit":10436,"autoload":10437,"importing":10438,"repeating":10439,"maskmov":10440,"planes":10441,"sha2":10442,"allocs":10443,"descent":10444,"traitf":10445,"brown":10446,"interesting":10447,"x0c":10448,"elections":10449,"years":10450,"aessa":10451,"cribes":10452,"representing":10453,"fourth":10454,"copies":10455,"eucl":10456,"belongs":10457,"highlighted":10458,"propagated":10459,"huge":10460,"mounts":10461,"linters":10462,"v20141113":10463,"swizzle":10464,"────────────────────────────":10465,"circuit":10466,"1844674407370955":10467,"consecut":10468,"aessafe":10469,"0px":10470,"0101":10471,"8a":10472,"eted":10473,"eigh":10474,"g7":10475,"iy":10476,"jint":10477,"mpty":10478,"pck":10479,"uf":10480,"vps":10481,"wc":10482,"went":10483,"zf":10484,"rejection":10485,"reprocessing":10486,"invol":10487,"searches":10488,"erring":10489,"arri":10490,"tock":10491,"lem":10492,"roto":10493,"untrusted":10494,"coo":10495,"socat":10496,"ada":10497,"shdr":10498,"shorth":10499,"verts":10500,"icmp":10501,"writeable":10502,"keyed":10503,"keyframe":10504,"msg2":10505,"locking":10506,"iterable":10507,"precomputed":10508,"llite":10509,"spinner":10510,"rawfd":10511,"immer":10512,"workaround":10513,"pointing":10514,"pictures":10515,"ably":10516,"graphy":10517,"transform3d":10518,"label2":10519,"pkcs":10520,"printf":10521,"ularies":10522,"got1":10523,"immediate2":10524,"179":10525,"partitioner":10526,"assigns":10527,"consumption":10528,"concurrently":10529,"vcpus":10530,"carry0":10531,"carry6":10532,"carry7":10533,"carry8":10534,"carry9":10535,"int8array":10536,"0b0000":10537,"internally":10538,"horn":10539,"compliant":10540,"turns":10541,"connectors":10542,"gaussian":10543,"80808080":10544,"suggesters":10545,"landmark":10546,"copiable":10547,"iously":10548,"scasq":10549,"trivially":10550,"communication":10551,"treated":10552,"easier":10553,"accuracy":10554,"vocabularies":10555,"announced":10556,"fwmark":10557,"satellite":10558,"tradition":10559,"favicon":10560,"consecutive":10561,"shorthand":10562,"immersive":10563,"1l":10564,"1f3":10565,"9b":10566,"dpi":10567,"eba":10568,"h6":10569,"iet":10570,"lk":10571,"mnt":10572,"sname":10573,"s10":10574,"tend":10575,"inprefix":10576,"ena":10577,"alist":10578,"almost":10579,"utter":10580,"debt":10581,"unannotated":10582,"conv1":10583,"conv4":10584,"conv3":10585,"0017":10586,"tact":10587,"faux":10588,"dirent":10589,"divid":10590,"fov":10591,"keygen":10592,"int2":10593,"outu":10594,"argc":10595,"647":10596,"sigint":10597,"signum":10598,"istics":10599,"commut":10600,"appmesh":10601,"logo":10602,"logins":10603,"subprocess":10604,"schema2":10605,"primes":10606,"tsx":10607,"imagebuilder":10608,"renderbuffers":10609,"decoders":10610,"000f":10611,"afterwards":10612,"movsd":10613,"exits":10614,"998":10615,"smallvec":10616,"seqnum":10617,"reaching":10618,"callable":10619,"alpha8":10620,"rgb8":10621,"426c":10622,"forwarding":10623,"cp2":10624,"quickly":10625,"brack":10626,"int16array":10627,"prefetch":10628,"staged":10629,"issued":10630,"hystart":10631,"trimed":10632,"mips":10633,"intents":10634,"parked":10635,"administrators":10636,"0o100":10637,"squared":10638,"123456789abcde":10639,"conv5":10640,"bgr32":10641,"concept":10642,"ellipsis":10643,"salsa20":10644,"temperature":10645,"2147483":10646,"ietf":10647,"023":10648,"5f64":10649,"697":10650,"cud":10651,"cgroups":10652,"c18":10653,"f14":10654,"pfa":10655,"rwnd":10656,"sad":10657,"u24":10658,"v201807":10659,"animal":10660,"unreach":10661,"unlikely":10662,"ctest":10663,"lol":10664,"fib":10665,"iden":10666,"is2d":10667,"edb":10668,"caught":10669,"someone":10670,"msg1":10671,"6466":10672,"expectation":10673,"http11":10674,"ip2":10675,"ip16":10676,"lly":10677,"appli":10678,"whence":10679,"offset64":10680,"0x0014":10681,"bitfields":10682,"workdocs":10683,"prikey":10684,"bases":10685,"ciate":10686,"eph":10687,"optval":10688,"dylib":10689,"typically":10690,"packer":10691,"thread1":10692,"photon":10693,"aaaaa":10694,"decentr":10695,"movsb":10696,"replaces":10697,"tails":10698,"134":10699,"sysctl":10700,"holds":10701,"fetches":10702,"reven":10703,"5555":10704,"tftp":10705,"folds":10706,"777":10707,"factur":10708,"tuned":10709,"dotdir":10710,"enosys":10711,"machines":10712,"liocb":10713,"purposes":10714,"mozjpeg":10715,"whoami":10716,"undos":10717,"recoverable":10718,"irqs":10719,"irqchip":10720,"experiments":10721,"inet6":10722,"injected":10723,"principals":10724,"20141006":10725,"paginators":10726,"excessive":10727,"manufactur":10728,"assuming":10729,"tolerance":10730,"frontier":10731,"attachee":10732,"charging":10733,"rotozoom":10734,"traditional":10735,"commutative":10736,"v20180706":10737,"decentralized":10738,"100000000":10739,"264":10740,"212":10741,"5d":10742,"h9":10743,"imaz":10744,"iops":10745,"l4":10746,"ris":10747,"son":10748,"slog":10749,"sory":10750,"s11":10751,"trent":10752,"vdq":10753,"youtu":10754,"zext":10755,"inary":10756,"enol":10757,"enabling":10758,"dealloc":10759,"memo":10760,"resum":10761,"exposes":10762,"ulsory":10763,"isy":10764,"forced":10765,"upgr":10766,"scatter":10767,"icious":10768,"matchguide":10769,"esuc":10770,"heav":10771,"jsmanaged":10772,"interop":10773,"interact":10774,"compulsory":10775,"checksums":10776,"hoist":10777,"account2":10778,"sendmsg":10779,"snorm":10780,"displays":10781,"ideas":10782,"119":10783,"instr1":10784,"movsw":10785,"overall":10786,"terminating":10787,"rates":10788,"unions":10789,"carol":10790,"suffixes":10791,"csr":10792,"covers":10793,"flexmatchguide":10794,"malicious":10795,"monitors":10796,"cga":10797,"slashes":10798,"corners":10799,"fortuna":10800,"sealed":10801,"d3now":10802,"8000000000000000h":10803,"upserts":10804,"dropo":10805,"weapons":10806,"assumption":10807,"lodsb":10808,"0123456789abcdef":10809,"数据库":10810,"manipulation":10811,"retransmits":10812,"unfortunately":10813,"hibernate":10814,"heuristic":10815,"bracketed":10816,"cuda":10817,"revenue":10818,"manufacturer":10819,"imazen":10820,"youtube":10821,"esuccess":10822,"heavy":10823,"1f4":10824,"8c":10825,"eol":10826,"fu64":10827,"gree":10828,"hence":10829,"ience":10830,"i24":10831,"l0":10832,"lsn":10833,"pv6":10834,"rkey":10835,"rmem":10836,"rpad":10837,"tas":10838,"tic":10839,"vn":10840,"viz":10841,"rebalance":10842,"invisible":10843,"inequality":10844,"ati":10845,"respect":10846,"topt":10847,"copr":10848,"looper":10849,"enta":10850,"ty1":10851,"getsockopt":10852,"sometimes":10853,"htt":10854,"outsw":10855,"outsb":10856,"fers":10857,"esp":10858,"mtx":10859,"described":10860,"time2":10861,"curly":10862,"explode":10863,"iovs":10864,"grind":10865,"dirname":10866,"0x0016":10867,"0x0012":10868,"maxim":10869,"cflags":10870,"speculated":10871,"10h":10872,"u64x2":10873,"0x7fff":10874,"winapi":10875,"00008000h":10876,"fffe":10877,"colorless":10878,"changeset":10879,"vail":10880,"pancurses":10881,"websocat":10882,"prk":10883,"peeked":10884,"10010":10885,"page1":10886,"240":10887,"extendee":10888,"pops":10889,"signalfd":10890,"begins":10891,"transferred":10892,"watching":10893,"negation":10894,"jelly":10895,"publishes":10896,"caption":10897,"standing":10898,"ipv4packet":10899,"promises":10900,"processors":10901,"analyzed":10902,"percentages":10903,"bands":10904,"alternates":10905,"exclusion":10906,"gsr":10907,"inheriting":10908,"darling":10909,"reuseaddr":10910,"lookaheads":10911,"sprites":10912,"furiously":10913,"lodsw":10914,"entrance":10915,"biography":10916,"coalesce":10917,"jellyfish":10918,"4i":10919,"667":10920,"9abc":10921,"awe":10922,"dll":10923,"eys":10924,"flock":10925,"fu16":10926,"g6":10927,"ham":10928,"huff":10929,"ipt":10930,"iable":10931,"jar":10932,"jecx":10933,"m16":10934,"oh":10935,"pnt":10936,"rn":10937,"rejust":10938,"insw":10939,"took":10940,"unid":10941,"lda":10942,"cab":10943,"0048":10944,"string16":10945,"shmem":10946,"equation":10947,"bell":10948,"intset":10949,"outsd":10950,"endmacro":10951,"sigterm":10952,"waits":10953,"spi":10954,"sphere":10955,"output2":10956,"0x0028":10957,"0x001e":10958,"imul":10959,"stoy":10960,"0x426c":10961,"child1":10962,"crate1":10963,"miscell":10964,"srcset":10965,"existed":10966,"ordinary":10967,"polls":10968,"snapped":10969,"thread2":10970,"engine3":10971,"247":10972,"round1":10973,"pooling":10974,"stamper":10975,"vectorized":10976,"tailhook":10977,"frontends":10978,"counter2":10979,"beforehand":10980,"runtimes":10981,"997":10982,"layered":10983,"solver":10984,"insb":10985,"editing":10986,"normals":10987,"multicol":10988,"lights":10989,"2001":10990,"bytecodes":10991,"flushes":10992,"xx01":10993,"ffffff":10994,"distributed":10995,"histories":10996,"increasing":10997,"k1z":10998,"axe":10999,"stmtstart":11000,"tickeys":11001,"0000000000008000h":11002,"switching":11003,"20161006":11004,"households":11005,"bookmark":11006,"800dh":11007,"002c":11008,"stosb":11009,"stosw":11010,"altered":11011,"umbent":11012,"fqdn":11013,"magenta":11014,"lodsd":11015,"ebadf":11016,"alphas":11017,"propagation":11018,"u5u5":11019,"occluder":11020,"mechanis":11021,"80000000h":11022,"athena":11023,"equipment":11024,"tolstoy":11025,"dropout":11026,"iptables":11027,"jecxz":11028,"miscellaneous":11029,"211":11030,"dz":11031,"escri":11032,"gmail":11033,"jum":11034,"nyi":11035,"qos":11036,"ral":11037,"rpush":11038,"slo":11039,"scaf":11040,"squee":11041,"tn":11042,"x10":11043,"yat":11044,"za":11045,"reap":11046,"redi":11047,"rely":11048,"insd":11049,"attemp":11050,"allo":11051,"alsa":11052,"asd":11053,"lose":11054,"enty":11055,"lios":11056,"liest":11057,"str2":11058,"strtab":11059,"noisy":11060,"cairo":11061,"set2":11062,"32767":11063,"filemap":11064,"disks":11065,"index1":11066,"imprint":11067,"spir":11068,"docgen":11069,"signs":11070,"0x0020":11071,"0x0018":11072,"0x000c":11073,"dbl":11074,"10usize":11075,"glong":11076,"grabb":11077,"limiting":11078,"mangled":11079,"fractional":11080,"206":11081,"crate2":11082,"fragmented":11083,"batch2":11084,"253":11085,"downloaded":11086,"initially":11087,"importance":11088,"round2":11089,"prints":11090,"breaker":11091,"sha224":11092,"307":11093,"freelist":11094,"unexpectedly":11095,"sorting":11096,"deltas":11097,"acceptable":11098,"textract":11099,"leaf1":11100,"earliest":11101,"36usize":11102,"carry1":11103,"carry2":11104,"carry3":11105,"carry5":11106,"git2":11107,"circulate":11108,"appended":11109,"centered":11110,"gaps":11111,"portfolios":11112,"bson":11113,"99999999":11114,"establishes":11115,"0f000h":11116,"00000000000000000000000000000000":11117,"scenarios":11118,"enotty":11119,"printable":11120,"robots":11121,"coppb":11122,"timings":11123,"sigusr1":11124,"convenience":11125,"idiom":11126,"ambiguous":11127,"resuming":11128,"ao":11129,"brot":11130,"dcomplex":11131,"eid":11132,"ether":11133,"fperm":11134,"hh":11135,"ibus":11136,"pgid":11137,"ration":11138,"scomplex":11139,"u12":11140,"vw":11141,"️this":11142,"remember":11143,"station":11144,"stress":11145,"algo":11146,"anx":11147,"ctime":11148,"sout":11149,"sociate":11150,"conjun":11151,"consolid":11152,"trial":11153,"ups":11154,"movie":11155,"rable":11156,"oflags":11157,"matchable":11158,"keylog":11159,"320":11160,"beef":11161,"dissociate":11162,"interlea":11163,"waitpid":11164,"genre":11165,"docstring":11166,"ioapic":11167,"modd":11168,"0x0030":11169,"commer":11170,"scalability":11171,"transf":11172,"address2":11173,"orderkey":11174,"20140":11175,"252":11176,"linkage":11177,"float16":11178,"many0":11179,"rustbox":11180,"overload":11181,"tmp2":11182,"255u8":11183,"cancels":11184,"signaled":11185,"immediate1":11186,"170":11187,"blv":11188,"flatbuffer":11189,"distribute":11190,"sites":11191,"blackbox":11192,"avs":11193,"365":11194,"initiates":11195,"lossless":11196,"enoent":11197,"rejects":11198,"acceleration":11199,"wdq":11200,"rectangles":11201,"embedding":11202,"strictly":11203,"mkf":11204,"multisig":11205,"route53resolver":11206,"histograms":11207,"releases":11208,"orthog":11209,"synthesize":11210,"0117":11211,"neighboring":11212,"ctap1status":11213,"rangebylex":11214,"disassemble":11215,"telemetry":11216,"techn":11217,"issuer":11218,"divider":11219,"hoisted":11220,"attempted":11221,"brotli":11222,"interleaved":11223,"20140328":11224,"0i32":11225,"0125":11226,"5b":11227,"6b":11228,"cmake":11229,"ciovec":11230,"eagain":11231,"fstat":11232,"f11":11233,"gss":11234,"hv":11235,"ico":11236,"jos":11237,"kq":11238,"mn":11239,"mst":11240,"nread":11241,"oha":11242,"q1":11243,"smp":11244,"uart":11245,"zscore":11246,"zily":11247,"ａｂ":11248,"restor":11249,"revert":11250,"seeded":11251,"defa":11252,"arity":11253,"resizable":11254,"ana":11255,"chg":11256,"apk":11257,"ulted":11258,"valgrind":11259,"consu":11260,"conjoining":11261,"cksum":11262,"readline":11263,"indicating":11264,"msghdr":11265,"643":11266,"ev1":11267,"fe0f":11268,"invalidated":11269,"awaiting":11270,"appsync":11271,"impact":11272,"spine":11273,"versionize":11274,"expensive":11275,"operate":11276,"cflag":11277,"121":11278,"vmx":11279,"child2":11280,"formals":11281,"nonary":11282,"downsample":11283,"customers":11284,"searchable":11285,"suppkey":11286,"supplement":11287,"automat":11288,"154":11289,"datapo":11290,"sentence":11291,"overwritten":11292,"chains":11293,"correspond":11294,"133":11295,"drawtarget":11296,"b0b0":11297,"button2":11298,"50c18":11299,"mm0":11300,"pbkdf":11301,"proptest":11302,"acceptance":11303,"tls1":11304,"nearly":11305,"cryptocurrency":11306,"folders":11307,"overflowing":11308,"finalized":11309,"r2l":11310,"ikev2":11311,"punctu":11312,"transitive":11313,"awsc":11314,"receivable":11315,"comparator1":11316,"oidc":11317,"accesses":11318,"vorbis":11319,"reductions":11320,"piece":11321,"184467440737095516":11322,"josé":11323,"consumable":11324,"1i32":11325,"330":11326,"4a":11327,"6a":11328,"8b":11329,"a55":11330,"ese":11331,"efi":11332,"e00":11333,"ehost":11334,"fits":11335,"llen":11336,"lboolean":11337,"ngroups":11338,"nak":11339,"opus":11340,"p4":11341,"perror":11342,"tvec":11343,"w9":11344,"y3":11345,"yw":11346,"repair":11347,"stere":11348,"orange":11349,"orna":11350,"ley":11351,"asl":11352,"coefficient":11353,"mp3":11354,"upd":11355,"lazily":11356,"scc":11357,"of10":11358,"fabr":11359,"beam":11360,"wakers":11361,"col1":11362,"buffer1":11363,"ured":11364,"u8x":11365,"wheres":11366,"emulate":11367,"variations":11368,"street":11369,"0x0026":11370,"0x000e":11371,"0x001c":11372,"register32":11373,"fran":11374,"worklink":11375,"libr":11376,"fract":11377,"fraction":11378,"localization":11379,"openssh":11380,"lancz":11381,"mac2":11382,"shortcodes":11383,"199":11384,"pixmap":11385,"associate2":11386,"redact":11387,"vertex2":11388,"pinned":11389,"taxo":11390,"pixelformat":11391,"rm8":11392,"router1":11393,"progressive":11394,"characteristics":11395,"fallthrough":11396,"offsets2d":11397,"cryptographic":11398,"pseudos":11399,"lineno":11400,"midr":11401,"drivers":11402,"powf":11403,"cleaning":11404,"x0b":11405,"rooter":11406,"behaviors":11407,"hyperledger":11408,"multisamp":11409,"jailer":11410,"sha1hmac":11411,"hierarchical":11412,"vtl":11413,"hidpi":11414,"asynchronously":11415,"substitution":11416,"metering":11417,"gpio":11418,"rc4sha1hmac":11419,"thelen2":11420,"vlq":11421,"f7f7f7f7":11422,"complaints":11423,"raph":11424,"orbclient":11425,"deviation":11426,"snowball":11427,"squeeze":11428,"conjunction":11429,"transferring":11430,"fabric":11431,"lanczos":11432,"277":11433,"5c":11434,"cpython":11435,"dal":11436,"dither":11437,"ecr":11438,"eintr":11439,"fli":11440,"hq":11441,"jm":11442,"narrow":11443,"oy":11444,"rnn":11445,"x9":11446,"yok":11447,"reuser":11448,"redisplay":11449,"reseed":11450,"alanx":11451,"roof":11452,"roids":11453,"untar":11454,"unscaled":11455,"apparent":11456,"south":11457,"advice":11458,"lix":11459,"ty2":11460,"result2":11461,"cabc":11462,"bout":11463,"fox":11464,"32768":11465,"bear":11466,"intended":11467,"nonempty":11468,"helix":11469,"feat":11470,"eventtarget":11471,"block16":11472,"memdefault":11473,"memalways":11474,"memminimum":11475,"applayer":11476,"emer":11477,"region1":11478,"modm":11479,"bindack":11480,"contentful":11481,"trans2":11482,"traces":11483,"foo3":11484,"phalanx":11485,"longitude":11486,"loopback":11487,"operand1":11488,"ccs":11489,"labeling":11490,"806":11491,"extendable":11492,"1235":11493,"cloudtrail":11494,"totals":11495,"attaches":11496,"phases":11497,"digester":11498,"centroids":11499,"cbb":11500,"incumbent":11501,"s3bucket":11502,"gcd":11503,"flexbox":11504,"percents":11505,"initiation":11506,"performing":11507,"270":11508,"ructable":11509,"xmm6":11510,"00000000000000":11511,"201507":11512,"compressor":11513,"65538":11514,"occas":11515,"sshfp":11516,"inheritance":11517,"jkl":11518,"quadrat":11519,"incrby":11520,"raised":11521,"utf16code":11522,"adjacent":11523,"dppx":11524,"v20170117":11525,"grocery":11526,"cmplts":11527,"awesome":11528,"huffman":11529,"yatp":11530,"orthogonal":11531,"ohama":11532,"automaton":11533,"dalek":11534,"yokohama":11535,"210":11536,"abe":11537,"bic":11538,"b64":11539,"cba":11540,"dqu":11541,"dtypes":11542,"eves":11543,"gmt":11544,"jan":11545,"klapic":11546,"ltrim":11547,"lcov":11548,"mcs":11549,"nm":11550,"pli":11551,"pants":11552,"pgrp":11553,"qwer":11554,"rlim":11555,"targs":11556,"wtr":11557,"wip":11558,"xoffset":11559,"xom":11560,"erases":11561,"recon":11562,"reloader":11563,"inbox":11564,"enclosing":11565,"alrm":11566,"utmpx":11567,"respective":11568,"unhealthy":11569,"uring":11570,"newvalue":11571,"ames":11572,"trunk":11573,"theta":11574,"kevin":11575,"lack":11576,"tage":11577,"caused":11578,"valids":11579,"behave":11580,"intptr":11581,"outstanding":11582,"644":11583,"tips":11584,"esdi":11585,"esrdi":11586,"interlacing":11587,"build001":11588,"gence":11589,"stream2":11590,"array1":11591,"antial":11592,"accessing":11593,"color1":11594,"color2":11595,"208":11596,"2010":11597,"0x11u8":11598,"1100":11599,"000z":11600,"idxs":11601,"illator":11602,"elb":11603,"domain00":11604,"synack":11605,"produces":11606,"rg8":11607,"package1":11608,"unibyte":11609,"sysconfig":11610,"887":11611,"receivers":11612,"holding":11613,"transactions00":11614,"router2":11615,"accident":11616,"converting":11617,"foldable":11618,"265":11619,"quickfix":11620,"emitted":11621,"fc1":11622,"███╗":11623,"dfl":11624,"bounces":11625,"565":11626,"excluding":11627,"merkledb":11628,"webhooks":11629,"cropped":11630,"ror1":11631,"customizations":11632,"lmdb":11633,"bgr24":11634,"suitable":11635,"invoking":11636,"handed":11637,"nump":11638,"achie":11639,"4294967295":11640,"v20190125":11641,"oscillator":11642,"tendril":11643,"esedi":11644,"bicubic":11645,"213":11646,"810":11647,"b12":11648,"bmi":11649,"eoverflow":11650,"fred":11651,"f17":11652,"gimpl":11653,"kmod":11654,"khr":11655,"nid":11656,"oi":11657,"plate":11658,"pga":11659,"rit":11660,"udata":11661,"v7":11662,"éo":11663,"reli":11664,"repartition":11665,"reates":11666,"retraction":11667,"infile":11668,"atten":11669,"sean":11670,"roff":11671,"ingredi":11672,"lir":11673,"tear":11674,"valued":11675,"name1":11676,"0050":11677,"0058":11678,"size1":11679,"intsrc":11680,"regression":11681,"arg9":11682,"filesize":11683,"usual":11684,"iterates":11685,"hear":11686,"stdweb":11687,"contextual":11688,"applic":11689,"implies":11690,"baker":11691,"aaguid":11692,"glx":11693,"cant":11694,"dedu":11695,"ptype":11696,"prio":11697,"color32":11698,"libpng":11699,"ts1":11700,"nonnull":11701,"nonterminal":11702,"superscript":11703,"partkey":11704,"smw":11705,"downstreams":11706,"badge":11707,"rustproto":11708,"luma":11709,"drops":11710,"movsq":11711,"804":11712,"123e":11713,"modelview":11714,"twenty":11715,"untagged":11716,"172":11717,"fetching":11718,"235":11719,"histor":11720,"installation":11721,"detecting":11722,"nativetls":11723,"uploader":11724,"microtask":11725,"48000":11726,"crossbeam":11727,"dotted":11728,"deregistered":11729,"aesni":11730,"incorrectly":11731,"quotation":11732,"refreshes":11733,"hardlink":11734,"001a":11735,"multiplexes":11736,"cognitive":11737,"u8u8u8":11738,"negotiating":11739,"corresponds":11740,"synthetic":11741,"navigator":11742,"federated":11743,"hyphenated":11744,"employ":11745,"equiv":11746,"discriminant":11747,"grandparent":11748,"nationkey":11749,"claims":11750,"20180704142":11751,"abcdefghijklmnopqrstuvwxyz":11752,"greek":11753,"pbkdf2":11754,"franken":11755,"20150709":11756,"quadratic":11757,"ingredient":11758,"5s":11759,"523":11760,"7d":11761,"864":11762,"9e":11763,"9u8":11764,"bsize":11765,"bv2":11766,"cde":11767,"eloop":11768,"f26":11769,"fading":11770,"hd":11771,"kend":11772,"lfloat":11773,"opoint":11774,"tdx":11775,"winfo":11776,"xp":11777,"yoffset":11778,"yep":11779,"reno":11780,"revie":11781,"inverti":11782,"sth":11783,"ene":11784,"utions":11785,"destructure":11786,"ancy":11787,"unwatch":11788,"cts":11789,"thir":11790,"pets":11791,"lide":11792,"strwidth":11793,"newname":11794,"newdata":11795,"trick":11796,"setcc":11797,"ssn2":11798,"fromcode":11799,"often":11800,"painter":11801,"ople":11802,"readlink":11803,"outposts":11804,"msgtype":11805,"646667":11806,"fmtstr":11807,"preorder":11808,"byteorder":11809,"alltypes":11810,"httpbis":11811,"quite":11812,"pushing":11813,"mod1":11814,"0x002e":11815,"subtypes":11816,"subdivision":11817,"aa08":11818,"dedent":11819,"storedi":11820,"addr2":11821,"base16":11822,"filt":11823,"texture2":11824,"iring":11825,"251":11826,"graphviz":11827,"pipes":11828,"smm":11829,"fdflags":11830,"customized":11831,"enclave":11832,"ivan":11833,"networkmanager":11834,"luv":11835,"ests":11836,"153":11837,"cachedi":11838,"toplevel":11839,"scanning":11840,"foreign":11841,"marking":11842,"reporting":11843,"voluntar":11844,"rgba32":11845,"integrate":11846,"28usize":11847,"retriever":11848,"drawn":11849,"ourselves":11850,"0921":11851,"accumulated":11852,"0616":11853,"f0f0":11854,"draining":11855,"fingerprints":11856,"compacted":11857,"escaper":11858,"20131101":11859,"route53domains":11860,"suggestions":11861,"weeks":11862,"occurrence":11863,"flash":11864,"errored":11865,"disp8":11866,"thetype2":11867,"acknowledgement":11868,"configurable":11869,"cpl0":11870,"influenced":11871,"lodsq":11872,"strikeout":11873,"decide":11874,"switches":11875,"httparse":11876,"spirv":11877,"18446744073709551615":11878,"naked":11879,"ornament":11880,"reconci":11881,"pga3d":11882,"bakery":11883,"kendra":11884,"reviewable":11885,"invertible":11886,"voluntary":11887,"5usize":11888,"6f":11889,"8h":11890,"aq":11891,"cult":11892,"gsw":11893,"hnt":11894,"irable":11895,"jup":11896,"lchar":11897,"mmsg":11898,"n3":11899,"pen":11900,"presh":11901,"q0":11902,"qe":11903,"qldb":11904,"rdir":11905,"uish":11906,"vage":11907,"wk":11908,"wbuf":11909,"x12":11910,"x80":11911,"zrev":11912,"zrangebyscore":11913,"recreate":11914,"seem":11915,"resizer":11916,"untouched":11917,"exis":11918,"apack":11919,"sot":11920,"inguish":11921,"cased":11922,"opport":11923,"msgid":11924,"tiled":11925,"obli":11926,"urect":11927,"predefined":11928,"internet":11929,"indeed":11930,"permute":11931,"appconfig":11932,"mly":11933,"1632":11934,"loglevel":11935,"baba":11936,"allowlisted":11937,"immigration":11938,"subdomain":11939,"osmesa":11940,"omb":11941,"win32":11942,"handle2":11943,"orderings":11944,"0x200":11945,"netaddr":11946,"nsw":11947,"globbed":11948,"joins":11949,"opens":11950,"mediapack":11951,"operand2":11952,"replacements":11953,"135":11954,"143":11955,"148":11956,"cmpfunc":11957,"allocating":11958,"placed":11959,"flushable":11960,"owns":11961,"owning":11962,"leaders":11963,"suffixed":11964,"installing":11965,"slept":11966,"distinguish":11967,"salvage":11968,"sz1":11969,"datoms02":11970,"mqd":11971,"354":11972,"comparer":11973,"08x":11974,"materials":11975,"behaviour":11976,"001b":11977,"sbc":11978,"quirky":11979,"bundled":11980,"recovered":11981,"affecting":11982,"subroutines":11983,"west2":11984,"saturated":11985,"colored":11986,"fewer":11987,"comparator2":11988,"stosq":11989,"probing":11990,"alpine":11991,"configuring":11992,"influences":11993,"meaningful":11994,"gathering":11995,"concatenate":11996,"utterances":11997,"upgrading":11998,"emergency":11999,"occasionally":12000,"antiali":12001,"numpad":12002,"mediapackage":12003,"1px":12004,"bing":12005,"cra":12006,"dmin":12007,"d0e":12008,"ein":12009,"estr":12010,"epro":12011,"frees":12012,"njob":12013,"qt5":12014,"s16":12015,"s13":12016,"tro":12017,"vsync":12018,"xtru":12019,"yter":12020,"zomb":12021,"rewrap":12022,"reparent":12023,"restores":12024,"inot":12025,"stam":12026,"stay":12027,"alc":12028,"alac":12029,"errone":12030,"asdf":12031,"unlike":12032,"ths":12033,"people":12034,"isa":12035,"cone":12036,"resp1":12037,"resp2":12038,"ldo":12039,"pard":12040,"igo":12041,"vised":12042,"0015":12043,"tains":12044,"from2":12045,"fac":12046,"behalf":12047,"tive":12048,"buffering":12049,"evfilt":12050,"timestam":12051,"expectations":12052,"senger":12053,"gensk":12054,"output1":12055,"16f":12056,"backtick":12057,"0x0024":12058,"0x0036":12059,"0x0005":12060,"0x003c":12061,"allowing":12062,"subs":12063,"1200":12064,"sendable":12065,"transcoder":12066,"impler":12067,"executes":12068,"values00":12069,"libloading":12070,"voter":12071,"ideally":12072,"clearing":12073,"i64literal":12074,"socketpair":12075,"flood":12076,"selectable":12077,"bar2":12078,"pagesize":12079,"int32value":12080,"programiv":12081,"pool1":12082,"gestures":12083,"pixbuf":12084,"80usize":12085,"usages":12086,"01t":12087,"cmples":12088,"pinch":12089,"controlled":12090,"cloudsearch":12091,"fileno":12092,"302":12093,"freeing":12094,"178":12095,"cssrule":12096,"184":12097,"central":12098,"pdf":12099,"carri":12100,"watchers":12101,"s3error":12102,"converter":12103,"trailer":12104,"segs":12105,"segv":12106,"rwx":12107,"reshape":12108,"3412":12109,"softmax":12110,"declarative":12111,"semver":12112,"trainable":12113,"spanned2":12114,"intentionally":12115,"abcdefgh":12116,"downloading":12117,"a550c18":12118,"uuids":12119,"222222":12120,"iotanalytics":12121,"contributions":12122,"0b010":12123,"ctap1command":12124,"forwarders":12125,"satisfies":12126,"hc128":12127,"v20150921":12128,"predecessor":12129,"cloning":12130,"stereo":12131,"attenuation":12132,"teardown":12133,"jupyter":12134,"erroneous":12135,"0m":12136,"036":12137,"1x":12138,"bpc":12139,"bang":12140,"cbox":12141,"cmsgs":12142,"du8":12143,"efault":12144,"hst":12145,"jis":12146,"léo":12147,"m8":12148,"m64":12149,"nj":12150,"oux":12151,"pss":12152,"swe":12153,"zop":12154,"zreg":12155,"ст":12156,"resets":12157,"relies":12158,"sema":12159,"enh":12160,"rocket":12161,"robid":12162,"uneval":12163,"unroll":12164,"unzip":12165,"unconditional":12166,"uncompress":12167,"unacked":12168,"unaligned":12169,"chdir":12170,"uet":12171,"gete":12172,"som":12173,"th1":12174,"th2":12175,"forces":12176,"nopsis":12177,"responds":12178,"pouet":12179,"005e":12180,"retirable":12181,"datafusion":12182,"listio":12183,"pathbuf":12184,"preheat":12185,"fec":12186,"licated":12187,"fallib":12188,"locator":12189,"servername":12190,"synopsis":12191,"bag":12192,"bitand":12193,"prefix32":12194,"spacer":12195,"account3":12196,"abnormal":12197,"translit":12198,"recalc":12199,"address1":12200,"libs":12201,"libspot":12202,"ts2":12203,"eprint":12204,"20200":12205,"querying":12206,"batcher":12207,"pane":12208,"panning":12209,"defining":12210,"hosting":12211,"custkey":12212,"downscaling":12213,"page2":12214,"rotator":12215,"ccc":12216,"terminates":12217,"sysconf":12218,"128usize":12219,"ligature":12220,"5042":12221,"implementations":12222,"334":12223,"fastfield":12224,"walker":12225,"integrations":12226,"remained":12227,"6666":12228,"indented":12229,"fc2":12230,"occlus":12231,"0916":12232,"priorities":12233,"materialized":12234,"http2transaction":12235,"saturation":12236,"a2x":12237,"4711":12238,"joysticks":12239,"ingestions":12240,"blocklisted":12241,"picked":12242,"darwin":12243,"sigevent":12244,"enotdir":12245,"convention":12246,"twins":12247,"1111111111111111":12248,"looped":12249,"forgotten":12250,"predictive":12251,"resample2d":12252,"extrude":12253,"deeper":12254,"market":12255,"easily":12256,"café":12257,"neighbors":12258,"derivative":12259,"claimed":12260,"divergence":12261,"definitely":12262,"energy":12263,"shoot":12264,"lfsr":12265,"000000000000000a550c18":12266,"000000000000000000000000000000000000000a550c18":12267,"pit2":12268,"pckl":12269,"scaffolding":12270,"grabbed":12271,"restorable":12272,"ritty":12273,"alacritty":12274,"léopard":12275,"zopfli":12276,"robidoux":12277,"unevalled":12278,"022":12279,"0f040h":12280,"20000":12281,"72usize":12282,"7of10":12283,"cudf":12284,"eor":12285,"eloc":12286,"eio":12287,"eperm":12288,"ghash":12289,"kex":12290,"ked":12291,"lv":12292,"m11":12293,"nline":12294,"ntwo":12295,"oem":12296,"sinter":12297,"uio":12298,"wow":12299,"z1":12300,"reactions":12301,"resetting":12302,"ens":12303,"enem":12304,"demer":12305,"mems":12306,"res1":12307,"asg":12308,"unver":12309,"undef":12310,"muted":12311,"mutator":12312,"advise":12313,"idct":12314,"lie":12315,"conns":12316,"conserv":12317,"buses":12318,"buffal":12319,"msk":12320,"shorter":12321,"vecend":12322,"from1":12323,"write1":12324,"key4":12325,"ialize":12326,"prepar":12327,"bytearray":12328,"timeval":12329,"objfwd":12330,"jsonfeed":12331,"clientid":12332,"anced":12333,"node1":12334,"pushstring":12335,"txvq":12336,"anyone":12337,"rowid":12338,"0x0022":12339,"baq":12340,"funs":12341,"payloads":12342,"106":12343,"mins":12344,"gl2":12345,"glpfa":12346,"point3":12347,"addr1":12348,"000001":12349,"colorspace":12350,"structures":12351,"0x3427":12352,"209":12353,"texture1":12354,"poster":12355,"voted":12356,"portal":12357,"f64literal":12358,"11ah":12359,"graphi":12360,"snaps":12361,"searched":12362,"rx3":12363,"round3":12364,"round4":12365,"round5":12366,"termdict":12367,"planet":12368,"191":12369,"epochs":12370,"relpath":12371,"sv1":12372,"validates":12373,"scale2d":12374,"int64vec4":12375,"int64vec2":12376,"int64vec3":12377,"67f2":12378,"heads":12379,"exporting":12380,"typedlink":12381,"fffff040h":12382,"cssom":12383,"pidfile":12384,"8601":12385,"arm64":12386,"sideways":12387,"reasonable":12388,"pnl":12389,"leaf2":12390,"diagonal":12391,"1e6":12392,"schedules":12393,"443":12394,"calculation":12395,"controlling":12396,"decrypts":12397,"combining":12398,"canonicalized":12399,"marshal":12400,"http2state":12401,"weakref":12402,"longest":12403,"00000050h":12404,"dxt3":12405,"dxt5":12406,"c7501efcdab":12407,"protective":12408,"dqb":12409,"comparisons":12410,"fmrs":12411,"x25519secret":12412,"watermarks":12413,"easycurses":12414,"podcast":12415,"recognizers":12416,"convolve":12417,"omitted":12418,"201605042":12419,"x06proto":12420,"accurate":12421,"bunny":12422,"functionality":12423,"20722":12424,"0b01001001":12425,"0041h":12426,"1f3fb":12427,"appliances":12428,"maximized":12429,"escribes":12430,"a55a":12431,"applicative":12432,"historical":12433,"einprogress":12434,"0b01010010":12435,"fallibility":12436,"enemy":12437,"conservative":12438,"buffalo":12439,"20160504220722":12440,"015":12441,"055":12442,"420":12443,"8d":12444,"8f":12445,"9usize":12446,"aof":12447,"bios":12448,"cro":12449,"csm":12450,"cnam":12451,"epipe":12452,"elig":12453,"hdro":12454,"jcx":12455,"kboard":12456,"latch":12457,"mreq":12458,"mind":12459,"rdeps":12460,"slight":12461,"tions":12462,"u3":12463,"v8":12464,"van":12465,"vfut":12466,"wx":12467,"zw":12468,"reorder":12469,"rewritten":12470,"inset":12471,"inflight":12472,"orld":12473,"ensur":12474,"erry":12475,"arian":12476,"toa":12477,"leav":12478,"unite":12479,"mutually":12480,"ficult":12481,"isions":12482,"veg":12483,"new1":12484,"newest":12485,"nose":12486,"refers":12487,"0060":12488,"0070":12489,"msw":12490,"keysym":12491,"outbuf":12492,"msgsize":12493,"waking":12494,"acci":12495,"liness":12496,"serializable":12497,"ev2":12498,"preedit":12499,"ip6":12500,"node2":12501,"0x0040":12502,"0x0038":12503,"0x003e":12504,"0x003a":12505,"107":12506,"subtrees":12507,"parameteri":12508,"picks":12509,"generally":12510,"ff00":12511,"205":12512,"2011":12513,"20e3":12514,"optlen":12515,"118":12516,"supervised":12517,"part1":12518,"marmo":12519,"casting":12520,"1002":12521,"pool2":12522,"recvmsg":12523,"bits1":12524,"14usize":12525,"sockname":12526,"raftkv":12527,"univer":12528,"encodes":12529,"rando":12530,"int64value":12531,"2dh":12532,"uidmap":12533,"177":12534,"rmdir":12535,"repeatedly":12536,"239":12537,"dsz":12538,"reasons":12539,"swapped":12540,"oneofs":12541,"prefers":12542,"tune":12543,"underscores":12544,"toolong":12545,"deregistering":12546,"evaluates":12547,"372":12548,"switcher":12549,"international":12550,"purple":12551,"9999999":12552,"4702":12553,"measured":12554,"awk":12555,"pruner":12556,"reuseport":12557,"guarantees":12558,"smoothing":12559,"alteration":12560,"exhaustive":12561,"optimizations":12562,"spliced":12563,"decorators":12564,"chroma":12565,"remoting":12566,"greet":12567,"mechanical":12568,"0a0a0a0a":12569,"observation":12570,"gf128":12571,"freezing":12572,"euclid":12573,"mstime":12574,"ａｂｃ":12575,"multisampling":12576,"retractions":12577,"trouble":12578,"sweep":12579,"demerits":12580,"x06proto1":12581,"hdroff":12582,"jcxz":12583,"ensuring":12584,"0l":12585,"0n":12586,"5f":12587,"ä":12588,"bwd":12589,"eu8":12590,"eos":12591,"ealready":12592,"etimes":12593,"ftype":12594,"gids":12595,"his":12596,"hresh":12597,"imag":12598,"jn":12599,"kids":12600,"m22":12601,"nin":12602,"ostream":12603,"pv":12604,"pap":12605,"r11":12606,"s14":12607,"srand":12608,"sunion":12609,"uiv":12610,"x35":12611,"zrange":12612,"erange":12613,"atal":12614,"ora":12615,"ender":12616,"enrich":12617,"decr":12618,"armed":12619,"unde":12620,"apm":12621,"idom":12622,"newval":12623,"mpspec":12624,"00z":12625,"001d":12626,"0078":12627,"shine":12628,"bother":12629,"writebatch":12630,"facial":12631,"keyfile":12632,"outward":12633,"byref":12634,"6467f3":12635,"pathfinding":12636,"chef":12637,"obvious":12638,"configures":12639,"quux":12640,"quacks":12641,"transcript":12642,"mem2":12643,"appkey":12644,"num2":12645,"grouper":12646,"token1":12647,"ecance":12648,"0x0007":12649,"gl1":12650,"deflater":12651,"temp2":12652,"ffset":12653,"libclang":12654,"queried":12655,"spacetime":12656,"changedata":12657,"changelog":12658,"srcitems":12659,"mydata":12660,"myfield":12661,"mymethod":12662,"1112":12663,"latter":12664,"f32literal":12665,"idx1":12666,"takeover":12667,"binaries":12668,"validator1":12669,"page3":12670,"confchange":12671,"mons":12672,"249":12673,"eagl":12674,"overwrites":12675,"managers":12676,"deadbeef":12677,"recving":12678,"continent":12679,"cmplt":12680,"surrounding":12681,"registrant":12682,"308":12683,"traceback":12684,"ledgers":12685,"171":12686,"detective":12687,"assigning":12688,"terminals":12689,"filling":12690,"arrnum":12691,"hinting":12692,"ssthresh":12693,"optimizing":12694,"repeats":12695,"cleaned":12696,"annotator":12697,"anisot":12698,"archived":12699,"2702":12700,"flights":12701,"iconv":12702,"halt":12703,"catalogs":12704,"ructors":12705,"casual":12706,"20160616":12707,"65537":12708,"chased":12709,"occured":12710,"interrupts":12711,"yields":12712,"yielding":12713,"a5a5":12714,"gsg":12715,"natnum":12716,"tiling":12717,"zzz":12718,"charges":12719,"20180101":12720,"bdp":12721,"minibuf":12722,"auditor":12723,"wig32":12724,"f32f32f32f32":12725,"testarrayoftables":12726,"extents":12727,"kube":12728,"rfc3339parse":12729,"modulename":12730,"1010101010101010":12731,"palatal":12732,"bbbbbbbbbbbbbbbb":12733,"██╔══":12734,"r13d":12735,"u10u10u10":12736,"kinesisvideostreams":12737,"turbofish":12738,"rustyline":12739,"u12u12":12740,"bearer":12741,"handedness":12742,"crazy":12743,"eligible":12744,"randomly":12745,"cmpltu":12746,"019":12747,"013":12748,"1ed":12749,"1f6":12750,"2x":12751,"230":12752,"755":12753,"c00":12754,"cdata":12755,"c11":12756,"ebusy":12757,"fund":12758,"mine":12759,"ngram":12760,"n30":12761,"preser":12762,"svm":12763,"vd":12764,"vx2":12765,"xe":12766,"xio":12767,"yv":12768,"zinter":12769,"enigo":12770,"alstate":12771,"ark":12772,"chld":12773,"loff":12774,"fibon":12775,"lime":12776,"str1":12777,"strnatural":12778,"getuid":12779,"req2":12780,"caref":12781,"cacerts":12782,"bufsize":12783,"name2":12784,"0013":12785,"pubsub":12786,"boto":12787,"bour":12788,"boiler":12789,"favor":12790,"keystream":12791,"intf":12792,"outs":12793,"tible":12794,"colgroup":12795,"disjoint":12796,"iph":12797,"tx4":12798,"ecb":12799,"ecdh":12800,"0x0032":12801,"0x0034":12802,"0x002a":12803,"cf1":12804,"speculation":12805,"sub1":12806,"instanced":12807,"useragent":12808,"asked":12809,"base32":12810,"ciency":12811,"chartab":12812,"numbered":12813,"00001":12814,"coloring":12815,"trade":12816,"envoy":12817,"former":12818,"latches":12819,"hellow":12820,"multvals":12821,"globalscope":12822,"prf":12823,"ignorer":12824,"100f32":12825,"confusion":12826,"ersand":12827,"rxvq":12828,"int32builder":12829,"termcolor":12830,"v2transform":12831,"overdraw":12832,"1366":12833,"142702":12834,"population":12835,"directions":12836,"throttle":12837,"attacks":12838,"flee":12839,"dictmerger":12840,"keeps":12841,"026h":12842,"approach":12843,"increases":12844,"overflows":12845,"ndarray":12846,"stencil8":12847,"carry10":12848,"0515":12849,"pretend":12850,"transitioning":12851,"polymorph":12852,"killq":12853,"sse4":12854,"relocs":12855,"bidirectional":12856,"mintb":12857,"kbkn":12858,"socks4":12859,"west1":12860,"discardable":12861,"h264":12862,"implicitly":12863,"ortho":12864,"diagram":12865,"twin0":12866,"cha20poly1305":12867,"efficiency":12868,"vegetable":12869,"categorizer":12870,"pollable":12871,"thumbnail":12872,"pulseaudio":12873,"20180704142702":12874,"pkcs12":12875,"6979":12876,"hammer":12877,"mechanism":12878,"libraries":12879,"zombie":12880,"enhanced":12881,"leaving":12882,"universal":12883,"fibonacci":12884,"strnaturalcmp":12885,"careful":12886,"kbknapp":12887,"1m":12888,"430":12889,"44usize":12890,"bir":12891,"cvec":12892,"dft":12893,"d3d":12894,"eprog":12895,"euid":12896,"ffe":12897,"f48":12898,"f248":12899,"jconf":12900,"lvalues":12901,"m12":12902,"m42":12903,"m21":12904,"m512":12905,"msex":12906,"qa":12907,"qguide":12908,"s15":12909,"sram":12910,"uk":12911,"ugly":12912,"vpn":12913,"vhw":12914,"w16":12915,"xc":12916,"xent":12917,"xsave":12918,"zunion":12919,"zrank":12920,"你好":12921,"reactor":12922,"remacs":12923,"stall":12924,"enclose":12925,"utime":12926,"dels":12927,"itr":12928,"errcode":12929,"resizing":12930,"unity":12931,"unencrypted":12932,"unfinished":12933,"thd":12934,"0x12345678":12935,"fir":12936,"ula":12937,"idraw":12938,"urrent":12939,"isation":12940,"ishear":12941,"nota":12942,"set1":12943,"parfor":12944,"refactor":12945,"theast":12946,"and48":12947,"size4":12948,"scl":12949,"doe":12950,"rior":12951,"okm":12952,"opnum":12953,"optopt":12954,"bea":12955,"clp":12956,"clr":12957,"outlen":12958,"argb":12959,"tiqguide":12960,"iterating":12961,"endings":12962,"sigalrm":12963,"stdbuf":12964,"fees":12965,"complicated":12966,"spl":12967,"cr0":12968,"groupname":12969,"167":12970,"0x000f":12971,"specbind":12972,"u64s":12973,"defg":12974,"piration":12975,"accountbilling":12976,"playlist":12977,"directed":12978,"position2":12979,"libdeflater":12980,"managing":12981,"manishear":12982,"200x200":12983,"localized":12984,"optimal":12985,"awsaccountbilling":12986,"haste":12987,"0x10000":12988,"idx2":12989,"multidraw":12990,"float3":12991,"reception":12992,"downcase":12993,"stopwatch":12994,"segmentation":12995,"encing":12996,"246":12997,"esti":12998,"pool3":12999,"v2client":13000,"routine":13001,"1908":13002,"corp":13003,"passive":13004,"146":13005,"continued":13006,"227":13007,"totally":13008,"303":13009,"actively":13010,"head2":13011,"aboutv2":13012,"css2":13013,"187":13014,"centroid":13015,"titles":13016,"acc1":13017,"accu":13018,"booleans":13019,"fbcode":13020,"declined":13021,"s3origin":13022,"digital":13023,"convertible":13024,"3901":13025,"duplex":13026,"silen":13027,"6667f3":13028,"psid":13029,"trusts":13030,"pascal":13031,"unpacking":13032,"273":13033,"x224":13034,"dddd":13035,"discoverers":13036,"p2p":13037,"111111":13038,"powershell":13039,"hardcoded":13040,"recorders":13041,"prompts":13042,"985":13043,"eee":13044,"1010101":13045,"effectively":13046,"683901":13047,"lpvoid":13048,"enametoolong":13049,"semantics":13050,"probes":13051,"flipped":13052,"soundness":13053,"replayed":13054,"inodes":13055,"biquad":13056,"20141212":13057,"sharded":13058,"hostsfile":13059,"shaping":13060,"aiocbs":13061,"aes256ctr":13062,"questions":13063,"666643":13064,"alpns":13065,"callees":13066,"shuffled":13067,"northeast":13068,"replicas":13069,"magnitude":13070,"v20140515":13071,"introduce":13072,"sigusr2":13073,"654183":13074,"xxxxxxxxxxxxxxxxxxxxxxxxxxxxxxxx":13075,"nfs3err":13076,"tactic":13077,"interacting":13078,"unidirectional":13079,"997805":13080,"occluders":13081,"preparing":13082,"470296":13083,"ninja":13084,"boilerplate":13085,"136657":13086,"fleetiqguide":13087,"msexpiration":13088,"manishearth":13089,"2k":13090,"216":13091,"215":13092,"214":13093,"3f64":13094,"4k":13095,"480":13096,"awa":13097,"a11":13098,"acos":13099,"b13":13100,"dport":13101,"eob":13102,"eexist":13103,"gun":13104,"hwnd":13105,"ior":13106,"lstm":13107,"m41":13108,"nlink":13109,"nchars":13110,"rational":13111,"sbin":13112,"voffset":13113,"vts":13114,"xce":13115,"xray":13116,"xchg":13117,"reimport":13118,"repaint":13119,"reunite":13120,"inlay":13121,"sev":13122,"eness":13123,"enxio":13124,"ale":13125,"alen":13126,"err2":13127,"assembler":13128,"assemble":13129,"rodio":13130,"unqual":13131,"uncovered":13132,"coher":13133,"serted":13134,"firef":13135,"ulations":13136,"ulative":13137,"urgency":13138,"strlen":13139,"ising":13140,"truth":13141,"parker":13142,"refined":13143,"0066":13144,"0068":13145,"codestar":13146,"retro":13147,"test123":13148,"icall":13149,"oflag":13150,"dies":13151,"keydown":13152,"datastores":13153,"addref":13154,"lenish":13155,"col2":13156,"lineitem":13157,"ists":13158,"among":13159,"tpflags":13160,"tagger":13161,"splat":13162,"express":13163,"0x0000000000":13164,"hashable":13165,"payments":13166,"register4":13167,"eleven":13168,"instruction2":13169,"defvar":13170,"replenish":13171,"callstack":13172,"mangling":13173,"ampersand":13174,"enced":13175,"posting":13176,"batching":13177,"bincode":13178,"fd1":13179,"recordings":13180,"barley":13181,"secondaries":13182,"files1":13183,"131":13184,"136":13185,"popped":13186,"hero":13187,"namespaceable":13188,"packetization":13189,"tensorboard":13190,"multiaddr":13191,"4040":13192,"457":13193,"185":13194,"acc0":13195,"partitioned":13196,"mediaconnect":13197,"screens":13198,"0x10u8":13199,"licensed":13200,"ps1":13201,"wouldblock":13202,"expando":13203,"x0a":13204,"sinks":13205,"441":13206,"ec2windows":13207,"slant":13208,"understand":13209,"goods":13210,"11011":13211,"persons":13212,"e2big":13213,"abcdefg":13214,"101010":13215,"prevented":13216,"tidbit":13217,"stein":13218,"traversed":13219,"c4e":13220,"capsulate":13221,"postgresql":13222,"20180523":13223,"ptsname":13224,"preceded":13225,"addons":13226,"algebrize":13227,"community":13228,"sembly":13229,"exerci":13230,"acmecorp":13231,"collisions":13232,"gracefully":13233,"evicted":13234,"strikethrough":13235,"murmur":13236,"sparkline":13237,"glslang":13238,"numerical":13239,"k8s":13240,"9223372036854775807":13241,"eisdir":13242,"maskmovq":13243,"commercial":13244,"dedupe":13245,"employee":13246,"graphiql":13247,"cros":13248,"srandmember":13249,"helloworld":13250,"xception":13251,"firefox":13252,"0ff":13253,"2grp":13254,"564":13255,"7b":13256,"967":13257,"ccm":13258,"cjk":13259,"dance":13260,"eproto":13261,"eacces":13262,"hk":13263,"iru":13264,"m13":13265,"ource":13266,"ogo":13267,"rms":13268,"rho":13269,"r14":13270,"sinc":13271,"t6":13272,"tpe":13273,"v10":13274,"vaddr":13275,"zsh":13276,"老虎":13277,"remb":13278,"ons":13279,"dea":13280,"deallocate":13281,"detune":13282,"ungroup":13283,"unequal":13284,"unsized":13285,"lodep":13286,"fizz":13287,"strpos":13288,"type2":13289,"namelen":13290,"kek":13291,"004b":13292,"tac":13293,"pace":13294,"fol":13295,"opent":13296,"opmask":13297,"readback":13298,"reg3":13299,"list1":13300,"withscores":13301,"obs":13302,"iterated":13303,"signo":13304,"mtu":13305,"precomp":13306,"preprocess":13307,"eventinfo":13308,"clicks":13309,"suback":13310,"stacktrace":13311,"blockbytes":13312,"memseg":13313,"toks":13314,"emlink":13315,"emcc":13316,"pushes":13317,"spc":13318,"versioning":13319,"options2":13320,"bool3":13321,"0x0046":13322,"hashset":13323,"expected1":13324,"subargs":13325,"submission":13326,"12h":13327,"bindless":13328,"rtf":13329,"rtmp":13330,"i32literal":13331,"temps":13332,"cmark":13333,"imageproc":13334,"localstorage":13335,"awsfms":13336,"noncompliant":13337,"idea":13338,"english":13339,"webgpu":13340,"ello":13341,"rxmode":13342,"whenever":13343,"gameserver":13344,"txn3":13345,"158":13346,"15usize":13347,"1555":13348,"rg32":13349,"decodes":13350,"tmppath":13351,"802":13352,"8026h":13353,"139":13354,"drand48":13355,"packetizer":13356,"markup":13357,"solutions":13358,"insular":13359,"showing":13360,"408":13361,"409":13362,"owners":13363,"union2":13364,"xx02":13365,"devkey":13366,"groundstation":13367,"digraph":13368,"sidedef":13369,"advan":13370,"basically":13371,"sampler3d":13372,"2684":13373,"backgrounds":13374,"capitalized":13375,"broadcasts":13376,"fc3":13377,"dashes":13378,"67890":13379,"ec2recommendation":13380,"gid2grp":13381,"ructing":13382,"enobufs":13383,"halves":13384,"0b0011":13385,"combinations":13386,"375":13387,"rbac":13388,"picture3d":13389,"trained":13390,"restarting":13391,"mozangle":13392,"initiators":13393,"blurred":13394,"synchronized":13395,"toggled":13396,"foobarbaz":13397,"warrior":13398,"0o600":13399,"messenger":13400,"00008026h":13401,"inclusion":13402,"spritebatch":13403,"outcomes":13404,"boringssl":13405,"communicate":13406,"magicate":13407,"possibilities":13408,"accordingly":13409,"backslashes":13410,"0000000000008026h":13411,"biomes":13412,"x06proto2":13413,"dialects":13414,"morphable":13415,"oooooooooooooooooooooooooooooooo":13416,"promoted":13417,"eaddrnota":13418,"technically":13419,"punctuated":13420,"awscurrent":13421,"abef":13422,"preshared":13423,"opportunity":13424,"xtruct":13425,"01t11":13426,"retroflex":13427,"exercises":13428,"lodepng":13429,"268435":13430,"eaddrnotavail":13431,"012":13432,"025":13433,"1ec":13434,"1ef":13435,"225":13436,"2i16":13437,"350":13438,"705":13439,"btrim":13440,"bs2":13441,"dsa":13442,"eil":13443,"elib":13444,"echild":13445,"glib":13446,"henv":13447,"h09":13448,"ised":13449,"jav":13450,"kits":13451,"lh":13452,"lid":13453,"lrem":13454,"mz":13455,"m14":13456,"nist":13457,"nbar":13458,"ninputs":13459,"ppe":13460,"rch":13461,"r12":13462,"sint":13463,"tal":13464,"tids":13465,"uing":13466,"umount":13467,"wstr":13468,"x15":13469,"xmb":13470,"ycl":13471,"ystack":13472,"z0":13473,"ßç":13474,"âßç":13475,"erofs":13476,"restarts":13477,"redist":13478,"inuse":13479,"inted":13480,"inlin":13481,"invest":13482,"seam":13483,"demote":13484,"arrange":13485,"unavail":13486,"lore":13487,"idon":13488,"petr":13489,"tect":13490,"conout":13491,"conversions":13492,"promotion":13493,"setuid":13494,"setfl":13495,"putime":13496,"ites":13497,"upto":13498,"0025":13499,"006e":13500,"pubkeys":13501,"scp":13502,"shelf":13503,"keycap":13504,"became":13505,"notty":13506,"fering":13507,"acs":13508,"nonew":13509,"espipe":13510,"essent":13511,"esrch":13512,"endp":13513,"sable":13514,"bytea":13515,"bytewise":13516,"faulty":13517,"undone":13518,"impression":13519,"pushable":13520,"grouping":13521,"162":13522,"backpressure":13523,"ptr2":13524,"sublime":13525,"winsize":13526,"yolo":13527,"203":13528,"haystack":13529,"foo4":13530,"fragmentation":13531,"orm4":13532,"aaaaaa":13533,"spanpb":13534,"1500":13535,"macaddr":13536,"datatest":13537,"while1":13538,"195":13539,"breakpoint":13540,"14159":13541,"blob1":13542,"poseidon":13543,"descender":13544,"edited":13545,"30px":13546,"502":13547,"freetype":13548,"encoders":13549,"head1":13550,"doubles":13551,"followers":13552,"fffffff":13553,"0x01u8":13554,"mediaconvert":13555,"choo":13556,"italics":13557,"acquiring":13558,"percentile":13559,"atomically":13560,"ooo":13561,"getters":13562,"unpacked":13563,"themselves":13564,"enomem":13565,"periods":13566,"anscoder":13567,"0b10":13568,"0b100":13569,"0b1000":13570,"additionally":13571,"346":13572,"attachment0":13573,"combiner":13574,"separators":13575,"nfs4":13576,"longlong":13577,"sse3":13578,"201704":13579,"9876":13580,"469":13581,"kleene":13582,"lspitem":13583,"0314":13584,"contradi":13585,"anomalies":13586,"suggestion":13587,"incompatibility":13588,"aggregators":13589,"flame":13590,"summarize":13591,"md5of":13592,"ctranscoder":13593,"elastictranscoder":13594,"determinator":13595,"alternatively":13596,"shaped":13597,"tells":13598,"advertiser":13599,"tempty":13600,"ebadmsg":13601,"hanging":13602,"leftovers":13603,"tanh":13604,"meaningless":13605,"occlude":13606,"hazards":13607,"econnrefused":13608,"predecessors":13609,"diesel":13610,"eaddrinuse":13611,"achieved":13612,"frankenstein":13613,"resizer4":13614,"190855":13615,"awaken":13616,"bool3ary":13617,"eilseq":13618,"essential":13619,"014":13620,"1f1":13621,"511":13622,"586":13623,"576":13624,"5aa5":13625,"8192":13626,"908":13627,"bil":13628,"bcd":13629,"eta":13630,"essl":13631,"ftp":13632,"f10":13633,"j2":13634,"jdk":13635,"kg":13636,"kh":13637,"kilo":13638,"lor":13639,"m23":13640,"m31":13641,"ost":13642,"oat":13643,"oce":13644,"oot":13645,"pinit":13646,"r10":13647,"rnd":13648,"sflags":13649,"slack":13650,"tg":13651,"uw":13652,"uloc":13653,"ucred":13654,"wlock":13655,"xn":13656,"x16":13657,"xkb":13658,"zcount":13659,"zcard":13660,"áa":13661,"èƒ":13662,"ôř":13663,"βèƒ":13664,"на":13665,"┌────────────────────────────":13666,"└────────────────────────────":13667,"intra":13668,"inexact":13669,"st1":13670,"stren":13671,"orc":13672,"enforced":13673,"deprovision":13674,"lev":13675,"leap":13676,"anity":13677,"anel":13678,"unmod":13679,"uncached":13680,"unmount":13681,"unlinked":13682,"coup":13683,"thl":13684,"thin":13685,"conju":13686,"buzz":13687,"amet":13688,"edquot":13689,"getable":13690,"getfl":13691,"setgid":13692,"igen":13693,"002d":13694,"007e":13695,"onek":13696,"size256":13697,"extreme":13698,"scard":13699,"testhash":13700,"string2":13701,"divisible":13702,"matchstart":13703,"oppos":13704,"keystore":13705,"bel":13706,"readdir":13707,"outfile":13708,"byol":13709,"wavy":13710,"file3":13711,"esult":13712,"endfilter":13713,"sigstack":13714,"aming":13715,"timestep":13716,"blocker":13717,"varchar":13718,"worst":13719,"sence":13720,"info0":13721,"curloc":13722,"persp":13723,"memset":13724,"gens":13725,"genpk":13726,"weigh":13727,"emfile":13728,"node0":13729,"numfmt":13730,"spice":13731,"cranel":13732,"offset2":13733,"anywhere":13734,"iotevent":13735,"patched":13736,"row12":13737,"row22":13738,"logon":13739,"0x0003":13740,"bitwidth":13741,"subsections":13742,"instruction1":13743,"workmail":13744,"repla":13745,"addrtype":13746,"recla":13747,"libjpeg":13748,"limitation":13749,"25s":13750,"origloc":13751,"decoder16":13752,"float4":13753,"deno":13754,"fd2":13755,"syste":13756,"cursor1":13757,"cursor2":13758,"monad":13759,"rxs":13760,"rustlings":13761,"244":13762,"scopesrc":13763,"estale":13764,"package2":13765,"overwriting":13766,"chained":13767,"190":13768,"193":13769,"197":13770,"classname":13771,"forever":13772,"terminable":13773,"goog":13774,"138":13775,"1415":13776,"fullpath":13777,"acceptor":13778,"sysfs":13779,"dave":13780,"descs":13781,"insanity":13782,"progver":13783,"67f36":13784,"multiconnect":13785,"texthl":13786,"vasps":13787,"computing":13788,"simult":13789,"ensured":13790,"i8literal":13791,"pktinfo":13792,"776":13793,"integrated":13794,"diagnose":13795,"consumes":13796,"360":13797,"dumb":13798,"tabstops":13799,"egg":13800,"sz2":13801,"triples":13802,"ogonek":13803,"overridden":13804,"recurring":13805,"mixin":13806,"mixins":13807,"calculator":13808,"calculating":13809,"slf":13810,"accumulating":13811,"ringbuf":13812,"enodev":13813,"enospc":13814,"cdgh":13815,"stripping":13816,"catalogue":13817,"redirected":13818,"0xab0e":13819,"housekeeping":13820,"bootstrapper":13821,"claptests":13822,"minting":13823,"unlessone":13824,"extendedprice":13825,"trapped":13826,"positional2":13827,"saturate":13828,"suggested":13829,"shrinking":13830,"interpolate":13831,"rfc6979":13832,"http3frame":13833,"utilize":13834,"amd64":13835,"date32array":13836,"date64array":13837,"collator":13838,"time32second":13839,"sanitized":13840,"substitut":13841,"hyphens":13842,"u16u16u16":13843,"u16u16u16u16":13844,"i16i16i16":13845,"i16i16i16i16":13846,"i8i8i8":13847,"i8i8i8i8":13848,"2eh":13849,"satisfy":13850,"flare":13851,"shards":13852,"hacky":13853,"glam":13854,"nxt":13855,"6467f2":13856,"cues":13857,"cccccccc":13858,"cmovcc":13859,"mounted":13860,"7a0a":13861,"neighborhood":13862,"introduced":13863,"coalesced":13864,"promotions":13865,"observations":13866,"bm25weight":13867,"elector":13868,"2147483648":13869,"jumbo":13870,"dithering":13871,"oblique":13872,"greeting":13873,"ecanceled":13874,"u10u10u10u2":13875,"irusr":13876,"contradict":13877,"ocean":13878,"ôřè":13879,"βèƒôřè":13880,"┌────────────────────────────┐":13881,"└────────────────────────────┘":13882,"strength":13883,"conjugate":13884,"opposite":13885,"iotevents":13886,"164":13887,"2num":13888,"9v":13889,"avi":13890,"bsy":13891,"bba":13892,"cum":13893,"cpath":13894,"c0b":13895,"csharp":13896,"dream":13897,"etype":13898,"edest":13899,"edead":13900,"etxt":13901,"eprototype":13902,"emsgsize":13903,"gig":13904,"gol":13905,"hte":13906,"hund":13907,"ihop":13908,"jd":13909,"jw":13910,"jrcx":13911,"lld":13912,"lust":13913,"m3":13914,"m4":13915,"mh":13916,"m24":13917,"o3":13918,"oe":13919,"p5":13920,"pvalue":13921,"plot":13922,"qname":13923,"slide":13924,"t7":13925,"t16":13926,"tfs":13927,"xla":13928,"xwc":13929,"кв":13930,"╚════":13931,"ina":13932,"ats":13933,"sepi":13934,"enfile":13935,"alex":13936,"decompression":13937,"arab":13938,"asin":13939,"unrolled":13940,"exdev":13941,"ulled":13942,"lized":13943,"valuf":13944,"ultihop":13945,"nod":13946,"nofollow":13947,"edom":13948,"edwards":13949,"req1":13950,"response001":13951,"result1":13952,"cauth":13953,"mpris":13954,"settable":13955,"reftests":13956,"0076":13957,"msy":13958,"dogs":13959,"patches":13960,"fair":13961,"eqv":13962,"diso":13963,"key0":13964,"validatable":13965,"protoopt":13966,"oblin":13967,"sam":13968,"sigsegv":13969,"discount":13970,"faults":13971,"renaming":13972,"invalidatable":13973,"quat":13974,"quar":13975,"emultihop":13976,"spon":13977,"txbuf":13978,"row32":13979,"row11":13980,"row21":13981,"serverless":13982,"0x002c":13983,"bitmask":13984,"bitxor":13985,"10u8":13986,"1030":13987,"glad":13988,"glwindow":13989,"abcab":13990,"addrreq":13991,"charged":13992,"i32key":13993,"ftw":13994,"recycl":13995,"statically":13996,"frameset":13997,"orderdate":13998,"clever":13999,"range1":14000,"range2":14001,"orm2":14002,"borogo":14003,"amazondynamodb":14004,"phones":14005,"storages":14006,"storagegateway":14007,"pingcap":14008,"median":14009,"referencing":14010,"benef":14011,"156":14012,"157":14013,"196":14014,"1994":14015,"efbig":14016,"docsrs":14017,"tonosupport":14018,"mocks":14019,"uniq":14020,"organize":14021,"mimsy":14022,"profiled":14023,"cloudflare":14024,"305":14025,"200px":14026,"18usize":14027,"rgb32":14028,"evaluating":14029,"diemtypes":14030,"intervals":14031,"pkgid":14032,"423":14033,"bb3":14034,"randomize":14035,"simulated":14036,"tuples":14037,"triggering":14038,"cpx":14039,"truncation":14040,"publisher":14041,"0x04u8":14042,"x0d":14043,"537":14044,"carry11":14045,"added0":14046,"visiting":14047,"processth":14048,"launched":14049,"enomsg":14050,"enoexec":14051,"enotempty":14052,"enoprotoopt":14053,"04x":14054,"launching":14055,"0b000":14056,"aes192":14057,"submitting":14058,"confirms":14059,"regularization":14060,"sse42":14061,"walls":14062,"scheduling":14063,"ranking":14064,"ingested":14065,"etimedout":14066,"route53auto":14067,"tickets":14068,"rasterize":14069,"vp8":14070,"e0100":14071,"quads":14072,"readsapi":14073,"enotconn":14074,"enotsock":14075,"treatment":14076,"determining":14077,"sgd":14078,"contribution":14079,"delegates":14080,"personalized":14081,"btreemap":14082,"orphaned":14083,"wtftw":14084,"happyhumans":14085,"telebot":14086,"zn3":14087,"greatest":14088,"ikm":14089,"improvement":14090,"econnreset":14091,"econnaborted":14092,"enetdown":14093,"enetreset":14094,"enetunreach":14095,"016x":14096,"gentabs":14097,"v20170314":14098,"zm9v":14099,"zxc":14100,"eisconn":14101,"enolck":14102,"enolink":14103,"pnt3f":14104,"eidrm":14105,"ehostunreach":14106,"eprotonosupport":14107,"1f680":14108,"botocore":14109,"birth":14110,"beacon":14111,"folded":14112,"bs2state":14113,"nonewlines":14114,"weighted":14115,"simultaneous":14116,"edestaddrreq":14117,"edeadlk":14118,"etxtbsy":14119,"hundred":14120,"jrcxz":14121,"lustre":14122,"sepia":14123,"borogoves":14124,"processthreadsapi":14125,"1ea":14126,"2l":14127,"219":14128,"550":14129,"657":14130,"7n":14131,"800000":14132,"9f":14133,"ament":14134,"a10":14135,"aces":14136,"a77":14137,"btest":14138,"blow":14139,"b14":14140,"c13":14141,"ciph":14142,"d0a":14143,"gpt":14144,"hare":14145,"hops":14146,"hqc":14147,"irt":14148,"junk":14149,"jinc":14150,"kl":14151,"kin":14152,"llo":14153,"mg":14154,"nsome":14155,"nss":14156,"nvim":14157,"ppid":14158,"qq":14159,"qhas":14160,"rtrim":14161,"smanager":14162,"vh":14163,"vod":14164,"v02":14165,"w32":14166,"xic":14167,"x13":14168,"xrand":14169,"zlex":14170,"аб":14171,"世界":14172,"元素":14173,"revalidation":14174,"reinitialize":14175,"seto":14176,"ars":14177,"meg":14178,"undeploy":14179,"unassign":14180,"unwritten":14181,"cour":14182,"netevent":14183,"ents":14184,"id3":14185,"urgent":14186,"val4":14187,"new2":14188,"noerror":14189,"ty3":14190,"getcwd":14191,"getsockname":14192,"responsible":14193,"proportion":14194,"parti":14195,"theater":14196,"buflen":14197,"0056":14198,"shor":14199,"bodies":14200,"doub":14201,"dolor":14202,"matchmaker":14203,"op64":14204,"opml":14205,"keymod":14206,"validating":14207,"dataexchange":14208,"field0":14209,"outlines":14210,"argspec":14211,"fern":14212,"collate":14213,"saa":14214,"heast":14215,"sigpipe":14216,"sigbus":14217,"disposed":14218,"prepended":14219,"interior":14220,"resourcequota":14221,"index2":14222,"seng":14223,"impled":14224,"off0":14225,"asyncness":14226,"weax":14227,"spp":14228,"region2":14229,"txmode":14230,"grcov":14231,"row31":14232,"0x004e":14233,"0x001a":14234,"0x000d":14235,"db2":14236,"dbc":14237,"sub2":14238,"subsys":14239,"subqueries":14240,"irehte":14241,"addrx":14242,"wsl":14243,"numberz":14244,"root2":14245,"travis":14246,"0x3ffffff":14247,"sni":14248,"styling":14249,"imagesource":14250,"imagequant":14251,"query2":14252,"awsie":14253,"taskwarrior":14254,"serdegen":14255,"myvar":14256,"renders":14257,"orm3":14258,"decoder64":14259,"i64v":14260,"part2":14261,"originally":14262,"reax":14263,"flour":14264,"flo16":14265,"floated":14266,"linkat":14267,"webbluetooth":14268,"fsync":14269,"decisions":14270,"fd3":14271,"networkpolicy":14272,"245":14273,"152":14274,"movq":14275,"rg16":14276,"lexicons":14277,"vectorize":14278,"194":14279,"tmpd":14280,"recv1":14281,"bits2":14282,"continuing":14283,"fullargspec":14284,"0110":14285,"01t00":14286,"conditionally":14287,"helps":14288,"dax":14289,"128u8":14290,"228":14291,"shader4":14292,"int64builder":14293,"latin1":14294,"cbs":14295,"incident":14296,"i16literal":14297,"gnirehte":14298,"rgba16":14299,"glyphicon":14300,"shadowed":14301,"396":14302,"262":14303,"flexible":14304,"wouldn":14305,"trafficpolicy":14306,"powi":14307,"bluez":14308,"cidrs":14309,"vec3f":14310,"launches":14311,"periodically":14312,"ebp":14313,"geolocation":14314,"ddd":14315,"ethhdr":14316,"adaptive":14317,"mknod":14318,"rror":14319,"20170":14320,"months":14321,"expansions":14322,"crc64":14323,"chaos":14324,"47501efcdab":14325,"administration":14326,"5112":14327,"kwargs":14328,"displacement32":14329,"speeds":14330,"gpr16":14331,"nameres":14332,"occupancy":14333,"tesselation":14334,"replays":14335,"php5":14336,"destructed":14337,"0xffffff":14338,"eatmydata":14339,"ptraceback":14340,"neighbour":14341,"u32u32u32":14342,"u32u32u32u32":14343,"degree":14344,"0xffffffffffffffff":14345,"0x000900":14346,"numa":14347,"shortcuts":14348,"practices":14349,"101112":14350,"announce":14351,"deriving":14352,"╚═╝╚═╝":14353,"abcdefghijklmnopqrstuvwxy":14354,"freezable":14355,"eighths":14356,"8080808080808080":14357,"fauxmatchstmt":14358,"u5u5u5":14359,"southeast":14360,"supplementary":14361,"streetcar":14362,"navigatorinfo":14363,"slightly":14364,"ficulty":14365,"awkward":14366,"estimat":14367,"silence":14368,"678901234567890":14369,"systematic":14370,"βèƒôřèâßç":14371,"giga":14372,"ciphers":14373,"qhasm":14374,"xrandr":14375,"zlexcount":14376,"webbluetoothcg":14377,"gnirehtet":14378,"020":14379,"0111":14380,"450":14381,"5u32":14382,"50000":14383,"524":14384,"ares":14385,"aker":14386,"bgls":14387,"calloc":14388,"dv":14389,"dfe":14390,"dgrams":14391,"ffee":14392,"grip":14393,"hf":14394,"hol":14395,"jap":14396,"lrange":14397,"m9":14398,"m43":14399,"mtim":14400,"nlo":14401,"pdates":14402,"qrcode":14403,"rfa":14404,"rlimit":14405,"spop":14406,"tde":14407,"tstamp":14408,"uh":14409,"ureq":14410,"vun":14411,"v64":14412,"vsd":14413,"wf":14414,"wps":14415,"x90":14416,"ya":14417,"yz":14418,"ок":14419,"ри":14420,"reviews":14421,"insp":14422,"inform":14423,"atim":14424,"orac":14425,"envelo":14426,"alldo":14427,"uts":14428,"desp":14429,"deallocation":14430,"tower":14431,"asserted":14432,"rotr":14433,"unraw":14434,"unsplit":14435,"unconnected":14436,"unloaded":14437,"unclipped":14438,"unauthenticated":14439,"extran":14440,"th32":14441,"advert":14442,"adapt":14443,"urn":14444,"urbed":14445,"valcontents":14446,"wrt":14447,"getrange":14448,"getfd":14449,"cafe":14450,"causing":14451,"set3":14452,"reflink":14453,"value4":14454,"popl":14455,"pointe":14456,"namestring":14457,"007":14458,"0027":14459,"0037":14460,"0049":14461,"msvc":14462,"sci":14463,"oplay":14464,"3200":14465,"lender":14466,"regener":14467,"list2":14468,"msg3":14469,"640":14470,"64k":14471,"tied":14472,"iter1":14473,"itertools":14474,"ynr":14475,"sigill":14476,"sigchld":14477,"displace":14478,"preimage":14479,"deserializing":14480,"varbit":14481,"memlimit":14482,"u32v":14483,"nodegroups":14484,"groupmerger":14485,"row1":14486,"0x000b":14487,"bit7":14488,"bitpacker":14489,"1025":14490,"runlots":14491,"flag2":14492,"subfolder":14493,"1208":14494,"askmov":14495,"prims":14496,"abb":14497,"abgr":14498,"abigen":14499,"addrport":14500,"base10":14501,"mains":14502,"mainnet":14503,"00000001":14504,"ied2":14505,"recx":14506,"item1":14507,"vmaskmov":14508,"0x5aa5":14509,"eremote":14510,"query1":14511,"metal":14512,"clearance":14513,"waypoints":14514,"joe":14515,"latencies":14516,"joiner":14517,"clump":14518,"100ms":14519,"searchid":14520,"jective":14521,"referer":14522,"kernels":14523,"ginseng":14524,"1510":14525,"movl":14526,"190916":14527,"unitless":14528,"syncer":14529,"hsms":14530,"breakpoints":14531,"gleam":14532,"80h":14533,"oldp":14534,"oldname":14535,"ffidisp":14536,"trackers":14537,"daily":14538,"daynr":14539,"cloud9":14540,"88usize":14541,"3012":14542,"emails":14543,"lighting":14544,"partialeq":14545,"head3":14546,"336":14547,"iterators":14548,"dstrect":14549,"rpcs":14550,"computes":14551,"developers":14552,"keepenv":14553,"timerfd":14554,"cryptosuites":14555,"choices":14556,"5551":14557,"disturbed":14558,"drives":14559,"dup2":14560,"swaprows":14561,
[...]
