{"version":"1.0","truncation":null,"padding":null,"added_tokens":[{"id":0,"special":true,"content":"[UNK]","single_word":false,"lstrip":false,"rstrip":false,"normalized":false},{"id":1,"special":true,"content":"[CLS]","single_word":false,"lstrip":false,"rstrip":false,"normalized":false},{"id":2,"special":true,"content":"[SEP]","single_word":false,"lstrip":false,"rstrip":false,"normalized":false},{"id":3,"special":true,"content":"[PAD]","single_word":false,"lstrip":false,"rstrip":false,"normalized":false},{"id":4,"special":true,"content":"[MASK]","single_word":false,"lstrip":false,"rstrip":false,"normalized":false}],"normalizer":{"type":"Sequence","normalizers":[{"type":"Replace","pattern":{"Regex":"[\\[\\]{}\\(\\);]|[=<>\",_.&*\\'\\\\]|::|->"},"content":" "},{"type":"Replace","pattern":{"Regex":"(?<=[a-z])(?=[A-Z])|(?<=[A-Z])(?=[A-Z][a-z])"},"content":" "},{"type":"Lowercase"},{"type":"Replace","pattern":{"Regex":"let|const|fn|if|else|self|println"},"content":" "},{"type":"Replace","pattern":{"Regex":"\\b(\\w{1})\\b\\s?"},"content":" "}]},"pre_tokenizer":{"type":"Sequence","pretokenizers":[{"type":"Punctuation"},{"type":"Whitespace"}]},"post_processor":null,"decoder":null,"model":{"type":"BPE","dropout":null,"unk_token":"[UNK]","continuing_subword_prefix":null,"end_of_word_suffix":null,"fuse_unk":false,"vocab":{"[UNK]":0,"[CLS]":1,"[SEP]":2,"[PAD]":3,"[MASK]":4,"!":5,"#":6,"$":7,"%":8,"+":9,"-":10,"/":11,"0":12,"1":13,"2":14,"3":15,"4":16,"5":17,"6":18,"7":19,"8":20,"9":21,":":22,"?":23,"@":24,"^":25,"`":26,"a":27,"b":28,"c":29,"d":30,"e":31,"f":32,"g":33,"h":34,"i":35,"j":36,"k":37,"l":38,"m":39,"n":40,"o":41,"p":42,"q":43,"r":44,"s":45,"t":46,"u":47,"v":48,"w":49,"x":50,"y":51,"z":52,"|":53,"~":54,"£":55,"¤":56,"¥":57,"¦":58,"§":59,"©":60,"«":61,"®":62,"°":63,"±":64,"²":65,"³":66,"´":67,"µ":68,"¶":69,"·":70,"¸":71,"¹":72,"º":73,"»":74,"¼":75,"½":76,"¾":77,"¿":78,"×":79,"ß":80,"à":81,"á":82,"â":83,"ã":84,"ä":85,"å":86,"æ":87,"ç":88,"è":89,"é":90,"ê":91,"ë":92,"ì":93,"í":94,"î":95,"ï":96,"ñ":97,"ó":98,"ô":99,"ö":100,"÷":101,"ø":102,"ù":103,"ú":104,"û":105,"ü":106,"ą":107,"ć":108,"č":109,"đ":110,"ō":111,"ř":112,"ś":113,"ž":114,"ƒ":115,"ƙ":116,"ƭ":117,"ɠ":118,"ʲ":119,"́":120,"̇":121,"̈":122,"̐":123,"ά":124,"έ":125,"ή":126,"α":127,"β":128,"γ":129,"δ":130,"ε":131,"η":132,"θ":133,"κ":134,"λ":135,"μ":136,"ν":137,"ο":138,"ρ":139,"υ":140,"φ":141,"χ":142,"ύ":143,"а":144,"б":145,"в":146,"д":147,"е":148,"з":149,"и":150,"й":151,"к":152,"л":153,"м":154,"н":155,"о":156,"п":157,"р":158,"с":159,"т":160,"у":161,"ф":162,"х":163,"ч":164,"щ":165,"ы":166,"ь":167,"э":168,"ю":169,"я":170,"ё":171,"ا":172,"ب":173,"ة":174,"ت":175,"د":176,"ع":177,"ق":178,"ل":179,"ن":180,"ي":181,"ड":182,"प":183,"र":184,"व":185,"स":186,"ा":187,"्":188,"ᵏ":189,"ṫ":190,"‍":191,"‐":192,"‑":193,"‒":194,"–":195,"—":196,"‘":197,"’":198,"‚":199,"‛":200,"“":201,"”":202,"„":203,"•":204,"‣":205,"…":206,"′":207,"″":208,"‵":209,"‶":210,"‸":211,"‹":212,"›":213,"‼":214,"⁄":215,"⁅":216,"⁆":217,"⁇":218,"⁈":219,"⁉":220,"⁎":221,"⁏":222,"⁒":223,"⁓":224,"⁰":225,"ⁱ":226,"⁴":227,"⁵":228,"⁶":229,"⁷":230,"⁸":231,"⁹":232,"⁺":233,"⁻":234,"⁼":235,"⁽":236,"⁾":237,"₀":238,"₁":239,"₂":240,"₃":241,"₄":242,"₅":243,"₆":244,"₇":245,"₈":246,"₉":247,"₊":248,"₋":249,"₌":250,"₍":251,"₎":252,"₥":253,"€":254,"ℓ":255,"ℹ":256,"↑":257,"→":258,"↓":259,"∂":260,"∈":261,"√":262,"∞":263,"∵":264,"≠":265,"≡":266,"≤":267,"⌂":268,"␍":269,"␛":270,"␤":271,"①":272,"②":273,"③":274,"④":275,"⑤":276,"⑥":277,"⑦":278,"⑧":279,"⑨":280,"⑩":281,"⑪":282,"⑫":283,"⑬":284,"⑭":285,"⑮":286,"⑯":287,"⑰":288,"⑱":289,"⑲":290,"⑳":291,"⑴":292,"⑵":293,"⑶":294,"⑷":295,"⑸":296,"⑹":297,"⑺":298,"⑻":299,"⑼":300,"⑽":301,"⑾":302,"⑿":303,"⒀":304,"⒁":305,"⒂":306,"⒃":307,"⒄":308,"⒅":309,"⒆":310,"⒇":311,"⒈":312,"⒉":313,"⒊":314,"⒋":315,"⒌":316,"⒍":317,"⒎":318,"⒏":319,"⒐":320,"⒑":321,"⒒":322,"⒓":323,"⒔":324,"⒕":325,"⒖":326,"⒗":327,"⒘":328,"⒙":329,"⒚":330,"⒛":331,"⒜":332,"⒝":333,"⒞":334,"⒟":335,"⒠":336,"⒡":337,"⒢":338,"⒣":339,"⒤":340,"⒥":341,"⒦":342,"⒧":343,"⒨":344,"⒩":345,"⒪":346,"⒫":347,"⒬":348,"⒭":349,"⒮":350,"⒯":351,"⒰":352,"⒱":353,"⒲":354,"⒳":355,"⒴":356,"⒵":357,"⓪":358,"⓫":359,"⓬":360,"⓭":361,"⓮":362,"⓯":363,"⓰":364,"⓱":365,"⓲":366,"⓳":367,"⓴":368,"⓵":369,"⓶":370,"⓷":371,"⓸":372,"⓹":373,"⓺":374,"⓻":375,"⓼":376,"⓽":377,"⓾":378,"⓿":379,"─":380,"━":381,"│":382,"┌":383,"┐":384,"└":385,"┘":386,"├":387,"┬":388,"┻":389,"═":390,"║":391,"╔":392,"╗":393,"╚":394,"╝":395,"╭":396,"╮":397,"╯":398,"╰":399,"▁":400,"▂":401,"▃":402,"▄":403,"▅":404,"▆":405,"▇":406,"█":407,"▉":408,"▊":409,"▋":410,"▌":411,"▍":412,"▎":413,"▏":414,"░":415,"▒":416,"▓":417,"▕":418,"▖":419,"▛":420,"□":421,"▪":422,"▶":423,"▸":424,"▹":425,"▾":426,"◦":427,"☁":428,"☃":429,"★":430,"☆":431,"☑":432,"☒":433,"☛":434,"☺":435,"♂":436,"⚠":437,"✓":438,"✔":439,"✖":440,"✗":441,"❛":442,"❜":443,"❝":444,"❞":445,"❤":446,"❨":447,"❩":448,"❪":449,"❫":450,"❬":451,"❭":452,"❮":453,"❯":454,"❰":455,"❱":456,"❲":457,"❳":458,"❴":459,"❵":460,"❶":461,"❷":462,"❸":463,"❹":464,"❺":465,"❻":466,"❼":467,"❽":468,"❾":469,"❿":470,"➀":471,"➁":472,"➂":473,"➃":474,"➄":475,"➅":476,"➆":477,"➇":478,"➈":479,"➉":480,"➊":481,"➋":482,"➌":483,"➍":484,"➎":485,"➏":486,"➐":487,"➑":488,"➒":489,"➓":490,"➕":491,"➤":492,"⠁":493,"⠂":494,"⠄":495,"⠈":496,"⠉":497,"⠋":498,"⠐":499,"⠒":500,"⠓":501,"⠖":502,"⠙":503,"⠚":504,"⠠":505,"⠤":506,"⠦":507,"⠲":508,"⠴":509,"⡀":510,"⢀":511,"⫟":512,"⸨":513,"⸩":514,"、":515,"。":516,"《":517,"》":518,"あ":519,"い":520,"う":521,"え":522,"が":523,"き":524,"こ":525,"さ":526,"す":527,"そ":528,"た":529,"だ":530,"ち":531,"で":532,"と":533,"な":534,"に":535,"の":536,"は":537,"び":538,"ほ":539,"ぽ":540,"よ":541,"り":542,"る":543,"れ":544,"を":545,"ん":546,"ア":547,"ィ":548,"イ":549,"ウ":550,"ェ":551,"ク":552,"コ":553,"シ":554,"ス":555,"タ":556,"チ":557,"ッ":558,"ツ":559,"テ":560,"デ":561,"ト":562,"ド":563,"ナ":564,"ニ":565,"ヌ":566,"ハ":567,"ピ":568,"ブ":569,"ヘ":570,"ベ":571,"ホ":572,"ボ":573,"ミ":574,"ム":575,"メ":576,"ャ":577,"ュ":578,"ラ":579,"リ":580,"ル":581,"ロ":582,"ヲ":583,"ン":584,"ー":585,"㌍":586,"㌫":587,"㍑":588,"㍿":589,"一":590,"万":591,"上":592,"下":593,"不":594,"与":595,"世":596,"両":597,"两":598,"个":599,"中":600,"串":601,"临":602,"为":603,"主":604,"乐":605,"九":606,"了":607,"二":608,"于":609,"交":610,"亰":611,"人":612,"今":613,"从":614,"他":615,"代":616,"令":617,"以":618,"件":619,"但":620,"位":621,"你":622,"使":623,"依":624,"便":625,"信":626,"候":627,"值":628,"储":629,"元":630,"先":631,"免":632,"入":633,"全":634,"公":635,"其":636,"典":637,"内":638,"再":639,"冒":640,"写":641,"况":642,"出":643,"分":644,"列":645,"则":646,"初":647,"别":648,"到":649,"前":650,"功":651,"加":652,"动":653,"化":654,"北":655,"匹":656,"区":657,"半":658,"印":659,"即":660,"历":661,"反":662,"取":663,"变":664,"只":665,"可":666,"叶":667,"号":668,"合":669,"吉":670,"后":671,"向":672,"否":673,"员":674,"命":675,"咸":676,"哒":677,"啊":678,"啦":679,"回":680,"国":681,"图":682,"在":683,"型":684,"堆":685,"場":686,"士":687,"处":688,"复":689,"夏":690,"多":691,"大":692,"太":693,"失":694,"夷":695,"好":696,"始":697,"威":698,"子":699,"字":700,"存":701,"它":702,"完":703,"定":704,"容":705,"富":706,"对":707,"将":708,"小":709,"已":710,"布":711,"平":712,"年":713,"并":714,"序":715,"库":716,"应":717,"底":718,"度":719,"建":720,"式":721,"强":722,"归":723,"当":724,"径":725,"待":726,"心":727,"志":728,"忠":729,"快":730,"性":731,"息":732,"您":733,"情":734,"想":735,"成":736,"我":737,"或":738,"所":739,"打":740,"扩":741,"扱":742,"找":743,"拷":744,"持":745,"换":746,"据":747,"排":748,"接":749,"推":750,"提":751,"插":752,"撞":753,"支":754,"放":755,"效":756,"散":757,"数":758,"文":759,"新":760,"方":761,"无":762,"日":763,"时":764,"春":765,"是":766,"最":767,"有":768,"未":769,"本":770,"条":771,"析":772,"果":773,"查":774,"标":775,"校":776,"桶":777,"楽":778,"次":779,"欢":780,"正":781,"此":782,"殊":783,"残":784,"段":785,"每":786,"比":787,"水":788,"没":789,"法":790,"泡":791,"测":792,"消":793,"清":794,"滚":795,"满":796,"点":797,"父":798,"特":799,"犬":800,"玉":801,"现":802,"理":803,"甜":804,"用":805,"由":806,"申":807,"界":808,"百":809,"的":810,"目":811,"直":812,"相":813,"码":814,"确":815,"碰":816,"种":817,"称":818,"移":819,"稍":820,"空":821,"端":822,"符":823,"第":824,"等":825,"算":826,"管":827,"类":828,"精":829,"素":830,"累":831,"组":832,"经":833,"给":834,"络":835,"缀":836,"编":837,"网":838,"置":839,"老":840,"者":841,"能":842,"自":843,"至":844,"节":845,"若":846,"英":847,"获":848,"萌":849,"落":850,"薔":851,"虎":852,"行":853,"衡":854,"表":855,"装":856,"要":857,"見":858,"解":859,"語":860,"计":861,"订":862,"设":863,"证":864,"识":865,"试":866,"该":867,"误":868,"请":869,"调":870,"贝":871,"败":872,"越":873,"足":874,"路":875,"较":876,"辣":877,"达":878,"过":879,"迎":880,"返":881,"还":882,"这":883,"进":884,"迭":885,"述":886,"退":887,"选":888,"递":889,"通":890,"遍":891,"避":892,"郎":893,"部":894,"配":895,"量":896,"针":897,"错":898,"长":899,"阅":900,"除":901,"需":902,"非":903,"面":904,"音":905,"顶":906,"验":907,"點":908,"국":909,"데":910,"베":911,"분":912,"산":913,"스":914,"이":915,"터":916,"한":917,"":918,"":919,"":920,"":921,"":922,"":923,"":924,"":925,"":926,"":927,"":928,"":929,"":930,"":931,"":932,"":933,"":934,"":935,"":936,"":937,"":938,"":939,"":940,"":941,"":942,"":943,"":944,"":945,"":946,"":947,"":948,"":949,"":950,"":951,"":952,"":953,"":954,"":955,"":956,"":957,"":958,"":959,"":960,"":961,"":962,"":963,"":964,"":965,"":966,"":967,"":968,"":969,"":970,"":971,"":972,"":973,"":974,"":975,"":976,"":977,"":978,"":979,"":980,"":981,"":982,"":983,"":984,"":985,"":986,"":987,"":988,"":989,"":990,"":991,"":992,"":993,"":994,"":995,"":996,"":997,"":998,"":999,"":1000,"":1001,"":1002,"":1003,"":1004,"":1005,"﵂":1006,"︎":1007,"️":1008,"︵":1009,"！":1010,"＂":1011,"＃":1012,"＄":1013,"％":1014,"＆":1015,"＇":1016,"（":1017,"）":1018,"＊":1019,"＋":1020,"，":1021,"－":1022,"．":1023,"／":1024,"：":1025,"；":1026,"＜":1027,"＝":1028,"＞":1029,"？":1030,"＠":1031,"［":1032,"＼":1033,"］":1034,"＾":1035,"ａ":1036,"ｂ":1037,"ｃ":1038,"ｄ":1039,"ｅ":1040,"ｆ":1041,"｛":1042,"｝":1043,"～":1044,"ｺ":1045,"ﾁ":1046,"ﾆ":1047,"ﾊ":1048,"ﾝ":1049,"�":1050,"𝌆":1051,"𝕊":1052,"🌠":1053,"🌳":1054,"🍄":1055,"🍐":1056,"🍞":1057,"🍳":1058,"🎉":1059,"🎗":1060,"🐅":1061,"🐇":1062,"🐜":1063,"🐰":1064,"🐶":1065,"🐻":1066,"👍":1067,"👦":1068,"👧":1069,"👨":1070,"👩":1071,"💖":1072,"💣":1073,"💩":1074,"💯":1075,"📎":1076,"🔑":1077,"🔗":1078,"🕺":1079,"😀":1080,"😂":1081,"😃":1082,"😉":1083,"😊":1084,"🙄":1085,"🙈":1086,"🙉":1087,"🝄":1088,"🥜":1089,"🥺":1090,"🦹":1091,"er":1092,"re":1093,"in":1094,"on":1095,"st":1096,"at":1097,"or":1098,"se":1099,"en":1100,"al":1101,"ut":1102,"de":1103,"it":1104,"ion":1105,"err":1106,"ar":1107,"me":1108,"res":1109,"to":1110,"le":1111,"as":1112,"an":1113,"ro":1114,"ce":1115,"un":1116,"co":1117,"ct":1118,"error":1119,"ser":1120,"ch":1121,"ex":1122,"ue":1123,"mut":1124,"ge":1125,"ap":1126,"so":1127,"ne":1128,"th":1129,"0x":1130,"lo":1131,"ate":1132,"ad":1133,"fi":1134,"ent":1135,"ing":1136,"ul":1137,"id":1138,"ur":1139,"pe":1140,"li":1141,"str":1142,"val":1143,"te":1144,"is":1145,"wr":1146,"pt":1147,"con":1148,"ve":1149,"ck":1150,"ult":1151,"iz":1152,"bu":1153,"for":1154,"new":1155,"ize":1156,"ame":1157,"mat":1158,"no":1159,"ty":1160,"ed":1161,"get":1162,"resp":1163,"tr":1164,"ld":1165,"pu":1166,"respon":1167,"req":1168,"pro":1169,"response":1170,"ter":1171,"use":1172,"result":1173,"ru":1174,"ation":1175,"ca":1176,"sert":1177,"mp":1178,"set":1179,"par":1180,"uest":1181,"type":1182,"request":1183,"ref":1184,"the":1185,"ption":1186,"value":1187,"put":1188,"ite":1189,"assert":1190,"ma":1191,"some":1192,"po":1193,"and":1194,"up":1195,"ig":1196,"buf":1197,"name":1198,"ke":1199,"la":1200,"vi":1201,"00":1202,"one":1203,"size":1204,"ms":1205,"ext":1206,"soto":1207,"rusoto":1208,"code":1209,"ta":1210,"ss":1211,"pub":1212,"ret":1213,"sc":1214,"wrap":1215,"test":1216,"string":1217,"sh":1218,"ver":1219,"vec":1220,"rom":1221,"bo":1222,"from":1223,"ic":1224,"ction":1225,"mo":1226,"unwrap":1227,"um":1228,"ra":1229,"do":1230,"retur":1231,"pat":1232,"write":1233,"of":1234,"return":1235,"fa":1236,"eq":1237,"ble":1238,"cause":1239,"ri":1240,"pa":1241,"ata":1242,"ok":1243,"di":1244,"fo":1245,"vice":1246,"match":1247,"op":1248,"key":1249,"32":1250,"valid":1251,"eld":1252,"be":1253,"data":1254,"ial":1255,"input":1256,"field":1257,"ht":1258,"cl":1259,"int":1260,"read":1261,"ack":1262,"service":1263,"ine":1264,"add":1265,"len":1266,"text":1267,"map":1268,"ment":1269,"format":1270,"out":1271,"reg":1272,"by":1273,"ith":1274,"ind":1275,"arg":1276,"age":1277,"cre":1278,"il":1279,"list":1280,"with":1281,"not":1282,"msg":1283,"option":1284,"fer":1285,"64":1286,"proto":1287,"wa":1288,"path":1289,"che":1290,"scri":1291,"file":1292,"ti":1293,"ac":1294,"col":1295,"state":1296,"der":1297,"urce":1298,"none":1299,"lock":1300,"es":1301,"exce":1302,"ob":1303,"us":1304,"line":1305,"iter":1306,"end":1307,"sa":1308,"yn":1309,"serial":1310,"he":1311,"buffer":1312,"sig":1313,"mt":1314,"able":1315,"create":1316,"confi":1317,"stat":1318,"dis":1319,"fmt":1320,"config":1321,"ure":1322,"ild":1323,"sion":1324,"ev":1325,"parse":1326,"pre":1327,"reso":1328,"byte":1329,"std":1330,"fault":1331,"fe":1332,"exception":1333,"low":1334,"all":1335,"js":1336,"art":1337,"ist":1338,"am":1339,"descri":1340,"inter":1341,"event":1342,"default":1343,"cli":1344,"ren":1345,"lic":1346,"comp":1347,"coun":1348,"com":1349,"su":1350,"tp":1351,"date":1352,"pect":1353,"time":1354,"und":1355,"wn":1356,"ust":1357,"wait":1358,"usize":1359,"obj":1360,"expect":1361,"ort":1362,"stack":1363,"resource":1364,"json":1365,"invalid":1366,"block":1367,"into":1368,"start":1369,"deserial":1370,"inde":1371,"index":1372,"var":1373,"tag":1374,"u8":1375,"count":1376,"load":1377,"http":1378,"ync":1379,"ol":1380,"ive":1381,"qu":1382,"ned":1383,"build":1384,"stru":1385,"tran":1386,"await":1387,"update":1388,"has":1389,"ip":1390,"cess":1391,"wor":1392,"sen":1393,"ot":1394,"mess":1395,"message":1396,"ll":1397,"clone":1398,"info":1399,"context":1400,"fix":1401,"cur":1402,"per":1403,"lect":1404,"mem":1405,"app":1406,"mit":1407,"ition":1408,"lay":1409,"client":1410,"gen":1411,"kind":1412,"u32":1413,"ity":1414,"tok":1415,"imp":1416,"nal":1417,"ance":1418,"bytes":1419,"fal":1420,"true":1421,"off":1422,"async":1423,"wh":1424,"we":1425,"gro":1426,"em":1427,"false":1428,"ml":1429,"node":1430,"num":1431,"act":1432,"loc":1433,"protobuf":1434,"hand":1435,"push":1436,"ly":1437,"sp":1438,"unk":1439,"version":1440,"inst":1441,"ams":1442,"cont":1443,"cr":1444,"exp":1445,"tar":1446,"ect":1447,"pos":1448,"offset":1449,"group":1450,"target":1451,"deserialize":1452,"ader":1453,"box":1454,"rect":1455,"status":1456,"output":1457,"raw":1458,"ber":1459,"params":1460,"safe":1461,"region":1462,"doc":1463,"tx":1464,"16":1465,"ange":1466,"any":1467,"io":1468,"sign":1469,"options":1470,"patch":1471,"gr":1472,"vari":1473,"et":1474,"token":1475,"internal":1476,"next":1477,"mod":1478,"py":1479,"row":1480,"nown":1481,"oper":1482,"describe":1483,"stre":1484,"back":1485,"bool":1486,"dispatch":1487,"ec":1488,"ator":1489,"ull":1490,"server":1491,"sy":1492,"log":1493,"dir":1494,"0x00":1495,"max":1496,"ray":1497,"ba":1498,"found":1499,"ister":1500,"hash":1501,"rent":1502,"used":1503,"stream":1504,"unknown":1505,"spe":1506,"allow":1507,"unsafe":1508,"this":1509,"fun":1510,"db":1511,"0x0":1512,"bit":1513,"pay":1514,"im":1515,"array":1516,"ow":1517,"cf":1518,"expected":1519,"payload":1520,"ight":1521,"register":1522,"spec":1523,"ele":1524,"10":1525,"ory":1526,"but":1527,"are":1528,"run":1529,"ident":1530,"sup":1531,"check":1532,"led":1533,"coded":1534,"lag":1535,"variable":1536,"ptr":1537,"header":1538,"ctx":1539,"object":1540,"u64":1541,"flag":1542,"comm":1543,"sub":1544,"min":1545,"12":1546,"aa":1547,"move":1548,"uration":1549,"fr":1550,"instru":1551,"instruction":1552,"sche":1553,"mode":1554,"gl":1555,"args":1556,"def":1557,"ire":1558,"ted":1559,"ho":1560,"work":1561,"ger":1562,"validation":1563,"parame":1564,"parameter":1565,"can":1566,"attr":1567,"prefix":1568,"point":1569,"os":1570,"conne":1571,"spa":1572,"builder":1573,"inline":1574,"instance":1575,"ress":1576,"bind":1577,"ant":1578,"gment":1579,"rep":1580,"schema":1581,"pi":1582,"init":1583,"access":1584,"ded":1585,"ument":1586,"ated":1587,"user":1588,"ther":1589,"fields":1590,"exec":1591,"aut":1592,"account":1593,"scal":1594,"pty":1595,"izer":1596,"sto":1597,"send":1598,"formatter":1599,"ask":1600,"0x6":1601,"element":1602,"content":1603,"empty":1604,"that":1605,"cket":1606,"ner":1607,"pri":1608,"unused":1609,"null":1610,"store":1611,"ab":1612,"addr":1613,"ary":1614,"command":1615,"om":1616,"rc":1617,"source":1618,"0x7":1619,"ws":1620,"conta":1621,"encoded":1622,"win":1623,"base":1624,"rt":1625,"ci":1626,"yo":1627,"trans":1628,"char":1629,"wid":1630,"uster":1631,"cluster":1632,"i32":1633,"ft":1634,"gener":1635,"signed":1636,"impl":1637,"temp":1638,"dep":1639,"number":1640,"root":1641,"main":1642,"execut":1643,"0000":1644,"xml":1645,"cfg":1646,"fil":1647,"ied":1648,"late":1649,"variables":1650,"bug":1651,"ff":1652,"operation":1653,"color":1654,"lication":1655,"play":1656,"flags":1657,"struct":1658,"handle":1659,"ree":1660,"function":1661,"ule":1662,"rec":1663,"direct":1664,"uld":1665,"current":1666,"static":1667,"lob":1668,"debug":1669,"address":1670,"frame":1671,"0x8":1672,"order":1673,"contain":1674,"tra":1675,"0x2":1676,"windo":1677,"owned":1678,"rule":1679,"try":1680,"atch":1681,"table":1682,"call":1683,"values":1684,"position":1685,"lib":1686,"ts":1687,"cm":1688,"item":1689,"ptor":1690,"0x4":1691,"cle":1692,"cache":1693,"gra":1694,"range":1695,"vm":1696,"coder":1697,"limit":1698,"collect":1699,"mage":1700,"quer":1701,"ibut":1702,"0x5":1703,"ere":1704,"inner":1705,"man":1706,"polic":1707,"0x3":1708,"ler":1709,"filter":1710,"transa":1711,"sn":1712,"fra":1713,"ual":1714,"space":1715,"descriptor":1716,"net":1717,"other":1718,"module":1719,"insert":1720,"sty":1721,"ep":1722,"flow":1723,"0x9":1724,"ry":1725,"device":1726,"image":1727,"20":1728,"ature":1729,"cap":1730,"transaction":1731,"query":1732,"child":1733,"sing":1734,"env":1735,"local":1736,"api":1737,"opt":1738,"ings":1739,"aws":1740,"window":1741,"width":1742,"od":1743,"ink":1744,"peer":1745,"style":1746,"amp":1747,"pl":1748,"que":1749,"ls":1750,"ha":1751,"ard":1752,"ns":1753,"colum":1754,"ctor":1755,"crate":1756,"ould":1757,"texture":1758,"you":1759,"cond":1760,"display":1761,"form":1762,"reader":1763,"leve":1764,"application":1765,"gth":1766,"mis":1767,"action":1768,"length":1769,"ence":1770,"cer":1771,"change":1772,"lice":1773,"post":1774,"expr":1775,"configuration":1776,"cry":1777,"slice":1778,"sor":1779,"foo":1780,"0x1":1781,"non":1782,"url":1783,"src":1784,"ont":1785,"must":1786,"last":1787,"exist":1788,"clo":1789,"fragment":1790,"vo":1791,"port":1792,"task":1793,"auth":1794,"ics":1795,"policy":1796,"sd":1797,"reflect":1798,"writer":1799,"ies":1800,"mer":1801,"face":1802,"dy":1803,"cmd":1804,"iled":1805,"va":1806,"batch":1807,"ord":1808,"met":1809,"sec":1810,"sess":1811,"sk":1812,"arc":1813,"poll":1814,"cat":1815,"remove":1816,"sed":1817,"ir":1818,"meth":1819,"method":1820,"serde":1821,"ass":1822,"entry":1823,"should":1824,"25":1825,"types":1826,"attribut":1827,"f64":1828,"deserializer":1829,"grap":1830,"my":1831,"ide":1832,"arch":1833,"orig":1834,"gu":1835,"job":1836,"typ":1837,"render":1838,"orm":1839,"11":1840,"decoder":1841,"clear":1842,"way":1843,"enum":1844,"glob":1845,"ek":1846,"pc":1847,"af":1848,"pan":1849,"graph":1850,"tree":1851,"jo":1852,"000":1853,"vis":1854,"level":1855,"scalar":1856,"i64":1857,"ong":1858,"pack":1859,"pipe":1860,"snap":1861,"rst":1862,"ical":1863,"0xe":1864,"defin":1865,"super":1866,"ures":1867,"body":1868,"ag":1869,"lat":1870,"hel":1871,"script":1872,"case":1873,"chan":1874,"thread":1875,"session":1876,"libc":1877,"metad":1878,"0xb":1879,"metadata":1880,"f32":1881,"where":1882,"du":1883,"0xd":1884,"member":1885,"handler":1886,"uri":1887,"first":1888,"gram":1889,"shot":1890,"ched":1891,"connection":1892,"dyn":1893,"left":1894,"part":1895,"lit":1896,"origin":1897,"sym":1898,"nel":1899,"argument":1900,"socket":1901,"asso":1902,"ready":1903,"only":1904,"height":1905,"amz":1906,"0xc":1907,"whi":1908,"column":1909,"maz":1910,"mar":1911,"fail":1912,"idx":1913,"tags":1914,"amaz":1915,"lace":1916,"concat":1917,"bor":1918,"find":1919,"ication":1920,"amazon":1921,"mult":1922,"skip":1923,"lable":1924,"rea":1925,"eng":1926,"flo":1927,"0xf":1928,"panic":1929,"ute":1930,"associ":1931,"failed":1932,"sdl":1933,"global":1934,"arn":1935,"word":1936,"eded":1937,"right":1938,"take":1939,"html":1940,"was":1941,"engine":1942,"process":1943,"buffered":1944,"ill":1945,"bin":1946,"make":1947,"suc":1948,"layout":1949,"vie":1950,"connect":1951,"core":1952,"bindgen":1953,"wire":1954,"sions":1955,"dest":1956,"stor":1957,"serialize":1958,"document":1959,"cast":1960,"template":1961,"ix":1962,"commit":1963,"zer":1964,"validator":1965,"requ":1966,"location":1967,"snapshot":1968,"join":1969,"link":1970,"clu":1971,"ava":1972,"ier":1973,"view":1974,"web":1975,"float":1976,"too":1977,"duration":1978,"den":1979,"matches":1980,"el":1981,"ph":1982,"select":1983,"rece":1984,"fs":1985,"vert":1986,"aaaa":1987,"ired":1988,"parser":1989,"parsed":1990,"sm":1991,"host":1992,"definition":1993,"channel":1994,"storage":1995,"public":1996,"pr":1997,"open":1998,"parent":1999,"fixt":2000,"resol":2001,"queue":2002,"0xa":2003,"dec":2004,"tc":2005,"lection":2006,"cust":2007,"memory":2008,"ization":2009,"down":2010,"fd":2011,"author":2012,"syst":2013,"initial":2014,"avai":2015,"events":2016,"record":2017,"zero":2018,"instr":2019,"stop":2020,"custom":2021,"encry":2022,"ign":2023,"bar":2024,"timeout":2025,"util":2026,"u16":2027,"ud":2028,"inclu":2029,"sum":2030,"sw":2031,"step":2032,"ized":2033,"peek":2034,"exceeded":2035,"dom":2036,"long":2037,"fin":2038,"bad":2039,"tern":2040,"imple":2041,"sender":2042,"enable":2043,"borrow":2044,"100":2045,"ql":2046,"listen":2047,"directory":2048,"page":2049,"system":2050,"search":2051,"segment":2052,"feature":2053,"ject":2054,"loop":2055,"labe":2056,"conf":2057,"keys":2058,"symbo":2059,"bound":2060,"domain":2061,"clip":2062,"ping":2063,"ers":2064,"contains":2065,"cursor":2066,"org":2067,"mon":2068,"medi":2069,"supp":2070,"many":2071,"available":2072,"refer":2073,"enc":2074,"rot":2075,"ng":2076,"rop":2077,"align":2078,"iv":2079,"orted":2080,"func":2081,"copy":2082,"merge":2083,"ain":2084,"network":2085,"mitive":2086,"primitive":2087,"sett":2088,"ker":2089,"sco":2090,"success":2091,"rx":2092,"when":2093,"now":2094,"metr":2095,"split":2096,"world":2097,"syn":2098,"ding":2099,"dete":2100,"ali":2101,"produ":2102,"rust":2103,"24":2104,"have":2105,"span":2106,"utf":2107,"https":2108,"lu":2109,"scope":2110,"auto":2111,"drop":2112,"import":2113,"required":2114,"ten":2115,"au":2116,"inte":2117,"capac":2118,"capacity":2119,"share":2120,"second":2121,"repe":2122,"est":2123,"round":2124,"game":2125,"eval":2126,"int32":2127,"program":2128,"gin":2129,"ample":2130,"requests":2131,"txn":2132,"term":2133,"does":2134,"include":2135,"files":2136,"lan":2137,"ben":2138,"operand":2139,"after":2140,"pool":2141,"stamp":2142,"cell":2143,"bench":2144,"15":2145,"transform":2146,"lisp":2147,"meta":2148,"cc":2149,"parameters":2150,"mov":2151,"label":2152,"rg":2153,"pk":2154,"supported":2155,"lex":2156,"vector":2157,"gest":2158,"mask":2159,"plan":2160,"endpoint":2161,"mac":2162,"signature":2163,"dat":2164,"roll":2165,"sent":2166,"while":2167,"bal":2168,"ea":2169,"chunk":2170,"backend":2171,"actual":2172,"font":2173,"symbol":2174,"v2":2175,"package":2176,"quo":2177,"utf8":2178,"short":2179,"over":2180,"will":2181,"ses":2182,"cert":2183,"fut":2184,"exten":2185,"then":2186,"decode":2187,"protocol":2188,"samp":2189,"rout":2190,"print":2191,"generate":2192,"formation":2193,"chain":2194,"ces":2195,"example":2196,"cached":2197,"19":2198,"pix":2199,"settings":2200,"permis":2201,"mana":2202,"attribute":2203,"epo":2204,"unit":2205,"gate":2206,"epoch":2207,"manager":2208,"sync":2209,"hs":2210,"dead":2211,"icate":2212,"lines":2213,"ib":2214,"exists":2215,"brea":2216,"attributes":2217,"selection":2218,"associate":2219,"reference":2220,"sha":2221,"br":2222,"subscri":2223,"proper":2224,"break":2225,"gle":2226,"ending":2227,"cred":2228,"ling":2229,"tmp":2230,"top":2231,"binary":2232,"ved":2233,"class":2234,"rol":2235,"scan":2236,"ape":2237,"ential":2238,"more":2239,"fore":2240,"recv":2241,"rest":2242,"cor":2243,"depth":2244,"termin":2245,"go":2246,"bits":2247,"ef":2248,"conn":2249,"border":2250,"project":2251,"replace":2252,"pair":2253,"param":2254,"pass":2255,"execute":2256,"red":2257,"listener":2258,"sport":2259,"execution":2260,"transport":2261,"may":2262,"information":2263,"80":2264,"tail":2265,"tokio":2266,"dout":2267,"cx":2268,"close":2269,"old":2270,"latest":2271,"writ":2272,"extend":2273,"vertex":2274,"stdout":2275,"compres":2276,"identity":2277,"description":2278,"ie":2279,"255":2280,"loy":2281,"contin":2282,"13":2283,"14":2284,"front":2285,"usage":2286,"docs":2287,"ton":2288,"deploy":2289,"denied":2290,"pipeline":2291,"norm":2292,"zy":2293,"dr":2294,"ations":2295,"accessor":2296,"multip":2297,"mil":2298,"items":2299,"ular":2300,"sock":2301,"vid":2302,"draw":2303,"unt":2304,"alias":2305,"raft":2306,"mock":2307,"gateway":2308,"tcp":2309,"counter":2310,"coding":2311,"b0":2312,"full":2313,"credential":2314,"uni":2315,"acce":2316,"mail":2317,"pop":2318,"ys":2319,"123":2320,"her":2321,"rvalue":2322,"ast":2323,"blob":2324,"results":2325,"shared":2326,"entity":2327,"before":2328,"secret":2329,"sand":2330,"model":2331,"01":2332,"statement":2333,"sandbox":2334,"cmp":2335,"void":2336,"serializer":2337,"cpu":2338,"pin":2339,"istr":2340,"need":2341,"ctxt":2342,"encode":2343,"got":2344,"groups":2345,"pending":2346,"abo":2347,"lazy":2348,"organ":2349,"grpc":2350,"tax":2351,"ative":2352,"ility":2353,"runtime":2354,"control":2355,"opts":2356,"namespace":2357,"backup":2358,"errors":2359,"organization":2360,"xy":2361,"ron":2362,"encoding":2363,"condition":2364,"ateg":2365,"ffi":2366,"variant":2367,"executor":2368,"encryption":2369,"proof":2370,"dio":2371,"gh":2372,"track":2373,"tests":2374,"packet":2375,"timestamp":2376,"rows":2377,"continue":2378,"ju":2379,"exit":2380,"see":2381,"help":2382,"hello":2383,"onent":2384,"sys":2385,"simple":2386,"ced":2387,"ally":2388,"spawn":2389,"priv":2390,"99":2391,"ness":2392,"provid":2393,"headers":2394,"mi":2395,"already":2396,"rate":2397,"ui":2398,"disable":2399,"fixtures":2400,"cance":2401,"failure":2402,"jump":2403,"ible":2404,"ped":2405,"recei":2406,"container":2407,"da":2408,"compute":2409,"todo":2410,"mark":2411,"00000000":2412,"waf":2413,"alloc":2414,"ish":2415,"names":2416,"llvm":2417,"lict":2418,"conflict":2419,"place":2420,"ick":2421,"sequ":2422,"med":2423,"profile":2424,"arguments":2425,"role":2426,"note":2427,"returns":2428,"very":2429,"equal":2430,"128":2431,"href":2432,"sure":2433,"metrics":2434,"pose":2435,"desc":2436,"layer":2437,"sur":2438,"using":2439,"real":2440,"cloud":2441,"ous":2442,"logical":2443,"rel":2444,"receive":2445,"vide":2446,"component":2447,"sv":2448,"finish":2449,"lig":2450,"validate":2451,"append":2452,"depend":2453,"enabled":2454,"tw":2455,"sol":2456,"guide":2457,"button":2458,"22":2459,"scale":2460,"pattern":2461,"charact":2462,"missing":2463,"syntax":2464,"provider":2465,"mig":2466,"shader":2467,"ordering":2468,"pixel":2469,"rand":2470,"ins":2471,"registr":2472,"warn":2473,"deli":2474,"rules":2475,"your":2476,"fixture":2477,"rs":2478,"filen":2479,"rection":2480,"credentials":2481,"edit":2482,"which":2483,"directive":2484,"direction":2485,"small":2486,"mediate":2487,"tot":2488,"unavailable":2489,"apply":2490,"filename":2491,"derive":2492,"88":2493,"detail":2494,"v1":2495,"support":2496,"signal":2497,"proxy":2498,"int64":2499,"private":2500,"30":2501,"total":2502,"ids":2503,"aaaaaaaa":2504,"throt":2505,"thrott":2506,"resources":2507,"adi":2508,"quote":2509,"atta":2510,"prim":2511,"normal":2512,"50":2513,"igno":2514,"trace":2515,"ase":2516,"there":2517,"show":2518,"elements":2519,"2d":2520,"integer":2521,"future":2522,"prog":2523,"pha":2524,"lot":2525,"expres":2526,"mm":2527,"ities":2528,"active":2529,"ments":2530,"mne":2531,"reen":2532,"immediate":2533,"worker":2534,"67":2535,"flu":2536,"migr":2537,"uid":2538,"its":2539,"tensor":2540,"surface":2541,"named":2542,"sequence":2543,"rng":2544,"present":2545,"email":2546,"subscription":2547,"free":2548,"single":2549,"same":2550,"permissions":2551,"multi":2552,"40":2553,"atures":2554,"──":2555,"digest":2556,"alignment":2557,"seq":2558,"scaling":2559,"ash":2560,"wrapping":2561,"untag":2562,"graphql":2563,"receiver":2564,"unexpected":2565,"sets":2566,"45":2567,"kit":2568,"hold":2569,"dim":2570,"light":2571,"children":2572,"anch":2573,"ledger":2574,"vision":2575,"prec":2576,"encoder":2577,"ster":2578,"sort":2579,"two":2580,"200":2581,"shape":2582,"hex":2583,"mote":2584,"authorized":2585,"sql":2586,"latin":2587,"interface":2588,"partial":2589,"report":2590,"head":2591,"widget":2592,"17":2593,"tit":2594,"ency":2595,"each":2596,"256":2597,"bl":2598,"pb":2599,"logger":2600,"just":2601,"throttling":2602,"transactions":2603,"prev":2604,"nodes":2605,"ucmd":2606,"posit":2607,"about":2608,"mb":2609,"reach":2610,"bytecode":2611,"secur":2612,"boo":2613,"css":2614,"atom":2615,"18":2616,"ugh":2617,"security":2618,"audio":2619,"begin":2620,"multiple":2621,"compressed":2622,"blocks":2623,"uble":2624,"rm":2625,"export":2626,"she":2627,"typed":2628,"flush":2629,"thing":2630,"cal":2631,"llow":2632,"generic":2633,"alth":2634,"cent":2635,"pd":2636,"own":2637,"section":2638,"wasm":2639,"alpha":2640,"columns":2641,"replication":2642,"implement":2643,"double":2644,"bot":2645,"destin":2646,"callback":2647,"ward":2648,"migration":2649,"instances":2650,"ub":2651,"mnemon":2652,"union":2653,"prop":2654,"follow":2655,"stats":2656,"hdr":2657,"sched":2658,"remote":2659,"xx":2660,"cannot":2661,"reset":2662,"ffff":2663,"sample":2664,"lar":2665,"health":2666,"hig":2667,"adding":2668,"car":2669,"rgb":2670,"marg":2671,"zone":2672,"evalu":2673,"png":2674,"diem":2675,"operator":2676,"leader":2677,"ln":2678,"cb":2679,"fle":2680,"sus":2681,"33":2682,"tract":2683,"guard":2684,"pointer":2685,"less":2686,"reser":2687,"guage":2688,"envi":2689,"language":2690,"milli":2691,"environ":2692,"indi":2693,"iterator":2694,"maybe":2695,"extern":2696,"ways":2697,"admin":2698,"regex":2699,"del":2700,"edge":2701,"virt":2702,"repeated":2703,"distr":2704,"singular":2705,"fleet":2706,"flat":2707,"interval":2708,"mount":2709,"imal":2710,"cy":2711,"pkg":2712,"readable":2713,"dns":2714,"idden":2715,"resolver":2716,"registry":2717,"checked":2718,"here":2719,"fet":2720,"accept":2721,"inc":2722,"pted":2723,"dst":2724,"tex":2725,"ume":2726,"hook":2727,"rhs":2728,"lium":2729,"pers":2730,"glium":2731,"unix":2732,"title":2733,"distribut":2734,"attach":2735,"isize":2736,"reachable":2737,"sume":2738,"always":2739,"slot":2740,"deployment":2741,"tt":2742,"shake":2743,"liter":2744,"look":2745,"ww":2746,"generated":2747,"kv":2748,"returned":2749,"activ":2750,"vas":2751,"suf":2752,"binding":2753,"destination":2754,"v4":2755,"raint":2756,"sin":2757,"42":2758,"expression":2759,"sizes":2760,"propose":2761,"abc":2762,"balan":2763,"ants":2764,"suffix":2765,"wasi":2766,"0x01":2767,"once":2768,"ile":2769,"could":2770,"chars":2771,"metric":2772,"fetch":2773,"handshake":2774,"stderr":2775,"uint":2776,"agg":2777,"velo":2778,"large":2779,"ries":2780,"branch":2781,"bb":2782,"rpc":2783,"toml":2784,"comput":2785,"extra":2786,"ions":2787,"testkit":2788,"macro":2789,"cs":2790,"trait":2791,"than":2792,"router":2793,"ning":2794,"develo":2795,"big":2796,"progress":2797,"reco":2798,"entries":2799,"indices":2800,"random":2801,"pla":2802,"23":2803,"ating":2804,"tokens":2805,"parts":2806,"versions":2807,"compare":2808,"mnemonic":2809,"workspace":2810,"vious":2811,"cancel":2812,"done":2813,"route":2814,"acc":2815,"character":2816,"angle":2817,"scroll":2818,"contents":2819,"udp":2820,"lean":2821,"boolean":2822,"literal":2823,"without":2824,"ignore":2825,"dev":2826,"created":2827,"virtual":2828,"itor":2829,"hist":2830,"smb":2831,"details":2832,"dimen":2833,"padding":2834,"esis":2835,"statist":2836,"marker":2837,"unreachable":2838,"ful":2839,"sim":2840,"dict":2841,"phys":2842,"decimal":2843,"gpu":2844,"buffers":2845,"setup":2846,"imm":2847,"because":2848,"property":2849,"previous":2850,"fork":2851,"ops":2852,"aggreg":2853,"cook":2854,"fall":2855,"arrow":2856,"tile":2857,"mute":2858,"bla":2859,"ging":2860,"tls":2861,"reposit":2862,"margin":2863,"deprec":2864,"changed":2865,"secs":2866,"ds":2867,"pid":2868,"extensions":2869,"environment":2870,"coord":2871,"install":2872,"physical":2873,"correct":2874,"unauthorized":2875,"theme":2876,"selector":2877,"product":2878,"partition":2879,"lish":2880,"inputs":2881,"detect":2882,"tup":2883,"delta":2884,"bitmap":2885,"enumer":2886,"statistics":2887,"fb":2888,"common":2889,"keep":2890,"02":2891,"offsets":2892,"paths":2893,"genesis":2894,"ground":2895,"timer":2896,"near":2897,"vol":2898,"transfer":2899,"exter":2900,"kms":2901,"extension":2902,"millis":2903,"instant":2904,"site":2905,"assign":2906,"ties":2907,"collection":2908,"tuple":2909,"fixed":2910,"bro":2911,"white":2912,"tom":2913,"comment":2914,"board":2915,"producer":2916,"properties":2917,"pto":2918,"transmute":2919,"media":2920,"fect":2921,"detection":2922,"watch":2923,"optional":2924,"disassociate":2925,"balancer":2926,"plat":2927,"cla":2928,"decla":2929,"vote":2930,"compile":2931,"ited":2932,"developer":2933,"terminal":2934,"sle":2935,"external":2936,"decl":2937,"i16":2938,"relat":2939,"shut":2940,"manage":2941,"86":2942,"bounds":2943,"native":2944,"enumerate":2945,"lhs":2946,"since":2947,"gn":2948,"leg":2949,"relative":2950,"crypto":2951,"carg":2952,"screen":2953,"retr":2954,"cargo":2955,"existing":2956,"features":2957,"seek":2958,"arm":2959,"appro":2960,"cons":2961,"unsupported":2962,"s3":2963,"boxed":2964,"nt":2965,"codec":2966,"resolve":2967,"cho":2968,"imum":2969,"jobs":2970,"reas":2971,"diction":2972,"dig":2973,"inher":2974,"how":2975,"bas":2976,"bindings":2977,"lap":2978,"succe":2979,"bucket":2980,"fill":2981,"pse":2982,"pull":2983,"feed":2984,"save":2985,"such":2986,"initialized":2987,"conver":2988,"datum":2989,"anal":2990,"0usize":2991,"restore":2992,"ise":2993,"curren":2994,"1000":2995,"starts":2996,"ensure":2997,"repository":2998,"don":2999,"extract":3000,"fast":3001,"strateg":3002,"trim":3003,"rough":3004,"policies":3005,"high":3006,"distribution":3007,"scen":3008,"rev":3009,"database":3010,"platform":3011,"cks":3012,"seconds":3013,"servo":3014,"matri":3015,"owner":3016,"home":3017,"dependency":3018,"gly":3019,"canvas":3020,"matrix":3021,"arg1":3022,"cookie":3023,"actions":3024,"55":3025,"qual":3026,"sleep":3027,"bitness":3028,"dian":3029,"inv":3030,"writeln":3031,"r1":3032,"dist":3033,"hosted":3034,"framebuffer":3035,"endian":3036,"udo":3037,"side":3038,"elem":3039,"rgba":3040,"glyph":3041,"pseudo":3042,"shad":3043,"upload":3044,"strategy":3045,"boot":3046,"cases":3047,"declare":3048,"oned":3049,"uuid":3050,"adv":3051,"i8":3052,"members":3053,"computed":3054,"gas":3055,"shadow":3056,"permission":3057,"compos":3058,"facet":3059,"reason":3060,"pn":3061,"0x02":3062,"arr":3063,"convert":3064,"gc":3065,"consum":3066,"dimensions":3067,"consen":3068,"0x0f":3069,"consensus":3070,"tf":3071,"streaming":3072,"39":3073,"containing":3074,"keyword":3075,"categ":3076,"posal":3077,"area":3078,"dri":3079,"esc":3080,"levels":3081,"iced":3082,"basic":3083,"errno":3084,"lease":3085,"fold":3086,"incre":3087,"leaf":3088,"trail":3089,"proposal":3090,"ice":3091,"pkt":3092,"ear":3093,"urlen":3094,"miter":3095,"nest":3096,"advance":3097,"also":3098,"unsigned":3099,"decry":3100,"associated":3101,"grid":3102,"shell":3103,"shutdown":3104,"urlencoded":3105,"buil":3106,"ches":3107,"wal":3108,"0xff":3109,"built":3110,"messages":3111,"defined":3112,"incomp":3113,"rary":3114,"original":3115,"ranges":3116,"ital":3117,"77":3118,"opa":3119,"takes":3120,"trig":3121,"acqu":3122,"succeed":3123,"grade":3124,"unicode":3125,"volume":3126,"received":3127,"been":3128,"weight":3129,"ability":3130,"windows":3131,"neg":3132,"interest":3133,"dup":3134,"sampler":3135,"nul":3136,"26":3137,"verse":3138,"1u32":3139,"exact":3140,"video":3141,"known":3142,"integr":3143,"diag":3144,"mic":3145,"je":3146,"writing":3147,"trigger":3148,"contact":3149,"elast":3150,"k1":3151,"rte":3152,"25519":3153,"varint":3154,"iam":3155,"lin":3156,"forward":3157,"updates":3158,"mutex":3159,"thon":3160,"summ":3161,"background":3162,"mid":3163,"hint":3164,"python":3165,"unc":3166,"0x66":3167,"forb":3168,"summary":3169,"secure":3170,"vpc":3171,"doesn":3172,"compiled":3173,"micro":3174,"cover":3175,"formed":3176,"bet":3177,"cp":3178,"ux":3179,"4usize":3180,"trunc":3181,"downcast":3182,"si":3183,"forbidden":3184,"ead":3185,"master":3186,"absol":3187,"plain":3188,"x00":3189,"gradi":3190,"quota":3191,"gradient":3192,"waker":3193,"operations":3194,"0u8":3195,"users":3196,"cloned":3197,"anti":3198,"rotate":3199,"absolute":3200,"password":3201,"concurrent":3202,"remain":3203,"dictionary":3204,"black":3205,"66":3206,"nost":3207,"changes":3208,"ssl":3209,"publish":3210,"guest":3211,"allowed":3212,"effect":3213,"overflow":3214,"bottom":3215,"flex":3216,"plu":3217,"factor":3218,"inherited":3219,"oct":3220,"final":3221,"swap":3222,"subnet":3223,"bencher":3224,"resolved":3225,"nan":3226,"seed":3227,"gt":3228,"weld":3229,"av":3230,"bitfield":3231,"want":3232,"els":3233,"mapping":3234,"closed":3235,"authent":3236,"127":3237,"radi":3238,"28":3239,"states":3240,"plugin":3241,"cost":3242,"services":3243,"like":3244,"mal":3245,"delay":3246,"0x10":3247,"percent":3248,"consume":3249,"oneof":3250,"1024":3251,"accounts":3252,"upgrade":3253,"21":3254,"lookup":3255,"36":3256,"nil":3257,"consumer":3258,"visor":3259,"licen":3260,"written":3261,"detector":3262,"thr":3263,"0x04":3264,"dump":3265,"capital":3266,"provision":3267,"generics":3268,"compil":3269,"encrypted":3270,"history":3271,"dum":3272,"sal":3273,"attrs":3274,"mangle":3275,"0x73":3276,"capt":3277,"scene":3278,"ps":3279,"retrie":3280,"eof":3281,"upper":3282,"mul":3283,"deprecated":3284,"unique":3285,"atomic":3286,"cing":3287,"md":3288,"zip":3289,"0x90":3290,"heap":3291,"sst":3292,"r2":3293,"ross":3294,"both":3295,"0x34":3296,"tab":3297,"score":3298,"trust":3299,"currency":3300,"diagnost":3301,"rtp":3302,"x86":3303,"through":3304,"ulate":3305,"eg":3306,"ires":3307,"quick":3308,"blen":3309,"card":3310,"pas":3311,"nested":3312,"nullable":3313,"cow":3314,"abort":3315,"ax":3316,"pad":3317,"limited":3318,"converted":3319,"mouse":3320,"running":3321,"8usize":3322,"sz":3323,"ves":3324,"0x03":3325,"nd":3326,"spat":3327,"would":3328,"vec4":3329,"stdin":3330,"spatial":3331,"fact":3332,"────":3333,"bra":3334,"separ":3335,"famil":3336,"rd":3337,"optim":3338,"fu":3339,"indent":3340,"stmt":3341,"thru":3342,"family":3343,"dra":3344,"repeat":3345,"pf":3346,"seg":3347,"balance":3348,"mor":3349,"ferent":3350,"targets":3351,"amount":3352,"dummy":3353,"12345":3354,"streams":3355,"initi":3356,"60":3357,"oo":3358,"vcpu":3359,"0x61":3360,"0x80":3361,"vault":3362,"selected":3363,"driver":3364,"mpt":3365,"emit":3366,"hi":3367,"our":3368,"trip":3369,"oms":3370,"ories":3371,"op0":3372,"linked":3373,"stacking":3374,"rpn":3375,"alive":3376,"getter":3377,"blockchain":3378,"compression":3379,"provide":3380,"creation":3381,"traffi":3382,"traffic":3383,"cbor":3384,"rw":3385,"v6":3386,"elastic":3387,"wise":3388,"updated":3389,"orms":3390,"pixels":3391,"implemented":3392,"pow":3393,"rocks":3394,"31":3395,"wrapper":3396,"int16":3397,"infos":3398,"og":3399,"deref":3400,"broad":3401,"mutation":3402,"lower":3403,"aaaaaaaaaaaaaaaa":3404,"ov":3405,"px":3406,"expand":3407,"logging":3408,"reply":3409,"38":3410,"points":3411,"duplic":3412,"deps":3413,"jection":3414,"srgb":3415,"stand":3416,"revision":3417,"0x78":3418,"ctap":3419,"license":3420,"tasks":3421,"stenc":3422,"voke":3423,"blue":3424,"broadcast":3425,"stencil":3426,"1e":3427,"0x12":3428,"topic":3429,"clean":3430,"instanti":3431,"ums":3432,"workflow":3433,"encrypt":3434,"chunks":3435,"ution":3436,"regions":3437,"baz":3438,"x0":3439,"signer":3440,"answ":3441,"0x08":3442,"sink":3443,"based":3444,"loss":3445,"0x05":3446,"fragments":3447,"sib":3448,"fc":3449,"feedback":3450,"dt":3451,"relay":3452,"tick":3453,"istic":3454,"vals":3455,"pref":3456,"reat":3457,"perform":3458,"48":3459,"sight":3460,"stick":3461,"called":3462,"these":3463,"0x2d":3464,"entid":3465,"creates":3466,"hasher":3467,"until":3468,"digit":3469,"stage":3470,"ed25519":3471,"commands":3472,"player":3473,"alg":3474,"mation":3475,"0x56":3476,"coords":3477,"strings":3478,"rumor":3479,"53":3480,"lied":3481,"schedule":3482,"clock":3483,"mismatch":3484,"overr":3485,"██":3486,"ting":3487,"unpack":3488,"wrong":3489,"signing":3490,"connections":3491,"category":3492,"ases":3493,"dash":3494,"ibility":3495,"offer":3496,"vmm":3497,"routing":3498,"configure":3499,"succeeds":3500,"directives":3501,"removed":3502,"whitespace":3503,"hit":3504,"annot":3505,"carry":3506,"opaque":3507,"retry":3508,"arb":3509,"mime":3510,"factory":3511,"recur":3512,"authorization":3513,"uch":3514,"stri":3515,"rustfmt":3516,"oc":3517,"iness":3518,"1u8":3519,"acquire":3520,"cies":3521,"cst":3522,"mutable":3523,"sized":3524,"duplicate":3525,"peekable":3526,"giv":3527,"release":3528,"44":3529,"library":3530,"following":3531,"eric":3532,"another":3533,"added":3534,"bus":3535,"election":3536,"0x77":3537,"remaining":3538,"rat":3539,"acts":3540,"generator":3541,"ak":3542,"mix":3543,"limits":3544,"git":3545,"tun":3546,"iss":3547,"abs":3548,"df":3549,"ipv4":3550,"0x65":3551,"disabled":3552,"0x06":3553,"ani":3554,"0x67":3555,"datoms":3556,"svc":3557,"issue":3558,"mesh":3559,"entities":3560,"given":3561,"asm":3562,"fails":3563,"www":3564,"renderer":3565,"geck":3566,"gecko":3567,"1d":3568,"ither":3569,"parque":3570,"678":3571,"override":3572,"parquet":3573,"proc":3574,"monitor":3575,"0x32":3576,"reserved":3577,"radius":3578,"fuz":3579,"09":3580,"ually":3581,"ype":3582,"op1":3583,"helper":3584,"definitions":3585,"primary":3586,"bed":3587,"0x68":3588,"structure":3589,"stal":3590,"resh":3591,"0x63":3592,"linear":3593,"ec2":3594,"pages":3595,"linux":3596,"calc":3597,"mv":3598,"needed":3599,"profil":3600,"vec2":3601,"collap":3602,"cid":3603,"rem":3604,"mlink":3605,"placement":3606,"promi":3607,"aggregate":3608,"dataset":3609,"safety":3610,"visit":3611,"symlink":3612,"approval":3613,"steps":3614,"itch":3615,"licit":3616,"0x6f":3617,"circ":3618,"archive":3619,"connected":3620,"answer":3621,"controll":3622,"decoded":3623,"sl":3624,"27":3625,"upcast":3626,"ycle":3627,"prote":3628,"uses":3629,"poss":3630,"processor":3631,"selections":3632,"star":3633,"composite":3634,"cross":3635,"under":3636,"ipher":3637,"ets":3638,"supervisor":3639,"compat":3640,"s2":3641,"finished":3642,"ake":3643,"maximum":3644,"intr":3645,"stride":3646,"handles":3647,"iers":3648,"29":3649,"dispatcher":3650,"methods":3651,"hy":3652,"unable":3653,"force":3654,"dot":3655,"permit":3656,"brow":3657,"snake":3658,"ipc":3659,"x1":3660,"ecycle":3661,"recovery":3662,"gid":3663,"labels":3664,"matchstr":3665,"tain":3666,"0x0b":3667,"locked":3668,"saved":3669,"txt":3670,"records":3671,"tool":3672,"kernel":3673,"proces":3674,"prewrite":3675,"amic":3676,"accum":3677,"ruct":3678,"ctl":3679,"prot":3680,"dynamic":3681,"cipher":3682,"mq":3683,"observer":3684,"arg2":3685,"king":3686,"instead":3687,"functions":3688,"rollback":3689,"fbthr":3690,"xr":3691,"borrowed":3692,"erial":3693,"int8":3694,"successful":3695,"parsing":3696,"tempor":3697,"promise":3698,"vec3":3699,"precommit":3700,"egister":3701,"pagin":3702,"ference":3703,"filters":3704,"betwe":3705,"encies":3706,"laun":3707,"istent":3708,"between":3709,"them":3710,"they":3711,"reqs":3712,"symbols":3713,"3d":3714,"elap":3715,"ring":3716,"writable":3717,"f2":3718,"year":3719,"sive":3720,"eno":3721,"deregister":3722,"numeric":3723,"props":3724,"elapsed":3725,"agent":3726,"negative":3727,"ose":3728,"ines":3729,"vars":3730,"rl":3731,"aliases":3732,"setting":3733,"ming":3734,"0x0a":3735,"mach":3736,"appen":3737,"initialize":3738,"tera":3739,"times":3740,"0x6c":3741,"builtin":3742,"04":3743,"0x0d":3744,"0x6d":3745,"nonce":3746,"gets":3747,"lab":3748,"testing":3749,"varint32":3750,"visible":3751,"searcher":3752,"chron":3753,"threads":3754,"opcode":3755,"alog":3756,"bud":3757,"35":3758,"delivery":3759,"dur":3760,"ze":3761,"reject":3762,"unchecked":3763,"0x64":3764,"ship":3765,"numbers":3766,"datagram":3767,"decrypt":3768,"either":3769,"dependencies":3770,"des":3771,"characters":3772,"lint":3773,"perio":3774,"checks":3775,"acceler":3776,"cd":3777,"reshold":3778,"threshold":3779,"grammar":3780,"bat":3781,"actor":3782,"frames":3783,"green":3784,"ications":3785,"association":3786,"samples":3787,"waypoint":3788,"wd":3789,"prior":3790,"05":3791,"compar":3792,"cg":3793,"orer":3794,"flight":3795,"96":3796,"fing":3797,"xmm":3798,"templates":3799,"launch":3800,"ans":3801,"increment":3802,"nix":3803,"holder":3804,"unary":3805,"boun":3806,"adjust":3807,"dirty":3808,"0x07":3809,"deliver":3810,"trusted":3811,"reverse":3812,"period":3813,"touch":3814,"08":3815,"matching":3816,"peers":3817,"material":3818,"icon":3819,"ks":3820,"most":3821,"tempdir":3822,"0x55":3823,"ware":3824,"devices":3825,"what":3826,"0x70":3827,"prefer":3828,"matcher":3829,"translate":3830,"blend":3831,"rip":3832,"txns":3833,"hal":3834,"lio":3835,"sorted":3836,"committed":3837,"requires":3838,"evaluate":3839,"authentication":3840,"deta":3841,"lea":3842,"building":3843,"includes":3844,"0b":3845,"512":3846,"utin":3847,"tokenizer":3848,"glutin":3849,"provisioned":3850,"ulator":3851,"addition":3852,"0x0e":3853,"controller":3854,"nb":3855,"requested":3856,"finger":3857,"tri":3858,"0x11":3859,"validators":3860,"intrins":3861,"echo":3862,"strip":3863,"canon":3864,"34":3865,"objects":3866,"sq":3867,"vex":3868,"redu":3869,"101":3870,"0x72":3871,"attachment":3872,"aren":3873,"evex":3874,"0x0c":3875,"ysis":3876,"analysis":3877,"lation":3878,"s1":3879,"uncompressed":3880,"000000000000":3881,"did":3882,"assess":3883,"warning":3884,"eb":3885,"roo":3886,"whe":3887,"recomm":3888,"assume":3889,"lists":3890,"combin":3891,"delimited":3892,"three":3893,"far":3894,"2015":3895,"reserve":3896,"analy":3897,"escape":3898,"above":3899,"kvm":3900,"0x6e":3901,"accelerator":3902,"still":3903,"outer":3904,"packed":3905,"lossy":3906,"06":3907,"octets":3908,"f3":3909,"beha":3910,"special":3911,"0x84":3912,"lt":3913,"x2":3914,"abstr":3915,"0x2c":3916,"behavi":3917,"day":3918,"even":3919,"0x74":3920,"segments":3921,"0x09":3922,"ates":3923,"keypair":3924,"12345678":3925,"aes":3926,"f0":3927,"cmk":3928,"filepath":3929,"invit":3930,"r3":3931,"displ":3932,"activity":3933,"managed":3934,"c1":3935,"geo":3936,"limiter":3937,"percentage":3938,"capture":3939,"hmac":3940,"ient":3941,"ading":3942,"37":3943,"na":3944,"hidden":3945,"resize":3946,"0x7f":3947,"0x86":3948,"possible":3949,"u128":3950,"90":3951,"f1":3952,"v3":3953,"live":3954,"cii":3955,"standard":3956,"budget":3957,"instantiation":3958,"hsm":3959,"important":3960,"outputs":3961,"lang":3962,"projection":3963,"ilities":3964,"indexes":3965,"configurations":3966,"cnt":3967,"r0":3968,"highlight":3969,"ratio":3970,"canonical":3971,"qui":3972,"sources":3973,"0x20":3974,"again":3975,"axis":3976,"drain":3977,"dd":3978,"rb":3979,"stored":3980,"0x31":3981,"clippy":3982,"ascii":3983,"vided":3984,"0x40":3985,"dashboard":3986,"pret":3987,"executable":3988,"0x9f":3989,"eax":3990,"vsock":3991,"soft":3992,"rooted":3993,"within":3994,"grant":3995,"bail":3996,"components":3997,"sheet":3998,"behavior":3999,"great":4000,"0x48":4001,"catalog":4002,"terminated":4003,"stale":4004,"pred":4005,"nulls":4006,"orith":4007,"lenum":4008,"scanner":4009,"compiler":4010,"algorith":4011,"cu":4012,"sel":4013,"registers":4014,"lamb":4015,"0x88":4016,"apt":4017,"0x60":4018,"fx":4019,"inal":4020,"div":4021,"below":4022,"dword":4023,"waiter":4024,"disk":4025,"postings":4026,"tition":4027,"complex":4028,"rre":4029,"coming":4030,"rreil":4031,"sending":4032,"repetition":4033,"provided":4034,"suite":4035,"frag":4036,"prepa":4037,"ang":4038,"perf":4039,"0x2b":4040,"recursive":4041,"might":4042,"never":4043,"0x35":4044,"abilities":4045,"0x2e":4046,"folder":4047,"rv":4048,"enter":4049,"0x75":4050,"loon":4051,"clus":4052,"balloon":4053,"packages":4054,"half":4055,"marsh":4056,"checksum":4057,"0x1c":4058,"visibility":4059,"assessment":4060,"eth":4061,"ructor":4062,"anyhow":4063,"vertical":4064,"truncate":4065,"unimplemented":4066,"acl":4067,"invoke":4068,"loa":4069,"machine":4070,"lambda":4071,"gith":4072,"signatures":4073,"good":4074,"56":4075,"maj":4076,"rectangle":4077,"capabilities":4078,"mgr":4079,"require":4080,"cas":4081,"scancode":4082,"fingerprint":4083,"sole":4084,"compact":4085,"fixme":4086,"minimum":4087,"viewport":4088,"github":4089,"transition":4090,"tables":4091,"0x4f":4092,"0x8a":4093,"csv":4094,"otherwise":4095,"serialized":4096,"fp":4097,"mpo":4098,"graphics":4099,"separator":4100,"zeroed":4101,"declar":4102,"insight":4103,"discover":4104,"priority":4105,"greater":4106,"dle":4107,"incorrect":4108,"incoming":4109,"mempo":4110,"embed":4111,"logs":4112,"mempool":4113,"bul":4114,"mpsc":4115,"activate":4116,"roid":4117,"console":4118,"aller":4119,"phan":4120,"middle":4121,"bracket":4122,"ends":4123,"blocking":4124,"0x82":4125,"developerguide":4126,"0x54":4127,"switch":4128,"icates":4129,"diagnostics":4130,"spacing":4131,"come":4132,"0x9d":4133,"54":4134,"submit":4135,"preferred":4136,"ga":4137,"chal":4138,"readiness":4139,"k2":4140,"cade":4141,"cture":4142,"making":4143,"lenge":4144,"production":4145,"challenge":4146,"tle":4147,"timing":4148,"0x5d":4149,"vv":4150,"nels":4151,"cient":4152,"dynet":4153,"marshaller":4154,"matched":4155,"flatbuffers":4156,"abstract":4157,"c2":4158,"nfs":4159,"leading":4160,"confir":4161,"units":4162,"center":4163,"cand":4164,"integration":4165,"candid":4166,"ecx":4167,"0x42":4168,"rotation":4169,"major":4170,"intern":4171,"paint":4172,"paren":4173,"algorithm":4174,"allocation":4175,"recommend":4176,"t1":4177,"configs":4178,"0x36":4179,"avoid":4180,"atype":4181,"animation":4182,"every":4183,"hum":4184,"p2":4185,"cos":4186,"ulation":4187,"uv":4188,"works":4189,"datatype":4190,"counters":4191,"distance":4192,"hab":4193,"scheme":4194,"criter":4195,"0x62":4196,"0x69":4197,"rope":4198,"loaded":4199,"1usize":4200,"hor":4201,"little":4202,"delimiter":4203,"profiler":4204,"addres":4205,"currently":4206,"1111":4207,"float64":4208,"0x22":4209,"warnings":4210,"existent":4211,"0xc9":4212,"yet":4213,"zo":4214,"0x9e":4215,"luce":4216,"needs":4217,"ttl":4218,"r4":4219,"http2":4220,"plus":4221,"placeholder":4222,"mvcc":4223,"resume":4224,"8888":4225,"500":4226,"0xeb":4227,"acy":4228,"backward":4229,"nums":4230,"icated":4231,"tooth":4232,"prepare":4233,"creating":4234,"bg":4235,"0x16":4236,"0xba":4237,"related":4238,"bluetooth":4239,"started":4240,"nothing":4241,"0x25":4242,"aggr":4243,"processed":4244,"0x76":4245,"texture2d":4246,"channels":4247,"trailing":4248,"wake":4249,"0x41":4250,"sem":4251,"deleg":4252,"preview":4253,"locals":4254,"matic":4255,"0x1a":4256,"0xe8":4257,"webrender":4258,"rtc":4259,"0x3e":4260,"monster":4261,"0x18":4262,"queues":4263,"whether":4264,"define":4265,"0x38":4266,"verbo":4267,"weak":4268,"management":4269,"0x5a":4270,"futures":4271,"organizations":4272,"addresses":4273,"110":4274,"59":4275,"necess":4276,"0x7a":4277,"deadline":4278,"ae":4279,"hir":4280,"atte":4281,"0x7c":4282,"temporary":4283,"attempt":4284,"runs":4285,"utils":4286,"subscribe":4287,"bsd":4288,"fg":4289,"quot":4290,"0x8b":4291,"power":4292,"orum":4293,"quorum":4294,"customer":4295,"retrieve":4296,"compli":4297,"0x13":4298,"bounded":4299,"subscriber":4300,"fuzz":4301,"arena":4302,"dh":4303,"ision":4304,"refresh":4305,"hour":4306,"0x30":4307,"images":4308,"accumulator":4309,"llation":4310,"0x8d":4311,"0x19":4312,"hashes":4313,"malformed":4314,"cardinal":4315,"rad":4316,"0x21":4317,"0x27":4318,"endpoints":4319,"variants":4320,"hub":4321,"sit":4322,"indexed":4323,"0x87":4324,"0x3f":4325,"rendering":4326,"pur":4327,"ssize":4328,"0x7b":4329,"0x2a":4330,"gap":4331,"bles":4332,"reading":4333,"0xc0":4334,"dcer":4335,"spread":4336,"explicit":4337,"0x45":4338,"0x1f":4339,"exclu":4340,"subcommand":4341,"0x4d":4342,"intrinsic":4343,"b1":4344,"gray":4345,"hard":4346,"sumed":4347,"kinds":4348,"lvalue":4349,"lax":4350,"arrays":4351,"0x46":4352,"least":4353,"referr":4354,"poly":4355,"click":4356,"0x7d":4357,"0xbb":4358,"desired":4359,"0x14":4360,"0x39":4361,"kill":4362,"vir":4363,"imate":4364,"band":4365,"lability":4366,"gic":4367,"tio":4368,"caller":4369,"0x4a":4370,"intel":4371,"cardinality":4372,"destro":4373,"additional":4374,"human":4375,"sat":4376,"undefined":4377,"0x7e":4378,"0x23":4379,"alt":4380,"001":4381,"servers":4382,"0x57":4383,"svg":4384,"relax":4385,"0x43":4386,"oneshot":4387,"matchmaking":4388,"picture":4389,"0x24":4390,"macs":4391,"0x1e":4392,"virtio":4393,"0x33":4394,"0xd8":4395,"handlers":4396,"redirect":4397,"adap":4398,"stops":4399,"lane":4400,"76":4401,"tur":4402,"0x85":4403,"findings":4404,"strict":4405,"relaxed":4406,"b2":4407,"e1":4408,"0x44":4409,"queries":4410,"0x5c":4411,"0x1b":4412,"recogn":4413,"kines":4414,"lible":4415,"fallible":4416,"0x81":4417,"train":4418,"0x4e":4419,"2016":4420,"domains":4421,"evaluation":4422,"kinesis":4423,"colors":4424,"0x4b":4425,"0x15":4426,"availability":4427,"0x52":4428,"0xd0":4429,"references":4430,"person":4431,"horiz":4432,"interr":4433,"0x5e":4434,"0xf3":4435,"predicate":4436,"arp":4437,"lies":4438,"connector":4439,"0x79":4440,"0x49":4441,"0x4c":4442,"localhost":4443,"widgets":4444,"runner":4445,"destroy":4446,"op2":4447,"0x8e":4448,"0x3d":4449,"documentation":4450,"overlap":4451,"tmpdir":4452,"gil":4453,"1234":4454,"uation":4455,"intext":4456,"0x71":4457,"0x1d":4458,"joy":4459,"processing":4460,"persistent":4461,"plaintext":4462,"clause":4463,"regular":4464,"0xc3":4465,"allocate":4466,"referrer":4467,"a9":4468,"ssim":4469,"rier":4470,"portfo":4471,"0xd3":4472,"links":4473,"mk":4474,"yi":4475,"isn":4476,"0x8c":4477,"0x3a":4478,"0x9a":4479,"0x17":4480,"during":4481,"clamp":4482,"0x2f":4483,"squ":4484,"0x98":4485,"being":4486,"prototype":4487,"fficient":4488,"equals":4489,"necessary":4490,"0x83":4491,"0x29":4492,"0x51":4493,"edges":4494,"har":4495,"handled":4496,"directories":4497,"calling":4498,"0x37":4499,"sessions":4500,"a2":4501,"0xab":4502,"pot":4503,"relm":4504,"idle":4505,"nop":4506,"well":4507,"0x94":4508,"jmp":4509,"pause":4510,"comma":4511,"0x47":4512,"0x99":4513,"finite":4514,"automatic":4515,"descr":4516,"permitted":4517,"utc":4518,"0x3b":4519,"0xf0":4520,"documents":4521,"flatten":4522,"emacs":4523,"lon":4524,"restart":4525,"newline":4526,"house":4527,"structs":4528,"0x89":4529,"vmctx":4530,"collector":4531,"malink":4532,"horizont":4533,"ram":4534,"ios":4535,"ordered":4536,"0x3c":4537,"vb":4538,"ged":4539,"pessim":4540,"permalink":4541,"positions":4542,"0x5b":4543,"faces":4544,"0xf7":4545,"rr":4546,"foc":4547,"0x28":4548,"0x59":4549,"sns":4550,"east":4551,"browsing":4552,"compliance":4553,"0x6a":4554,"nanos":4555,"cube":4556,"bgra":4557,"nth":4558,"sse":4559,"their":4560,"0x26":4561,"2017":4562,"0xb8":4563,"dcerpc":4564,"adapter":4565,"pessimistic":4566,"fence":4567,"0x8f":4568,"sha256":4569,"ctap2":4570,"000000":4571,"0x53":4572,"attachments":4573,"dx":4574,"f4":4575,"gau":4576,"ipv6":4577,"0x96":4578,"swf":4579,"frontend":4580,"forms":4581,"scorer":4582,"sufficient":4583,"hapt":4584,"profiles":4585,"0xf6":4586,"supports":4587,"expressions":4588,"batches":4589,"bub":4590,"heart":4591,"moz":4592,"seccomp":4593,"couldn":4594,"pretty":4595,"haptic":4596,"spaces":4597,"0xe0":4598,"month":4599,"horizontal":4600,"0f32":4601,"c7":4602,"0xbe":4603,"routes":4604,"0xac":4605,"datetime":4606,"loader":4607,"0xb3":4608,"0xd1":4609,"candidate":4610,"0xc2":4611,"0xcc":4612,"wall":4613,"reloc":4614,"concurrency":4615,"expan":4616,"0x93":4617,"hyper":4618,"scall":4619,"syscall":4620,"included":4621,"best":4622,"0xa0":4623,"0xa3":4624,"ven":4625,"0x97":4626,"passed":4627,"bs":4628,"gfx":4629,"ito":4630,"propo":4631,"ignored":4632,"e2":4633,"lcs":4634,"0xfe":4635,"fake":4636,"keyboard":4637,"calls":4638,"49":4639,"visitor":4640,"tape":4641,"defs":4642,"username":4643,"0x95":4644,"0xe6":4645,"0xea":4646,"listeners":4647,"salt":4648,"zoom":4649,"upt":4650,"0xfa":4651,"crete":4652,"applications":4653,"0xb7":4654,"0xc4":4655,"0xf9":4656,"criterion":4657,"happen":4658,"who":4659,"nonexistent":4660,"damage":4661,"immediate8":4662,"occur":4663,"pthread":4664,"0xce":4665,"0xca":4666,"0xa2":4667,"0xa5":4668,"quiche":4669,"recorder":4670,"0x92":4671,"styles":4672,"voca":4673,"0xc1":4674,"wasm32":4675,"────────":4676,"sb":4677,"x4":4678,"clusters":4679,"0xa4":4680,"portfolio":4681,"0x5f":4682,"0xb6":4683,"schedul":4684,"alle":4685,"confirm":4686,"0xa8":4687,"bpf":4688,"lica":4689,"0x50":4690,"aging":4691,"0xbd":4692,"imageflow":4693,"0xa6":4694,"borders":4695,"ffffffff":4696,"were":4697,"xus":4698,"stro":4699,"0xde":4700,"0xaf":4701,"dedicated":4702,"qc":4703,"login":4704,"0xe9":4705,"0xb5":4706,"initiator":4707,"0xb9":4708,"lucet":4709,"0xdf":4710,"examples":4711,"rename":4712,"concrete":4713,"0xf2":4714,"8080":4715,"positive":4716,"macos":4717,"executed":4718,"sticky":4719,"0xee":4720,"0xd7":4721,"0xfc":4722,"uppercase":4723,"uled":4724,"preced":4725,"img":4726,"0xb4":4727,"increase":4728,"precedence":4729,"70":4730,"consumed":4731,"0xbc":4732,"diagnostic":4733,"grayscale":4734,"0xed":4735,"preset":4736,"presen":4737,"roots":4738,"0xd6":4739,"int32array":4740,"coordin":4741,"collections":4742,"bootstr":4743,"p1":4744,"code32":4745,"prevote":4746,"registered":4747,"0xe2":4748,"0xda":4749,"receipt":4750,"mqtt":4751,"repr":4752,"generation":4753,"stylesheet":4754,"0xb2":4755,"prefs":4756,"ran":4757,"repne":4758,"0x9b":4759,"0xa1":4760,"compatible":4761,"mip":4762,"0xdb":4763,"0x9c":4764,"0xe3":4765,"0xc7":4766,"legacy":4767,"0xad":4768,"0xe4":4769,"0xe7":4770,"0xef":4771,"0xcb":4772,"barrier":4773,"9999":4774,"scheduled":4775,"undo":4776,"android":4777,"0xe1":4778,"0xd2":4779,"0xcd":4780,"authority":4781,"sibling":4782,"conform":4783,"interpre":4784,"abi":4785,"general":4786,"0xf8":4787,"pagination":4788,"city":4789,"rig":4790,"reci":4791,"meas":4792,"0xcf":4793,"prompt":4794,"0x6b":4795,"containers":4796,"globals":4797,"0xa7":4798,"0xec":4799,"0xae":4800,"conditional":4801,"freq":4802,"0xc8":4803,"0xf1":4804,"resolution":4805,"bootstrap":4806,"ying":4807,"0xaa":4808,"responses":4809,"0x58":4810,"0x91":4811,"0xb0":4812,"including":4813,"blur":4814,"stroke":4815,"98":4816,"tion":4817,"dirs":4818,"0xbf":4819,"means":4820,"anchor":4821,"household":4822,"scheduler":4823,"glu":4824,"rtcp":4825,"0xf4":4826,"0xfb":4827,"lexer":4828,"wg":4829,"multiplex":4830,"inside":4831,"quant":4832,"0xd5":4833,"0xd9":4834,"0xa9":4835,"bt":4836,"book":4837,"0xd4":4838,"57":4839,"h3":4840,"ime":4841,"verti":4842,"outbound":4843,"waiting":4844,"gesture":4845,"46":4846,"ctrl":4847,"comments":4848,"reflector":4849,"0xc5":4850,"digits":4851,"calculate":4852,"clap":4853,"posts":4854,"0xdd":4855,"decor":4856,"tracker":4857,"expired":4858,"txs":4859,"0xe5":4860,"0xb1":4861,"spanned":4862,"protect":4863,"ee":4864,"sparse":4865,"recipe":4866,"jun":4867,"unbounded":4868,"intent":4869,"compaction":4870,"membership":4871,"41":4872,"primitives":4873,"bid":4874,"f7":4875,"outside":4876,"compress":4877,"0xc6":4878,"modules":4879,"0xfd":4880,"stable":4881,"cogn":4882,"quit":4883,"crc":4884,"0xdc":4885,"conflicts":4886,"conformance":4887,"gga":4888,"izing":4889,"quir":4890,"going":4891,"retain":4892,"curr":4893,"swarm":4894,"subscriptions":4895,"protection":4896,"altern":4897,"something":4898,"skill":4899,"655":4900,"bri":4901,"exclus":4902,"vagga":4903,"0xf5":4904,"stopped":4905,"escap":4906,"mint":4907,"recording":4908,"detach":4909,"regs":4910,"proto3":4911,"glue":4912,"gauge":4913,"crash":4914,"aaaaaaaaaaaaaaaaaaaaaaaaaaaaaaaa":4915,"tap":4916,"locks":4917,"cmdline":4918,"abcdef":4919,"defer":4920,"transformed":4921,"transact":4922,"synchron":4923,"invitation":4924,"code64":4925,"dbindex":4926,"bran":4927,"abcd":4928,"dgram":4929,"stu":4930,"cha":4931,"ablish":4932,"initiate":4933,"multis":4934,"sct":4935,"cols":4936,"branches":4937,"occ":4938,"base64":4939,"replaced":4940,"aio":4941,"f8":4942,"kle":4943,"serve":4944,"ird":4945,"float32":4946,"overlay":4947,"conditions":4948,"hw":4949,"applied":4950,"modrm":4951,"47":4952,"peg":4953,"ssh":4954,"bold":4955,"hest":4956,"97":4957,"pend":4958,"ving":4959,"stores":4960,"later":4961,"keepalive":4962,"aaa":4963,"establish":4964,"tonic":4965,"oooo":4966,"collapsed":4967,"restyle":4968,"price":4969,"roland":4970,"a1":4971,"highest":4972,"interrupt":4973,"sctp":4974,"t2":4975,"intersection":4976,"starting":4977,"minus":4978,"successfully":4979,"longer":4980,"400":4981,"words":4982,"arg3":4983,"allocated":4984,"textures":4985,"joystick":4986,"measure":4987,"ken":4988,"111":4989,"workspaces":4990,"brief":4991,"a7":4992,"sdk":4993,"scanned":4994,"wind":4995,"orient":4996,"beat":4997,"expir":4998,"download":4999,"truncated":5000,"deliverability":5001,"dl":5002,"draft":5003,"mas":5004,"pg":5005,"uint32":5006,"stdio":5007,"motion":5008,"precision":5009,"lowercase":5010,"pun":5011,"textinput":5012,"freeze":5013,"enough":5014,"0a":5015,"lsp":5016,"wb":5017,"sector":5018,"ended":5019,"paused":5020,"rtt":5021,"bulary":5022,"vocabulary":5023,"addrs":5024,"201":5025,"bc":5026,"rel8":5027,"0u32":5028,"yam":5029,"orter":5030,"asy":5031,"bund":5032,"pp":5033,"filled":5034,"terminate":5035,"deprecation":5036,"triangle":5037,"yaml":5038,"dq":5039,"xxx":5040,"administr":5041,"cognito":5042,"kb":5043,"sil":5044,"metry":5045,"verbose":5046,"ingest":5047,"assignment":5048,"yield":5049,"determ":5050,"usv":5051,"macros":5052,"avg":5053,"mipmap":5054,"expiration":5055,"51":5056,"rush":5057,"igned":5058,"blocked":5059,"workers":5060,"closing":5061,"optimize":5062,"issues":5063,"shr":5064,"engines":5065,"rustc":5066,"solution":5067,"quotes":5068,"declaration":5069,"etime":5070,"exe":5071,"paralle":5072,"rss":5073,"setter":5074,"merkle":5075,"luint":5076,"sockaddr":5077,"cycle":5078,"mmap":5079,"defaults":5080,"contexts":5081,"16usize":5082,"simd":5083,"simulation":5084,"y1":5085,"alarm":5086,"customize":5087,"tracking":5088,"know":5089,"arbit":5090,"1010":5091,"merged":5092,"corru":5093,"fallback":5094,"stmts":5095,"rocksdb":5096,"phantom":5097,"07":5098,"sensit":5099,"hostname":5100,"mmds":5101,"integrity":5102,"brush":5103,"attrib":5104,"associations":5105,"why":5106,"elems":5107,"dropped":5108,"ike":5109,"vim":5110,"2019":5111,"boundary":5112,"benchmark":5113,"throughput":5114,"pic":5115,"counts":5116,"retrieves":5117,"orientation":5118,"epoll":5119,"srv":5120,"usion":5121,"logic":5122,"produce":5123,"projects":5124,"distin":5125,"k3":5126,"subtree":5127,"minor":5128,"03":5129,"acked":5130,"ulated":5131,"respond":5132,"updat":5133,"protos":5134,"recover":5135,"offering":5136,"leaves":5137,"isol":5138,"capability":5139,"affect":5140,"ivity":5141,"quirks":5142,"0e":5143,"ider":5144,"subrout":5145,"operands":5146,"distinct":5147,"invariant":5148,"prevent":5149,"imm8":5150,"annotation":5151,"expanded":5152,"0f":5153,"kw":5154,"fire":5155,"iper":5156,"closure":5157,"zones":5158,"02x":5159,"juniper":5160,"arbitrary":5161,"58":5162,"egl":5163,"linebreak":5164,"performance":5165,"ko":5166,"intro":5167,"colon":5168,"nano":5169,"harness":5170,"heartbeat":5171,"pres":5172,"decre":5173,"learn":5174,"2013":5175,"combination":5176,"jb":5177,"smo":5178,"park":5179,"layers":5180,"parallel":5181,"dtype":5182,"np":5183,"ceil":5184,"unless":5185,"schemas":5186,"xxxx":5187,"ound":5188,"key2":5189,"bidi":5190,"administrator":5191,"viol":5192,"rcx":5193,"extended":5194,"route53":5195,"masm":5196,"cise":5197,"raints":5198,"78":5199,"eight":5200,"tid":5201,"writes":5202,"nib":5203,"rees":5204,"reload":5205,"inf":5206,"scopes":5207,"dimension":5208,"fully":5209,"facade":5210,"avail":5211,"roundtrip":5212,"goss":5213,"pairs":5214,"opcodes":5215,"gossip":5216,"ems":5217,"f6":5218,"slow":5219,"insufficient":5220,"tog":5221,"foob":5222,"a5":5223,"preserve":5224,"throw":5225,"f5":5226,"f9":5227,"xor":5228,"aler":5229,"actually":5230,"cors":5231,"140":5232,"histo":5233,"fro":5234,"tx1":5235,"renderbuffer":5236,"fleets":5237,"gs":5238,"ilo":5239,"xid":5240,"usable":5241,"wever":5242,"however":5243,"12345678h":5244,"escaped":5245,"punct":5246,"ention":5247,"scid":5248,"inten":5249,"instructions":5250,"transit":5251,"flags1":5252,"compilation":5253,"h1":5254,"revoke":5255,"sts":5256,"clang":5257,"aga":5258,"cri":5259,"rase":5260,"patter":5261,"visited":5262,"0000000000000000":5263,"monitoring":5264,"against":5265,"ja":5266,"sid":5267,"v0":5268,"ste":5269,"mapper":5270,"b9":5271,"mbuf":5272,"displacement":5273,"realtime":5274,"fat":5275,"fusion":5276,"represent":5277,"lots":5278,"themis":5279,"merger":5280,"spans":5281,"socks":5282,"margins":5283,"collapse":5284,"uu":5285,"exchange":5286,"nego":5287,"patterns":5288,"rle":5289,"rax":5290,"subscript":5291,"consider":5292,"focus":5293,"inorder":5294,"ison":5295,"int32type":5296,"elasticsearch":5297,"gluon":5298,"u8u8":5299,"plans":5300,"packets":5301,"slash":5302,"east1":5303,"catch":5304,"icator":5305,"baseline":5306,"secrets":5307,"realm":5308,"watcher":5309,"naive":5310,"bundle":5311,"asset":5312,"contr":5313,"trac":5314,"pus":5315,"estimate":5316,"decrypted":5317,"allows":5318,"days":5319,"mmio":5320,"w1":5321,"assets":5322,"ticket":5323,"etch":5324,"alice":5325,"aux":5326,"chunked":5327,"referenced":5328,"opacity":5329,"jpeg":5330,"bob":5331,"checkpoint":5332,"inser":5333,"trap":5334,"key1":5335,"effective":5336,"captures":5337,"browser":5338,"subroutine":5339,"zen":5340,"etc":5341,"phi":5342,"selectors":5343,"structured":5344,"reduce":5345,"bh":5346,"edd":5347,"rain":5348,"raster":5349,"invalidation":5350,"scenar":5351,"comparison":5352,"gv":5353,"y2":5354,"oring":5355,"stacks":5356,"frozen":5357,"bld":5358,"vq":5359,"sug":5360,"ancestor":5361,"irq":5362,"sha1":5363,"hints":5364,"68":5365,"bubbles":5366,"rank":5367,"vp":5368,"precondition":5369,"blocklist":5370,"traver":5371,"craw":5372,"room":5373,"ones":5374,"protocols":5375,"corner":5376,"evaluator":5377,"keywords":5378,"multisample":5379,"hier":5380,"positional":5381,"ebx":5382,"simpl":5383,"winit":5384,"seen":5385,"transpa":5386,"checker":5387,"delegated":5388,"proposer":5389,"uninit":5390,"limb":5391,"00000":5392,"attached":5393,"foobar":5394,"52":5395,"anom":5396,"failo":5397,"aggregation":5398,"effects":5399,"toggle":5400,"anomal":5401,"failover":5402,"0f64":5403,"due":5404,"code16":5405,"000h":5406,"999":5407,"mnemonics":5408,"gon":5409,"qword":5410,"third":5411,"forget":5412,"mainten":5413,"igate":5414,"models":5415,"cpuid":5416,"violation":5417,"crawler":5418,"maintenance":5419,"sity":5420,"mpot":5421,"assertion":5422,"formatted":5423,"pick":5424,"tempfile":5425,"idempot":5426,"scrolling":5427,"west":5428,"colorcontext":5429,"cleanup":5430,"war":5431,"lost":5432,"requester":5433,"formatting":5434,"ily":5435,"userguide":5436,"guid":5437,"40h":5438,"converts":5439,"3e":5440,"ili":5441,"mations":5442,"speed":5443,"longhand":5444,"immediately":5445,"hierarch":5446,"rewrite":5447,"0o":5448,"cen":5449,"inbound":5450,"onts":5451,"terms":5452,"fdt":5453,"fulltext":5454,"w3":5455,"authorizer":5456,"geometry":5457,"bldr":5458,"e0":5459,"anon":5460,"matter":5461,"magic":5462,"subdir":5463,"distributions":5464,"satur":5465,"clients":5466,"working":5467,"grams":5468,"descend":5469,"early":5470,"triggers":5471,"radix":5472,"square":5473,"43":5474,"nasm":5475,"redo":5476,"enums":5477,"those":5478,"blending":5479,"pfx":5480,"determine":5481,"b3":5482,"tv":5483,"vs":5484,"consist":5485,"negoti":5486,"four":5487,"ticks":5488,"idents":5489,"normalize":5490,"vasp":5491,"detected":5492,"separate":5493,"tunnel":5494,"suggest":5495,"limbs":5496,"fv":5497,"hb":5498,"mand":5499,"math":5500,"interactive":5501,"elf":5502,"imports":5503,"finalize":5504,"tikv":5505,"ia":5506,"land":5507,"uous":5508,"wat":5509,"restri":5510,"aligned":5511,"aries":5512,"symmetric":5513,"restriction":5514,"vend":5515,"things":5516,"lip":5517,"tys":5518,"incarn":5519,"gnition":5520,"sqs":5521,"yes":5522,"utes":5523,"appe":5524,"entire":5525,"fortun":5526,"responder":5527,"assertions":5528,"disconnect":5529,"evt":5530,"replica":5531,"delim":5532,"consistent":5533,"histogram":5534,"kid":5535,"lp":5536,"reko":5537,"iters":5538,"mods":5539,"directly":5540,"footer":5541,"150":5542,"smb1":5543,"confirmed":5544,"vendor":5545,"l2":5546,"ote":5547,"onom":5548,"unwind":5549,"retention":5550,"ller":5551,"traits":5552,"habit":5553,"floats":5554,"correspon":5555,"multiply":5556,"taxonom":5557,"rekognition":5558,"c0":5559,"n1":5560,"cfs":5561,"interfaces":5562,"implementation":5563,"annotations":5564,"vtable":5565,"sect":5566,"refs":5567,"illa":5568,"subst":5569,"hostedzone":5570,"b4":5571,"fm":5572,"pings":5573,"stret":5574,"backups":5575,"anomaly":5576,"incarnation":5577,"300":5578,"65":5579,"c3":5580,"hup":5581,"ural":5582,"discard":5583,"phone":5584,"moving":5585,"incompat":5586,"ciphertext":5587,"b8":5588,"noise":5589,"subject":5590,"corpus":5591,"aggregator":5592,"software":5593,"preferences":5594,"sever":5595,"ename":5596,"checking":5597,"webhook":5598,"reserv":5599,"apis":5600,"via":5601,"prefixed":5602,"locations":5603,"broker":5604,"traversal":5605,"stretch":5606,"tomb":5607,"fieldnorm":5608,"weights":5609,"mus":5610,"td":5611,"throws":5612,"nom":5613,"propa":5614,"testdata":5615,"mappings":5616,"loading":5617,"octal":5618,"interpreter":5619,"habitat":5620,"dg":5621,"gat":5622,"inference":5623,"lement":5624,"hey":5625,"floor":5626,"forecast":5627,"overrides":5628,"middleware":5629,"tombst":5630,"ahead":5631,"c4":5632,"dw":5633,"e8":5634,"wnd":5635,"choice":5636,"categories":5637,"copi":5638,"2222":5639,"balancers":5640,"hours":5641,"scenario":5642,"reme":5643,"colo":5644,"refetch":5645,"apple":5646,"caps":5647,"registration":5648,"reports":5649,"shrink":5650,"appear":5651,"2b":5652,"aead":5653,"w0":5654,"exper":5655,"lier":5656,"63":5657,"reusable":5658,"minutes":5659,"published":5660,"nibble":5661,"experi":5662,"gie":5663,"qote":5664,"san":5665,"raqote":5666,"positioned":5667,"removes":5668,"termination":5669,"blk":5670,"provisioning":5671,"datoms00":5672,"came":5673,"lsize":5674,"tz":5675,"w2":5676,"immutable":5677,"vectors":5678,"automatically":5679,"lsizei":5680,"bur":5681,"field1":5682,"tagging":5683,"partic":5684,"webgl":5685,"queued":5686,"whole":5687,"prost":5688,"mapped":5689,"iterate":5690,"describes":5691,"cancelable":5692,"editor":5693,"profiling":5694,"nav":5695,"sms":5696,"ruby":5697,"formats":5698,"lug":5699,"breaks":5700,"tools":5701,"invitations":5702,"2000":5703,"aw":5704,"give":5705,"gpr":5706,"kp":5707,"injection":5708,"mpc":5709,"codegen":5710,"peering":5711,"zeroes":5712,"appender":5713,"vot":5714,"infer":5715,"get64":5716,"rench":5717,"ecd":5718,"identities":5719,"exports":5720,"correctly":5721,"discovered":5722,"semant":5723,"2usize":5724,"dk":5725,"press":5726,"itical":5727,"fid":5728,"collation":5729,"pools":5730,"inherit":5731,"ed25519private":5732,"infin":5733,"mat4":5734,"probe":5735,"glyphs":5736,"gtk":5737,"infinity":5738,"fsp":5739,"ii":5740,"ough":5741,"vx":5742,"wrench":5743,"precise":5744,"ious":5745,"subset":5746,"swim":5747,"populate":5748,"boogie":5749,"62":5750,"gres":5751,"slots":5752,"slug":5753,"reboot":5754,"news":5755,"critical":5756,"posix":5757,"postgres":5758,"dyna":5759,"persist":5760,"recommendations":5761,"isolation":5762,"a3":5763,"fwd":5764,"repo":5765,"conversion":5766,"fami":5767,"int256":5768,"2018":5769,"signals":5770,"circled":5771,"800":5772,"d2":5773,"h2":5774,"mfa":5775,"filtered":5776,"uint64":5777,"proble":5778,"protoc":5779,"misc":5780,"executions":5781,"sqlite":5782,"transparent":5783,"hierarchy":5784,"incompatible":5785,"blan":5786,"deal":5787,"arti":5788,"ansi":5789,"pective":5790,"snapshots":5791,"systems":5792,"families":5793,"dont":5794,"rsa":5795,"stdlib":5796,"interpo":5797,"shouldn":5798,"quality":5799,"██║":5800,"75":5801,"seal":5802,"semap":5803,"scr":5804,"intersect":5805,"week":5806,"aborted":5807,"freebsd":5808,"uint8":5809,"tiles":5810,"semapho":5811,"adds":5812,"payment":5813,"characteristic":5814,"quantity":5815,"readonly":5816,"mailbox":5817,"canonicalize":5818,"vertices":5819,"drafts":5820,"crop":5821,"lings":5822,"around":5823,"unpin":5824,"filesystem":5825,"anything":5826,"website":5827,"legal":5828,"micros":5829,"occurren":5830,"compatibility":5831,"established":5832,"semaphore":5833,"d0":5834,"d1":5835,"e3":5836,"fl":5837,"nam":5838,"wi":5839,"inder":5840,"u32x4":5841,"replacement":5842,"hdrs":5843,"delegation":5844,"mozilla":5845,"flip":5846,"xec":5847,"bum":5848,"forwar":5849,"invalidate":5850,"sdlk":5851,"svr":5852,"fatal":5853,"arith":5854,"state1":5855,"flags2":5856,"ignoring":5857,"census":5858,"rfc":5859,"six":5860,"inver":5861,"indirect":5862,"serialization":5863,"bounding":5864,"sampling":5865,"accepted":5866,"shaders":5867,"blake":5868,"artist":5869,"unrooted":5870,"sound":5871,"field2":5872,"receiv":5873,"rounding":5874,"scratch":5875,"gb":5876,"nat":5877,"mes":5878,"igh":5879,"transpose":5880,"organizational":5881,"a0":5882,"mio":5883,"sep":5884,"cobal":5885,"expl":5886,"cobalt":5887,"fit":5888,"jk":5889,"rp":5890,"album":5891,"scas":5892,"msgs":5893,"ecm":5894,"register2":5895,"rootfs":5896,"int64type":5897,"corresponding":5898,"won":5899,"rema":5900,"pet":5901,"fds":5902,"balancing":5903,"updating":5904,"explorer":5905,"vy":5906,"vent":5907,"loom":5908,"opstamp":5909,"register1":5910,"pipelines":5911,"rounds":5912,"3333":5913,"ntl":5914,"occup":5915,"idempotent":5916,"remexec":5917,"remainder":5918,"dar":5919,"nr":5920,"cele":5921,"hooks":5922,"vt":5923,"teen":5924,"wrapped":5925,"divide":5926,"validity":5927,"iteration":5928,"startup":5929,"quad":5930,"animations":5931,"sensitive":5932,"ace":5933,"fru":5934,"hid":5935,"para":5936,"signers":5937,"microvm":5938,"bandwidth":5939,"celebr":5940,"fly":5941,"til":5942,"robot":5943,"value2":5944,"transcri":5945,"lanes":5946,"timestamping":5947,"approx":5948,"blank":5949,"inverted":5950,"f16":5951,"qnil":5952,"wgt":5953,"zz":5954,"urls":5955,"become":5956,"reads":5957,"apps":5958,"packaging":5959,"parents":5960,"autoscaling":5961,"previously":5962,"recommendation":5963,"ctap2status":5964,"colour":5965,"semantic":5966,"vsib":5967,"tesse":5968,"trying":5969,"searchstr":5970,"lexical":5971,"didn":5972,"turn":5973,"refetchable":5974,"c6":5975,"cstr":5976,"gcm":5977,"002":5978,"sharp":5979,"recip":5980,"failures":5981,"trees":5982,"wide":5983,"onse":5984,"usr":5985,"namespaces":5986,"cookies":5987,"mean":5988,"unhandled":5989,"tries":5990,"inet":5991,"ilar":5992,"sends":5993,"transforms":5994,"manually":5995,"clipboard":5996,"similar":5997,"choose":5998,"b7":5999,"cut":6000,"xss":6001,"x25519":6002,"══":6003,"asyn":6004,"tx2":6005,"workunit":6006,"charge":6007,"assoc":6008,"zeros":6009,"summar":6010,"ghi":6011,"cancelled":6012,"rgba8":6013,"sige":6014,"ed25519public":6015,"ror":6016,"xs":6017,"confirmation":6018,"remedi":6019,"stub":6020,"coprocessor":6021,"chase":6022,"getting":6023,"beg":6024,"partner":6025,"xyz":6026,"emitln":6027,"saturating":6028,"ske":6029,"erro":6030,"ically":6031,"transl":6032,"2012":6033,"ports":6034,"joint":6035,"visual":6036,"princ":6037,"deployments":6038,"fullnode":6039,"statements":6040,"384":6041,"retryable":6042,"bulk":6043,"princip":6044,"d3":6045,"iso":6046,"jcc":6047,"prun":6048,"u2":6049,"past":6050,"implied":6051,"implicit":6052,"windowed":6053,"overwrite":6054,"marks":6055,"brace":6056,"siblings":6057,"exclude":6058,"coordinate":6059,"rele":6060,"reuse":6061,"apigate":6062,"canceled":6063,"medical":6064,"lookahead":6065,"punctuation":6066,"apigateway":6067,"84":6068,"qpack":6069,"sint16":6070,"alled":6071,"size2d":6072,"tested":6073,"sures":6074,"http3":6075,"handling":6076,"installed":6077,"point2d":6078,"replay":6079,"fullscreen":6080,"largest":6081,"cascade":6082,"spot":6083,"inject":6084,"across":6085,"bab":6086,"192":6087,"exactly":6088,"provides":6089,"nanosecond":6090,"10000":6091,"redir":6092,"retval":6093,"deflate":6094,"framed":6095,"inspect":6096,"interpolation":6097,"94":6098,"c5":6099,"dims":6100,"outgoing":6101,"latency":6102,"printer":6103,"trackable":6104,"publishing":6105,"md5":6106,"configured":6107,"remediation":6108,"iry":6109,"ymo":6110,"snip":6111,"certs":6112,"rights":6113,"customization":6114,"titan":6115,"environments":6116,"volumes":6117,"parenthe":6118,"b5":6119,"tty":6120,"busy":6121,"race":6122,"expecting":6123,"gran":6124,"minute":6125,"204":6126,"assignments":6127,"embedder":6128,"bnd":6129,"ni":6130,"ino":6131,"cker":6132,"logy":6133,"players":6134,"rendered":6135,"skipped":6136,"php":6137,"roles":6138,"follows":6139,"overlapped":6140,"20180":6141,"simpler":6142,"camel":6143,"principal":6144,"codes":6145,"pubkey":6146,"quic":6147,"substr":6148,"2020":6149,"rx1":6150,"456":6151,"ubic":6152,"restored":6153,"studio":6154,"pressed":6155,"newer":6156,"bitset":6157,"destinations":6158,"quickcheck":6159,"cidr":6160,"b6":6161,"bi":6162,"cname":6163,"incr":6164,"subkeys":6165,"beginning":6166,"smb2":6167,"better":6168,"89":6169,"fonts":6170,"x3":6171,"utili":6172,"assigned":6173,"apb":6174,"oken":6175,"timeline":6176,"mlr":6177,"grass":6178,"hover":6179,"sdl2":6180,"perspective":6181,"buckets":6182,"occurrences":6183,"occupied":6184,"isk":6185,"guar":6186,"clips":6187,"partitions":6188,"optimized":6189,"reservation":6190,"java":6191,"rflags":6192,"neare":6193,"noop":6194,"edition":6195,"arg4":6196,"few":6197,"mixer":6198,"processes":6199,"leave":6200,"trivi":6201,"nearest":6202,"jp":6203,"assig":6204,"nee":6205,"binds":6206,"playground":6207,"gamel":6208,"compositor":6209,"ipv4addr":6210,"anonymo":6211,"wad":6212,"ctr":6213,"timed":6214,"widths":6215,"utf8bytes":6216,"grpcio":6217,"potential":6218,"inserted":6219,"anonymous":6220,"nerror":6221,"probab":6222,"lying":6223,"moved":6224,"multipart":6225,"walk":6226,"drained":6227,"experiment":6228,"tessellation":6229,"assignee":6230,"ihdr":6231,"lf":6232,"lm":6233,"larg":6234,"mont":6235,"onum":6236,"ensures":6237,"alone":6238,"thick":6239,"file1":6240,"funcs":6241,"evaluable":6242,"comparator":6243,"asynchron":6244,"87":6245,"9d":6246,"iot":6247,"uchar":6248,"vings":6249,"destruct":6250,"camp":6251,"upstream":6252,"sigs":6253,"renderable":6254,"phase":6255,"follower":6256,"8000000000000":6257,"ased":6258,"bd":6259,"kdf":6260,"enot":6261,"anstal":6262,"beanstal":6263,"savings":6264,"premi":6265,"exponent":6266,"backtrace":6267,"debugger":6268,"metapb":6269,"ttf":6270,"bbbb":6271,"detailed":6272,"sqrt":6273,"exclusive":6274,"larger":6275,"asynchronous":6276,"beanstalk":6277,"away":6278,"oid":6279,"pra":6280,"please":6281,"orth":6282,"unspec":6283,"exonum":6284,"jsb":6285,"reached":6286,"goo":6287,"millisecond":6288,"elasti":6289,"permits":6290,"dag":6291,"treat":6292,"yuv":6293,"ery":6294,"0001":6295,"0002":6296,"blah":6297,"retries":6298,"7777":6299,"revisions":6300,"analyzer":6301,"analyze":6302,"a4":6303,"ay":6304,"represen":6305,"prediction":6306,"graphe":6307,"scripts":6308,"namespaced":6309,"twice":6310,"purchase":6311,"receiving":6312,"campa":6313,"cull":6314,"farm":6315,"rds":6316,"woken":6317,"ante":6318,"illegal":6319,"flows":6320,"succeeded":6321,"coverage":6322,"123456789":6323,"aad":6324,"hang":6325,"slab":6326,"deque":6327,"made":6328,"retri":6329,"rejected":6330,"cubemap":6331,"summaries":6332,"glenum":6333,"rhw":6334,"curve":6335,"rsi":6336,"derived":6337,"drive":6338,"nbsp":6339,"reduced":6340,"premises":6341,"google":6342,"op3":6343,"observe":6344,"heat":6345,"initialization":6346,"1305":6347,"individ":6348,"passes":6349,"squash":6350,"cwd":6351,"hot":6352,"amd":6353,"4096":6354,"tilde":6355,"guarante":6356,"though":6357,"interlace":6358,"finds":6359,"synced":6360,"topics":6361,"fullwidth":6362,"throttled":6363,"sections":6364,"claim":6365,"cdc":6366,"85":6367,"gom":6368,"i128":6369,"n2":6370,"vac":6371,"wild":6372,"useful":6373,"value1":6374,"tester":6375,"exceed":6376,"prelu":6377,"2014":6378,"typename":6379,"repositories":6380,"fixed32":6381,"tabs":6382,"recipient":6383,"montgom":6384,"prelude":6385,"montgomery":6386,"600":6387,"95":6388,"fh":6389,"review":6390,"les":6391,"unset":6392,"strong":6393,"perm":6394,"grp":6395,"readers":6396,"canceller":6397,"corrupted":6398,"redox":6399,"thickness":6400,"cwnd":6401,"yy":6402,"proced":6403,"apping":6404,"iron":6405,"secondary":6406,"snippet":6407,"probably":6408,"dual":6409,"had":6410,"nn":6411,"qlog":6412,"programs":6413,"posed":6414,"date32":6415,"000080":6416,"projected":6417,"222":6418,"sampler2d":6419,"quiet":6420,"bf":6421,"ian":6422,"renew":6423,"restrict":6424,"deep":6425,"pem":6426,"typecheck":6427,"obser":6428,"expiry":6429,"scaled":6430,"texture1d":6431,"cancellation":6432,"fixed64":6433,"everything":6434,"inclus":6435,"determin":6436,"regexp":6437,"ioctl":6438,"0x0000":6439,"worlds":6440,"kvs":6441,"imm16":6442,"greengrass":6443,"mkdir":6444,"asym":6445,"dkim":6446,"fed":6447,"topo":6448,"entit":6449,"conv":6450,"timespec":6451,"iovec":6452,"grants":6453,"globs":6454,"helpers":6455,"signaling":6456,"water":6457,"dynamo":6458,"efs":6459,"tb":6460,"ude":6461,"hell":6462,"sph":6463,"translation":6464,"recent":6465,"panics":6466,"dependent":6467,"balances":6468,"arbage":6469,"underline":6470,"tracing":6471,"utiliz":6472,"gue":6473,"garbage":6474,"lz":6475,"mux":6476,"ucs":6477,"stem":6478,"cod":6479,"arg0":6480,"spr":6481,"prefixes":6482,"contention":6483,"makes":6484,"activated":6485,"oooooooo":6486,"burn":6487,"61":6488,"dcid":6489,"sg":6490,"003":6491,"dia":6492,"grad":6493,"minant":6494,"caches":6495,"prin":6496,"medium":6497,"spanning":6498,"precommits":6499,"combined":6500,"contribut":6501,"procedure":6502,"sx":6503,"sis":6504,"stos":6505,"aspect":6506,"locally":6507,"iov":6508,"staticmethod":6509,"manual":6510,"floatspace":6511,"masked":6512,"business":6513,"underlying":6514,"verbosity":6515,"excluded":6516,"sigev":6517,"bright":6518,"inverse":6519,"mutate":6520,"shar":6521,"listed":6522,"mini":6523,"polling":6524,"24usize":6525,"timers":6526,"microsecond":6527,"passph":6528,"gatt":6529,"amt":6530,"asc":6531,"obtain":6532,"capsu":6533,"clipping":6534,"synthe":6535,"cells":6536,"accessors":6537,"endianness":6538,"intrinsics":6539,"triangles":6540,"sprite":6541,"0u64":6542,"aff":6543,"fresh":6544,"pw":6545,"along":6546,"desk":6547,"arily":6548,"fie":6549,"modes":6550,"repl":6551,"grain":6552,"mission":6553,"failing":6554,"sequent":6555,"launcher":6556,"declarations":6557,"silent":6558,"smoo":6559,"bgr":6560,"really":6561,"coin":6562,"tried":6563,"kept":6564,"fixnum":6565,"backends":6566,"interests":6567,"mixed":6568,"vvvv":6569,"navig":6570,"a8":6571,"fuse":6572,"w4":6573,"chr":6574,"test2":6575,"argv":6576,"insertion":6577,"vao":6578,"rwlock":6579,"x1b":6580,"consistency":6581,"easy":6582,"m2":6583,"wl":6584,"xop":6585,"ini":6586,"chat":6587,"scm":6588,"keycode":6589,"deadlock":6590,"computer":6591,"instantiations":6592,"descendants":6593,"severity":6594,"music":6595,"problem":6596,"011":6597,"bw":6598,"cubic":6599,"dc":6600,"evi":6601,"fur":6602,"por":6603,"twin":6604,"arns":6605,"except":6606,"quid":6607,"explan":6608,"subsequent":6609,"contained":6610,"raftstore":6611,"callbacks":6612,"dnssec":6613,"authenticator":6614,"insights":6615,"explicitly":6616,"alternative":6617,"individual":6618,"hellman":6619,"69":6620,"72":6621,"blit":6622,"fine":6623,"k4":6624,"much":6625,"arms":6626,"road":6627,"liquid":6628,"0010":6629,"size64":6630,"wable":6631,"identical":6632,"multicast":6633,"synchronizer":6634,"tombstone":6635,"transcription":6636,"passphrase":6637,"hide":6638,"oip":6639,"t3":6640,"removing":6641,"iny":6642,"bufs":6643,"byoip":6644,"descriptions":6645,"cpus":6646,"migrate":6647,"imm64":6648,"screenshot":6649,"lined":6650,"forwards":6651,"rumors":6652,"desktop":6653,"preference":6654,"sr":6655,"tm":6656,"vant":6657,"congest":6658,"exceptions":6659,"importer":6660,"125":6661,"src1":6662,"continuous":6663,"sockopt":6664,"surfaces":6665,"aborts":6666,"████":6667,"crc32":6668,"learning":6669,"relevant":6670,"guess":6671,"congestion":6672,"fate":6673,"ug":6674,"pts":6675,"shares":6676,"creds":6677,"marked":6678,"advanced":6679,"builtins":6680,"acquired":6681,"fuzzer":6682,"celebrity":6683,"dan":6684,"gam":6685,"m1":6686,"warm":6687,"xim":6688,"ligh":6689,"varying":6690,"scalable":6691,"collected":6692,"encryptor":6693,"rx2":6694,"drawing":6695,"tensors":6696,"declared":6697,"appropri":6698,"ndx":6699,"fcntl":6700,"immediate8to":6701,"copied":6702,"ecdsa":6703,"vacant":6704,"asymmetric":6705,"explanation":6706,"2nd":6707,"c8":6708,"depart":6709,"coins":6710,"care":6711,"date64":6712,"nodelay":6713,"gateways":6714,"solid":6715,"bigint":6716,"quicksight":6717,"decoration":6718,"appropriate":6719,"0b0":6720,"tiny":6721,"retract":6722,"country":6723,"applica":6724,"expires":6725,"logfile":6726,"mercur":6727,"storing":6728,"blobs":6729,"paginator":6730,"smoke":6731,"010":6732,"redirection":6733,"adj":6734,"divisor":6735,"jsval":6736,"builds":6737,"dirfd":6738,"accessible":6739,"gamepad":6740,"standalone":6741,"x03":6742,"applicable":6743,"alter":6744,"0xffff":6745,"boat":6746,"keymap":6747,"playback":6748,"properly":6749,"clouddirectory":6750,"develop":6751,"standards":6752,"polygon":6753,"protected":6754,"propagate":6755,"gamma":6756,"82":6757,"eat":6758,"ka":6759,"vfs":6760,"exa":6761,"ptrace":6762,"disco":6763,"applies":6764,"traverse":6765,"eks":6766,"amazonaws":6767,"hosts":6768,"1001":6769,"ignores":6770,"fu8":6771,"ki":6772,"men":6773,"val1":6774,"isoned":6775,"poisoned":6776,"shap":6777,"prece":6778,"privi":6779,"awswaf":6780,"0006":6781,"providers":6782,"allocator":6783,"bubble":6784,"negotiate":6785,"warp":6786,"x02":6787,"expose":6788,"lain":6789,"equi":6790,"atory":6791,"bitrate":6792,"plural":6793,"slices":6794,"supplied":6795,"aggregated":6796,"s3tc":6797,"aiocb":6798,"mandatory":6799,"approximate":6800,"interlaced":6801,"capsule":6802,"privile":6803,"79":6804,"e9":6805,"eu":6806,"fty":6807,"malloc":6808,"xlib":6809,"rever":6810,"lear":6811,"unsubscribe":6812,"party":6813,"addon":6814,"acces":6815,"disconnected":6816,"imported":6817,"vmdq":6818,"epsil":6819,"deployed":6820,"relation":6821,"radii":6822,"mipmaps":6823,"epsilon":6824,"au8":6825,"jg":6826,"oes":6827,"rdi":6828,"sip":6829,"tvm":6830,"neigh":6831,"reflow":6832,"iterations":6833,"comb":6834,"120":6835,"plane":6836,"poly1305":6837,"interpreted":6838,"exclusions":6839,"newsboat":6840,"wildcard":6841,"inclusive":6842,"rq":6843,"vor":6844,"dele":6845,"splits":6846,"absolutely":6847,"ticker":6848,"circum":6849,"────────────────":6850,"colours":6851,"utilization":6852,"lb":6853,"lum":6854,"wgpu":6855,"val2":6856,"tes":6857,"mlw":6858,"views":6859,"phrase":6860,"ctap1":6861,"materialize":6862,"subscribers":6863,"decrement":6864,"tidb":6865,"alert":6866,"trivial":6867,"discovery":6868,"8000h":6869,"aud":6870,"zadd":6871,"infra":6872,"uninitialized":6873,"msrc":6874,"pathname":6875,"coll":6876,"endfor":6877,"time32":6878,"appy":6879,"movement":6880,"framework":6881,"discoverer":6882,"mercury":6883,"ah":6884,"hkdf":6885,"reconfig":6886,"alge":6887,"unstable":6888,"thus":6889,"pod":6890,"datasets":6891,"subtract":6892,"mysql":6893,"piped":6894,"viewer":6895,"suppres":6896,"looking":6897,"bitmaps":6898,"taxonomy":6899,"224":6900,"dry":6901,"p3":6902,"wig":6903,"wops":6904,"testdir":6905,"umb":6906,"outcome":6907,"rects":6908,"fff":6909,"f32f32":6910,"websocket":6911,"quoted":6912,"smaller":6913,"hibit":6914,"circular":6915,"decrease":6916,"sanit":6917,"sixteen":6918,"1u64":6919,"2fo":6920,"81":6921,"rint":6922,"uff":6923,"fi2fo":6924,"entory":6925,"tell":6926,"acute":6927,"interce":6928,"perman":6929,"explain":6930,"goto":6931,"alphabet":6932,"chosen":6933,"inventory":6934,"circle":6935,"int8type":6936,"chrono":6937,"substit":6938,"muxer":6939,"infrastructure":6940,"permanent":6941,"dn":6942,"jl":6943,"stac":6944,"demo":6945,"errs":6946,"unded":6947,"withdraw":6948,"senti":6949,"contextstr":6950,"locale":6951,"0004":6952,"phen":6953,"borrows":6954,"rustls":6955,"suspend":6956,"adjusted":6957,"11111111":6958,"feder":6959,"learner":6960,"bloom":6961,"dcb":6962,"farg":6963,"k0":6964,"rebuild":6965,"semi":6966,"encod":6967,"meter":6968,"toclient":6969,"bump":6970,"taken":6971,"mos":6972,"rai":6973,"returning":6974,"pager":6975,"sponse":6976,"nonblock":6977,"opened":6978,"opengl":6979,"triggered":6980,"offerings":6981,"hyphen":6982,"delegate":6983,"2u32":6984,"4d":6985,"ellation":6986,"deactivate":6987,"aps":6988,"ints":6989,"deserialized":6990,"ared":6991,"transmit":6992,"boring":6993,"u16u16":6994,"splitter":6995,"utf16":6996,"restapi":6997,"gov":6998,"csswg":6999,"cha20":7000,"sentiment":7001,"bpp":7002,"fq":7003,"w5":7004,"zig":7005,"zag":7006,"leak":7007,"rounded":7008,"fish":7009,"moder":7010,"obstac":7011,"curses":7012,"prime":7013,"panick":7014,"jour":7015,"higher":7016,"deprecate":7017,"themes":7018,"products":7019,"rather":7020,"cript":7021,"topology":7022,"fargate":7023,"icons":7024,"vc":7025,"x01":7026,"encounter":7027,"nets":7028,"vest":7029,"dictor":7030,"predictor":7031,"suit":7032,"tokenize":7033,"exprs":7034,"ellow":7035,"exited":7036,"partitioning":7037,"i16i16":7038,"i8i8":7039,"blacklist":7040,"2e":7041,"4u8":7042,"droid":7043,"ess":7044,"ever":7045,"frequ":7046,"lapping":7047,"p256":7048,"doing":7049,"data1":7050,"ips":7051,"oton":7052,"glsl":7053,"descriptors":7054,"binop":7055,"overlapping":7056,"composition":7057,"reduction":7058,"65535":7059,"stuff":7060,"brightness":7061,"equival":7062,"aarch":7063,"bill":7064,"cgroup":7065,"hls":7066,"jpg":7067,"ulong":7068,"conce":7069,"rusqlite":7070,"foreg":7071,"indicator":7072,"statuses":7073,"networks":7074,"broken":7075,"foreground":7076,"hsts":7077,"ymm":7078,"yellow":7079,"redis":7080,"sex":7081,"design":7082,"arse":7083,"toserver":7084,"creator":7085,"odd":7086,"ularity":7087,"simulator":7088,"fuzzy":7089,"waiters":7090,"satis":7091,"recognizer":7092,"focused":7093,"a6":7094,"ors":7095,"unload":7096,"unprocess":7097,"ables":7098,"interner":7099,"time64":7100,"subnets":7101,"loops":7102,"symbolic":7103,"242":7104,"67f3":7105,"404":7106,"votes":7107,"aes256":7108,"aarch64":7109,"unprocessable":7110,"fla":7111,"quest":7112,"tbl":7113,"uce":7114,"zu":7115,"untyped":7116,"verage":7117,"dominant":7118,"arg5":7119,"prestat":7120,"jsonrpc":7121,"reporter":7122,"250":7123,"seems":7124,"accepts":7125,"likely":7126,"201504":7127,"abcdefghi":7128,"reversed":7129,"4e":7130,"5e":7131,"sir":7132,"infinite":7133,"loo":7134,"forgot":7135,"lave":7136,"32usize":7137,"bypass":7138,"interpret":7139,"12usize":7140,"voice":7141,"downgrade":7142,"enables":7143,"listening":7144,"permalinks":7145,"proposed":7146,"particular":7147,"circumflex":7148,"l1":7149,"tored":7150,"unnamed":7151,"idge":7152,"doco":7153,"predict":7154,"emon":7155,"specs":7156,"0x8000":7157,"inserts":7158,"aaaaaaa":7159,"brand":7160,"daemon":7161,"abcde":7162,"branch16":7163,"sides":7164,"affected":7165,"xxxxxxxx":7166,"fruit":7167,"smooth":7168,"development":7169,"algebr":7170,"encodings":7171,"bile":7172,"fri":7173,"mtype":7174,"vk":7175,"tou":7176,"prod":7177,"rases":7178,"whose":7179,"grow":7180,"commun":7181,"generating":7182,"lsr":7183,"agree":7184,"lua":7185,"operators":7186,"compared":7187,"measurement":7188,"average":7189,"i2":7190,"lc":7191,"pong":7192,"pitch":7193,"sadd":7194,"edn":7195,"maker":7196,"belong":7197,"indicates":7198,"optionally":7199,"u32u32":7200,"charset":7201,"sequential":7202,"highligh":7203,"123456":7204,"delivered":7205,"journal":7206,"h0":7207,"rame":7208,"unordered":7209,"convol":7210,"size32":7211,"scis":7212,"outline":7213,"outpost":7214,"workdir":7215,"origins":7216,"webkit":7217,"immediate32":7218,"implementor":7219,"csi":7220,"ed25519signature":7221,"nbt":7222,"longhands":7223,"interceptor":7224,"2u8":7225,"emp":7226,"kaf":7227,"vin":7228,"x7":7229,"ropy":7230,"adverti":7231,"tess":7232,"proj":7233,"shard":7234,"tier":7235,"emr":7236,"nodegroup":7237,"expire":7238,"boxes":7239,"options1":7240,"pivot":7241,"metas":7242,"decision":7243,"clauses":7244,"int16type":7245,"agents":7246,"actors":7247,"tracer":7248,"equivalent":7249,"scissor":7250,"kafka":7251,"1128":7252,"83":7253,"jbe":7254,"pvec":7255,"inval":7256,"edx":7257,"typescript":7258,"andx":7259,"ereg":7260,"lsb":7261,"scalars":7262,"multiplied":7263,"sequences":7264,"milliseconds":7265,"clockwise":7266,"annotated":7267,"specialization":7268,"20161128":7269,"happens":7270,"steal":7271,"blake2b":7272,"dark":7273,"ball":7274,"r32":7275,"t0":7276,"tics":7277,"vbox":7278,"wm":7279,"unlink":7280,"coarse":7281,"file2":7282,"filestat":7283,"imated":7284,"subcommands":7285,"minimal":7286,"connecting":7287,"connectivity":7288,"phrases":7289,"initializer":7290,"sampled":7291,"sha512":7292,"activities":7293,"coordinates":7294,"ancestors":7295,"parenthesized":7296,"printed":7297,"navigation":7298,"menu":7299,"m128":7300,"omit":7301,"sible":7302,"camer":7303,"codepoint":7304,"fered":7305,"subsystem":7306,"having":7307,"afd":7308,"sha3":7309,"placements":7310,"devtools":7311,"workflows":7312,"camera":7313,"gp":7314,"i1":7315,"pended":7316,"tanti":7317,"rex":7318,"alexa":7319,"unlock":7320,"coer":7321,"maps":7322,"sky":7323,"masks":7324,"plugins":7325,"passing":7326,"brackets":7327,"allocations":7328,"xidmap":7329,"campaign":7330,"sharing":7331,"tantivy":7332,"fdir":7333,"hp":7334,"kde":7335,"norms":7336,"rereg":7337,"xff":7338,"reh":7339,"unchanged":7340,"apic":7341,"newlines":7342,"mag":7343,"0040h":7344,"mobile":7345,"compreh":7346,"whate":7347,"versioned":7348,"positioning":7349,"202":7350,"lengths":7351,"socket1":7352,"udf":7353,"analytics":7354,"personal":7355,"retrieval":7356,"eli":7357,"jne":7358,"zmm":7359,"series":7360,"msr":7361,"dere":7362,"netbsd":7363,"8042":7364,"dhcp":7365,"20160":7366,"socks5":7367,"inspector":7368,"combine":7369,"jge":7370,"lr":7371,"alproto":7372,"uninstall":7373,"excer":7374,"vers":7375,"vectored":7376,"notice":7377,"hemer":7378,"tpl":7379,"grab":7380,"ephemer":7381,"continuation":7382,"40usize":7383,"paginated":7384,"adjustment":7385,"radial":7386,"whatever":7387,"ephemeral":7388,"74":7389,"92":7390,"jle":7391,"jae":7392,"inconsistent":7393,"decompress":7394,"robo":7395,"contract":7396,"ruction":7397,"upsert":7398,"scsi":7399,"scram":7400,"dog":7401,"ording":7402,"bridge":7403,"effi":7404,"possib":7405,"quotas":7406,"recognized":7407,"training":7408,"sensitivity":7409,"docopt":7410,"6c":7411,"hat":7412,"jnp":7413,"kt":7414,"simp":7415,"sozu":7416,"negate":7417,"ofs":7418,"food":7419,"state2":7420,"102":7421,"suppress":7422,"conflicting":7423,"healthy":7424,"branch32":7425,"computation":7426,"666":7427,"0x77a9":7428,"purge":7429,"aaaaaaaaaaaaaaaaaaaaaaaaaaaaaaaaaaaaaaaaaaaaaaaaaaaaaaaaaaaaaaaa":7430,"taxonomies":7431,"frequency":7432,"btree":7433,"dtable":7434,"s4":7435,"staging":7436,"0011":7437,"data2":7438,"dates":7439,"logged":7440,"i32i32":7441,"rangeby":7442,"nonblocking":7443,"metic":7444,"transport1":7445,"universe":7446,"according":7447,"simulate":7448,"acquires":7449,"integral":7450,"observers":7451,"incremental":7452,"arithmetic":7453,"destructor":7454,"1f64":7455,"377":7456,"c9":7457,"hack":7458,"nused":7459,"attest":7460,"saver":7461,"compo":7462,"pii":7463,"deny":7464,"chaining":7465,"cxx":7466,"populated":7467,"solve":7468,"followed":7469,"earlier":7470,"dragon":7471,"wheel":7472,"forwarded":7473,"paragraph":7474,"restricted":7475,"cmsg":7476,"i8042":7477,"sun":7478,"x5":7479,"alphan":7480,"uth":7481,"equ":7482,"indexing":7483,"0008":7484,"illu":7485,"147":7486,"lucetc":7487,"ingestion":7488,"attribs":7489,"reregister":7490,"attestation":7491,"alphanum":7492,"3u8":7493,"fan":7494,"i3":7495,"nsec":7496,"t5":7497,"deg":7498,"demand":7499,"rote":7500,"rown":7501,"pup":7502,"testarray":7503,"docker":7504,"backslash":7505,"ecs":7506,"facebook":7507,"descending":7508,"avx":7509,"detectors":7510,"uumain":7511,"voting":7512,"intersects":7513,"preceding":7514,"moderation":7515,"excerpt":7516,"testarrayof":7517,"bp":7518,"zstd":7519,"id1":7520,"veget":7521,"uploaded":7522,"mentat":7523,"timezone":7524,"tagged":7525,"metafile":7526,"sha384":7527,"redund":7528,"uiid":7529,"505":7530,"headless":7531,"languages":7532,"rbp":7533,"candidates":7534,"criteria":7535,"201807":7536,"audit":7537,"dragonfly":7538,"blog":7539,"cdr":7540,"ech":7541,"gus":7542,"pdu":7543,"tso":7544,"uapi":7545,"toy":7546,"dial":7547,"lowp":7548,"509":7549,"comparable":7550,"dashboards":7551,"fxb":7552,"recursively":7553,"nfsproc":7554,"http2frame":7555,"uucore":7556,"comprehend":7557,"ban":7558,"cn":7559,"fbo":7560,"sint32":7561,"w6":7562,"zlib":7563,"orphan":7564,"semb":7565,"itude":7566,"arq":7567,"uninterpreted":7568,"five":7569,"useless":7570,"bogus":7571,"disp":7572,"eventually":7573,"regional":7574,"docset":7575,"checkout":7576,"rc4":7577,"0x1000":7578,"elli":7579,"termion":7580,"equality":7581,"175":7582,"boost":7583,"answers":7584,"dtor":7585,"w7":7586,"ce9d":7587,"unregister":7588,"unpark":7589,"ctype":7590,"entropy":7591,"0016":7592,"0012":7593,"disc":7594,"certain":7595,"terminator":7596,"gold":7597,"tracks":7598,"virtq":7599,"shutting":7600,"attempts":7601,"harvest":7602,"forwarder":7603,"portrait":7604,"encountered":7605,"krb":7606,"tch":7607,"u1":7608,"xacquire":7609,"xrelease":7610,"depar":7611,"iding":7612,"typegen":7613,"0020":7614,"intermediate":7615,"aliased":7616,"vector2d":7617,"planning":7618,"carded":7619,"65536":7620,"appears":7621,"sharpen":7622,"lz4":7623,"dereference":7624,"departed":7625,"gla":7626,"nice":7627,"p0":7628,"sass":7629,"resample":7630,"toge":7631,"cop":7632,"msb":7633,"op4":7634,"counting":7635,"point2":7636,"instrument":7637,"socklen":7638,"pinpoint":7639,"syntaxes":7640,"pointers":7641,"gnu":7642,"microsoft":7643,"batter":7644,"whatwg":7645,"deferred":7646,"fortune":7647,"redundant":7648,"together":7649,"fbb":7650,"jno":7651,"jns":7652,"r8":7653,"exer":7654,"exha":7655,"fig":7656,"tem":7657,"icing":7658,"discarded":7659,"loadbalancing":7660,"ledge":7661,"termios":7662,"aster":7663,"normalized":7664,"therefore":7665,"3339":7666,"imm32":7667,"basis":7668,"negated":7669,"elasticloadbalancing":7670,"illumos":7671,"exhaust":7672,"hn":7673,"mtime":7674,"iting":7675,"entids":7676,"pemd":7677,"0018":7678,"001e":7679,"size2":7680,"codecs":7681,"ripemd":7682,"datastore":7683,"dataflow":7684,"independ":7685,"hashmap":7686,"hose":7687,"voc":7688,"linking":7689,"pricing":7690,"vectorlike":7691,"gles":7692,"cloudfront":7693,"digests":7694,"mb4":7695,"retrieved":7696,"optimization":7697,"indentation":7698,"temporal":7699,"firehose":7700,"adjac":7701,"semicolon":7702,"aaaaaaaaaaaaaaaaaaaaaaaaaaaaaaaaaaaaaaaaaaaaaaaaaaaaaaaaaaaaaaaaaaaaaaa":7703,"battery":7704,"independent":7705,"1a":7706,"1c":7707,"2s":7708,"9b9":7709,"lw":7710,"rer":7711,"wt":7712,"cov":7713,"extr":7714,"0xffffffff":7715,"acknow":7716,"prepend":7717,"locate":7718,"splice":7719,"bitindex":7720,"register3":7721,"pie":7722,"snmp":7723,"styled":7724,"srcs":7725,"markdown":7726,"invok":7727,"shadows":7728,"remains":7729,"stages":7730,"particip":7731,"sanitize":7732,"satisfi":7733,"dp":7734,"mir":7735,"nine":7736,"ox":7737,"team":7738,"trie":7739,"extent":7740,"disas":7741,"charpos":7742,"cacheable":7743,"2048":7744,"crypt":7745,"finding":7746,"dense":7747,"elt":7748,"rxq":7749,"lexe":7750,"utf8mb4":7751,"buttons":7752,"activation":7753,"extracted":7754,"microseconds":7755,"authenticate":7756,"toolchain":7757,"corrupt":7758,"representation":7759,"k5":7760,"nbytes":7761,"insensitive":7762,"ges":7763,"lod":7764,"tee":7765,"prob":7766,"prox":7767,"thelen":7768,"buff":7769,"matchers":7770,"preload":7771,"u8vector":7772,"0x40000":7773,"floating":7774,"subscribed":7775,"solar":7776,"50h":7777,"wards":7778,"databases":7779,"decryption":7780,"sia":7781,"optimizer":7782,"productions":7783,"presence":7784,"l2r":7785,"skew":7786,"prune":7787,"billing":7788,"1b":7789,"73":7790,"drt":7791,"ebad":7792,"rfb":7793,"alp":7794,"dee":7795,"lef":7796,"chsia":7797,"gem":7798,"ury":7799,"izable":7800,"sensor":7801,"permutation":7802,"160":7803,"108":7804,"builders":7805,"grave":7806,"copyable":7807,"tensorflow":7808,"currencies":7809,"italic":7810,"rdp":7811,"fuchsia":7812,"drawable":7813,"considered":7814,"inserter":7815,"prag":7816,"lexeme":7817,"cash":7818,"d8":7819,"fpath":7820,"gm":7821,"o1":7822,"o2":7823,"tl":7824,"ane":7825,"pump":7826,"test1":7827,"validated":7828,"disallowed":7829,"ptrd":7830,"gling":7831,"aband":7832,"playing":7833,"merging":7834,"binlink":7835,"eager":7836,"suspended":7837,"branch64":7838,"whitelist":7839,"cpp":7840,"duplicates":7841,"temporarily":7842,"ferences":7843,"decorator":7844,"descendant":7845,"federation":7846,"question":7847,"alphanumeric":7848,"bre":7849,"d10":7850,"dtls":7851,"kil":7852,"fieldnorms":7853,"arg6":7854,"impo":7855,"lags":7856,"subsec":7857,"depending":7858,"cleared":7859,"openssl":7860,"filenames":7861,"calle":7862,"pkgs":7863,"expander":7864,"datoms01":7865,"requirements":7866,"presenter":7867,"propag":7868,"observed":7869,"raises":7870,"6e":7871,"ield":7872,"kan":7873,"treas":7874,"u5":7875,"xbegin":7876,"infix":7877,"invariants":7878,"thrown":7879,"usecs":7880,"bytepos":7881,"interned":7882,"speech":7883,"subtype":7884,"density":7885,"openbsd":7886,"234":7887,"decls":7888,"elasticbeanstalk":7889,"recognize":7890,"occurred":7891,"translator":7892,"departure":7893,"asterisk":7894,"abandon":7895,"treasury":7896,"dro":7897,"ffered":7898,"han":7899,"kset":7900,"r64":7901,"s0":7902,"erase":7903,"unrecognized":7904,"cold":7905,"idl":7906,"0028":7907,"racer":7908,"acme":7909,"siginfo":7910,"spliter":7911,"flags3":7912,"optflag":7913,"skipping":7914,"doesnt":7915,"tracked":7916,"sitemap":7917,"platforms":7918,"dictionaries":7919,"compositing":7920,"recurse":7921,"recursion":7922,"00000000000080":7923,"8080h":7924,"alternate":7925,"represents":7926,"agreement":7927,"simply":7928,"116":7929,"cial":7930,"d7":7931,"gain":7932,"kers":7933,"mcu":7934,"nx":7935,"vl":7936,"atty":7937,"bust":7938,"poses":7939,"ctional":7940,"streamer":7941,"254":7942,"000a":7943,"bars":7944,"ec2instance":7945,"captured":7946,"transitions":7947,"quoting":7948,"granted":7949,"warmup":7950,"3u32":7951,"dm":7952,"g1":7953,"ku":7954,"slave":7955,"tgt":7956,"x6":7957,"refill":7958,"inp":7959,"deser":7960,"conference":7961,"thesa":7962,"shuff":7963,"excess":7964,"sae":7965,"userdata":7966,"foo2":7967,"columnar":7968,"rel32":7969,"rsr":7970,"capitalize":7971,"separated":7972,"submitted":7973,"majority":7974,"tapes":7975,"synchronization":7976,"wiki":7977,"inode":7978,"pragma":7979,"112":7980,"3000":7981,"bser":7982,"e4":7983,"insecure":7984,"meet":7985,"0014":7986,"scrol":7987,"bye":7988,"preopen":7989,"interaction":7990,"bare":7991,"impro":7992,"parameteriv":7993,"stype":7994,"image2d":7995,"0005":7996,"resolvers":7997,"correctness":7998,"highlights":7999,"convolution":8000,"krb5":8001,"solaris":8002,"lefto":8003,"5a":8004,"gge":8005,"iq":8006,"sizing":8007,"invert":8008,"unterminated":8009,"chro":8010,"entr":8011,"strat":8012,"pure":8013,"icd10":8014,"colli":8015,"ami":8016,"performed":8017,"manu":8018,"eps":8019,"downstream":8020,"1006":8021,"scores":8022,"goes":8023,"805":8024,"evaluated":8025,"consumers":8026,"bottommost":8027,"annotate":8028,"collapsible":8029,"leased":8030,"stripped":8031,"0x9e377":8032,"destroyed":8033,"updater":8034,"suitability":8035,"ggez":8036,"icd10cm":8037,"0x9e3779b9":8038,"71":8039,"e6":8040,"l3":8041,"lun":8042,"zpage":8043,"ather":8044,"apon":8045,"thetype":8046,"vise":8047,"clas":8048,"company":8049,"objc":8050,"memcmp":8051,"backing":8052,"backdrop":8053,"logue":8054,"0x00u8":8055,"allowlist":8056,"texture3d":8057,"foo1":8058,"skim":8059,"0007":8060,"connects":8061,"generates":8062,"asts":8063,"hexa":8064,"watched":8065,"meshes":8066,"recognition":8067,"flattened":8068,"contrib":8069,"naming":8070,"natural":8071,"graphemes":8072,"acknowledge":8073,"854":8074,"bon":8075,"gone":8076,"ortable":8077,"noun":8078,"6467":8079,"confid":8080,"discri":8081,"configur":8082,"wel":8083,"weapon":8084,"initrd":8085,"recor":8086,"writers":8087,"assum":8088,"opening":8089,"macro2":8090,"ntstatus":8091,"rdx":8092,"nbss":8093,"0ah":8094,"possibly":8095,"0c":8096,"2f":8097,"az":8098,"cpl":8099,"cvt":8100,"ei":8101,"einval":8102,"gi":8103,"gur":8104,"plist":8105,"rtx":8106,"rsw":8107,"r15":8108,"sregs":8109,"reaction":8110,"influ":8111,"mutations":8112,"mpx":8113,"refcount":8114,"rets":8115,"shan":8116,"evcx":8117,"compose":8118,"performs":8119,"filtering":8120,"ordinal":8121,"marke":8122,"applying":8123,"migrations":8124,"invite":8125,"categor":8126,"ructed":8127,"201508":8128,"syscalls":8129,"veness":8130,"tombstones":8131,"withdrawal":8132,"rerun":8133,"recorded":8134,"evcxr":8135,"0dh":8136,"5000":8137,"7e":8138,"cv":8139,"efd":8140,"gzip":8141,"pul":8142,"sut":8143,"rols":8144,"chmod":8145,"bu8":8146,"newly":8147,"lacing":8148,"exts":8149,"bey":8150,"ances":8151,"weather":8152,"controls":8153,"signup":8154,"0x0009":8155,"subpixel":8156,"reported":8157,"0000000":8158,"framebuffers":8159,"layouts":8160,"prer":8161,"monoton":8162,"248":8163,"int64array":8164,"approved":8165,"0bh":8166,"recommended":8167,"0eh":8168,"becomes":8169,"shapes":8170,"efficient":8171,"composer":8172,"golden":8173,"vocation":8174,"participant":8175,"influence":8176,"shannon":8177,"0ch":8178,"1i64":8179,"bmp":8180,"csplit":8181,"d9":8182,"hl":8183,"nu":8184,"nor":8185,"risk":8186,"tre":8187,"tld":8188,"react":8189,"inactive":8190,"asn1":8191,"mutability":8192,"nomin":8193,"0030":8194,"0026":8195,"shl":8196,"vercmd":8197,"vary":8198,"http1":8199,"pushed":8200,"outputln":8201,"dir1":8202,"butter":8203,"moves":8204,"masking":8205,"multibyte":8206,"watchman":8207,"uploads":8208,"775":8209,"vaults":8210,"float64array":8211,"isolated":8212,"nanoseconds":8213,"blake2s":8214,"3c":8215,"lated":8216,"deinit":8217,"chart":8218,"buf2":8219,"dialog":8220,"dialer":8221,"compound":8222,"subcmd":8223,"abis":8224,"fsctl":8225,"projector":8226,"redraw":8227,"pbm":8228,"ownership":8229,"covered":8230,"optimistic":8231,"suggester":8232,"grapheme":8233,"guaranteed":8234,"ucs4":8235,"butterfly":8236,"4f":8237,"bis":8238,"cue":8239,"ey":8240,"eas":8241,"ely":8242,"fps":8243,"hap":8244,"happy":8245,"mdata":8246,"rval":8247,"remo":8248,"atime":8249,"robust":8250,"ceed":8251,"val3":8252,"matte":8253,"notrack":8254,"promote":8255,"proto2":8256,"lling":8257,"readed":8258,"stopping":8259,"finally":8260,"multival":8261,"333":8262,"sliding":8263,"xmm2":8264,"quantities":8265,"f7f7":8266,"rfc3339":8267,"scratchpad":8268,"obstacle":8269,"4u32":8270,"91":8271,"bio":8272,"tut":8273,"tan":8274,"u4":8275,"vlan":8276,"wants":8277,"x8":8278,"═╝":8279,"enqueue":8280,"apdu":8281,"prover":8282,"proceed":8283,"pol":8284,"division":8285,"strukt":8286,"cron":8287,"subquery":8288,"frac":8289,"closes":8290,"wasn":8291,"130":8292,"uint16":8293,"vpce":8294,"f16f16":8295,"http3req":8296,"guru":8297,"5u8":8298,"ai":8299,"cpy":8300,"night":8301,"qrst":8302,"xdg":8303,"sta":8304,"unreferenced":8305,"cores":8306,"scry":8307,"unwrapped":8308,"saml":8309,"preprocessor":8310,"deserialization":8311,"variation":8312,"operating":8313,"socket2":8314,"dename":8315,"printing":8316,"fluent":8317,"salsa":8318,"instantiate":8319,"expansion":8320,"lmnop":8321,"concepts":8322,"elimin":8323,"monotonic":8324,"1f":8325,"till":8326,"u10":8327,"zv":8328,"unresolved":8329,"reqwest":8330,"prologue":8331,"value3":8332,"premultiplied":8333,"loads":8334,"grand":8335,"modul":8336,"dedup":8337,"others":8338,"archite":8339,"fsid":8340,"clipped":8341,"copying":8342,"passwd":8343,"extends":8344,"exiting":8345,"edits":8346,"tunn":8347,"excludes":8348,"overlaps":8349,"10101010":8350,"pressure":8351,"██║██║":8352,"culling":8353,"further":8354,"privileges":8355,"loope":8356,"figure":8357,"imposs":8358,"nominal":8359,"scrypt":8360,"bstr":8361,"rsp":8362,"r16":8363,"s5":8364,"renamed":8365,"alarms":8366,"asing":8367,"threat":8368,"texts":8369,"spection":8370,"dbg":8371,"uleb":8372,"framewise":8373,"cmpe":8374,"sliced":8375,"dests":8376,"actuals":8377,"integers":8378,"nesting":8379,"0630":8380,"abstraction":8381,"predicates":8382,"trainer":8383,"chacha20":8384,"advertise":8385,"luna":8386,"confidence":8387,"impossible":8388,"3f":8389,"d6":8390,"hu":8391,"sans":8392,"uide":8393,"ushort":8394,"vr":8395,"orial":8396,"orers":8397,"lements":8398,"chroot":8399,"thumb":8400,"threaded":8401,"adming":8402,"veloc":8403,"macron":8404,"bes":8405,"regard":8406,"indicate":8407,"exported":8408,"supposed":8409,"substring":8410,"abortable":8411,"rcv":8412,"myapp":8413,"pango":8414,"john":8415,"changing":8416,"instrs":8417,"untu":8418,"raftdb":8419,"jumps":8420,"ubuntu":8421,"6667":8422,"numbers50":8423,"0fh":8424,"meaning":8425,"algebrizer":8426,"i3bar":8427,"tutorial":8428,"adminguide":8429,"velocity":8430,"93":8431,"gw":8432,"grea":8433,"lcd":8434,"pip":8435,"smt":8436,"tdf":8437,"decoding":8438,"unbind":8439,"unbound":8440,"unprocessed":8441,"resulting":8442,"reftest":8443,"popup":8444,"mss":8445,"scorers":8446,"test4":8447,"clic":8448,"cier":8449,"executing":8450,"snd":8451,"aws242":8452,"entrypoint":8453,"splitn":8454,"cccc":8455,"shortcut":8456,"goal":8457,"x06":8458,"controllers":8459,"fences":8460,"several":8461,"gather":8462,"sanity":8463,"fruits":8464,"isolate":8465,"pract":8466,"aws242service":8467,"9a":8468,"cmov":8469,"ntp":8470,"ered":8471,"invocation":8472,"ond":8473,"assumed":8474,"tele":8475,"edi":8476,"pacm":8477,"321":8478,"usually":8479,"backed":8480,"fraud":8481,"agnost":8482,"rolling":8483,"rng256":8484,"dnsr":8485,"delayed":8486,"emitter":8487,"bazel":8488,"accumulate":8489,"vex2":8490,"sectors":8491,"watermark":8492,"relationship":8493,"lumin":8494,"sembler":8495,"glacier":8496,"pacman":8497,"agnostic":8498,"501":8499,"5678":8500,"bash":8501,"h4":8502,"ltr":8503,"lbl":8504,"mc":8505,"s8":8506,"y0":8507,"resend":8508,"rewriter":8509,"atoms":8510,"mat3":8511,"0024":8512,"paste":8513,"key3":8514,"int96":8515,"weird":8516,"registering":8517,"minator":8518,"collecting":8519,"webxr":8520,"needle":8521,"proofs":8522,"cloudformation":8523,"registrations":8524,"decline":8525,"samplers":8526,"turned":8527,"entitlement":8528,"highlighter":8529,"mirror":8530,"hexadecimal":8531,"cmpeq":8532,"2a":8533,"3a":8534,"4b":8535,"ji":8536,"ny":8537,"ou":8538,"pal":8539,"uped":8540,"vul":8541,"x11":8542,"reconfiguration":8543,"reconnect":8544,"ascent":8545,"lods":8546,"ldaps":8547,"setsockopt":8548,"ssn":8549,"moun":8550,"dove":8551,"lens":8552,"accur":8553,"usb":8554,"preburn":8555,"fronts":8556,"canop":8557,"orders":8558,"senders":8559,"mac1":8560,"unistd":8561,"producers":8562,"contacts":8563,"ec2container":8564,"starling":8565,"painting":8566,"20130630":8567,"ucs2":8568,"synthesis":8569,"scrollable":8570,"epi":8571,"ict":8572,"linter":8573,"s6":8574,"spect":8575,"reput":8576,"id2":8577,"rum":8578,"caf":8579,"caret":8580,"0032":8581,"0022":8582,"shield":8583,"faq":8584,"obso":8585,"sums":8586,"104":8587,"1011":8588,"minim":8589,"hole":8590,"postorder":8591,"000c":8592,"view1":8593,"loopne":8594,"151":8595,"breaking":8596,"projective":8597,"exitcode":8598,"privkey":8599,"registries":8600,"pdpb":8601,"slee":8602,"revs":8603,"avr":8604,"authenticated":8605,"embedded":8606,"memberships":8607,"affects":8608,"introspection":8609,"jklmnop":8610,"entitlements":8611,"accessed":8612,"grease":8613,"vulkan":8614,"canopy":8615,"7a":8616,"aware":8617,"bun":8618,"freqs":8619,"hr":8620,"k7":8621,"mib":8622,"pname":8623,"s7":8624,"v5":8625,"wo":8626,"wer":8627,"zn":8628,"deboun":8629,"0x1234":8630,"urus":8631,"ters":8632,"wrappers":8633,"testnet":8634,"begv":8635,"path2":8636,"line2":8637,"sigset":8638,"disallow":8639,"cliargs":8640,"backface":8641,"129":8642,"plant":8643,"sockets":8644,"multil":8645,"markers":8646,"rm64":8647,"carller":8648,"lnk":8649,"uintptr":8650,"octet":8651,"calculated":8652,"combinator":8653,"firewall":8654,"flavor":8655,"thesaurus":8656,"reputation":8657,"rumble":8658,"cliargsparser":8659,"carllerche":8660,"0123456789":8661,"1000000":8662,"ach":8663,"rsh":8664,"s9":8665,"t4":8666,"witch":8667,"toc":8668,"chap":8669,"chip":8670,"exc":8671,"conic":8672,"fauce":8673,"displacements":8674,"complement":8675,"info2":8676,"rowspan":8677,"hashing":8678,"replic":8679,"grace":8680,"phdr":8681,"smr":8682,"lump":8683,"dropping":8684,"transformer":8685,"tons":8686,"multiplier":8687,"factors":8688,"compiling":8689,"psis":8690,"symlinks":8691,"presigned":8692,"inflate":8693,"authorizers":8694,"bbbbbbbb":8695,"danger":8696,"interners":8697,"exercise":8698,"nightly":8699,"faucet":8700,"7f":8701,"b10":8702,"cstring":8703,"eip":8704,"fpu":8705,"gre":8706,"hscroll":8707,"las":8708,"nv":8709,"saddr":8710,"x509":8711,"relu":8712,"alpn":8713,"ari":8714,"resized":8715,"unnecessary":8716,"liveness":8717,"magn":8718,"prototypes":8719,"tim":8720,"line1":8721,"preconditions":8722,"prepopulated":8723,"invalidations":8724,"offline":8725,"graded":8726,"0x5505":8727,"haz":8728,"nondec":8729,"graphic":8730,"rightmost":8731,"cxt":8732,"migrated":8733,"caron":8734,"cyan":8735,"literals":8736,"licenses":8737,"ogg":8738,"occlu":8739,"shipping":8740,"uvw":8741,"npm":8742,"emscript":8743,"auxili":8744,"neighbor":8745,"designated":8746,"dialect":8747,"utf8mb4bin":8748,"classes":8749,"pulse":8750,"beyond":8751,"emscripten":8752,"2c":8753,"737":8754,"bm":8755,"ium":8756,"tk":8757,"wan":8758,"mp4":8759,"mpid":8760,"icc":8761,"lowest":8762,"compactions":8763,"addressing":8764,"netns":8765,"miss":8766,"associat":8767,"rotated":8768,"lexicon":8769,"overview":8770,"timestamps":8771,"ligatures":8772,"223":8773,"cyclic":8774,"429":8775,"bbb":8776,"bigger":8777,"smbhdr":8778,"proposals":8779,"26h":8780,"gitignore":8781,"goodbye":8782,"ipv6addr":8783,"prevotes":8784,"999999":8785,"cycles":8786,"kdeconnect":8787,"architecture":8788,"hazard":8789,"0u16":8790,"8000":8791,"nl":8792,"rdata":8793,"v2014":8794,"eresis":8795,"onal":8796,"advisor":8797,"fort":8798,"ational":8799,"refine":8800,"retire":8801,"racker":8802,"arg7":8803,"pream":8804,"interconnect":8805,"tps":8806,"expects":8807,"spin":8808,"nonzero":8809,"ongo":8810,"joining":8811,"smart":8812,"smalle":8813,"tcb":8814,"termino":8815,"notebook":8816,"depends":8817,"2233":8818,"503":8819,"pdl":8820,"427":8821,"0218":8822,"sale":8823,"cgmath":8824,"0623":8825,"backwards":8826,"consists":8827,"diaeresis":8828,"evict":8829,"panicked":8830,"vincent":8831,"preamble":8832,"smallest":8833,"180":8834,"bject":8835,"e7":8836,"eff":8837,"hg":8838,"preserved":8839,"rid":8840,"tst":8841,"zset":8842,"released":8843,"res2":8844,"resu":8845,"resident":8846,"unmap":8847,"unshare":8848,"codename":8849,"upgraded":8850,"0036":8851,"writeset":8852,"causes":8853,"beta":8854,"reg2":8855,"evol":8856,"presets":8857,"preboot":8858,"anyway":8859,"10px":8860,"ptrs":8861,"tempids":8862,"webrtc":8863,"1970":8864,"cmpsd":8865,"cars":8866,"district":8867,"looks":8868,"legs":8869,"lapic":8870,"morph":8871,"budgets":8872,"20150623":8873,"semble":8874,"attempting":8875,"bootstrapped":8876,"introspect":8877,"oooooooooooooooo":8878,"20150413":8879,"daemonize":8880,"callee":8881,"20150824":8882,"wanted":8883,"bpt":8884,"dms":8885,"fre":8886,"hits":8887,"srtp":8888,"mechan":8889,"toler":8890,"strs":8891,"size16":8892,"fade":8893,"htm":8894,"122":8895,"xmlns":8896,"envvar":8897,"cats":8898,"orgs":8899,"classic":8900,"restapis":8901,"immediate16":8902,"stickiness":8903,"authorizations":8904,"purpose":8905,"768":8906,"affine":8907,"suppressed":8908,"leftover":8909,"luminance":8910,"bptc":8911,"1f32":8912,"5f32":8913,"720":8914,"elicit":8915,"gg":8916,"vdev":8917,"xi":8918,"inlined":8919,"lorem":8920,"stra":8921,"lake":8922,"ssrc":8923,"doll":8924,"atable":8925,"listing":8926,"notation":8927,"qux":8928,"hasn":8929,"grouped":8930,"105":8931,"126":8932,"transformation":8933,"templated":8934,"maintain":8935,"panel":8936,"fdstat":8937,"scoped":8938,"associates":8939,"popularity":8940,"immediate64":8941,"██╗":8942,"ebs":8943,"aes128":8944,"nail":8945,"datatypes":8946,"float64type":8947,"001c":8948,"coordinator":8949,"introdu":8950,"potentially":8951,"experimental":8952,"eviction":8953,"substitute":8954,"testarrayofstring":8955,"aneous":8956,"breve":8957,"dollar":8958,"48usize":8959,"80000":8960,"aur":8961,"dname":8962,"qt":8963,"vint":8964,"inity":8965,"att":8966,"ater":8967,"decompressed":8968,"unmasked":8969,"chrom":8970,"requesting":8971,"reg1":8972,"endblock":8973,"backoff":8974,"syms":8975,"skil":8976,"amazonswf":8977,"searching":8978,"successors":8979,"scopestart":8980,"estimated":8981,"places":8982,"surf":8983,"fetched":8984,"matrix4":8985,"microtraffic":8986,"detached":8987,"accelerators":8988,"determines":8989,"20130218":8990,"positionals":8991,"similarity":8992,"affinity":8993,"dangling":8994,"hibited":8995,"zigzag":8996,"regardless":8997,"evolved":8998,"chromium":8999,"8e":9000,"f36":9001,"ik":9002,"mf":9003,"nation":9004,"sso":9005,"z3":9006,"数据":9007,"ath":9008,"uname":9009,"gep":9010,"lode":9011,"005":9012,"test3":9013,"raise":9014,"readme":9015,"outset":9016,"sighup":9017,"block1":9018,"ipsum":9019,"curl":9020,"crt":9021,"logdir":9022,"spelling":9023,"commas":9024,"handlebars":9025,"000d":9026,"authorities":9027,"implements":9028,"cloudwatch":9029,"200d":9030,"installer":9031,"eady":9032,"padded":9033,"0x55u8":9034,"schemes":9035,"wakeup":9036,"blessed":9037,"turk":9038,"clamping":9039,"vocab":9040,"btn":9041,"represented":9042,"obtained":9043,"personalize":9044,"vegetation":9045,"adjacency":9046,"ongoing":9047,"bix":9048,"cw":9049,"d4":9050,"fst":9051,"g3":9052,"nable":9053,"nick":9054,"sint64":9055,"steady":9056,"atlas":9057,"announ":9058,"unindent":9059,"uncacheable":9060,"ately":9061,"opted":9062,"contig":9063,"1212":9064,"stylist":9065,"0009":9066,"joined":9067,"zeroing":9068,"rel16":9069,"504":9070,"multipage":9071,"sheets":9072,"enumeration":9073,"s3object":9074,"radians":9075,"duplicated":9076,"483":9077,"strike":9078,"complexity":9079,"zola":9080,"negotiation":9081,"ecdhe":9082,"exceeds":9083,"proxied":9084,"improve":9085,"hapg":9086,"qrstuvw":9087,"associativity":9088,"2u64":9089,"3b":9090,"4000":9091,"econn":9092,"fz":9093,"g2":9094,"jso":9095,"nack":9096,"yml":9097,"z2":9098,"enet":9099,"ionally":9100,"chown":9101,"nofile":9102,"igns":9103,"kevent":9104,"oney":9105,"keyframes":9106,"mention":9107,"iler":9108,"sigus":9109,"various":9110,"located":9111,"0x0002":9112,"graphs":9113,"000e":9114,"skiplist":9115,"flo32":9116,"webp":9117,"authorize":9118,"1003":9119,"ccw":9120,"normalization":9121,"partially":9122,"feeds":9123,"trimmed":9124,"distro":9125,"folding":9126,"decryptor":9127,"likes":9128,"hardware":9129,"bgra32":9130,"ceiling":9131,"sketch":9132,"permanently":9133,"jsobject":9134,"1click":9135,"100000":9136,"6h":9137,"dut":9138,"fy":9139,"fdef":9140,"k6":9141,"krate":9142,"wned":9143,"realloc":9144,"infallible":9145,"coal":9146,"adb":9147,"ulating":9148,"lis":9149,"typedef":9150,"buf1":9151,"agement":9152,"deriv":9153,"saving":9154,"functional":9155,"manip":9156,"nonoverlapping":9157,"src2":9158,"myprog":9159,"packs":9160,"resolving":9161,"authors":9162,"initializing":9163,"boundaries":9164,"overhead":9165,"rm16":9166,"detects":9167,"clai":9168,"triple":9169,"assumes":9170,"prepared":9171,"u8u8u8u8":9172,"secretsmanager":9173,"rained":9174,"restrictions":9175,"33333333":9176,"002e":9177,"iot1click":9178,"contributor":9179,"invoked":9180,"welcome":9181,"refinement":9182,"contiguous":9183,"440":9184,"g5":9185,"gy":9186,"gled":9187,"held":9188,"lite":9189,"mpeg":9190,"money":9191,"nc":9192,"nf":9193,"pm":9194,"pbo":9195,"wit":9196,"xdx":9197,"seven":9198,"prohibited":9199,"vecs":9200,"moment":9201,"diver":9202,"dispose":9203,"evts":9204,"modb":9205,"backtest":9206,"backspace":9207,"207":9208,"0x100":9209,"159":9210,"older":9211,"142":9212,"button1":9213,"elasticfilesystem":9214,"periodic":9215,"specialized":9216,"fuzzing":9217,"synchronous":9218,"entirely":9219,"dynamodb":9220,"problems":9221,"abcdefghijklmnop":9222,"degrees":9223,"multiline":9224,"freed":9225,"surfman":9226,"coales":9227,"90000":9228,"ache":9229,"bk":9230,"g9":9231,"n0":9232,"varg":9233,"vity":9234,"w8":9235,"zed":9236,"╚═╝":9237,"remap":9238,"st0":9239,"uter":9240,"uncommitted":9241,"think":9242,"newtype":9243,"mat2":9244,"noscript":9245,"vec1":9246,"beuter":9247,"64usize":9248,"path1":9249,"esi":9250,"countries":9251,"hassh":9252,"emulation":9253,"log2":9254,"124":9255,"orderable":9256,"gravity":9257,"postcondition":9258,"113":9259,"0003":9260,"rgtc":9261,"transport2":9262,"transports":9263,"frontmatter":9264,"continues":9265,"183":9266,"consuming":9267,"gradients":9268,"seedable":9269,"balanceid":9270,"0x8632":9271,"comes":9272,"bgra8":9273,"4967":9274,"float32array":9275,"nibbles":9276,"traps":9277,"newsbeuter":9278,"003c":9279,"sexp":9280,"sozubalanceid":9281,"robustness":9282,"3usize":9283,"92233":9284,"fw":9285,"ices":9286,"nfa":9287,"rbuf":9288,"sfixed32":9289,"ua":9290,"unscanned":9291,"apot":9292,"soon":9293,"neither":9294,"lize":9295,"teapot":9296,"poke":9297,"003e":9298,"msrs":9299,"sccache":9300,"bom":9301,"bots":9302,"defaultcf":9303,"hasis":9304,"group2":9305,"etur":9306,"tokenized":9307,"bools":9308,"aa5":9309,"framer":9310,"20usize":9311,"sdp":9312,"cmds":9313,"257":9314,"merges":9315,"providing":9316,"integerv":9317,"dsl":9318,"s3resources":9319,"strategies":9320,"trails":9321,"x05":9322,"██╔":9323,"aggregates":9324,"xmm1":9325,"assessments":9326,"analyses":9327,"spreads":9328,"rasterizer":9329,"gives":9330,"busybox":9331,"0b0100":9332,"alphabetic":9333,"bumps":9334,"panicking":9335,"emphasis":9336,"prerele":9337,"auxiliary":9338,"4294967":9339,"straight":9340,"1101":9341,"bn":9342,"fms":9343,"gz":9344,"hc":9345,"lsh":9346,"s12":9347,"tical":9348,"t123":9349,"wchar":9350,"zrem":9351,"dealer":9352,"lead":9353,"contra":9354,"nope":9355,"resps":9356,"promo":9357,"thetical":9358,"pothetical":9359,"0034":9360,"readpool":9361,"pathseg":9362,"say":9363,"serializing":9364,"bytestring":9365,"memtable":9366,"modu":9367,"specpdl":9368,"frin":9369,"account1":9370,"abling":9371,"colormap":9372,"existence":9373,"engagement":9374,"el1":9375,"resolv":9376,"swgl":9377,"copyright":9378,"label1":9379,"datums":9380,"sentine":9381,"linger":9382,"spawner":9383,"rm32":9384,"statistic":9385,"shadowsocks":9386,"hypothetical":9387,"1234567890":9388,"recipes":9389,"kbd":9390,"musl":9391,"granularity":9392,"77777777":9393,"suppression":9394,"fqn":9395,"20180704":9396,"satisfied":9397,"mpidr":9398,"eliciting":9399,"skills":9400,"nickel":9401,"duty":9402,"900":9403,"c12":9404,"dbus":9405,"emo":9406,"eserialize":9407,"kno":9408,"lng":9409,"nip":9410,"tor":9411,"v11":9412,"xsp":9413,"retransmit":9414,"als":9415,"mesa":9416,"proactive":9417,"theus":9418,"codeguru":9419,"ssa":9420,"scoring":9421,"opc":9422,"sigaction":9423,"worth":9424,"tx3":9425,"0x0006":9426,"runnable":9427,"checkpoints":9428,"subr":9429,"defines":9430,"displayed":9431,"catnip":9432,"joblog":9433,"115":9434,"clears":9435,"level0":9436,"definite":9437,"automation":9438,"planner":9439,"restar":9440,"effort":9441,"vascript":9442,"pseudovector":9443,"initiated":9444,"underflow":9445,"56usize":9446,"0a0a":9447,"proposers":9448,"separately":9449,"reservations":9450,"e820":9451,"elasticache":9452,"observ":9453,"ellipse":9454,"shuffle":9455,"sentinel":9456,"0100":9457,"345":9458,"e5":9459,"hop":9460,"hart":9461,"ilio":9462,"kick":9463,"nic":9464,"oom":9465,"pwd":9466,"tint":9467,"uc":9468,"reconfigure":9469,"ener":9470,"enroll":9471,"metheus":9472,"ching":9473,"conven":9474,"getattr":9475,"prometheus":9476,"0050h":9477,"shown":9478,"icant":9479,"faster":9480,"648":9481,"saw":9482,"statfs":9483,"preblock":9484,"sense":9485,"emilio":9486,"safely":9487,"supervise":9488,"view2":9489,"downscale":9490,"txn1":9491,"utf8error":9492,"privacy":9493,"disables":9494,"shows":9495,"texcoord":9496,"x08":9497,"underscore":9498,"0000000000000040h":9499,"f040h":9500,"5433":9501,"delimiters":9502,"bgp":9503,"00000040h":9504,"uptime":9505,"ikev1":9506,"javascript":9507,"picking":9508,"22222222":9509,"ught":9510,"rangebyscore":9511,"killed":9512,"chrome":9513,"ariables":9514,"emoji":9515,"restarted":9516,"016":9517,"1s":9518,"d5":9519,"mx":9520,"osupport":9521,"pv4":9522,"r13":9523,"inhibit":9524,"deci":9525,"itive":9526,"ression":9527,"unmatched":9528,"0038":9529,"rich":9530,"okay":9531,"stateful":9532,"parses":9533,"precache":9534,"ip32":9535,"ipproto":9536,"messaging":9537,"offs":9538,"txq":9539,"103":9540,"10ff":9541,"spawned":9542,"debugging":9543,"hostcall":9544,"shortcode":9545,"efgh":9546,"normally":9547,"counter1":9548,"uniqu":9549,"approve":9550,"cp1":9551,"3600":9552,"x07":9553,"rrtype":9554,"dxt1":9555,"ffffffffffffffff":9556,"benchmarks":9557,"idempotency":9558,"burst":9559,"iiii":9560,"campaigns":9561,"guarantee":9562,"deterministic":9563,"touched":9564,"robomaker":9565,"nfsproc3":9566,"debounced":9567,"72036":9568,"mentioned":9569,"9223372036":9570,"6usize":9571,"654":9572,"bx":9573,"gent":9574,"gover":9575,"hm":9576,"rns":9577,"v2017":9578,"ym":9579,"ymd":9580,"eres":9581,"asian":9582,"ctures":9583,"apache":9584,"adam":9585,"usec":9586,"mable":9587,"disposition":9588,"tplace":9589,"tprint":9590,"dated":9591,"vartime":9592,"sentry":9593,"memcpy":9594,"gency":9595,"crlf":9596,"bitwise":9597,"subfield":9598,"rtl":9599,"color8":9600,"stylesheets":9601,"footprint":9602,"supertype":9603,"linker":9604,"elded":9605,"dingbat":9606,"goaway":9607,"cmpsw":9608,"cmpsb":9609,"suric":9610,"securityhub":9611,"texel":9612,"handshakes":9613,"randomnumber":9614,"legend":9615,"s3client":9616,"uploading":9617,"sampler1d":9618,"datagram1":9619,"yielded":9620,"happened":9621,"eeee":9622,"float32type":9623,"navigate":9624,"celebrities":9625,"predictions":9626,"leaked":9627,"20150416":9628,"xxxxxxxxxxxxxxxx":9629,"extras":9630,"marketplace":9631,"eliminate":9632,"9223372036854":9633,"301":9634,"7u8":9635,"bb0":9636,"h5":9637,"h7":9638,"rk":9639,"sfixed64":9640,"stm":9641,"mega":9642,"pedia":9643,"is64":9644,"vel":9645,"prov":9646,"somewhere":9647,"0041":9648,"mssp":9649,"sho":9650,"obarray":9651,"configpaths":9652,"compla":9653,"time1":9654,"169":9655,"hashed":9656,"areas":9657,"basename":9658,"fts":9659,"temper":9660,"tempid":9661,"odcid":9662,"ords":9663,"000b":9664,"amazonclouddirectory":9665,"elf64":9666,"monito":9667,"808":9668,"notes":9669,"receives":9670,"reachability":9671,"carrier":9672,"cbc":9673,"transfers":9674,"brokers":9675,"factorial":9676,"xmm3":9677,"0810":9678,"selves":9679,"situation":9680,"bundles":9681,"ntlmssp":9682,"u2f":9683,"pagers":9684,"exhausted":9685,"discriminator":9686,"varyings":9687,"resumed":9688,"abcdefghijklmnopqrstuvw":9689,"429496729":9690,"modulo":9691,"1k":9692,"1127":9693,"2147":9694,"blink":9695,"bcst":9696,"cz":9697,"ew":9698,"jni":9699,"k9":9700,"lfs":9701,"nance":9702,"rap":9703,"uard":9704,"wrote":9705,"xt":9706,"debu":9707,"deca":9708,"proven":9709,"ssian":9710,"reguard":9711,"creat":9712,"fe4f":9713,"fixup":9714,"backfill":9715,"minmax":9716,"fron":9717,"store1":9718,"haven":9719,"crates":9720,"ir4":9721,"mymod":9722,"114":9723,"pipelined":9724,"open0":9725,"txn2":9726,"ease":9727,"credit":9728,"bitsfield":9729,"close0":9730,"freedesktop":9731,"rpcclient":9732,"traitm":9733,"clam":9734,"braces":9735,"drag":9736,"4444":9737,"erialize":9738,"xmmm128":9739,"requirement":9740,"0x5432":9741,"confirmations":9742,"20171127":9743,"dwrote":9744,"wireguard":9745,"scasb":9746,"scasw":9747,"equip":9748,"banner":9749,"u4u4":9750,"u10u10":9751,"501ef":9752,"terminology":9753,"framerate":9754,"contrast":9755,"knows":9756,"enrollment":9757,"governance":9758,"monitored":9759,"etag":9760,"hz":9761,"jem":9762,"lru":9763,"mur":9764,"rto":9765,"v2015":9766,"xctx":9767,"zs":9768,"rewind":9769,"orb":9770,"decess":9771,"unorm":9772,"neq":9773,"atest":9774,"idio":9775,"tech":9776,"forall":9777,"upted":9778,"0046":9779,"len255":9780,"64bit":9781,"predecess":9782,"ambig":9783,"varint64":9784,"0x0008":9785,"rayon":9786,"impls":9787,"snappy":9788,"quee":9789,"haha":9790,"gui":9791,"pcwal":9792,"opener":9793,"rotating":9794,"144":9795,"traceable":9796,"kvrpc":9797,"2345":9798,"resolves":9799,"x04":9800,"strides":9801,"interrupted":9802,"corruption":9803,"inferred":9804,"scasd":9805,"vsib64":9806,"bias":9807,"friend":9808,"disassembler":9809,"collision":9810,"modulus":9811,"bm25":9812,"provenance":9813,"len255deserializer":9814,"pcwalton":9815,"kvrpcpb":9816,"767":9817,"cdef":9818,"gd":9819,"gdt":9820,"ntest":9821,"nbits":9822,"ndigits":9823,"overt":9824,"rcode":9825,"rdr":9826,"rsv":9827,"sf":9828,"spark":9829,"xattr":9830,"to64":9831,"unrelated":9832,"mutated":9833,"adc":9834,"ingress":9835,"lim":9836,"isak":9837,"caching":9838,"puts":9839,"nameservers":9840,"dil":9841,"328":9842,"acm":9843,"fee":9844,"evented":9845,"perms":9846,"offscreen":9847,"backlog":9848,"submodule":9849,"subdomains":9850,"gln":9851,"irectional":9852,"replacing":9853,"absent":9854,"2097":9855,"cloexec":9856,"entry2":9857,"heights":9858,"mono":9859,"cpuset":9860,"heading":9861,"although":9862,"xx00":9863,"guardduty":9864,"bb1":9865,"231":9866,"crossing":9867,"cdab":9868,"comparing":9869,"bounce":9870,"nfs3":9871,"sitter":9872,"keepalives":9873,"rounds4":9874,"pruned":9875,"003a":9876,"privileged":9877,"friends":9878,"touches":9879,"immediate32to64":9880,"sleeper":9881,"debugln":9882,"jemalloc":9883,"isakmp":9884,"132":9885,"567":9886,"700":9887,"b11":9888,"dce":9889,"gf":9890,"hue":9891,"ky":9892,"knn":9893,"rh":9894,"tbody":9895,"v2019":9896,"wand":9897,"wks":9898,"xz":9899,"erased":9900,"ank":9901,"chen":9902,"exposed":9903,"getpid":9904,"ldb":9905,"parity":9906,"0040":9907,"taking":9908,"ramp":9909,"clon":9910,"readwrite":9911,"bypassed":9912,"counted":9913,"block2":9914,"oldest":9915,"ipng":9916,"info1":9917,"exps":9918,"168":9919,"hash2":9920,"temppath":9921,"bugs":9922,"0x400000":9923,"wayland":9924,"skips":9925,"fsx":9926,"supply":9927,"successor":9928,"bring":9929,"closest":9930,"spawning":9931,"finishes":9932,"guards":9933,"externs":9934,"costs":9935,"broadcaster":9936,"x09":9937,"mvp":9938,"xmm0":9939,"000000000000000":9940,"kinesisvideo":9941,"overlays":9942,"slowdown":9943,"displacement64":9944,"representative":9945,"tdn":9946,"nrf5":9947,"vsib32":9948,"002a":9949,"translations":9950,"parenthesis":9951,"ascending":9952,"immediate8to64":9953,"oxipng":9954,"witx":9955,"0i64":9956,"024":9957,"2f64":9958,"6d":9959,"8state":9960,"aac":9961,"cinfo":9962,"cds":9963,"dent":9964,"eh":9965,"elect":9966,"nar":9967,"pdb":9968,"t00":9969,"vgic":9970,"in6":9971,"ined":9972,"tol":9973,"animated":9974,"unsorted":9975,"unescape":9976,"exam":9977,"soa":9978,"adic":9979,"izz":9980,"tru":9981,"pats":9982,"outdated":9983,"stateless":9984,"context2d":9985,"anymore":9986,"backlight":9987,"bitrange":9988,"109":9989,"gls":9990,"numbering":9991,"traction":9992,"inserting":9993,"missed":9994,"batch1":9995,"batched":9996,"1113":9997,"partuuid":9998,"commits":9999,"pingreq":10000,"needless":10001,"attache":10002,"bb2":10003,"2840":10004,"4467":10005,"dynamically":10006,"paginate":10007,"rbx":10008,"http2event":10009,"turbo":10010,"bs8state":10011,"occurs":10012,"decorations":10013,"alternation":10014,"w3c":10015,"fortunes":10016,"weekday":10017,"crypter":10018,"categorize":10019,"uleb128":10020,"witcher":10021,"overture":10022,"2097151":10023,"3rd":10024,"8u8":10025,"dwrite":10026,"g0":10027,"g4":10028,"g8":10029,"gfp":10030,"iro":10031,"minfo":10032,"mill":10033,"nlines":10034,"qps":10035,"zm":10036,"zoo":10037,"█╗":10038,"sea":10039,"enforce":10040,"devi":10041,"coeff":10042,"sode":10043,"idf":10044,"urious":10045,"isatty":10046,"prof":10047,"mpf":10048,"outdent":10049,"tip":10050,"tipb":10051,"acq":10052,"lockfile":10053,"sigmask":10054,"spaced":10055,"opticon":10056,"panopticon":10057,"swizz":10058,"medialive":10059,"supplier":10060,"produced":10061,"datas":10062,"rolled":10063,"807":10064,"got2":10065,"sysroot":10066,"attack":10067,"migrating":10068,"kitchen":10069,"184467":10070,"implementing":10071,"sin6":10072,"opsz":10073,"disassociates":10074,"tabstop":10075,"standby":10076,"offers":10077,"prevents":10078,"000000000000000000000000":10079,"transcribe":10080,"════":10081,"translated":10082,"20120810":10083,"yyy":10084,"────────────────────────":10085,"interpretation":10086,"avx512":10087,"nfsproc4":10088,"polled":10089,"episode":10090,"fringe":10091,"suricata":10092,"decay":10093,"gfp256":10094,"fuid":10095,"lss":10096,"pstate":10097,"rfind":10098,"sage":10099,"tmm":10100,"vargs":10101,"v2016":10102,"xgc":10103,"zx":10104,"unquote":10105,"unfortun":10106,"unrestricted":10107,"tevent":10108,"parking":10109,"refused":10110,"doctype":10111,"die":10112,"matchstmt":10113,"int4":10114,"buffer2":10115,"sudo":10116,"grocer":10117,"numer":10118,"spurious":10119,"variadic":10120,"rowgroup":10121,"0x0001":10122,"hood":10123,"transient":10124,"structmatch":10125,"imagefilter":10126,"childwidget":10127,"tree1":10128,"networking":10129,"datom":10130,"redsh":10131,"sv20160":10132,"304":10133,"freez":10134,"555":10135,"26c":10136,"python3":10137,"delays":10138,"hiber":10139,"444":10140,"circu":10141,"datagram2":10142,"highlighting":10143,"suites":10144,"entered":10145,"5432":10146,"humans":10147,"789":10148,"minibuffer":10149,"immediate8to16":10150,"wikipedia":10151,"bonus":10152,"removal":10153,"minimize":10154,"dangerous":10155,"htmle":10156,"clamped":10157,"501efcdab":10158,"sv20160101":10159,"233":10160,"6u8":10161,"7c":10162,"9c":10163,"bv":10164,"iw":10165,"iec":10166,"kni":10167,"lpad":10168,"north":10169,"pit":10170,"sate":10171,"vmov":10172,"yd":10173,"yarn":10174,"zmq":10175,"reused":10176,"onential":10177,"stfl":10178,"semanu":10179,"ensive":10180,"town":10181,"undeprecate":10182,"errorpb":10183,"sosemanu":10184,"netes":10185,"issu":10186,"somehow":10187,"bez":10188,"sigma":10189,"eving":10190,"parse2":10191,"rency":10192,"neditor":10193,"actix":10194,"exponential":10195,"tarpc":10196,"bernetes":10197,"dbname":10198,"array2":10199,"runst":10200,"libname":10201,"20px":10202,"hawks":10203,"concaten":10204,"splitting":10205,"141":10206,"executors":10207,"flushed":10208,"fetcher":10209,"devs":10210,"dicts":10211,"inherits":10212,"interested":10213,"flexbuffer":10214,"mismatched":10215,"archives":10216,"parens":10217,"rasterized":10218,"transparency":10219,"determined":10220,"immediate8to32":10221,"coerce":10222,"pieces":10223,"kubernetes":10224,"tutorials":10225,"73709":10226,"44073709":10227,"prerelease":10228,"18446744073709":10229,"sosemanuk":10230,"0d":10231,"csp":10232,"gcs":10233,"hms":10234,"k8":10235,"lut":10236,"mu":10237,"ple":10238,"slen":10239,"uption":10240,"vring":10241,"yank":10242,"atan":10243,"rock":10244,"cedil":10245,"unlocked":10246,"charg":10247,"conv2":10248,"rusty":10249,"andb":10250,"0019":10251,"0023":10252,"wraps":10253,"umask":10254,"pable":10255,"paired":10256,"oking":10257,"intspec":10258,"arg8":10259,"line3":10260,"says":10261,"evset":10262,"interp":10263,"combo":10264,"ip4":10265,"group1":10266,"dir2":10267,"schema1":10268,"00008080h":10269,"ampl":10270,"srcdir":10271,"117":10272,"v2job":10273,"routers":10274,"8060":10275,"149":10276,"cmpl":10277,"registrar":10278,"888":10279,"titandb":10280,"evaluations":10281,"suspect":10282,"keeping":10283,"carry4":10284,"lintsrc":10285,"0000000000008080h":10286,"necessarily":10287,"radio":10288,"interruption":10289,"crawlers":10290,"persisted":10291,"80000000000000":10292,"obstacles":10293,"coerc":10294,"9223372036854775":10295,"provoking":10296,"nrf52840":10297,"hibern":10298,"cedilla":10299,"8060h":10300,"1st":10301,"4c":10302,"clob":10303,"dfs":10304,"dpr":10305,"eaddr":10306,"h8":10307,"hind":10308,"hbox":10309,"haps":10310,"kk":10311,"k11":10312,"mr":10313,"m32":10314,"otype":10315,"pkey":10316,"sstr":10317,"snow":10318,"targ":10319,"tdeps":10320,"v20161128":10321,"zc":10322,"znear":10323,"zfar":10324,"rethrow":10325,"alized":10326,"dequeue":10327,"arches":10328,"robin":10329,"cose":10330,"coop":10331,"apo":10332,"firec":10333,"trad":10334,"icating":10335,"dos":10336,"favi":10337,"behind":10338,"wave":10339,"heur":10340,"time0":10341,"perhaps":10342,"0x0010":10343,"0x0004":10344,"0x000a":10345,"baud":10346,"hash1":10347,"dbs":10348,"hope":10349,"inlines":10350,"deduce":10351,"condvar":10352,"portion":10353,"takeable":10354,"fsm":10355,"uds":10356,"programming":10357,"cmpsq":10358,"helpful":10359,"6767":10360,"flushing":10361,"accepting":10362,"driven":10363,"trailers":10364,"1234567":10365,"algorithms":10366,"clicked":10367,"rigid":10368,"retained":10369,"treats":10370,"retrieving":10371,"stosd":10372,"eye":10373,"practice":10374,"eturns":10375,"examine":10376,"htmlelement":10377,"bezier":10378,"coercion":10379,"clobber":10380,"firecracker":10381,"232":10382,"3i":10383,"7usize":10384,"eis":10385,"fu32":10386,"hmap":10387,"ij":10388,"jit":10389,"kn":10390,"mvec":10391,"osc":10392,"rf":10393,"vnet":10394,"wss":10395,"ream":10396,"onto":10397,"atter":10398,"tocode":10399,"unblock":10400,"cool":10401,"serv":10402,"chance":10403,"idat":10404,"consec":10405,"forloop":10406,"upon":10407,"0021":10408,"004e":10409,"shop":10410,"shallow":10411,"ril":10412,"32f":10413,"cls":10414,"acks":10415,"wav":10416,"acct":10417,"statvfs":10418,"evp":10419,"sentries":10420,"bitor":10421,"subclass":10422,"mainloop":10423,"fffd":10424,"hair":10425,"facets":10426,"panner":10427,"latitude":10428,"amzn":10429,"casts":10430,"instr2":10431,"bar1":10432,"timeouts":10433,"swit":10434,"autoload":10435,"importing":10436,"repeating":10437,"maskmov":10438,"planes":10439,"sha2":10440,"allocs":10441,"descent":10442,"traitf":10443,"brown":10444,"interesting":10445,"x0c":10446,"elections":10447,"years":10448,"aessa":10449,"cribes":10450,"representing":10451,"fourth":10452,"copies":10453,"eucl":10454,"belongs":10455,"highlighted":10456,"propagated":10457,"huge":10458,"mounts":10459,"linters":10460,"v20141113":10461,"swizzle":10462,"────────────────────────────":10463,"circuit":10464,"1844674407370955":10465,"consecut":10466,"aessafe":10467,"0px":10468,"0101":10469,"8a":10470,"eted":10471,"eigh":10472,"g7":10473,"iy":10474,"jint":10475,"mpty":10476,"pck":10477,"uf":10478,"vps":10479,"wc":10480,"went":10481,"zf":10482,"rejection":10483,"reprocessing":10484,"invol":10485,"searches":10486,"erring":10487,"arri":10488,"tock":10489,"lem":10490,"roto":10491,"untrusted":10492,"coo":10493,"socat":10494,"ada":10495,"shdr":10496,"shorth":10497,"verts":10498,"icmp":10499,"writeable":10500,"keyed":10501,"keyframe":10502,"msg2":10503,"locking":10504,"iterable":10505,"precomputed":10506,"llite":10507,"spinner":10508,"rawfd":10509,"immer":10510,"workaround":10511,"pointing":10512,"pictures":10513,"ably":10514,"graphy":10515,"transform3d":10516,"label2":10517,"pkcs":10518,"printf":10519,"ularies":10520,"got1":10521,"immediate2":10522,"179":10523,"partitioner":10524,"assigns":10525,"consumption":10526,"concurrently":10527,"vcpus":10528,"carry0":10529,"carry6":10530,"carry7":10531,"carry8":10532,"carry9":10533,"int8array":10534,"0b0000":10535,"internally":10536,"horn":10537,"compliant":10538,"turns":10539,"connectors":10540,"gaussian":10541,"80808080":10542,"suggesters":10543,"landmark":10544,"copiable":10545,"iously":10546,"scasq":10547,"trivially":10548,"communication":10549,"treated":10550,"easier":10551,"accuracy":10552,"vocabularies":10553,"announced":10554,"fwmark":10555,"satellite":10556,"tradition":10557,"favicon":10558,"consecutive":10559,"shorthand":10560,"immersive":10561,"1l":10562,"1f3":10563,"9b":10564,"dpi":10565,"eba":10566,"h6":10567,"iet":10568,"lk":10569,"mnt":10570,"sname":10571,"s10":10572,"tend":10573,"inprefix":10574,"ena":10575,"alist":10576,"almost":10577,"utter":10578,"debt":10579,"unannotated":10580,"conv1":10581,"conv4":10582,"conv3":10583,"0017":10584,"tact":10585,"faux":10586,"dirent":10587,"divid":10588,"fov":10589,"keygen":10590,"int2":10591,"outu":10592,"argc":10593,"647":10594,"sigint":10595,"signum":10596,"istics":10597,"commut":10598,"appmesh":10599,"logo":10600,"logins":10601,"subprocess":10602,"schema2":10603,"primes":10604,"tsx":10605,"imagebuilder":10606,"renderbuffers":10607,"decoders":10608,"000f":10609,"afterwards":10610,"movsd":10611,"exits":10612,"998":10613,"smallvec":10614,"seqnum":10615,"reaching":10616,"callable":10617,"alpha8":10618,"rgb8":10619,"426c":10620,"forwarding":10621,"cp2":10622,"quickly":10623,"brack":10624,"int16array":10625,"prefetch":10626,"staged":10627,"issued":10628,"hystart":10629,"trimed":10630,"mips":10631,"intents":10632,"parked":10633,"administrators":10634,"0o100":10635,"squared":10636,"123456789abcde":10637,"conv5":10638,"bgr32":10639,"concept":10640,"ellipsis":10641,"salsa20":10642,"temperature":10643,"2147483":10644,"ietf":10645,"023":10646,"5f64":10647,"697":10648,"cud":10649,"cgroups":10650,"c18":10651,"f14":10652,"pfa":10653,"rwnd":10654,"sad":10655,"u24":10656,"v201807":10657,"animal":10658,"unreach":10659,"unlikely":10660,"ctest":10661,"lol":10662,"fib":10663,"iden":10664,"is2d":10665,"edb":10666,"caught":10667,"someone":10668,"msg1":10669,"6466":10670,"expectation":10671,"http11":10672,"ip2":10673,"ip16":10674,"lly":10675,"appli":10676,"whence":10677,"offset64":10678,"0x0014":10679,"bitfields":10680,"workdocs":10681,"prikey":10682,"bases":10683,"ciate":10684,"eph":10685,"optval":10686,"dylib":10687,"typically":10688,"packer":10689,"thread1":10690,"photon":10691,"aaaaa":10692,"decentr":10693,"movsb":10694,"replaces":10695,"tails":10696,"134":10697,"sysctl":10698,"holds":10699,"fetches":10700,"reven":10701,"5555":10702,"tftp":10703,"folds":10704,"777":10705,"factur":10706,"tuned":10707,"dotdir":10708,"enosys":10709,"machines":10710,"liocb":10711,"purposes":10712,"mozjpeg":10713,"whoami":10714,"undos":10715,"recoverable":10716,"irqs":10717,"irqchip":10718,"experiments":10719,"inet6":10720,"injected":10721,"principals":10722,"20141006":10723,"paginators":10724,"excessive":10725,"manufactur":10726,"assuming":10727,"tolerance":10728,"frontier":10729,"attachee":10730,"charging":10731,"rotozoom":10732,"traditional":10733,"commutative":10734,"v20180706":10735,"decentralized":10736,"100000000":10737,"264":10738,"212":10739,"5d":10740,"h9":10741,"imaz":10742,"iops":10743,"l4":10744,"ris":10745,"son":10746,"slog":10747,"sory":10748,"s11":10749,"trent":10750,"vdq":10751,"youtu":10752,"zext":10753,"inary":10754,"enol":10755,"enabling":10756,"dealloc":10757,"memo":10758,"resum":10759,"exposes":10760,"ulsory":10761,"isy":10762,"forced":10763,"upgr":10764,"scatter":10765,"icious":10766,"matchguide":10767,"esuc":10768,"heav":10769,"jsmanaged":10770,"interop":10771,"interact":10772,"compulsory":10773,"checksums":10774,"hoist":10775,"account2":10776,"sendmsg":10777,"snorm":10778,"displays":10779,"ideas":10780,"119":10781,"instr1":10782,"movsw":10783,"overall":10784,"terminating":10785,"rates":10786,"unions":10787,"carol":10788,"suffixes":10789,"csr":10790,"covers":10791,"flexmatchguide":10792,"malicious":10793,"monitors":10794,"cga":10795,"slashes":10796,"corners":10797,"fortuna":10798,"sealed":10799,"d3now":10800,"8000000000000000h":10801,"upserts":10802,"dropo":10803,"weapons":10804,"assumption":10805,"lodsb":10806,"0123456789abcdef":10807,"数据库":10808,"manipulation":10809,"retransmits":10810,"unfortunately":10811,"hibernate":10812,"heuristic":10813,"bracketed":10814,"cuda":10815,"revenue":10816,"manufacturer":10817,"imazen":10818,"youtube":10819,"esuccess":10820,"heavy":10821,"1f4":10822,"8c":10823,"eol":10824,"fu64":10825,"gree":10826,"hence":10827,"ience":10828,"i24":10829,"l0":10830,"lsn":10831,"pv6":10832,"rkey":10833,"rmem":10834,"rpad":10835,"tas":10836,"tic":10837,"vn":10838,"viz":10839,"rebalance":10840,"invisible":10841,"inequality":10842,"ati":10843,"respect":10844,"topt":10845,"copr":10846,"looper":10847,"enta":10848,"ty1":10849,"getsockopt":10850,"sometimes":10851,"htt":10852,"outsw":10853,"outsb":10854,"fers":10855,"esp":10856,"mtx":10857,"described":10858,"time2":10859,"curly":10860,"explode":10861,"iovs":10862,"grind":10863,"dirname":10864,"0x0016":10865,"0x0012":10866,"maxim":10867,"cflags":10868,"speculated":10869,"10h":10870,"u64x2":10871,"0x7fff":10872,"winapi":10873,"00008000h":10874,"fffe":10875,"colorless":10876,"changeset":10877,"vail":10878,"pancurses":10879,"websocat":10880,"prk":10881,"peeked":10882,"10010":10883,"page1":10884,"240":10885,"extendee":10886,"pops":10887,"signalfd":10888,"begins":10889,"transferred":10890,"watching":10891,"negation":10892,"jelly":10893,"publishes":10894,"caption":10895,"standing":10896,"ipv4packet":10897,"promises":10898,"processors":10899,"analyzed":10900,"percentages":10901,"bands":10902,"alternates":10903,"exclusion":10904,"gsr":10905,"inheriting":10906,"darling":10907,"reuseaddr":10908,"lookaheads":10909,"sprites":10910,"furiously":10911,"lodsw":10912,"entrance":10913,"biography":10914,"coalesce":10915,"jellyfish":10916,"4i":10917,"667":10918,"9abc":10919,"awe":10920,"dll":10921,"eys":10922,"flock":10923,"fu16":10924,"g6":10925,"ham":10926,"huff":10927,"ipt":10928,"iable":10929,"jar":10930,"jecx":10931,"m16":10932,"oh":10933,"pnt":10934,"rn":10935,"rejust":10936,"insw":10937,"took":10938,"unid":10939,"lda":10940,"cab":10941,"0048":10942,"string16":10943,"shmem":10944,"equation":10945,"bell":10946,"intset":10947,"outsd":10948,"endmacro":10949,"sigterm":10950,"waits":10951,"spi":10952,"sphere":10953,"output2":10954,"0x0028":10955,"0x001e":10956,"imul":10957,"stoy":10958,"0x426c":10959,"child1":10960,"crate1":10961,"miscell":10962,"srcset":10963,"existed":10964,"ordinary":10965,"polls":10966,"snapped":10967,"thread2":10968,"engine3":10969,"247":10970,"round1":10971,"pooling":10972,"stamper":10973,"vectorized":10974,"tailhook":10975,"frontends":10976,"counter2":10977,"beforehand":10978,"runtimes":10979,"997":10980,"layered":10981,"solver":10982,"insb":10983,"editing":10984,"normals":10985,"multicol":10986,"lights":10987,"2001":10988,"bytecodes":10989,"flushes":10990,"xx01":10991,"ffffff":10992,"distributed":10993,"histories":10994,"increasing":10995,"k1z":10996,"axe":10997,"stmtstart":10998,"tickeys":10999,"0000000000008000h":11000,"switching":11001,"20161006":11002,"households":11003,"bookmark":11004,"800dh":11005,"002c":11006,"stosb":11007,"stosw":11008,"altered":11009,"umbent":11010,"fqdn":11011,"magenta":11012,"lodsd":11013,"ebadf":11014,"alphas":11015,"propagation":11016,"u5u5":11017,"occluder":11018,"mechanis":11019,"80000000h":11020,"athena":11021,"equipment":11022,"tolstoy":11023,"dropout":11024,"iptables":11025,"jecxz":11026,"miscellaneous":11027,"211":11028,"dz":11029,"escri":11030,"gmail":11031,"jum":11032,"nyi":11033,"qos":11034,"ral":11035,"rpush":11036,"slo":11037,"scaf":11038,"squee":11039,"tn":11040,"x10":11041,"yat":11042,"za":11043,"reap":11044,"redi":11045,"rely":11046,"insd":11047,"attemp":11048,"allo":11049,"alsa":11050,"asd":11051,"lose":11052,"enty":11053,"lios":11054,"liest":11055,"str2":11056,"strtab":11057,"noisy":11058,"cairo":11059,"set2":11060,"32767":11061,"filemap":11062,"disks":11063,"index1":11064,"imprint":11065,"spir":11066,"docgen":11067,"signs":11068,"0x0020":11069,"0x0018":11070,"0x000c":11071,"dbl":11072,"10usize":11073,"glong":11074,"grabb":11075,"limiting":11076,"mangled":11077,"fractional":11078,"206":11079,"crate2":11080,"fragmented":11081,"batch2":11082,"253":11083,"downloaded":11084,"initially":11085,"importance":11086,"round2":11087,"prints":11088,"breaker":11089,"sha224":11090,"307":11091,"freelist":11092,"unexpectedly":11093,"sorting":11094,"deltas":11095,"acceptable":11096,"textract":11097,"leaf1":11098,"earliest":11099,"36usize":11100,"carry1":11101,"carry2":11102,"carry3":11103,"carry5":11104,"git2":11105,"circulate":11106,"appended":11107,"centered":11108,"gaps":11109,"portfolios":11110,"bson":11111,"99999999":11112,"establishes":11113,"0f000h":11114,"00000000000000000000000000000000":11115,"scenarios":11116,"enotty":11117,"printable":11118,"robots":11119,"coppb":11120,"timings":11121,"sigusr1":11122,"convenience":11123,"idiom":11124,"ambiguous":11125,"resuming":11126,"ao":11127,"brot":11128,"dcomplex":11129,"eid":11130,"ether":11131,"fperm":11132,"hh":11133,"ibus":11134,"pgid":11135,"ration":11136,"scomplex":11137,"u12":11138,"vw":11139,"️this":11140,"remember":11141,"station":11142,"stress":11143,"algo":11144,"anx":11145,"ctime":11146,"sout":11147,"sociate":11148,"conjun":11149,"consolid":11150,"trial":11151,"ups":11152,"movie":11153,"rable":11154,"oflags":11155,"matchable":11156,"keylog":11157,"320":11158,"beef":11159,"dissociate":11160,"interlea":11161,"waitpid":11162,"genre":11163,"docstring":11164,"ioapic":11165,"modd":11166,"0x0030":11167,"commer":11168,"scalability":11169,"transf":11170,"address2":11171,"orderkey":11172,"20140":11173,"252":11174,"linkage":11175,"float16":11176,"many0":11177,"rustbox":11178,"overload":11179,"tmp2":11180,"255u8":11181,"cancels":11182,"signaled":11183,"immediate1":11184,"170":11185,"blv":11186,"flatbuffer":11187,"distribute":11188,"sites":11189,"blackbox":11190,"avs":11191,"365":11192,"initiates":11193,"lossless":11194,"enoent":11195,"rejects":11196,"acceleration":11197,"wdq":11198,"rectangles":11199,"embedding":11200,"strictly":11201,"mkf":11202,"multisig":11203,"route53resolver":11204,"histograms":11205,"releases":11206,"orthog":11207,"synthesize":11208,"0117":11209,"neighboring":11210,"ctap1status":11211,"rangebylex":11212,"disassemble":11213,"telemetry":11214,"techn":11215,"issuer":11216,"divider":11217,"hoisted":11218,"attempted":11219,"brotli":11220,"interleaved":11221,"20140328":11222,"0i32":11223,"0125":11224,"5b":11225,"6b":11226,"cmake":11227,"ciovec":11228,"eagain":11229,"fstat":11230,"f11":11231,"gss":11232,"hv":11233,"ico":11234,"jos":11235,"kq":11236,"mn":11237,"mst":11238,"nread":11239,"oha":11240,"q1":11241,"smp":11242,"uart":11243,"zscore":11244,"zily":11245,"ａｂ":11246,"restor":11247,"revert":11248,"seeded":11249,"defa":11250,"arity":11251,"resizable":11252,"ana":11253,"chg":11254,"apk":11255,"ulted":11256,"valgrind":11257,"consu":11258,"conjoining":11259,"cksum":11260,"readline":11261,"indicating":11262,"msghdr":11263,"643":11264,"ev1":11265,"fe0f":11266,"invalidated":11267,"awaiting":11268,"appsync":11269,"impact":11270,"spine":11271,"versionize":11272,"expensive":11273,"operate":11274,"cflag":11275,"121":11276,"vmx":11277,"child2":11278,"formals":11279,"nonary":11280,"downsample":11281,"customers":11282,"searchable":11283,"suppkey":11284,"supplement":11285,"automat":11286,"154":11287,"datapo":11288,"sentence":11289,"overwritten":11290,"chains":11291,"correspond":11292,"133":11293,"drawtarget":11294,"b0b0":11295,"button2":11296,"50c18":11297,"mm0":11298,"pbkdf":11299,"proptest":11300,"acceptance":11301,"tls1":11302,"nearly":11303,"cryptocurrency":11304,"folders":11305,"overflowing":11306,"finalized":11307,"r2l":11308,"ikev2":11309,"punctu":11310,"transitive":11311,"awsc":11312,"receivable":11313,"comparator1":11314,"oidc":11315,"accesses":11316,"vorbis":11317,"reductions":11318,"piece":11319,"184467440737095516":11320,"josé":11321,"consumable":11322,"1i32":11323,"330":11324,"4a":11325,"6a":11326,"8b":11327,"a55":11328,"ese":11329,"efi":11330,"e00":11331,"ehost":11332,"fits":11333,"llen":11334,"lboolean":11335,"ngroups":11336,"nak":11337,"opus":11338,"p4":11339,"perror":11340,"tvec":11341,"w9":11342,"y3":11343,"yw":11344,"repair":11345,"stere":11346,"orange":11347,"orna":11348,"ley":11349,"asl":11350,"coefficient":11351,"mp3":11352,"upd":11353,"lazily":11354,"scc":11355,"of10":11356,"fabr":11357,"beam":11358,"wakers":11359,"col1":11360,"buffer1":11361,"ured":11362,"u8x":11363,"wheres":11364,"emulate":11365,"variations":11366,"street":11367,"0x0026":11368,"0x000e":11369,"0x001c":11370,"register32":11371,"fran":11372,"worklink":11373,"libr":11374,"fract":11375,"fraction":11376,"localization":11377,"openssh":11378,"lancz":11379,"mac2":11380,"shortcodes":11381,"199":11382,"pixmap":11383,"associate2":11384,"redact":11385,"vertex2":11386,"pinned":11387,"taxo":11388,"pixelformat":11389,"rm8":11390,"router1":11391,"progressive":11392,"characteristics":11393,"fallthrough":11394,"offsets2d":11395,"cryptographic":11396,"pseudos":11397,"lineno":11398,"midr":11399,"drivers":11400,"powf":11401,"cleaning":11402,"x0b":11403,"rooter":11404,"behaviors":11405,"hyperledger":11406,"multisamp":11407,"jailer":11408,"sha1hmac":11409,"hierarchical":11410,"vtl":11411,"hidpi":11412,"asynchronously":11413,"substitution":11414,"metering":11415,"gpio":11416,"rc4sha1hmac":11417,"thelen2":11418,"vlq":11419,"f7f7f7f7":11420,"complaints":11421,"raph":11422,"orbclient":11423,"deviation":11424,"snowball":11425,"squeeze":11426,"conjunction":11427,"transferring":11428,"fabric":11429,"lanczos":11430,"277":11431,"5c":11432,"cpython":11433,"dal":11434,"dither":11435,"ecr":11436,"eintr":11437,"fli":11438,"hq":11439,"jm":11440,"narrow":11441,"oy":11442,"rnn":11443,"x9":11444,"yok":11445,"reuser":11446,"redisplay":11447,"reseed":11448,"alanx":11449,"roof":11450,"roids":11451,"untar":11452,"unscaled":11453,"apparent":11454,"south":11455,"advice":11456,"lix":11457,"ty2":11458,"result2":11459,"cabc":11460,"bout":11461,"fox":11462,"32768":11463,"bear":11464,"intended":11465,"nonempty":11466,"helix":11467,"feat":11468,"eventtarget":11469,"block16":11470,"memdefault":11471,"memalways":11472,"memminimum":11473,"applayer":11474,"emer":11475,"region1":11476,"modm":11477,"bindack":11478,"contentful":11479,"trans2":11480,"traces":11481,"foo3":11482,"phalanx":11483,"longitude":11484,"loopback":11485,"operand1":11486,"ccs":11487,"labeling":11488,"806":11489,"extendable":11490,"1235":11491,"cloudtrail":11492,"totals":11493,"attaches":11494,"phases":11495,"digester":11496,"centroids":11497,"cbb":11498,"incumbent":11499,"s3bucket":11500,"gcd":11501,"flexbox":11502,"percents":11503,"initiation":11504,"performing":11505,"270":11506,"ructable":11507,"xmm6":11508,"00000000000000":11509,"201507":11510,"compressor":11511,"65538":11512,"occas":11513,"sshfp":11514,"inheritance":11515,"jkl":11516,"quadrat":11517,"incrby":11518,"raised":11519,"utf16code":11520,"adjacent":11521,"dppx":11522,"v20170117":11523,"grocery":11524,"cmplts":11525,"awesome":11526,"huffman":11527,"yatp":11528,"orthogonal":11529,"ohama":11530,"automaton":11531,"dalek":11532,"yokohama":11533,"210":11534,"abe":11535,"bic":11536,"b64":11537,"cba":11538,"dqu":11539,"dtypes":11540,"eves":11541,"gmt":11542,"jan":11543,"klapic":11544,"ltrim":11545,"lcov":11546,"mcs":11547,"nm":11548,"pli":11549,"pants":11550,"pgrp":11551,"qwer":11552,"rlim":11553,"targs":11554,"wtr":11555,"wip":11556,"xoffset":11557,"xom":11558,"erases":11559,"recon":11560,"reloader":11561,"inbox":11562,"enclosing":11563,"alrm":11564,"utmpx":11565,"respective":11566,"unhealthy":11567,"uring":11568,"newvalue":11569,"ames":11570,"trunk":11571,"theta":11572,"kevin":11573,"lack":11574,"tage":11575,"caused":11576,"valids":11577,"behave":11578,"intptr":11579,"outstanding":11580,"644":11581,"tips":11582,"esdi":11583,"esrdi":11584,"interlacing":11585,"build001":11586,"gence":11587,"stream2":11588,"array1":11589,"antial":11590,"accessing":11591,"color1":11592,"color2":11593,"208":11594,"2010":11595,"0x11u8":11596,"1100":11597,"000z":11598,"idxs":11599,"illator":11600,"elb":11601,"domain00":11602,"synack":11603,"produces":11604,"rg8":11605,"package1":11606,"unibyte":11607,"sysconfig":11608,"887":11609,"receivers":11610,"holding":11611,"transactions00":11612,"router2":11613,"accident":11614,"converting":11615,"foldable":11616,"265":11617,"quickfix":11618,"emitted":11619,"fc1":11620,"███╗":11621,"dfl":11622,"bounces":11623,"565":11624,"excluding":11625,"merkledb":11626,"webhooks":11627,"cropped":11628,"ror1":11629,"customizations":11630,"lmdb":11631,"bgr24":11632,"suitable":11633,"invoking":11634,"handed":11635,"nump":11636,"achie":11637,"4294967295":11638,"v20190125":11639,"oscillator":11640,"tendril":11641,"esedi":11642,"bicubic":11643,"213":11644,"810":11645,"b12":11646,"bmi":11647,"eoverflow":11648,"fred":11649,"f17":11650,"gimpl":11651,"kmod":11652,"khr":11653,"nid":11654,"oi":11655,"plate":11656,"pga":11657,"rit":11658,"udata":11659,"v7":11660,"éo":11661,"reli":11662,"repartition":11663,"reates":11664,"retraction":11665,"infile":11666,"atten":11667,"sean":11668,"roff":11669,"ingredi":11670,"lir":11671,"tear":11672,"valued":11673,"name1":11674,"0050":11675,"0058":11676,"size1":11677,"intsrc":11678,"regression":11679,"arg9":11680,"filesize":11681,"usual":11682,"iterates":11683,"hear":11684,"stdweb":11685,"contextual":11686,"applic":11687,"implies":11688,"baker":11689,"aaguid":11690,"glx":11691,"cant":11692,"dedu":11693,"ptype":11694,"prio":11695,"color32":11696,"libpng":11697,"ts1":11698,"nonnull":11699,"nonterminal":11700,"superscript":11701,"partkey":11702,"smw":11703,"downstreams":11704,"badge":11705,"rustproto":11706,"luma":11707,"drops":11708,"movsq":11709,"804":11710,"123e":11711,"modelview":11712,"twenty":11713,"untagged":11714,"172":11715,"fetching":11716,"235":11717,"histor":11718,"installation":11719,"detecting":11720,"nativetls":11721,"uploader":11722,"microtask":11723,"48000":11724,"crossbeam":11725,"dotted":11726,"deregistered":11727,"aesni":11728,"incorrectly":11729,"quotation":11730,"refreshes":11731,"hardlink":11732,"001a":11733,"multiplexes":11734,"cognitive":11735,"u8u8u8":11736,"negotiating":11737,"corresponds":11738,"synthetic":11739,"navigator":11740,"federated":11741,"hyphenated":11742,"employ":11743,"equiv":11744,"discriminant":11745,"grandparent":11746,"nationkey":11747,"claims":11748,"20180704142":11749,"abcdefghijklmnopqrstuvwxyz":11750,"greek":11751,"pbkdf2":11752,"franken":11753,"20150709":11754,"quadratic":11755,"ingredient":11756,"5s":11757,"523":11758,"7d":11759,"864":11760,"9e":11761,"9u8":11762,"bsize":11763,"bv2":11764,"cde":11765,"eloop":11766,"f26":11767,"fading":11768,"hd":11769,"kend":11770,"lfloat":11771,"opoint":11772,"tdx":11773,"winfo":11774,"xp":11775,"yoffset":11776,"yep":11777,"reno":11778,"revie":11779,"inverti":11780,"sth":11781,"ene":11782,"utions":11783,"destructure":11784,"ancy":11785,"unwatch":11786,"cts":11787,"thir":11788,"pets":11789,"lide":11790,"strwidth":11791,"newname":11792,"newdata":11793,"trick":11794,"setcc":11795,"ssn2":11796,"fromcode":11797,"often":11798,"painter":11799,"ople":11800,"readlink":11801,"outposts":11802,"msgtype":11803,"646667":11804,"fmtstr":11805,"preorder":11806,"byteorder":11807,"alltypes":11808,"httpbis":11809,"quite":11810,"pushing":11811,"mod1":11812,"0x002e":11813,"subtypes":11814,"subdivision":11815,"aa08":11816,"dedent":11817,"storedi":11818,"addr2":11819,"base16":11820,"filt":11821,"texture2":11822,"iring":11823,"251":11824,"graphviz":11825,"pipes":11826,"smm":11827,"fdflags":11828,"customized":11829,"enclave":11830,"ivan":11831,"networkmanager":11832,"luv":11833,"ests":11834,"153":11835,"cachedi":11836,"toplevel":11837,"scanning":11838,"foreign":11839,"marking":11840,"reporting":11841,"voluntar":11842,"rgba32":11843,"integrate":11844,"28usize":11845,"retriever":11846,"drawn":11847,"ourselves":11848,"0921":11849,"accumulated":11850,"0616":11851,"f0f0":11852,"draining":11853,"fingerprints":11854,"compacted":11855,"escaper":11856,"20131101":11857,"route53domains":11858,"suggestions":11859,"weeks":11860,"occurrence":11861,"flash":11862,"errored":11863,"disp8":11864,"thetype2":11865,"acknowledgement":11866,"configurable":11867,"cpl0":11868,"influenced":11869,"lodsq":11870,"strikeout":11871,"decide":11872,"switches":11873,"httparse":11874,"spirv":11875,"18446744073709551615":11876,"naked":11877,"ornament":11878,"reconci":11879,"pga3d":11880,"bakery":11881,"kendra":11882,"reviewable":11883,"invertible":11884,"voluntary":11885,"5usize":11886,"6f":11887,"8h":11888,"aq":11889,"cult":11890,"gsw":11891,"hnt":11892,"irable":11893,"jup":11894,"lchar":11895,"mmsg":11896,"n3":11897,"pen":11898,"presh":11899,"q0":11900,"qe":11901,"qldb":11902,"rdir":11903,"uish":11904,"vage":11905,"wk":11906,"wbuf":11907,"x12":11908,"x80":11909,"zrev":11910,"zrangebyscore":11911,"recreate":11912,"seem":11913,"resizer":11914,"untouched":11915,"exis":11916,"apack":11917,"sot":11918,"inguish":11919,"cased":11920,"opport":11921,"msgid":11922,"tiled":11923,"obli":11924,"urect":11925,"predefined":11926,"internet":11927,"indeed":11928,"permute":11929,"appconfig":11930,"mly":11931,"1632":11932,"loglevel":11933,"baba":11934,"allowlisted":11935,"immigration":11936,"subdomain":11937,"osmesa":11938,"omb":11939,"win32":11940,"handle2":11941,"orderings":11942,"0x200":11943,"netaddr":11944,"nsw":11945,"globbed":11946,"joins":11947,"opens":11948,"mediapack":11949,"operand2":11950,"replacements":11951,"135":11952,"143":11953,"148":11954,"cmpfunc":11955,"allocating":11956,"placed":11957,"flushable":11958,"owns":11959,"owning":11960,"leaders":11961,"suffixed":11962,"installing":11963,"slept":11964,"distinguish":11965,"salvage":11966,"sz1":11967,"datoms02":11968,"mqd":11969,"354":11970,"comparer":11971,"08x":11972,"materials":11973,"behaviour":11974,"001b":11975,"sbc":11976,"quirky":11977,"bundled":11978,"recovered":11979,"affecting":11980,"subroutines":11981,"west2":11982,"saturated":11983,"colored":11984,"fewer":11985,"comparator2":11986,"stosq":11987,"probing":11988,"alpine":11989,"configuring":11990,"influences":11991,"meaningful":11992,"gathering":11993,"concatenate":11994,"utterances":11995,"upgrading":11996,"emergency":11997,"occasionally":11998,"antiali":11999,"numpad":12000,"mediapackage":12001,"1px":12002,"bing":12003,"cra":12004,"dmin":12005,"d0e":12006,"ein":12007,"estr":12008,"epro":12009,"frees":12010,"njob":12011,"qt5":12012,"s16":12013,"s13":12014,"tro":12015,"vsync":12016,"xtru":12017,"yter":12018,"zomb":12019,"rewrap":12020,"reparent":12021,"restores":12022,"inot":12023,"stam":12024,"stay":12025,"alc":12026,"alac":12027,"errone":12028,"asdf":12029,"unlike":12030,"ths":12031,"people":12032,"isa":12033,"cone":12034,"resp1":12035,"resp2":12036,"ldo":12037,"pard":12038,"igo":12039,"vised":12040,"0015":12041,"tains":12042,"from2":12043,"fac":12044,"behalf":12045,"tive":12046,"buffering":12047,"evfilt":12048,"timestam":12049,"expectations":12050,"senger":12051,"gensk":12052,"output1":12053,"16f":12054,"backtick":12055,"0x0024":12056,"0x0036":12057,"0x0005":12058,"0x003c":12059,"allowing":12060,"subs":12061,"1200":12062,"sendable":12063,"transcoder":12064,"impler":12065,"executes":12066,"values00":12067,"libloading":12068,"voter":12069,"ideally":12070,"clearing":12071,"i64literal":12072,"socketpair":12073,"flood":12074,"selectable":12075,"bar2":12076,"pagesize":12077,"int32value":12078,"programiv":12079,"pool1":12080,"gestures":12081,"pixbuf":12082,"80usize":12083,"usages":12084,"01t":12085,"cmples":12086,"pinch":12087,"controlled":12088,"cloudsearch":12089,"fileno":12090,"302":12091,"freeing":12092,"178":12093,"cssrule":12094,"184":12095,"central":12096,"pdf":12097,"carri":12098,"watchers":12099,"s3error":12100,"converter":12101,"trailer":12102,"segs":12103,"segv":12104,"rwx":12105,"reshape":12106,"3412":12107,"softmax":12108,"declarative":12109,"semver":12110,"trainable":12111,"spanned2":12112,"intentionally":12113,"abcdefgh":12114,"downloading":12115,"a550c18":12116,"uuids":12117,"222222":12118,"iotanalytics":12119,"contributions":12120,"0b010":12121,"ctap1command":12122,"forwarders":12123,"satisfies":12124,"hc128":12125,"v20150921":12126,"predecessor":12127,"cloning":12128,"stereo":12129,"attenuation":12130,"teardown":12131,"jupyter":12132,"erroneous":12133,"0m":12134,"036":12135,"1x":12136,"bpc":12137,"bang":12138,"cbox":12139,"cmsgs":12140,"du8":12141,"efault":12142,"hst":12143,"jis":12144,"léo":12145,"m8":12146,"m64":12147,"nj":12148,"oux":12149,"pss":12150,"swe":12151,"zop":12152,"zreg":12153,"ст":12154,"resets":12155,"relies":12156,"sema":12157,"enh":12158,"rocket":12159,"robid":12160,"uneval":12161,"unroll":12162,"unzip":12163,"unconditional":12164,"uncompress":12165,"unacked":12166,"unaligned":12167,"chdir":12168,"uet":12169,"gete":12170,"som":12171,"th1":12172,"th2":12173,"forces":12174,"nopsis":12175,"responds":12176,"pouet":12177,"005e":12178,"retirable":12179,"datafusion":12180,"listio":12181,"pathbuf":12182,"preheat":12183,"fec":12184,"licated":12185,"fallib":12186,"locator":12187,"servername":12188,"synopsis":12189,"bag":12190,"bitand":12191,"prefix32":12192,"spacer":12193,"account3":12194,"abnormal":12195,"translit":12196,"recalc":12197,"address1":12198,"libs":12199,"libspot":12200,"ts2":12201,"eprint":12202,"20200":12203,"querying":12204,"batcher":12205,"pane":12206,"panning":12207,"defining":12208,"hosting":12209,"custkey":12210,"downscaling":12211,"page2":12212,"rotator":12213,"ccc":12214,"terminates":12215,"sysconf":12216,"128usize":12217,"ligature":12218,"5042":12219,"implementations":12220,"334":12221,"fastfield":12222,"walker":12223,"integrations":12224,"remained":12225,"6666":12226,"indented":12227,"fc2":12228,"occlus":12229,"0916":12230,"priorities":12231,"materialized":12232,"http2transaction":12233,"saturation":12234,"a2x":12235,"4711":12236,"joysticks":12237,"ingestions":12238,"blocklisted":12239,"picked":12240,"darwin":12241,"sigevent":12242,"enotdir":12243,"convention":12244,"twins":12245,"1111111111111111":12246,"looped":12247,"forgotten":12248,"predictive":12249,"resample2d":12250,"extrude":12251,"deeper":12252,"market":12253,"easily":12254,"café":12255,"neighbors":12256,"derivative":12257,"claimed":12258,"divergence":12259,"definitely":12260,"energy":12261,"shoot":12262,"lfsr":12263,"000000000000000a550c18":12264,"000000000000000000000000000000000000000a550c18":12265,"pit2":12266,"pckl":12267,"scaffolding":12268,"grabbed":12269,"restorable":12270,"ritty":12271,"alacritty":12272,"léopard":12273,"zopfli":12274,"robidoux":12275,"unevalled":12276,"022":12277,"0f040h":12278,"20000":12279,"72usize":12280,"7of10":12281,"cudf":12282,"eor":12283,"eloc":12284,"eio":12285,"eperm":12286,"ghash":12287,"kex":12288,"ked":12289,"lv":12290,"m11":12291,"nline":12292,"ntwo":12293,"oem":12294,"sinter":12295,"uio":12296,"wow":12297,"z1":12298,"reactions":12299,"resetting":12300,"ens":12301,"enem":12302,"demer":12303,"mems":12304,"res1":12305,"asg":12306,"unver":12307,"undef":12308,"muted":12309,"mutator":12310,"advise":12311,"idct":12312,"lie":12313,"conns":12314,"conserv":12315,"buses":12316,"buffal":12317,"msk":12318,"shorter":12319,"vecend":12320,"from1":12321,"write1":12322,"key4":12323,"ialize":12324,"prepar":12325,"bytearray":12326,"timeval":12327,"objfwd":12328,"jsonfeed":12329,"clientid":12330,"anced":12331,"node1":12332,"pushstring":12333,"txvq":12334,"anyone":12335,"rowid":12336,"0x0022":12337,"baq":12338,"funs":12339,"payloads":12340,"106":12341,"mins":12342,"gl2":12343,"glpfa":12344,"point3":12345,"addr1":12346,"000001":12347,"colorspace":12348,"structures":12349,"0x3427":12350,"209":12351,"texture1":12352,"poster":12353,"voted":12354,"portal":12355,"f64literal":12356,"11ah":12357,"graphi":12358,"snaps":12359,"searched":12360,"rx3":12361,"round3":12362,"round4":12363,"round5":12364,"termdict":12365,"planet":12366,"191":12367,"epochs":12368,"relpath":12369,"sv1":12370,"validates":12371,"scale2d":12372,"int64vec4":12373,"int64vec2":12374,"int64vec3":12375,"67f2":12376,"heads":12377,"exporting":12378,"typedlink":12379,"fffff040h":12380,"cssom":12381,"pidfile":12382,"8601":12383,"arm64":12384,"sideways":12385,"reasonable":12386,"pnl":12387,"leaf2":12388,"diagonal":12389,"1e6":12390,"schedules":12391,"443":12392,"calculation":12393,"controlling":12394,"decrypts":12395,"combining":12396,"canonicalized":12397,"marshal":12398,"http2state":12399,"weakref":12400,"longest":12401,"00000050h":12402,"dxt3":12403,"dxt5":12404,"c7501efcdab":12405,"protective":12406,"dqb":12407,"comparisons":12408,"fmrs":12409,"x25519secret":12410,"watermarks":12411,"easycurses":12412,"podcast":12413,"recognizers":12414,"convolve":12415,"omitted":12416,"201605042":12417,"x06proto":12418,"accurate":12419,"bunny":12420,"functionality":12421,"20722":12422,"0b01001001":12423,"0041h":12424,"1f3fb":12425,"appliances":12426,"maximized":12427,"escribes":12428,"a55a":12429,"applicative":12430,"historical":12431,"einprogress":12432,"0b01010010":12433,"fallibility":12434,"enemy":12435,"conservative":12436,"buffalo":12437,"20160504220722":12438,"015":12439,"055":12440,"420":12441,"8d":12442,"8f":12443,"9usize":12444,"aof":12445,"bios":12446,"cro":12447,"csm":12448,"cnam":12449,"epipe":12450,"elig":12451,"hdro":12452,"jcx":12453,"kboard":12454,"latch":12455,"mreq":12456,"mind":12457,"rdeps":12458,"slight":12459,"tions":12460,"u3":12461,"v8":12462,"van":12463,"vfut":12464,"wx":12465,"zw":12466,"reorder":12467,"rewritten":12468,"inset":12469,"inflight":12470,"orld":12471,"ensur":12472,"erry":12473,"arian":12474,"toa":12475,"leav":12476,"unite":12477,"mutually":12478,"ficult":12479,"isions":12480,"veg":12481,"new1":12482,"newest":12483,"nose":12484,"refers":12485,"0060":12486,"0070":12487,"msw":12488,"keysym":12489,"outbuf":12490,"msgsize":12491,"waking":12492,"acci":12493,"liness":12494,"serializable":12495,"ev2":12496,"preedit":12497,"ip6":12498,"node2":12499,"0x0040":12500,"0x0038":12501,"0x003e":12502,"0x003a":12503,"107":12504,"subtrees":12505,"parameteri":12506,"picks":12507,"generally":12508,"ff00":12509,"205":12510,"2011":12511,"20e3":12512,"optlen":12513,"118":12514,"supervised":12515,"part1":12516,"marmo":12517,"casting":12518,"1002":12519,"pool2":12520,"recvmsg":12521,"bits1":12522,"14usize":12523,"sockname":12524,"raftkv":12525,"univer":12526,"encodes":12527,"rando":12528,"int64value":12529,"2dh":12530,"uidmap":12531,"177":12532,"rmdir":12533,"repeatedly":12534,"239":12535,"dsz":12536,"reasons":12537,"swapped":12538,"oneofs":12539,"prefers":12540,"tune":12541,"underscores":12542,"toolong":12543,"deregistering":12544,"evaluates":12545,"372":12546,"switcher":12547,"international":12548,"purple":12549,"9999999":12550,"4702":12551,"measured":12552,"awk":12553,"pruner":12554,"reuseport":12555,"guarantees":12556,"smoothing":12557,"alteration":12558,"exhaustive":12559,"optimizations":12560,"spliced":12561,"decorators":12562,"chroma":12563,"remoting":12564,"greet":12565,"mechanical":12566,"0a0a0a0a":12567,"observation":12568,"gf128":12569,"freezing":12570,"euclid":12571,"mstime":12572,"ａｂｃ":12573,"multisampling":12574,"retractions":12575,"trouble":12576,"sweep":12577,"demerits":12578,"x06proto1":12579,"hdroff":12580,"jcxz":12581,"ensuring":12582,"0l":12583,"0n":12584,"5f":12585,"ä":12586,"bwd":12587,"eu8":12588,"eos":12589,"ealready":12590,"etimes":12591,"ftype":12592,"gids":12593,"his":12594,"hresh":12595,"imag":12596,"jn":12597,"kids":12598,"m22":12599,"nin":12600,"ostream":12601,"pv":12602,"pap":12603,"r11":12604,"s14":12605,"srand":12606,"sunion":12607,"uiv":12608,"x35":12609,"zrange":12610,"erange":12611,"atal":12612,"ora":12613,"ender":12614,"enrich":12615,"decr":12616,"armed":12617,"unde":12618,"apm":12619,"idom":12620,"newval":12621,"mpspec":12622,"00z":12623,"001d":12624,"0078":12625,"shine":12626,"bother":12627,"writebatch":12628,"facial":12629,"keyfile":12630,"outward":12631,"byref":12632,"6467f3":12633,"pathfinding":12634,"chef":12635,"obvious":12636,"configures":12637,"quux":12638,"quacks":12639,"transcript":12640,"mem2":12641,"appkey":12642,"num2":12643,"grouper":12644,"token1":12645,"ecance":12646,"0x0007":12647,"gl1":12648,"deflater":12649,"temp2":12650,"ffset":12651,"libclang":12652,"queried":12653,"spacetime":12654,"changedata":12655,"changelog":12656,"srcitems":12657,"mydata":12658,"myfield":12659,"mymethod":12660,"1112":12661,"latter":12662,"f32literal":12663,"idx1":12664,"takeover":12665,"binaries":12666,"validator1":12667,"page3":12668,"confchange":12669,"mons":12670,"249":12671,"eagl":12672,"overwrites":12673,"managers":12674,"deadbeef":12675,"recving":12676,"continent":12677,"cmplt":12678,"surrounding":12679,"registrant":12680,"308":12681,"traceback":12682,"ledgers":12683,"171":12684,"detective":12685,"assigning":12686,"terminals":12687,"filling":12688,"arrnum":12689,"hinting":12690,"ssthresh":12691,"optimizing":12692,"repeats":12693,"cleaned":12694,"annotator":12695,"anisot":12696,"archived":12697,"2702":12698,"flights":12699,"iconv":12700,"halt":12701,"catalogs":12702,"ructors":12703,"casual":12704,"20160616":12705,"65537":12706,"chased":12707,"occured":12708,"interrupts":12709,"yields":12710,"yielding":12711,"a5a5":12712,"gsg":12713,"natnum":12714,"tiling":12715,"zzz":12716,"charges":12717,"20180101":12718,"bdp":12719,"minibuf":12720,"auditor":12721,"wig32":12722,"f32f32f32f32":12723,"testarrayoftables":12724,"extents":12725,"kube":12726,"rfc3339parse":12727,"modulename":12728,"1010101010101010":12729,"palatal":12730,"bbbbbbbbbbbbbbbb":12731,"██╔══":12732,"r13d":12733,"u10u10u10":12734,"kinesisvideostreams":12735,"turbofish":12736,"rustyline":12737,"u12u12":12738,"bearer":12739,"handedness":12740,"crazy":12741,"eligible":12742,"randomly":12743,"cmpltu":12744,"019":12745,"013":12746,"1ed":12747,"1f6":12748,"2x":12749,"230":12750,"755":12751,"c00":12752,"cdata":12753,"c11":12754,"ebusy":12755,"fund":12756,"mine":12757,"ngram":12758,"n30":12759,"preser":12760,"svm":12761,"vd":12762,"vx2":12763,"xe":12764,"xio":12765,"yv":12766,"zinter":12767,"enigo":12768,"alstate":12769,"ark":12770,"chld":12771,"loff":12772,"fibon":12773,"lime":12774,"str1":12775,"strnatural":12776,"getuid":12777,"req2":12778,"caref":12779,"cacerts":12780,"bufsize":12781,"name2":12782,"0013":12783,"pubsub":12784,"boto":12785,"bour":12786,"boiler":12787,"favor":12788,"keystream":12789,"intf":12790,"outs":12791,"tible":12792,"colgroup":12793,"disjoint":12794,"iph":12795,"tx4":12796,"ecb":12797,"ecdh":12798,"0x0032":12799,"0x0034":12800,"0x002a":12801,"cf1":12802,"speculation":12803,"sub1":12804,"instanced":12805,"useragent":12806,"asked":12807,"base32":12808,"ciency":12809,"chartab":12810,"numbered":12811,"00001":12812,"coloring":12813,"trade":12814,"envoy":12815,"former":12816,"latches":12817,"hellow":12818,"multvals":12819,"globalscope":12820,"prf":12821,"ignorer":12822,"100f32":12823,"confusion":12824,"ersand":12825,"rxvq":12826,"int32builder":12827,"termcolor":12828,"v2transform":12829,"overdraw":12830,"1366":12831,"142702":12832,"population":12833,"directions":12834,"throttle":12835,"attacks":12836,"flee":12837,"dictmerger":12838,"keeps":12839,"026h":12840,"approach":12841,"increases":12842,"overflows":12843,"ndarray":12844,"stencil8":12845,"carry10":12846,"0515":12847,"pretend":12848,"transitioning":12849,"polymorph":12850,"killq":12851,"sse4":12852,"relocs":12853,"bidirectional":12854,"mintb":12855,"kbkn":12856,"socks4":12857,"west1":12858,"discardable":12859,"h264":12860,"implicitly":12861,"ortho":12862,"diagram":12863,"twin0":12864,"cha20poly1305":12865,"efficiency":12866,"vegetable":12867,"categorizer":12868,"pollable":12869,"thumbnail":12870,"pulseaudio":12871,"20180704142702":12872,"pkcs12":12873,"6979":12874,"hammer":12875,"mechanism":12876,"libraries":12877,"zombie":12878,"enhanced":12879,"leaving":12880,"universal":12881,"fibonacci":12882,"strnaturalcmp":12883,"careful":12884,"kbknapp":12885,"1m":12886,"430":12887,"44usize":12888,"bir":12889,"cvec":12890,"dft":12891,"d3d":12892,"eprog":12893,"euid":12894,"ffe":12895,"f48":12896,"f248":12897,"jconf":12898,"lvalues":12899,"m12":12900,"m42":12901,"m21":12902,"m512":12903,"msex":12904,"qa":12905,"qguide":12906,"s15":12907,"sram":12908,"uk":12909,"ugly":12910,"vpn":12911,"vhw":12912,"w16":12913,"xc":12914,"xent":12915,"xsave":12916,"zunion":12917,"zrank":12918,"你好":12919,"reactor":12920,"remacs":12921,"stall":12922,"enclose":12923,"utime":12924,"dels":12925,"itr":12926,"errcode":12927,"resizing":12928,"unity":12929,"unencrypted":12930,"unfinished":12931,"thd":12932,"0x12345678":12933,"fir":12934,"ula":12935,"idraw":12936,"urrent":12937,"isation":12938,"ishear":12939,"nota":12940,"set1":12941,"parfor":12942,"refactor":12943,"theast":12944,"and48":12945,"size4":12946,"scl":12947,"doe":12948,"rior":12949,"okm":12950,"opnum":12951,"optopt":12952,"bea":12953,"clp":12954,"clr":12955,"outlen":12956,"argb":12957,"tiqguide":12958,"iterating":12959,"endings":12960,"sigalrm":12961,"stdbuf":12962,"fees":12963,"complicated":12964,"spl":12965,"cr0":12966,"groupname":12967,"167":12968,"0x000f":12969,"specbind":12970,"u64s":12971,"defg":12972,"piration":12973,"accountbilling":12974,"playlist":12975,"directed":12976,"position2":12977,"libdeflater":12978,"managing":12979,"manishear":12980,"200x200":12981,"localized":12982,"optimal":12983,"awsaccountbilling":12984,"haste":12985,"0x10000":12986,"idx2":12987,"multidraw":12988,"float3":12989,"reception":12990,"downcase":12991,"stopwatch":12992,"segmentation":12993,"encing":12994,"246":12995,"esti":12996,"pool3":12997,"v2client":12998,"routine":12999,"1908":13000,"corp":13001,"passive":13002,"146":13003,"continued":13004,"227":13005,"totally":13006,"303":13007,"actively":13008,"head2":13009,"aboutv2":13010,"css2":13011,"187":13012,"centroid":13013,"titles":13014,"acc1":13015,"accu":13016,"booleans":13017,"fbcode":13018,"declined":13019,"s3origin":13020,"digital":13021,"convertible":13022,"3901":13023,"duplex":13024,"silen":13025,"6667f3":13026,"psid":13027,"trusts":13028,"pascal":13029,"unpacking":13030,"273":13031,"x224":13032,"dddd":13033,"discoverers":13034,"p2p":13035,"111111":13036,"powershell":13037,"hardcoded":13038,"recorders":13039,"prompts":13040,"985":13041,"eee":13042,"1010101":13043,"effectively":13044,"683901":13045,"lpvoid":13046,"enametoolong":13047,"semantics":13048,"probes":13049,"flipped":13050,"soundness":13051,"replayed":13052,"inodes":13053,"biquad":13054,"20141212":13055,"sharded":13056,"hostsfile":13057,"shaping":13058,"aiocbs":13059,"aes256ctr":13060,"questions":13061,"666643":13062,"alpns":13063,"callees":13064,"shuffled":13065,"northeast":13066,"replicas":13067,"magnitude":13068,"v20140515":13069,"introduce":13070,"sigusr2":13071,"654183":13072,"xxxxxxxxxxxxxxxxxxxxxxxxxxxxxxxx":13073,"nfs3err":13074,"tactic":13075,"interacting":13076,"unidirectional":13077,"997805":13078,"occluders":13079,"preparing":13080,"470296":13081,"ninja":13082,"boilerplate":13083,"136657":13084,"fleetiqguide":13085,"msexpiration":13086,"manishearth":13087,"2k":13088,"216":13089,"215":13090,"214":13091,"3f64":13092,"4k":13093,"480":13094,"awa":13095,"a11":13096,"acos":13097,"b13":13098,"dport":13099,"eob":13100,"eexist":13101,"gun":13102,"hwnd":13103,"ior":13104,"lstm":13105,"m41":13106,"nlink":13107,"nchars":13108,"rational":13109,"sbin":13110,"voffset":13111,"vts":13112,"xce":13113,"xray":13114,"xchg":13115,"reimport":13116,"repaint":13117,"reunite":13118,"inlay":13119,"sev":13120,"eness":13121,"enxio":13122,"ale":13123,"alen":13124,"err2":13125,"assembler":13126,"assemble":13127,"rodio":13128,"unqual":13129,"uncovered":13130,"coher":13131,"serted":13132,"firef":13133,"ulations":13134,"ulative":13135,"urgency":13136,"strlen":13137,"ising":13138,"truth":13139,"parker":13140,"refined":13141,"0066":13142,"0068":13143,"codestar":13144,"retro":13145,"test123":13146,"icall":13147,"oflag":13148,"dies":13149,"keydown":13150,"datastores":13151,"addref":13152,"lenish":13153,"col2":13154,"lineitem":13155,"ists":13156,"among":13157,"tpflags":13158,"tagger":13159,"splat":13160,"express":13161,"0x0000000000":13162,"hashable":13163,"payments":13164,"register4":13165,"eleven":13166,"instruction2":13167,"defvar":13168,"replenish":13169,"callstack":13170,"mangling":13171,"ampersand":13172,"enced":13173,"posting":13174,"batching":13175,"bincode":13176,"fd1":13177,"recordings":13178,"barley":13179,"secondaries":13180,"files1":13181,"131":13182,"136":13183,"popped":13184,"hero":13185,"namespaceable":13186,"packetization":13187,"tensorboard":13188,"multiaddr":13189,"4040":13190,"457":13191,"185":13192,"acc0":13193,"partitioned":13194,"mediaconnect":13195,"screens":13196,"0x10u8":13197,"licensed":13198,"ps1":13199,"wouldblock":13200,"expando":13201,"x0a":13202,"sinks":13203,"441":13204,"ec2windows":13205,"slant":13206,"understand":13207,"goods":13208,"11011":13209,"persons":13210,"e2big":13211,"abcdefg":13212,"101010":13213,"prevented":13214,"tidbit":13215,"stein":13216,"traversed":13217,"c4e":13218,"capsulate":13219,"postgresql":13220,"20180523":13221,"ptsname":13222,"preceded":13223,"addons":13224,"algebrize":13225,"community":13226,"sembly":13227,"exerci":13228,"acmecorp":13229,"collisions":13230,"gracefully":13231,"evicted":13232,"strikethrough":13233,"murmur":13234,"sparkline":13235,"glslang":13236,"numerical":13237,"k8s":13238,"9223372036854775807":13239,"eisdir":13240,"maskmovq":13241,"commercial":13242,"dedupe":13243,"employee":13244,"graphiql":13245,"cros":13246,"srandmember":13247,"helloworld":13248,"xception":13249,"firefox":13250,"0ff":13251,"2grp":13252,"564":13253,"7b":13254,"967":13255,"ccm":13256,"cjk":13257,"dance":13258,"eproto":13259,"eacces":13260,"hk":13261,"iru":13262,"m13":13263,"ource":13264,"ogo":13265,"rms":13266,"rho":13267,"r14":13268,"sinc":13269,"t6":13270,"tpe":13271,"v10":13272,"vaddr":13273,"zsh":13274,"老虎":13275,"remb":13276,"ons":13277,"dea":13278,"deallocate":13279,"detune":13280,"ungroup":13281,"unequal":13282,"unsized":13283,"lodep":13284,"fizz":13285,"strpos":13286,"type2":13287,"namelen":13288,"kek":13289,"004b":13290,"tac":13291,"pace":13292,"fol":13293,"opent":13294,"opmask":13295,"readback":13296,"reg3":13297,"list1":13298,"withscores":13299,"obs":13300,"iterated":13301,"signo":13302,"mtu":13303,"precomp":13304,"preprocess":13305,"eventinfo":13306,"clicks":13307,"suback":13308,"stacktrace":13309,"blockbytes":13310,"memseg":13311,"toks":13312,"emlink":13313,"emcc":13314,"pushes":13315,"spc":13316,"versioning":13317,"options2":13318,"bool3":13319,"0x0046":13320,"hashset":13321,"expected1":13322,"subargs":13323,"submission":13324,"12h":13325,"bindless":13326,"rtf":13327,"rtmp":13328,"i32literal":13329,"temps":13330,"cmark":13331,"imageproc":13332,"localstorage":13333,"awsfms":13334,"noncompliant":13335,"idea":13336,"english":13337,"webgpu":13338,"ello":13339,"rxmode":13340,"whenever":13341,"gameserver":13342,"txn3":13343,"158":13344,"15usize":13345,"1555":13346,"rg32":13347,"decodes":13348,"tmppath":13349,"802":13350,"8026h":13351,"139":13352,"drand48":13353,"packetizer":13354,"markup":13355,"solutions":13356,"insular":13357,"showing":13358,"408":13359,"409":13360,"owners":13361,"union2":13362,"xx02":13363,"devkey":13364,"groundstation":13365,"digraph":13366,"sidedef":13367,"advan":13368,"basically":13369,"sampler3d":13370,"2684":13371,"backgrounds":13372,"capitalized":13373,"broadcasts":13374,"fc3":13375,"dashes":13376,"67890":13377,"ec2recommendation":13378,"gid2grp":13379,"ructing":13380,"enobufs":13381,"halves":13382,"0b0011":13383,"combinations":13384,"375":13385,"rbac":13386,"picture3d":13387,"trained":13388,"restarting":13389,"mozangle":13390,"initiators":13391,"blurred":13392,"synchronized":13393,"toggled":13394,"foobarbaz":13395,"warrior":13396,"0o600":13397,"messenger":13398,"00008026h":13399,"inclusion":13400,"spritebatch":13401,"outcomes":13402,"boringssl":13403,"communicate":13404,"magicate":13405,"possibilities":13406,"accordingly":13407,"backslashes":13408,"0000000000008026h":13409,"biomes":13410,"x06proto2":13411,"dialects":13412,"morphable":13413,"oooooooooooooooooooooooooooooooo":13414,"promoted":13415,"eaddrnota":13416,"technically":13417,"punctuated":13418,"awscurrent":13419,"abef":13420,"preshared":13421,"opportunity":13422,"xtruct":13423,"01t11":13424,"retroflex":13425,"exercises":13426,"lodepng":13427,"268435":13428,"eaddrnotavail":13429,"012":13430,"025":13431,"1ec":13432,"1ef":13433,"225":13434,"2i16":13435,"350":13436,"705":13437,"btrim":13438,"bs2":13439,"dsa":13440,"eil":13441,"elib":13442,"echild":13443,"glib":13444,"henv":13445,"h09":13446,"ised":13447,"jav":13448,"kits":13449,"lh":13450,"lid":13451,"lrem":13452,"mz":13453,"m14":13454,"nist":13455,"nbar":13456,"ninputs":13457,"ppe":13458,"rch":13459,"r12":13460,"sint":13461,"tal":13462,"tids":13463,"uing":13464,"umount":13465,"wstr":13466,"x15":13467,"xmb":13468,"ycl":13469,"ystack":13470,"z0":13471,"ßç":13472,"âßç":13473,"erofs":13474,"restarts":13475,"redist":13476,"inuse":13477,"inted":13478,"inlin":13479,"invest":13480,"seam":13481,"demote":13482,"arrange":13483,"unavail":13484,"lore":13485,"idon":13486,"petr":13487,"tect":13488,"conout":13489,"conversions":13490,"promotion":13491,"setuid":13492,"setfl":13493,"putime":13494,"ites":13495,"upto":13496,"0025":13497,"006e":13498,"pubkeys":13499,"scp":13500,"shelf":13501,"keycap":13502,"became":13503,"notty":13504,"fering":13505,"acs":13506,"nonew":13507,"espipe":13508,"essent":13509,"esrch":13510,"endp":13511,"sable":13512,"bytea":13513,"bytewise":13514,"faulty":13515,"undone":13516,"impression":13517,"pushable":13518,"grouping":13519,"162":13520,"backpressure":13521,"ptr2":13522,"sublime":13523,"winsize":13524,"yolo":13525,"203":13526,"haystack":13527,"foo4":13528,"fragmentation":13529,"orm4":13530,"aaaaaa":13531,"spanpb":13532,"1500":13533,"macaddr":13534,"datatest":13535,"while1":13536,"195":13537,"breakpoint":13538,"14159":13539,"blob1":13540,"poseidon":13541,"descender":13542,"edited":13543,"30px":13544,"502":13545,"freetype":13546,"encoders":13547,"head1":13548,"doubles":13549,"followers":13550,"fffffff":13551,"0x01u8":13552,"mediaconvert":13553,"choo":13554,"italics":13555,"acquiring":13556,"percentile":13557,"atomically":13558,"ooo":13559,"getters":13560,"unpacked":13561,"themselves":13562,"enomem":13563,"periods":13564,"anscoder":13565,"0b10":13566,"0b100":13567,"0b1000":13568,"additionally":13569,"346":13570,"attachment0":13571,"combiner":13572,"separators":13573,"nfs4":13574,"longlong":13575,"sse3":13576,"201704":13577,"9876":13578,"469":13579,"kleene":13580,"lspitem":13581,"0314":13582,"contradi":13583,"anomalies":13584,"suggestion":13585,"incompatibility":13586,"aggregators":13587,"flame":13588,"summarize":13589,"md5of":13590,"ctranscoder":13591,"elastictranscoder":13592,"determinator":13593,"alternatively":13594,"shaped":13595,"tells":13596,"advertiser":13597,"tempty":13598,"ebadmsg":13599,"hanging":13600,"leftovers":13601,"tanh":13602,"meaningless":13603,"occlude":13604,"hazards":13605,"econnrefused":13606,"predecessors":13607,"diesel":13608,"eaddrinuse":13609,"achieved":13610,"frankenstein":13611,"resizer4":13612,"190855":13613,"awaken":13614,"bool3ary":13615,"eilseq":13616,"essential":13617,"014":13618,"1f1":13619,"511":13620,"586":13621,"576":13622,"5aa5":13623,"8192":13624,"908":13625,"bil":13626,"bcd":13627,"eta":13628,"essl":13629,"ftp":13630,"f10":13631,"j2":13632,"jdk":13633,"kg":13634,"kh":13635,"kilo":13636,"lor":13637,"m23":13638,"m31":13639,"ost":13640,"oat":13641,"oce":13642,"oot":13643,"pinit":13644,"r10":13645,"rnd":13646,"sflags":13647,"slack":13648,"tg":13649,"uw":13650,"uloc":13651,"ucred":13652,"wlock":13653,"xn":13654,"x16":13655,"xkb":13656,"zcount":13657,"zcard":13658,"áa":13659,"èƒ":13660,"ôř":13661,"βèƒ":13662,"на":13663,"┌────────────────────────────":13664,"└────────────────────────────":13665,"intra":13666,"inexact":13667,"st1":13668,"stren":13669,"orc":13670,"enforced":13671,"deprovision":13672,"lev":13673,"leap":13674,"anity":13675,"anel":13676,"unmod":13677,"uncached":13678,"unmount":13679,"unlinked":13680,"coup":13681,"thl":13682,"thin":13683,"conju":13684,"buzz":13685,"amet":13686,"edquot":13687,"getable":13688,"getfl":13689,"setgid":13690,"igen":13691,"002d":13692,"007e":13693,"onek":13694,"size256":13695,"extreme":13696,"scard":13697,"testhash":13698,"string2":13699,"divisible":13700,"matchstart":13701,"oppos":13702,"keystore":13703,"bel":13704,"readdir":13705,"outfile":13706,"byol":13707,"wavy":13708,"file3":13709,"esult":13710,"endfilter":13711,"sigstack":13712,"aming":13713,"timestep":13714,"blocker":13715,"varchar":13716,"worst":13717,"sence":13718,"info0":13719,"curloc":13720,"persp":13721,"memset":13722,"gens":13723,"genpk":13724,"weigh":13725,"emfile":13726,"node0":13727,"numfmt":13728,"spice":13729,"cranel":13730,"offset2":13731,"anywhere":13732,"iotevent":13733,"patched":13734,"row12":13735,"row22":13736,"logon":13737,"0x0003":13738,"bitwidth":13739,"subsections":13740,"instruction1":13741,"workmail":13742,"repla":13743,"addrtype":13744,"recla":13745,"libjpeg":13746,"limitation":13747,"25s":13748,"origloc":13749,"decoder16":13750,"float4":13751,"deno":13752,"fd2":13753,"syste":13754,"cursor1":13755,"cursor2":13756,"monad":13757,"rxs":13758,"rustlings":13759,"244":13760,"scopesrc":13761,"estale":13762,"package2":13763,"overwriting":13764,"chained":13765,"190":13766,"193":13767,"197":13768,"classname":13769,"forever":13770,"terminable":13771,"goog":13772,"138":13773,"1415":13774,"fullpath":13775,"acceptor":13776,"sysfs":13777,"dave":13778,"descs":13779,"insanity":13780,"progver":13781,"67f36":13782,"multiconnect":13783,"texthl":13784,"vasps":13785,"computing":13786,"simult":13787,"ensured":13788,"i8literal":13789,"pktinfo":13790,"776":13791,"integrated":13792,"diagnose":13793,"consumes":13794,"360":13795,"dumb":13796,"tabstops":13797,"egg":13798,"sz2":13799,"triples":13800,"ogonek":13801,"overridden":13802,"recurring":13803,"mixin":13804,"mixins":13805,"calculator":13806,"calculating":13807,"slf":13808,"accumulating":13809,"ringbuf":13810,"enodev":13811,"enospc":13812,"cdgh":13813,"stripping":13814,"catalogue":13815,"redirected":13816,"0xab0e":13817,"housekeeping":13818,"bootstrapper":13819,"claptests":13820,"minting":13821,"unlessone":13822,"extendedprice":13823,"trapped":13824,"positional2":13825,"saturate":13826,"suggested":13827,"shrinking":13828,"interpolate":13829,"rfc6979":13830,"http3frame":13831,"utilize":13832,"amd64":13833,"date32array":13834,"date64array":13835,"collator":13836,"time32second":13837,"sanitized":13838,"substitut":13839,"hyphens":13840,"u16u16u16":13841,"u16u16u16u16":13842,"i16i16i16":13843,"i16i16i16i16":13844,"i8i8i8":13845,"i8i8i8i8":13846,"2eh":13847,"satisfy":13848,"flare":13849,"shards":13850,"hacky":13851,"glam":13852,"nxt":13853,"6467f2":13854,"cues":13855,"cccccccc":13856,"cmovcc":13857,"mounted":13858,"7a0a":13859,"neighborhood":13860,"introduced":13861,"coalesced":13862,"promotions":13863,"observations":13864,"bm25weight":13865,"elector":13866,"2147483648":13867,"jumbo":13868,"dithering":13869,"oblique":13870,"greeting":13871,"ecanceled":13872,"u10u10u10u2":13873,"irusr":13874,"contradict":13875,"ocean":13876,"ôřè":13877,"βèƒôřè":13878,"┌────────────────────────────┐":13879,"└────────────────────────────┘":13880,"strength":13881,"conjugate":13882,"opposite":13883,"iotevents":13884,"164":13885,"2num":13886,"9v":13887,"avi":13888,"bsy":13889,"bba":13890,"cum":13891,"cpath":13892,"c0b":13893,"csharp":13894,"dream":13895,"etype":13896,"edest":13897,"edead":13898,"etxt":13899,"eprototype":13900,"emsgsize":13901,"gig":13902,"gol":13903,"hte":13904,"hund":13905,"ihop":13906,"jd":13907,"jw":13908,"jrcx":13909,"lld":13910,"lust":13911,"m3":13912,"m4":13913,"mh":13914,"m24":13915,"o3":13916,"oe":13917,"p5":13918,"pvalue":13919,"plot":13920,"qname":13921,"slide":13922,"t7":13923,"t16":13924,"tfs":13925,"xla":13926,"xwc":13927,"кв":13928,"╚════":13929,"ina":13930,"ats":13931,"sepi":13932,"enfile":13933,"alex":13934,"decompression":13935,"arab":13936,"asin":13937,"unrolled":13938,"exdev":13939,"ulled":13940,"lized":13941,"valuf":13942,"ultihop":13943,"nod":13944,"nofollow":13945,"edom":13946,"edwards":13947,"req1":13948,"response001":13949,"result1":13950,"cauth":13951,"mpris":13952,"settable":13953,"reftests":13954,"0076":13955,"msy":13956,"dogs":13957,"patches":13958,"fair":13959,"eqv":13960,"diso":13961,"key0":13962,"validatable":13963,"protoopt":13964,"oblin":13965,"sam":13966,"sigsegv":13967,"discount":13968,"faults":13969,"renaming":13970,"invalidatable":13971,"quat":13972,"quar":13973,"emultihop":13974,"spon":13975,"txbuf":13976,"row32":13977,"row11":13978,"row21":13979,"serverless":13980,"0x002c":13981,"bitmask":13982,"bitxor":13983,"10u8":13984,"1030":13985,"glad":13986,"glwindow":13987,"abcab":13988,"addrreq":13989,"charged":13990,"i32key":13991,"ftw":13992,"recycl":13993,"statically":13994,"frameset":13995,"orderdate":13996,"clever":13997,"range1":13998,"range2":13999,"orm2":14000,"borogo":14001,"amazondynamodb":14002,"phones":14003,"storages":14004,"storagegateway":14005,"pingcap":14006,"median":14007,"referencing":14008,"benef":14009,"156":14010,"157":14011,"196":14012,"1994":14013,"efbig":14014,"docsrs":14015,"tonosupport":14016,"mocks":14017,"uniq":14018,"organize":14019,"mimsy":14020,"profiled":14021,"cloudflare":14022,"305":14023,"200px":14024,"18usize":14025,"rgb32":14026,"evaluating":14027,"diemtypes":14028,"intervals":14029,"pkgid":14030,"423":14031,"bb3":14032,"randomize":14033,"simulated":14034,"tuples":14035,"triggering":14036,"cpx":14037,"truncation":14038,"publisher":14039,"0x04u8":14040,"x0d":14041,"537":14042,"carry11":14043,"added0":14044,"visiting":14045,"processth":14046,"launched":14047,"enomsg":14048,"enoexec":14049,"enotempty":14050,"enoprotoopt":14051,"04x":14052,"launching":14053,"0b000":14054,"aes192":14055,"submitting":14056,"confirms":14057,"regularization":14058,"sse42":14059,"walls":14060,"scheduling":14061,"ranking":14062,"ingested":14063,"etimedout":14064,"route53auto":14065,"tickets":14066,"rasterize":14067,"vp8":14068,"e0100":14069,"quads":14070,"readsapi":14071,"enotconn":14072,"enotsock":14073,"treatment":14074,"determining":14075,"sgd":14076,"contribution":14077,"delegates":14078,"personalized":14079,"btreemap":14080,"orphaned":14081,"wtftw":14082,"happyhumans":14083,"telebot":14084,"zn3":14085,"greatest":14086,"ikm":14087,"improvement":14088,"econnreset":14089,"econnaborted":14090,"enetdown":14091,"enetreset":14092,"enetunreach":14093,"016x":14094,"gentabs":14095,"v20170314":14096,"zm9v":14097,"zxc":14098,"eisconn":14099,"enolck":14100,"enolink":14101,"pnt3f":14102,"eidrm":14103,"ehostunreach":14104,"eprotonosupport":14105,"1f680":14106,"botocore":14107,"birth":14108,"beacon":14109,"folded":14110,"bs2state":14111,"nonewlines":14112,"weighted":14113,"simultaneous":14114,"edestaddrreq":14115,"edeadlk":14116,"etxtbsy":14117,"hundred":14118,"jrcxz":14119,"lustre":14120,"sepia":14121,"borogoves":14122,"processthreadsapi":14123,"1ea":14124,"2l":14125,"219":14126,"550":14127,"657":14128,"7n":14129,"800000":14130,"9f":14131,"ament":14132,"a10":14133,"aces":14134,"a77":14135,"btest":14136,"blow":14137,"b14":14138,"c13":14139,"ciph":14140,"d0a":14141,"gpt":14142,"hare":14143,"hops":14144,"hqc":14145,"irt":14146,"junk":14147,"jinc":14148,"kl":14149,"kin":14150,"llo":14151,"mg":14152,"nsome":14153,"nss":14154,"nvim":14155,"ppid":14156,"qq":14157,"qhas":14158,"rtrim":14159,"smanager":14160,"vh":14161,"vod":14162,"v02":14163,"w32":14164,"xic":14165,"x13":14166,"xrand":14167,"zlex":14168,"аб":14169,"世界":14170,"元素":14171,"revalidation":14172,"reinitialize":14173,"seto":14174,"ars":14175,"meg":14176,"undeploy":14177,"unassign":14178,"unwritten":14179,"cour":14180,"netevent":14181,"ents":14182,"id3":14183,"urgent":14184,"val4":14185,"new2":14186,"noerror":14187,"ty3":14188,"getcwd":14189,"getsockname":14190,"responsible":14191,"proportion":14192,"parti":14193,"theater":14194,"buflen":14195,"0056":14196,"shor":14197,"bodies":14198,"doub":14199,"dolor":14200,"matchmaker":14201,"op64":14202,"opml":14203,"keymod":14204,"validating":14205,"dataexchange":14206,"field0":14207,"outlines":14208,"argspec":14209,"fern":14210,"collate":14211,"saa":14212,"heast":14213,"sigpipe":14214,"sigbus":14215,"disposed":14216,"prepended":14217,"interior":14218,"resourcequota":14219,"index2":14220,"seng":14221,"impled":14222,"off0":14223,"asyncness":14224,"weax":14225,"spp":14226,"region2":14227,"txmode":14228,"grcov":14229,"row31":14230,"0x004e":14231,"0x001a":14232,"0x000d":14233,"db2":14234,"dbc":14235,"sub2":14236,"subsys":14237,"subqueries":14238,"irehte":14239,"addrx":14240,"wsl":14241,"numberz":14242,"root2":14243,"travis":14244,"0x3ffffff":14245,"sni":14246,"styling":14247,"imagesource":14248,"imagequant":14249,"query2":14250,"awsie":14251,"taskwarrior":14252,"serdegen":14253,"myvar":14254,"renders":14255,"orm3":14256,"decoder64":14257,"i64v":14258,"part2":14259,"originally":14260,"reax":14261,"flour":14262,"flo16":14263,"floated":14264,"linkat":14265,"webbluetooth":14266,"fsync":14267,"decisions":14268,"fd3":14269,"networkpolicy":14270,"245":14271,"152":14272,"movq":14273,"rg16":14274,"lexicons":14275,"vectorize":14276,"194":14277,"tmpd":14278,"recv1":14279,"bits2":14280,"continuing":14281,"fullargspec":14282,"0110":14283,"01t00":14284,"conditionally":14285,"helps":14286,"dax":14287,"128u8":14288,"228":14289,"shader4":14290,"int64builder":14291,"latin1":14292,"cbs":14293,"incident":14294,"i16literal":14295,"gnirehte":14296,"rgba16":14297,"glyphicon":14298,"shadowed":14299,"396":14300,"262":14301,"flexible":14302,"wouldn":14303,"trafficpolicy":14304,"powi":14305,"bluez":14306,"cidrs":14307,"vec3f":14308,"launches":14309,"periodically":14310,"ebp":14311,"geolocation":14312,"ddd":14313,"ethhdr":14314,"adaptive":14315,"mknod":14316,"rror":14317,"20170":14318,"months":14319,"expansions":14320,"crc64":14321,"chaos":14322,"47501efcdab":14323,"administration":14324,"5112":14325,"kwargs":14326,"displacement32":14327,"speeds":14328,"gpr16":14329,"nameres":14330,"occupancy":14331,"tesselation":14332,"replays":14333,"php5":14334,"destructed":14335,"0xffffff":14336,"eatmydata":14337,"ptraceback":14338,"neighbour":14339,"u32u32u32":14340,"u32u32u32u32":14341,"degree":14342,"0xffffffffffffffff":14343,"0x000900":14344,"numa":14345,"shortcuts":14346,"practices":14347,"101112":14348,"announce":14349,"deriving":14350,"╚═╝╚═╝":14351,"abcdefghijklmnopqrstuvwxy":14352,"freezable":14353,"eighths":14354,"8080808080808080":14355,"fauxmatchstmt":14356,"u5u5u5":14357,"southeast":14358,"supplementary":14359,"streetcar":14360,"navigatorinfo":14361,"slightly":14362,"ficulty":14363,"awkward":14364,"estimat":14365,"silence":14366,"678901234567890":14367,"systematic":14368,"βèƒôřèâßç":14369,"giga":14370,"ciphers":14371,"qhasm":14372,"xrandr":14373,"zlexcount":14374,"webbluetoothcg":14375,"gnirehtet":14376,"020":14377,"0111":14378,"450":14379,"5u32":14380,"50000":14381,"524":14382,"ares":14383,"aker":14384,"bgls":14385,"calloc":14386,"dv":14387,"dfe":14388,"dgrams":14389,"ffee":14390,"grip":14391,"hf":14392,"hol":14393,"jap":14394,"lrange":14395,"m9":14396,"m43":14397,"mtim":14398,"nlo":14399,"pdates":14400,"qrcode":14401,"rfa":14402,"rlimit":14403,"spop":14404,"tde":14405,"tstamp":14406,"uh":14407,"ureq":14408,"vun":14409,"v64":14410,"vsd":14411,"wf":14412,"wps":14413,"x90":14414,"ya":14415,"yz":14416,"ок":14417,"ри":14418,"reviews":14419,"insp":14420,"inform":14421,"atim":14422,"orac":14423,"envelo":14424,"alldo":14425,"uts":14426,"desp":14427,"deallocation":14428,"tower":14429,"asserted":14430,"rotr":14431,"unraw":14432,"unsplit":14433,"unconnected":14434,"unloaded":14435,"unclipped":14436,"unauthenticated":14437,"extran":14438,"th32":14439,"advert":14440,"adapt":14441,"urn":14442,"urbed":14443,"valcontents":14444,"wrt":14445,"getrange":14446,"getfd":14447,"cafe":14448,"causing":14449,"set3":14450,"reflink":14451,"value4":14452,"popl":14453,"pointe":14454,"namestring":14455,"007":14456,"0027":14457,"0037":14458,"0049":14459,"msvc":14460,"sci":14461,"oplay":14462,"3200":14463,"lender":14464,"regener":14465,"list2":14466,"msg3":14467,"640":14468,"64k":14469,"tied":14470,"iter1":14471,"itertools":14472,"ynr":14473,"sigill":14474,"sigchld":14475,"displace":14476,"preimage":14477,"deserializing":14478,"varbit":14479,"memlimit":14480,"u32v":14481,"nodegroups":14482,"groupmerger":14483,"row1":14484,"0x000b":14485,"bit7":14486,"bitpacker":14487,"1025":14488,"runlots":14489,"flag2":14490,"subfolder":14491,"1208":14492,"askmov":14493,"prims":14494,"abb":14495,"abgr":14496,"abigen":14497,"addrport":14498,"base10":14499,"mains":14500,"mainnet":14501,"00000001":14502,"ied2":14503,"recx":14504,"item1":14505,"vmaskmov":14506,"0x5aa5":14507,"eremote":14508,"query1":14509,"metal":14510,"clearance":14511,"waypoints":14512,"joe":14513,"latencies":14514,"joiner":14515,"clump":14516,"100ms":14517,"searchid":14518,"jective":14519,"referer":14520,"kernels":14521,"ginseng":14522,"1510":14523,"movl":14524,"190916":14525,"unitless":14526,"syncer":14527,"hsms":14528,"breakpoints":14529,"gleam":14530,"80h":14531,"oldp":14532,"oldname":14533,"ffidisp":14534,"trackers":14535,"daily":14536,"daynr":14537,"cloud9":14538,"88usize":14539,"3012":14540,"emails":14541,"lighting":14542,"partialeq":14543,"head3":14544,"336":14545,"iterators":14546,"dstrect":14547,"rpcs":14548,"computes":14549,"developers":14550,"keepenv":14551,"timerfd":14552,"cryptosuites":14553,"choices":14554,"5551":14555,"disturbed":14556,"drives":14557,"dup2":14558,"swaprows":14559,"capturing":14560,
[...]
