{"version":"1.0","truncation":null,"padding":null,"added_tokens":[{"id":0,"special":true,"content":"[UNK]","single_word":false,"lstrip":false,"rstrip":false,"normalized":false},{"id":1,"special":true,"content":"[CLS]","single_word":false,"lstrip":false,"rstrip":false,"normalized":false},{"id":2,"special":true,"content":"[SEP]","single_word":false,"lstrip":false,"rstrip":false,"normalized":false},{"id":3,"special":true,"content":"[PAD]","single_word":false,"lstrip":false,"rstrip":false,"normalized":false},{"id":4,"special":true,"content":"[MASK]","single_word":false,"lstrip":false,"rstrip":false,"normalized":false}],"normalizer":{"type":"BertNormalizer","clean_text":true,"handle_chinese_chars":true,"strip_accents":null,"lowercase":true},"pre_tokenizer":{"type":"ByteLevel","add_prefix_space":true,"trim_offsets":true},"post_processor":null,"decoder":null,"model":{"type":"BPE","dropout":null,"unk_token":"[UNK]","continuing_subword_prefix":null,"end_of_word_suffix":null,"fuse_unk":false,"vocab":{"[UNK]":0,"[CLS]":1,"[SEP]":2,"[PAD]":3,"[MASK]":4,"!":5,"\"":6,"#":7,"$":8,"%":9,"&":10,"'":11,"(":12,")":13,"*":14,"+":15,",":16,"-":17,".":18,"/":19,"0":20,"1":21,"2":22,"3":23,"4":24,"5":25,"6":26,"7":27,"8":28,"9":29,":":30,";":31,"<":32,"=":33,">":34,"?":35,"@":36,"[":37,"\\":38,"]":39,"^":40,"_":41,"`":42,"a":43,"b":44,"c":45,"d":46,"e":47,"f":48,"g":49,"h":50,"i":51,"j":52,"k":53,"l":54,"m":55,"n":56,"o":57,"p":58,"q":59,"r":60,"s":61,"t":62,"u":63,"v":64,"w":65,"x":66,"y":67,"z":68,"{":69,"|":70,"}":71,"~":72,"¡":73,"¢":74,"£":75,"¤":76,"¥":77,"¦":78,"§":79,"¨":80,"©":81,"ª":82,"«":83,"¬":84,"®":85,"¯":86,"°":87,"±":88,"²":89,"³":90,"´":91,"µ":92,"¶":93,"·":94,"¸":95,"¹":96,"º":97,"»":98,"¼":99,"½":100,"¾":101,"¿":102,"Â":103,"Ã":104,"Ä":105,"Ê":106,"Î":107,"Ï":108,"Ð":109,"Ñ":110,"à":111,"á":112,"â":113,"ã":114,"é":115,"ï":116,"Ġ":117,"Ģ":118,"ģ":119,"Ĥ":120,"ĥ":121,"Ħ":122,"ħ":123,"Ĩ":124,"ĩ":125,"Ī":126,"ī":127,"Ĭ":128,"ĭ":129,"Į":130,"į":131,"İ":132,"ı":133,"Ĳ":134,"ĳ":135,"Ĵ":136,"ĵ":137,"Ķ":138,"ķ":139,"ĸ":140,"Ĺ":141,"ĺ":142,"Ļ":143,"ļ":144,"ľ":145,"Ŀ":146,"ŀ":147,"Ł":148,"ł":149,"Ġt":150,"Ġi":151,"Ġth":152,"Ġa":153,"Ġthe":154,"re":155,"Ġc":156,"in":157,"Ġs":158,"er":159,"Ġw":160,"on":161,"at":162,"or":163,"ou":164,"Ġto":165,"Ġb":166,"ing":167,"Ġf":168,"le":169,"me":170,"st":171,"an":172,"Ġd":173,"Ġin":174,"Ġan":175,"Ġo":176,"Ġp":177,"ed":178,"it":179,"Ġis":180,"Ġm":181,"Ġh":182,"es":183,"en":184,"ion":185,"Ġn":186,"ll":187,"ct":188,"Ġit":189,"is":190,"Ġre":191,"Ġl":192,"Ġu":193,"Ġy":194,"Ġyou":195,"Ġof":196,"ro":197,"mp":198,"ic":199,"Ġe":200,"ar":201,"Ġand":202,"se":203,"Ġbe":204,"Ġwh":205,"ve":206,"Ġthat":207,"ut":208,"Ġthis":209,"ru":210,"Ġco":211,"ow":212,"al":213,"ot":214,"nt":215,"Ġg":216,"ly":217,"Ġso":218,"Ġon":219,"de":220,"Ġst":221,"ld":222,"ere":223,"Ġha":224,"Ġfor":225,"ith":226,"Ġdo":227,"Ġcan":228,"ce":229,"ble":230,"et":231,"Ġli":232,"ra":233,"Ġv":234,"Ġas":235,"rust":236,"ment":237,"Ġwith":238,"ke":239,"pe":240,"Ġex":241,"th":242,"Ġnot":243,"mple":244,"all":245,"Ġ(":246,"ould":247,"ay":248,"as":249,"Ġbut":250,"ation":251,"ate":252,"ĠĠ":253,"Ġme":254,"Ġpro":255,"Ġcon":256,"ch":257,"ter":258,"ver":259,"'t":260,"Ġus":261,"Ġhave":262,"ction":263,"Ġrust":264,"ad":265,"ur":266,"Ġty":267,"Ġne":268,"un":269,"il":270,"ig":271,"Ġse":272,"Ġif":273,"out":274,"Ġuse":275,"ue":276,"'s":277,"Ġde":278,"Ġcomp":279,"fere":280,"if":281,"ure":282,"ant":283,"Ġcode":284,"Ġ.":285,"Ġor":286,"Ġare":287,"Ġhow":288,"Ġfun":289,"Ġfi":290,"Ġma":291,"pp":292,"nd":293,"able":294,"Ġmo":295,"Ġfunction":296,"Ġsome":297,"Ġal":298,"ss":299,"ime":300,"Ġwor":301,"Ġpo":302,"Ġ,":303,"ich":304,"ck":305,"Ġthere":306,"Ġtype":307,"ent":308,"Ġtr":309,"Ġlike":310,"ally":311,"ame":312,"Ġwhich":313,"rom":314,"ill":315,"ul":316,"feren":317,"err":318,"Ġby":319,"Ġfrom":320,"ge":321,"id":322,"Ġwork":323,"Ġmy":324,"mplement":325,"Ġall":326,"Ġch":327,"error":328,"Ġimplement":329,"Ġerror":330,"Ġdoes":331,"oo":332,"and":333,"Ġyour":334,"ces":335,"Ġval":336,"Ġsh":337,"Ġwhat":338,"ers":339,"Ġwould":340,"Ġat":341,"ust":342,"Ġneed":343,"Ġusing":344,"lo":345,"Ġj":346,"so":347,"Ġint":348,"Ġsu":349,"Ġget":350,"Ġreferen":351,"Ġwant":352,"'m":353,"Ġexa":354,"Ġwhen":355,"Ġway":356,"Ġwe":357,"ain":358,"pt":359,"Ġtra":360,"Ġwill":361,"Ġar":362,"urn":363,"ruct":364,"Ġca":365,"Ġany":366,"ound":367,"Ġsi":368,"Ġret":369,"ect":370,"Ġen":371,"Ġtrait":372,"od":373,"Ġreturn":374,"ile":375,"lic":376,"Ġsee":377,"Ġad":378,"Ġout":379,"Ġpar":380,"ca":381,"Ġexample":382,"use":383,"Ġle":384,"qu":385,"ult":386,"co":387,"ht":388,"Ġone":389,"ire":390,"Ġun":391,"Ġfo":392,"Ġhere":393,"Ġk":394,"ind":395,"Ġthen":396,"Ġstruct":397,"Ġinst":398,"ri":399,"Ġcall":400,"Ġhas":401,"ated":402,"ari":403,"Ġab":404,"Ġtry":405,"Ġ\"":406,"ine":407,"ore":408,"thing":409,"um":410,"Ġvalue":411,"Ġonly":412,"Ġloo":413,"Ġru":414,"Ġam":415,"cause":416,"Ġcompil":417,"ort":418,"Ġwr":419,"Ġjust":420,"Ġreference":421,").":422,"fet":423,"Ġalso":424,"llow":425,"Ġbecause":426,"Ġfollow":427,"ive":428,"Ġpoin":429,"Ġdon":430,"Ġadd":431,"Ġapp":432,"thod":433,"ject":434,"Ġr":435,"Ġshould":436,"ary":437,"Ġlifet":438,"Ġlifetime":439,"Ġno":440,"Ġmethod":441,"Ġinto":442,"row":443,"Ġexp":444,"ctor":445,"Ġcre":446,"cess":447,"Ġcont":448,"ener":449,"age":450,"Ġsame":451,"ms":452,"ite":453,"ther":454,"Ġcould":455,"her":456,"ight":457,"Ġte":458,"iv":459,"Ġob":460,"Ġac":461,"Ġgener":462,"Ġcompiler":463,"Ġfile":464,"ator":465,"Ġfollowing":466,"oug":467,"li":468,"Ġdef":469,"now":470,"Ġproble":471,"ible":472,"iz":473,"Ġvari":474,"Ġother":475,"ata":476,"ink":477,"ach":478,"read":479,"oc":480,"que":481,"per":482,"Ġpl":483,"Ġknow":484,"ass":485,"end":486,"Ġmore":487,"Ġiter":488,"us":489,"mm":490,"ack":491,"te":492,"ring":493,"for":494,"Ġdif":495,"ide":496,"ied":497,"Ġwas":498,"Ġdata":499,"ead":500,"Ġcompile":501,"Ġlook":502,"Ġsomething":503,"Ġres":504,"ign":505,"Ġrun":506,"pec":507,"Ġtrying":508,"Ġbu":509,"om":510,"ever":511,"Ġproblem":512,"Ġup":513,"wn":514,"Ġtime":515,"ang":516,"ial":517,"Ġfa":518,"are":519,"Ġ1":520,"orrow":521,"Ġdoesn":522,"Ġtyp":523,"ough":524,"ument":525,"Ġcase":526,"ity":527,"Ġmut":528,"Ġwhy":529,"ong":530,"Ġtw":531,"Ġpre":532,"Ġposs":533,"el":534,"Ġve":535,"Ġsol":536,"Ġmake":537,"ific":538,"quest":539,"ip":540,"Ġborrow":541,"Ġhowever":542,"ues":543,"Ġta":544,"Ġspec":545,"nder":546,"Ġown":547,"Ġ:":548,"Ġobject":549,"ert":550,"du":551,"ir":552,"Ġstring":553,"Ġunder":554,"ting":555,"Ġke":556,"Ġtypes":557,"Ġfir":558,"Ġlib":559,"Ġfirst":560,"ist":561,"ard":562,"gra":563,"Ġabout":564,"Ġtwo":565,"Ġthan":566,"Ġread":567,"not":568,"put":569,"Ġvector":570,"Ġpass":571,"Ġclo":572,"Ġpossible":573,"ab":574,"Ġcr":575,"Ġinstead":576,"ps":577,"Ġ-":578,"Ġvariable":579,"Ġsy":580,"Ġpointer":581,"..":582,"ions":583,"Ġused":584,"cl":585,"Ġwhere":586,"ans":587,"our":588,"sure":589,"Ġmem":590,"Ġnew":591,"Ġmat":592,"tern":593,"Ġact":594,"ray":595,"Ġev":596,"ually":597,"ory":598,"ates":599,"Ġper":600,"Ġover":601,"ations":602,"ince":603,"ff":604,"Ġnow":605,"Ġser":606,"'ve":607,"form":608,"Ġmay":609,"Ġthey":610,"Ġworks":611,"rary":612,"ag":613,"ferent":614,"Ġbet":615,"Ġcreate":616,"ice":617,"Ġprogra":618,"Ġsince":619,"Ġimp":620,"eck":621,"con":622,"Ġiterator":623,"Ġthem":624,"av":625,"ution":626,"ctly":627,"Ġdifferent":628,"Ġarray":629,"Ġresult":630,"ĠĠĠĠ":631,"ild":632,"Ġeach":633,"Ġrep":634,"ition":635,"Ġvers":636,"),":637,"ange":638,"Ġquest":639,"tt":640,"ous":641,"Ġman":642,"atic":643,"ie":644,"one":645,"stand":646,"Ġthread":647,"Ġgo":648,"Ġits":649,"Ġdoc":650,"Ġwrite":651,"Ġpart":652,"Ġrequ":653,"ace":654,"led":655,"Ġset":656,"cro":657,"Ġ2":658,"Ġclosure":659,"Ġthing":660,"Ġcheck":661,"Ġmemory":662,"Ġwithout":663,"Ġsa":664,"Ġparame":665,"ating":666,"Ġparameter":667,"gr":668,"int":669,"Ġrequire":670,"ify":671,"im":672,"Ġiss":673,"pect":674,"arg":675,"Ġunderstand":676,"Ġtrust":677,"Ġmacro":678,"ove":679,"Ġallow":680,"ress":681,"Ġimplementation":682,"Ġopt":683,"Ġlibrary":684,"side":685,"Ġaf":686,"cept":687,"Ġthese":688,"Ġele":689,"Ġtried":690,"Ġkey":691,"ose":692,"orre":693,"em":694,"Ġcrate":695,"Ġfe":696,"Ġcert":697,"Ġdefin":698,"Ġbot":699,"Ġcontain":700,"Ġcannot":701,"lf":702,"ning":703,"Ġquestion":704,"Ġthink":705,"Ġvalues":706,"Ġcl":707,"Ġafter":708,"Ġdire":709,"ature":710,"Ġgiv":711,"Ġsolution":712,"ap":713,"Ġmutable":714,"ies":715,"fore":716,"ments":717,"Ġver":718,"other":719,"Ġever":720,"Ġversion":721,"urre":722,"ance":723,"Ġfind":724,"Ġpat":725,"ast":726,"ull":727,"Ġlo":728,"Ġseems":729,"ving":730,"Ġbuild":731,"Ġanother":732,"Ġreferences":733,"der":734,"Ġcorre":735,"Ġaccess":736,"Ġable":737,"Ġboth":738,"Ġtest":739,"sw":740,"kes":741,"ground":742,"ays":743,"am":744,"Ġhand":745,"Ġeven":746,"ex":747,"vo":748,"Ġansw":749,"Ġdes":750,"Ġconst":751,"ud":752,"'d":753,"Ġstill":754,"Ġplay":755,"Ġarg":756,"up":757,"Ġgeneric":758,"Ġoper":759,"Ġnum":760,"we":761,"Ġdep":762,"Ġpoint":763,"Ġprov":764,"Ġcop":765,"urrent":766,"king":767,"Ġcomm":768,"Ġconver":769,"Ġevery":770,"Ġmatch":771,"low":772,"Ġsign":773,"Ġhtt":774,"ber":775,"Ġprogram":776,"00":777,"Ġchange":778,"fe":779,"Ġfunctions":780,"Ġargument":781,"wh":782,"art":783,"Ġsuch":784,"Ġstore":785,"Ġass":786,"Ġap":787,"Ġsupp":788,"Ġend":789,"ase":790,"Ġwrit":791,"Ġissue":792,"Ġreturns":793,"Ġbas":794,"os":795,"Ġname":796,"Ġlong":797,"Ġho":798,"Ġline":799,"Ġcurrent":800,"Ġoutput":801,"Ġdocument":802,"ably":803,"eld":804,"Ġ?":805,"Ġconf":806,"Ġmess":807,"self":808,"alled":809,"Ġcons":810,"âĢ":811,"Ġsimple":812,"ializ":813,"Ġfix":814,"di":815,"ub":816,"ved":817,"Ġdis":818,"Ġfield":819,"Ġanswer":820,"Ġnote":821,"Ġactually":822,"Ġsure":823,"Ġmust":824,"Ġmight":825,"Ġslic":826,"Ġexpect":827,"pl":828,"Ġrem":829,"//":830,"Ġdepend":831,"mb":832,"Ġhel":833,"Ġmult":834,"Ġlink":835,"Ġsiz":836,"ep":837,"ks":838,"Ġwhile":839,"Ġalloc":840,"cur":841,"Ġsimp":842,"cond":843,"Ġ'":844,"fer":845,"Ġlet":846,"ither":847,"Ġtoo":848,"ail":849,"ten":850,"'re":851,"://":852,"cri":853,"Ġinside":854,"Ġvery":855,"Ġmeans":856,"Ġfound":857,"Ġqu":858,"Ġinter":859,"com":860,"Ġreally":861,"ec":862,"Ġdoing":863,"lock":864,"Ġabove":865,"Ġsim":866,"Ġstate":867,"argo":868,"licit":869,"Ġcopy":870,"ason":871,"Ġbit":872,"Ġsecond":873,"Ġreason":874,"::":875,"Ġspecific":876,"mpt":877,"Ġfail":878,"Ġtake":879,"Ġstructure":880,"stem":881,"iss":882,"Ġaut":883,"Ġbefore":884,"Ġpr":885,"Ġapplic":886,"Ġbeing":887,"Ġplayground":888,"Ġcertific":889,"Ġdocumentation":890,"ced":891,"sent":892,"ween":893,"Ġlist":894,"Ġappro":895,"own":896,"mit":897,"ual":898,"rs":899,"Ġbetween":900,"ference":901,"Ġright":902,"Ġloop":903,"ically":904,"vice":905,"Ġide":906,"Ġbound":907,"ise":908,"Ġexec":909,"inal":910,"Ġchang":911,"Ġeas":912,"act":913,"Ġmultip":914,"les":915,"Ġeither":916,"Ġbeh":917,"Ġserver":918,"Ġinde":919,"ilar":920,"ree":921,"ault":922,"Ġbeen":923,"ount":924,"Ġcargo":925,"Ġhelp":926,"Ġhapp":927,"):":928,"ord":929,"Ġsimilar":930,"ious":931,"Ġdid":932,"Ġworking":933,"cre":934,"Ġsub":935,"Ġback":936,"Ġconvert":937,"Ġmethods":938,"Ġwell":939,"Ġthrust":940,"yn":941,"Ġmost":942,"Ġloc":943,"Ġnumber":944,"Ġmessage":945,"Ġag":946,"Ġlang":947,"Ġorder":948,"Ġweb":949,"Ġbo":950,"xt":951,"Ġcomple":952,"ci":953,"Ġlangu":954,"ows":955,"Ġsize":956,"Ġcalled":957,"Ġent":958,"Ġexist":959,"Ġsp":960,"Ġexpress":961,"Ġisn":962,"ser":963,"Ġinput":964,"Ġblock":965,"Ġform":966,"rough":967,"Ġgoo":968,"omatic":969,"Ġenum":970,"Ġerrors":971,"ute":972,"ative":973,"Ġwra":974,"Ġhttps":975,"Ġ3":976,"Ġapplication":977,"Ġuser":978,"void":979,"Ġproject":980,"Ġgu":981,"Ġbetter":982,"Ġmultiple":983,"Ġsco":984,"Ġhaving":985,"uch":986,"Ġslice":987,"utable":988,"ax":989,"Ġavoid":990,"hip":991,"ingle":992,"Ġaround":993,"Ġthrough":994,"Ġdefault":995,"ility":996,"ready":997,"Ġsystem":998,"be":999,"lain":1000,"Ġhappen":1001,"Ġalready":1002,"Ġwon":1003,"++":1004,"Ġed":1005,"Ġmodu":1006,"Ġlooks":1007,"Ġimplemented":1008,"Ġcorrect":1009,"Ġthings":1010,"Ġsingle":1011,"Ġrunning":1012,"Ġuses":1013,"tra":1014,"ways":1015,"Ġperform":1016,"Ġmod":1017,"bu":1018,"Ġthose":1019,"ume":1020,"Ġmove":1021,"ful":1022,"pen":1023,"Ġfine":1024,"ĠĠĠ":1025,"Ġsynt":1026,"Ġvalid":1027,"Ġexplicit":1028,"bably":1029,"Ġcol":1030,"Ġlifetimes":1031,"Ġstart":1032,"ence":1033,"Ġelements":1034,"Ġsupport":1035,"Ġsay":1036,"ia":1037,"Ġalways":1038,"ne":1039,"Ġpattern":1040,"Ġnon":1041,"Ġincl":1042,"ified":1043,"Ġinte":1044,"ish":1045,"Ġprovid":1046,"Ġimplements":1047,"Ġdet":1048,"ource":1049,"Ġprocess":1050,"Ġdecl":1051,"ared":1052,"Ġprobably":1053,"Ġcle":1054,"Ġtrans":1055,"ry":1056,"...":1057,"io":1058,"Ġmuch":1059,"Ġitself":1060,"Ġupd":1061,"Ġlit":1062,"Ġorig":1063,"Ġowners":1064,"ately":1065,"Ġequ":1066,"Ġwrong":1067,"cript":1068,"Ġ0":1069,"Ġbelow":1070,"ular":1071,"Ġagain":1072,"Ġdirectly":1073,"Ġoption":1074,"Ġreg":1075,"enc":1076,"Ġhe":1077,"Ġscope":1078,"Ġcertificate":1079,"vious":1080,"Ġmain":1081,"Ġownership":1082,"igure":1083,"Ġtraits":1084,"Ġim":1085,"gest":1086,"Ġneeds":1087,"Ġfeature":1088,"Ġgetting":1089,"uture":1090,"ether":1091,"sion":1092,"Ġstack":1093,"Ġcli":1094,"Ġgiven":1095,"ages":1096,"Ġcom":1097,"Ġstand":1098,"Ġra":1099,"Ġatte":1100,"Ġput":1101,"Ġsyntax":1102,"Ġsug":1103,"Ġeff":1104,"Ġtakes":1105,"Ġprint":1106,"Ġfull":1107,"Ġwind":1108,"Ġfuture":1109,"sa":1110,"Ġthough":1111,"Ġtell":1112,"Ġind":1113,"Ġimport":1114,"Ġprodu":1115,"Ġsignature":1116,"Ġbehav":1117,"ases":1118,"Ġsm":1119,"Ġelement":1120,"Ġfiles":1121,"Ġro":1122,"Ġanything":1123,"Ġdown":1124,"Ġtheir":1125,"Ġapproach":1126,"val":1127,"Ġmany":1128,"Ġonce":1129,"Ġproper":1130,"Ġkind":1131,"red":1132,"Ġlin":1133,"ially":1134,"Ġdefined":1135,"Ġcommand":1136,"Ġgives":1137,"tes":1138,"Ġwriting":1139,"Ġinit":1140,"Ġseem":1141,"Ġstatic":1142,"Ġgood":1143,"ient":1144,"Ġdone":1145,"Ġ)":1146,"lease":1147,"Ġedit":1148,"ves":1149,"Ġlooking":1150,"Ġpri":1151,"Ġmakes":1152,"ather":1153,"Ġaccept":1154,"Ġgot":1155,"ml":1156,"ty":1157,"Ġsuggest":1158,"Ġbehavi":1159,"'ll":1160,"formation":1161,"Ġmodule":1162,"Ġjav":1163,"Ġfar":1164,"Ġapi":1165,"ents":1166,"to":1167,"Ġpointers":1168,"Ġx":1169,"Ġpath":1170,"Ġoriginal":1171,"Ġchar":1172,"ix":1173,"Ġindex":1174,"Ġsimply":1175,"Ġsafe":1176,"Ġrequest":1177,"Ġspecify":1178,"Ġlanguage":1179,"Ġcalling":1180,"Ġstandard":1181,"Ġmean":1182,"ciated":1183,"Ġidea":1184,"Ġrel":1185,"Ġlog":1186,"cing":1187,"ib":1188,"Ġobjects":1189,"ick":1190,"Ġsort":1191,"pped":1192,"Ġopen":1193,"Ġimm":1194,"ph":1195,"Ġel":1196,"Ġcreated":1197,"ical":1198,"Ġbox":1199,"ng":1200,"par":1201,"Ġsource":1202,"Ġid":1203,"Ġrather":1204,"Ġbin":1205,"pon":1206,"Ġthreads":1207,"Ġbytes":1208,"ls":1209,"Ġmiss":1210,"ger":1211,"Ġdro":1212,"Ġrequires":1213,"Ġcurrently":1214,"ctory":1215,"ized":1216,"Ġinformation":1217,"Ġborrowed":1218,"Ġexactly":1219,"play":1220,"Ġvia":1221,"01":1222,"ider":1223,"Ġcontains":1224,"Ġboo":1225,"ntime":1226,"nel":1227,"resent":1228,"Ġgoing":1229,"store":1230,"the":1231,"Ġwho":1232,"lent":1233,"ustom":1234,"Ġnor":1235,"erm":1236,"ling":1237,"Ġinstance":1238,"sh":1239,"Ġkeep":1240,"Ġ/":1241,"atch":1242,"Ġenough":1243,"Ġlot":1244,"Ġcases":1245,"Ġrepresent":1246,"Ġvariables":1247,"ightly":1248,"Ġoff":1249,"Ġhad":1250,"time":1251,"ken":1252,"Ġacc":1253,"Ġoptim":1254,"Ġconstruct":1255,"vel":1256,"arch":1257,"Ġrepl":1258,"Ġaddition":1259,"ize":1260,"comp":1261,"Ġdependenc":1262,"Ġsend":1263,"Ġdefine":1264,"Ġbest":1265,"Ġz":1266,"ĠĠĠĠĠĠĠĠ":1267,"Ġcustom":1268,"Ġparameters":1269,"Ġprovide":1270,"Ġwindows":1271,"Ġav":1272,"Ġfails":1273,"Ġbased":1274,"Ġgive":1275,"Ġreturned":1276,"ft":1277,"Ġwere":1278,"less":1279,"Ġruntime":1280,"Ġcolle":1281,"Ġclient":1282,"Ġimmutable":1283,"ined":1284,"Ġconsider":1285,"ctions":1286,"Ġexpression":1287,"Ġwithin":1288,"ngth":1289,"Ġnever":1290,"Ġfigure":1291,"hing":1292,"Ġdifference":1293,"ternal":1294,"Ġlast":1295,"Ġcome":1296,"Ġadding":1297,"Ġcharact":1298,"bit":1299,"Ġrest":1300,"Ġavail":1301,"âĢĻ":1302,"Ġexpected":1303,"Ġsen":1304,"arning":1305,"Ġasso":1306,"Ġallows":1307,"64":1308,"ven":1309,"Ġaddress":1310,"Ġref":1311,"Ġbind":1312,"Ġatt":1313,"Ġimplementing":1314,"uda":1315,"safe":1316,"Ġ4":1317,"load":1318,"Ġhandle":1319,"Ġcalls":1320,"way":1321,"Ġpartic":1322,"bug":1323,"Ġresults":1324,"Ġdere":1325,"Ġenc":1326,"Ġstructs":1327,"Ġmode":1328,"Ġreal":1329,"Ġattempt":1330,"Ġtup":1331,"ner":1332,"iva":1333,"Ġeasi":1334,"Ġdec":1335,"Ġgeneral":1336,"Ġarguments":1337,"ithub":1338,"which":1339,"Ġmissing":1340,"Ġthus":1341,"Ġextra":1342,"icient":1343,"Ġinstall":1344,"Ġcomplete":1345,"ivalent":1346,"Ġvariant":1347,"\".":1348,"ems":1349,"Ġsepar":1350,"Ġavailable":1351,"Ġhash":1352,"Ġfl":1353,"mo":1354,"where":1355,"ext":1356,"Ġinvo":1357,"ynam":1358,"rodu":1359,"ics":1360,"sol":1361,"bers":1362,"Ġassociated":1363,"Ġequivalent":1364,"Ġcompiles":1365,"son":1366,"Ġfields":1367,"arant":1368,"cessary":1369,"Ġins":1370,"Ġlength":1371,"Ġpost":1372,"Ġneeded":1373,"pu":1374,"Ġparticular":1375,"arante":1376,"ĠâĢ":1377,"Ġassign":1378,"Ġsolve":1379,"Ġpy":1380,"Ġtemp":1381,"Ġbinary":1382,"Ġguarante":1383,"Ġlocal":1384,"Ġbuff":1385,"Ġplace":1386,"Ġremove":1387,"Ġcreating":1388,"Ġexcept":1389,"Ġupdate":1390,"Ġes":1391,"Ġprogramm":1392,"Ġbehavior":1393,"Ġsense":1394,"Ġwritten":1395,"rib":1396,"Ġach":1397,"Ġunt":1398,"Ġdynam":1399,"ware":1400,"Ġdirectory":1401,"pping":1402,"uring":1403,"Ġeverything":1404,"Ġfact":1405,"Ġsays":1406,"Ġformat":1407,"Ġoperator":1408,"cket":1409,"Ġhttp":1410,"Ġachie":1411,"Ġtherefore":1412,"Ġinclud":1413,"Ġclear":1414,"Ġentire":1415,"Ġrece":1416,"Ġdest":1417,"Ġleast":1418,"wise":1419,"Ġjava":1420,"Ġdefinition":1421,"thon":1422,"Ġsmall":1423,"ream":1424,"Ġmodify":1425,"Ġthanks":1426,"curity":1427,"ought":1428,"tc":1429,"ward":1430,"Ġenv":1431,"Ġadded":1432,"Ġmaybe":1433,"Ġwhether":1434,"Ġlat":1435,"ak":1436,"Ġpan":1437,"Ġheap":1438,"Ġexplain":1439,"Ġidi":1440,"tle":1441,"Ġreading":1442,"Ġpub":1443,"Ġnorm":1444,"Ġcontext":1445,"Ġquite":1446,"Ġsimpl":1447,"Ġexplicitly":1448,"Ġreturning":1449,"Ġ).":1450,"Ġmade":1451,"gin":1452,"vent":1453,"Ġpassed":1454,"Ġstrings":1455,"po":1456,"Ġfew":1457,"Ġelse":1458,"ract":1459,"Ġhard":1460,"Ġaltern":1461,"wor":1462,"Ġdevice":1463,"Ġnothing":1464,"ac":1465,"iron":1466,"urp":1467,"Ġmaking":1468,"Ġlonger":1469,"Ġmin":1470,"Ġpack":1471,"Ġbuffer":1472,"Ġsc":1473,"Ġsuc":1474,"Ġyet":1475,"Ġdocs":1476,"Ġturn":1477,"Ġnext":1478,"set":1479,"Ġauth":1480,"Ġhost":1481,"Ġenviron":1482,"ron":1483,"Ġobvious":1484,"Ġconfig":1485,"word":1486,"Ġautomatic":1487,"Ġident":1488,"op":1489,"Ġcount":1490,"Ġetc":1491,"Ġpython":1492,"line":1493,"Ġactual":1494,"pear":1495,"ark":1496,"Ġ[":1497,"Ġmacros":1498,"ability":1499,"ices":1500,"Ġlive":1501,"used":1502,"Ġthought":1503,"Ġinitializ":1504,"pro":1505,"iew":1506,"Ġbook":1507,"eve":1508,"Ġstatement":1509,"Ġprett":1510,"Ġdidn":1511,"Ġcuda":1512,"code":1513,"Ġcast":1514,"Ġsit":1515,"Ġment":1516,"Ġmap":1517,"Ġperformance":1518,"ol":1519,"aries":1520,"like":1521,"Ġuntil":1522,"Ġidiomatic":1523,"come":1524,"Ġassume":1525,"arget":1526,"ude":1527,"()":1528,"arent":1529,".)":1530,"Ġfixed":1531,"Ġuseful":1532,"Ġshared":1533,"Ġpretty":1534,"Ġ()":1535,"Ġremo":1536,"Ġenvironment":1537,"Ġmoved":1538,"Ġrequired":1539,"Ġoperation":1540,"Ġlimit":1541,"Ġwhole":1542,"net":1543,"Ġoc":1544,"Ġlines":1545,"ross":1546,"Ġappear":1547,"Ġexamples":1548,"semb":1549,"Ġcomb":1550,"Ġcomplain":1551,"sing":1552,"Ġinteger":1553,"tom":1554,"using":1555,"Ġgenerate":1556,"Ġtests":1557,"valid":1558,"Ġachieve":1559,"ourse":1560,"Ġclass":1561,"gn":1562,"osed":1563,"Ġtuple":1564,"curs":1565,"Ġplease":1566,"lob":1567,"Ġgues":1568,"Ġpassing":1569,"Ġdebug":1570,"vant":1571,"Ġconc":1572,"Ġload":1573,"Ġiterators":1574,"sted":1575,"Ġtas":1576,"Ġtimes":1577,"Ġways":1578,"Ġcertain":1579,"gor":1580,"Ġlittle":1581,"Ġstd":1582,"Ġcorrectly":1583,"Ġliter":1584,"medi":1585,"Ġsearch":1586,"Ġhold":1587,"by":1588,"Ġproblems":1589,"Ġitems":1590,"Ġowned":1591,"Ġunsafe":1592,"Ġbasically":1593,"cure":1594,"velo":1595,"Ġfin":1596,"Ġside":1597,"full":1598,"Ġcrates":1599,"Ġtrusted":1600,"Ġbinding":1601,"Ġcourse":1602,"Ġsw":1603,"ilt":1604,"Ġitem":1605,"ortun":1606,"gorith":1607,"Ġ...":1608,"Ġour":1609,"pper":1610,"Ġunf":1611,"Ġautomatically":1612,"lib":1613,"lish":1614,"Ġconne":1615,"Ġcommon":1616,"def":1617,"Ġclone":1618,"Ġ5":1619,"Ġimplementations":1620,"ody":1621,"Ġjson":1622,"Ġalgorith":1623,"Ġlar":1624,"Ġlevel":1625,"Ġconstant":1626,"bo":1627,"crete":1628,"reat":1629,"Ġtarget":1630,"ouble":1631,"Ġless":1632,"fc":1633,"Ġissues":1634,"Ġnecessary":1635,"Ġhappens":1636,"Ġallowed":1637,"Ġraw":1638,"Ġhig":1639,"Ġconcrete":1640,"ively":1641,"Ġdetail":1642,"ni":1643,"org":1644,"Ġok":1645,"Ġeasy":1646,"Ġmention":1647,"Ġ=":1648,"Ġgets":1649,"its":1650,"Ġdue":1651,"Ġcompilation":1652,"ux":1653,"Ġsitu":1654,"lying":1655,"Ġchanged":1656,"Ġcontro":1657,"Ġinf":1658,"Ġstream":1659,"Ġclosures":1660,"Ġdesign":1661,"Ġstored":1662,"Ġinterf":1663,"Ġknown":1664,"Ġreplace":1665,"Ġsem":1666,"ero":1667,"Ġotherwise":1668,"though":1669,"Ġsever":1670,"Ġunfortun":1671,"lang":1672,"rc":1673,"Ġrespon":1674,"Ġalternative":1675,"Ġattrib":1676,"sembly":1677,"Ġseveral":1678,"back":1679,"Ġsomeone":1680,"Ġfunctional":1681,"Ġstr":1682,"\",":1683,"wr":1684,"Ġ@":1685,"Ġiterate":1686,"Ġ&":1687,"Ġyes":1688,"Ġvectors":1689,"Ġarrays":1690,"Ġtru":1691,"github":1692,"Ġsetting":1693,"Ġborrowing":1694,"Ġconstra":1695,"Ġchecker":1696,"Ġseparate":1697,"Ġsuccess":1698,"pri":1699,"sl":1700,"fully":1701,"Ġpossib":1702,"Ġprovided":1703,"alloc":1704,"Ġstu":1705,"Ġcond":1706,"alle":1707,"Ġasyn":1708,"mpty":1709,"Ġefficient":1710,"Ġcare":1711,"Ġpublic":1712,"iter":1713,"Ġcomput":1714,"ha":1715,"ran":1716,"trust":1717,"Ġinvalid":1718,"Ġguess":1719,"Ġbeli":1720,"ernel":1721,"Ġshort":1722,"Ġdevelo":1723,"Ġbuilt":1724,"Ġchanges":1725,"Ġliteral":1726,"Ġworld":1727,"Ġfra":1728,"Ġanyone":1729,"Ġnightly":1730,"Ġhead":1731,"Ġoperations":1732,"Ġunfortunately":1733,"Ġcompiled":1734,"Ġscript":1735,"Ġcomment":1736,"Ġinsert":1737,"Ġ--":1738,"main":1739,"Ġbecome":1740,"miss":1741,"Ġnumbers":1742,"Ġbre":1743,"Ġroot":1744,"Ġgra":1745,"Ġmach":1746,"Ġmanually":1747,"work":1748,"doc":1749,"Ġdist":1750,"Ġfast":1751,"Ġconsume":1752,"amp":1753,"Ġlater":1754,"Ġnormal":1755,"Ġpoints":1756,"Ġtext":1757,"Ġdeclar":1758,"Ġbelieve":1759,"str":1760,"Ġold":1761,"Ġcapt":1762,"Ġbug":1763,"Ġsaid":1764,"Ġenable":1765,"Ġexecut":1766,"Ġbyte":1767,"imal":1768,"uration":1769,"Ġbounds":1770,"Ġdropped":1771,"how":1772,"ding":1773,"arn":1774,"ism":1775,"Ġunderstanding":1776,"Ġrele":1777,"Ġdescri":1778,"Ġimportant":1779,"Ġprogramming":1780,"Ġali":1781,"toml":1782,"Ġtool":1783,"Ġeffect":1784,"playground":1785,"Ġkernel":1786,"Ġchanging":1787,"Ġempty":1788,"Ġpriv":1789,"Ġla":1790,"Ġintere":1791,"Ġcause":1792,"Ġcomplex":1793,"min":1794,"Ġterm":1795,"Ġlock":1796,"Ġsequ":1797,"Ġwanted":1798,"32":1799,"Ġgr":1800,"uming":1801,"Ġfeel":1802,"mend":1803,"html":1804,"ted":1805,"Ġallocation":1806,"Ġstep":1807,"Ġshow":1808,"ording":1809,"base":1810,"Ġresol":1811,"alc":1812,"Ġparse":1813,"Ġtempor":1814,"Ġwarning":1815,"Ġstable":1816,"nect":1817,"Ġinterface":1818,"sp":1819,"Ġspace":1820,"Ġrules":1821,"Ġdynamic":1822,"urther":1823,"Ġprefer":1824,"oup":1825,"Ġintrodu":1826,"Ġ10":1827,"Ġkeys":1828,"Ġrelated":1829,"Ġfurther":1830,"Ġrec":1831,"Ġut":1832,"Ġself":1833,"Ġuns":1834,"name":1835,"ors":1836,"Ġconnection":1837,"ql":1838,"Ġext":1839,"Ġgenerated":1840,"Ġservice":1841,"Ġvis":1842,"commend":1843,"Ġspecifically":1844,"Ġdependencies":1845,"raries":1846,"Ġos":1847,"Ġpos":1848,"ave":1849,"alcul":1850,"Ġfree":1851,"ell":1852,"Ġstor":1853,"Ġben":1854,"Ġinclude":1855,"Ġpanic":1856,"Ġrecommend":1857,"Ġusually":1858,"Ġmatching":1859,"Ġadditional":1860,"erializ":1861,"Ġdeal":1862,"Ġcontent":1863,"Ġprevious":1864,"Ġfollows":1865,"Ġflag":1866,"Ġinfer":1867,"Ġword":1868,"Ġrange":1869,"iled":1870,"Ġprovides":1871,"Ġdeclare":1872,"ked":1873,"Ġredu":1874,"ifi":1875,"Ġconcept":1876,"Ġoutside":1877,"Ġrfc":1878,"Ġcapture":1879,"ield":1880,"Ġversions":1881,"Ġnode":1882,"Ġoptions":1883,"Ġslices":1884,"Ġaccording":1885,"Ġtoken":1886,"Ġannot":1887,"Ġlibraries":1888,"Ġwrapper":1889,"Ġeasily":1890,"log":1891,"Ġclon":1892,"Ġpurp":1893,"Ġtaking":1894,"Ġcharacter":1895,"Ġinstalled":1896,"Ġlarge":1897,"Ġdisc":1898,"est":1899,"Ġalgorithm":1900,"Ġcompiling":1901,"Ġlikely":1902,"ives":1903,"ird":1904,"Ġglob":1905,"Ġ201":1906,"kio":1907,"Ġsecurity":1908,"Ġsecure":1909,"Ġvec":1910,"ered":1911,"Ġruns":1912,"Ġlinked":1913,"Ġcalcul":1914,"around":1915,"Ġchain":1916,"with":1917,"aces":1918,"Ġcontents":1919,"type":1920,"Ġssl":1921,"Ġbig":1922,"Ġdeserializ":1923,"Ġexisting":1924,"unch":1925,"pre":1926,"Ġoptimiz":1927,"Ġwonder":1928,"Ġtop":1929,"Ġduring":1930,"Ġregist":1931,"Ġmark":1932,"Ġevent":1933,"Ġmachine":1934,"Ġmoving":1935,"Ġappropri":1936,"gle":1937,"Ġconnect":1938,"Ġwrap":1939,"Ġcaller":1940,"uses":1941,"Ġcompletely":1942,"gether":1943,"Ġsection":1944,"Ġmutability":1945,"Ġlinux":1946,"Ġensure":1947,"map":1948,"spon":1949,"Ġflo":1950,"Ġdevelop":1951,"Ġdependency":1952,"eri":1953,"Ġinner":1954,"lies":1955,"Ġalias":1956,"stable":1957,"Ġmatter":1958,"Ġzero":1959,"Ġimage":1960,"flow":1961,"lan":1962,"Ġpe":1963,"Ġlead":1964,"Ġworked":1965,"Ġagainst":1966,"stamp":1967,"Ġcollection":1968,"Ġoutl":1969,"Ġbasic":1970,"Ġdestruct":1971,"Ġcondition":1972,"Ġprivate":1973,"file":1974,"Ġview":1975,"Ġtruststore":1976,"defined":1977,"Ġder":1978,"Ġexperi":1979,"Ġbuilding":1980,"Ġspl":1981,"Ġgreat":1982,"Ġtrue":1983,"Ġsl":1984,"Ġpage":1985,"Ġcoer":1986,"no":1987,"annel":1988,"rix":1989,"Ġgoes":1990,"most":1991,"Ġtask":1992,"icate":1993,"Ġarbit":1994,"Ġfold":1995,"Ġspecial":1996,"Ġdetails":1997,"ait":1998,"Ġlanguages":1999,"Ġpie":2000,"Ġpackage":2001,"Ġrestri":2002,"Ġtokio":2003,"Ġprevent":2004,"Ġcharacters":2005,"Ġborrows":2006,"Ġmanag":2007,"Ġframe":2008,"Ġcompar":2009,"Ġalthough":2010,"Ġcontrol":2011,"Ġcontaining":2012,"Ġallocated":2013,"Ġtemporary":2014,"Ġimplicit":2015,"Ġexception":2016,"Ġshows":2017,"Ġsituation":2018,"Ġinternal":2019,"Ġrustc":2020,"sy":2021,"ob":2022,"Ġusers":2023,"andom":2024,"Ġregard":2025,"Ġ8":2026,"Ġspecified":2027,"Ġcomments":2028,"ess":2029,"Ġsemant":2030,"Ġuni":2031,"Ġdeterm":2032,"lect":2033,"Ġcomes":2034,"vm":2035,"Ġusage":2036,"ĠâĢĶ":2037,"man":2038,"Ġdescrib":2039,"Ġbegin":2040,"Ġserde":2041,"Ġappears":2042,"tain":2043,"rote":2044,"Ġclose":2045,"Ġinvol":2046,"Ġcombin":2047,"Ġcach":2048,"ssl":2049,"ased":2050,"Ġlocation":2051,"12":2052,"0000":2053,"Ġ),":2054,"ake":2055,"Ġhaven":2056,"Ġcertificates":2057,"Ġproperly":2058,"Ġwouldn":2059,"Ġadv":2060,"Ġchecking":2061,"Ġquestions":2062,"head":2063,"Ġnice":2064,"Ġworkaround":2065,"Ġcreates":2066,"Ġcorrespon":2067,"Ġmentioned":2068,"haps":2069,"Ġfeatures":2070,"Ġattribute":2071,"Ġport":2072,"ision":2073,"Ġgpu":2074,"Ġdepending":2075,"Ġappropriate":2076,"Ġmatrix":2077,"Ġsni":2078,"Ġsomehow":2079,"Ġchannel":2080,"Ġthree":2081,"Ġpract":2082,"Ġtree":2083,"Ġrefer":2084,"Ġseen":2085,"Ġ;":2086,"Ġpa":2087,"Ġaren":2088,"more":2089,"Ġign":2090,"Ġexact":2091,"Ġlay":2092,"Ġglobal":2093,"Ġwrote":2094,"ppet":2095,"Ġsplit":2096,"Ġyield":2097,"Ġunderlying":2098,"Ġtogether":2099,"Ġbody":2100,"Ġexists":2101,"Ġthrow":2102,"Ġlearn":2103,"Ġhope":2104,"Ġimpl":2105,"Ġassembly":2106,"Ġallocate":2107,"Ġconstraint":2108,"Ġparent":2109,"Ġexecutable":2110,"itch":2111,"ho":2112,"med":2113,"Ġred":2114,"Ġarbitrary":2115,"Ġsnippet":2116,"uplic":2117,"ently":2118,"rypt":2119,"Ġcouldn":2120,"Ġiteration":2121,"web":2122,"Ġtable":2123,"Ġinv":2124,"Ġexternal":2125,"Ġfunctionality":2126,"Ġaway":2127,"roid":2128,"ended":2129,"Ġconfiguration":2130,"da":2131,"ler":2132,"Ġanyway":2133,"Ġkeyword":2134,"atever":2135,"Ġserializ":2136,"Ġdownload":2137,"ging":2138,"app":2139,"Ġacross":2140,"Ġasync":2141,"Ġbad":2142,"Ġrandom":2143,"Ġslow":2144,"Ġunless":2145,"of":2146,"Ġrelease":2147,"Ġconversion":2148,"Ġeasier":2149,"Ġ#":2150,"Ġleft":2151,"Ġduplic":2152,"Ġdatabase":2153,"Ġpresent":2154,"Ġperhaps":2155,"times":2156,"Ġincre":2157,"gers":2158,"Ġyourself":2159,"Ġplat":2160,"Ġlogic":2161,"Ġll":2162,"Ġwhatever":2163,"eps":2164,"Ġ+":2165,"Ġoften":2166,"Ġvs":2167,"Ġinstru":2168,"chron":2169,"Ġmutate":2170,"Ġmessages":2171,"get":2172,"Ġscen":2173,"Ġexecute":2174,"Ġresponse":2175,"Ġcompare":2176,"Ġcur":2177,"sting":2178,"Ġexpand":2179,"ery":2180,"idd":2181,"Ġlearning":2182,"apter":2183,"Ġclean":2184,"Ġabst":2185,"Ġequal":2186,"Ġcomplains":2187,"Ġchoo":2188,"ired":2189,"Ġdereferen":2190,"Ġeval":2191,"Ġpermiss":2192,"Ġcontainer":2193,"Ġproduces":2194,"itions":2195,"Ġparalle":2196,"--":2197,"10":2198,"igned":2199,"Ġsequence":2200,"Ġevalu":2201,"Ġshouldn":2202,"Ġcpu":2203,"lex":2204,"Ġcomplic":2205,"fety":2206,"Ġsometimes":2207,"Ġapply":2208,"Ġtrack":2209,"Ġappre":2210,"Ġpers":2211,"Ġprints":2212,"Ġcallback":2213,"res":2214,"Ġexten":2215,"ush":2216,"key":2217,"Ġsample":2218,"ities":2219,"Ġtimestamp":2220,"Ġguarantee":2221,"Ġswitch":2222,"Ġrecurs":2223,"ssible":2224,"Ġarm":2225,"Ġincluding":2226,"Ġexecution":2227,"Ġsigned":2228,"iterator":2229,"Ġmedi":2230,"Ġnamed":2231,"Ġimmedi":2232,"Ġdiff":2233,"late":2234,"Ġtrick":2235,"Ġchild":2236,"awn":2237,"Ġindeed":2238,"Ġremoved":2239,"Ġhigh":2240,"rl":2241,"Ġfil":2242,"Ġalmost":2243,"Ġgenerally":2244,"Ġsaying":2245,"mut":2246,"Ġlow":2247,"chain":2248,"Ġsat":2249,"Ġproduce":2250,"ossible":2251,"Ġshare":2252,"point":2253,"Ġobviously":2254,"mpting":2255,"Ġph":2256,"isf":2257,"Ġsupposed":2258,"Ġminimal":2259,"Ġrelevant":2260,"ances":2261,"Ġ7":2262,"Ġobtain":2263,"ranch":2264,"ided":2265,"arily":2266,"Ġimpossible":2267,"86":2268,"Ġfinally":2269,"Ġdereference":2270,"Ġattempting":2271,"utor":2272,"tic":2273,"pm":2274,"patch":2275,"Ġstar":2276,"Ġfutures":2277,"ived":2278,"Ġbranch":2279,"Ġintern":2280,"Ġgenerics":2281,"Ġstarted":2282,"Ġwords":2283,"Ġfre":2284,"Ġcame":2285,"Ġbrow":2286,"Ġalong":2287,"Ġgoal":2288,"Ġcopying":2289,"fi":2290,"Ġprimit":2291,"Ġdrop":2292,"Ġmodel":2293,"Ġvarious":2294,"ised":2295,"Ġhandling":2296,"Ġdepends":2297,"Ġmedium":2298,"Ġdra":2299,"utions":2300,"Ġbehind":2301,"Ġrow":2302,"Ġpiece":2303,"Ġconfigure":2304,"otent":2305,"Ġfolder":2306,"Ġdomain":2307,"Ġspawn":2308,"Ġextract":2309,"Ġsite":2310,"Ġsatisf":2311,"utorial":2312,"htt":2313,"Ġintegers":2314,"Ġunique":2315,"Ġnames":2316,"Ġcollect":2317,"Ġposition":2318,"Ġtrouble":2319,"Ġparts":2320,"ww":2321,"Ġkeystore":2322,"Ġmeaning":2323,"Ġauthor":2324,"Ġauthent":2325,"Ġessent":2326,"Ġcauses":2327,"Ġcap":2328,"db":2329,"Ġmember":2330,"sed":2331,"Ġhy":2332,"Ġignore":2333,"Ġllvm":2334,"uss":2335,"Ġutf":2336,"Ġnone":2337,"ication":2338,"Ġundefined":2339,"wra":2340,"Ġspe":2341,"Ġpurpose":2342,"Ġrepe":2343,"cert":2344,"lin":2345,"string":2346,"Ġsomewhere":2347,"Ġmyself":2348,"Ġplan":2349,"Ġconstructor":2350,"write":2351,"Ġ6":2352,"Ġffi":2353,"Ġcopied":2354,"Ġperf":2355,"Ġdem":2356,"11":2357,"here":2358,"Ġimpro":2359,"Ġbehaviour":2360,"Ġfunctor":2361,"Ġvariants":2362,"cc":2363,"Ġdele":2364,"Ġrepla":2365,"Ġwait":2366,"Ġpair":2367,"Ġimmediately":2368,"ural":2369,"Ġanswers":2370,"Ġcomplicated":2371,"Ġpotent":2372,"see":2373,"lied":2374,"Ġmodules":2375,"Ġparallel":2376,"Ġstarting":2377,"Ġandroid":2378,"security":2379,"Ġchecks":2380,"Ġbench":2381,"Ġperfect":2382,"Ġfully":2383,"conf":2384,"ople":2385,"Ġbreak":2386,"^^":2387,"ens":2388,"box":2389,"struct":2390,"Ġnested":2391,"Ġsolutions":2392,"Ġdeclared":2393,"Ġfinal":2394,"Ġnet":2395,"Ġfailed":2396,"Ġtech":2397,"ources":2398,")?":2399,"201":2400,"Ġpeople":2401,"Ġessentially":2402,"py":2403,"Ġshown":2404,"Ġupdated":2405,"pend":2406,"Ġdispatch":2407,"Ġoutlive":2408,"value":2409,"Ġtutorial":2410,"Ġinc":2411,"icro":2412,"ides":2413,"Ġboxed":2414,"Ġexplan":2415,"over":2416,"Ġstra":2417,"Ġcontin":2418,"ifier":2419,"Ġtwice":2420,"Ġhashmap":2421,"Ġ64":2422,"thrust":2423,"16":2424,"yle":2425,"Ġdig":2426,"Ġconfused":2427,"Ġinstant":2428,"Ġsetup":2429,"Ġbits":2430,"Ġstructures":2431,"==":2432,"Ġsemantics":2433,"Ġstri":2434,"Ġthird":2435,"Ġprop":2436,"Ġsolved":2437,"cker":2438,"Ġchoose":2439,"Ġgame":2440,"Ġmanage":2441,"Ġremain":2442,"Ġaware":2443,"Ġaccepts":2444,"Ġfaster":2445,"mem":2446,"aking":2447,"Ġop":2448,"Ġcompon":2449,"Ġsimplified":2450,"Ġwondering":2451,"Ġassuming":2452,"Ġsimpler":2453,"Ġcache":2454,"Ġtpm":2455,"Ġurl":2456,"ote":2457,"ash":2458,"Ġaccomp":2459,"aster":2460,"Ġsized":2461,"Ġmon":2462,"ascript":2463,"Ġchapter":2464,"Ġtells":2465,"Ġbecomes":2466,"Ġdeclaration":2467,"Ġcorresponding":2468,"Ġ32":2469,"Ġfore":2470,"Ġstraight":2471,"Ġunc":2472,"wards":2473,"Ġcost":2474,"50":2475,"Ġplu":2476,"Ġcla":2477,"Ġquick":2478,"Ġreasons":2479,"Ġintegr":2480,"hand":2481,"ulate":2482,"umn":2483,"Ġdynamically":2484,"this":2485,"Ġunne":2486,"ef":2487,"Ġtesting":2488,"Ġreceive":2489,"Ġdescribed":2490,"Ġran":2491,"Ġdiscuss":2492,"what":2493,"Ġstuff":2494,"nc":2495,"Ġrule":2496,"Ġpossibly":2497,"Ġlives":2498,"Ġgithub":2499,"fficient":2500,"Ġcommun":2501,"Ġmis":2502,"Ġsocket":2503,"Ġselect":2504,"Ġsafety":2505,"Ġaccomplish":2506,"ison":2507,"Ġsuppose":2508,"Ġplatform":2509,"Ġhence":2510,"Ġask":2511,"Ġoverflow":2512,"Ġreport":2513,"Ġprin":2514,"imum":2515,"Ġfloat":2516,"Ġbenchm":2517,"Ġparsing":2518,"Ġends":2519,"Ġregular":2520,"omic":2521,"Ġjavascript":2522,"dd":2523,"ood":2524,"Ġiterating":2525,"Ġcross":2526,"atible":2527,"Ġpush":2528,"Ġ().":2529,"osit":2530,"Ġguide":2531,"Ġexplanation":2532,"Ġseg":2533,"Ġresulting":2534,"Ġdescript":2535,"Ġsuggested":2536,"Ġbase":2537,"Ġparser":2538,"Ġunable":2539,"Ġreprodu":2540,"Ġgoogle":2541,"Ġbrowser":2542,"master":2543,"Ġdirect":2544,"Ġquery":2545,"ization":2546,"Ġencod":2547,"Ġfrust":2548,"icult":2549,"Ġslightly":2550,"ma":2551,"Ġoverhead":2552,"Ġentry":2553,"Ġdifficult":2554,"Ġcho":2555,"Ġknows":2556,"Ġ9":2557,"Ġinstanti":2558,"Ġcra":2559,"Ġdocker":2560,"Ġlooked":2561,"Ġhappening":2562,"ys":2563,"sole":2564,"Ġcolumn":2565,"ification":2566,"Ġsymb":2567,"udio":2568,"ged":2569,"view":2570,"Ġblocks":2571,"cise":2572,"know":2573,"Ġcore":2574,"Ġsuccessfully":2575,"Ġmoment":2576,"Ġinitial":2577,"ath":2578,"Ġtot":2579,"Ġinterested":2580,"pecially":2581,"Ġindices":2582,"20":2583,"Ġwish":2584,"Ġasking":2585,"Ġconven":2586,"Ġgraph":2587,"Ġfilter":2588,"tr":2589,"Ġunstable":2590,"Ġguaranteed":2591,"Ġresolve":2592,"Ġrecursive":2593,"Ġarch":2594,"Ġexpressions":2595,"Ġmodified":2596,"init":2597,"Ġscenari":2598,"Ġones":2599,"ping":2600,"Ġ*":2601,"forms":2602,"Ġmutably":2603,"ceed":2604,"Ġshor":2605,"Ġaccount":2606,"Ġwebs":2607,"pes":2608,"Ġmind":2609,"Ġstates":2610,"Ġdisplay":2611,"config":2612,"Ġexpects":2613,"Ġimag":2614,"Ġwindow":2615,"Ġinitialize":2616,"check":2617,"Ġlate":2618,"Ġunit":2619,"000":2620,"Ġinterpre":2621,"borrow":2622,"ying":2623,"vector":2624,"amb":2625,"known":2626,"Ġchun":2627,"Ġstoring":2628,"chronous":2629,"oses":2630,"system":2631,"Ġmatches":2632,"Ġindic":2633,"Ġentirely":2634,"Ġfair":2635,"ception":2636,"Ġpatterns":2637,"level":2638,"Ġsave":2639,"Ġdestro":2640,"Ġplugin":2641,"urpr":2642,"Ġmax":2643,"Ġamount":2644,"Ġtransform":2645,"Ġpractice":2646,"my":2647,"Ġsql":2648,"server":2649,"Ġenums":2650,"Ġhigher":2651,"Ġextension":2652,"ily":2653,"Ġpassword":2654,"Ġreposit":2655,"Ġsupported":2656,"Ġexecuted":2657,"Ġcloning":2658,"Ġrout":2659,"Ġnull":2660,"Ġsteps":2661,"thers":2662,"igu":2663,"soft":2664,"Ġheader":2665,"Ġcomparison":2666,"Ġdouble":2667,"Ġintended":2668,"Ġchecked":2669,"Ġstatements":2670,"Ġfinish":2671,"Ġothers":2672,"utes":2673,"inter":2674,"Ġbra":2675,"Ġstatically":2676,"from":2677,"ferences":2678,"ĠĠĠĠĠĠĠĠĠĠĠĠĠĠĠĠ":2679,"Ġstuck":2680,"Ġextend":2681,"Ġinfo":2682,"mod":2683,"Ġrequirement":2684,"Ġverify":2685,"manag":2686,"Ġgiving":2687,"Ġappreciated":2688,"Ġowns":2689,"sidered":2690,"Ġhandler":2691,"ibility":2692,"but":2693,"Ġsrc":2694,"vers":2695,"Ġclearly":2696,"Ġanal":2697,"Ġintermedi":2698,"Ġnotice":2699,"Ġideas":2700,"Ġrelative":2701,"Ġsurpr":2702,"itive":2703,"Ġthinking":2704,"Ġsmart":2705,"gen":2706,"Ġdesired":2707,"Ġpointed":2708,"Ġespecially":2709,"Ġstorage":2710,"56":2711,"Ġdies":2712,"Ġfollowed":2713,"Ġconverting":2714,"Ġmanaged":2715,"Ġsk":2716,"Ġconsidered":2717,"Ġlu":2718,"Ġshad":2719,"ariant":2720,"Ġsent":2721,"col":2722,"Ġgenerates":2723,"Ġrespect":2724,"odes":2725,"Ġinstances":2726,"Ġtag":2727,"irt":2728,"Ġconsist":2729,"cli":2730,".,":2731,"Ġtriv":2732,"data":2733,"Ġoccurs":2734,"verse":2735,"und":2736,"src":2737,"Ġear":2738,"fun":2739,"Ġproperty":2740,"zone":2741,"Ġsch":2742,"Ġpi":2743,"Ġincludes":2744,"Ġsettings":2745,"Ġnetwork":2746,"ident":2747,"Ġlimited":2748,"orph":2749,"Ġprot":2750,"Ġcontained":2751,"Ġcoup":2752,"outer":2753,"Ġms":2754,"Ġsuper":2755,"Ġdemon":2756,"sions":2757,"Ġer":2758,"Ġoptional":2759,"Ġstop":2760,"Ġanymore":2761,"Ġsupports":2762,"Ġprimitive":2763,"Ġsound":2764,"pr":2765,"Ġter":2766,"Ġmembers":2767,"Ġimplicitly":2768,"Ġrepository":2769,"Ġfrustum":2770,"Ġdemonstr":2771,"ins":2772,"Ġtries":2773,"Ġalternatively":2774,"Ġrestrict":2775,"Ġencrypt":2776,"Ġnormally":2777,"Ġlets":2778,"Ġindire":2779,"solute":2780,"Ġgroup":2781,"Ġlayout":2782,"24":2783,"Ġtools":2784,"Ġwrapping":2785,"sequ":2786,"Ġstyle":2787,"thread":2788,"Ġconsole":2789,"Ġreads":2790,"Ġremoving":2791,"det":2792,"Ġabsolute":2793,"ivid":2794,"Ġaccessing":2795,"Ġlaunch":2796,"Ġplaces":2797,"Ġconfusing":2798,"creen":2799,"Ġinstructions":2800,"Ġhyper":2801,"icrosoft":2802,"Ġshorter":2803,"cr":2804,"mer":2805,"Ġvisual":2806,"Ġtal":2807,"rustify":2808,"Ġholds":2809,"Ġtoolchain":2810,"Ġcoerc":2811,"icial":2812,"Ġrequirements":2813,"Ġdefining":2814,"Ġrepresentation":2815,"Ġintermediate":2816,"ties":2817,"Ġalign":2818,"Ġlaz":2819,"Ġnative":2820,"ffect":2821,"dk":2822,"gener":2823,"Ġtransfer":2824,"Ġconcer":2825,"Ġ`":2826,"Ġsum":2827,"Ġwasm":2828,"Ġincorre":2829,"Ġimagine":2830,"mental":2831,"comm":2832,"Ġtermin":2833,"Ġunnecessary":2834,"fix":2835,"âĶ":2836,"itely":2837,"arger":2838,"Ġreduce":2839,"Ġdestroy":2840,"Ġsomewhat":2841,"Ġturns":2842,"Ġunsized":2843,"body":2844,"lated":2845,"ref":2846,"test":2847,"Ġadvance":2848,"ded":2849,"opt":2850,"Ġproced":2851,"Ġactix":2852,"iest":2853,"Ġcopies":2854,"Ġworth":2855,"Ġderive":2856,"ising":2857,"allocated":2858,"Ġperfectly":2859,"04":2860,"wind":2861,"ym":2862,"Ġlarger":2863,"version":2864,"Ġneither":2865,"Ġencount":2866,"mode":2867,"Ġwebsite":2868,"Ġfairly":2869,"vices":2870,"Ġdri":2871,"Ġexit":2872,"Ġcompute":2873,"Ġwhenever":2874,"Ġmutex":2875,"writ":2876,"detail":2877,"ode":2878,"Ġdraw":2879,"Ġhint":2880,"iling":2881,"trait":2882,"arently":2883,"99":2884,"Ġmaint":2885,"Ġunwra":2886,"forward":2887,"clus":2888,"Ġbindings":2889,"lict":2890,"Ġdetermine":2891,"Ġcouple":2892,"15":2893,"Ġreach":2894,"Ġtrig":2895,"Ġtaken":2896,"Ġsyn":2897,"Ġdiesel":2898,"?)":2899,"Ġinference":2900,"Ġreco":2901,"Ġpointing":2902,"ialized":2903,"Ġenabled":2904,"Ġinteresting":2905,"Ġopp":2906,"Ġterminal":2907,"irtual":2908,"Ġbro":2909,"ook":2910,"build":2911,"Ġlatest":2912,"gl":2913,"ior":2914,"Ġmag":2915,"Ġ->":2916,"Ġassignment":2917,"Ġemb":2918,"Ġstores":2919,"Ġrequests":2920,"Ġpossibility":2921,"Ġclic":2922,"Ġnodes":2923,"Ġtasks":2924,"Ġanywhere":2925,"Ġretri":2926,"Ġnumer":2927,"Ġeasiest":2928,"Ġouter":2929,"Ġgit":2930,"Ġincluded":2931,"Ġyields":2932,"only":2933,"ifies":2934,"Ġdeserialize":2935,"Ġchoice":2936,"gant":2937,"Ġunre":2938,"Ġscenario":2939,"Ġtuples":2940,"Ġocc":2941,"Ġliterals":2942,"ismatch":2943,"Ġterms":2944,"jav":2945,"static":2946,"gex":2947,"Ġwants":2948,"Ġpanics":2949,"iddle":2950,"gist":2951,"std":2952,"itect":2953,"Ġadvant":2954,"Ġverb":2955,"Ġdecide":2956,"Ġauthentication":2957,"Ġguard":2958,"Ġduplicate":2959,"iler":2960,"Ġintent":2961,"Ġsimplest":2962,"debug":2963,"Ġforce":2964,"Ġsafely":2965,"Ġoccur":2966,"docs":2967,"manager":2968,"Ġug":2969,"Ġstudio":2970,"Ġsmaller":2971,"Ġeffectively":2972,"Ġimprove":2973,"Ġasked":2974,"Ġmech":2975,"exp":2976,"Ġguarantees":2977,"Ġmechan":2978,"14":2979,"just":2980,"pace":2981,"cessarily":2982,"Ġfam":2983,"ik":2984,"lean":2985,"Ġpast":2986,"Ġpop":2987,"Ġjo":2988,"Ġexport":2989,"Ġintroduce":2990,"Ġthank":2991,"Ġactiv":2992,"Ġdereferencing":2993,"ness":2994,"Ġpow":2995,"Ġprograms":2996,"Ġconflict":2997,"Ġfailure":2998,"Ġideally":2999,"Ġlatter":3000,"Ġsoon":3001,"member":3002,"Ġembed":3003,"Ġdisable":3004,"Ġspecifying":3005,"Ġconcern":3006,"ts":3007,"formed":3008,"Ġconverted":3009,"Ġstarts":3010,"Ġtrivial":3011,"Ġdistin":3012,"Ġmaintain":3013,"Ġmoves":3014,"Ġapparently":3015,"Ġ100":3016,"Ġbackground":3017,"Ġprocessing":3018,"Ġindivid":3019,"Ġcrash":3020,"imp":3021,"Ġmismatch":3022,"Ġstru":3023,"loc":3024,"Ġunlike":3025,"cargo":3026,"gg":3027,"Ġmeant":3028,"Ġjob":3029,"Ġscreen":3030,"add":3031,"Ġdefines":3032,"Ġinvoke":3033,"Ġregarding":3034,"Ġpotentially":3035,"Ġarchitect":3036,"ool":3037,"Ġappend":3038,"text":3039,"Ġabstract":3040,"Ġperson":3041,"iced":3042,"++,":3043,"Ġputting":3044,"Ġaw":3045,"Ġpull":3046,"ites":3047,"Ġcy":3048,"Ġlamb":3049,"Ġye":3050,"Ġadds":3051,"based":3052,"iver":3053,"ses":3054,"stream":3055,"Ġdecided":3056,"ton":3057,"Ġcommands":3058,"aut":3059,"Ġregex":3060,"Ġcoming":3061,"Ġregister":3062,"af":3063,"ped":3064,"inst":3065,"Ġleave":3066,"Ġ16":3067,"Ġinvoc":3068,"Ġuncrustify":3069,"Ġugly":3070,"bin":3071,"Ġbunch":3072,"irc":3073,"Ġorigin":3074,"ĠâĢľ":3075,"case":3076,"Ġstrong":3077,"Ġir":3078,"Ġmist":3079,"ars":3080,"Ġfill":3081,"ential":3082,"Ġbuilds":3083,"Ġdetect":3084,"Ġframework":3085,"cp":3086,"you":3087,"socket":3088,"Ġhelps":3089,"Ġapplications":3090,"Ġproperties":3091,"Ġstrange":3092,"Ġconsumes":3093,"spect":3094,"Ġ(),":3095,"Ġnear":3096,"Ġsuggestions":3097,"Ġpermission":3098,"rupt":3099,"that":3100,"assembly":3101,"erring":3102,"Ġenfor":3103,"ries":3104,"Ġloops":3105,"mitted":3106,"vents":3107,"exa":3108,"Ġmostly":3109,"Ġarchitecture":3110,"icode":3111,"Ġsto":3112,"iving":3113,"Ġassert":3114,"Ġofficial":3115,"Ġsoft":3116,"Ġconvent":3117,"Ġwasn":3118,"link":3119,"lication":3120,"Ġexpecting":3121,"Ġrepresents":3122,"Ġbeginning":3123,"http":3124,"Ġdifferences":3125,"graph":3126,"Ġdirection":3127,"onym":3128,"Ġremember":3129,"Ġcry":3130,"âĢĿ":3131,"Ġsuggests":3132,"19":3133,"part":3134,"Ġproto":3135,"Ġhelpful":3136,"Ġindexing":3137,"30":3138,"Ġem":3139,"Ġvirtual":3140,"Ġtested":3141,"Ġauto":3142,"Ġwrapped":3143,"Ġclar":3144,"Ġconstants":3145,"28":3146,"des":3147,"Ġability":3148,"Ġactive":3149,"ency":3150,"stems":3151,"imen":3152,"Ġallocations":3153,"Ġtre":3154,"Ġbar":3155,"Ġdang":3156,"Ġpick":3157,"Ġnoticed":3158,"Ġapplied":3159,"Ġconstraints":3160,"Ġdate":3161,"Ġrid":3162,"Ġowner":3163,"Ġidentifier":3164,"Ġreader":3165,"Ġabstra":3166,"ug":3167,"Ġbl":3168,"Ġupon":3169,"Ġblocking":3170,"Ġinfin":3171,"gal":3172,"Ġcausing":3173,"Ġelegant":3174,"Ġsending":3175,"Ġtemplate":3176,"Ġrecently":3177,"Ġspeed":3178,"licy":3179,"Ġapplies":3180,"Ġopenssl":3181,"Ġoffset":3182,"Ġsearching":3183,"onymous":3184,"\":":3185,"spec":3186,"Ġfn":3187,"Ġinher":3188,"ili":3189,"Ġpasses":3190,"can":3191,"path":3192,"Ġresource":3193,"Ġended":3194,"ront":3195,"space":3196,"13":3197,"Ġleav":3198,"Ġoutputs":3199,"Ġadditionally":3200,"apt":3201,"Ġreferenced":3202,"note":3203,"abil":3204,"Ġfigured":3205,"Ġleads":3206,"Ġcar":3207,"Ġfit":3208,"Ġmet":3209,"Ġmeas":3210,"Ġallowing":3211,"Ġasynchronous":3212,"Ġbenef":3213,"Ġinferred":3214,"Ġdevelopment":3215,"cuda":3216,"Ġattributes":3217,"mera":3218,"og":3219,"rec":3220,"Ġwin":3221,"Ġpermissions":3222,"json":3223,"Ġsuspect":3224,"Ġtrustzone":3225,"Ġlinker":3226,"Ġinitialized":3227,"Ġcertainly":3228,"Ġoptimization":3229,"Ġmarked":3230,"Ġflex":3231,"Ġ20":3232,"Ġcrypt":3233,"xy":3234,"reference":3235,"Ġwhose":3236,"device":3237,"Ġdebugging":3238,"Ġinternally":3239,"Ġmulti":3240,"Ġidentical":3241,"Ġsituations":3242,"Ġsoftware":3243,"Ġshell":3244,"Ġpres":3245,"Ġdefinitely":3246,"Ġrefers":3247,"Ġnat":3248,"Ġcompatible":3249,"Ġassigned":3250,"Ġcasting":3251,"Ġenter":3252,"Ġdestructor":3253,"34":3254,"day":3255,"Ġaffect":3256,"Ġstat":3257,"Ġexer":3258,"Ġartic":3259,"Ġprevents":3260,"Ġlinking":3261,"Ġinterior":3262,"Ġprocedural":3263,"Ġdll":3264,"because":3265,"acity":3266,"Ġ|":3267,"Ġmiddle":3268,"Ġweird":3269,"Ġcounter":3270,"Ġthrows":3271,"ledge":3272,"Ġcalculate":3273,"ensive":3274,"client":3275,"Ġalignment":3276,"ection":3277,"gres":3278,"Ġ:)":3279,"Ġpartial":3280,"Ġlinks":3281,"Ġcomputer":3282,"Ġluck":3283,"27":3284,"lt":3285,"umpt":3286,"oring":3287,"Ġpoly":3288,"Ġsystems":3289,"Ġmanip":3290,"Ġmodifying":3291,"iguous":3292,":\\":3293,"vered":3294,"Ġresources":3295,"Ġpred":3296,"Ġreplaced":3297,"Ġstraightforward":3298,"ian":3299,"Ġrecur":3300,"Ġeventually":3301,"Ġslower":3302,"vc":3303,"ificant":3304,"Ġoverload":3305,"Ġprinting":3306,"orm":3307,"Ġneg":3308,"Ġallocating":3309,"Ġpaths":3310,"Ġfloating":3311,"Ġlazy":3312,"26":3313,"Ġill":3314,"Ġhit":3315,"als":3316,"Ġpool":3317,"Ġindepend":3318,"Ġine":3319,"new":3320,"Ġsignatures":3321,"Ġderef":3322,"Ġ!":3323,"Ġonto":3324,"Ġsha":3325,"Ġcamera":3326,"Ġunknown":3327,"api":3328,"Ġrelations":3329,"Ġsorting":3330,"Ġflags":3331,"Ġannotations":3332,"Ġadvantage":3333,"Ġverbose":3334,"ises":3335,"Ġjs":3336,"Ġgenerator":3337,"Ġsets":3338,"Ġfailing":3339,"Ġboolean":3340,"Ġexplains":3341,"idden":3342,"Ġbenchmark":3343,"cs":3344,"Ġhal":3345,"Ġnecessarily":3346,"Ġcompared":3347,"Ġfeels":3348,"Ġexperience":3349,"Ġindirection":3350,"array":3351,"under":3352,"Ġprogrammer":3353,"Ġcontinue":3354,"Ġanonymous":3355,"Ġwhereas":3356,"Ġna":3357,"Ġforward":3358,"Ġproviding":3359,"Ġrocket":3360,"Ġconvenient":3361,"Ġgl":3362,"Ġhack":3363,"kell":3364,"Ġdesigned":3365,"lves":3366,"ond":3367,"Ġprom":3368,"Ġcaused":3369,"Ġseeing":3370,"core":3371,"Ġpla":3372,"Ġhappy":3373,"Ġtelling":3374,"Ġcoercion":3375,"ome":3376,"Ġmer":3377,"copy":3378,"Ġlower":3379,"ams":3380,"Ġcatch":3381,"Ġindicate":3382,"Ġpublish":3383,"Ġoptimizations":3384,"Ġden":3385,"Ġeli":3386,"Ġadapt":3387,"cast":3388,"Ġnom":3389,"Ġcyc":3390,"Ġfunda":3391,"Ġsuggestion":3392,"Ġoptimized":3393,"Ġinvolved":3394,"dom":3395,"Ġwid":3396,"iple":3397,"ĠĠĠĠĠ":3398,"Ġaccepted":3399,"Ġaliasing":3400,"Ġcirc":3401,"Ġsuit":3402,"Ġknowledge":3403,"ordin":3404,"Ġrepresented":3405,"âĶĢ":3406,"Ġmechanism":3407,"/?":3408,"vis":3409,"Ġtreat":3410,"lection":3411,"Ġlack":3412,"Ġinstallation":3413,"Ġpurposes":3414,"Ġdestroyed":3415,"ines":3416,"Ġasp":3417,"some":3418,"gram":3419,"Ġproduct":3420,"iliar":3421,"17":3422,"bind":3423,"Ġfall":3424,"Ġgcc":3425,"Ġsorted":3426,"Ġcapacity":3427,"Ġcomponent":3428,"Ġ{":3429,"Ġdb":3430,"Ġinline":3431,"Ġmapping":3432,"Ġunicode":3433,"Ġdifferently":3434,"Ġsignificant":3435,"cii":3436,"Ġoperators":3437,"Ġexplained":3438,"Ġcombination":3439,"Ġincorrect":3440,".\"":3441,"df":3442,"Ġht":3443,"Ġoverl":3444,"imer":3445,"Ġinitialization":3446,"Ġdescription":3447,"Ġinherit":3448,"sql":3449,"incl":3450,"Ġhaskell":3451,"Ġgenerating":3452,"Ġplain":3453,"Ġprior":3454,"Ġinternet":3455,"Ġstrugg":3456,"do":3457,"eous":3458,"Ġhelper":3459,"Ġaddresses":3460,"Ġattempts":3461,"Ġcombine":3462,"Ġreplacing":3463,"fa":3464,"pected":3465,"23":3466,"25":3467,"ier":3468,"Ġdiv":3469,"Ġmix":3470,"Ġreuse":3471,"epmaster":3472,"Ġsatisfy":3473,"www":3474,"example":3475,"call":3476,"fo":3477,"js":3478,"ols":3479,"Ġtypically":3480,"Ġrealize":3481,"Ġrecommended":3482,"action":3483,"dr":3484,"jor":3485,"rome":3486,"dered":3487,"Ġobser":3488,"Ġwarnings":3489,"Ġannotation":3490,"Ġmaximum":3491,"Ġmagic":3492,"Ġfront":3493,"Ġpure":3494,"Ġatomic":3495,"Ġdefinitions":3496,"Ġallocator":3497,"Ġsimplify":3498,"Ġtechn":3499,"Ġrelationship":3500,"Ġtcp":3501,"Ġadvice":3502,"Ġlists":3503,"Ġrecogn":3504,"pack":3505,"yond":3506,"Ġhu":3507,"Ġ(,":3508,"Ġmanual":3509,"Ġkinds":3510,"Ġtokens":3511,"Ġinvariant":3512,"Ġclick":3513,"ster":3514,"Ġrender":3515,"Ġvio":3516,"ters":3517,"Ġdealing":3518,"aks":3519,"ump":3520,"Ġcell":3521,"Ġrewrite":3522,"ithme":3523,"loy":3524,"Ġadmin":3525,"imately":3526,"Ġcommit":3527,"Ġeditor":3528,"Ġreceived":3529,"iring":3530,"Ġprefix":3531,"Ġinvocation":3532,"Ġmine":3533,"Ġbeyond":3534,"Ġdeprec":3535,"Ġsigning":3536,"Ġhtml":3537,"Ġentries":3538,"Ġlots":3539,"Ġcloned":3540,"Ġconfigured":3541,"Ġrepeated":3542,"modu":3543,"java":3544,"aw":3545,"cy":3546,"Ġcor":3547,"permiss":3548,"context":3549,"Ġattach":3550,"Ġprotect":3551,"Ġche":3552,"Ġmath":3553,"Ġsaw":3554,"Ġhandles":3555,"Ġprinted":3556,"Ġkeeping":3557,"Ġfreed":3558,"Ġlambda":3559,"Ġarticle":3560,"morph":3561,"Ġded":3562,"Ġsumm":3563,"Ġseconds":3564,"ciate":3565,"ĠâĢĵ":3566,"Ġmeasure":3567,"let":3568,"run":3569,"Ġcoordin":3570,"block":3571,"Ġsav":3572,"Ġhoping":3573,"Ġlimitation":3574,"ithmetic":3575,"33":3576,"expected":3577,"Ġconsuming":3578,"18":3579,"actor":3580,"jection":3581,"Ġgt":3582,"Ġlex":3583,"Ġfinding":3584,"Ġoperating":3585,"Ġformatting":3586,"process":3587,"Ġcomponents":3588,"Ġencoding":3589,"Ġdistinct":3590,"cer":3591,"arb":3592,"Ġreceiver":3593,"lank":3594,"Ġnumeric":3595,"Ġlife":3596,"exception":3597,"Ġwrites":3598,"Ġapproaches":3599,"Ġesca":3600,"Ġconditional":3601,"domain":3602,"pass":3603,"sized":3604,"list":3605,"Ġtyped":3606,"Ġremote":3607,"Ġboot":3608,"Ġvisible":3609,"ifiers":3610,"Ġconcepts":3611,"Ġstruggling":3612,"selves":3613,"Ġrough":3614,"queue":3615,"Ġthemselves":3616,"ĠĠĠĠĠĠ":3617,"Ġattempted":3618,"Ġloaded":3619,"Ġstdout":3620,"Ġalgorithms":3621,"object":3622,"Ġworry":3623,"Ġstdin":3624,"Ġincrement":3625,"initialized":3626,"signed":3627,"Ġcub":3628,"aring":3629,"Ġascii":3630,"Ġunused":3631,"Ġelision":3632,"Ġconcurrent":3633,"^^^^":3634,"Ġindividual":3635,"Ġconvention":3636,"Ġpolymorph":3637,"hell":3638,"Ġtl":3639,"order":3640,"any":3641,"Ġreverse":3642,"search":3643,"Ġhandled":3644,"Ġexecuting":3645,"Ġindicates":3646,"Ġrecursion":3647,"light":3648,"stood":3649,"Ġest":3650,"ride":3651,"Ġassumpt":3652,"Ġprojects":3653,"clusive":3654,"ura":3655,"Ġ~":3656,"Ġblog":3657,"Ġsubst":3658,"Ġtotal":3659,"Ġunwrap":3660,"Ġpower":3661,"Ġfour":3662,"ift":3663,"Ġokay":3664,");":3665,"table":3666,"Ġfoo":3667,"Ġmicrosoft":3668,"Ġeng":3669,"Ġspecializ":3670,"function":3671,"Ġretrieve":3672,"count":3673,"gress":3674,"Ġ>":3675,"Ġarithmetic":3676,"Ġ2018":3677,"Ġregardless":3678,"Ġdiscussion":3679,"Ġsounds":3680,"Ġund":3681,"Ġexplo":3682,"Ġinstruction":3683,"Ġclause":3684,"Ġsegment":3685,"Ġio":3686,"Ġbr":3687,"Ġblank":3688,"Ġrustup":3689,"Ġexpose":3690,"Ġcreation":3691,"Ġsizes":3692,"Ġoptimize":3693,"====":3694,"509":3695,"allow":3696,"ateg":3697,"ands":3698,"Ġtook":3699,"Ġimported":3700,"Ġimmut":3701,"Ġsucceed":3702,"Ġmanager":3703,"2018":3704,"local":3705,"Ġinfinite":3706,"ntu":3707,"Ġgrow":3708,"ifest":3709,"ustr":3710,"Ġexpensive":3711,"ixel":3712,"Ġsymbols":3713,"Ġdeprecated":3714,"Ġip":3715,"Ġconfir":3716,"Ġserialization":3717,"Ġtotally":3718,"Ġembedded":3719,"cut":3720,"gon":3721,"method":3722,"Ġult":3723,"Ġalive":3724,"Ġleak":3725,"Ġprecise":3726,"Ġoverride":3727,"Ġaccessed":3728,"Ġreasonable":3729,"Ġlocally":3730,"Ġedition":3731,"Ġsyntact":3732,"Ġskip":3733,"Ġillustr":3734,"Ġq":3735,"Ġnic":3736,"Ġstre":3737,"Ġpostgres":3738,"Ġtrigger":3739,"Ġoccurre":3740,"Ġjoin":3741,"Ġstatus":3742,"arbage":3743,"Ġpin":3744,"Ġdev":3745,"Ġchunks":3746,"Ġfamiliar":3747,"down":3748,"na":3749,"Ġpolicy":3750,"Ġreferencing":3751,"Ġbuilder":3752,"Ġquot":3753,"Ġmisunder":3754,"specific":3755,"Ġexercise":3756,"29":3757,"cf":3758,"ds":3759,"reme":3760,"lier":3761,"Ġwebassembly":3762,"Ġconcat":3763,"Ġintroduced":3764,"https":3765,"Ġrelatively":3766,"Ġtoday":3767,"Ġmutating":3768,"standing":3769,"Ġplaypen":3770,"Ġeverywhere":3771,"Ġcomputation":3772,"Ġpreviously":3773,"Ġabsolutely":3774,"Ġactivity":3775,"Ġprotocol":3776,"he":3777,"Ġbring":3778,"Ġaccessible":3779,"Ġinterrupt":3780,"Ġrecord":3781,"âĶĢâĶĢ":3782,"has":3783,"Ġknowing":3784,"Ġqual":3785,"Ġhardware":3786,"Ġidentity":3787,"Ġpreferred":3788,"Ġextreme":3789,"Ġrows":3790,"Ġhalf":3791,"cu":3792,"Ġsufficient":3793,"Ġbreaking":3794,"Ġshadow":3795,"Ġpipe":3796,"Ġelimin":3797,"ruction":3798,"Ġproxy":3799,"ulation":3800,"types":3801,"Ġclasses":3802,"Ġexperiment":3803,"Ġabstraction":3804,"Ġnegative":3805,"tw":3806,"Ġnewline":3807,"cons":3808,"Ġencountered":3809,"imension":3810,"such":3811,"Ġsources":3812,"Ġpay":3813,"Ġgarbage":3814,"cont":3815,"issues":3816,"Ġopengl":3817,"trusted":3818,"Ġcaptured":3819,"----":3820,"blob":3821,"Ġie":3822,"ptr":3823,"place":3824,"Ġbinaries":3825,"Ġminimum":3826,"Ġcomplexity":3827,"ype":3828,"rely":3829,"Ġrely":3830,"arks":3831,"Ġdocumented":3832,"Ġhell":3833,"Ġcomplaining":3834,"Ġroute":3835,"08":3836,"cat":3837,"Ġprove":3838,"Ġdeclaring":3839,"Ġdeleg":3840,"overflow":3841,"Ġsymbol":3842,"Ġearly":3843,"ience":3844,"Ġws":3845,"Ġrepo":3846,"pective":3847,"exe":3848,"Ġolder":3849,"Ġmistake":3850,"long":3851,"Ġ<":3852,"alse":3853,"caps":3854,"Ġloading":3855,"oura":3856,"icated":3857,"seud":3858,"Ġdeep":3859,"Ġinteract":3860,"Ġinvolves":3861,"oth":3862,"Ġparsed":3863,"Ġunix":3864,"Ġsimilarly":3865,"Ġconverts":3866,"Ġinputs":3867,"Ġzip":3868,"Ġswap":3869,"Ġdistrib":3870,"Ġrepeat":3871,"ncy":3872,"\")":3873,"lates":3874,"Ġonline":3875,"Ġbackend":3876,"Ġprim":3877,"Ġomit":3878,"Ġusual":3879,"riend":3880,"usion":3881,"Ġtwa":3882,"Ġconnections":3883,"Ġclosest":3884,"Ġcrypto":3885,"Ġdi":3886,"edition":3887,"Ġnv":3888,"etch":3889,"Ġlost":3890,"Ġplaying":3891,"Ġprovider":3892,"Ġrole":3893,"Ġefficiently":3894,"Ġlayer":3895,"\"?":3896,"Ġ):":3897,"Ġodd":3898,"Ġmanner":3899,"Ġbottom":3900,"Ġafterwards":3901,"Ġflat":3902,"Ġdetermined":3903,"Ġhuge":3904,"36":3905,"ze":3906,"Ġqueue":3907,"Ġboiler":3908,"Ġinvoked":3909,"Ġassumes":3910,"Ġderived":3911,"Ġpotential":3912,"dis":3913,"Ġray":3914,"Ġencaps":3915,"izing":3916,"user":3917,"Ġsignal":3918,"Ġhopefully":3919,"Ġâ":3920,"Ġcs":3921,"icol":3922,"vec":3923,"Ġlookup":3924,"Ġrequiring":3925,"Ġendpoint":3926,"coming":3927,"Ġfinished":3928,"bound":3929,"Ġpixel":3930,"Ġubu":3931,"Ġworker":3932,"Ġreadable":3933,"Ġscal":3934,"Ġconsumed":3935,"windows":3936,"Ġindependent":3937,"Ġconcaten":3938,"Ġubuntu":3939,"secure":3940,"Ġchrome":3941,"Ġsuff":3942,"Ġplus":3943,"Ġconsidering":3944,"Ġregisters":3945,"Ġplane":3946,"Ġtechni":3947,"Ġchunk":3948,"Ġnaive":3949,".:":3950,"oub":3951,"ilities":3952,"Ġcontract":3953,"ablish":3954,"host":3955,"seudo":3956,"icolon":3957,"xml":3958,"itor":3959,"Ġgave":3960,"cos":3961,"Ġapis":3962,"Ġavoiding":3963,"Ġhosting":3964,"Ġsemicolon":3965,"Ġpairs":3966,"Ġdangling":3967,"book":3968,"anced":3969,"Ġdeli":3970,"Ġsubject":3971,"Ġordering":3972,"Ġproduced":3973,"Ġreceiving":3974,"Ġpacket":3975,"Ġextremely":3976,"since":3977,"Ġdum":3978,"Ġstabil":3979,"Ġmajor":3980,"comple":3981,"Ġdeploy":3982,"Ġformer":3983,"Ġdownloaded":3984,"nightly":3985,"Ġtold":3986,"plate":3987,"trace":3988,"Ġattack":3989,"Ġcurious":3990,"lation":3991,"Ġmutation":3992,"osen":3993,"Ġproduction":3994,"Ġreleased":3995,"Ġdelete":3996,"Ġmanagement":3997,"Ġprinc":3998,"Ġsuitable":3999,"Ġestablish":4000,"fl":4001,"gu":4002,"sible":4003,"~~":4004,"Ġfat":4005,"ller":4006,"Ġdisco":4007,"Ġsuccessful":4008,"Ġcommented":4009,"Ġopin":4010,"Ġultimately":4011,"size":4012,"Ġtit":4013,"ren":4014,"isation":4015,"Ġuninitialized":4016,"Ġkeeps":4017,"aming":4018,"Ġseparately":4019,"Ġintention":4020,"44":4021,"ok":4022,"Ġentity":4023,"pointer":4024,"Ġcounting":4025,"Ġcaptures":4026,"Ġappreciate":4027,"Ġwaiting":4028,"Ġdigit":4029,"Ġreproduce":4030,"open":4031,"Ġaction":4032,"Ġmac":4033,"oded":4034,"Ġdiffer":4035,"Ġevents":4036,"const":4037,"Ġideal":4038,"Ġcollections":4039,"Ġexpanded":4040,"Ġboilerplate":4041,"55":4042,"off":4043,"inde":4044,"Ġwent":4045,"Ġdoub":4046,"etime":4047,"Ġlig":4048,"Ġready":4049,"Ġserialize":4050,"Ġbenefit":4051,"Ġpredicate":4052,"Ġinefficient":4053,"Ġroughly":4054,"39":4055,"slic":4056,"Ġstated":4057,"Ġimplies":4058,"Ġreferring":4059,"Ġrefactor":4060,"Ġ=>":4061,"lexical":4062,"Ġsur":4063,"orry":4064,"Ġflow":4065,"Ġdead":4066,"Ġchosen":4067,"irect":4068,"Ġfeed":4069,"osite":4070,"compatible":4071,"Ġresolved":4072,"Ġsubstit":4073,"fs":4074,"sub":4075,"ingly":4076,"Ġprof":4077,"Ġdealloc":4078,"Ġtyping":4079,"aste":4080,"Ġfundamental":4081,"free":4082,"ences":4083,"Ġprompt":4084,"Ġusable":4085,"cla":4086,"Ġnamespace":4087,"Ġpackages":4088,"Ġconditions":4089,"Ġgrant":4090,"Ġbeginner":4091,"implement":4092,"Ġperforms":4093,"ression":4094,"Ġposted":4095,"Ġrestriction":4096,"Ġredund":4097,"linux":4098,"Ġopinion":4099,"Ġresearch":4100,"cell":4101,"Ġexclusive":4102,"igh":4103,"Ġneeding":4104,"Ġcred":4105,"Ġallocates":4106,"Ġinstalling":4107,"Ġstrateg":4108,"Ġdescribe":4109,"Ġtricky":4110,"Ġhighly":4111,"Ġprimitives":4112,"Ġintegration":4113,"Ġsurprising":4114,"Ġstops":4115,"Ġflexible":4116,"uted":4117,"Ġgre":4118,"Ġprogress":4119,"Ġpoll":4120,"Ġupload":4121,"Ġmatched":4122,"access":4123,"strate":4124,"Ġtopic":4125,"Ġcoerce":4126,"identally":4127,"pite":4128,"Ġduration":4129,"Ġhide":4130,"Ġcover":4131,"odb":4132,"Ġamb":4133,"ansion":4134,"Ġsubsequ":4135,"written":4136,"auth":4137,"nce":4138,"Ġvtable":4139,"Ġmacos":4140,"Ġcontra":4141,"Ġxml":4142,"Ġcomparing":4143,"Ġfloats":4144,"Ġhello":4145,"Ġfalse":4146,"stack":4147,"Ġforget":4148,"Ġ(\"":4149,"Ġintu":4150,"Ġfactor":4151,"Ġunderstood":4152,"Ġclosed":4153,"Ġrepet":4154,"Ġ200":4155,"without":4156,"Ġinvolve":4157,"Ġconvenience":4158,"Ġergon":4159,"Ġplaced":4160,"ele":4161,"pc":4162,"Ġadjust":4163,"Ġclients":4164,"Ġreduced":4165,"permission":4166,"Ġimmutably":4167,"40":4168,"lle":4169,"try":4170,"atives":4171,"Ġday":4172,"Ġnotes":4173,"ools":4174,"Ġdropping":4175,"Ġunsigned":4176,"Ġenforce":4177,"Ġtechnically":4178,"Ġstreams":4179,"35":4180,"tri":4181,"Ġreview":4182,"there":4183,"Ġtrailing":4184,"Ġchannels":4185,"Ġperspective":4186,"herent":4187,"Ġgtk":4188,"Ġspecialization":4189,"'.":4190,"bb":4191,"Ġdays":4192,"Ġps":4193,"adly":4194,"iding":4195,"Ġperformed":4196,"Ġbroken":4197,"38":4198,"Ġtab":4199,"Ġnewtype":4200,"Ġlinear":4201,"Ġconstructed":4202,"Ġturned":4203,"Ġrestrictions":4204,"Ġstrictly":4205,"Ġcommunicate":4206,"Ġbracket":4207,"apping":4208,"Ġtied":4209,"state":4210,"Ġpseudo":4211,"lly":4212,"Ġbutton":4213,"Ġexpansion":4214,"ache":4215,"Ġparty":4216,"Ġlisted":4217,"Ġscan":4218,"Ġinterpret":4219,"ned":4220,"su":4221,"Ġsorry":4222,"Ġrename":4223,"mphas":4224,"Ġissu":4225,"Ġdespite":4226,"Ġheaders":4227,"Ġpieces":4228,"ek":4229,"Ġbehave":4230,"Ġservers":4231,"Ġholding":4232,"Ġcomputing":4233,"Ġspawned":4234,"tric":4235,"Ġanno":4236,"Ġmaster":4237,"âĢĶ":4238,"Ġwebsocket":4239,"service":4240,"Ġassigning":4241,"Ġshowing":4242,"Ġequality":4243,"Ġauthority":4244,"Ġquickly":4245,"]:":4246,"bra":4247,"dn":4248,"ining":4249,"Ġhex":4250,"Ġbelong":4251,"Ġruby":4252,"tex":4253,"Ġpress":4254,"Ġoperate":4255,"Ġlocated":4256,"Ġvalidate":4257,"Ġprocesses":4258,"Ġguessing":4259,"Ġreduction":4260,"Ġearlier":4261,"Ġcoordinates":4262,"md":4263,"Ġfetch":4264,"Ġround":4265,"Ġupgra":4266,"Ġparticularly":4267,"Ġdeveloper":4268,"Ġdeserialization":4269,"Ġregistry":4270,"Ġevaluated":4271,"cision":4272,"move":4273,"Ġbus":4274,"Ġsugar":4275,"Ġfurthermore":4276,"Ġdiscard":4277,"77":4278,"olog":4279,"sort":4280,"change":4281,"Ġapps":4282,"Ġtypical":4283,"Ġmanifest":4284,"Ġhome":4285,"Ġproposed":4286,"Ġsynchron":4287,"Ġwhites":4288,"Ġge":4289,"Ġsolving":4290,"Ġapart":4291,"comment":4292,"Ġmissed":4293,"compile":4294,"Ġrecent":4295,"sys":4296,"Ġdereferenced":4297,"export":4298,"Ġyears":4299,"!)":4300,"az":4301,"bie":4302,"xception":4303,"lear":4304,"Ġpad":4305,"Ġhist":4306,"Ġuseless":4307,"idia":4308,"ending":4309,"Ġwraps":4310,"Ġrequested":4311,"Ġoutlives":4312,"boxed":4313,"Ġinstantiate":4314,"Ġleaving":4315,"Ġengine":4316,"tree":4317,"Ġtrace":4318,"Ġgeneration":4319,"Ġpreser":4320,"Ġtail":4321,"Ġservices":4322,"create":4323,"Ġreceives":4324,"Ġdestructuring":4325,"Ġfrequ":4326,"Ġremaining":4327,"nu":4328,"ouch":4329,"Ġlibc":4330,"Ġplayer":4331,"Ġrepresenting":4332,"Ġ[...":4333,"Ġencoded":4334,"Ġoriginally":4335,"09":4336,"norm":4337,"Ġiron":4338,"ancy":4339,"Ġvol":4340,"Ġweak":4341,"Ġworkspace":4342,"project":4343,"Ġgreatly":4344,"Ġcleaner":4345,"impl":4346,"after":4347,"module":4348,"fir":4349,"Ġren":4350,"Ġoffer":4351,"ulated":4352,"Ġshepmaster":4353,"Ġamong":4354,"Ġaccesses":4355,"uding":4356,"Ġsends":4357,"board":4358,"Ġintroducing":4359,"Ġtitle":4360,"03":4361,"source":4362,"rer":4363,"Ġemit":4364,"Ġgdb":4365,"Ġforb":4366,"Ġsees":4367,"umer":4368,"default":4369,"Ġleading":4370,"Ġcombinator":4371,"Ġreferred":4372,"hold":4373,"Ġplatforms":4374,"Ġforest":4375,"Ġblanket":4376,"Ġredundant":4377,"loo":4378,"Ġbes":4379,"Ġmill":4380,"isk":4381,"Ġsaml":4382,"Ġhappened":4383,"Ġheav":4384,"Ġannotate":4385,"Ġpropag":4386,"Ġrespectively":4387,"Ġopposite":4388,"Ġcent":4389,"Ġbare":4390,"Ġinherent":4391,"Ġencode":4392,"Ġabi":4393,"Ġperforming":4394,"Ġprocessor":4395,"Ġdistance":4396,"Ġ2015":4397,"Ġcombinations":4398,"Ġincrease":4399,"ysis":4400,"Ġlight":4401,"().":4402,"Ġ$":4403,"Ġille":4404,"Ġdat":4405,"Ġextern":4406,"Ġpermut":4407,"Ġcerts":4408,"Ġboard":4409,"Ġreflection":4410,"Ġinserting":4411,"Ġcalculation":4412,"Ġdestructure":4413,"Ġsched":4414,"Ġnicer":4415,"first":4416,"/.":4417,"ailed":4418,"oper":4419,"zz":4420,"Ġupper":4421,"Ġexits":4422,"Ġorg":4423,"ulator":4424,"Ġago":4425,"token":4426,"Ġalternatives":4427,"Ġcombined":4428,"Ġdevelopers":4429,"home":4430,"macro":4431,"index":4432,"02":4433,"make":4434,"Ġsqu":4435,"Ġenclo":4436,"Ġcareful":4437,"application":4438,"Ġ[...]":4439,"Ġillegal":4440,"fault":4441,"microsoft":4442,"variant":4443,"Ġprojection":4444,"Ġconsequ":4445,"ĠĠĠĠĠĠĠ":4446,"Ġpartially":4447,"Ġconstruction":4448,"Ġproducing":4449,"top":4450,"Ġopened":4451,"Ġaccum":4452,"Ġrayon":4453,"Ġannoying":4454,"31":4455,"eme":4456,"Ġmc":4457,"Ġavoids":4458,"Ġupdates":4459,"Ġunrelated":4460,"Ġassumption":4461,"Ġprimary":4462,"null":4463,"Ġhis":4464,"Ġstay":4465,"Ġunsure":4466,"Ġfault":4467,"Ġ12":4468,"class":4469,"Ġconfusion":4470,"++.":4471,"Ġsearched":4472,"Ġdeclarations":4473,"urally":4474,"jo":4475,"Ġpain":4476,"Ġarc":4477,"ctories":4478,"Ġsolves":4479,"aml":4480,"Ġdepth":4481,"Ġquote":4482,"Ġlisten":4483,"Ġsubset":4484,"Ġdetailed":4485,"Ġrealized":4486,"Ġelsewhere":4487,"256":4488,"hi":4489,"right":4490,"sor":4491,"Ġcull":4492,"Ġfriend":4493,"aneous":4494,"enter":4495,"Ġmaps":4496,"ppy":4497,"umably":4498,"Ġnewbie":4499,"Ġfixes":4500,"Ġinitially":4501,"Ġachieved":4502,"Ġidentifiers":4503,"Ġfrag":4504,"Ġinserted":4505,"Ġdescribes":4506,"Ġlearned":4507,"Ġrecursively":4508,"certs":4509,"trans":4510,"Ġconcerned":4511,"cannot":4512,"Ġstrategy":4513,"07":4514,"54":4515,"even":4516,"ges":4517,"hes":4518,"lif":4519,"non":4520,"Ġpk":4521,"icks":4522,"Ġconversions":4523,"Ġcopyable":4524,"Ġvalidation":4525,"Ġcolor":4526,"Ġtransformation":4527,"Ġoptimizer":4528,"Ġmatters":4529,"Ġgreater":4530,"hello":4531,"sign":4532,"target":4533,"Ġtim":4534,"Ġreborrow":4535,"dev":4536,"Ġaside":4537,"Ġprofile":4538,"Ġmutated":4539,"ialize":4540,"Ġspecification":4541,"Ġinputiterator":4542,"Ġupdating":4543,"certific":4544,"Ġanalysis":4545,"Ġdummy":4546,"mphasis":4547,"Ġhidden":4548,"Ġord":4549,"Ġsharing":4550,"Ġabort":4551,"istr":4552,"Ġdeveloping":4553,"Ġchildren":4554,"Ġbraces":4555,"Ġsurprised":4556,"port":4557,"Ġpw":4558,"ession":4559,"Ġ(&":4560,"Ġprecision":4561,"php":4562,"Ġsites":4563,"Ġmentions":4564,"Ġevaluate":4565,"Ġunclear":4566,"Ġwidth":4567,"Ġpolymorphism":4568,"imensional":4569,"Ġcredential":4570,"Ġtheory":4571,"Ġhour":4572,"Ġproceed":4573,"Ġdel":4574,"Ġoffers":4575,"Ġsatisfied":4576,"Ġsegfault":4577,"Ġcolumns":4578,"Ġtalk":4579,"Ġnatural":4580,"88":4581,"Ġiis":4582,"Ġcas":4583,"Ġnamely":4584,"Ġsimult":4585,"Ġscoped":4586,"Ġeffort":4587,"haust":4588,"Ġstrict":4589,"Ġforever":4590,"Ġcsv":4591,"normal":4592,"',":4593,"rins":4594,"ering":4595,"arking":4596,"temp":4597,"omorph":4598,"Ġtimeout":4599,"Ġfixing":4600,"Ġboundary":4601,"Ġenumer":4602,"Ġconcise":4603,"Ġclarify":4604,"Ġwhitespace":4605,"mt":4606,"Ġ}":4607,"Ġkept":4608,"Ġvertex":4609,"Ġlocations":4610,"Ġimages":4611,"versal":4612,"Ġconflicting":4613,"ira":4614,"rt":4615,"tools":4616,"Ġcovered":4617,"Ġgone":4618,"Ġinspect":4619,"Ġbugs":4620,"Ġprotot":4621,"Ġsimultaneous":4622,">,":4623,"go":4624,"kit":4625,"Ġresort":4626,"Ġanswered":4627,"Ġentrust":4628,"Ġdecrypt":4629,"Ġlocking":4630,"Ġreports":4631,"writing":4632,"Ġstrongly":4633,"Ġinheritance":4634,"Ġadministr":4635,"05":4636,"clo":4637,"Ġsadly":4638,"Ġhood":4639,"Ġlab":4640,"Ġfort":4641,"Ġproc":4642,"Ġspecifies":4643,"Ġserial":4644,"Ġinstantiation":4645,"install":4646,"factory":4647,"Ġprinciple":4648,"slice":4649,"ipped":4650,"ral":4651,"sers":4652,"ats":4653,"Ġgain":4654,"Ġnotation":4655,"Ġfoc":4656,"Ġnewer":4657,"Ġdisk":4658,"safety":4659,"Ġboxing":4660,"Ġconstructors":4661,"Ġliterally":4662,"Ġutil":4663,"00000000":4664,"Ġdrive":4665,"Ġescape":4666,"Ġmisunderstanding":4667,"Ġtechnique":4668,"Ġax":4669,"ited":4670,"develo":4671,"depend":4672,"assign":4673,"users":4674,"Ġtrustmanager":4675,"Ġacceptable":4676,"Ġboxes":4677,"Ġconstrain":4678,"Ġgrid":4679,"Ġmarker":4680,"Ġconfirm":4681,"gb":4682,"win":4683,"Ġsle":4684,"ips":4685,"Ġmodification":4686,"Ġimports":4687,"Ġimporting":4688,"Ġreplacement":4689,"Ġexecutes":4690,"Ġkernels":4691,"Ġinternals":4692,"Ġparenthes":4693,"Ġdriver":4694,"fra":4695,"Ġcard":4696,"ination":4697,"Ġcodes":4698,"Ġaspect":4699,"Ġnoted":4700,"verage":4701,"adata":4702,"Ġmoder":4703,"Ġsomebody":4704,"Ġaligned":4705,"Ġiterates":4706,"Ġpreced":4707,"Ġowning":4708,"Ġremoves":4709,"Ġcoerced":4710,"Ġredirect":4711,"generic":4712,"Ġleaves":4713,"Ġmiddleware":4714,"Ġcheap":4715,"37":4716,"Ġtouch":4717,"internal":4718,"Ġmysql":4719,"Ġ11":4720,"Ġreasoning":4721,"ync":4722,"Ġagree":4723,"Ġgoog":4724,"Ġbigger":4725,"ĠĠĠĠĠĠĠĠĠĠĠĠĠĠĠĠĠĠĠĠĠĠĠĠĠĠĠĠĠĠĠĠ":4726,"Ġcircum":4727,"Ġbesides":4728,"22":4729,"rd":4730,"rices":4731,"Ġerr":4732,"atibility":4733,"Ġreject":4734,"asp":4735,"asing":4736,"arer":4737,"urrency":4738,"Ġopening":4739,"Ġseparated":4740,"Ġtargets":4741,"Ġphys":4742,"Ġignored":4743,"Ġnaturally":4744,"Ġdedu":4745,"47":4746,"97":4747,"ims":4748,"rew":4749,"Ġpages":4750,"Ġhasn":4751,"Ġcontiguous":4752,"Ġclue":4753,"Ġloss":4754,"Ġautom":4755,"Ġmonomorph":4756,"Ġdescriptor":4757,"Ġanalog":4758,"print":4759,"Ġtalking":4760,"Ġopposed":4761,"Ġcrashes":4762,"lled":4763,"tool":4764,"via":4765,"Ġdecre":4766,"Ġworse":4767,"Ġunexpected":4768,"Ġapplying":4769,"Ġfacing":4770,"Ġlogging":4771,"works":4772,"Ġpresented":4773,"Ġmonitor":4774,"Ġpersonally":4775,"?).":4776,"aque":4777,"avel":4778,"ij":4779,"Ġtom":4780,"length":4781,"Ġrever":4782,"Ġcompany":4783,"Ġlegal":4784,"izes":4785,"Ġmoreover":4786,"Ġchars":4787,"Ġlogical":4788,"Ġreflect":4789,"Ġconsists":4790,"Ġsubsequent":4791,"Ġtls":4792,"Ġforg":4793,"Ġexhaust":4794,"Ġretain":4795,"Ġrc":4796,"angle":4797,"exec":4798,"Ġprime":4799,"nection":4800,"Ġcontroller":4801,"Ġpractical":4802,"Ġpresumably":4803,"Ġshadowing":4804,"].":4805,"goo":4806,"lined":4807,"may":4808,"tion":4809,"Ġpc":4810,"Ġnaming":4811,"Ġgp":4812,"raw":4813,"Ġatom":4814,"Ġintend":4815,"anges":4816,"Ġcallbacks":4817,"Ġfilled":4818,"lines":4819,"Ġdemonstrates":4820,"Ġencrypted":4821,"Ġdisabled":4822,"including":4823,"Ġrecognize":4824,"Ġsummary":4825,"yz":4826,"reg":4827,"Ġmapped":4828,"Ġleve":4829,"Ġrisk":4830,"Ġcloser":4831,"Ġimpact":4832,"Ġfinds":4833,"tract":4834,"Ġbuffers":4835,"Ġexceptions":4836,"Ġcontexts":4837,"Ġharder":4838,"Ġbenchmarks":4839,"Ġhints":4840,"turn":4841,"vari":4842,"zero":4843,"Ġahead":4844,"info":4845,"Ġincompatible":4846,"Ġforces":4847,"Ġwel":4848,"oding":4849,"Ġacqu":4850,"Ġfav":4851,"Ġmatrices":4852,"Ġaccepting":4853,"shake":4854,"Ġinitializing":4855,"Ġinvalidate":4856,"Ġscene":4857,"Ġdiscussed":4858,"21":4859,"46":4860,"sm":4861,"Ġwal":4862,"Ġfig":4863,"Ġrealloc":4864,"Ġstick":4865,"ema":4866,"osing":4867,"Ġsubstring":4868,"Ġlogin":4869,"Ġassumed":4870,"Ġgramm":4871,"Ġutility":4872,"Ġcurl":4873,"Ġdereferences":4874,"Ġopaque":4875,"Ġrestricted":4876,"Ġsynchronous":4877,"-)":4878,"->":4879,"ee":4880,"ingw":4881,"Ġhier":4882,"alone":4883,"dec":4884,"Ġart":4885,"Ġseemed":4886,"Ġiterations":4887,"prov":4888,"Ġpossibilities":4889,"Ġenables":4890,"Ġnicely":4891,"Ġevaluation":4892,"Ġextensions":4893,"Ġbranches":4894,"Ġplugins":4895,"Ġunlikely":4896,"Ġcarry":4897,"Ġlexical":4898,"claimer":4899,"Ġfiguring":4900,"06":4901,"?,":4902,"ingu":4903,"ici":4904,"Ġasset":4905,"Ġoverr":4906,"west":4907,"Ġintell":4908,"Ġclearer":4909,"program":4910,"byte":4911,"Ġtexture":4912,"Ġforeign":4913,"Ġcommunication":4914,"Ġmetadata":4915,"Ġcycle":4916,"Ġsyntactic":4917,"Ġoccurred":4918,"certificate":4919,"Ġpwa":4920,"Ġwelcome":4921,"Ġhierarch":4922,"Ġdir":4923,"Ġincoming":4924,"section":4925,"Ġstamp":4926,"asm":4927,"Ġsecre":4928,"Ġarea":4929,"Ġchalle":4930,"Ġ15":4931,"Ġletter":4932,"Ġapplicable":4933,"Ġconstructing":4934,"Ġchaining":4935,"Ġconnecting":4936,"Ġsplitting":4937,"Ġtables":4938,"Ġtracking":4939,"Ġspeaking":4940,"Ġassertion":4941,"google":4942,"48":4943,"dp":4944,"foo":4945,"parent":4946,"sence":4947,"Ġast":4948,"start":4949,"Ġdemo":4950,"Ġadapter":4951,"cale":4952,"Ġunboxed":4953,"Ġvariance":4954,"Ġseries":4955,"Ġdirectories":4956,"Ġinvoking":4957,"Ġidentify":4958,"Ġconceptually":4959,"Ġcontinu":4960,"Ġconsistent":4961,"Ġsquare":4962,"Ġculling":4963,"Ġadministrator":4964,"Ġlevels":4965,"\").":4966,"lab":4967,"qwest":4968,"Ġsn":4969,"although":4970,"Ġassemb":4971,"igr":4972,"Ġdeallocated":4973,"Ġexposed":4974,"abling":4975,"connection":4976,"while":4977,"Ġdependent":4978,"Ġspaces":4979,"Ġrot":4980,"Ġencoura":4981,"Ġextended":4982,"Ġignoring":4983,"Ġdiscovered":4984,"Ġdoubt":4985,"Ġmcve":4986,"bet":4987,"match":4988,"Ġlint":4989,"cel":4990,"ask":4991,"Ġconv":4992,"Ġanybody":4993,"Ġreser":4994,"Ġexpands":4995,"Ġterminate":4996,"complete":4997,"Ġcredentials":4998,"Ġsleep":4999,"inguish":5000,"blog":5001,"dire":5002,"hel":5003,"ns":5004,"ils":5005,"Ġ.)":5006,"illy":5007,"construct":5008,"Ġbounding":5009,"library":5010,"Ġclones":5011,"Ġconnected":5012,"Ġvscode":5013,"structure":5014,"Ġshader":5015,"Ġmerge":5016,"Ġcryptograph":5017,"release":5018,"Ġcoding":5019,"rustc":5020,"Ġ..":5021,"Ġchance":5022,"android":5023,"Ġexposes":5024,"ags":5025,"Ġelided":5026,"post":5027,"Ġtrunc":5028,"Ġbreaks":5029,"Ġconditionally":5030,"result":5031,"Ġimproved":5032,"Ġdigits":5033,"Ġremains":5034,"Ġreached":5035,"Ġrendering":5036,"Ġbrackets":5037,"irable":5038,"45":5039,"fill":5040,"uff":5041,"Ġct":5042,"Ġwarn":5043,"Ġful":5044,"Ġdot":5045,"Ġmicro":5046,"runtime":5047,"anged":5048,"istic":5049,"Ġreplic":5050,"Ġapprox":5051,"Ġsubstrate":5052,"Ġtranslate":5053,"Ġoptimal":5054,"Ġminor":5055,"Ġinterfaces":5056,"Ġensures":5057,"Ġoverloading":5058,"Ġflatten":5059,"element":5060,"lifetime":5061,"Ġmodern":5062,"Ġgrammar":5063,"49":5064,"current":5065,"mutable":5066,"pub":5067,"Ġnature":5068,"Ġarms":5069,"Ġkill":5070,"ushing":5071,"Ġbackwards":5072,"Ġaccidentally":5073,"Ġconstrained":5074,"ashion":5075,"Ġencryption":5076,"threaded":5077,"iciency":5078,"(),":5079,"mute":5080,"Ġsession":5081,"style":5082,"Ġcoll":5083,"bled":5084,"Ġalter":5085,"Ġalone":5086,"ivation":5087,"Ġfilename":5088,"ifications":5089,"Ġsync":5090,"Ġroles":5091,"Ġindexes":5092,"ibly":5093,"Ġconcurrency":5094,"Ġaliases":5095,"Ġeffects":5096,"Ġdockerfile":5097,"Ġexported":5098,"Ġoverlap":5099,"include":5100,"Ġsimultaneously":5101,"aps":5102,"tup":5103,"Ġfashion":5104,"Ġcook":5105,"Ġdee":5106,"Ġ\".":5107,"Ġfactory":5108,"atically":5109,"osition":5110,"Ġbehaves":5111,"Ġgotten":5112,"Ġdecision":5113,"Ġlaravel":5114,"Ġexperimental":5115,"Ġobtained":5116,"Ġmsvc":5117,"coded":5118,"lu":5119,"ws":5120,"xx":5121,"Ġterr":5122,"Ġak":5123,"Ġhum":5124,"Ġlove":5125,"Ġiterated":5126,"Ġnewly":5127,"Ġrob":5128,"Ġresponsible":5129,"Ġsemantic":5130,"Ġincorrectly":5131,"Ġmanipulate":5132,"Ġattached":5133,"Ġprecisely":5134,"Ġstabilized":5135,"dll":5136,"each":5137,"gd":5138,"hib":5139,"return":5140,"Ġcenter":5141,"iness":5142,"ouse":5143,"Ġomitted":5144,"Ġrelies":5145,"also":5146,"Ġmeet":5147,"Ġunlock":5148,"Ġuncomment":5149,"Ġbuf":5150,"Ġtransf":5151,"Ġtransaction":5152,"ĠĠĠĠĠĠĠĠĠ":5153,"working":5154,"Ġscr":5155,"Ġcounts":5156,"Ġdistinguish":5157,"Ġcalculated":5158,"Ġcorresponds":5159,"Ġthrown":5160,"Ġphp":5161,"Ġschema":5162,"Ġdemonstrate":5163,"Ġbroad":5164,"Ġwidget":5165,"git":5166,"ln":5167,"vable":5168,"Ġ_":5169,"Ġtheore":5170,"Ġcut":5171,"Ġwaste":5172,"oups":5173,"Ġrev":5174,"Ġld":5175,"icon":5176,"Ġsts":5177,"Ġvul":5178,"Ġmerely":5179,"Ġteam":5180,"ipher":5181,"Ġbeta":5182,"Ġdisallow":5183,"Ġseemingly":5184,"Ġspawning":5185,"Ġselected":5186,"Ġeliminate":5187,"95":5188,"lers":5189,"pi":5190,"Ġactions":5191,"rele":5192,"once":5193,"Ġinlined":5194,"Ġdevices":5195,"Ġtri":5196,"Ġshift":5197,"Ġintrins":5198,"Ġwriter":5199,"Ġspring":5200,"Ġdestructors":5201,"wrap":5202,"Ġreported":5203,"bindgen":5204,"Ġpadding":5205,"Ġtomcat":5206,"?.":5207,"Ġcum":5208,"orate":5209,"ings":5210,"Ġstum":5211,"Ġdecode":5212,"Ġcompatibility":5213,"fered":5214,"Ġjump":5215,"Ġcompilers":5216,"Ġdefaults":5217,"Ġsequences":5218,"Ġcommunity":5219,"Ġsqlite":5220,"blocking":5221,"Ġconcurrently":5222,"Ġfragment":5223,"Ġlabel":5224,"Ġforgot":5225,"fish":5226,"Ġtend":5227,"redu":5228,"Ġbon":5229,"Ġreset":5230,"Ġeg":5231,"arm":5232,"Ġchose":5233,"qual":5234,"Ġspecialized":5235,"Ġpartition":5236,"dict":5237,"Ġdownside":5238,"Ġformatted":5239,"Ġshorten":5240,"Ġtemporarily":5241,"Ġcombining":5242,"memory":5243,"Ġmismatched":5244,"Ġpurely":5245,"unt":5246,"Ġing":5247,"Ġpdf":5248,"Ġreqwest":5249,"ithread":5250,"uler":5251,"casting":5252,"Ġvariations":5253,"Ġspecifier":5254,"Ġimpls":5255,"Ġclang":5256,"Ġpatch":5257,"Ġargs":5258,"Ġcomma":5259,"Ġsorts":5260,"truststore":5261,"Ġtreated":5262,"Ġdigital":5263,"Ġorgan":5264,"Ġhierarchy":5265,"67":5266,"dated":5267,"Ġwatch":5268,"Ġvary":5269,"rived":5270,"istent":5271,"imate":5272,"Ġmultithread":5273,"Ġhelped":5274,"Ġsubmit":5275,"serialize":5276,"Ġperformant":5277,"...)":5278,"Ġcounted":5279,"Ġserialized":5280,"checker":5281,"Ġretrie":5282,"ighb":5283,"Ġvolume":5284,"loop":5285,"80":5286,"date":5287,"ktop":5288,"lating":5289,"Ġtsa":5290,"request":5291,"Ġsilly":5292,"Ġtoy":5293,"Ġrelying":5294,"Ġcovers":5295,"Ġmock":5296,"Ġverification":5297,"Ġstackoverflow":5298,"Ġram":5299,"Ġdecimal":5300,"Ġplacehold":5301,"Ġprogrammers":5302,"Ġadvanced":5303,"iki":5304,"Ġphysical":5305,"Ġbonus":5306,"dit":5307,"Ġfancy":5308,"Ġmot":5309,"Ġmigr":5310,"Ġreli":5311,"Ġlose":5312,"rusted":5313,"assuming":5314,"Ġoverall":5315,"Ġtranslation":5316,"Ġstandalone":5317,"libc":5318,"Ġcoercions":5319,"Ġdrawing":5320,"Ġrepeatedly":5321,"Ġtheoret":5322,"**":5323,"bar":5324,"dl":5325,"hash":5326,"Ġtimer":5327,"iny":5328,"eder":5329,"Ġheld":5330,"Ġfork":5331,"unknown":5332,"Ġtriple":5333,"Ġimplementors":5334,"Ġunus":5335,"Ġ14":5336,"ongodb":5337,"Ġverified":5338,"Ġhandlers":5339,"Ġmultiply":5340,"Ġedge":5341,"Ġradi":5342,"Ġindent":5343,"Ġrelation":5344,"Ġrestart":5345,"Ġrefcell":5346,"Ġscripts":5347,"Ġcollecting":5348,"Ġinterpreter":5349,"Ġflexibility":5350,"Ġconcatenate":5351,"Ġrepetition":5352,"Ġhours":5353,"maybe":5354,"200":5355,"57":5356,"dle":5357,"dir":5358,"la":5359,"mark":5360,"pool":5361,"erial":5362,"root":5363,"arrow":5364,"Ġlies":5365,"onest":5366,"plat":5367,"Ġdestination":5368,"Ġcomputed":5369,"Ġtoolkit":5370,"Ġevaluates":5371,"iod":5372,"kind":5373,"Ġtur":5374,"Ġsdk":5375,"che":5376,"very":5377,"Ġranges":5378,"ivity":5379,"Ġvariet":5380,"Ġclock":5381,"Ġafa":5382,"Ġdocuments":5383,"Ġmultiplication":5384,"Ġzone":5385,"Ġtemplates":5386,"Ġalternate":5387,"Ġswitching":5388,"Ġinterpreted":5389,"Ġtags":5390,"Ġmista":5391,"Ġnearly":5392,"Ġdelimit":5393,"emphasis":5394,"ox":5395,"uc":5396,"ĨĴ":5397,"Ġinve":5398,"Ġub":5399,"Ġgnu":5400,"vert":5401,"illa":5402,"Ġaccur":5403,"Ġreadme":5404,"Ġperiod":5405,"Ġsake":5406,"Ġcontainers":5407,"bern":5408,"Ġdisclaimer":5409,"Ġrace":5410,"iented":5411,"ĠĠĠĠĠĠĠĠĠĠĠĠ":5412,"Ġstreaming":5413,"Ġcontinues":5414,"Ġclaim":5415,"common":5416,"Ġdanger":5417,"Ġpowerful":5418,"Ġunders":5419,"Ġillustrate":5420,"Ġergonomic":5421,"Ġsecret":5422,"60":5423,"ii":5424,"iate":5425,"Ġmingw":5426,"Ġforum":5427,"Ġforced":5428,"Ġneighb":5429,"Ġalph":5430,"Ġpoor":5431,"Ġjvm":5432,"Ġintel":5433,"Ġthinks":5434,"Ġcarefully":5435,"Ġmachines":5436,"Ġadvise":5437,"Ġindividually":5438,"mac":5439,"ystem":5440,"arp":5441,"Ġasks":5442,"Ġmesh":5443,"output":5444,"Ġcrit":5445,"avig":5446,"Ġsupplied":5447,"Ġgui":5448,"Ġinsight":5449,"gnu":5450,"Ġloads":5451,"Ġlocked":5452,"hibern":5453,"closure":5454,"],":5455,"ale":5456,"range":5457,"Ġcru":5458,"Ġmal":5459,"Ġhonest":5460,"ense":5461,"url":5462,"Ġgetter":5463,"ried":5464,"Ġhashing":5465,"Ġproblematic":5466,"Ġavoided":5467,"buff":5468,"Ġtransmute":5469,"Ġregion":5470,"Ġxcode":5471,"Ġmodels":5472,"Ġregards":5473,"Ġplanes":5474,"command":5475,"links":5476,"========":5477,"Ġinvest":5478,"hibernate":5479,"43":5480,"pa":5481,"Ġwild":5482,"Ġmir":5483,"cture":5484,"sem":5485,"Ġsoap":5486,"Ġvert":5487,"Ġwilling":5488,"Ġappdomain":5489,"Ġserve":5490,"Ġclap":5491,"Ġscopes":5492,"Ġclippy":5493,"Ġsender":5494,"Ġresolution":5495,"Ġannotated":5496,"Ġsemantically":5497,"Ġclaims":5498,"Ġtransferred":5499,"party":5500,"contro":5501,"cd":5502,"did":5503,"field":5504,"mat":5505,"referen":5506,"Ġpushing":5507,"iting":5508,"enced":5509,"Ġnan":5510,"ilot":5511,"ulating":5512,"Ġinstruct":5513,"Ġcallable":5514,"format":5515,"Ġimply":5516,"Ġclever":5517,"together":5518,"Ġlimitations":5519,"boot":5520,"Ġexecutor":5521,"Ġportion":5522,"161":5523,"Ġscenarios":5524,"Ġsignificantly":5525,"called":5526,"kill":5527,"wasm":5528,"oud":5529,"Ġtoml":5530,"metric":5531,"Ġhor":5532,"lling":5533,"Ġreve":5534,"Ġudp":5535,"char":5536,"admin":5537,"Ġchron":5538,"Ġtrade":5539,"Ġdont":5540,"Ġsupply":5541,"Ġinterval":5542,"Ġbacktrace":5543,"shepmaster":5544,"compon":5545,"Ġauthenticate":5546,"Ġrespective":5547,"Ġprotected":5548,"Ġdelegate":5549,"Ġenclosing":5550,"Ġfortun":5551,"Ġintellij":5552,"relevant":5553,"sdk":5554,"Ġios":5555,"Ġcud":5556,"Ġhang":5557,"unless":5558,"ppers":5559,"Ġprep":5560,"Ġacts":5561,"when":5562,"conds":5563,"Ġsecondly":5564,"Ġbounded":5565,"Ġsubtle":5566,"Ġexpressed":5567,"world":5568,"trustmanager":5569,"Ġpositive":5570,"Ġtimestamping":5571,"Ġbreakpoint":5572,"Ġscheme":5573,"Ġsaved":5574,"Ġexperimenting":5575,"Ġprototype":5576,"platform":5577,"Ġvariety":5578,"87":5579,"pilot":5580,"ta":5581,"Ġ//":5582,"inary":5583,"Ġwide":5584,"Ġnavig":5585,"Ġui":5586,"secut":5587,"than":5588,"Ġdeb":5589,"Ġ19":5590,"Ġhandy":5591,"Ġspot":5592,"Ġefficiency":5593,"Ġzer":5594,"bersome":5595,"Ġintroduces":5596,"Ġpanicking":5597,"Ġexecutables":5598,"Ġcursor":5599,"crates":5600,"clusion":5601,"Ġpowers":5602,"Ġawk":5603,"Ġshape":5604,"Ġpublished":5605,"Ġdistribution":5606,"frame":5607,"Ġfulfill":5608,"Ġcumbersome":5609,"Ġinvestig":5610,"brow":5611,"eg":5612,"nv":5613,"rfc":5614,"Ġtiny":5615,"Ġactor":5616,"Ġcmake":5617,"att":5618,"Ġfits":5619,"Ġconsecut":5620,"ilver":5621,"Ġordered":5622,"cap":5623,"Ġunsafety":5624,"Ġeveryone":5625,"buf":5626,"Ġlogs":5627,"Ġdebugger":5628,"Ġlargest":5629,"Ġdeserializing":5630,"python":5631,"Ġintegral":5632,"Ġpicture":5633,"imensions":5634,"abilities":5635,"Ġcycles":5636,"Ġsynchronization":5637,"crypt":5638,"fx":5639,"pers":5640,"produ":5641,"uzz":5642,"Ġisol":5643,"Ġstays":5644,"Ġvice":5645,"Ġexe":5646,"termin":5647,"ading":5648,"Ġsections":5649,"Ġaltogether":5650,"Ġiterable":5651,"Ġtwe":5652,"Ġparameterized":5653,"except":5654,"Ġdispl":5655,"Ġspent":5656,"Ġsingleton":5657,"Ġmainly":5658,"Ġdrops":5659,"Ġposts":5660,"Ġminim":5661,"Ġcontrols":5662,"Ġshortcut":5663,"Ġinsertion":5664,"Ġ2017":5665,"Ġpreventing":5666,"Ġfresh":5667,"borrowing":5668,"^^^^^^^^":5669,"Ġexplorer":5670,"Ġsuffix":5671,"Ġambiguous":5672,"Ġheavy":5673,"Ġreplicate":5674,".).":5675,"65":5676,"Ġdimensions":5677,"itively":5678,"Ġnarrow":5679,"Ġvide":5680,"Ġnotably":5681,"Ġunion":5682,"Ġrsa":5683,"Ġreadability":5684,"Ġgenerically":5685,"Ġendian":5686,"Ġdisap":5687,"Ġsurely":5688,"Ġedited":5689,"Ġturning":5690,"Ġclarity":5691,"Ġwinapi":5692,"await":5693,"Ġdeeper":5694,"Ġfortunately":5695,"!).":5696,"las":5697,"round":5698,"ye":5699,"Ġ^":5700,"Ġtowards":5701,"Ġbtw":5702,"mess":5703,"Ġinform":5704,"Ġnll":5705,"Ġnhibernate":5706,"Ġforms":5707,"pport":5708,"Ġcriter":5709,"clude":5710,"connect":5711,"Ġbasis":5712,"Ġconsumer":5713,"Ġquer":5714,"Ġquad":5715,"Ġraise":5716,"allest":5717,"Ġinvalidated":5718,"Ġhyp":5719,"Ġrepeating":5720,"Ġdisplayed":5721,"Ġawait":5722,"ught":5723,"Ġpostgresql":5724,"Ġfrequently":5725,"Ġchrono":5726,"Ġdisplays":5727,"ris":5728,"inte":5729,"Ġdump":5730,"Ġrect":5731,"oted":5732,"Ġproof":5733,"Ġbypass":5734,"Ġobjective":5735,"Ġclosing":5736,"Ġoverwrite":5737,"Ġcompletion":5738,"Ġusername":5739,"Ġinstaller":5740,"acy":5741,"bofish":5742,"Ġgroups":5743,"Ġpositions":5744,"Ġcorrespond":5745,"Ġpayload":5746,"Ġnvidia":5747,"triv":5748,"Ġzeros":5749,"ilverlight":5750,"100":5751,"89":5752,"num":5753,"oid":5754,"sc":5755,"onical":5756,"Ġstud":5757,"Ġseed":5758,"Ġcertification":5759,"Ġentities":5760,"Ġdowncast":5761,"compute":5762,"compiled":5763,"Ġlengths":5764,"Ġgrab":5765,"named":5766,"Ġcalculations":5767,"keystore":5768,"Ġdemand":5769,"Ġinstantiated":5770,"geneous":5771,"Ġsupertrait":5772,"generated":5773,"Ġdistinction":5774,"Ġpersonal":5775,"Ġemail":5776,"Ġquotes":5777,"ĠâĨĴ":5778,"Ġupgrade":5779,"joint":5780,"Ġaxis":5781,"aspx":5782,"tuple":5783,"\\\"":5784,"yes":5785,"yet":5786,"Ġrebuild":5787,"Ġexcel":5788,"entrust":5789,"andbox":5790,"Ġcallers":5791,"ortex":5792,"Ġitertools":5793,"vol":5794,"built":5795,"Ġsmallest":5796,"typing":5797,"Ġmanaging":5798,"Ġwalk":5799,"Ġtheoretically":5800,"cb":5801,"face":5802,"tre":5803,"Ġaverage":5804,"dem":5805,"Ġste":5806,"Ġstage":5807,"Ġleaks":5808,"Ġ\"-":5809,"Ġiterative":5810,"iped":5811,"Ġserious":5812,"contain":5813,"Ġdisjoint":5814,"Ġwrappers":5815,"Ġparalleli":5816,"dden":5817,"Ġdedicated":5818,"Ġscalar":5819,"Ġcontrast":5820,"Ġawkward":5821,"Ġhypoth":5822,"42":5823,"old":5824,"script":5825,"Ġda":5826,"Ġsudden":5827,"licity":5828,"Ġ1000":5829,"Ġending":5830,"Ġslicing":5831,"Ġids":5832,"Ġlasts":5833,"Ġtruly":5834,"Ġthrowing":5835,"Ġduplicates":5836,"Ġpersist":5837,"Ġdifficulty":5838,"Ġindicated":5839,"Ġabstractions":5840,"modules":5841,"Ġafaik":5842,"trivial":5843,"cible":5844,"your":5845,"inc":5846,"Ġfight":5847,"Ġpcr":5848,"edit":5849,"Ġns":5850,"Ġreassign":5851,"Ġyaml":5852,"Ġforcing":5853,"cho":5854,"Ġlikewise":5855,"idi":5856,"Ġled":5857,"atory":5858,"ously":5859,"Ġoperates":5860,"document":5861,"Ġkeywords":5862,"Ġhighlight":5863,"Ġlazily":5864,"model":5865,"Ġsaving":5866,"Ġhistory":5867,"Ġfavor":5868,"Ġencourage":5869,"Ġscratch":5870,"buffer":5871,"))":5872,"das":5873,"effect":5874,"Ġcp":5875,"Ġwcf":5876,"ont":5877,"Ġbund":5878,"leading":5879,"ali":5880,"Ġcanonical":5881,"advant":5882,"unk":5883,"iform":5884,"erry":5885,"Ġunwind":5886,"umb":5887,"Ġcontact":5888,"Ġhandshake":5889,"Ġsubmodule":5890,"Ġprocessed":5891,"Ġrarely":5892,"Ġfilesystem":5893,"Ġindexed":5894,"Ġconstructs":5895,"lessly":5896,"Ġrestruct":5897,"Ġcommonly":5898,"Ġsatisfies":5899,"Ġmonth":5900,"optim":5901,"addy":5902,"binding":5903,"Ġqualified":5904,"Ġforbid":5905,"Ġcritical":5906,"nge":5907,"ylib":5908,"zip":5909,"Ġaudio":5910,"Ġfran":5911,"Ġanch":5912,"Ġhook":5913,"icking":5914,"Ġgist":5915,"Ġsole":5916,"mentally":5917,"gebra":5918,"Ġshuff":5919,"loat":5920,"Ġparsers":5921,"Ġface":5922,"aging":5923,"Ġtrusts":5924,"Ġdesug":5925,"Ġboundaries":5926,"Ġminutes":5927,"Ġidiomatically":5928,"Ġstderr":5929,"Ġreleases":5930,"Ġprivile":5931,"Ġlocks":5932,"Ġfeeling":5933,"Ġappropriately":5934,"Ġdownloading":5935,"Ġdigest":5936,"Ġrecover":5937,"does":5938,"Ġobserve":5939,"--------":5940,"~~~~":5941,"ology":5942,"Ġcircumst":5943,"Ġaccurate":5944,"?\"":5945,"aa":5946,"ios":5947,"rink":5948,"Ġsan":5949,"Ġcandid":5950,"urations":5951,"Ġtrim":5952,"Ġshall":5953,"Ġsimplicity":5954,"teness":5955,"traits":5956,"Ġprintln":5957,"acc":5958,"Ġhosted":5959,"spb":5960,"Ġswitched":5961,"Ġpopular":5962,"Ġpresence":5963,"Ġnomicon":5964,"Ġfundamentally":5965,"Ġdeallocate":5966,"Ġdatat":5967,"reduce":5968,"Ġconsecutive":5969,"regist":5970,"Ġangle":5971,"Ġmvc":5972,"Ġhmac":5973,"enum":5974,"etical":5975,"Ġnesting":5976,"entially":5977,"Ġtravis":5978,"Ġcave":5979,"Ġoutdated":5980,"mming":5981,"Ġpermit":5982,"Ġapache":5983,"values":5984,"compiling":5985,"Ġcasts":5986,"Ġdiscoura":5987,"Ġcalculating":5988,"Ġdeserialized":5989,"Ġroutes":5990,"threading":5991,"option":5992,"Ġoffsets":5993,"Ġhacky":5994,"Ġsucceeds":5995,"Ġsurround":5996,"Ġplaceholder":5997,"59":5998,"gi":5999,"ners":6000,"pat":6001,"vs":6002,"Ġreorder":6003,"Ġvm":6004,"changed":6005,"Ġcompact":6006,"Ġmail":6007,"Ġyours":6008,"Ġenabling":6009,"Ġ24":6010,"upid":6011,"Ġletting":6012,"Ġsubtyping":6013,"Ġblocked":6014,"Ġbool":6015,"Ġreality":6016,"Ġcapturing":6017,"Ġresolves":6018,"Ġdeveloped":6019,"Ġduplication":6020,"Ġdiffers":6021,"lining":6022,"Ġfiltering":6023,"Ġfamily":6024,"Ġlambdas":6025,"Ġassumptions":6026,"Ġencapsulate":6027,"Ġdeadlock":6028,"Ġpreserve":6029,"Ġaccumulator":6030,"Ġchallenge":6031,"Ġhuman":6032,"62":6033,"??":6034,"cpp":6035,"fire":6036,"Ġcortex":6037,"Ġmongodb":6038,"Ġcovariant":6039,"Ġgather":6040,"ctionary":6041,"ung":6042,"ulates":6043,"Ġimplementor":6044,"Ġencl":6045,"Ġ256":6046,"Ġdisadvant":6047,"Ġsimd":6048,"Ġlooping":6049,"Ġsphere":6050,"beam":6051,"Ġ)?":6052,"Ġuntrusted":6053,"Ġformats":6054,"aka":6055,"Ġinfers":6056,"Ġdomains":6057,"Ġmisleading":6058,"undred":6059,"Ġpopulate":6060,"Ġyear":6061,"Ġbenefits":6062,"Ġmanipulation":6063,"Ġpromise":6064,"Ġmixed":6065,"Ġpolymorphic":6066,"Ġpackets":6067,"Ġsubstitute":6068,"Ġctrl":6069,"dif":6070,"hs":6071,"page":6072,"tls":6073,"zilla":6074,"Ġted":6075,"Ġirc":6076,"Ġsilverlight":6077,"Ġmim":6078,"Ġland":6079,"Ġgc":6080,"Ġcomposed":6081,"Ġwanting":6082,"Ġunw":6083,"Ġobserver":6084,"Ġoverkill":6085,"Ġresulted":6086,"Ġapk":6087,"Ġintersection":6088,"Ġcompleteness":6089,"Ġmodifications":6090,"Ġopens":6091,"shot":6092,"Ġgeneralize":6093,"Ġcached":6094,"Ġreproduction":6095,"Ġchoices":6096,"crate":6097,"Ġencounter":6098,"Ġdivide":6099,"Ġfocus":6100,"Ġvertices":6101,"Ġsuddenly":6102,"dimensional":6103,"fn":6104,"mal":6105,"nces":6106,"station":6107,"ital":6108,"Ġglibc":6109,"Ġstupid":6110,"think":6111,"Ġworst":6112,"ention":6113,"Ġleg":6114,"rief":6115,"Ġexpert":6116,"usl":6117,"iston":6118,"well":6119,"Ġletters":6120,"Ġthroughout":6121,"Ġsupporting":6122,"Ġflaw":6123,"Ġsearches":6124,"bytes":6125,"Ġ50":6126,"Ġimportantly":6127,"Ġglobally":6128,"node":6129,"Ġmeaningful":6130,"Ġreproducible":6131,"Ġindicating":6132,"Ġplacing":6133,"stackoverflow":6134,"Ġconsequence":6135,"Ġordinary":6136,"Ġgoogling":6137,"Ġacquire":6138,"Ġassemblies":6139,"Ġconvince":6140,"Ġunderscore":6141,"referencing":6142,"fmt":6143,"site":6144,"sim":6145,"ui":6146,"resh":6147,"sts":6148,"Ġpuzz":6149,"Ġreferent":6150,"Ġeof":6151,"Ġabsence":6152,"ators":6153,"izer":6154,"Ġ18":6155,"why":6156,"Ġmessy":6157,"Ġsubtype":6158,"Ġsubtract":6159,"Ġexistence":6160,"Ġmodifies":6161,"Ġtransition":6162,"Ġtransformed":6163,"Ġputs":6164,"they":6165,"Ġflash":6166,"Ġformatter":6167,"policy":6168,"Ġenvironments":6169,"ranet":6170,"Ġvisibility":6171,"Ġdescribing":6172,"Ġcaching":6173,"Ġsamples":6174,"Ġcollected":6175,"Ġcrossbeam":6176,"import":6177,"Ġmerged":6178,"Ġtechnical":6179,"idiomatic":6180,"mc":6181,"rarily":6182,"Ġsig":6183,"Ġwhite":6184,"Ġasm":6185,"Ġcontrived":6186,"ialog":6187,"Ġfac":6188,"itional":6189,"Ġdesirable":6190,"Ġinclus":6191,"Ġlogically":6192,"Ġidentified":6193,"proper":6194,"Ġpreferably":6195,"Ġconnects":6196,"Ġreddit":6197,"Ġsnippets":6198,"Ġtutorials":6199,"Ġsegments":6200,"examples":6201,"Ġinvariants":6202,"Ġnvcc":6203,"Ġergonom":6204,"Ġbelongs":6205,"Ġdeduce":6206,"spberry":6207,"Ġtedious":6208,"85":6209,"dc":6210,"either":6211,"ypes":6212,"related":6213,"inct":6214,"erative":6215,"Ġdiver":6216,"Ġincons":6217,"Ġhundred":6218,"env":6219,"thie":6220,"Ġconclusion":6221,"Ġration":6222,"Ġnobody":6223,"Ġreaders":6224,"ague":6225,"weight":6226,"icked":6227,"Ġaccordingly":6228,"Ġduplicated":6229,"Ġcurly":6230,"Ġbenchmarking":6231,"checking":6232,"Ġprocedure":6233,"builder":6234,"Ġirrelevant":6235,"Ġsyntactically":6236,"Ġrecords":6237,"âĶĢâĶĢâĶĢâĶĢ":6238,"Ġambigu":6239,"Ġtiming":6240,"Ġdelay":6241,"Ġcookie":6242,"Ġstumbled":6243,"Ġdangerous":6244,"Ġqueries":6245,"Ġexcellent":6246,"sibility":6247,"tru":6248,"uable":6249,"uid":6250,"eded":6251,"icates":6252,"Ġemp":6253,"uting":6254,"decl":6255,"Ġcant":6256,"Ġexam":6257,"usr":6258,"owned":6259,"Ġoptionally":6260,"Ġrare":6261,"Ġraces":6262,"Ġidiom":6263,"Ġconfigurations":6264,"Ġexperienced":6265,"Ġportable":6266,"Ġcapabilities":6267,"Ġintegrate":6268,"Ġroutine":6269,"func":6270,"Ġpaste":6271,"Ġemulate":6272,"Ġindependently":6273,"Ġcorrupt":6274,"counted":6275,"Ġbrings":6276,"Ġpermutations":6277,"Ġldap":6278,"Ġturbofish":6279,"Ġdebian":6280,"nvidia":6281,"message":6282,"]\"":6283,"dig":6284,"ker":6285,"Ġtack":6286,"real":6287,"references":6288,"Ġcf":6289,"Ġinlining":6290,"Ġmio":6291,"icious":6292,"uni":6293,"illed":6294,"Ġshif":6295,"Ġparses":6296,"Ġsys":6297,"Ġevid":6298,"standard":6299,"âĢ¦":6300,"Ġbitwise":6301,"Ġ30":6302,"cription":6303,"Ġinsp":6304,"Ġthoughts":6305,"probably":6306,"Ġsequentially":6307,"Ġunsound":6308,"Ġderiving":6309,"Ġslight":6310,"Ġ99":6311,"Ġunwrapping":6312,"Ġadvantages":6313,"Ġimprovement":6314,"Ġconcerns":6315,"something":6316,"Ġcells":6317,"password":6318,"Ġcublas":6319,"Ġforbidden":6320,"Ġpowershell":6321,"Ġvideo":6322,"90":6323,"ah":6324,"ben":6325,"bling":6326,"card":6327,"si":6328,"ĠÂ":6329,"reh":6330,"Ġscale":6331,"step":6332,"Ġpen":6333,"Ġcool":6334,"verify":6335,"Ġusize":6336,"adic":6337,"Ġunpack":6338,"Ġtee":6339,"Ġtimezone":6340,"Ġ17":6341,"Ġ128":6342,"Ġsym":6343,"conven":6344,"Ġkeytool":6345,"Ġdesktop":6346,"Ġxb":6347,"Ġposting":6348,"Ġ-->":6349,"Ġpushed":6350,"Ġsurprise":6351,"Ġinvocations":6352,"Ġcoordinate":6353,"Ġissued":6354,"Ġrendered":6355,"lude":6356,"oms":6357,"ops":6358,"pull":6359,"sive":6360,"Ġbrief":6361,"ram":6362,"Ġjni":6363,"Ġadfs":6364,"answ":6365,"Ġimpression":6366,"Ġtrustpilot":6367,"Ġlistener":6368,"Ġstartup":6369,"Ġheard":6370,"Ġprogrammatically":6371,"Ġexplaining":6372,"primit":6373,"Ġcomputers":6374,"Ġgrasp":6375,"Ġdeserializer":6376,"Ġpeek":6377,"Ġworkarounds":6378,"Ġrandomly":6379,"certpath":6380,"Ġarchitectures":6381,"Ġconventions":6382,"Ġinherited":6383,"Ġdivision":6384,"flags":6385,"Ġsurprisingly":6386,"Ġpseudocode":6387,"Ġgeome":6388,"Ġterrible":6389,"Ġvulner":6390,"Ġmotivation":6391,"Ġdisappear":6392,"Ġergonomics":6393,"gered":6394,"ipping":6395,"jac":6396,"ny":6397,"vas":6398,"ĠâĶ":6399,"Ġblob":6400,"isions":6401,"Ġecho":6402,"Ġselection":6403,"Ġfidd":6404,"Ġfiref":6405,"erson":6406,"Ġsusp":6407,"Ġarises":6408,"odaddy":6409,"Ġuniform":6410,"ored":6411,"Ġoverly":6412,"Ġversa":6413,"Ġ25":6414,"Ġsafer":6415,"Ġmodes":6416,"acle":6417,"Ġpublickey":6418,"Ġfastest":6419,"Ġdeclares":6420,"Ġbiggest":6421,"nolog":6422,"Ġredis":6423,"Ġevaluating":6424,"Ġsockets":6425,"Ġtriggered":6426,"Ġconflicts":6427,"Ġpixels":6428,"Ġdiscouraged":6429,"Ġfirefox":6430,"68":6431,"bre":6432,"bly":6433,"find":6434,"lived":6435,"oriented":6436,"Ġinject":6437,"Ġpiston":6438,"aling":6439,"Ġ():":6440,"asible":6441,"Ġcomprom":6442,"ifact":6443,"Ġjre":6444,"Ġjdk":6445,"Ġfaced":6446,"Ġfirstly":6447,"Ġmaterial":6448,"ager":6449,"Ġimperative":6450,"Ġreasonably":6451,"Ġkinda":6452,"bits":6453,"Ġstdlib":6454,"Ġ2016":6455,"Ġarbitrarily":6456,"Ġimmediate":6457,"Ġextracted":6458,"Ġparallelism":6459,"handler":6460,"Ġextends":6461,"ikiped":6462,"Ġhitting":6463,"permissions":6464,"Ġlexer":6465,"Ġpinned":6466,"pattern":6467,"Ġinclusive":6468,"ikipedia":6469,"ade":6470,"actions":6471,"corre":6472,"ggle":6473,"max":6474,"Ġsandbox":6475,"Ġgen":6476,"Ġstory":6477,"raid":6478,"Ġvend":6479,"async":6480,"Ġtricks":6481,"Ġintranet":6482,"Ġtraverse":6483,"Ġoutcome":6484,"Ġleaking":6485,"Ġunro":6486,"tection":6487,"pecified":6488,"arest":6489,"into":6490,"Ġafraid":6491,"emon":6492,"feature":6493,"Ġvalidity":6494,"Ġbindgen":6495,"Ġattention":6496,"solved":6497,"Ġauthors":6498,"Ġinterest":6499,"Ġsequential":6500,"Ġprevented":6501,"Ġcapability":6502,"Ġfinishes":6503,"Ġrestrictive":6504,"address":6505,"Ġexerc":6506,"Ġadapted":6507,"fold":6508,"Ġdiag":6509,"Ġ2008":6510,"Ġmillion":6511,"kinded":6512,"(\"":6513,"bed":6514,"dri":6515,"mon":6516,"tp":6517,"requ":6518,"Ġdma":6519,"Ġrewritten":6520,"mped":6521,"Ġeye":6522,"Ġneat":6523,"ilo":6524,"Ġshut":6525,"Ġshrink":6526,"Ġfoot":6527,"istics":6528,"serde":6529,"Ġraspberry":6530,"tokio":6531,"compiler":6532,"Ġweren":6533,"Ġcollector":6534,"Ġinvokes":6535,"Ġpanicked":6536,"organ":6537,"Ġresponsibility":6538,"Ġslot":6539,"128":6540,"Ġarena":6541,"Ġserializing":6542,"Ġscenes":6543,"Ġexpanding":6544,"Ġimprovements":6545,"Ġtrees":6546,"Ġasynchronously":6547,"Ġrefactoring":6548,"Ġgreen":6549,"Ġparentheses":6550,"Ġenclave":6551,"96":6552,"custom":6553,"empty":6554,"kb":6555,"paste":6556,"Ġtick":6557,"Ġthin":6558,"rep":6559,"Ġwarp":6560,"Ġdimension":6561,"Ġmand":6562,"arse":6563,"Ġstating":6564,"mention":6565,"adim":6566,"Ġrls":6567,"force":6568,"Ġovercome":6569,"Ġelev":6570,"derive":6571,"Ġanswering":6572,"Ġboils":6573,"services":6574,"Ġclip":6575,"Ġlogger":6576,"olt":6577,"Ġswapping":6578,"Ġregistered":6579,"Ġcapable":6580,"Ġdeleted":6581,"Ġpropos":6582,"Ġintegrity":6583,"interpre":6584,"Ġextending":6585,"Ġaws":6586,"Ġprofiling":6587,"Ġissuer":6588,"Ġpropagate":6589,"Ġprecedence":6590,"variance":6591,"provider":6592,"browser":6593,"thieu":6594,"ae":6595,"fin":6596,"wid":6597,"Ġbatch":6598,"stri":6599,"Ġdialog":6600,"Ġlvalue":6601,"Ġcomposition":6602,"antom":6603,"Ġjar":6604,"Ġweek":6605,"Ġanyways":6606,"Ġadjac":6607,"cost":6608,"Ġexposing":6609,"else":6610,"Ġthreading":6611,"Ġcompleted":6612,"Ġxor":6613,"lenty":6614,"Ġsensible":6615,"Ġhardcoded":6616,"Ġinvolving":6617,"Ġlldb":6618,"Ġchoosing":6619,"Ġ2020":6620,"Ġviolate":6621,"Ġenglish":6622,"Ġscala":6623,"Ġschedu":6624,"Ġartifact":6625,"70":6626,"__":6627,"lime":6628,"Ġwa":6629,"Ġblow":6630,"Ġmi":6631,"Ġrecompile":6632,"Ġvague":6633,"Ġsilent":6634,"cacerts":6635,"Ġpredict":6636,"Ġprelude":6637,"clone":6638,"Ġclust":6639,"Ġnamesp":6640,"Ġoutputiterator":6641,"Ġstructured":6642,"Ġtranslated":6643,"Ġstands":6644,"Ġjavax":6645,"Ġpyo":6646,"Ġfewer":6647,"boss":6648,"Ġunspecified":6649,"Ġposix":6650,"Ġ2019":6651,"Ġchained":6652,"sponse":6653,"Ġframeworks":6654,"Ġ#[":6655,"Ġextracting":6656,"Ġstripped":6657,"Ġunnecessarily":6658,"Ġgraphics":6659,"borrowed":6660,"Ġoccas":6661,"binary":6662,"Ġgenerators":6663,"Ġpkcs":6664,"Ġexhaustive":6665,"directory":6666,"thanks":6667,"Ġcircumstances":6668,"Ġambiguity":6669,"mentioned":6670,"41":6671,"?),":6672,"acing":6673,"jks":6674,"simpl":6675,"Ġton":6676,"Ġtile":6677,"input":6678,"len":6679,"ley":6680,"Ġinn":6681,"Ġinconven":6682,"Ġant":6683,"Ġplenty":6684,"eness":6685,"rustup":6686,"Ġexchange":6687,"ilst":6688,"ires":6689,"tech":6690,"Ġlibs":6691,"Ġnowhere":6692,"Ġcloud":6693,"Ġoperand":6694,"Ġcolon":6695,"Ġboost":6696,"timestamp":6697,"Ġoptimis":6698,"compil":6699,"Ġflush":6700,"Ġhttpclient":6701,"Ġlimits":6702,"Ġcomputations":6703,"Ġcomparable":6704,"Ġporting":6705,"Ġignores":6706,"securityexception":6707,"Ġtechnolog":6708,"Ġshorth":6709,"Ġtrivially":6710,"Ġdrawback":6711,"odbolt":6712,"Ġcentral":6713,"public":6714,"Ġtransferring":6715,"Ġrestructure":6716,"52":6717,"58":6718,"aled":6719,"bf":6720,"bs":6721,"bas":6722,"pan":6723,"same":6724,"Ġmar":6725,"Ġmass":6726,"Ġrewriting":6727,"arter":6728,"through":6729,"Ġnotion":6730,"Ġprotection":6731,"Ġconvol":6732,"unc":6733,"Ġcompreh":6734,"Ġworried":6735,"Ġcacerts":6736,"Ġamaz":6737,"msdn":6738,"Ġ:(":6739,"Ġpermitted":6740,"Ġreply":6741,"Ġversus":6742,"imation":6743,"ematic":6744,"apache":6745,"exist":6746,"Ġsignals":6747,"Ġsimulate":6748,"Ġlisting":6749,"Ġguid":6750,"playpen":6751,"Ġassignments":6752,"Ġlayers":6753,"Ġcleanup":6754,"Ġarchive":6755,"Ġanaly":6756,"Ġmsdn":6757,"javax":6758,"Ġluckily":6759,"Ġtreats":6760,"Ġoverlapping":6761,"Ġobserved":6762,"Ġpermutation":6763,"help":6764,"Ġmultithreaded":6765,"Ġdelimiter":6766,"Ġrationale":6767,"Ġxbap":6768,"mult":6769,"sco":6770,"vy":6771,"Ġtie":6772,"Ġthous":6773,"Ġaz":6774,"Ġci":6775,"Ġcat":6776,"inject":6777,"Ġfly":6778,"ank":6779,"Ġpet":6780,"Ġpip":6781,"Ġrecreate":6782,"Ġexceed":6783,"Ġnoting":6784,"child":6785,"ulled":6786,"Ġunchanged":6787,"Ġcontrib":6788,"Ġvariation":6789,"Ġvariadic":6790,"tee":6791,"Ġbucket":6792,"Ġ13":6793,"Ġoperands":6794,"crimin":6795,"Ġbeforehand":6796,"Ġaddressing":6797,"Ġdecides":6798,"Ġinitializer":6799,"priv":6800,"Ġdetermines":6801,"Ġpractically":6802,"Ġyielding":6803,"Ġdrawn":6804,"herence":6805,"Ġlaunching":6806,"Ġterminates":6807,"Ġoccup":6808,"Ġmeantime":6809,"Ġappending":6810,"Ġquoting":6811,"Ġpipeline":6812,"Ġdictionary":6813,"Ġintuition":6814,"Ġintuitive":6815,"postgres":6816,"Ġcandidate":6817,"cle":6818,"cis":6819,"rls":6820,"xf":6821,"Ġcmd":6822,"Ġwake":6823,"Ġmarking":6824,"Ġhet":6825,"Ġwhilst":6826,"Ġsty":6827,"Ġvi":6828,"alls":6829,"Ġcodepoint":6830,"Ġcaught":6831,"ques":6832,"Ġunits":6833,"achable":6834,"Ġmakefile":6835,"....":6836,"Ġnews":6837,"Ġformul":6838,"Ġequally":6839,"Ġroll":6840,"Ġreplaces":6841,"Ġpublicly":6842,"Ġdetermin":6843,"Ġphantom":6844,"Ġanalyz":6845,"Ġguards":6846,"Ġenforces":6847,"Ġattacker":6848,"Ġenumeration":6849,"components":6850,"malink":6851,"Ġpenal":6852,"primitive":6853,"[]":6854,"both":6855,"dynam":6856,"ladim":6857,"send":6858,"ups":6859,"Ġamp":6860,"Ġbur":6861,"Ġdst":6862,"Ġpur":6863,"Ġgate":6864,"Ġvim":6865,"rustum":6866,"Ġobs":6867,"Ġdefe":6868,"Ġ10000":6869,"Ġmatthieu":6870,"Ġbash":6871,"plu":6872,"Ġinteraction":6873,"Ġtransp":6874,"Ġtransmut":6875,"Ġoptimisation":6876,"Ġhashes":6877,"();":6878,"Ġunfortunate":6879,"Ġresponses":6880,"Ġinserts":6881,"Ġdeclarative":6882,"Ġshowed":6883,"logic":6884,"Ġ2012":6885,"Ġfolders":6886,"Ġchooses":6887,"optimal":6888,"Ġreaches":6889,"Ġopportun":6890,"linked":6891,"objects":6892,"Ġgrows":6893,"Ġprofiler":6894,"transform":6895,"template":6896,"developer":6897,"decimal":6898,"Ġakin":6899,"Ġdisallowed":6900,"ederation":6901,"Ġhypothetical":6902,"Ġshorthand":6903,"Ġhetero":6904,"ladimir":6905,"`?":6906,"cial":6907,"kernel":6908,"oot":6909,"ograph":6910,"ror":6911,"tag":6912,"Ġcult":6913,"Ġwast":6914,"Ġfed":6915,"Ġforth":6916,"etc":6917,"Ġexcer":6918,"unwrap":6919,"Ġcodebase":6920,"Ġparam":6921,"Ġrvalue":6922,"limit":6923,"Ġapolog":6924,"active":6925,"Ġtransforms":6926,"Ġtransparent":6927,"Ġbincode":6928,"Ġ&[":6929,"Ġresolving":6930,"nost":6931,"major":6932,"Ġcomparisons":6933,"Ġerased":6934,"instead":6935,"Ġfallback":6936,"Ġmathematic":6937,"Ġoccurrences":6938,"Ġtechniques":6939,"openssl":6940,"Ġmistakes":6941,"simplified":6942,"Ġconvoluted":6943,"plugin":6944,"53":6945,"76":6946,"82":6947,"=\"":6948,"gy":6949,"ium":6950,"nable":6951,"rf":6952,"wiki":6953,"Ġdia":6954,"Ġinverse":6955,"Ġredef":6956,"rop":6957,"Ġease":6958,"Ġgodaddy":6959,"Ġliving":6960,"kel":6961,"thy":6962,"Ġnotification":6963,"Ġjboss":6964,"cache":6965,"Ġafore":6966,"Ġfeasible":6967,"Ġclion":6968,"Ġaccessor":6969,"Ġappe":6970,"Ġdiscrimin":6971,"Ġquant":6972,"actix":6973,"Ġsparse":6974,"sha":6975,"loader":6976,"Ġfreeing":6977,"Ġaliased":6978,"Ġduplicating":6979,"Ġlowest":6980,"Ġphase":6981,"Ġdigging":6982,"Ġclauses":6983,"handle":6984,"Ġtagged":6985,"Ġindirectly":6986,"2424":6987,"Ġtriggers":6988,"Ġemulator":6989,"Ġpicked":6990,"Ġfalls":6991,"Ġcorner":6992,"Ġillustrates":6993,"Ġdistributed":6994,"Ġestablished":6995,"substrate":6996,"Ġutilize":6997,"Ġparenthesis":6998,"Ġcryptographic":6999,"Ġintrinsic":7000,"Ġunusual":7001,"product":7002,"Ġfighting":7003,"alias":7004,"Ġgeometry":7005,"width":7006,"Ġculture":7007,"98":7008,"aco":7009,"bon":7010,"event":7011,"gpu":7012,"mail":7013,"middle":7014,"ost":7015,"paces":7016,"zy":7017,"Ġten":7018,"Ġwsl":7019,"Ġdylib":7020,"Ġoop":7021,"itude":7022,"ene":7023,"Ġnu":7024,"Ġcores":7025,"adig":7026,"Ġalert":7027,"Ġpolled":7028,"entry":7029,"Ġadmit":7030,"Ġfake":7031,"Ġmutates":7032,"Ġprepend":7033,"../":7034,"Ġmanages":7035,"update":7036,"Ġassist":7037,"activity":7038,"Ġsublime":7039,"Ġmodul":7040,"Ġraii":7041,"typed":7042,"Ġsuggesting":7043,"Ġelab":7044,"Ġframes":7045,"obvious":7046,"Ġuniversal":7047,"Ġcompares":7048,"Ġcleaned":7049,"Ġphilo":7050,"Ġauthorization":7051,"Ġreporting":7052,"clip":7053,"functions":7054,"Ġdemonstration":7055,"Ġtalks":7056,"Ġunreachable":7057,"sqlite":7058,"Ġdeployed":7059,"Ġscheduler":7060,"Ġreversed":7061,"variable":7062,"Ġradix":7063,"similar":7064,"Ġaforementioned":7065,"Ġphiloso":7066,"au":7067,"cor":7068,"porate":7069,"Ġ\\":7070,"Ġtips":7071,"Ġaim":7072,"referent":7073,"Ġsdl":7074,"ordered":7075,"Ġhom":7076,"lla":7077,"util":7078,"utral":7079,"Ġrustdoc":7080,"Ġdeg":7081,"iders":7082,"Ġenh":7083,"cade":7084,"Ġresize":7085,"Ġwherever":7086,"avail":7087,"Ġbother":7088,"Ġprice":7089,"near":7090,"Ġraises":7091,"Ġdowncasting":7092,"theless":7093,"ĠĠĠĠĠĠĠĠĠĠĠĠĠ":7094,"Ġseparator":7095,"aked":7096,"Ġfreely":7097,"files":7098,"manifest":7099,"Ġdetected":7100,"Ġoverloaded":7101,"Ġrelationships":7102,"Ġgranted":7103,"support":7104,"execution":7105,"Ġassetlinks":7106,"Ġbuffered":7107,"uncrustify":7108,"available":7109,"!!":7110,"ba":7111,"sun":7112,"response":7113,"inl":7114,"Ġfli":7115,"stor":7116,"stra":7117,"Ġincomplete":7118,"Ġnight":7119,"Ġreimplement":7120,"Ġemitted":7121,"select":7122,"Ġvar":7123,"channel":7124,"Ġfire":7125,"Ġjit":7126,"Ġjks":7127,"Ġtrad":7128,"Ġserves":7129,"Ġthreaded":7130,"grind":7131,"plus":7132,"Ġwont":7133,"neutral":7134,"Ġtransitive":7135,"encil":7136,"should":7137,"Ġcustomer":7138,"Ġnevertheless":7139,"Ġrefuses":7140,"Ġdecoding":7141,"poss":7142,"Ġpreferable":7143,"Ġrecall":7144,"Ġ2014":7145,"Ġbegins":7146,"Ġpaper":7147,"Ġauthorities":7148,"Ġaccomplished":7149,"Ġsegmentation":7150,"Ġbrought":7151,"Ġmisunderstood":7152,"Ġfeedback":7153,"Ġrenamed":7154,"Ġdiscarded":7155,"projects":7156,"Ġheavily":7157,"developers":7158,"Ġdirty":7159,"Ġhonestly":7160,"terminated":7161,"Ġdaemon":7162,"Ġpublickeytoken":7163,"Ġvendor":7164,"Ġoccasion":7165,"Ġexcerpt":7166,"referential":7167,"!\"":7168,"eel":7169,"fd":7170,"fort":7171,"gcc":7172,"imm":7173,"kt":7174,"neck":7175,"past":7176,"random":7177,"uck":7178,"Ġ%":7179,"Ġsun":7180,"Ġmib":7181,"Ġuuid":7182,"Ġbear":7183,"Ġcoherence":7184,"dep":7185,"Ġprohib":7186,"ctional":7187,"Ġvaluable":7188,"Ġens":7189,"oder":7190,"Ġexpired":7191,"Ġteach":7192,"Ġ:-)":7193,"clud":7194,"image":7195,"Ġunderstandable":7196,"Ġbottle":7197,"Ġspin":7198,"Ġheight":7199,"medium":7200,"Ġstumped":7201,"Ġremainder":7202,"Ġterminology":7203,"Ġnumerous":7204,"Ġblack":7205,"Ġpriority":7206,"Ġsaves":7207,"Ġipv":7208,"Ġbusiness":7209,"Ġlightweight":7210,"Ġcpus":7211,"true":7212,"Ġexamine":7213,"correct":7214,"Ġsilently":7215,"Ġazure":7216,"Ġbottleneck":7217,"#,":7218,"hh":7219,"hy":7220,"lar":7221,"txt":7222,"Ġthor":7223,"Ġcc":7224,"Ġsides":7225,"Ġwikipedia":7226,"Ġmusl":7227,"Ġhur":7228,"rum":7229,"Ġsibling":7230,"lications":7231,"Ġknew":7232,"Ġacs":7233,"Ġdefer":7234,"group":7235,"Ġargu":7236,"Ġbasics":7237,"Ġhole":7238,"encies":7239,"Ġracer":7240,"Ġaddressed":7241,"Ġ40":7242,"Ġ==":7243,"Ġvisit":7244,"Ġoptimizing":7245,"Ġtimestamps":7246,"Ġphone":7247,"Ġreproduced":7248,"Ġclicking":7249,"Ġscreenshot":7250,"Ġpromot":7251,"Ġoverloo":7252,"Ġmixing":7253,"Ġviolates":7254,"Ġundes":7255,"Ġbrand":7256,"Ġconfirmed":7257,"Ġnickel":7258,"Ġsuffice":7259,"Ġdeliber":7260,"guide":7261,"Ġdeallocation":7262,"Ġcombinators":7263,"Ġreserved":7264,"Ġreliable":7265,"Ġcriteria":7266,"Ġcaveat":7267,"Ġsurrounding":7268,"Ġtackle":7269,"bench":7270,"verifytrust":7271,"Ġsymmetric":7272,"Ġwaits":7273,"Ġguidance":7274,"Ġthorough":7275,"bble":7276,"den":7277,"eb":7278,"future":7279,"float":7280,"gx":7281,"lay":7282,"pk":7283,"Ġicon":7284,"Ġdie":7285,"Ġoh":7286,"Ġmb":7287,"eng":7288,"Ġnd":7289,"isms":7290,"Ġrestore":7291,"Ġreused":7292,"dele":7293,"Ġstl":7294,"Ġlie":7295,"Ġvladimir":7296,"Ġjud":7297,"query":7298,"Ġunary":7299,"Ġapple":7300,"Ġcheckout":7301,"Ġconfuses":7302,"Ġexpectation":7303,"Ġlogged":7304,"Ġdecent":7305,"Ġlimiting":7306,"Ġshortest":7307,"Ġpractices":7308,"Ġcleanly":7309,"Ġalongside":7310,"Ġsatisfying":7311,"Ġlaunched":7312,"Ġjoined":7313,"Ġenforced":7314,"Ġstopped":7315,"Ġaffected":7316,"Ġfrontend":7317,"Ġrecognized":7318,"Ġexplore":7319,"guard":7320,"Ġdiscover":7321,"constra":7322,"Ġsurface":7323,"Ġtabs":7324,"Ġaspects":7325,"Ġtriang":7326,"Ġmandatory":7327,"compilation":7328,"Ġformula":7329,"Ġobscure":7330,"Ġhomo":7331,"(&":7332,".'":7333,"don":7334,"eas":7335,"ested":7336,"math":7337,"say":7338,"scri":7339,"remove":7340,"Ġmang":7341,"Ġstencil":7342,"Ġdoz":7343,"unsafe":7344,"Ġ\"/":7345,"Ġnoise":7346,"Ġexpon":7347,"iration":7348,"convert":7349,"Ġdesire":7350,"Ġwebservice":7351,"sample":7352,"Ġstatics":7353,"Ġrelax":7354,"Ġassoci":7355,"aker":7356,"Ġpacked":7357,"Ġsucc":7358,"Ġremoval":7359,"Ġclassic":7360,"Ġfinite":7361,"Ġcontrolled":7362,"Ġclosely":7363,"Ġhighest":7364,"Ġauthenticated":7365,"Ġdeleting":7366,"Ġintegrated":7367,"Ġgrapheme":7368,"Ġmaintained":7369,"Ġstruggle":7370,"instance":7371,"Ġnaively":7372,"copyable":7373,"Ġqt":7374,"bounded":7375,"Ġprincip":7376,"author":7377,"Ġintuitively":7378,"Ġrounding":7379,"Ġgoogled":7380,"Ġanalogous":7381,"beta":7382,"Ġrobust":7383,"Ġwildcard":7384,"controller":7385,"Ġmimic":7386,"Ġinconsistent":7387,"Ġpenalty":7388,")]":7389,"66":7390,"bc":7391,"Ġaff":7392,"rel":7393,"invalid":7394,"Ġsal":7395,"Ġbou":7396,"Ġbul":7397,"anal":7398,"Ġdimensional":7399,"Ġinjection":7400,"Ġmm":7401,"Ġhoo":7402,"Ġhides":7403,"Ġeclip":7404,"rastructure":7405,"Ġexcess":7406,"Ġmenu":7407,"Ġrusty":7408,"Ġalgebra":7409,"Ġwhatso":7410,"Ġpara":7411,"Ġlend":7412,"cols":7413,"Ġuninstall":7414,"Ġunnamed":7415,"Ġstructural":7416,"arize":7417,"izaco":7418,"Ġpreference":7419,"Ġoverwritten":7420,"intu":7421,"ressed":7422,"Ġhands":7423,"Ġcommits":7424,"Ġconsiders":7425,"Ġediting":7426,"Ġhashset":7427,"Ġ...)":7428,"Ġinfrastructure":7429,"Ġcomputes":7430,"Ġlapt":7431,"Ġyielded":7432,"keys":7433,"Ġfrees":7434,"liner":7435,"Ġcosts":7436,"solete":7437,"vectors":7438,"Ġmutexes":7439,"Ġexports":7440,"308":7441,"Ġclarification":7442,"Ġcircular":7443,"callback":7444,"counting":7445,"download":7446,"Ġconsequently":7447,"Ġrejected":7448,"Ġendianness":7449,"Ġmonths":7450,"Ġanchor":7451,"Ġshuffle":7452,"Ġadjacent":7453,"possibly":7454,"Ġensuring":7455,"Ġeclipse":7456,"Ġwhatsoever":7457,"72":7458,"78":7459,"bl":7460,"came":7461,"clic":7462,"pdf":7463,"Ġtz":7464,"Ġping":7465,"Ġrear":7466,"Ġelf":7467,"uth":7468,"oto":7469,"dereferencing":7470,"Ġexhib":7471,"Ġ(*":7472,"Ġnearest":7473,"Ġorth":7474,"Ġshed":7475,"Ġunions":7476,"Ġrand":7477,"Ġexpl":7478,"anging":7479,"Ġcloses":7480,"again":7481,"Ġarrayfire":7482,"Ġmessing":7483,"Ġconsum":7484,"created":7485,"++'":7486,"Ġbinds":7487,"Ġhosts":7488,"Ġ500":7489,"Ġtargeting":7490,"Ġbuiltin":7491,"Ġgrace":7492,"Ġosx":7493,"Ġ80":7494,"Ġincreased":7495,"Ġbrowsers":7496,"Ġwebsites":7497,"checked":7498,"Ġtransformations":7499,"Ġlua":7500,"Ġsentence":7501,"identity":7502,"Ġdemonstrated":7503,"Ġinterestingly":7504,"Ġcyclic":7505,"Ġproducts":7506,"Ġgtx":7507,"Ġsucceeded":7508,"Ġquoted":7509,"two":7510,"riendly":7511,"Ġexternally":7512,"going":7513,"Ġmonomorphization":7514,"Ġtransfers":7515,"matrix":7516,"Ġprepared":7517,"Ġphilosoph":7518,"Ġparagraph":7519,"Ġlaptop":7520,"75":7521,"81":7522,"br":7523,"boo":7524,"cent":7525,"hence":7526,"ogram":7527,"screen":7528,"tf":7529,"Ġti":7530,"Ġtens":7531,"Ġbtre":7532,"inger":7533,"Ġpulled":7534,"Ġmv":7535,"Ġmarks":7536,"Ġhexa":7537,"Ġlon":7538,"Ġbecame":7539,"Ġstm":7540,"Ġnotify":7541,"asure":7542,"Ġweight":7543,"Ġobsolete":7544,"Ġmatlab":7545,"Ġimperson":7546,"otherwise":7547,"Ġpointless":7548,"Ġconsult":7549,"plan":7550,"Ġrights":7551,"Ġcompletes":7552,"Ġentered":7553,"shared":7554,"Ġaccident":7555,"Ġswift":7556,"allocate":7557,"Ġinvalidating":7558,"Ġrecommendation":7559,"Ġincreases":7560,"Ġfunctors":7561,"Ġstrip":7562,"Ġplug":7563,"Ġunneeded":7564,"omicon":7565,"Ġfrustr":7566,"maps":7567,"Ġpasswords":7568,"Ġconsisting":7569,"prise":7570,"Ġindirect":7571,"Ġterminated":7572,"Ġpulling":7573,"Ġmeta":7574,"Ġwinverifytrust":7575,"Ġpresume":7576,"umption":7577,"visual":7578,"Ġtcpstream":7579,"Ġimmutability":7580,"Ġskips":7581,"pointers":7582,"Ġpainful":7583,"rtb":7584,"Ġcircumvent":7585,"Ġgpg":7586,"Ġfrancis":7587,"Ġhundreds":7588,"Ġinspired":7589,"Ġtechnology":7590,"Ġndarray":7591,"Ġhexadecimal":7592,"3161":7593,">>":7594,"iated":7595,"kan":7596,"none":7597,"pet":7598,"zed":7599,"Ġthumb":7600,"Ġcro":7601,"erv":7602,"Ġbal":7603,"Ġfont":7604,"Ġoct":7605,"Ġhi":7606,"Ġreact":7607,"icating":7608,"Ġvoid":7609,"ateur":7610,"Ġconj":7611,"ants":7612,"Ġfunctionally":7613,"Ġpolic":7614,"Ġarri":7615,"Ġparams":7616,"perhaps":7617,"Ġmutually":7618,"Ġpret":7619,"abi":7620,"Ġperipher":7621,"argateur":7622,"Ġlosing":7623,"Ġplayers":7624,"Ġexisted":7625,"Ġnons":7626,"Ġraised":7627,"Ġsmc":7628,"Ġrepresentations":7629,"Ġsens":7630,"ĠâĢ¦":7631,"Ġlatency":7632,"proto":7633,"Ġrespond":7634,"Ġintroduction":7635,"Ġdeals":7636,"Ġcalculates":7637,"Ġplanned":7638,"Ġdifficulties":7639,"ambigu":7640,"managed":7641,"Ġmechanisms":7642,"socketfactory":7643,"Ġbarri":7644,"Ġdenied":7645,"Ġviolation":7646,"Ġmeasurement":7647,"Ġincremented":7648,"089":7649,"dispatch":7650,"Ġdatetime":7651,"Ġrejects":7652,"Ġtruncated":7653,"Ġwarns":7654,"Ġreveals":7655,"Ġhangs":7656,"Ġsolely":7657,"Ġdatatype":7658,"Ġdisadvantage":7659,"aware":7660,"ev":7661,"last":7662,"take":7663,"lections":7664,"lence":7665,"Ġwheel":7666,"Ġglf":7667,"term":7668,"Ġworkstation":7669,"Ġchris":7670,"Ġshallow":7671,"Ġarrow":7672,"Ġarise":7673,"Ġunified":7674,"Ġunhand":7675,"permalink":7676,"Ġrunnable":7677,"Ġbubble":7678,"every":7679,"Ġspecifiers":7680,"actually":7681,"Ġbacked":7682,"Ġconvertible":7683,"beit":7684,"Ġedges":7685,"Ġcorrectness":7686,"cripten":7687,"Ġroom":7688,"parse":7689,"Ġlocalhost":7690,"Ġinflu":7691,"writer":7692,"ranked":7693,"Ġ1024":7694,"Ġreducing":7695,"Ġrfcs":7696,"Ġzeroes":7697,"Ġ;)":7698,"Ġincreasing":7699,"Ġphra":7700,"Ġhygi":7701,"2019":7702,"Ġoverflows":7703,"Ġinstantiating":7704,"Ġfilters":7705,"Ġoccurring":7706,"expression":7707,"Ġfills":7708,"Ġdlls":7709,"277":7710,"Ġcircle":7711,"Ġpinning":7712,"cfg":7713,"Ġinterrupts":7714,"Ġattacks":7715,"Ġpolling":7716,"Ġrenaming":7717,"Ġinherently":7718,"Ġgpus":7719,"Ġrectangle":7720,"Ġunwinding":7721,"Ġcfg":7722,"Ġinconvenient":7723,"Ġoptimisations":7724,"Ġheterogeneous":7725,"fortable":7726,"')":7727,"69":7728,"686":7729,"bd":7730,"fil":7731,"spe":7732,"tered":7733,"Ġsgx":7734,"Ġoo":7735,"Ġmps":7736,"Ġreexport":7737,"Ġemphasis":7738,"Ġeuler":7739,"sely":7740,"Ġcoded":7741,"alph":7742,"Ġstub":7743,"ets":7744,"Ġcompose":7745,"loying":7746,"Ġtraversal":7747,"Ġrus":7748,"Ġrng":7749,"item":7750,"usable":7751,"abb":7752,"Ġdifferentiate":7753,"args":7754,"Ġargue":7755,"condition":7756,"Ġinterchange":7757,"Ġlocate":7758,"phere":7759,"parame":7760,"Ġoffline":7761,"Ġassociate":7762,"Ġachieving":7763,"acci":7764,"Ġconfiguring":7765,"Ġnodejs":7766,"Ġequals":7767,"Ġkeystores":7768,"Ġincor":7769,"Ġcostly":7770,"ambiguous":7771,"Ġbrace":7772,"streamer":7773,"Ġfilling":7774,"Ġstopping":7775,"Ġtreating":7776,"Ġlacking":7777,"Ġfourth":7778,"methods":7779,"Ġtriggering":7780,"authent":7781,"Ġinterpretation":7782,"0000000000000000":7783,"Ġaka":7784,"Ġopportunity":7785,"Ġtraditional":7786,"bert":7787,"bases":7788,"equal":7789,"ka":7790,"ov":7791,"pf":7792,"sd":7793,"vity":7794,"Ġssh":7795,"ste":7796,"Ġhiding":7797,"Ġeco":7798,"Ġems":7799,"Ġeager":7800,"rus":7801,"thus":7802,"Ġ(#":7803,"Ġmagn":7804,"Ġseek":7805,"Ġparadig":7806,"Ġker":7807,"reader":7808,"Ġplans":7809,"Ġprem":7810,"elt":7811,"grade":7812,"gramming":7813,"Ġthreadpool":7814,"osity":7815,"Ġdisambigu":7816,"Ġhelping":7817,"Ġbacking":7818,"Ġweblogic":7819,"beh":7820,"before":7821,"Ġequation":7822,"Ġlogon":7823,"Ġessence":7824,"pol":7825,"Ġdesigning":7826,"Ġgradle":7827,"Ġdistances":7828,"Ġviewing":7829,"hosting":7830,"Ġ60":7831,"Ġpropose":7832,"Ġdisplaying":7833,"Ġunresolved":7834,"Ġappends":7835,"partially":7836,"Ġaffects":7837,"Ġpromising":7838,"visor":7839,"specifically":7840,"heap":7841,"Ġmajority":7842,"Ġpressed":7843,"Ġhistogram":7844,"Ġmillise":7845,"Ġfriendly":7846,"Ġsegfaults":7847,"Ġcards":7848,"Ġrotate":7849,"currently":7850,"Ġwasteful":7851,"registry":7852,"difference":7853,"engine":7854,"Ġlongest":7855,"Ġecosystem":7856,"catch":7857,"cpy":7858,"drop":7859,"fb":7860,"uit":7861,"Ġsink":7862,"atomic":7863,"Ġbill":7864,"Ġpicking":7865,"Ġninject":7866,"seg":7867,"Ġsoph":7868,"Ġcanvas":7869,"pem":7870,"Ġorph":7871,"Ġthereby":7872,"Ġleaf":7873,"Ġunambiguous":7874,"Ġ\"\"":7875,"Ġring":7876,"Ġexpires":7877,"Ġmemo":7878,"Ġnewest":7879,"Ġevol":7880,"argument":7881,"Ġunderstands":7882,"Ġdirections":7883,"Ġclipping":7884,"Ġindication":7885,"Ġbyteorder":7886,"Ġeffective":7887,"Ġdiscord":7888,"Ġpeer":7889,"Ġderives":7890,"Ġsplits":7891,"Ġcoerces":7892,"Ġtracker":7893,"Ġobtaining":7894,"Ġencountering":7895,"Ġnumerical":7896,"Ġverbosity":7897,"Ġ~[":7898,"Ġrepetitive":7899,"Ġfriends":7900,"Ġreserve":7901,"Ġintrinsics":7902,"Ġorganization":7903,"Ġmistaken":7904,"semble":7905,"Ġminimize":7906,"Ġprivileges":7907,"private":7908,"Ġampers":7909,"Ġredefine":7910,"storage":7911,"Ġmmu":7912,"intuitive":7913,"Ġunhandled":7914,"Ġemscripten":7915,"0308":7916,"61":7917,"<>":7918,"good":7919,"iation":7920,"pow":7921,"tutorial":7922,"wlock":7923,"Ġri":7924,"Ġtink":7925,"Ġaarch":7926,"rees":7927,"Ġcpp":7928,"onomicon":7929,"Ġbi":7930,"aning":7931,"Ġdivid":7932,"Ġmid":7933,"Ġmount":7934,"Ġmouse":7935,"especially":7936,"Ġreinterpre":7937,"icially":7938,"ntcl":7939,"Ġgac":7940,"celer":7941,"Ġascription":7942,"igible":7943,"Ġwhichever":7944,"Ġchip":7945,"Ġvalgrind":7946,"Ġshap":7947,"Ġwhats":7948,"caml":7949,"Ġleverage":7950,"Ġapplet":7951,"Ġfiled":7952,"usually":7953,"Ġbump":7954,"aby":7955,"aged":7956,"Ġimplied":7957,"emap":7958,"Ġsuppress":7959,"issue":7960,"Ġ3161":7961,"Ġguides":7962,"Ġimo":7963,"short":7964,"Ġ/.":7965,"Ġdestruction":7966,"Ġvisitor":7967,"Ġ2013":7968,"synt":7969,"Ġtracked":7970,"Ġdirective":7971,"Ġcrazy":7972,"initializ":7973,"collections":7974,"running":7975,"Ġdeeply":7976,"Ġsubstitution":7977,"accessible":7978,"operation":7979,"ĠĠĠĠĠĠĠĠĠĠĠĠĠĠĠĠĠĠĠĠĠĠĠĠĠĠĠĠĠĠĠĠĠĠĠĠĠĠĠĠĠĠĠĠĠĠĠĠĠĠĠĠĠĠĠĠĠĠĠĠĠĠĠĠ":7980,"Ġdecrement":7981,"Ġreallocation":7982,"Ġoverridden":7983,"Ġchalleng":7984,"Ġshortened":7985,"Ġalphab":7986,"framework":7987,"rfcs":7988,"Ġtweak":7989,"Ġbundle":7990,"Ġforbids":7991,"Ġelevated":7992,"Ġnamespaces":7993,"Ġmagnitude":7994,"Ġorphan":7995,"51":7996,"74":7997,"84":7998,":-":7999,"eval":8000,"fat":8001,"mi":8002,"next":8003,"press":8004,"ued":8005,"Ġ]":8006,"Ġwire":8007,"atable":8008,"Ġfinger":8009,"Ġdk":8010,"Ġmask":8011,"enable":8012,"Ġnix":8013,"Ġnpm":8014,"Ġreusing":8015,"Ġutc":8016,"Ġurls":8017,"Ġbeaut":8018,"otes":8019,"Ġconclude":8020,"Ġdecomp":8021,"Ġfirew":8022,"Ġfibon":8023,"Ġship":8024,"Ġsuite":8025,"Ġoutstanding":8026,"Ġunbounded":8027,"Ġpreprocess":8028,"Ġtamp":8029,"Ġnewlines":8030,"Ġcommas":8031,"diction":8032,"Ġagg":8033,"Ġregions":8034,"Ġsmarter":8035,"Ġoffending":8036,"Ġlastly":8037,"Ġdecisions":8038,"curses":8039,"Ġconstantly":8040,"Ġmentioning":8041,"allocation":8042,"Ġviews":8043,"Ġcaches":8044,"Ġcapital":8045,"Ġplanning":8046,"Ġroutines":8047,"5619":8048,"fixed":8049,"partial":8050,"Ġprotocols":8051,"Ġactivex":8052,"Ġblind":8053,"Ġcryptic":8054,"Ġdeployment":8055,"offs":8056,"Ġuploaded":8057,"Ġemits":8058,"Ġcentos":8059,"Ġreflected":8060,"Ġatomics":8061,"Ġreallocate":8062,"provided":8063,"Ġconvin":8064,"Ġapproximately":8065,"Ġunusable":8066,"Ġindentation":8067,"launch":8068,"Ġmalicious":8069,"charact":8070,"Ġparallelize":8071,"Ġpersists":8072,"Ġmathematical":8073,"Ġdiagram":8074,"Ġelaborate":8075,"Ġbouncy":8076,"Ġmpsc":8077,"Ġfibonacci":8078,"561934":8079,"?:":8080,"calcul":8081,"eks":8082,"game":8083,"mn":8084,"mag":8085,"mies":8086,"pn":8087,"push":8088,"sides":8089,"sync":8090,"tect":8091,"Ġwww":8092,"Ġwiki":8093,"Ġanimal":8094,"arting":8095,"Ġgodbolt":8096,"dest":8097,"Ġexc":8098,"then":8099,"Ġprob":8100,"Ġrustfmt":8101,"Ġrustonomicon":8102,"unit":8103,"Ġcompaction":8104,"Ġoracle":8105,"Ġmaven":8106,"ulations":8107,"Ġintro":8108,"Ġsudo":8109,"Ġgetters":8110,"Ġtraver":8111,"Ġrate":8112,"Ġrunner":8113,"Ġ101":8114,"istically":8115,"Ġnewtypes":8116,"Ġimplications":8117,"Ġ21":8118,"ifying":8119,"Ġplayed":8120,"Ġproven":8121,"Ġsigner":8122,"Ġsupplying":8123,"Ġconsumption":8124,"Ġsubtra":8125,"Ġsubscri":8126,"begin":8127,"Ġvalidated":8128,"Ġhear":8129,"mlink":8130,"Ġrelate":8131,"Ġoptimised":8132,"comput":8133,"Ġcustomize":8134,"Ġsensor":8135,"Ġdeciding":8136,"Ġcastle":8137,"validator":8138,"Ġsemi":8139,"Ġreduces":8140,"ieldy":8141,"Ġchains":8142,"Ġsslcontext":8143,"Ġexperiments":8144,"appro":8145,"Ġtroubles":8146,"Ġdispatched":8147,"Ġincidentally":8148,"Ġinitialise":8149,"Ġtransforming":8150,"Ġnatively":8151,"tests":8152,"window":8153,"Ġyew":8154,"Ġassertions":8155,"Ġinfinitely":8156,"Ġinherits":8157,"Ġcarries":8158,"Ġenterprise":8159,"Ġarticles":8160,"Ġdivis":8161,"Ġescaped":8162,"Ġincrementing":8163,"urable":8164,"Ġgrowing":8165,"Ġprimarily":8166,"Ġencapsulation":8167,"complex":8168,"Ġenumerate":8169,"Ġrotation":8170,"Ġmeshes":8171,"Ġunwieldy":8172,"Ġemploy":8173,"Ġoccasionally":8174,"Ġconsumers":8175,"Ġsophist":8176,"bad":8177,"bile":8178,"front":8179,"federation":8180,"ku":8181,"kas":8182,"mach":8183,"sum":8184,"tm":8185,"Ġthrew":8186,"inside":8187,"Ġwall":8188,"onal":8189,"Ġfelt":8190,"Ġocaml":8191,"esome":8192,"sect":8193,"utf":8194,"aligned":8195,"Ġgran":8196,"Ġforwards":8197,"Ġdoable":8198,"Ġasym":8199,"Ġfive":8200,"Ġpoison":8201,"Ġtrie":8202,"Ġchat":8203,"Ġjet":8204,"Ġparity":8205,"reading":8206,"gradle":8207,"ffi":8208,"Ġkeyboard":8209,"Ġhappily":8210,"Ġsubmitted":8211,"Ġwebserver":8212,"Ġformal":8213,"Ġscoping":8214,"++)":8215,"Ġeduc":8216,"Ġtransactions":8217,"ĠĠĠĠĠĠĠĠĠĠĠ":8218,"Ġdecoder":8219,"Ġseparating":8220,"ĠâĢĺ":8221,"Ġpanel":8222,"sets":8223,"Ġinferring":8224,"rank":8225,"Ġcommenting":8226,"Ġtokenizer":8227,"apple":8228,"handshake":8229,"Ġskipping":8230,"Ġshaders":8231,"Ġmsg":8232,"insert":8233,"Ġmaintaining":8234,"Ġconveniently":8235,"Ġobservable":8236,"Ġconcatenation":8237,"Ġcontracts":8238,"accessiterator":8239,"macros":8240,"Ġlistening":8241,"Ġfortran":8242,"Ġdecrease":8243,"matching":8244,"Ġvulkan":8245,"Ġradius":8246,"Ġnavigate":8247,"attrib":8248,"according":8249,"Ġevidence":8250,"Ġcodepoints":8251,"dynamic":8252,"Ġundesirable":8253,"Ġdividing":8254,"Ġgranular":8255,".]":8256,".),":8257,"bus":8258,"dt":8259,"jdk":8260,"ky":8261,"liter":8262,"rlib":8263,"sites":8264,"uent":8265,"Ġame":8266,"Ġapt":8267,"onmies":8268,"Ġbod":8269,"Ġfd":8270,"met":8271,"Ġdyn":8272,"Ġdash":8273,"Ġdns":8274,"Ġincur":8275,"Ġmpi":8276,"Ġnik":8277,"Ġbevy":8278,"vella":8279,"utter":8280,"Ġlift":8281,"peer":8282,"thes":8283,"allows":8284,"Ġconform":8285,"Ġdeconstruct":8286,"Ġalbeit":8287,"Ġtruth":8288,"Ġadvent":8289,"inder":8290,"Ġrwlock":8291,"Ġ:-":8292,"Ġsymlink":8293,"Ġparties":8294,"Ġ255":8295,"exten":8296,"Ġconserv":8297,"Ġdisallows":8298,"Ġwebapp":8299,"Ġspan":8300,"atively":8301,"Ġcolors":8302,"Ġproviders":8303,"Ġcomfortable":8304,"Ġfulltrust":8305,"sak":8306,"Ġdownstream":8307,"typ":8308,"Ġopenmp":8309,"Ġconsideration":8310,"Ġinstalls":8311,"Ġunsafely":8312,"Ġextent":8313,"Ġlargely":8314,"stamping":8315,"Ġcomparator":8316,"Ġparents":8317,"Ġarmv":8318,"ensitive":8319,"overl":8320,"Ġlaunches":8321,"Ġexiting":8322,"express":8323,"Ġpopulated":8324,"Ġfailures":8325,"Ġdetects":8326,"âĢĿ.":8327,"Ġadaptor":8328,"Ġobserv":8329,"Ġcubes":8330,"twa":8331,"Ġomitting":8332,"Ġintentional":8333,"slices":8334,"Ġcoverage":8335,"Ġfactors":8336,"Ġfactorial":8337,"Ġupgrading":8338,"Ġinspecting":8339,"Ġmiri":8340,"Ġstyles":8341,"Ġdegree":8342,"Ġhomogeneous":8343,"Ġpolicies":8344,"Ġparadigm":8345,"Ġmilliseconds":8346,"Ġsubtraction":8347,"Ġsophisticated":8348,"apped":8349,"actory":8350,"ahead":8351,"car":8352,"far":8353,"found":8354,"fact":8355,"mx":8356,"ooth":8357,"please":8358,"vit":8359,"inting":8360,"inery":8361,"ones":8362,"ories":8363,"ancing":8364,"Ġhouse":8365,"Ġncurses":8366,"llers":8367,"cted":8368,"Ġthats":8369,"Ġgh":8370,"Ġvirt":8371,"keep":8372,"asc":8373,"iline":8374,"Ġalright":8375,"Ġints":8376,"odo":8377,"Ġrgb":8378,"ocation":8379,"mmer":8380,"Ġpredefined":8381,"Ġspecially":8382,"Ġperman":8383,"Ġoverwriting":8384,"Ġ22":8385,"Ġ2000":8386,"emu":8387,"arton":8388,"Ġdisag":8389,"Ġprone":8390,"Ġsubprocess":8391,"Ġbackward":8392,"Ġwebview":8393,"Ġspr":8394,"++:":8395,"++?":8396,"Ġdetection":8397,"shad":8398,"shift":8399,"moved":8400,"mozilla":8401,"Ġ---":8402,"Ġbrevity":8403,"Ġmachinery":8404,"Ġannotating":8405,"ester":8406,"prefer":8407,"Ġdemands":8408,"Ġdiscussions":8409,"initialize":8410,"configuration":8411,"Ġnullable":8412,"commands":8413,"Ġunwrapped":8414,"deserializ":8415,"Ġglue":8416,"Ġpublishing":8417,"Ġviolating":8418,"Ġmeasurements":8419,"Ġcube":8420,"Ġ>=":8421,"Ġjoining":8422,"Ġquality":8423,"Ġdelegation":8424,"Ġintentionally":8425,"Ġsubsequently":8426,"Ġmillions":8427,"operator":8428,"classes":8429,"Ġpkg":8430,"Ġconfirmation":8431,"Ġoverriding":8432,"Ġsnake":8433,"Ġwidgets":8434,"Ġlabels":8435,"Ġmultithreading":8436,"Ġretrieved":8437,"Ġcrucial":8438,"================":8439,"Ġthousands":8440,"nostic":8441,"immutable":8442,"click":8443,"Ġbodies":8444,"!),":8445,"1000":8446,"air":8447,"ales":8448,"friendly":8449,"gdb":8450,"rm":8451,"tmp":8452,"Ġtun":8453,"Ġcipher":8454,"inf":8455,"Ġwise":8456,"Ġwaker":8457,"Ġwpf":8458,"lector":8459,"legant":8460,"lets":8461,"Ġpert":8462,"Ġpending":8463,"Ġhits":8464,"Ġrend":8465,"Ġreload":8466,"Ġreusable":8467,"role":8468,"anted":8469,"Ġworkers":8470,"Ġimplementer":8471,"Ġexamin":8472,"Ġunp":8473,"Ġunity":8474,"Ġhasher":8475,"Ġrusqlite":8476,"Ġcompilable":8477,"Ġrhs":8478,"Ġcontrary":8479,"Ġfirm":8480,"Ġlibcore":8481,"abs":8482,"Ġmemcpy":8483,"agne":8484,"Ġtrusting":8485,"Ġclunk":8486,"external":8487,"voke":8488,"Ġdisabling":8489,"Ġspi":8490,"Ġexpressing":8491,"serializ":8492,"Ġguys":8493,"share":8494,"Ġrealise":8495,"Ġassigns":8496,"Ġidioms":8497,"Ġsimplification":8498,"Ġcounters":8499,"proble":8500,"allee":8501,"Ġworlds":8502,"Ġgrate":8503,"Ġoutlined":8504,"Ġslave":8505,"mostly":8506,"Ġserializer":8507,"Ġincrements":8508,"Ġcurve":8509,"Ġspawns":8510,"Ġspeak":8511,"2010":8512,"2015":8513,"Ġexplanations":8514,"Ġguidelines":8515,"Ġreproduces":8516,"Ġdemonstrating":8517,"generate":8518,"Ġconcerning":8519,"refutable":8520,"Ġpasted":8521,"Ġawesome":8522,"installed":8523,"Ġcounterpart":8524,"Ġpromises":8525,"Ġdenote":8526,"Ġmeasured":8527,"Ġconventional":8528,"content":8529,"Ġdelegates":8530,"Ġencapsulates":8531,"Ġdumb":8532,"Ġcryptography":8533,"Ġrobert":8534,"Ġforgotten":8535,"Ġmigration":8536,"Ġneighbor":8537,"Ġscheduled":8538,"Ġcluster":8539,"Ġdeterministic":8540,"Ġtransmuting":8541,"limited":8542,"Ġpromotion":8543,"Ġthoroughly":8544,"Ġtriangles":8545,"Ġgracefully":8546,"filter":8547,"Ġrusoto":8548,"Ġfirewall":8549,"Ġaggreg":8550,"overlapping":8551,"0277":8552,"79":8553,"\\\\\"":8554,"_^":8555,"aced":8556,"efficient":8557,"hr":8558,"yi":8559,"Ġaabb":8560,"rest":8561,"Ġce":8562,"Ġcxf":8563,"inner":8564,"Ġband":8565,"meaning":8566,"Ġple":8567,"Ġhkt":8568,"Ġuint":8569,"alf":8570,"Ġgap":8571,"Ġdom":8572,"rag":8573,"Ġvast":8574,"chrome":8575,"Ġrustling":8576,"Ġtrial":8577,"Ġweeks":8578,"Ġresides":8579,"about":8580,"Ġsetter":8581,"cross":8582,"Ġmultiplying":8583,"Ġsubmodules":8584,"Ġtranslates":8585,"Ġoptimise":8586,"Ġzipped":8587,"Ġ48":8588,"setting":8589,"Ġhostname":8590,"proxy":8591,"langu":8592,"Ġresponds":8593,"\",\"":8594,"allet":8595,"Ġprivacy":8596,"Ġutilities":8597,"Ġunivers":8598,"Ġgoals":8599,"wrapper":8600,"strings":8601,"Ġquerying":8602,"Ġinitialised":8603,"Ġgraphs":8604,"Ġaccounts":8605,"Ġmscor":8606,"httpapplication":8607,"Ġpredicates":8608,"Ġsuited":8609,"Ġlacks":8610,"package":8611,"Ġcsr":8612,"Ġdoubly":8613,"Ġcontravariant":8614,"Ġresorting":8615,"Ġpreceding":8616,"yzer":8617,"Ġsynchronously":8618,"Ġoverrides":8619,"Ġassembler":8620,"Ġrevision":8621,"Ġretrieving":8622,"Ġprepare":8623,"Ġbreakpoints":8624,"crypto":8625,"Ġ^_^":8626,"Ġcriterion":8627,"optimized":8628,"Ġlegacy":8629,"Ġbriefly":8630,"Ġcompromised":8631,"Ġanalyze":8632,"scope":8633,"Ġarguably":8634,"Ġpretend":8635,"Ġdisambiguate":8636,"('":8637,"/#":8638,"<'":8639,"\\\\":8640,"cra":8641,"circ":8642,"dar":8643,"dist":8644,"glob":8645,"native":8646,"ration":8647,"Ġcn":8648,"leans":8649,"left":8650,"Ġinvent":8651,"itate":8652,"Ġnul":8653,"Ġyester":8654,"sec":8655,"otlin":8656,"deref":8657,"Ġexclude":8658,"Ġconve":8659,"undefined":8660,"Ġseper":8661,"imed":8662,"Ġsums":8663,"Ġunavailable":8664,"Ġ\",":8665,"Ġappended":8666,"lium":8667,"perform":8668,"Ġdatabases":8669,"grams":8670,"aph":8671,"astic":8672,"dibly":8673,"Ġ'/":8674,"Ġinterpo":8675,"Ġsubsystem":8676,"Ġagent":8677,"Ġsmtp":8678,"Ġrequesting":8679,"Ġopencl":8680,"Ġbooleans":8681,"Ġofficially":8682,"Ġdecor":8683,"Ġhashmaps":8684,"Ġinsist":8685,"Ġbuffering":8686,"backtrace":8687,"Ġ&,":8688,"Ġscripting":8689,"Ġunsu":8690,"Ġincredibly":8691,"Ġcleaning":8692,"Ġtracks":8693,"Ġchapters":8694,"Ġdescriptors":8695,"Ġrepositories":8696,"collect":8697,"Ġrestricts":8698,"generator":8699,"commit":8700,"options":8701,"Ġmagically":8702,"Ġirq":8703,"Ġfnonce":8704,"Ġinelegant":8705,"Ġelide":8706,"castle":8707,"Ġmappings":8708,"Ġsummarize":8709,"Ġsubstant":8710,"Ġbrute":8711,"ategory":8712,"Ġoccurrence":8713,"Ġeliminates":8714,"Ġendpoints":8715,"bounds":8716,"Ġfrequency":8717,"Ġautomate":8718,"Ġlints":8719,"Ġtruncate":8720,"Ġapproximation":8721,"Ġbroader":8722,"component":8723,"Ġcudam":8724,"demand":8725,"properties":8726,"simple":8727,"driver":8728,"Ġproposal":8729,"Ġpipes":8730,"thyst":8731,"Ġflip":8732,"Ġdozen":8733,"Ġsuccinct":8734,"analyzer":8735,"Ġfrustrating":8736,"evalu":8737,"Ġrenders":8738,"Ġyesterday":8739,"<&":8740,"big":8741,"brew":8742,"coding":8743,"djavax":8744,"fail":8745,"gate":8746,"hot":8747,"oken":8748,"pad":8749,"vg":8750,"var":8751,"Ġrom":8752,"Ġah":8753,"recurs":8754,"Ġcallee":8755,"Ġwan":8756,"Ġptr":8757,"Ġmsys":8758,"Ġhrtb":8759,"Ġnast":8760,"Ġreactor":8761,"separ":8762,"asset":8763,"atest":8764,"ched":8765,"Ġnecess":8766,"unction":8767,"Ġcompli":8768,"Ġarrange":8769,"Ġlen":8770,"Ġlegit":8771,"orexception":8772,"Ġresume":8773,"Ġtypo":8774,"Ġoverview":8775,"ffic":8776,"Ġworkspaces":8777,"aving":8778,"Ġparametric":8779,"exper":8780,"Ġoutputting":8781,"Ġconfident":8782,"Ġmultiline":8783,"Ġtooling":8784,"ecc":8785,"Ġindefin":8786,"Ġsuboptimal":8787,"Ġtranslating":8788,"encing":8789,"Ġ);":8790,"player":8791,"Ġrefresh":8792,"moving":8793,"network":8794,"Ġdetermining":8795,"Ġincremental":8796,"Ġessential":8797,"2017":8798,"Ġsketch":8799,"Ġskipped":8800,"Ġerase":8801,"Ġgrouping":8802,"writes":8803,"Ġmanipulated":8804,"Ġjsse":8805,"Ġbrid":8806,"Ġfetching":8807,"Ġpreserved":8808,"Ġrende":8809,"targets":8810,"Ġdeduced":8811,"Ġautomated":8812,"toolchain":8813,"Ġadapters":8814,"Ġcontinuing":8815,"Ġterribly":8816,"Ġ__":8817,"pair":8818,"ographic":8819,"Ġexcessive":8820,"Ġinfluence":8821,"Ġshapes":8822,"syntax":8823,"Ġtraversing":8824,"Ġclunky":8825,"#.":8826,"823":8827,"double":8828,"ey":8829,"fed":8830,"frustum":8831,"look":8832,"oh":8833,"pos":8834,"ufficient":8835,"Ġque":8836,"Ġtight":8837,"Ġtip":8838,"Ġcul":8839,"Ġsca":8840,"Ġscre":8841,"Ġwider":8842,"atorexception":8843,"ora":8844,"orig":8845,"Ġfps":8846,"leq":8847,"Ġpg":8848,"Ġpng":8849,"Ġmalloc":8850,"esis":8851,"Ġnth":8852,"Ġnoo":8853,"llvm":8854,"Ġlying":8855,"alk":8856,"Ġvan":8857,"Ġ(/":8858,"asant":8859,"Ġseam":8860,"Ġcompound":8861,"ssle":8862,"Ġshot":8863,"Ġado":8864,"comb":8865,"ocument":8866,"Ġreside":8867,"Ġuphold":8868,"Ġimpose":8869,"Ġ23":8870,"Ġverifies":8871,"among":8872,"expr":8873,"Ġdeploying":8874,"plit":8875,"Ġsimulation":8876,"creating":8877,"Ġexpressive":8878,"ialeq":8879,"Ġparticles":8880,"pop":8881,"validatorexception":8882,"Ġ&'":8883,"missing":8884,"arnach":8885,"Ġlaid":8886,"Ġunsuc":8887,"Ġfolding":8888,"0000000":8889,"Ġports":8890,"Ġdownloads":8891,"Ġandroidmanifest":8892,"initial":8893,"Ġdestroying":8894,"Ġconsistency":8895,"Ġtoolchains":8896,"Ġactivate":8897,"location":8898,"arrays":8899,"Ġdenoted":8900,"Ġ{}":8901,"Ġdivided":8902,"drig":8903,"Ġcheers":8904,"Ġqemu":8905,"Ġsufficiently":8906,"Ġdistribute":8907,"Ġfatal":8908,"Ġbusy":8909,"Ġdiscarding":8910,"Ġpropagation":8911,"Ġschedul":8912,"Ġaccumulate":8913,"Ġreborrowing":8914,"Ġaborting":8915,"Ġcaspol":8916,"dependencies":8917,"Ġtouching":8918,"smart":8919,"between":8920,"Ġrevocation":8921,"Ġtriangle":8922,"fields":8923,"Ġisolated":8924,"pported":8925,"Ġstudy":8926,"Ġsyscall":8927,"folder":8928,"Ġshutdown":8929,"Ġartifacts":8930,"existing":8931,"Ġviable":8932,"Ġappeared":8933,"middleware":8934,"pasting":8935,"Ġtinkering":8936,"Ġfingerprint":8937,"machine":8938,"typically":8939,"Ġfirmware":8940,"Ġgrateful":8941,"Ġmscorlib":8942,"Ġunsupported":8943,"Ġcudamalloc":8944,"Ġunsuccess":8945,"\"),":8946,"'?":8947,"512":8948,"93":8949,"])":8950,"aff":8951,"bot":8952,"bbit":8953,"due":8954,"iet":8955,"jre":8956,"single":8957,"tk":8958,"uous":8959,"wide":8960,"ï¼":8961,"Ġtill":8962,"Ġtang":8963,"Ġtheme":8964,"rece":8965,"Ġsven":8966,"Ġsingly":8967,"ater":8968,"Ġfan":8969,"Ġhero":8970,"esign":8971,"isher":8972,"rocket":8973,"Ġcoales":8974,"algebra":8975,"Ġgstreamer":8976,"del":8977,"Ġprox":8978,"Ġrustace":8979,"adays":8980,"urious":8981,"Ġcompos":8982,"Ġ./":8983,"Ġoriented":8984,"Ġfunny":8985,"Ġpod":8986,"Ġimplementers":8987,"Ġneedless":8988,"Ġjul":8989,"Ġenlight":8990,"Ġadopt":8991,"Ġunaware":8992,"Ġkilled":8993,"Ġkotlin":8994,"Ġamd":8995,"Ġintoiterator":8996,"msung":8997,"ignoring":8998,"Ġtypescript":8999,"Ġnowadays":9000,"Ġhandful":9001,"Ġinterle":9002,"Ġsecondary":9003,"Ġmultiplied":9004,"Ġwebpage":9005,"Ġspread":9006,"Ġcorrected":9007,"Ġmodifier":9008,"encoded":9009,"Ġproducer":9010,"Ġdownsides":9011,"phone":9012,"Ġbehaviors":9013,"acs":9014,"Ġoccure":9015,"Ġswapped":9016,"fcs":9017,"Ġokhttp":9018,"Ġadvoc":9019,"Ġ;-)":9020,"Ġshares":9021,"certain":9022,"structs":9023,"Ġcommunicating":9024,"Ġregularly":9025,"Ġ90":9026,"Ġlukas":9027,"crt":9028,"Ġexited":9029,"gligible":9030,"Ġyeah":9031,"Ġblue":9032,"Ġinfinity":9033,"callers":9034,"umpy":9035,"listic":9036,"Ġspecialize":9037,"Ġconfirms":9038,"Ġdict":9039,"Ġsubstituted":9040,"Ġenclosed":9041,"tempor":9042,"Ġdecrypted":9043,"dependent":9044,"Ġreversing":9045,"better":9046,"helper":9047,"Ġinvestigation":9048,"Ġdatatypes":9049,"unique":9050,"Ġvulnerability":9051,"brev":9052,"Ġexercises":9053,"Ġmarsh":9054,"obviously":9055,"Ġdeliberately":9056,"Ġbarrier":9057,"Ġhygiene":9058,"Ġasymmetric":9059,"Ġrustlings":9060,"language":9061,"Ġenlighten":9062,"/../":9063,"71":9064,"cv":9065,"ga":9066,"tx":9067,"Ġaug":9068,"invent":9069,"Ġscro":9070,"oun":9071,"Ġff":9072,"stat":9073,"Ġdates":9074,"Ġoauth":9075,"itter":9076,"ittle":9077,"iser":9078,"Ġreconstruct":9079,"Ġrecompiling":9080,"Ġuri":9081,"Ġet":9082,"second":9083,"Ġcomplement":9084,"adv":9085,"Ġnest":9086,"Ġfunc":9087,"Ġfiq":9088,"Ġmozilla":9089,"Ġshipped":9090,"Ġuncondition":9091,"Ġadditions":9092,"ford":9093,"Ġprediction":9094,"ffff":9095,"concept":9096,"Ġ26":9097,"oseconds":9098,"Ġconstit":9099,"Ġbitflags":9100,"Ġsubdirectory":9101,"Ġspend":9102,"Ġspurious":9103,"Ġblockchain":9104,"ingless":9105,"encrypt":9106,"Ġheur":9107,"Ġstacktrace":9108,"parser":9109,"Ġcustomers":9110,"Ġrefuse":9111,"Ġinsufficient":9112,"Ġcares":9113,"ifiable":9114,"Ġ2010":9115,"Ġsslsocketfactory":9116,"Ġensured":9117,"Ġrandomaccessiterator":9118,"dbc":9119,"Ġgames":9120,"Ġpushes":9121,"Ġverifying":9122,"sequential":9123,"Ġencounters":9124,"Ġirrefutable":9125,"Ġmeasuring":9126,"Ġallocators":9127,"Ġclickonce":9128,"Ġescapes":9129,"Ġbootstra":9130,"Ġultimate":9131,"Ġinteracting":9132,"display":9133,"Ġ2005":9134,"Ġhomebrew":9135,"Ġuppercase":9136,"Ġprototypes":9137,"Ġanalogy":9138,"Ġcontinuous":9139,"returning":9140,"Ġuncommenting":9141,"Ġbroadcast":9142,"Ġreliably":9143,"integer":9144,"container":9145,"documents":9146,"effects":9147,"~~~~~~~~":9148,"Ġsanit":9149,"Ġdisadvantages":9150,"ĠâĶĤ":9151,"Ġclipboard":9152,"Ġtiles":9153,"Ġmassive":9154,"Ġapologies":9155,"cludes":9156,"Ġrelaxed":9157,"Ġcrovella":9158,"character":9159,"Ġconservative":9160,"expressions":9161,"Ġexamining":9162,"problem":9163,"Ġnasty":9164,"drigo":9165,")\"":9166,",\"":9167,"73":9168,"bm":9169,"dies":9170,"ea":9171,"ech":9172,"equ":9173,"jar":9174,"jure":9175,"mq":9176,"pick":9177,"zing":9178,"Ġourse":9179,"onic":9180,"atile":9181,"stre":9182,"Ġdry":9183,"Ġinver":9184,"Ġpicks":9185,"Ġmp":9186,"Ġmit":9187,"ename":9188,"mpl":9189,"Ġeat":9190,"Ġecs":9191,"Ġbeg":9192,"Ġcovariance":9193,"almost":9194,"Ġgagne":9195,"Ġlif":9196,"Ġcompression":9197,"Ġmobile":9198,"Ġaltered":9199,"Ġtherefor":9200,"Ġships":9201,"Ġtrap":9202,"Ġarr":9203,"Ġabbrev":9204,"umsy":9205,"Ġloose":9206,"Ġobj":9207,"readable":9208,"assigned":9209,"forum":9210,"Ġresizing":9211,"Ġlibert":9212,"Ġpartialeq":9213,"Ġparameterize":9214,"amiliar":9215,"Ġbacktra":9216,"Ġcleared":9217,"Ġsmooth":9218,"Ġrelates":9219,"ermost":9220,"archive":9221,"Ġrealised":9222,"Ġflav":9223,"()'":9224,"libraries":9225,"Ġconcretely":9226,"Ġstrided":9227,"Ġconstraining":9228,"worker":9229,"Ġnormalized":9230,"Ġcharacteristics":9231,"Ġmarkers":9232,"Ġconnector":9233,"many":9234,"Ġredesign":9235,"websocket":9236,"website":9237,"websites":9238,"apps":9239,"Ġsupposedly":9240,"Ġauthenticode":9241,"Ġselects":9242,"Ġamounts":9243,"software":9244,"Ġintermediary":9245,"Ġshadows":9246,"Ġconsistently":9247,"Ġterminating":9248,"Ġmagical":9249,"Ġactivated":9250,"Ġjobs":9251,"mittedly":9252,"Ġglance":9253,"Ġrecognizes":9254,"Ġviolated":9255,"uracy":9256,"functional":9257,"Ġleaked":9258,"Ġqualify":9259,"Ġestablishing":9260,"Ġdigitally":9261,"Ġfeeding":9262,"Ġcredit":9263,"Ġadjusted":9264,"Ġconcisely":9265,"Ġpcrs":9266,"apsed":9267,"****":9268,"documentation":9269,"Ġbundled":9270,"Ġpermits":9271,"6299":9272,"Ġflawed":9273,"Ġshifting":9274,"answer":9275,"Ġproposals":9276,"Ġdefeats":9277,"Ġmodulo":9278,"Ġenhanced":9279,"Ġexponent":9280,"Ġexploring":9281,"Ġconjunction":9282,"Ġnonsense":9283,"alpha":9284,"Ġreinterpret":9285,"Ġblindly":9286,"computer":9287,"handshakeexception":9288,"Ġniko":9289,"Ġunconditionally":9290,"Ġourselves":9291,"63":9292,"94":9293,"false":9294,"mk":9295,"nix":9296,"ock":9297,"potent":9298,"ric":9299,"wrote":9300,"zizaco":9301,"Â¹":9302,"Ġought":9303,"Ġalex":9304,"inclusive":9305,"Ġss":9306,"Ġsci":9307,"Ġban":9308,"Ġfyi":9309,"lev":9310,"lend":9311,"Ġmime":9312,"Ġhot":9313,"Ġharm":9314,"Ġnut":9315,"ctest":9316,"Ġgb":9317,"deque":9318,"Ġexcl":9319,"Ġnotable":9320,"asso":9321,"Ġusages":9322,"ille":9323,"Ġusecase":9324,"entity":9325,"Ġtraffic":9326,"cover":9327,"Ġnope":9328,"Ġexpiration":9329,"Ġcreator":9330,"endian":9331,"forge":9332,"nothing":9333,"Ġactively":9334,"Ġserv":9335,"aved":9336,"Ġclumsy":9337,"forexception":9338,"Ġhanding":9339,"Ġhanded":9340,"Ġsigns":9341,"Ġconfuse":9342,"dium":9343,"Ġinterop":9344,"Ġautore":9345,"Ġsubtrait":9346,"Ġ33":9347,"Ġrabbit":9348,"Ġmeaningless":9349,"shell":9350,"Ġconsiderations":9351,"Ġrefs":9352,"Ġrefused":9353,"Ġparticle":9354,"Ġtemplated":9355,"Ġuntested":9356,"accept":9357,"Ġidentifies":9358,"Ġmental":9359,"Ġcloneable":9360,"Ġ512":9361,"minimal":9362,"spot":9363,"Ġcombines":9364,"hope":9365,"Ġdrain":9366,"2016":9367,"Ġranked":9368,"Ġdiscussing":9369,"Ġdiscusses":9370,"servertrusted":9371,"column":9372,"Ġsuperfl":9373,"threads":9374,"Ġtermination":9375,"Ġdriven":9376,"Ġreaching":9377,"âĢĿ,":9378,"desktop":9379,"Ġtrentcl":9380,"Ġspeedup":9381,"Ġbeneficial":9382,"Ġcorout":9383,"Ġcorners":9384,"Ġundocument":9385,"Ġinterrupted":9386,"trustedcallers":9387,"Ġgreatest":9388,"Ġscanning":9389,"Ġwebsockets":9390,"Ġsynchronize":9391,"Ġhistor":9392,"Ġfrequent":9393,"Ġtimings":9394,"depending":9395,"Ġmonomorphized":9396,"Ġprimes":9397,"Ġcontinuously":9398,"publish":9399,"Ġtends":9400,"qualified":9401,"Ġvarying":9402,"Ġalpha":9403,"Ġpoorly":9404,"Ġinvestigate":9405,"integr":9406,"number":9407,"scal":9408,"Ġstudying":9409,"Ġpuzzle":9410,"Ġfacility":9411,"Ġevidently":9412,"Ġamazon":9413,"Ġpeter":9414,"Ġoverlooking":9415,"constrained":9416,"Ġmangling":9417,"Ġprinciples":9418,"partiallytrustedcallers":9419,"Ġchallenges":9420,"Ġvirtually":9421,"hrforexception":9422,"\\\\\":":9423,"Ġindefinitely":9424,"Ġundocumented":9425,"800":9426,"ccess":9427,"cases":9428,"cased":9429,"clean":9430,"dat":9431,"iw":9432,"mys":9433,"nk":9434,"rout":9435,"rather":9436,"virtual":9437,"wl":9438,"yaml":9439,"Ġtor":9440,"Ġthresh":9441,"Ġcate":9442,"Ġsme":9443,"onna":9444,"Ġfilt":9445,"strust":9446,"anch":9447,"Ġdance":9448,"Ġomp":9449,"Ġprag":9450,"Ġmd":9451,"Ġmas":9452,"Ġnb":9453,"isp":9454,"icles":9455,"owning":9456,"Ġgonna":9457,"Ġsoc":9458,"ldr":9459,"etcode":9460,"Ġexclus":9461,"Ġ(-":9462,"Ġnegligible":9463,"Ġsealed":9464,"Ġworkflow":9465,"Ġneedlessly":9466,"Ġtracing":9467,"odate":9468,"Ġunmanaged":9469,"rible":9470,"Ġaccomm":9471,"Ġlookahead":9472,"ipate":9473,"Ġlibp":9474,"contract":9475,"Ġpartly":9476,"Ġsetters":9477,"Ġ27":9478,"ints":9479,"embed":9480,"extra":9481,"Ġeverytime":9482,"Ġexpectations":9483,"Ġspecifications":9484,"Ġsubcommand":9485,"Ġwebpack":9486,"Ġ31":9487,"Ġhey":9488,"Ġstacks":9489,"Ġapproaching":9490,"Ġidp":9491,"Ġfluent":9492,"profile":9493,"Ġ...,":9494,"Ġunfamiliar":9495,"allel":9496,"spawn":9497,"Ġrecommends":9498,"Ġrecommendations":9499,"Ġclonable":9500,"Ġadvised":9501,"Ġcleanest":9502,"Ġextensive":9503,"Ġtimestamped":9504,"Ġ**":9505,"Ġ*.":9506,"Ġwebsphere":9507,"Ġinterpreting":9508,"verses":9509,"Ġmembership":9510,"Ġrestricting":9511,"048":9512,"Ġstrangely":9513,"Ġenforcing":9514,"Ġentering":9515,"Ġpolygon":9516,"Ġmanipulating":9517,"Ġ!=":9518,"Ġglad":9519,"Ġcatching":9520,"Ġdenotes":9521,"âĶĢâĶ":9522,"255":9523,"lists":9524,"Ġshadowed":9525,"Ġrepeats":9526,"Ġbackends":9527,"Ġconcatenated":9528,"official":9529,"Ġadjusting":9530,"statement":9531,"Ġupgraded":9532,"Ġpkix":9533,"Ġutilizing":9534,"lifetimes":9535,"Ġisolate":9536,"Ġexercism":9537,"Ġanti":9538,"Ġdrawbacks":9539,"Ġrearrange":9540,"Ġbtreemap":9541,"Ġincorporate":9542,"Ġbillion":9543,"Ġconvinced":9544,"Ġbouncycastle":9545,"Ġamethyst":9546,"Ġnoob":9547,"Ġadvocate":9548,"Ġsuperfluous":9549,"Ġthreshold":9550,"Ġcategor":9551,"Ġfiltered":9552,"cated":9553,"lig":9554,"land":9555,"ming":9556,"nrf":9557,"task":9558,"Ġcategory":9559,"Ġtoward":9560,"Ġfif":9561,"Ġfool":9562,"Ġdive":9563,"Ġinaccessible":9564,"Ġantic":9565,"Ġped":9566,"Ġmor":9567,"Ġmarnach":9568,"Ġnalgebra":9569,"Ġnumpy":9570,"Ġrent":9571,"Ġglium":9572,"rain":9573,"Ġvbo":9574,"rusty":9575,"Ġ(+":9576,"Ġpros":9577,"Ġcodegen":9578,"ables":9579,"Ġpools":9580,"ento":9581,"Ġdoesnt":9582,"ership":9583,"irection":9584,"Ġkick":9585,"Ġrich":9586,"assert":9587,"Ġlookups":9588,"Ġfaq":9589,"Ġmutual":9590,"Ġsolver":9591,"ours":9592,"Ġreplies":9593,"plain":9594,"Ġintercept":9595,"activ":9596,"Ġexistential":9597,"serv":9598,"++/":9599,"neg":9600,"Ġdetach":9601,"iopermission":9602,"Ġequations":9603,"Ġattestation":9604,"Ġopencv":9605,"Ġ/,":9606,"Ġoffice":9607,"Ġsenders":9608,"Ġconsiderably":9609,"Ġ42":9610,"Ġ404":9611,"Ġposter":9612,"Ġlocality":9613,"ribly":9614,"ractical":9615,"Ġinitializes":9616,"proof":9617,"Ġ()?":9618,"Ġcomplained":9619,"happy":9620,"Ġguessed":9621,"Ġderivation":9622,"Ġexperiencing":9623,"Ġslowly":9624,"Ġguaranteeing":9625,"Ġdram":9626,"Ġdrast":9627,"Ġimproving":9628,"Ġimproves":9629,"configure":9630,"2012":9631,"ashes":9632,"Ġcommunicates":9633,"Ġaccomplishes":9634,"Ġdirectives":9635,"Ġsymbo":9636,"Ġskill":9637,"Ġclicks":9638,"Ġunreason":9639,"Ġexporting":9640,"afu":9641,"Ġlowercase":9642,"sometimes":9643,"Ġworrying":9644,"Ġsegmented":9645,"contin":9646,"Ġsemicolons":9647,"Ġissuing":9648,"Ġtimers":9649,"Ġaborts":9650,"Ġfocused":9651,"dependency":9652,"regard":9653,"small":9654,"Ġsubstrings":9655,"Ġsnafu":9656,"Ġmeets":9657,"Ġmotiv":9658,"Ġforums":9659,"Ġhorribly":9660,"Ġintervals":9661,"Ġiteratively":9662,"Ġdesugared":9663,"doesn":9664,"ĠÂ¹":9665,"Ġdisappears":9666,"Ġticket":9667,"Ġinnermost":9668,"helpful":9669,"ooting":9670,"24242424":9671,"depth":9672,"hyper":9673,"Ġsensitive":9674,"parameter":9675,"Ġampersand":9676,"Ġalphabet":9677,"these":9678,"Ġrenderer":9679,"Ġculpr":9680,"Ġliberty":9681,"400":9682,"91":9683,"92":9684,"away":9685,"bor":9686,"could":9687,"draw":9688,"eh":9689,"gue":9690,"hu":9691,"iis":9692,"pg":9693,"sight":9694,"split":9695,"too":9696,"xm":9697,"Ġ^^^^^^^^":9698,"Ġtough":9699,"Ġtightly":9700,"incre":9701,"Ġwif":9702,"oned":9703,"Ġbru":9704,"Ġfmt":9705,"Ġpit":9706,"Ġhim":9707,"ctrust":9708,"isign":9709,"Ġreput":9710,"Ġrevo":9711,"Ġreinstall":9712,"Ġrethink":9713,"Ġlic":9714,"Ġufcs":9715,"ropy":9716,"Ġbeware":9717,"veev":9718,"utils":9719,"Ġgats":9720,"Ġdoctest":9721,"Ġcancel":9722,"ethe":9723,"mented":9724,"ational":9725,"Ġrusts":9726,"ades":9727,"ilde":9728,"Ġsectrust":9729,"Ġalas":9730,"Ġworkload":9731,"Ġmyster":9732,"Ġjars":9733,"Ġsuites":9734,"Ġsix":9735,"Ġsilence":9736,"Ġlever":9737,"Ġstructopt":9738,"Ġinstinct":9739,"Ġupstream":9740,"Ġmutations":9741,"ongo":9742,"Ġborrower":9743,"Ġ::":9744,"Ġclojure":9745,"abc":9746,"Ġevident":9747,"Ġimplication":9748,"Ġdesc":9749,"Ġhoped":9750,"Ġmessed":9751,"Ġbob":9752,"Ġboil":9753,"Ġentropy":9754,"axis":9755,"Ġwondered":9756,"Ġprocessors":9757,"...).":9758,"Ġopenstack":9759,"parallel":9760,"tcp":9761,"poll":9762,"Ġcomplaint":9763,"Ġsecured":9764,"Ġtopics":9765,"Ġregistration":9766,"Ġtrickier":9767,"Ġbrowse":9768,"Ġcollects":9769,"Ġ655":9770,"securitytoken":9771,"Ġquickcheck":9772,"Ġinitialisation":9773,"Ġdestroys":9774,"myfile":9775,"Ġbrain":9776,"Ġtalonmies":9777,"expand":9778,"Ġpasting":9779,"Ġmaintains":9780,"automatic":9781,"Ġcarried":9782,"Ġpromoted":9783,"Ġprotects":9784,"Ġremotely":9785,"Ġeliminating":9786,"consuming":9787,"Ġieee":9788,"Ġsuffer":9789,"completion":9790,"Ġdiffering":9791,"Ġprompted":9792,"success":9793,"servicemodel":9794,"Ġerrone":9795,"Ġrevert":9796,"execute":9797,"Ġartific":9798,"Ġstamping":9799,"Ġctags":9800,"Ġcollision":9801,"Ġhumans":9802,"Ġfragmentation":9803,"Ġneighbors":9804,"outputiterator":9805,"Ġmalformed":9806,"Ġinstructed":9807,"Ġseriously":9808,"Ġfrank":9809,"Ġdesugars":9810,"----------------":9811,"answered":9812,"Ġvaguely":9813,"panic":9814,"Ġcatal":9815,"Ġwasted":9816,"Ġdiscriminant":9817,"easy":9818,"authorized":9819,"Ġsalt":9820,"Ġalgebraic":9821,"boolean":9822,"Ġperipheral":9823,"Ġinterchangeable":9824,"Ġpremature":9825,"Ġobservation":9826,"shadow":9827,"Ġpertain":9828,"darwin":9829,"recursive":9830,"separated":9831,"Ġscheduling":9832,"Ġheroku":9833,"!,":9834,"![":9835,")).":9836,"050":9837,"bast":9838,"dot":9839,"empt":9840,"giv":9841,"hard":9842,"jax":9843,"tot":9844,"wd":9845,"wp":9846,"Ġtes":9847,"Ġtsp":9848,"Ġtldr":9849,"inator":9850,"intern":9851,"atisf":9852,"Ġfp":9853,"lement":9854,"Ġdart":9855,"Ġhind":9856,"lldb":9857,"Ġlhs":9858,"Ġoffered":9859,"Ġec":9860,"Ġgro":9861,"Ġstages":9862,"Ġstargateur":9863,"Ġdoco":9864,"Ġlikes":9865,"peg":9866,"Ġrustdt":9867,"unlike":9868,"Ġseal":9869,"antic":9870,"Ġ....":9871,"Ġpopped":9872,"Ġshe":9873,"Ġarrived":9874,"cop":9875,"htable":9876,"Ġfol":9877,"Ġkb":9878,"Ġapparent":9879,"Ġrs":9880,"Ġrat":9881,"items":9882,"Ġoblig":9883,"Ġplot":9884,"Ġlibstd":9885,"Ġevil":9886,"Ġservo":9887,"ieve":9888,"Ġparametri":9889,"emalloc":9890,"apk":9891,"weak":9892,"Ġmatcher":9893,"curl":9894,"Ġnonethe":9895,"Ġkindly":9896,"reddit":9897,"Ġxy":9898,"Ġbooks":9899,"Ġgeneralized":9900,"solution":9901,"Ġpostman":9902,"Ġclearing":9903,"Ġhardly":9904,"()?":9905,"Ġ...).":9906,"Ġcontrollers":9907,"Ġsemver":9908,"Ġsuccessive":9909,"Ġtemporaries":9910,"namely":9911,"Ġconceptual":9912,"Ġportability":9913,"Ġredirection":9914,"Ġbadly":9915,"Ġnetworking":9916,"handling":9917,"Ġdescriptive":9918,"Ġcraft":9919,"Ġinterprets":9920,"modified":9921,"Ġcoupled":9922,"Ġerasure":9923,"Ġterminator":9924,"Ġactivities":9925,"Ġabstracted":9926,"Ġregistering":9927,"Ġfitting":9928,"ogonal":9929,"Ġpredates":9930,"Ġderefs":9931,"Ġhacks":9932,"Ġmerging":9933,"Ġfalling":9934,"aws":9935,"processing":9936,"Ġescaping":9937,"localhost":9938,"Ġbringing":9939,"âĶĢâĶĢâĶĢâĶ":9940,"Ġexperimented":9941,"constant":9942,"Ġstrategies":9943,"Ġforgetting":9944,"Ġreviews":9945,"umeric":9946,"join":9947,"Ġtextures":9948,"directories":9949,"Ġmirror":9950,"sembled":9951,"control":9952,"Ġhoriz":9953,"Ġcudame":9954,"Ġnavigation":9955,"Ġsteal":9956,"Ġunwanted":9957,"Ġpeekable":9958,"Ġschedule":9959,"techn":9960,"basically":9961,"Ġcomprehensive":9962,"Ġexhibits":9963,"Ġorthogonal":9964,"Ġglfrustum":9965,"everything":9966,"Ġsprite":9967,"Ġbandwidth":9968,"hopefully":9969,"Ġrental":9970,"Ġsymbolic":9971,"Ġculprit":9972,"Ġmysterious":9973,"given":9974,"Ġnonetheless":9975,"():":9976,"234":9977,"?\".":9978,"bes":9979,"fml":9980,"filled":9981,"gre":9982,"iant":9983,"ius":9984,"lr":9985,"mongodb":9986,"present":9987,"pfx":9988,"saml":9989,"untu":9990,"war":9991,"Ġiphone":9992,"req":9993,"rexception":9994,"Ġfs":9995,"studio":9996,"Ġang":9997,"Ġode":9998,"Ġpallet":9999,"Ġmich":10000,"Ġndk":10001,"Ġrevis":10002,"Ġrecla":10003,"roll":10004,"rules":10005,"Ġgent":10006,"destruct":10007,"eth":10008,"rac":10009,"Ġ(.":10010,"ascii":10011,"changing":10012,"Ġpol":10013,"Ġjunk":10014,"Ġjemalloc":10015,"Ġintact":10016,"Ġretry":10017,"Ġadmittedly":10018,"capt":10019,"Ġleetcode":10020,"Ġuncommon":10021,"Ġunhelpful":10022,"Ġhashtable":10023,"Ġdatagram":10024,"Ġtwitter":10025,"Ġpreferences":10026,"Ġsolid":10027,"Ġunderne":10028,"Ġperl":10029,"Ġserved":10030,"aven":10031,"avid":10032,"Ġ29":10033,"Ġsaf":10034,"Ġsamsung":10035,"apro":10036,"apse":10037,"exit":10038,"ubuntu":10039,"Ġinterfere":10040,"Ġsubslice":10041,"Ġsubscript":10042,"ynchron":10043,"Ġspans":10044,"Ġroad":10045,"Ġdowngrade":10046,"Ġstandards":10047,"Ġdecoded":10048,"Ġequivalents":10049,"proc":10050,"protect":10051,"allocating":10052,"Ġvisited":10053,"Ġviewed":10054,"Ġported":10055,"Ġcurand":10056,"2014":10057,"pendent":10058,"Ġdirected":10059,"Ġencoder":10060,"commun":10061,"Ġdrivers":10062,"Ġmaintainer":10063,"Ġregexes":10064,"Ġprotobuf":10065,"Ġforwarding":10066,"calling":10067,"follow":10068,"Ġcorporate":10069,"Ġcheat":10070,"runner":10071,"Ġgrowable":10072,"Ġeliminated":10073,"consider":10074,"Ġinteracts":10075,"independent":10076,"implemented":10077,"Ġvtables":10078,"Ġrepetitions":10079,"Ġpreserves":10080,"operations":10081,"Ġmcarton":10082,"Ġlisteners":10083,"signature":10084,"rinsic":10085,"Ġredirects":10086,"Ġassets":10087,"Ġsquares":10088,"Ġencouraged":10089,"Ġcookies":10090,"xxxx":10091,"Ġplaceholders":10092,"Ġrestarted":10093,"Ġnanoseconds":10094,"Ġwidely":10095,"Ġactors":10096,"contained":10097,"Ġreassigning":10098,"Ġrecoverable":10099,"Ġcaveats":10100,"Ġpuzzled":10101,"digit":10102,"Ġcompromise":10103,"Ġunrolled":10104,"Ġdiagn":10105,"stricted":10106,"Ġamazing":10107,"Ġburden":10108,"Ġfirebase":10109,"Ġaffine":10110,"Ġhooks":10111,"Ġgranularity":10112,"experi":10113,"Ġadobe":10114,"Ġscroll":10115,"Ġbootstrap":10116,"diesel":10117,"Ġservlet":10118,"Ġautoref":10119,"Ġsmell":10120,"Ġaccommodate":10121,"Ġunreasonable":10122,"Ġunderneath":10123,"\";":10124,"#)":10125,"':":10126,")'":10127,"028":10128,"83":10129,"?!":10130,"gwin":10131,"hig":10132,"high":10133,"ko":10134,"mingw":10135,"musl":10136,"nan":10137,"pixel":10138,"pseudo":10139,"squ":10140,"scan":10141,"va":10142,"wait":10143,"xa":10144,"Ġtid":10145,"Ġties":10146,"Ġibm":10147,"Ġaux":10148,"invoke":10149,"Ġwar":10150,"Ġbson":10151,"Ġbloat":10152,"Ġbsd":10153,"Ġfuse":10154,"anonymous":10155,"Ġinot":10156,"itivity":10157,"Ġmorgan":10158,"Ġreallocated":10159,"Ġrebinding":10160,"Ġyell":10161,"icing":10162,"icul":10163,"Ġcoinc":10164,"oting":10165,"deep":10166,"Ġstems":10167,"Ġstability":10168,"Ġhassle":10169,"Ġassure":10170,"ichton":10171,"cks":10172,"cking":10173,"romium":10174,"Ġshim":10175,"Ġsieve":10176,"Ġunint":10177,"umin":10178,"Ġrouter":10179,"lix":10180,"izable":10181,"ignore":10182,"Ġvectorized":10183,"Ġcrt":10184,"agged":10185,"existent":10186,"articles":10187,"Ġ?)":10188,"âĢĵ":10189,"Ġdislike":10190,"Ġremark":10191,"ownership":10192,"Ġmultipart":10193,"Ġ34":10194,"beaut":10195,"Ġnonce":10196,"ished":10197,"...\"":10198,"Ġclipped":10199,"Ġrodrigo":10200,"Ġmisses":10201,"Ġrepresentable":10202,"Ġruntimes":10203,"Ġinspe":10204,"Ġpyram":10205,"Ġrecei":10206,"Ġcontrolling":10207,"Ġdesigners":10208,"Ġreleasing":10209,"Ġground":10210,"Ġcontention":10211,"Ġoptimizes":10212,"filename":10213,"sslhandshakeexception":10214,"123":10215,"Ġtreea":10216,"Ġinvari":10217,"Ġcomplicates":10218,"Ġtrickery":10219,"Ġ72":10220,"Ġdomainb":10221,"prone":10222,"auto":10223,"Ġemacs":10224,"Ġridicul":10225,"Ġenters":10226,"Ġdeno":10227,"Ġsimplifying":10228,"Ġhuon":10229,"Ġprefixed":10230,"Ġprotecting":10231,"Ġfreedom":10232,"Ġtypedef":10233,"Ġillustrated":10234,"Ġmisunderstand":10235,"Ġqualifier":10236,"Ġ<=":10237,"Ġencapsulated":10238,"Ġgeo":10239,"Ġgeforce":10240,"Ġconsequences":10241,"Ġprofiles":10242,"regular":10243,"Ġacquired":10244,"Ġfavour":10245,"started":10246,"Ġsleeping":10247,"Ġflattening":10248,"untrusted":10249,"hashmap":10250,"Ġhorrible":10251,"Ġanchors":10252,"Ġsane":10253,"Ġreordering":10254,"Ġlanded":10255,"Ġfacil":10256,"Ġdiverg":10257,"Ġdiverging":10258,"âĶĢâĶĢâĶĢâĶĢâĶĢâĶĢâĶĢâĶĢ":10259,"Ġvulnerable":10260,"Ġfiddling":10261,"Ġslots":10262,"pastebin":10263,"Ġbuckets":10264,"Ġfedora":10265,"Ġbubblewrap":10266,"segment":10267,"abytes":10268,"Ġdisagree":10269,"performance":10270,"Ġjulia":10271,"temporary":10272,"potentially":10273,"Ġpitf":10274,"Ġfrankly":10275,"higher":10276,"Ġpyramid":10277,"(?)":10278,"dyn":10279,"fu":10280,"fast":10281,"hl":10282,"hop":10283,"hood":10284,"kg":10285,"laz":10286,"mask":10287,"maven":10288,"nb":10289,"nr":10290,"nat":10291,"td":10292,"tly":10293,"tsa":10294,"uine":10295,"zation":10296,"Ġou":10297,"Ġtxt":10298,"Ġii":10299,"Ġiii":10300,"Ġaes":10301,"Ġaud":10302,"review":10303,"retri":10304,"erra":10305,"orated":10306,"Ġbank":10307,"memb":10308,"still":10309,"steps":10310,"Ġdp":10311,"Ġinsecure":10312,"Ġpal":10313,"Ġmq":10314,"enance":10315,"Ġresemble":10316,"mpeg":10317,"Ġeq":10318,"seconds":10319,"Ġbecoming":10320,"otos":10321,"Ġgy":10322,"Ġgls":10323,"Ġhay":10324,"Ġdos":10325,"peared":10326,"thouse":10327,"Ġrustic":10328,"Ġtying":10329,"unstable":10330,"outside":10331,"Ġorm":10332,"Ġwording":10333,"Ġtrip":10334,"uli":10335,"Ġchances":10336,"lochain":10337,"Ġanyhow":10338,"Ġsierra":10339,"Ġunhappy":10340,"Ġfov":10341,")...":10342,"msvc":10343,"Ġtel":10344,"Ġplays":10345,"Ġupcasting":10346,"istency":10347,"Ġmatveev":10348,"console":10349,"intptr":10350,"Ġkeychain":10351,"Ġfear":10352,"Ġafterward":10353,"Ġversioning":10354,"explan":10355,"Ġdeserial":10356,"Ġdepart":10357,"Ġprogramme":10358,"who":10359,"Ġdisconnect":10360,"Ġquit":10361,"Ġinteroper":10362,"Ġintersect":10363,"Ġbitmap":10364,"mpted":10365,"Ġaggress":10366,"Ġbog":10367,"Ġboiled":10368,"Ġspits":10369,"builde":10370,"Ġmovement":10371,"nested":10372,"Ġprintf":10373,"Ġmeanwhile":10374,"ibus":10375,"Ġelapsed":10376,"complic":10377,"compatibility":10378,"Ġrestarting":10379,"Ġrefcount":10380,"Ġhashed":10381,"Ġequivalently":10382,"Ġscra":10383,"byexample":10384,"Ġsemaph":10385,"trustpilot":10386,"Ġgrabb":10387,"Ġvecdeque":10388,"Ġmarkdown":10389,"obj":10390,"manage":10391,"000000":10392,"Ġbadge":10393,"Ġcurios":10394,"Ġuniquely":10395,"Ġselecting":10396,"Ġencodes":10397,"mywebsite":10398,"functor":10399,"Ġsoundness":10400,"Ġgrouped":10401,"Ġhypervisor":10402,"merge":10403,"9999":10404,"Ġmaintenance":10405,"Ġclicked":10406,"Ġcrashing":10407,"afka":10408,"\":\"":10409,"record":10410,"Ġhacked":10411,"Ġdense":10412,"passing":10413,"Ġbrittle":10414,"Ġsyntactical":10415,"Ġexperimentation":10416,"Ġdelegating":10417,"disclaimer":10418,"Ġdeliver":10419,"Ġstabilization":10420,"Ġredundancy":10421,"Ġgreet":10422,"super":10423,"exports":10424,"Ġcentre":10425,"signing":10426,"Ġreborrowed":10427,"Ġorders":10428,"Ġexhausted":10429,"googlechrome":10430,"labs":10431,"blogs":10432,"Ġcryptographically":10433,"Ġapproximate":10434,"Ġpartitioning":10435,"Ġorganize":10436,"Ġmigrations":10437,"marker":10438,"Ġperiodically":10439,"closures":10440,"Ġfulfills":10441,"capacity":10442,"Ġclusters":10443,"Ġthousand":10444,"Ġoverlooked":10445,"Ġbullet":10446,"facto":10447,"Ġscrew":10448,"Ġbegan":10449,"mysql":10450,"Ġreputation":10451,"Ġdocopt":10452,"Ġratio":10453,"Ġinotify":10454,"Ġsemaphore":10455,"Ġcuriosity":10456,"!(":10457,"500":10458,"bat":10459,"bro":10460,"cpu":10461,"events":10462,"fus":10463,"gc":10464,"godbolt":10465,"het":10466,"hoc":10467,"mar":10468,"mab":10469,"nz":10470,"never":10471,"rpc":10472,"uk":10473,"vend":10474,"was":10475,"yml":10476,"regex":10477,"replace":10478,"Ġcss":10479,"Ġcstring":10480,"inher":10481,"Ġsing":10482,"Ġsid":10483,"Ġdark":10484,"Ġduck":10485,"edrac":10486,"Ġhoc":10487,"Ġrenew":10488,"Ġreinvent":10489,"Ġreassigned":10490,"Ġrewrote":10491,"Ġlisp":10492,"roy":10493,"Ġeu":10494,"Ġeight":10495,"Ġecon":10496,"Ġgut":10497,"Ġdoor":10498,"rustlib":10499,"Ġnotified":10500,"alling":10501,"Ġusb":10502,"adapt":10503,"Ġcompress":10504,"Ġ.\"":10505,"errors":10506,"login":10507,"Ġunidiomatic":10508,"Ġunchecked":10509,"Ġunconstrained":10510,"Ġunanswered":10511,"ortion":10512,"Ġdefect":10513,"ends":10514,"usb":10515,"mma":10516,"tested":10517,"Ġfacade":10518,"Ġpref":10519,"Ġprerequ":10520,"Ġacting":10521,"Ġcheckservertrusted":10522,"groups":10523,"switch":10524,"Ġdeser":10525,"Ġholes":10526,"ube":10527,"Ġinteractions":10528,"actored":10529,"cred":10530,"Ġ300":10531,"Ġscore":10532,"Ġrolling":10533,"Ġrelating":10534,"param":10535,"theme":10536,"compare":10537,"Ġrefactored":10538,"Ġlengthy":10539,"Ġminus":10540,"Ġcomplaints":10541,"Ġ54":10542,"Ġdesigner":10543,"wrong":10544,"arness":10545,"Ġsecurely":10546,"Ġcalculator":10547,"Ġeventual":10548,"Ġtruststores":10549,"systems":10550,"Ġglobals":10551,"getting":10552,"Ġcomplicate":10553,"resources":10554,"mutably":10555,"Ġdrag":10556,"Ġdomaina":10557,"Ġsatisfactory":10558,"Ġhyph":10559,"securitypermission":10560,"168":10561,"Ġstride":10562,"Ġproposes":10563,"Ġrank":10564,"Ġfrustrum":10565,"mapped":10566,"Ġaligning":10567,"Ġbroke":10568,"Ġunrestricted":10569,"explicit":10570,"Ġjoins":10571,"implicit":10572,"Ġabstracts":10573,"Ġcygwin":10574,"Ġasserts":10575,"Ġblame":10576,"Ġblah":10577,"Ġmetapro":10578,"Ġstatistics":10579,"Ġinevit":10580,"Ġbenchmarked":10581,"Ġadapting":10582,"visible":10583,"consume":10584,"implementing":10585,"exported":10586,"sourceforge":10587,"Ġpropagated":10588,"certificates":10589,"Ġdecryption":10590,"framab":10591,"Ġreflects":10592,"Ġretains":10593,"Ġretaining":10594,"blogspot":10595,"Ġfilenames":10596,"tuples":10597,"Ġjumps":10598,"until":10599,"Ġreveal":10600,"Ġtradeoffs":10601,"Ġhypothesis":10602,"Ġprivilege":10603,"optional":10604,"Ġshifted":10605,"Ġsuspicious":10606,"Ġgenuine":10607,"Ġunroll":10608,"Ġtons":10609,"Ġwasting":10610,"cluded":10611,"Ġphilosophy":10612,"Ġpreprocessor":10613,"Ġtampered":10614,"Ġsubscribe":10615,"sakis":10616,"Ġconvey":10617,"Ġwanna":10618,"origin":10619,"Ġmarshal":10620,"status":10621,"advanced":10622,"equivalent":10623,"forums":10624,"Ġsmoothly":10625,"Ġdrastically":10626,"Ġerroneous":10627,"Ġfolks":10628,"beautify":10629,"Ġinvariance":10630,"framabin":10631,")!":10632,"101":10633,"=/":10634,"];":10635,"codes":10636,"fit":10637,"hf":10638,"hex":10639,"held":10640,"irus":10641,"lm":10642,"mv":10643,"much":10644,"making":10645,"nor":10646,"nou":10647,"nom":10648,"oas":10649,"pin":10650,"sch":10651,"timer":10652,"will":10653,"wiw":10654,"xb":10655,"Ġts":10656,"Ġtad":10657,"Ġtcs":10658,"Ġade":10659,"Ġack":10660,"Ġage":10661,"Ġair":10662,"Ġcms":10663,"Ġcass":10664,"inline":10665,"Ġwtf":10666,"onts":10667,"atter":10668,"Ġfence":10669,"stargateur":10670,"ane":10671,"Ġdam":10672,"Ġdub":10673,"Ġomn":10674,"Ġiso":10675,"Ġharness":10676,"essent":10677,"Ġnt":10678,"Ġnifi":10679,"Ġitext":10680,"isy":10681,"Ġreboot":10682,"Ġreorgan":10683,"icert":10684,"Ġemphas":10685,"sett":10686,"algorith":10687,"albert":10688,"dereference":10689,"radi":10690,"Ġvpn":10691,"kex":10692,"Ġmere":10693,"adding":10694,"unused":10695,"Ġcomplier":10696,"Ġpom":10697,"idire":10698,"idence":10699,"Ġshame":10700,"Ġwhatnot":10701,"Ġcacert":10702,"odt":10703,"cores":10704,"covery":10705,"indices":10706,"Ġaband":10707,"Ġrp":10708,"Ġrig":10709,"Ġobfus":10710,"Ġacceler":10711,"ocd":10712,"Ġdataset":10713,"omg":10714,"Ġtimed":10715,"pshot":10716,"Ġthreadblock":10717,"Ġ239":10718,"Ġsamp":10719,"Ġclutter":10720,"Ġverisign":10721,"Ġproves":10722,"lower":10723,"beros":10724,"Ġbacksl":10725,"Ġspat":10726,"++).":10727,"Ġimho":10728,"Ġraising":10729,"Ġxp":10730,"Ġxyz":10731,"show":10732,"loading":10733,"Ġdecoup":10734,"Ġhttpcontext":10735,"Ġentirety":10736,"urpose":10737,"setup":10738,"Ġ[\"":10739,"progress":10740,"programming":10741,"Ġcasted":10742,"cursor":10743,"Ġguesses":10744,"Ġrecv":10745,"Ġvisiting":10746,"predict":10747,"Ġderiv":10748,"Ġbeginners":10749,"Ġserializes":10750,"Ġpresents":10751,"Ġswitches":10752,"Ġphotos":10753,"Ġbrowsing":10754,"Ġimproper":10755,"2011":10756,"2013":10757,"interior":10758,"color":10759,"Ġ`&":10760,"reflection":10761,"Ġdrives":10762,"Ġbroadly":10763,"Ġmechanics":10764,"Ġactivation":10765,"192":10766,"specified":10767,"Ġaffecting":10768,"Ġlucky":10769,"Ġoverloads":10770,"copying":10771,"Ġadaptors":10772,"docker":10773,"awte":10774,"Ġattaching":10775,"Ġsumming":10776,"Ġencodings":10777,"Ġillustration":10778,"Ġstrength":10779,"napshot":10780,"Ġpaying":10781,"080":10782,"Ġâĩ":10783,"Ġscaling":10784,"flat":10785,"opengl":10786,"Ġligh":10787,"Ġsurv":10788,"Ġdeallocating":10789,"implementation":10790,"Ġresearching":10791,"Ġpolls":10792,"Ġwhitespaces":10793,"Ġpreserving":10794,"Ġphysically":10795,"Ġsecrets":10796,"Ġdeemed":10797,"Ġstumble":10798,"Ġrevealed":10799,"Ġcudpp":10800,"Ġtweaks":10801,"mcpy":10802,"property":10803,"declare":10804,"certpathbuilde":10805,"Ġblows":10806,"basic":10807,"Ġapologize":10808,"Ġassistance":10809,"Ġmodulus":10810,"Ġnightlies":10811,"Ġhurt":10812,"Ġorthographic":10813,"Ġaccidental":10814,"Ġkerberos":10815,"Ġunambiguously":10816,"Ġbeautif":10817,"Ġjetbra":10818,"extensions":10819,"keeping":10820,"Ġpermanently":10821,"preferably":10822,"Ġaggregate":10823,"settings":10824,"Ġbridge":10825,"Ġmitig":10826,"Ġnutshell":10827,"Ġpragm":10828,"Ġexclusively":10829,"embedded":10830,"Ġcategories":10831,"negative":10832,"Ġrevoked":10833,"square":10834,"Ġglsl":10835,"Ġhaystack":10836,"oasis":10837,"Ġacknow":10838,"Ġomnibus":10839,"albertodt":10840,"idirectional":10841,"certpathbuilderexception":10842,"\"-":10843,"bt":10844,"cas":10845,"cious":10846,"fr":10847,"gmp":10848,"hz":10849,"jl":10850,"kent":10851,"nn":10852,"rz":10853,"sr":10854,"sound":10855,"sug":10856,"sensitive":10857,"would":10858,"},":10859,"Ġiirc":10860,"Ġaster":10861,"repl":10862,"Ġcg":10863,"Ġcited":10864,"Ġske":10865,"orn":10866,"oracle":10867,"Ġbaff":10868,"annot":10869,"another":10870,"Ġoom":10871,"Ġhw":10872,"escription":10873,"Ġnil":10874,"Ġnaked":10875,"Ġrecompiled":10876,"otrust":10877,"Ġgath":10878,"Ġongoing":10879,"Ġsteve":10880,"erexception":10881,"Ġdoll":10882,"Ġcance":10883,"etlink":10884,"Ġlived":10885,"Ġnotifications":10886,"Ġmeg":10887,"versa":10888,"Ġdeck":10889,"Ġcompressed":10890,"Ġareas":10891,"sso":10892,"Ġjan":10893,"Ġintptr":10894,"Ġcaution":10895,"Ġadhere":10896,"quet":10897,"Ġuncertain":10898,"indent":10899,"Ġ\":":10900,"fetch":10901,"Ġrst":10902,"Ġrpc":10903,"izard":10904,"izations":10905,"Ġspecs":10906,"Ġreadily":10907,"Ġcrl":10908,"Ġnewcom":10909,"agger":10910,"Ġimpractical":10911,"aves":10912,"Ġgolang":10913,"ledged":10914,"Ġkeymanager":10915,"Ġdiscre":10916,"Ġdisassembly":10917,"Ġremarks":10918,"conditional":10919,"Ġquir":10920,"Ġbackup":10921,"Ġspir":10922,"Ġexpresses":10923,"Ġthroughput":10924,"Ġvalidating":10925,"encoding":10926,"Ġhellow":10927,"Ġkinded":10928,"Ġcharm":10929,"Ġsafest":10930,"phase":10931,"she":10932,"Ġzome":10933,"Ġzizaco":10934,"Ġ44":10935,"Ġsimplifies":10936,"Ġprettier":10937,"Ġclassical":10938,"Ġloader":10939,"defin":10940,"priate":10941,"Ġbelie":10942,"Ġfraction":10943,"however":10944,"spring":10945,"Ġrecip":10946,"Ġsecurityexception":10947,"pres":10948,"header":10949,"Ġinvis":10950,"---":10951,"Ġ77":10952,"Ġauthorized":10953,"Ġspell":10954,"Ġchecksum":10955,"ensus":10956,"Ġdispatching":10957,"Ġmonad":10958,"made":10959,"Ġindicator":10960,"Ġdoubles":10961,"modify":10962,"genous":10963,"Ġluke":10964,"printing":10965,"general":10966,"Ġmagento":10967,"Ġembedding":10968,"Ġdisables":10969,"Ġmismatches":10970,"session":10971,"Ġoriginates":10972,"Ġautocomplete":10973,"Ġelegantly":10974,"iliary":10975,"Ġineff":10976,"Ġchea":10977,"domainservices":10978,"Ġestimate":10979,"Ġderivedpolicy":10980,"Ġbuttons":10981,"supp":10982,"Ġrounded":10983,"azure":10984,"Ġbeside":10985,"Ġpropagating":10986,"hios":10987,"close":10988,"Ġkilling":10989,"Ġmocking":10990,"Ġmigrate":10991,"Ġtriplet":10992,"Ġclaiming":10993,"formatted":10994,"Ġisolation":10995,"Ġdisappeared":10996,"Ġinformations":10997,"Ġrestructuring":10998,"Ġcandidates":10999,"Ġtrimmed":11000,"different":11001,"Ġreferents":11002,"Ġcorrupted":11003,"Ġinspiration":11004,"Ġfiddler":11005,"features":11006,"Ġshrinking":11007,"represent":11008,"Ġpredictable":11009,"multi":11010,"Ġpetgraph":11011,"Ġcontribute":11012,"Ġoccupy":11013,"Ġpurch":11014,"Ġdefeat":11015,"executioncontext":11016,"hhhh":11017,"Ġdeliberate":11018,"relative":11019,"Ġ(*)":11020,"Ġtensor":11021,"Ġperipherals":11022,"Ġeducational":11023,"Ġuniversally":11024,"global":11025,"Ġseperate":11026,"Ġlibpq":11027,"Ġauxiliary":11028,"Ġprerequis":11029,"Ġmetaprogramming":11030,"radix":11031,"!\".":11032,"264":11033,"=\\\"":11034,">]\"":11035,"`,":11036,"aro":11037,"alex":11038,"bing":11039,"bal":11040,"bel":11041,"bash":11042,"cmp":11043,"div":11044,"direct":11045,"eff":11046,"fig":11047,"hack":11048,"lisher":11049,"might":11050,"mvc":11051,"oft":11052,"plex":11053,"rr":11054,"rate":11055,"sush":11056,"ti":11057,"tar":11058,"Ġsin":11059,"Ġwat":11060,"Ġwit":11061,"Ġwow":11062,"Ġwstrust":11063,"atrust":11064,"orter":11065,"Ġbaked":11066,"Ġfru":11067,"Ġfederation":11068,"sten":11069,"Ġdug":11070,"Ġoss":11071,"Ġoops":11072,"Ġpem":11073,"Ġpec":11074,"Ġmwe":11075,"Ġher":11076,"Ġhate":11077,"isable":11078,"Ġrework":11079,"Ġreloc":11080,"Ġlately":11081,"Ġuwp":11082,"icular":11083,"aris":11084,"Ġbellow":11085,"Ġgic":11086,"Ġgray":11087,"Ġgzip":11088,"dead":11089,"demo":11090,"urser":11091,"une":11092,"unwind":11093,"Ġcompr":11094,"Ġsometime":11095,"Ġtypecheck":11096,"ids":11097,"Ġworkable":11098,"Ġshard":11099,"Ġju":11100,"sodium":11101,"Ġintru":11102,"Ġgethrforexception":11103,"camera":11104,"quick":11105,"queness":11106,"coer":11107,"Ġunbox":11108,"orted":11109,"Ġrlib":11110,"Ġrpi":11111,"Ġtempted":11112,"Ġvaries":11113,"usp":11114,"Ġresized":11115,"Ġ127":11116,"questions":11117,"ipated":11118,"dup":11119,"Ġunderflow":11120,"ista":11121,"notice":11122,"Ġactas":11123,"avoid":11124,"Ġcheckbox":11125,"emer":11126,"Ġdefinitive":11127,"Ġverifiable":11128,"Ġlocale":11129,"udes":11130,"updated":11131,"white":11132,"Ġdisregard":11133,"Ġ''":11134,"ails":11135,"Ġspecifics":11136,"Ġhelpers":11137,"Ġsubclass":11138,"Ġforming":11139,"best":11140,"Ġmodular":11141,"Ġvalidates":11142,"Ġinclusion":11143,"Ġcertificateexception":11144,"Ġstandpoint":11145,"Ġsyntaxes":11146,"Ġliner":11147,"Ġinitiate":11148,"ientation":11149,"Ġelastic":11150,"Ġwhoever":11151,"shif":11152,"sharp":11153,"Ġhadn":11154,"Ġaccuracy":11155,"Ġzones":11156,"ĠĠĠĠĠĠĠĠĠĠĠĠĠĠ":11157,"Ġ400":11158,"Ġmodeling":11159,"Ġrealistic":11160,"Ġseparation":11161,"extend":11162,"Ġpublisher":11163,"Ġconfigurable":11164,"Ġ[]":11165,"codeaccess":11166,"Ġusefulness":11167,"libcore":11168,"Ġ51":11169,"Ġ57":11170,"Ġinterfacing":11171,"Ġreplacements":11172,"raneous":11173,"Ġheadache":11174,"Ġrecy":11175,"Ġrecieve":11176,"nameable":11177,"Ġextraneous":11178,"Ġdealt":11179,"Ġreductions":11180,"precision":11181,"Ġpeers":11182,"Ġviewport":11183,"Ġuniqueness":11184,"Ġinvit":11185,"Ġpersistent":11186,"Ġtroublesh":11187,"ensical":11188,"Ġguideline":11189,"Ġdescriptions":11190,"Ġlatex":11191,"Ġsqlx":11192,"Ġnoticeable":11193,"gencode":11194,"colon":11195,"Ġtagging":11196,"Ġsuperior":11197,"Ġsupertraits":11198,"Ġgroupa":11199,"threadpool":11200,"Ġlauncher":11201,"crific":11202,"details":11203,"Ġhinted":11204,"Ġunwraps":11205,"stderr":11206,"addr":11207,"Ġpulls":11208,"Ġdetecting":11209,"httpcontext":11210,"Ġblu":11211,"Ġfnmut":11212,"Ġrecurse":11213,"Ġillumin":11214,"Ġpublishes":11215,"Ġnominal":11216,"Ġtreatment":11217,"facing":11218,"Ġobserving":11219,"cycle":11220,"Ġ~/.":11221,"Ġundo":11222,"Ġodds":11223,"username":11224,"Ġdoubts":11225,"clause":11226,"Ġuploading":11227,"Ġcovering":11228,"Ġbelonging":11229,"Ġpresses":11230,"Ġvolley":11231,"Ġfragments":11232,"results":11233,"Ġwarned":11234,"Ġmicroseconds":11235,"Ġunlocked":11236,"Ġbufreader":11237,"Ġunderscores":11238,"Ġinstructs":11239,"Ġfreshly":11240,"Ġrectang":11241,"Ġhighlighted":11242,"Ġshuffling":11243,"Ġinconsistency":11244,"Ġshifts":11245,"certpathvalidatorexception":11246,"nytm":11247,"Ġsuspic":11248,"Ġunrolling":11249,"Ġflushed":11250,"Ġexceeds":11251,"Ġphantomdata":11252,"Ġ1000000":11253,"Ġnuget":11254,"Ġmangled":11255,"Ġgraphemes":11256,"Ġmvce":11257,"Ġimpersonation":11258,"Ġarrive":11259,"Ġphrase":11260,"authentication":11261,"celerator":11262,"Ġdecompose":11263,"attribute":11264,"metal":11265,"Ġdashboard":11266,"Ġinterpolation":11267,"Ġsubstantial":11268,"vgomg":11269,"Ġlegitimate":11270,"Ġpgadmin":11271,"iethios":11272,"Ġoccured":11273,"Ġinverted":11274,"Ġbacktraces":11275,"coverable":11276,"Ġhistorical":11277,"Ġskills":11278,"automatically":11279,"Ġartificial":11280,"Ġhorizont":11281,"Ġcudamemcpy":11282,"Ġgentoo":11283,"following":11284,"uliar":11285,"credential":11286,"Ġsampling":11287,"ĠâĩĴ":11288,"Ġinvisible":11289,"Ġpeculiar":11290,".(":11291,":/":11292,"]]":11293,"dylib":11294,"ear":11295,"fro":11296,"flo":11297,"hen":11298,"jed":11299,"live":11300,"mare":11301,"mix":11302,"micro":11303,"pic":11304,"purpose":11305,"rand":11306,"sandbox":11307,"tz":11308,"tur":11309,"tics":11310,"Ġtfs":11311,"Ġioc":11312,"rem":11313,"Ġsse":11314,"Ġsli":11315,"eric":11316,"Ġwso":11317,"atte":11318,"oration":11319,"oul":11320,"Ġtodo":11321,"Ġball":11322,"Ġbcrypt":11323,"Ġbios":11324,"Ġdn":11325,"Ġdice":11326,"Ġdto":11327,"Ġdavid":11328,"Ġinso":11329,"Ġomap":11330,"itates":11331,"Ġhung":11332,"enic":11333,"enumer":11334,"ctl":11335,"Ġreform":11336,"Ġremed":11337,"Ġreverses":11338,"Ġls":11339,"Ġlda":11340,"Ġur":11341,"Ġyout":11342,"Ġeta":11343,"ntool":11344,"ntsush":11345,"Ġgem":11346,"Ġglib":11347,"decode":11348,"Ġsticking":11349,"ldouble":11350,"etype":11351,"rase":11352,"Ġ('":11353,"ashing":11354,"cha":11355,"unks":11356,"Ġsealing":11357,"Ġcomposing":11358,"Ġmailing":11359,"Ġallev":11360,"Ġpopping":11361,"Ġmyst":11362,"Ġjdbc":11363,"Ġintensive":11364,"Ġcake":11365,"Ġunreadable":11366,"Ġunnameable":11367,"inel":11368,"Ġpointee":11369,"Ġappcontext":11370,"Ġnoisy":11371,"Ġmethodology":11372,"Ġexpire":11373,"iveness":11374,"endum":11375,"Ġupheld":11376,"Ġ120":11377,"Ġtypename":11378,"elf":11379,"Ġreadonly":11380,"conception":11381,"tty":11382,"Ġgold":11383,"Ġ2048":11384,"Ġsacrific":11385,"Ġtrustore":11386,"Ġallowpartiallytrustedcallers":11387,"foreign":11388,"berock":11389,"whether":11390,"Ġwritable":11391,"Ġconsensus":11392,"dio":11393,"comments":11394,"Ġbehalf":11395,"Ġguy":11396,"Ġtransport":11397,"Ġequiva":11398,"Ġheart":11399,"Ġcomodo":11400,"Ġdowngra":11401,"Ġedits":11402,"Ġxen":11403,"Ġides":11404,"Ġavx":11405,"Ġconsiderable":11406,"Ġmodeled":11407,"Ġextractor":11408,"Ġlocals":11409,"Ġplacement":11410,"Ġprogrammatic":11411,"Ġclears":11412,"worthy":11413,"Ġ[[":11414,"Ġliterature":11415,"Ġholder":11416,"Ġlesser":11417,"Ġinvalidates":11418,"Ġdistro":11419,"Ġbuggy":11420,"names":11421,"namespace":11422,"Ġflagged":11423,"logger":11424,"Ġpeg":11425,"Ġtreeb":11426,"Ġpause":11427,"Ġpaired":11428,"webassembly":11429,"Ġ#![":11430,"Ġinstrument":11431,"Ġcurs":11432,"mutex":11433,"Ġsharepoint":11434,"wrapped":11435,"Ġproportion":11436,"Ġmonit":11437,"Ġmisconception":11438,"ository":11439,"Ġreproducing":11440,"2020":11441,"Ġmindset":11442,"Ġimagining":11443,"borrows":11444,"urprising":11445,"Ġmsi":11446,"Ġlayouts":11447,"999":11448,"linking":11449,"305":11450,"Ġblade":11451,"special":11452,"Ġrecurring":11453,"Ġcircuit":11454,"Ġcommitted":11455,"Ġdeprecation":11456,"Ġmaths":11457,"Ġdeduplic":11458,"Ġsummation":11459,"Ġmeasures":11460,"Ġincrementally":11461,"Ġtlc":11462,"Ġ<->":11463,"discovery":11464,"Ġsubjective":11465,"Ġsubstituting":11466,"Ġcontravariance":11467,"Ġscanner":11468,"loops":11469,"topic":11470,"Ġsubsets":11471,"icksort":11472,"installation":11473,"Ġatomically":11474,"Ġcollapse":11475,"Ġindented":11476,"Ġaccurately":11477,"incip":11478,"Ġhighlighting":11479,"Ġspheres":11480,"declared":11481,"uniper":11482,"universal":11483,"patterns":11484,"repository":11485,"inputiterator":11486,"multiple":11487,"Ġanalyzed":11488,"nostics":11489,"plugins":11490,"products":11491,"Ġprepending":11492,"pasted":11493,"Ġprohibits":11494,"delegate":11495,"Ġjudging":11496,"Ġassociative":11497,"Ġuninstalling":11498,"downloads":11499,"black":11500,"Ġexhibit":11501,"Ġbtrees":11502,"Ġbalance":11503,"protocol":11504,"behind":11505,"behav":11506,"power":11507,"destroy":11508,"appropriate":11509,"Ġdivisible":11510,"attributes":11511,"deserialize":11512,"serialization":11513,"toolchains":11514,"initialised":11515,"ï¼ļ":11516,"Ġproxies":11517,"Ġrustacean":11518,"Ġffmpeg":11519,"Ġscience":11520,"Ġcoroutines":11521,"scalar":11522,"Ġgrok":11523,"copied":11524,"Ġinspection":11525,"Ġtelnet":11526,"Ġbogus":11527,"Ġadequ":11528,"essentially":11529,"Ġbeautiful":11530,"presumably":11531,"ursery":11532,"ntsushi":11533,"##":11534,",-":11535,"/-":11536,"110":11537,"<->":11538,"bru":11539,"gues":11540,"hed":11541,"iro":11542,"iates":11543,"jmb":11544,"ril":11545,"rant":11546,"tch":11547,"ture":11548,"xp":11549,"xec":11550,"xft":11551,"yy":11552,"za":11553,"Â²":11554,"âĦ":11555,"Ġtss":11556,"Ġips":11557,"Ġthawte":11558,"Ġaca":11559,"Ġaims":11560,"Ġcord":11561,"ini":11562,"inqu":11563,"Ġsr":11564,"Ġsight":11565,"Ġswe":11566,"Ġsnapshot":11567,"ern":11568,"atim":11569,"Ġbiz":11570,"Ġbought":11571,"Ġfish":11572,"Ġfwiw":11573,"sta":11574,"anig":11575,"Ġdu":11576,"Ġdsl":11577,"Ġditch":11578,"Ġol":11579,"Ġoob":11580,"Ġpand":11581,"Ġpare":11582,"Ġptx":11583,"itty":11584,"Ġmunch":11585,"Ġhes":11586,"esca":11587,"enanig":11588,"Ġrelied":11589,"Ġrecap":11590,"Ġrebuilt":11591,"Ġreordered":11592,"Ġlands":11593,"Ġyan":11594,"roph":11595,"robert":11596,"rup":11597,"align":11598,"Ġglo":11599,"Ġgfx":11600,"Ġgiant":11601,"deps":11602,"delimited":11603,"etary":11604,"rame":11605,"Ġvcp":11606,"Ġpropri":11607,"chromium":11608,"unre":11609,"Ġselector":11610,"Ġsebast":11611,"iff":11612,"Ġcodec":11613,"Ġmosso":11614,"Ġpoc":11615,"ulative":11616,"Ġfromstr":11617,"idimensional":11618,"Ġretro":11619,"Ġseeking":11620,"cached":11621,"Ġunify":11622,"Ġunset":11623,"Ġheres":11624,"Ġexpense":11625,"msg":11626,"Ġtex":11627,"Ġfileiopermission":11628,"Ġprepar":11629,"Ġprecompiled":11630,"ists":11631,"Ġcloset":11632,"Ġwhereby":11633,"Ġpercent":11634,"Ġoverwrites":11635,"conver":11636,"avy":11637,"Ġloses":11638,"Ġbuilders":11639,"Ġbothers":11640,"Ġbothered":11641,"amation":11642,"uded":11643,"upd":11644,"Ġprovision":11645,"Ġconverter":11646,"Ġbitcode":11647,"Ġprng":11648,"owner":11649,"rsa":11650,"Ġsubslices":11651,"xture":11652,"Ġspacing":11653,"Ġ36":11654,"Ġ37":11655,"Ġmodifiers":11656,"buzz":11657,"criptor":11658,"Ġbehaving":11659,"Ġxargo":11660,"Ġrelinqu":11661,"Ġopenjdk":11662,"parsing":11663,"Ġidle":11664,"Ġbins":11665,"their":11666,"Ġzoo":11667,"ĠĠĠĠĠĠĠĠĠĠ":11668,"Ġreflex":11669,"Ġrealistically":11670,"Ġpostfix":11671,"acces":11672,"Ġminute":11673,"Ġpackaged":11674,"Ġidentities":11675,"Ġtargeted":11676,"Ġinfix":11677,"Ġfunctionalities":11678,"Ġ&&":11679,"slightly":11680,"Ġunsatisf":11681,"Ġvecs":11682,"Ġpee":11683,"Ġframebuffer":11684,"Ġunimp":11685,"Ġportions":11686,"Ġpresentation":11687,"Ġfiling":11688,"Ġinterning":11689,"Ġcamel":11690,"Ġmodelview":11691,"Ġextracts":11692,"Ġbreakage":11693,"Ġnetcat":11694,"Ġmonte":11695,"Ġmonster":11696,"efan":11697,"Ġmisuse":11698,"Ġselectively":11699,"Ġwishes":11700,"Ġgraphql":11701,"intercept":11702,"interface":11703,"database":11704,"Ġsuperset":11705,"princip":11706,"Ġencrypting":11707,"Ġworthwhile":11708,"Ġreachable":11709,"Ġbroker":11710,"Ġverbatim":11711,"Ġguarded":11712,"locals":11713,"ggling":11714,"httpclient":11715,"graphics":11716,"Ġbluss":11717,"Ġmetal":11718,"Ġstats":11719,"understand":11720,"Ġmerges":11721,"Ġfallible":11722,"jsse":11723,"Ġrecognizing":11724,"ordering":11725,"Ġdevirtual":11726,"consumer":11727,"Ġfeeds":11728,"Ġprofession":11729,"Ġdeallocates":11730,"Ġgrants":11731,"Ġsynchronized":11732,"createinstance":11733,"sourcefile":11734,"Ġfragile":11735,"life":11736,"Ġordinal":11737,"Ġstrictweak":11738,"Ġgains":11739,"Ġredirected":11740,"aspnet":11741,"Ġlossy":11742,"Ġforgive":11743,"Ġimpacts":11744,"Ġreallocating":11745,"Ġmicrocontroller":11746,"returns":11747,"iconfig":11748,"untested":11749,"Ġtheoretical":11750,"referenced":11751,"Ġinvestigating":11752,"browse":11753,"Ġquadro":11754,"demic":11755,"optimize":11756,"Ġcircumstance":11757,"enums":11758,"trunc":11759,"Ġcorruption":11760,"Ġfiddle":11761,"Ġanalyzer":11762,"Ġquantity":11763,"variables":11764,"Ġnightmare":11765,"large":11766,"futures":11767,"delete":11768,"Ġphilosophers":11769,"peter":11770,"Ġarrives":11771,"Ġreexported":11772,"issuecomment":11773,"Ġvulkano":11774,"extension":11775,"tmpxft":11776,"collected":11777,"assetlinks":11778,"Ġunsuccessful":11779,"Ġcomposer":11780,"Ġheuristic":11781,"Ġexcluding":11782,"Ġmotivating":11783,"Ġleveraging":11784,"Ġpertains":11785,"capture":11786,"Ġreceivers":11787,"lazy":11788,"Ġprefers":11789,"Ġdubious":11790,"Ġsurvive":11791,"Ġpragmatic":11792,"Ġasterisk":11793,"Ġintrusive":11794,"Ġldaps":11795,"âĦ¢":11796,"Ġacademic":11797,"Ġproprietary":11798,"!.":11799,")\\":11800,"/\"":11801,"214":11802,"364":11803,">?":11804,"bul":11805,"bos":11806,"bund":11807,"btw":11808,"cg":11809,"cn":11810,"center":11811,"eq":11812,"fly":11813,"hn":11814,"jsak":11815,"kine":11816,"lp":11817,"lations":11818,"mismatch":11819,"nursery":11820,"pay":11821,"pid":11822,"rg":11823,"simp":11824,"uint":11825,"wss":11826,"watch":11827,"warning":11828,"xd":11829,"yped":11830,"ĠâĢĻ":11831,"Ġtboot":11832,"Ġaij":11833,"Ġcen":11834,"Ġcity":11835,"infer":11836,"Ġspect":11837,"Ġtoler":11838,"Ġtoggle":11839,"Ġbst":11840,"Ġboring":11841,"Ġballs":11842,"Ġbidirectional":11843,"Ġfut":11844,"leasant":11845,"sto":11846,"star":11847,"sters":11848,"stract":11849,"Ġdread":11850,"Ġdup":11851,"Ġdsts":11852,"Ġinappropriate":11853,"Ġpfx":11854,"Ġmre":11855,"Ġmul":11856,"Ġmcu":11857,"Ġhar":11858,"Ġheck":11859,"ening":11860,"Ġnl":11861,"Ġnans":11862,"Ġngin":11863,"Ġreci":11864,"Ġuac":11865,"mpro":11866,"ico":11867,"seal":11868,"alth":11869,"always":11870,"deb":11871,"Ġstem":11872,"Ġhammer":11873,"Ġvista":11874,"pexception":11875,"throw":11876,"Ġ(~":11877,"Ġproving":11878,"Ġcondu":11879,"chris":11880,"unicode":11881,"Ġdelt":11882,"Ġcompan":11883,"antly":11884,"Ġorientation":11885,"Ġthereof":11886,"Ġtrous":11887,"amend":11888,"Ġsho":11889,"Ġshenanig":11890,"Ġatoms":11891,"Ġneedle":11892,"Ġarity":11893,"Ġanytime":11894,"lice":11895,"Ġunaligned":11896,"Ġunpredict":11897,"Ġuninitialised":11898,"Ġkalbertodt":11899,"Ġabsent":11900,"Ġ\"*":11901,"ortant":11902,"Ġaddendum":11903,"Ġnovice":11904,"izers":11905,"Ġupcast":11906,"els":11907,"Ġsolvable":11908,"dump":11909,"iry":11910,"Ġlibusb":11911,"Ġpassive":11912,"Ġmatsakis":11913,"Ġimposes":11914,"Ġrepos":11915,"Ġgover":11916,"Ġopted":11917,"Ġclou":11918,"ama":11919,"exclusive":11920,"extract":11921,"udge":11922,"Ġgenericity":11923,"Ġconversely":11924,"Ġeverybody":11925,"Ġsupplies":11926,"Ġwriters":11927,"Ġdocumenting":11928,"Ġmessaging":11929,"Ġmultidimensional":11930,"Ġ'&":11931,"://)":11932,"Ġbitfields":11933,"issu":11934,"Ġlistens":11935,"Ġsubdomain":11936,"Ġsubfolder":11937,"++-":11938,"Ġvalidator":11939,"Ġtransitively":11940,"Ġregression":11941,"Ġindents":11942,"Ġlinq":11943,"Ġeditors":11944,"icky":11945,"parity":11946,"parsed":11947,"0100":11948,"Ġoptimising":11949,"Ġ47":11950,"loaded":11951,"Ġparticipate":11952,"Ġextraction":11953,"Ġseparators":11954,"Ġfltk":11955,"sonic":11956,"Ġpostpon":11957,"ĠâĢĿ":11958,"Ġuntagged":11959,"Ġachieves":11960,"Ġachievable":11961,"Ġalternately":11962,"Ġsucces":11963,"()\"":11964,"Ġlaratrust":11965,"Ġresponder":11966,"Ġinvalidation":11967,"Ġbrew":11968,"Ġroots":11969,"Ġtextbook":11970,"Ġbytecode":11971,"Ġdeserializes":11972,"Ġconditionals":11973,"Ġsplash":11974,"Ġ86":11975,"Ġ800":11976,"resource":11977,"Ġmedia":11978,"Ġsatur":11979,"Ġauthorize":11980,"Ġspelled":11981,"Ġspeech":11982,"Ġquicker":11983,"Ġmisinterpre":11984,"Ġimaginary":11985,"Ġrouting":11986,"Ġdoubled":11987,"interrupt":11988,"Ġsentinel":11989,"Ġtalked":11990,"refcell":11991,"building":11992,"javascript":11993,"Ġfamous":11994,"Ġpopup":11995,"Ġabstracting":11996,"Ġcyl":11997,"Ġoriginated":11998,"Ġmeasurable":11999,"Ġmanipulations":12000,"Ġnegate":12001,"Ġhalt":12002,"Ġforwarded":12003,"bindings":12004,"Ġpriorit":12005,"Ġatomicity":12006,"333":12007,"objectcontainer":12008,"Ġexploit":12009,"Ġinteractive":12010,"Ġworkerize":12011,"Ġgranting":12012,"Ġpressing":12013,"Ġweakness":12014,"Ġforesta":12015,"looking":12016,"Ġbarely":12017,"Ġfaulty":12018,"rtm":12019,"Ġfocuses":12020,"Ġanalogue":12021,"Ġdecrements":12022,"Ġwalks":12023,"structures":12024,"quality":12025,"Ġretrieval":12026,"Ġdelimited":12027,"Ġdelimiters":12028,"Ġalphan":12029,"Ġcrude":12030,"Ġmalware":12031,"urlconnection":12032,"Ġmirr":12033,"Ġexempl":12034,"Ġdaily":12035,"Ġprivileged":12036,"vscode":12037,"Ġmimics":12038,"Ġsubtracting":12039,"Ġsigntool":12040,"Ġfacilities":12041,"digital":12042,"Ġdiagnostic":12043,"Ġpredicted":12044,"Ġanalyzing":12045,"Ġdegrees":12046,"suncertpathbuilderexception":12047,"Ġ%)":12048,"Ġprohibited":12049,"Ġexponential":12050,"Ġrearr":12051,"Ġnonsensical":12052,"spection":12053,"Ġstubs":12054,"Ġincorp":12055,"Ġeagerly":12056,"tutorials":12057,"magic":12058,"Ġpermanent":12059,"airs":12060,"Ġpleasant":12061,"Ġdecorator":12062,"evaluate":12063,"Ġcompliant":12064,"Ġcoalesced":12065,"Ġinterleaved":12066,"Ġposterity":12067,"Ġcatalog":12068,"Ġtesla":12069,"Ġparametrized":12070,"warf":12071,"experimental":12072,"Ġpitfalls":12073,"setta":12074,"flatten":12075,"Ġcgmath":12076,"Ġgathered":12077,"definition":12078,"Ġrecipient":12079,"oftrust":12080,"Ġbtreeset":12081,"Ġunimportant":12082,"principal":12083,"iconfiguration":12084,"jsakkine":12085,"Ġnginx":12086,"').":12087,")(":12088,")\".":12089,".?":12090,".âĢĿ":12091,"036":12092,"602":12093,";;":12094,"='":12095,">.":12096,"clear":12097,"dy":12098,"gp":12099,"ict":12100,"jan":12101,"kts":12102,"mount":12103,"malloc":12104,"pment":12105,"qs":12106,"tab":12107,"wt":12108,"wikipedia":12109,"walk":12110,"xit":12111,"xcompiler":12112,"{\"":12113,"ĠÏ":12114,"Ġtt":12115,"Ġtbb":12116,"reverse":12117,"Ġcpython":12118,"Ġsess":12119,"erature":12120,"Ġwo":12121,"Ġwinit":12122,"oning":12123,"oupl":12124,"Ġtoying":12125,"Ġbat":12126,"leak":12127,"men":12128,"stub":12129,"starter":12130,"Ġdr":12131,"Ġdy":12132,"Ġdual":12133,"Ġdtr":12134,"Ġindu":12135,"Ġansi":12136,"Ġpest":12137,"itative":12138,"Ġmdn":12139,"Ġepo":12140,"Ġeyes":12141,"seq":12142,"sexception":12143,"ructions":12144,"Ġcoord":12145,"along":12146,"Ġgn":12147,"Ġgue":12148,"Ġgaps":12149,"depre":12150,"Ġstead":12151,"race":12152,"Ġvc":12153,"rustwasm":12154,"pest":12155,"Ġ(=":12156,"verb":12157,"Ġrustls":12158,"uninitialized":12159,"Ġpops":12160,"Ġshooting":12161,"Ġjpeg":12162,"Ġjuniper":12163,"odable":12164,"Ġadvert":12165,"Ġlean":12166,"Ġlear":12167,"Ġunordered":12168,"Ġkit":12169,"ivered":12170,"lient":12171,"usize":12172,"testing":12173,"forget":12174,"Ġbuy":12175,"angled":12176,"arency":12177,"Ġprecludes":12178,"Ġvex":12179,"abstract":12180,"cloud":12181,"Ġoversight":12182,"conc":12183,"Ġresultant":12184,"Ġreplication":12185,"Ġ250":12186,"Ġkeyst":12187,"Ġkeyed":12188,"Ġcertified":12189,"Ġaccessors":12190,"expect":12191,"Ġprogrammed":12192,"whatever":12193,"Ġ???":12194,"âĢľ":12195,"Ġfixture":12196,"dictionary":12197,"Ġremind":12198,"Ġlinkage":12199,"Ġlinkdemand":12200,"curate":12201,"Ġquicksort":12202,"Ġstateful":12203,"Ġrightly":12204,"Ġhelpfully":12205,"Ġsubarray":12206,"Ġsubtly":12207,"Ġagnostic":12208,"Ġwebgl":12209,"Ġspare":12210,"roughly":12211,"Ġsystemd":12212,"travis":12213,"Ġexplicitness":12214,"Ġcleans":12215,"Ġtransient":12216,"Ġorigins":12217,"Ġ08":12218,"Ġprintable":12219,"save":12220,"Ġrogue":12221,"Ġeditions":12222,"Ġindexable":12223,"timeout":12224,"Ġrefine":12225,"Ġ401":12226,"Ġ403":12227,"Ġrealm":12228,"Ġseparates":12229,"Ġflate":12230,"solve":12231,"Ġinspected":12232,"aky":12233,"poly":12234,"Ġhardcoding":12235,"acqu":12236,"accurate":12237,"Ġscatter":12238,"Ġidentically":12239,"())":12240,"Ġappearing":12241,"Ġstdweb":12242,"Ġswaps":12243,"iterate":12244,"have":12245,"Ġshortcoming":12246,"mission":12247,"Ġposit":12248,"arounds":12249,"previous":12250,"manually":12251,"tained":12252,"Ġcacher":12253,"Ġadvances":12254,"105":12255,"iterators":12256,"latest":12257,"Ġauthoritative":12258,"linn":12259,"Ġforeach":12260,"Ġforeground":12261,"Ġaccomplishing":12262,"mah":12263,"Ġmaxim":12264,"Ġfinishing":12265,"prime":12266,"generics":12267,"commer":12268,"0495":12269,"Ġdrawer":12270,"1516":12271,"Ġintentions":12272,"141":12273,"Ġmaintainers":12274,"Ġawful":12275,"Ġregexp":12276,"Ġemulated":12277,"Ġvirtualization":12278,"Ġcarri":12279,"271":12280,"Ġglut":12281,"Ġcommitting":12282,"runk":12283,"hey":12284,"Ġencapsulating":12285,"Ġstabilised":12286,"Ġdeadline":12287,"Ġcontradict":12288,"Ġreviewing":12289,"bracket":12290,"Ġfetched":12291,"Ġdiscards":12292,"Ġmanifests":12293,"Ġforestb":12294,"Ġboards":12295,"Ġdestructured":12296,"Ġpki":12297,"signserver":12298,"Ġaborted":12299,"Ġdelivered":12300,"Ġtimeouts":12301,"Ġaxi":12302,"Ġmiddlewares":12303,"Ġtouches":12304,"internals":12305,"Ġlossless":12306,"Ġmonomorphisation":12307,"printed":12308,"Ġgpio":12309,"Ġcarrying":12310,"Ġfulfilled":12311,"Ġsubtlety":12312,"nvcc":12313,"attach":12314,"Ġminimized":12315,"Ġvideos":12316,"Ġstepping":12317,"Ġparallelization":12318,"Ġnsight":12319,"Ġhighlights":12320,"declar":12321,"ĠâĶĶ":12322,"Ġsuspend":12323,"Ġinconvenience":12324,"scoped":12325,"Ġoccupied":12326,"Ġgateway":12327,"Ġtransparently":12328,"aupp":12329,"Ġenhance":12330,"laravel":12331,"Ġdeferred":12332,"benchm":12333,"Ġunaryfunction":12334,"Ġdozens":12335,"Ġbulk":12336,"Ġmvp":12337,"dispatcher":12338,"Ġwheels":12339,"Ġinterchangeably":12340,"00000000000000000000000000000000":12341,"Ġampersands":12342,"Ġprobability":12343,"approx":12344,"Ġunpleasant":12345,"Ġvanilla":12346,"Ġunsuccessfully":12347,"receive":12348,"continue":12349,"increment":12350,"internet":12351,"technically":12352,"Ġodeint":12353,"retrieve":12354,"Ġmqtt":12355,"Ġgyp":12356,"Ġdepartment":12357,"Ġgrabbing":12358,"Ġeconomic":12359,"Ġjetbrains":12360,"Ġdollar":12361,"stenite":12362,"Ġsuspicion":12363,"jedrz":12364,"turbofish":12365,"Ġyoutube":12366,"Ġvcpkg":12367,"updates":12368,"Ġrecipe":12369,"Ġshenanigans":12370,"Ġunpredictable":12371,"Ġpostponed":12372,"Ġcylinder":12373,"Ġsessions":12374,"Ġepoch":12375,"\"):":12376,"401":12377,"748":12378,"8000":12379,">>,":12380,"aion":12381,"band":12382,"bered":12383,"cal":12384,"craw":12385,"final":12386,"hat":12387,"hare":12388,"ien":12389,"lass":12390,"mdb":12391,"migr":12392,"olo":12393,"prom":12394,"pong":12395,"position":12396,"rid":12397,"rng":12398,"tail":12399,"ule":12400,"xr":12401,"xu":12402,"µs":12403,"Ġiv":12404,"Ġimple":12405,"Ġai":12406,"Ġaimed":12407,"really":12408,"remember":12409,"Ġcal":12410,"Ġctypes":12411,"Ġcusp":12412,"inctly":12413,"Ġslo":12414,"Ġwoken":12415,"ano":12416,"Ġdru":12417,"Ġpun":12418,"Ġpid":12419,"Ġpix":12420,"edu":12421,"Ġhon":12422,"espan":12423,"ension":12424,"isan":12425,"Ġreversal":12426,"Ġlto":12427,"Ġuart":12428,"mpsc":12429,"icore":12430,"Ġef":12431,"Ġepc":12432,"sections":12433,"Ġbean":12434,"rub":12435,"Ġcos":12436,"alive":12437,"Ġgas":12438,"Ġgig":12439,"Ġgldouble":12440,"Ġhall":12441,"rait":12442,"Ġvo":12443,"Ġassembled":12444,"asks":12445,"assemb":12446,"changes":12447,"Ġdegra":12448,"Ġcomposite":12449,"Ġfizz":12450,"Ġfunctioning":12451,"Ġtripped":12452,"geo":12453,"Ġjack":12454,"Ġencomp":12455,"Ġengin":12456,"quent":12457,"Ġkicks":12458,"things":12459,"Ġamort":12460,"Ġjustify":12461,"Ġjustified":12462,"Ġris":12463,"ender":12464,"ignificant":12465,"Ġupwards":12466,"angling":12467,"Ġlibsodium":12468,"grained":12469,"..)":12470,"clang":12471,"agent":12472,"convent":12473,"Ġ28":12474,"Ġparameterised":12475,"Ġtrusty":12476,"Ġdefinite":12477,"swap":12478,"extern":12479,"Ġprogramatically":12480,"ailing":12481,"cribed":12482,"Ġrightfully":12483,"Ġsubtypes":12484,"Ġagents":12485,"Ġspit":12486,"serial":12487,"Ġscores":12488,"++),":12489,"training":12490,"needed":12491,"Ġtransitivity":12492,"Ġelementary":12493,"Ġrook":12494,"Ġxm":12495,"Ġlogcat":12496,"ibm":12497,"Ġopenocd":12498,"architect":12499,"Ġzom":12500,"Ġcustomized":12501,"Ġfigures":12502,"Ġrefutable":12503,"Ġrefusing":12504,"Ġ45":12505,"Ġ46":12506,"Ġdecipher":12507,"Ġinstallations":12508,"Ġflutter":12509,"solid":12510,"Ġinsignificant":12511,"Ġuntouch":12512,"Ġhardcode":12513,"ackex":12514,"Ġmini":12515,"Ġpackaging":12516,"Ġscary":12517,"Ġsitting":12518,"validation":12519,"Ġclasspath":12520,"Ġconcent":12521,"Ġswagger":12522,"Ġdesigns":12523,"Ġ&-":12524,"Ġtrunk":12525,"Ġgrain":12526,"Ġoses":12527,"Ġfloor":12528,"Ġzeroed":12529,"Ġoutliving":12530,"Ġmanagers":12531,"Ġcomplication":12532,"Ġshareable":12533,"Ġbranching":12534,"Ġtroublesome":12535,"115":12536,"Ġdispatcher":12537,"Ġforesee":12538,"handed":12539,"Ġoverflowing":12540,"Ġmaximal":12541,"myth":12542,"interactive":12543,"Ġsentences":12544,"Ġrespects":12545,"Ġterse":12546,"sequence":12547,"crichton":12548,"generation":12549,"043":12550,"models":12551,"Ġdriving":12552,"Ġmutexguard":12553,"oderef":12554,"Ġunrecoverable":12555,"Ġthankful":12556,"ggie":12557,"streamconnection":12558,"Ġstock":12559,"design":12560,"xyz":12561,"Ġnegot":12562,"Ġglade":12563,"Ġpromised":12564,"Ġdenom":12565,"failed":12566,"packages":12567,"Ġcorro":12568,"listener":12569,"heh":12570,"heavy":12571,"Ġqualifiers":12572,"Ġoddly":12573,"disk":12574,"Ġdiscovery":12575,"Ġtitled":12576,"Ġprompts":12577,"Ġ2003":12578,"Ġlinearly":12579,"Ġfetches":12580,"Ġrounds":12581,"compiles":12582,"Ġengineering":12583,"Ġstaying":12584,"Ġreborrows":12585,"Ġproceeds":12586,"Ġutilizes":12587,"Ġaxes":12588,"development":12589,"internalstreamconnection":12590,"prints":12591,"Ġdecreases":12592,"Ġunexpectedly":12593,"Ġwalking":12594,"481516":12595,"Ġidentifying":12596,"Ġflattened":12597,"Ġcollisions":12598,"lua":12599,"Ġrobot":12600,"Ġuncommented":12601,"Ġrevised":12602,"Ġcumulative":12603,"Ġorganized":12604,"Ġretrieves":12605,"Ġvolumes":12606,"2007":12607,"cheap":12608,"Ġneighbour":12609,"Ġinsights":12610,"paper":12611,"semant":12612,"Ġsoapui":12613,"taken":12614,"Ġcmakelists":12615,"uzzy":12616,"terminate":12617,"^^^^^^^^^^^^^^^^":12618,"Ġqueried":12619,"Ġawaited":12620,"Ġrebuilding":12621,"trees":12622,"demort":12623,"Ġfavorite":12624,"effectively":12625,"aliasing":12626,"Ġdesugar":12627,"Ġsurrounded":12628,"ungstenite":12629,"Ġunsoundness":12630,"Ġsymme":12631,"breaking":12632,"Ġoptimiser":12633,"Ġdeterministically":12634,"dynamically":12635,"Ġquantities":12636,"Ġspinning":12637,"Ġvisitors":12638,"pkg":12639,"Ġsuccinctly":12640,"Ġlending":12641,"Ġtzasc":12642,"peters":12643,"Ġbarriers":12644,"Ġglfw":12645,"argumentexception":12646,"Ġbias":12647,"initialization":12648,"Ġexciting":12649,"Ġintrospection":12650,"Ġpoisoned":12651,"Ġjetty":12652,"literal":12653,"Ġlifted":12654,"Ġghc":12655,"craft":12656,"circu":12657,"failure":12658,"Ġadopted":12659,"Ġlifespan":12660,"Ġarranged":12661,"Ġflavors":12662,"published":12663,"contracts":12664,"Ġfifo":12665,"Ġcrafted":12666,"2342":12667,"besides":12668,"green":12669,"Ġdiagnose":12670,"Ġfacilitate":12671,"Ġdivergent":12672,"nrfx":12673,"natural":12674,"members":12675,"Ġdpdk":12676,"Ġpalind":12677,"googlechromelabs":12678,"Ġspatial":12679,"Ġspirit":12680,"Ġcheaper":12681,"Ġpurchase":12682,"Ġprerequisite":12683,"Ġlauncheractivity":12684,"Ġbizar":12685,"Ġyanked":12686,"accessexception":12687,"Ġprofessional":12688,"Ġdreaded":12689,"Ġdelta":12690,"Ġcompanies":12691,"Ġtrousers":12692,"amendo":12693,"oupling":12694,"deprecated":12695,"verbose":12696,"Ġfizzbuzz":12697,"Ġencompass":12698,"Ġengines":12699,"Ġuntouched":12700,"ackexchange":12701,"4815162342":12702,"!/":12703,"%,":12704,"(...)":12705,"*.":12706,",...":12707,"/)":12708,"150":12709,"211":12710,"386":12711,"ael":12712,"css":12713,"faster":12714,"fonts":12715,"grow":12716,"hal":12717,"hrtb":12718,"ih":12719,"iable":12720,"je":12721,"jk":12722,"mgr":12723,"mib":12724,"mongo":12725,"pw":12726,"pure":12727,"rw":12728,"rint":12729,"sz":12730,"sen":12731,"syn":12732,"sorry":12733,"svgomg":12734,"taking":12735,"xc":12736,"xus":12737,"xir":12738,"zes":12739,"áµ":12740,"Ġtar":12741,"Ġtier":12742,"Ġil":12743,"reed":12744,"resp":12745,"Ġcd":12746,"Ġcu":12747,"Ġcors":12748,"information":12749,"Ġsne":12750,"Ġwget":12751,"atur":12752,"atom":12753,"orious":12754,"Ġblo":12755,"Ġblend":12756,"anfs":12757,"Ġdaddy":12758,"Ġinvert":12759,"Ġance":12760,"Ġmmap":12761,"Ġhatch":12762,"Ġhkts":12763,"enrg":12764,"ional":12765,"isense":12766,"Ġrejection":12767,"Ġreformat":12768,"Ġlv":12769,"mpart":12770,"Ġbeat":12771,"Ġbearing":12772,"utative":12773,"Ġcope":12774,"Ġcolo":12775,"Ġgates":12776,"Ġgross":12777,"Ġsoa":12778,"Ġonwards":12779,"Ġstash":12780,"Ġstdio":12781,"Ġformed":12782,"those":12783,"Ġ(?)":12784,"Ġmetric":12785,"chars":12786,"Ġnexus":12787,"unary":12788,"unsigned":12789,"uniform":12790,"Ġsec":12791,"Ġdeps":12792,"Ġdeference":12793,"Ġcompet":12794,"Ġpolish":12795,"Ġworkgroup":12796,"andra":12797,"loquent":12798,"Ġtraces":12799,"Ġenjo":12800,"quit":12801,"cov":12802,"cogn":12803,"Ġunauthorized":12804,"Ġkafka":12805,"Ġ\"&":12806,"Ġloosely":12807,"Ġobey":12808,"Ġfilemode":12809,"Ġfileaccess":12810,"ocon":12811,"ideally":12812,"Ġresc":12813,"Ġveedrac":12814,"question":12815,"iph":12816,"irm":12817,"istrib":12818,"ards":12819,"Ġmaterializ":12820,"Ġpervas":12821,"Ġpermalink":12822,"agically":12823,"Ġimposed":12824,"conn":12825,"Ġrepro":12826,"oney":12827,"Ġpartitions":12828,"ledb":12829,"Ġafford":12830,"Ġcorrection":12831,"expen":12832,"Ġdesk":12833,"upgrade":12834,"whites":12835,"Ġhop":12836,"Ġconscious":12837,"Ġdisp":12838,"Ġ',":12839,"Ġprices":12840,"Ġapproved":12841,"activation":12842,"Ġsubtree":12843,"Ġsubcommands":12844,"Ġsubsonic":12845,"Ġformally":12846,"Ġuserb":12847,"beans":12848,"need":12849,"Ġlitter":12850,"Ġ09":12851,"Ġheaps":12852,"Ġstacked":12853,"Ġfileshare":12854,"Ġrosetta":12855,"Ġinitiated":12856,"Ġelmah":12857,"ngine":12858,"stored":12859,"Ġsendable":12860,"Ġzi":12861,"Ġzlib":12862,"ĠĠĠĠĠĠĠĠĠĠĠĠĠĠĠ":12863,"Ġavailability":12864,"Ġ443":12865,"Ġrealization":12866,"Ġtemplating":12867,"Ġtemperature":12868,"Ġuntyped":12869,"possible":12870,"Ġconfigs":12871,"proced":12872,"projection":12873,"Ġappearance":12874,"mediate":12875,"Ġswig":12876,"Ġlesson":12877,"nik":12878,"Ġresponding":12879,"Ġbelief":12880,"Ġunsorted":12881,"Ġosap":12882,"pretty":12883,"filestream":12884,"Ġslack":12885,"nox":12886,"Ġexceptional":12887,"127":12888,"00000":12889,"Ġredistrib":12890,"appo":12891,"Ġslowdown":12892,"often":12893,"respective":12894,"keyword":12895,"mutability":12896,"Ġstarters":12897,"Ġdropbox":12898,"wrapping":12899,"Ġ67":12900,"conflict":12901,"Ġstripping":12902,"Ġmono":12903,"Ġsocketfactory":12904,"mapping":12905,"checks":12906,"Ġrespected":12907,"Ġearth":12908,"Ġschool":12909,"Ġencrypts":12910,"opts":12911,"Ġterminals":12912,"stdin":12913,"Ġuglier":12914,"Ġpopulating":12915,"Ġthankfully":12916,"afa":12917,"Ġasserting":12918,"httpruntime":12919,"Ġemerson":12920,"Ġautocompletion":12921,"Ġ||":12922,"csv":12923,"Ġglup":12924,"Ġcatches":12925,"Ġelixir":12926,"Ġoverlay":12927,"Ġstruggled":12928,"doing":12929,"Ġmixins":12930,"Ġsummar":12931,"Ġsummari":12932,"Ġquotation":12933,"Ġcomputationally":12934,"Ġelimination":12935,"ĠâĪ":12936,"Ġâī":12937,"Ġconcatenating":12938,"Ġorderings":12939,"Ġstabilize":12940,"flag":12941,"gui":12942,"constants":12943,"398":12944,"statements":12945,"Ġhomepage":12946,"Ġpropagates":12947,"Ġillegalargumentexception":12948,"Ġaccumulated":12949,"nullable":12950,"transport":12951,"541":12952,"Ġstricter":12953,"rtbs":12954,"Ġutils":12955,"Ġtouched":12956,"Ġretained":12957,"Ġreallocations":12958,"Ġartisan":12959,"Ġintellisense":12960,"Ġcontinued":12961,"Ġrotating":12962,"Ġreserves":12963,"directional":12964,"Ġdots":12965,"Ġaltering":12966,"Ġlovely":12967,"Ġstumbling":12968,"Ġjumping":12969,"reduction":12970,"Ġwildly":12971,"Ġshortcuts":12972,"Ġnarrowed":12973,"Ġinformative":12974,"connector":12975,"Ġawaiting":12976,"Ġdumping":12977,"Ġparallelized":12978,"register":12979,"Ġdiverge":12980,"environ":12981,"Ġunpacking":12982,"Ġvulnerabilities":12983,"addresses":12984,"require":12985,"Ġcomprehension":12986,"Ġoccupies":12987,"Ġtransparency":12988,"eventually":12989,"Ġreimplementing":12990,"Ġhurdle":12991,"benchmark":12992,"layout":12993,"Ġassociation":12994,"brid":12995,"Ġoctal":12996,"abihf":12997,"Ġhygienic":12998,"mnia":12999,"tecture":13000,"Ġexcuse":13001,"ascal":13002,"Ġrgba":13003,"Ġneighborhood":13004,"circuit":13005,"componentmodel":13006,"Ġscaled":13007,"Ġseamlessly":13008,"bottom":13009,"Ġrustaceans":13010,"Ġdictates":13011,"Ġheuristics":13012,"illegal":13013,"anchors":13014,"Ġanticipated":13015,"Ġreinstalling":13016,"Ġmichel":13017,"ynchronized":13018,"protected":13019,"community":13020,"Ġunintended":13021,"Ġridiculous":13022,"Ġresembles":13023,"Ġdeserialise":13024,"Ġaggressive":13025,"inherit":13026,"Ġeucli":13027,"Ġimproperly":13028,"Ġacknowledge":13029,"Ġmegabytes":13030,"Ġilluminate":13031,"Ġhorizontal":13032,"Ġremedy":13033,"Ġmystery":13034,"Ġequivalence":13035,"Ġmonitoring":13036,"Ġparens":13037,"interceptor":13038,"truncated":13039,"mproxy":13040,"Ġguest":13041,"crawl":13042,"Ġrookie":13043,"Ġdenominator":13044,"circuiting":13045,"Ġpalindrome":13046,"anfsmyth":13047,"Ġcolored":13048,"expensive":13049,"whitespace":13050,"Ġredistributable":13051,"!?":13052,"!):":13053,"%.":13054,",\\\\\"":13055,"/~":13056,"300":13057,"8080":13058,"]).":13059,"_>":13060,"bk":13061,"bars":13062,"cud":13063,"cpython":13064,"cxf":13065,"cene":13066,"dst":13067,"done":13068,"eed":13069,"fuse":13070,"fusion":13071,"feder":13072,"gz":13073,"give":13074,"gather":13075,"gstreamer":13076,"hw":13077,"hook":13078,"having":13079,"jared":13080,"kn":13081,"kad":13082,"kim":13083,"lot":13084,"mil":13085,"mind":13086,"oct":13087,"omp":13088,"px":13089,"sq":13090,"sink":13091,"sively":13092,"scale":13093,"sdl":13094,"sphere":13095,"tal":13096,"tim":13097,"tsp":13098,"tpm":13099,"uart":13100,"upper":13101,"vn":13102,"vans":13103,"wing":13104,"xcode":13105,"yping":13106,"{}":13107,"Â´":13108,"Âµs":13109,"âĨĴ":13110,"Ġaid":13111,"ret":13112,"report":13113,"reqwest":13114,"removing":13115,"reko":13116,"Ġcbindgen":13117,"Ġciting":13118,"Ġcbor":13119,"Ġsfml":13120,"ervices":13121,"Ġwis":13122,"Ġwizard":13123,"onius":13124,"Ġbread":13125,"Ġbom":13126,"Ġborder":13127,"Ġfuss":13128,"leep":13129,"stal":13130,"ana":13131,"anium":13132,"Ġdm":13133,"Ġdut":13134,"Ġdiving":13135,"Ġink":13136,"Ġincurs":13137,"Ġinformed":13138,"Ġinaccurate":13139,"Ġpic":13140,"Ġpac":13141,"Ġpthread":13142,"Ġpascal":13143,"Ġmongo":13144,"Ġhous":13145,"enote":13146,"Ġnw":13147,"Ġnich":13148,"Ġrecreating":13149,"roles":13150,"Ġek":13151,"arc":13152,"Ġbeast":13153,"lyph":13154,"dean":13155,"determin":13156,"Ġdog":13157,"Ġcancell":13158,"Ġnoticing":13159,"Ġprod":13160,"Ġconce":13161,"Ġconsolid":13162,"chunks":13163,"adri":13164,"added":13165,"unix":13166,"Ġseve":13167,"Ġmovable":13168,"ckspace":13169,"Ġtypestate":13170,"ferencing":13171,"lol":13172,"Ġjun":13173,"Ġintents":13174,"Ġtrain":13175,"Ġcairo":13176,"Ġoutgoing":13177,"cach":13178,"Ġlevans":13179,"quote":13180,"Ġunm":13181,"Ġunblock":13182,"Ġunlimited":13183,"Ġunavoid":13184,"Ġabs":13185,"Ġabuse":13186,"Ġabusing":13187,"Ġ\"--":13188,"Ġruled":13189,"Ġaddr":13190,"Ġappcelerator":13191,"Ġrhel":13192,"rows":13193,"Ġexpr":13194,"Ġwasi":13195,"Ġdatagrams":13196,"igner":13197,"Ġbumped":13198,"Ġupcoming":13199,"Ġpreview":13200,"Ġlibv":13201,"Ġimpress":13202,"concrete":13203,"avari":13204,"Ġarrayvec":13205,"Ġrepr":13206,"Ġthreadsafe":13207,"Ġsettle":13208,"intrust":13209,"img":13210,"Ġunderstandably":13211,"Ġopting":13212,"emit":13213,"Ġquestionable":13214,"derived":13215,"exhaust":13216,"Ġbasing":13217,"Ġdocumentations":13218,"Ġ?).":13219,"Ġdispos":13220,"Ġdisappo":13221,"Ġreminder":13222,"Ġsimplistic":13223,"Ġsimulations":13224,"Ġbitfield":13225,"Ġsubtext":13226,"Ġboiethios":13227,"Ġspam":13228,"Ġspending":13229,"Ġsprink":13230,"Ġformulation":13231,"Ġmultiplex":13232,"Ġcoloring":13233,"Ġnonzero":13234,"Ġnonblocking":13235,"Ġtransitions":13236,"Ġstackmark":13237,"Ġstackcrawl":13238,"Ġrapid":13239,"Ġrackspace":13240,"Ġlinter":13241,"Ġstaticlib":13242,"Ġgoto":13243,"Ġxpath":13244,"Ġxcb":13245,"Ġrelay":13246,"shark":13247,"Ġaccord":13248,"Ġzipping":13249,"Ġaven":13250,"Ġhandlebars":13251,"Ġrealtime":13252,"Ġgenerality":13253,"Ġflushing":13254,"solutions":13255,"Ġinsane":13256,"codegen":13257,"Ġsits":13258,".)?":13259,"tomcat":13260,"validate":13261,"Ġdebugged":13262,"Ġ...),":13263,"backend":13264,"hammer":13265,"Ġheads":13266,"docume":13267,"Ġnormalization":13268,"Ġtextual":13269,"Ġalgorithmic":13270,"within":13271,"Ġmarkup":13272,"Ġslash":13273,"120":13274,"00003":13275,"Ġadvancing":13276,"Ġpaid":13277,"Ġslowest":13278,"chrono":13279,"Ġcomplications":13280,"Ġextensively":13281,"Ġphases":13282,"Ġauthentic":13283,"Ġ65":13284,"Ġdeletes":13285,"securityengine":13286,"Ġbenches":13287,"Ġincant":13288,"Ġdigicert":13289,"Ġstrikes":13290,"memcheck":13291,"Ġaccompan":13292,"Ġcommunic":13293,"Ġencodable":13294,"Ġchokes":13295,"Ġinstantiations":13296,"Ġcraw":13297,"Ġinitialising":13298,"209":13299,"Ġsky":13300,"Ġerat":13301,"Ġerro":13302,"992":13303,"javase":13304,"143":13305,"Ġjohn":13306,"Ġsooner":13307,"Ġappendix":13308,"streaming":13309,"Ġstronger":13310,"Ġpermissionset":13311,"Ġstolen":13312,"195":13313,"Ġemulation":13314,"Ġblas":13315,"paths":13316,"Ġmetavari":13317,"cudafe":13318,"Ġsuspected":13319,"newtype":13320,"Ġhacking":13321,"Ġpromote":13322,"Ġplaus":13323,"sqlserver":13324,"fox":13325,"Ġviolations":13326,"Ġprefixes":13327,"letter":13328,"Ġlexic":13329,"Ġbootloader":13330,"anything":13331,"Ġ~/":13332,"Ġexplored":13333,"Ġdeviation":13334,"Ġhalfway":13335,"contents":13336,"Ġscalable":13337,"flash":13338,"443":13339,"445":13340,"okhttp":13341,"offset":13342,"Ġgreg":13343,"Ġuploads":13344,"Ġhideous":13345,"Ġadjustments":13346,"bbling":13347,"387":13348,"mdreko":13349,"Ġforestc":13350,"Ġcentroid":13351,"Ġpermuted":13352,"0210":13353,"Ġenclose":13354,"Ġaccumulation":13355,"transmute":13356,"Ġpwas":13357,"Ġautomagically":13358,"decrypt":13359,"Ġintellig":13360,"Ġhierarchical":13361,"labnik":13362,"constructor":13363,"Ġtruncating":13364,"Ġcookbook":13365,"Ġmeeting":13366,"Ġunlocks":13367,"gitlab":13368,"Ġdisallowing":13369,"Ġtrimming":13370,"Ġresetting":13371,"truststorepassword":13372,"Ġwatching":13373,"Ġcrux":13374,"formatter":13375,"admini":13376,"Ġiterables":13377,"Ġquadrup":13378,"trentcl":13379,"Ġreassignment":13380,"Ġsanity":13381,"digest":13382,"Ġgeometric":13383,"Ġblobs":13384,"Ġdiagnostics":13385,"required":13386,"Ġfootprint":13387,"strict":13388,"Ġadjacency":13389,"Ġcolons":13390,"Ġtechnologies":13391,"Ġcomprehend":13392,"multip":13393,"Ġpiping":13394,"Ġ100000":13395,"Ġtenant":13396,"Ġaiming":13397,"Ġflipped":13398,"Ġprohibit":13399,"Ġteaching":13400,"mediumtrust":13401,"layer":13402,"pkix":13403,"Ġtriangular":13404,"Ġprincipal":13405,"books":13406,"Ġimpersonating":13407,"visualstudio":13408,"parameters":13409,"Ġpremise":13410,"Ġmemoization":13411,"Ġbumping":13412,"initializing":13413,"Ġtamper":13414,"calculate":13415,"Ġanimals":13416,"Ġintrospect":13417,"literals":13418,"Ġdisagrees":13419,"Ġsubstantially":13420,"Ġnecessity":13421,"Ġqueues":13422,"Ġsyscalls":13423,"streams":13424,"Ġabbreviated":13425,"Ġbanked":13426,"associated":13427,"anchor":13428,"activator":13429,"2424242424242424":13430,"Ġlicense":13431,"Ġdoctests":13432,"Ġjarsigner":13433,"shadowing":13434,"Ġhindley":13435,"Ġobligatory":13436,"Ġangular":13437,"Ġreclaimed":13438,"0282":13439,"nznet":13440,"vendor":13441,"Ġcassandra":13442,"Ġdecouple":13443,"Ġlighthouse":13444,"Ġinefficiency":13445,"Ġwatin":13446,"Ġfruit":13447,"attempt":13448,"guessing":13449,"paritytech":13450,"Ġsuccesfully":13451,"commerce":13452,"migration":13453,"Ġrescue":13454,"procedural":13455,"conflicting":13456,"environment":13457,"Ġeuclidean":13458,"Ġstackcrawlmark":13459,"!()":13460,")-":13461,"*)":13462,"-,":13463,".\".":13464,"/,":13465,"112":13466,"210":13467,":)":13468,"][":13469,"aas":13470,"bg":13471,"blank":13472,"cies":13473,"cmd":13474,"fli":13475,"fam":13476,"gun":13477,"gated":13478,"gib":13479,"gats":13480,"godaddy":13481,"hall":13482,"jb":13483,"jh":13484,"job":13485,"lamb":13486,"ligh":13487,"mis":13488,"mime":13489,"mber":13490,"nll":13491,"pine":13492,"pms":13493,"rb":13494,"tabs":13495,"uary":13496,"vd":13497,"vated":13498,"vide":13499,"warn":13500,"Ġ00":13501,"Ġtx":13502,"Ġtmp":13503,"Ġtpms":13504,"Ġajax":13505,
[...]
