{"version":"1.0","truncation":null,"padding":null,"added_tokens":[{"id":0,"special":true,"content":"[UNK]","single_word":false,"lstrip":false,"rstrip":false,"normalized":false},{"id":1,"special":true,"content":"[CLS]","single_word":false,"lstrip":false,"rstrip":false,"normalized":false},{"id":2,"special":true,"content":"[SEP]","single_word":false,"lstrip":false,"rstrip":false,"normalized":false},{"id":3,"special":true,"content":"[PAD]","single_word":false,"lstrip":false,"rstrip":false,"normalized":false},{"id":4,"special":true,"content":"[MASK]","single_word":false,"lstrip":false,"rstrip":false,"normalized":false}],"normalizer":{"type":"Replace","pattern":{"Regex":"[{}();]"},"content":" "},"pre_tokenizer":{"type":"Sequence","pretokenizers":[{"type":"Split","pattern":{"Regex":"(?<=[a-z])(?=[A-Z])|(?<=[A-Z])(?=[A-Z][a-z])"},"behavior":"Isolated","invert":false},{"type":"Punctuation"},{"type":"Whitespace"}]},"post_processor":null,"decoder":null,"model":{"type":"BPE","dropout":null,"unk_token":"[UNK]","continuing_subword_prefix":null,"end_of_word_suffix":null,"fuse_unk":false,"vocab":{"[UNK]":0,"[CLS]":1,"[SEP]":2,"[PAD]":3,"[MASK]":4,"!":5,"\"":6,"#":7,"$":8,"%":9,"&":10,"'":11,"*":12,"+":13,",":14,"-":15,".":16,"/":17,"0":18,"1":19,"2":20,"3":21,"4":22,"5":23,"6":24,"7":25,"8":26,"9":27,":":28,"<":29,"=":30,">":31,"?":32,"@":33,"A":34,"B":35,"C":36,"D":37,"E":38,"F":39,"G":40,"H":41,"I":42,"J":43,"K":44,"L":45,"M":46,"N":47,"O":48,"P":49,"Q":50,"R":51,"S":52,"T":53,"U":54,"V":55,"W":56,"X":57,"Y":58,"Z":59,"[":60,"\\":61,"]":62,"^":63,"_":64,"`":65,"a":66,"b":67,"c":68,"d":69,"e":70,"f":71,"g":72,"h":73,"i":74,"j":75,"k":76,"l":77,"m":78,"n":79,"o":80,"p":81,"q":82,"r":83,"s":84,"t":85,"u":86,"v":87,"w":88,"x":89,"y":90,"z":91,"|":92,"~":93,"£":94,"¥":95,"¦":96,"§":97,"©":98,"«":99,"¬":100,"°":101,"±":102,"²":103,"³":104,"´":105,"µ":106,"¶":107,"·":108,"¹":109,"»":110,"½":111,"¿":112,"Ã":113,"Ä":114,"Å":115,"Ç":116,"É":117,"Ö":118,"×":119,"Ø":120,"Ü":121,"ß":122,"à":123,"á":124,"â":125,"ã":126,"ä":127,"å":128,"æ":129,"ç":130,"è":131,"é":132,"ë":133,"í":134,"ï":135,"ð":136,"ó":137,"ô":138,"ö":139,"ø":140,"ù":141,"ü":142,"ÿ":143,"Ă":144,"ą":145,"ć":146,"ē":147,"ę":148,"İ":149,"ı":150,"ĺ":151,"ļ":152,"ł":153,"ń":154,"ŉ":155,"ś":156,"Ÿ":157,"ź":158,"ż":159,"ǰ":160,"ɔ":161,"ɪ":162,"ʙ":163,"ʼ":164,"ʾ":165,"ˆ":166,"ˢ":167,"̀":168,"́":169,"̃":170,"̆":171,"̇":172,"̈":173,"̊":174,"̌":175,"̐":176,"̓":177,"̖":178,"̜":179,"̠":180,"̤":181,"̪":182,"̭":183,"̮":184,"̯":185,"̱":186,"̲":187,"̷":188,"̸":189,"̹":190,"̻":191,"̼":192,"͂":193,"ͅ":194,"͉":195,"͍":196,"͕":197,"͜":198,"Ά":199,"Ή":200,"Ώ":201,"ΐ":202,"Α":203,"Γ":204,"Η":205,"Ι":206,"Κ":207,"Μ":208,"Ρ":209,"Σ":210,"Τ":211,"Υ":212,"Φ":213,"Ω":214,"ά":215,"έ":216,"ή":217,"ΰ":218,"α":219,"γ":220,"ε":221,"η":222,"θ":223,"ι":224,"κ":225,"λ":226,"μ":227,"ν":228,"ο":229,"π":230,"ρ":231,"ς":232,"σ":233,"τ":234,"υ":235,"ό":236,"Є":237,"І":238,"Ї":239,"А":240,"Б":241,"В":242,"Г":243,"Д":244,"Е":245,"Ж":246,"З":247,"И":248,"Й":249,"К":250,"Л":251,"М":252,"Н":253,"О":254,"П":255,"Р":256,"С":257,"Т":258,"У":259,"Ф":260,"Х":261,"Ц":262,"Ч":263,"Ш":264,"Щ":265,"Ю":266,"Я":267,"а":268,"в":269,"г":270,"д":271,"е":272,"з":273,"и":274,"й":275,"к":276,"л":277,"м":278,"н":279,"о":280,"п":281,"р":282,"с":283,"т":284,"у":285,"ф":286,"ч":287,"щ":288,"ю":289,"Ѡ":290,"ѳ":291,"Ґ":292,"Ҹ":293,"Ե":294,"Ի":295,"Խ":296,"Մ":297,"Ն":298,"Վ":299,"Ւ":300,"և":301,"آ":302,"ا":303,"ب":304,"ت":305,"ث":306,"ج":307,"ح":308,"خ":309,"د":310,"ر":311,"ز":312,"س":313,"ش":314,"ظ":315,"ع":316,"غ":317,"ف":318,"ق":319,"ك":320,"ل":321,"م":322,"ن":323,"ه":324,"و":325,"ي":326,"گ":327,"ی":328,"߿":329,"त":330,"न":331,"म":332,"स":333,"े":334,"्":335,"ಠ":336,"་":337,"ད":338,"བ":339,"ལ":340,"ས":341,"ོ":342,"ྐ":343,"ᄅ":344,"ᅳ":345,"ᆯ":346,"ᵈ":347,"ḿ":348,"ṕ":349,"ẖ":350,"ẗ":351,"ẘ":352,"ẙ":353,"ẚ":354,"Ἀ":355,"Ἁ":356,"Ἂ":357,"Ἃ":358,"Ἄ":359,"Ἅ":360,"Ἆ":361,"Ἇ":362,"Ἠ":363,"Ἡ":364,"Ἢ":365,"Ἣ":366,"Ἤ":367,"Ἥ":368,"Ἦ":369,"Ἧ":370,"ὐ":371,"ὒ":372,"ὔ":373,"ὖ":374,"Ὠ":375,"Ὡ":376,"Ὢ":377,"Ὣ":378,"Ὤ":379,"Ὥ":380,"Ὦ":381,"Ὧ":382,"ᾀ":383,"ᾁ":384,"ᾂ":385,"ᾃ":386,"ᾄ":387,"ᾅ":388,"ᾆ":389,"ᾇ":390,"ᾈ":391,"ᾉ":392,"ᾊ":393,"ᾋ":394,"ᾌ":395,"ᾍ":396,"ᾎ":397,"ᾏ":398,"ᾐ":399,"ᾑ":400,"ᾒ":401,"ᾓ":402,"ᾔ":403,"ᾕ":404,"ᾖ":405,"ᾗ":406,"ᾘ":407,"ᾙ":408,"ᾚ":409,"ᾛ":410,"ᾜ":411,"ᾝ":412,"ᾞ":413,"ᾟ":414,"ᾠ":415,"ᾡ":416,"ᾢ":417,"ᾣ":418,"ᾤ":419,"ᾥ":420,"ᾦ":421,"ᾧ":422,"ᾨ":423,"ᾩ":424,"ᾪ":425,"ᾫ":426,"ᾬ":427,"ᾭ":428,"ᾮ":429,"ᾯ":430,"ᾲ":431,"ᾳ":432,"ᾴ":433,"ᾶ":434,"ᾷ":435,"Ὰ":436,"ᾼ":437,"ῂ":438,"ῃ":439,"ῄ":440,"ῆ":441,"ῇ":442,"Ὴ":443,"ῌ":444,"ῒ":445,"ΐ":446,"ῖ":447,"ῗ":448,"ῢ":449,"ΰ":450,"ῤ":451,"ῦ":452,"ῧ":453,"ῲ":454,"ῳ":455,"ῴ":456,"ῶ":457,"ῷ":458,"Ὼ":459,"ῼ":460,"​":461,"‌":462,"–":463,"—":464,"‘":465,"’":466,"“":467,"”":468,"†":469,"•":470,"‣":471,"…":472,"‬":473,"′":474,"›":475,"‾":476,"⁡":477,"⁨":478,"⁩":479,"⁰":480,"⁴":481,"⁵":482,"⁶":483,"⁷":484,"⁸":485,"⁹":486,"⁼":487,"ⁿ":488,"₀":489,"₁":490,"₂":491,"₉":492,"ₐ":493,"€":494,"ℓ":495,"ℹ":496,"←":497,"→":498,"↓":499,"↵":500,"⇽":501,"∀":502,"∃":503,"∈":504,"−":505,"√":506,"≈":507,"≠":508,"≤":509,"≥":510,"⊆":511,"⏎":512,"─":513,"│":514,"┃":515,"┆":516,"┌":517,"┐":518,"└":519,"┘":520,"├":521,"┝":522,"┤":523,"┬":524,"┴":525,"┼":526,"╌":527,"═":528,"║":529,"╞":530,"╡":531,"╪":532,"╫":533,"╭":534,"╮":535,"╯":536,"╰":537,"╴":538,"╵":539,"╶":540,"╷":541,"█":542,"░":543,"■":544,"▶":545,"◌":546,"●":547,"◻":548,"◼":549,"☃":550,"☐":551,"☑":552,"☹":553,"☺":554,"♠":555,"♣":556,"♥":557,"♦":558,"⚙":559,"⚡":560,"✓":561,"✔":562,"✖":563,"✗":564,"✦":565,"❌":566,"❤":567,"❯":568,"➜":569,"➥":570,"⟨":571,"⟩":572,"⟪":573,"⟫":574,"⤵":575,"い":576,"が":577,"こ":578,"し":579,"す":580,"た":581,"ち":582,"で":583,"と":584,"の":585,"は":586,"び":587,"ゃ":588,"る":589,"ん":590,"ウ":591,"ク":592,"グ":593,"ス":594,"ズ":595,"チ":596,"ッ":597,"テ":598,"ト":599,"ハ":600,"プ":601,"ボ":602,"マ":603,"ラ":604,"ル":605,"ロ":606,"ー":607,"㎒":608,"一":609,"七":610,"三":611,"世":612,"九":613,"二":614,"五":615,"优":616,"你":617,"保":618,"克":619,"八":620,"公":621,"六":622,"分":623,"别":624,"十":625,"号":626,"名":627,"哈":628,"嘻":629,"四":630,"好":631,"姓":632,"字":633,"小":634,"年":635,"德":636,"忠":637,"性":638,"態":639,"持":640,"数":641,"日":642,"未":643,"本":644,"殻":645,"漢":646,"犬":647,"状":648,"甲":649,"男":650,"界":651,"的":652,"知":653,"神":654,"秀":655,"秘":656,"符":657,"等":658,"级":659,"纪":660,"老":661,"自":662,"良":663,"虎":664,"語":665,"車":666,"転":667,"里":668,"鋨":669,"錆":670,"難":671,"類":672,"駨":673,"麒":674,"麟":675,"강":676,"동":677,"를":678,"쎩":679,"윤":680,"ﬀ":681,"ﬁ":682,"ﬂ":683,"ﬃ":684,"ﬄ":685,"ﬅ":686,"ﬆ":687,"ﬓ":688,"ﬔ":689,"ﬕ":690,"ﬖ":691,"ﬗ":692,"️":693,"﻿":694,"！":695,"：":696,"｢":697,"｣":698,"�":699,"in":700,"er":701,"st":702,"gt":703,"lt":704,"le":705,"or":706,"mp":707,"at":708,"on":709,"re":710,"se":711,"ut":712,"amp":713,"it":714,"en":715,"ar":716,"ct":717,"al":718,"let":719,"an":720,"ot":721,"me":722,"de":723,"tr":724,"th":725,"ing":726,"un":727,"ro":728,"fn":729,"str":730,"mut":731,"int":732,"ma":733,"ion":734,"es":735,"lf":736,"ne":737,"qu":738,"as":739,"ec":740,"li":741,"ch":742,"ed":743,"self":744,"co":745,"ex":746,"to":747,"ap":748,"lo":749,"ad":750,"et":751,"ce":752,"quot":753,"for":754,"00":755,"std":756,"is":757,"pe":758,"ent":759,"ust":760,"oo":761,"pr":762,"32":763,"ur":764,"fi":765,"new":766,"use":767,"ate":768,"ub":769,"Str":770,"iz":771,"ve":772,"us":773,"ror":774,"id":775,"con":776,"main":777,"imp":778,"rust":779,"uct":780,"ue":781,"print":782,"ter":783,"val":784,"um":785,"ty":786,"ame":787,"el":788,"ult":789,"ck":790,"the":791,"te":792,"il":793,"ser":794,"ize":795,"String":796,"res":797,"Vec":798,"and":799,"ab":800,"ln":801,"get":802,"pub":803,"struct":804,"println":805,"ome":806,"not":807,"ic":808,"impl":809,"rc":810,"one":811,"wr":812,"iter":813,"op":814,"rs":815,"ata":816,"bu":817,"ra":818,"if":819,"mat":820,"her":821,"type":822,"mo":823,"rom":824,"error":825,"64":826,"ge":827,"ox":828,"Er":829,"do":830,"In":831,"Re":832,"lib":833,"name":834,"pt":835,"ig":836,"read":837,"cl":838,"i32":839,"der":840,"wrap":841,"ke":842,"of":843,"ction":844,"ver":845,"src":846,"ator":847,"able":848,"unwrap":849,"data":850,"vec":851,"io":852,"Box":853,"arg":854,"value":855,"ure":856,"Res":857,"no":858,"la":859,"thrust":860,"tra":861,"put":862,"am":863,"ime":864,"from":865,"row":866,"string":867,"Some":868,"ctor":869,"lin":870,"yn":871,"end":872,"ption":873,"St":874,"map":875,"Error":876,"ation":877,"here":878,"ment":879,"10":880,"ite":881,"ol":882,"out":883,"ial":884,"ret":885,"be":886,"test":887,"ile":888,"foo":889,"match":890,"vi":891,"Con":892,"ht":893,"up":894,"all":895,"u8":896,"fa":897,"sa":898,"pa":899,"ore":900,"0000":901,"ref":902,"po":903,"stat":904,"ta":905,"ith":906,"Result":907,"pro":908,"col":909,"Se":910,"urn":911,"par":912,"Foo":913,"trait":914,"Option":915,"Iter":916,"cr":917,"ath":918,"file":919,"ive":920,"ul":921,"ash":922,"num":923,"orrow":924,"by":925,"De":926,"oun":927,"return":928,"per":929,"ext":930,"ort":931,"borrow":932,"di":933,"static":934,"usize":935,"cur":936,"vice":937,"Self":938,"est":939,"fe":940,"sert":941,"fun":942,"len":943,"wn":944,"my":945,"sion":946,"12":947,"key":948,"wor":949,"xt":950,"set":951,"ound":952,"ild":953,"ream":954,"ind":955,"art":956,"Co":957,"pect":958,"My":959,"od":960,"add":961,"so":962,"ff":963,"u32":964,"Ok":965,"im":966,"with":967,"ren":968,"Map":969,"result":970,"com":971,"Iterator":972,"lement":973,"Hash":974,"expect":975,"None":976,"tp":977,"const":978,"tern":979,"ool":980,"bug":981,"note":982,"sh":983,"can":984,"E0":985,"dex":986,"ity":987,"ase":988,"ack":989,"unt":990,"20":991,"size":992,"colle":993,"char":994,"ush":995,"move":996,"No":997,"16":998,"Fn":999,"he":1000,"line":1001,"text":1002,"argo":1003,"ces":1004,"path":1005,"je":1006,"ude":1007,"loc":1008,"thread":1009,"son":1010,"into":1011,"ip":1012,"ync":1013,"push":1014,"wh":1015,"red":1016,"extern":1017,"ray":1018,"some":1019,"next":1020,"crate":1021,"ss":1022,"ject":1023,"ptr":1024,"where":1025,"pla":1026,"Bu":1027,"hel":1028,"this":1029,"device":1030,"ly":1031,"tem":1032,"comp":1033,"Item":1034,"sp":1035,"arget":1036,"ist":1037,"ass":1038,"vector":1039,"try":1040,"requ":1041,"clone":1042,"Ty":1043,"lock":1044,"fault":1045,"em":1046,"gin":1047,"lient":1048,"index":1049,"Node":1050,"Type":1051,"incl":1052,"derive":1053,"Mut":1054,"app":1055,"fut":1056,"ight":1057,"Ref":1058,"rent":1059,"lic":1060,"cargo":1061,"0x":1062,"bar":1063,"time":1064,"ialize":1065,"input":1066,"ac":1067,"f64":1068,"ok":1069,"found":1070,"11":1071,"include":1072,"ix":1073,"ho":1074,"Val":1075,"target":1076,"loat":1077,"code":1078,"wa":1079,"ms":1080,"Read":1081,"av":1082,"Ex":1083,"tok":1084,"dyn":1085,"cro":1086,"ber":1087,"ger":1088,"we":1089,"cre":1090,"node":1091,"function":1092,"cess":1093,"list":1094,"pan":1095,"Data":1096,"cket":1097,"lice":1098,"ob":1099,"Th":1100,"else":1101,"http":1102,"mod":1103,"bool":1104,"Err":1105,"pre":1106,"call":1107,"run":1108,"count":1109,"Struct":1110,"ach":1111,"vo":1112,"Tra":1113,"enum":1114,"tes":1115,"Debug":1116,"macro":1117,"Ser":1118,"safe":1119,"expected":1120,"collect":1121,"mt":1122,"var":1123,"19":1124,"ell":1125,"86":1126,"da":1127,"hand":1128,"En":1129,"build":1130,"true":1131,"ert":1132,"thing":1133,"13":1134,"win":1135,"ned":1136,"File":1137,"vent":1138,"Po":1139,"Out":1140,"ener":1141,"float":1142,"fin":1143,"pon":1144,"stream":1145,"ures":1146,"pp":1147,"ary":1148,"ample":1149,"cannot":1150,"rst":1151,"Trait":1152,"assert":1153,"14":1154,"iv":1155,"point":1156,"core":1157,"slice":1158,"dd":1159,"Pro":1160,"ll":1161,"ang":1162,"Un":1163,"ant":1164,"15":1165,"ree":1166,"cu":1167,"Cl":1168,"sage":1169,"18":1170,"ans":1171,"Rc":1172,"ence":1173,"serde":1174,"bytes":1175,"Stream":1176,"unsafe":1177,"fet":1178,"From":1179,"implement":1180,"py":1181,"Cell":1182,"back":1183,"dow":1184,"insert":1185,"mem":1186,"act":1187,"start":1188,"ava":1189,"25":1190,"other":1191,"yst":1192,"Value":1193,"begin":1194,"fmt":1195,"17":1196,"spa":1197,"oc":1198,"ign":1199,"array":1200,"iterator":1201,"ull":1202,"30":1203,"err":1204,"ized":1205,"user":1206,"opt":1207,"ffer":1208,"first":1209,"mutable":1210,"27":1211,"ib":1212,"ER":1213,"age":1214,"ifi":1215,"om":1216,"play":1217,"Wr":1218,"low":1219,"Ch":1220,"void":1221,"──":1222,"ues":1223,"Ar":1224,"Arc":1225,"ong":1226,"Add":1227,"fig":1228,"Bar":1229,"bin":1230,"json":1231,"clo":1232,"item":1233,"ponse":1234,"eld":1235,"requi":1236,"ystem":1237,"ule":1238,"tent":1239,"ner":1240,"thod":1241,"typ":1242,"sen":1243,"unk":1244,"our":1245,"parse":1246,"dep":1247,"ld":1248,"lifet":1249,"lifetime":1250,"ker":1251,"ain":1252,"raw":1253,"List":1254,"format":1255,"Output":1256,"ST":1257,"default":1258,"50":1259,"ci":1260,"ml":1261,"number":1262,"buf":1263,"f32":1264,"User":1265,"write":1266,"host":1267,"ey":1268,"state":1269,"eq":1270,"Cop":1271,"sure":1272,"Or":1273,"rustc":1274,"ard":1275,"java":1276,"alse":1277,"borrowed":1278,"lter":1279,"nown":1280,"ange":1281,"Copy":1282,"Clone":1283,"Comp":1284,"init":1285,"ody":1286,"ow":1287,"ler":1288,"IN":1289,"Id":1290,"does":1291,"Key":1292,"hello":1293,"mis":1294,"open":1295,"min":1296,"erence":1297,"cuda":1298,"x86":1299,"23":1300,"Into":1301,"Path":1302,"false":1303,"24":1304,"temp":1305,"word":1306,"ca":1307,"work":1308,"000":1309,"version":1310,"current":1311,"u64":1312,"00000000":1313,"Set":1314,"tokio":1315,"ition":1316,"ou":1317,"args":1318,"handle":1319,"Fut":1320,"80":1321,"client":1322,"Fa":1323,"sum":1324,"box":1325,"pos":1326,"Buf":1327,"ef":1328,"nection":1329,"make":1330,"tain":1331,"valid":1332,"ux":1333,"ader":1334,"Eq":1335,"As":1336,"ssl":1337,"db":1338,"ated":1339,"An":1340,"fo":1341,"mand":1342,"are":1343,"ys":1344,"ha":1345,"content":1346,"ir":1347,"field":1348,"reg":1349,"99":1350,"eck":1351,"output":1352,"wait":1353,"Ob":1354,"method":1355,"App":1356,"ause":1357,"Des":1358,"Future":1359,"async":1360,"window":1361,"rand":1362,"42":1363,"alloc":1364,"create":1365,"child":1366,"ute":1367,"types":1368,"trans":1369,"feat":1370,"iled":1371,"SS":1372,"panic":1373,"example":1374,"v0":1375,"futures":1376,"exp":1377,"trust":1378,"buffer":1379,"ord":1380,"ctory":1381,"mes":1382,"long":1383,"roid":1384,"form":1385,"lit":1386,"that":1387,"uld":1388,"while":1389,"closure":1390,"defin":1391,"ops":1392,"ance":1393,"load":1394,"ew":1395,"ctions":1396,"null":1397,"mov":1398,"spawn":1399,"debug":1400,"AT":1401,"Part":1402,"quest":1403,"log":1404,"Test":1405,"Context":1406,"Point":1407,"ific":1408,"Client":1409,"ng":1410,"bec":1411,"web":1412,"func":1413,"max":1414,"inst":1415,"android":1416,"ana":1417,"loop":1418,"State":1419,"Mutex":1420,"mage":1421,"su":1422,"ded":1423,"sub":1424,"curs":1425,"net":1426,"because":1427,"filter":1428,"gn":1429,"AR":1430,"Hand":1431,"Tr":1432,"Par":1433,"cp":1434,"values":1435,"ep":1436,"To":1437,"body":1438,"lat":1439,"Do":1440,"cap":1441,"future":1442,"server":1443,"env":1444,"uple":1445,"Lo":1446,"block":1447,"linux":1448,"i64":1449,"Tok":1450,"34":1451,"tail":1452,"22":1453,"ft":1454,"System":1455,"reference":1456,"help":1457,"isplay":1458,"ument":1459,"Request":1460,"rop":1461,"RE":1462,"cc":1463,"ak":1464,"Sized":1465,"sort":1466,"nel":1467,"Partial":1468,"find":1469,"Token":1470,"Event":1471,"ON":1472,"inner":1473,"process":1474,"ameter":1475,"anager":1476,"Ht":1477,"gl":1478,"but":1479,"Name":1480,"class":1481,"element":1482,"Deser":1483,"vert":1484,"check":1485,"local":1486,"cf":1487,"dir":1488,"hash":1489,"split":1490,"date":1491,"anon":1492,"So":1493,"ick":1494,"Send":1495,"ery":1496,"https":1497,"sco":1498,"message":1499,"ide":1500,"was":1501,"Hel":1502,"object":1503,"ilder":1504,"LE":1505,"config":1506,"inter":1507,"Default":1508,"required":1509,"Per":1510,"gth":1511,"gr":1512,"Response":1513,"left":1514,"right":1515,"cond":1516,"aut":1517,"uration":1518,"something":1519,"fs":1520,"For":1521,"request":1522,"ask":1523,"ident":1524,"Store":1525,"40":1526,"Reader":1527,"Object":1528,"28":1529,"unknown":1530,"tmp":1531,"copy":1532,"Array":1533,"Http":1534,"bound":1535,"arch":1536,"req":1537,"last":1538,"part":1539,"gener":1540,"21":1541,"collections":1542,"any":1543,"33":1544,"reader":1545,"Trust":1546,"Mes":1547,"root":1548,"ception":1549,"home":1550,"vari":1551,"Socket":1552,"oin":1553,"implemented":1554,"tool":1555,"Tree":1556,"OR":1557,"public":1558,"token":1559,"has":1560,"url":1561,"await":1562,"ates":1563,"100":1564,"bind":1565,"option":1566,"Cert":1567,"mar":1568,"take":1569,"gen":1570,"ory":1571,"aph":1572,"ill":1573,"uble":1574,"SSL":1575,"live":1576,"dev":1577,"chain":1578,"wo":1579,"Com":1580,"ules":1581,"Hello":1582,"world":1583,"war":1584,"lines":1585,"tom":1586,"old":1587,"26":1588,"Deserialize":1589,"port":1590,"used":1591,"ql":1592,"gra":1593,"org":1594,"exec":1595,"ache":1596,"lease":1597,"then":1598,"Mat":1599,"ning":1600,"├──":1601,"Ve":1602,"sys":1603,"Time":1604,"Manager":1605,"event":1606,"ies":1607,"ron":1608,"az":1609,"idx":1610,"rix":1611,"scope":1612,"depend":1613,"On":1614,"cs":1615,"bo":1616,"sync":1617,"parameter":1618,"Int":1619,"send":1620,"gh":1621,"prev":1622,"cal":1623,"Message":1624,"entry":1625,"ider":1626,"56":1627,"38":1628,"que":1629,"wid":1630,"occurs":1631,"contain":1632,"arr":1633,"The":1634,"cri":1635,"We":1636,"af":1637,"chars":1638,"feature":1639,"Lin":1640,"store":1641,"link":1642,"Vector":1643,"ay":1644,"Connection":1645,"Exception":1646,"Factory":1647,"rec":1648,"cout":1649,"pack":1650,"os":1651,"cfg":1652,"Get":1653,"55":1654,"stdin":1655,"v1":1656,"expr":1657,"dependen":1658,"Index":1659,"EN":1660,"its":1661,"oper":1662,"igned":1663,"lang":1664,"gs":1665,"hy":1666,"failed":1667,"Fi":1668,"Rec":1669,"rules":1670,"tuple":1671,"info":1672,"usr":1673,"cat":1674,"sed":1675,"more":1676,"Al":1677,"table":1678,"02":1679,"35":1680,"length":1681,"Users":1682,"Pr":1683,"ource":1684,"def":1685,"sha":1686,"istr":1687,"serialize":1688,"emp":1689,"now":1690,"uint":1691,"37":1692,"29":1693,"tx":1694,"DE":1695,"zip":1696,"double":1697,"ress":1698,"pointer":1699,"Sec":1700,"nect":1701,"ify":1702,"libc":1703,"ph":1704,"import":1705,"This":1706,"owned":1707,"ag":1708,"each":1709,"place":1710,"cast":1711,"Imp":1712,"Mo":1713,"defined":1714,"Win":1715,"second":1716,"MA":1717,"obj":1718,"Not":1719,"join":1720,"Num":1721,"ww":1722,"socket":1723,"SI":1724,"parent":1725,"Write":1726,"gnu":1727,"ithub":1728,"ificate":1729,"Server":1730,"cies":1731,"github":1732,"cert":1733,"sup":1734,"36":1735,"sc":1736,"marker":1737,"keys":1738,"E027":1739,"cell":1740,"rt":1741,"pi":1742,"response":1743,"dependencies":1744,"ich":1745,"annel":1746,"ices":1747,"ious":1748,"perty":1749,"mismatch":1750,"task":1751,"Builder":1752,"gram":1753,"release":1754,"Inst":1755,"IT":1756,"AL":1757,"44":1758,"Der":1759,"lay":1760,"convert":1761,"ough":1762,"Command":1763,"Config":1764,"pl":1765,"width":1766,"range":1767,"ws":1768,"windows":1769,"ustom":1770,"header":1771,"SE":1772,"base":1773,"query":1774,"Serialize":1775,"bre":1776,"case":1777,"scri":1778,"Display":1779,"Col":1780,"hyper":1781,"addr":1782,"post":1783,"rame":1784,"Cre":1785,"signed":1786,"ook":1787,"cmp":1788,"must":1789,"u16":1790,"context":1791,"late":1792,"boxed":1793,"gro":1794,"31":1795,"msg":1796,"due":1797,"oll":1798,"gu":1799,"image":1800,"sour":1801,"enough":1802,"AC":1803,"items":1804,"detail":1805,"drop":1806,"ments":1807,"Ph":1808,"pass":1809,"Once":1810,"ializ":1811,"48":1812,"59":1813,"which":1814,"39":1815,"led":1816,"tt":1817,"uff":1818,"ccess":1819,"istry":1820,"rustup":1821,"By":1822,"off":1823,"stack":1824,"trace":1825,"ME":1826,"previous":1827,"ls":1828,"connect":1829,"angle":1830,"source":1831,"pat":1832,"wasm":1833,"sel":1834,"E0277":1835,"Input":1836,"iver":1837,"only":1838,"toml":1839,"auth":1840,"ther":1841,"ID":1842,"pc":1843,"f8":1844,"command":1845,"compile":1846,"system":1847,"byte":1848,"using":1849,"08":1850,"fer":1851,"doc":1852,"Tcp":1853,"die":1854,"api":1855,"ations":1856,"sing":1857,"49":1858,"Cargo":1859,"stable":1860,"hs":1861,"transform":1862,"Duration":1863,"rng":1864,"ender":1865,"break":1866,"remove":1867,"trib":1868,"update":1869,"308":1870,"diesel":1871,"lem":1872,"vis":1873,"conn":1874,"variable":1875,"Enum":1876,"RO":1877,"Thing":1878,"Wrap":1879,"mb":1880,"md":1881,"exit":1882,"deps":1883,"rlib":1884,"Ord":1885,"endl":1886,"RU":1887,"Reg":1888,"ers":1889,"Wor":1890,"param":1891,"head":1892,"sql":1893,"mon":1894,"lob":1895,"Any":1896,"orig":1897,"ero":1898,"lication":1899,"sw":1900,"01":1901,"Window":1902,"46":1903,"UR":1904,"over":1905,"Certificate":1906,"Ext":1907,"Rust":1908,"known":1909,"status":1910,"immutable":1911,"rary":1912,"untime":1913,"connection":1914,"E0308":1915,"pop":1916,"ression":1917,"have":1918,"onent":1919,"handler":1920,"ek":1921,"chunk":1922,"vel":1923,"sat":1924,"Handler":1925,"Deref":1926,"fix":1927,"callback":1928,"mismatched":1929,"oto":1930,"view":1931,"Me":1932,"i8":1933,"antom":1934,"Order":1935,"channel":1936,"height":1937,"Gr":1938,"secur":1939,"78":1940,"ema":1941,"security":1942,"coun":1943,"bit":1944,"actix":1945,"Matrix":1946,"He":1947,"you":1948,"xx":1949,"LO":1950,"Di":1951,"lex":1952,"ics":1953,"Qu":1954,"fied":1955,"git":1956,"Fun":1957,"rect":1958,"two":1959,"lect":1960,"Buffer":1961,"Sync":1962,"abort":1963,"flat":1964,"mission":1965,"panick":1966,"ast":1967,"pool":1968,"ench":1969,"inte":1970,"operator":1971,"Mem":1972,"Op":1973,"FI":1974,"ivate":1975,"space":1976,"package":1977,"imal":1978,"registry":1979,"Impl":1980,"sign":1981,"Ho":1982,"cy":1983,"CO":1984,"aa":1985,"down":1986,"unsigned":1987,"TH":1988,"order":1989,"200":1990,"spec":1991,"stdout":1992,"module":1993,"satis":1994,"ally":1995,"mode":1996,"graph":1997,"position":1998,"fla":1999,"replace":2000,"Thread":2001,"require":2002,"Create":2003,"DI":2004,"cle":2005,"Element":2006,"util":2007,"may":2008,"Device":2009,"Image":2010,"509":2011,"45":2012,"rows":2013,"47":2014,"dif":2015,"Compil":2016,"sho":2017,"empty":2018,"nal":2019,"need":2020,"Sub":2021,"UL":2022,"0000000000000000":2023,"Sh":2024,"cache":2025,"Stat":2026,"offset":2027,"will":2028,"und":2029,"Person":2030,"origin":2031,"Wrapper":2032,"Info":2033,"moved":2034,"90":2035,"Entry":2036,"xm":2037,"contains":2038,"counter":2039,"Contain":2040,"umn":2041,"Base":2042,"AD":2043,"256":2044,"Phantom":2045,"ializer":2046,"sk":2047,"allow":2048,"cb":2049,"62":2050,"trol":2051,"prod":2052,"stuff":2053,"uni":2054,"tag":2055,"Ver":2056,"rustlib":2057,"Pa":2058,"backtrace":2059,"acc":2060,"66":2061,"Char":2062,"acity":2063,"Dec":2064,"top":2065,"proc":2066,"toolchain":2067,"LA":2068,"Var":2069,"03":2070,"88":2071,"html":2072,"gest":2073,"children":2074,"ZE":2075,"urity":2076,"project":2077,"orm":2078,"fail":2079,"Run":2080,"ie":2081,"Web":2082,"dat":2083,"step":2084,"cept":2085,"printf":2086,"Service":2087,"Security":2088,"Host":2089,"satisfied":2090,"sun":2091,"Borrow":2092,"108":2093,"rx":2094,"integer":2095,"Coun":2096,"filename":2097,"features":2098,"resol":2099,"capacity":2100,"ped":2101,"argument":2102,"mult":2103,"v2":2104,"expan":2105,"Ordering":2106,"mit":2107,"sizeof":2108,"Gener":2109,"ins":2110,"vider":2111,"sec":2112,"syn":2113,"once":2114,"tests":2115,"At":2116,"PI":2117,"uce":2118,"ings":2119,"pin":2120,"└──":2121,"ish":2122,"ses":2123,"ax":2124,"cons":2125,"sch":2126,"idd":2127,"57":2128,"ffi":2129,"Inter":2130,"sin":2131,"dis":2132,"fold":2133,"binary":2134,"Size":2135,"orage":2136,"Code":2137,"ible":2138,"Vi":2139,"rece":2140,"utf8":2141,"chron":2142,"Drop":2143,"Text":2144,"aborting":2145,"X509":2146,"ud":2147,"ote":2148,"property":2149,"bb":2150,"Addr":2151,"View":2152,"Graph":2153,"Call":2154,"Date":2155,"private":2156,"77":2157,"bench":2158,"leep":2159,"lete":2160,"58":2161,"TE":2162,"tree":2163,"search":2164,"Handle":2165,"ightly":2166,"should":2167,"Float":2168,"licy":2169,"aw":2170,"lude":2171,"ative":2172,"Link":2173,"prelude":2174,"Compiling":2175,"Container":2176,"arm":2177,"display":2178,"named":2179,"fd":2180,"128":2181,"Sp":2182,"AB":2183,"Aut":2184,"uid":2185,"warning":2186,"install":2187,"ors":2188,"internal":2189,"Big":2190,"fol":2191,"calc":2192,"after":2193,"SH":2194,"04":2195,"glob":2196,"template":2197,"Log":2198,"AN":2199,"ixel":2200,"SIZE":2201,"address":2202,"service":2203,"UT":2204,"dist":2205,"Lock":2206,"deref":2207,"FF":2208,"1000":2209,"execute":2210,"sleep":2211,"Body":2212,"tin":2213,"abc":2214,"Range":2215,"cli":2216,"cod":2217,"face":2218,"wer":2219,"cpy":2220,"ropp":2221,"Mode":2222,"ution":2223,"gcc":2224,"expansion":2225,"ET":2226,"txt":2227,"Method":2228,"requirements":2229,"sl":2230,"Instance":2231,"go":2232,"js":2233,"shared":2234,"vc":2235,"Json":2236,"nd":2237,"Le":2238,"ake":2239,"Try":2240,"javax":2241,"Format":2242,"cmd":2243,"trim":2244,"fore":2245,"67":2246,"60":2247,"color":2248,"indices":2249,"s1":2250,"127":2251,"Act":2252,"Kind":2253,"Has":2254,"ormal":2255,"2019":2256,"span":2257,"column":2258,"change":2259,"sm":2260,"apple":2261,"toolchains":2262,"E050":2263,"Loc":2264,"poll":2265,"assign":2266,"non":2267,"qual":2268,"UN":2269,"zy":2270,"generate":2271,"LI":2272,"group":2273,"ven":2274,"contents":2275,"layer":2276,"your":2277,"ension":2278,"conf":2279,"41":2280,"43":2281,"abase":2282,"123":2283,"elements":2284,"zero":2285,"cry":2286,"append":2287,"Auth":2288,"nightly":2289,"ual":2290,"uess":2291,"baz":2292,"random":2293,"xs":2294,"extend":2295,"password":2296,"PAT":2297,"man":2298,"refer":2299,"files":2300,"game":2301,"ivity":2302,"consider":2303,"TI":2304,"action":2305,"super":2306,"wned":2307,"ature":2308,"www":2309,"erate":2310,"numbers":2311,"TT":2312,"runtime":2313,"Rng":2314,"Source":2315,"cd":2316,"custom":2317,"prime":2318,"Example":2319,"One":2320,"matrix":2321,"capt":2322,"sequ":2323,"itle":2324,"none":2325,"traits":2326,"memory":2327,"Ptr":2328,"abi":2329,"pair":2330,"imer":2331,"how":2332,"mpsc":2333,"10880":2334,"frame":2335,"lazy":2336,"Number":2337,"ee":2338,"Rece":2339,"97":2340,"Ro":2341,"imple":2342,"ice":2343,"lab":2344,"elem":2345,"otal":2346,"Status":2347,"dr":2348,"define":2349,"05":2350,"select":2351,"reduce":2352,"recv":2353,"2d":2354,"compil":2355,"ifier":2356,"initial":2357,"instance":2358,"ton":2359,"igh":2360,"CH":2361,"Custom":2362,"variant":2363,"Game":2364,"World":2365,"Owned":2366,"script":2367,"tribute":2368,"ved":2369,"oned":2370,"iddle":2371,"Target":2372,"les":2373,"points":2374,"ropped":2375,"threads":2376,"player":2377,"record":2378,"ape":2379,"follow":2380,"Cow":2381,"enc":2382,"works":2383,"Idx":2384,"000000":2385,"rb":2386,"builder":2387,"Pos":2388,"With":2389,"bet":2390,"pu":2391,"isize":2392,"ware":2393,"expression":2394,"amic":2395,"nodes":2396,"Child":2397,"Async":2398,"SA":2399,"br":2400,"transmut":2401,"98":2402,"sender":2403,"ctx":2404,"tract":2405,"NO":2406,"ges":2407,"decl":2408,"54":2409,"own":2410,"xmm":2411,"errors":2412,"BU":2413,"Cur":2414,"End":2415,"Pool":2416,"dar":2417,"big":2418,"tools":2419,"sn":2420,"unch":2421,"listener":2422,"final":2423,"doesn":2424,"RUST":2425,"URL":2426,"rhs":2427,"ARG":2428,"queue":2429,"dire":2430,"ister":2431,"gre":2432,"libstd":2433,"Color":2434,"cor":2435,"transmute":2436,"ived":2437,"title":2438,"sample":2439,"openssl":2440,"Query":2441,"53":2442,"ugin":2443,"ateg":2444,"curl":2445,"f1":2446,"enumerate":2447,"52":2448,"Failed":2449,"than":2450,"Could":2451,"s2":2452,"Writer":2453,"Baz":2454,"sor":2455,"ename":2456,"cer":2457,"ns":2458,"xy":2459,"Frame":2460,"Init":2461,"Raw":2462,"stamp":2463,"older":2464,"Exp":2465,"06":2466,"parts":2467,"Open":2468,"OP":2469,"utes":2470,"CE":2471,"Bin":2472,"swap":2473,"Arg":2474,"KE":2475,"scan":2476,"dropped":2477,"E04":2478,"application":2479,"itor":2480,"also":2481,"users":2482,"Be":2483,"Record":2484,"96":2485,"warp":2486,"PATH":2487,"Sender":2488,"auto":2489,"support":2490,"Listener":2491,"ks":2492,"1234":2493,"parser":2494,"darwin":2495,"Version":2496,"Pin":2497,"sent":2498,"And":2499,"pattern":2500,"ummy":2501,"inline":2502,"rea":2503,"program":2504,"7f":2505,"gres":2506,"outer":2507,"implementation":2508,"deserialize":2509,"names":2510,"Vari":2511,"CU":2512,"ites":2513,"Function":2514,"skip":2515,"gle":2516,"abs":2517,"formation":2518,"regex":2519,"exist":2520,"writer":2521,"Control":2522,"following":2523,"Ret":2524,"component":2525,"params":2526,"ating":2527,"Filter":2528,"global":2529,"BB":2530,"mer":2531,"access":2532,"guess":2533,"product":2534,"Ur":2535,"fill":2536,"cloned":2537,"CT":2538,"Rw":2539,"dig":2540,"Parse":2541,"kind":2542,"typedef":2543,"Can":2544,"common":2545,"Class":2546,"typename":2547,"lan":2548,"repr":2549,"Ac":2550,"guard":2551,"Su":2552,"Unknown":2553,"ry":2554,"west":2555,"panicking":2556,"XX":2557,"words":2558,"cx":2559,"same":2560,"rustum":2561,"Program":2562,"diff":2563,"ten":2564,"vals":2565,"Content":2566,"results":2567,"xml":2568,"bindgen":2569,"51":2570,"person":2571,"chrono":2572,"cols":2573,"macros":2574,"Formatter":2575,"consu":2576,"render":2577,"Sign":2578,"sequence":2579,"sole":2580,"total":2581,"dl":2582,"exe":2583,"label":2584,"Player":2585,"flow":2586,"ends":2587,"pace":2588,"vm":2589,"ansa":2590,"Inner":2591,"headers":2592,"76":2593,"repe":2594,"reqwest":2595,"Other":2596,"t1":2597,"could":2598,"board":2599,"ULL":2600,"draw":2601,"ilt":2602,"mangle":2603,"Bytes":2604,"Vis":2605,"wind":2606,"rev":2607,"see":2608,"Action":2609,"returns":2610,"FO":2611,"itive":2612,"tax":2613,"leg":2614,"soci":2615,"ink":2616,"Ut":2617,"Ident":2618,"gor":2619,"until":2620,"Lib":2621,"Pass":2622,"bot":2623,"library":2624,"Count":2625,"HE":2626,"TR":2627,"adata":2628,"gorith":2629,"Slice":2630,"peek":2631,"DO":2632,"TO":2633,"scription":2634,"goo":2635,"Parser":2636,"ali":2637,"another":2638,"coord":2639,"twa":2640,"matches":2641,"called":2642,"ZN":2643,"Activity":2644,"Tuple":2645,"Valid":2646,"infer":2647,"free":2648,"proto":2649,"ground":2650,"70":2651,"encode":2652,"FLA":2653,"Up":2654,"seg":2655,"Doc":2656,"Property":2657,"Permission":2658,"want":2659,"ready":2660,"Clo":2661,"just":2662,"Mul":2663,"gine":2664,"Header":2665,"tinue":2666,"NULL":2667,"strings":2668,"when":2669,"Param":2670,"Py":2671,"success":2672,"Memcpy":2673,"Ab":2674,"outlive":2675,"Process":2676,"Field":2677,"DA":2678,"Poll":2679,"ps":2680,"container":2681,"consume":2682,"Block":2683,"pk":2684,"Table":2685,"postgres":2686,"export":2687,"iddleware":2688,"compat":2689,"tokens":2690,"Variant":2691,"ES":2692,"pear":2693,"fl":2694,"Stack":2695,"Atom":2696,"tempor":2697,"multip":2698,"FLAG":2699,"book":2700,"clear":2701,"823":2702,"resh":2703,"section":2704,"p1":2705,"rocket":2706,"Down":2707,"Access":2708,"ba":2709,"what":2710,"61":2711,"site":2712,"show":2713,"Len":2714,"incre":2715,"Component":2716,"VER":2717,"stop":2718,"constant":2719,"db9":2720,"0f":2721,"sy":2722,"catch":2723,"gtk":2724,"decode":2725,"div":2726,"Of":2727,"crates":2728,"PU":2729,"ecc":2730,"fields":2731,"met":2732,"email":2733,"DIR":2734,"Line":2735,"temporary":2736,"ansaction":2737,"within":2738,"kernel":2739,"CON":2740,"built":2741,"Something":2742,"Ent":2743,"level":2744,"visit":2745,"factor":2746,"functor":2747,"plugin":2748,"Return":2749,"lower":2750,"pha":2751,"plain":2752,"fib":2753,"1ecc":2754,"msvc":2755,"Parent":2756,"about":2757,"close":2758,"maybe":2759,"Gu":2760,"bla":2761,"location":2762,"db9ec":2763,"09":2764,"99db9ec":2765,"6299db9ec":2766,"1ecc6299db9ec":2767,"1ecc6299db9ec823":2768,"pixel":2769,"Dim":2770,"New":2771,"Std":2772,"pay":2773,"malloc":2774,"ine":2775,"gorithm":2776,"f2":2777,"anch":2778,"information":2779,"Provider":2780,"document":2781,"07":2782,"FA":2783,"counting":2784,"normal":2785,"like":2786,"PO":2787,"done":2788,"squ":2789,"bounds":2790,"Render":2791,"lon":2792,"still":2793,"dest":2794,"Application":2795,"MAX":2796,"bits":2797,"align":2798,"schema":2799,"capture":2800,"side":2801,"Policy":2802,"missing":2803,"localhost":2804,"65":2805,"Os":2806,"Wh":2807,"curr":2808,"storage":2809,"img":2810,"calcul":2811,"lection":2812,"Core":2813,"invalid":2814,"seq":2815,"compiler":2816,"Row":2817,"US":2818,"rcle":2819,"aml":2820,"permission":2821,"Animal":2822,"Ip":2823,"boo":2824,"ility":2825,"dy":2826,"invo":2827,"2018":2828,"ERR":2829,"rad":2830,"attr":2831,"GL":2832,"Ter":2833,"INT":2834,"c1":2835,"resource":2836,"sociated":2837,"PRO":2838,"timer":2839,"Inte":2840,"ru":2841,"licit":2842,"panicked":2843,"Level":2844,"mil":2845,"etc":2846,"Fin":2847,"df":2848,"packet":2849,"generic":2850,"tings":2851,"csv":2852,"unused":2853,"ipher":2854,"Args":2855,"FILE":2856,"very":2857,"model":2858,"continue":2859,"dim":2860,"Binary":2861,"74":2862,"patch":2863,"prob":2864,"AP":2865,"alt":2866,"thon":2867,"Start":2868,"Alloc":2869,"Local":2870,"Receiver":2871,"lar":2872,"X509Certificate":2873,"68":2874,"May":2875,"p2":2876,"semb":2877,"cting":2878,"keystore":2879,"Entity":2880,"ts":2881,"real":2882,"ither":2883,"there":2884,"apache":2885,"1024":2886,"E059":2887,"ump":2888,"unimplemented":2889,"Atomic":2890,"Emp":2891,"lean":2892,"Cons":2893,"running":2894,"before":2895,"Document":2896,"63":2897,"receiver":2898,"directory":2899,"HO":2900,"aded":2901,"quote":2902,"Check":2903,"flags":2904,"ared":2905,"lis":2906,"coder":2907,"rsp":2908,"flag":2909,"Pack":2910,"hf":2911,"iate":2912,"appear":2913,"Guard":2914,"75":2915,"ities":2916,"Lay":2917,"cam":2918,"Regex":2919,"itespace":2920,"CK":2921,"Mod":2922,"Join":2923,"mid":2924,"upper":2925,"Net":2926,"ise":2927,"Rand":2928,"Trusted":2929,"ENT":2930,"ward":2931,"ster":2932,"nector":2933,"CC":2934,"ful":2935,"finish":2936,"atch":2937,"prefix":2938,"LS":2939,"explain":2940,"mbol":2941,"Instant":2942,"101":2943,"bra":2944,"verse":2945,"compute":2946,"username":2947,"created":2948,"Post":2949,"confli":2950,"Two":2951,"unwind":2952,"concat":2953,"ATE":2954,"IC":2955,"Non":2956,"aive":2957,"description":2958,"Exec":2959,"owner":2960,"Length":2961,"Wl":2962,"repeat":2963,"accept":2964,"cub":2965,"loaded":2966,"ING":2967,"72":2968,"ession":2969,"creen":2970,"mount":2971,"Obj":2972,"Integer":2973,"But":2974,"rest":2975,"apsed":2976,"Invalid":2977,"Expr":2978,"Ad":2979,"Sha":2980,"appro":2981,"payload":2982,"role":2983,"Ne":2984,"even":2985,"t2":2986,"ess":2987,"execut":2988,"Task":2989,"ffff":2990,"checked":2991,"Print":2992,"Runtime":2993,"Vert":2994,"Fla":2995,"WS":2996,"short":2997,"apply":2998,"metadata":2999,"NA":3000,"hi":3001,"mus":3002,"native":3003,"pow":3004,"register":3005,"00000000000000000000000000000000":3006,"dst":3007,"dot":3008,"E05":3009,"enable":3010,"cii":3011,"coding":3012,"LIB":3013,"Found":3014,"RA":3015,"ted":3016,"secs":3017,"ical":3018,"wrapper":3019,"nums":3020,"serializer":3021,"69":3022,"Trans":3023,"later":3024,"dec":3025,"loy":3026,"resp":3027,"Complex":3028,"Password":3029,"Dir":3030,"EX":3031,"Expression":3032,"edge":3033,"acter":3034,"asic":3035,"nv":3036,"CUDA":3037,"ene":3038,"ential":3039,"v4":3040,"namespace":3041,"Library":3042,"digit":3043,"hal":3044,"ategory":3045,"Ed":3046,"conflicting":3047,"0x0000":3048,"hex":3049,"ves":3050,"ources":3051,"0b":3052,"Gro":3053,"Options":3054,"Dyn":3055,"255":3056,"Ci":3057,"Dat":3058,"ERROR":3059,"card":3060,"full":3061,"alpha":3062,"Io":3063,"nth":3064,"echo":3065,"equal":3066,"unit":3067,"FLAGS":3068,"rax":3069,"Project":3070,"IO":3071,"Session":3072,"provider":3073,"Dire":3074,"Chars":3075,"Position":3076,"DB":3077,"Chain":3078,"SHA":3079,"Sql":3080,"HTT":3081,"Js":3082,"eprintln":3083,"unique":3084,"NS":3085,"PK":3086,"gts":3087,"ences":3088,"atom":3089,"things":3090,"ACK":3091,"HTTP":3092,"associated":3093,"fetch":3094,"ification":3095,"Algorithm":3096,"Url":3097,"alias":3098,"Storage":3099,"Dis":3100,"10000":3101,"Frustum":3102,"limit":3103,"ids":3104,"Db":3105,"Oper":3106,"SC":3107,"enter":3108,"tls":3109,"Is":3110,"LBB":3111,"pred":3112,"stri":3113,"oop":3114,"Resource":3115,"whitespace":3116,"area":3117,"Null":3118,"don":3119,"hing":3120,"First":3121,"initialized":3122,"Cursor":3123,"RUN":3124,"Linked":3125,"79":3126,"nt":3127,"events":3128,"requires":3129,"ged":3130,"gpu":3131,"route":3132,"rcgu":3133,"cursor":3134,"PE":3135,"Sum":3136,"Bit":3137,"Rect":3138,"libs":3139,"optim":3140,"It":3141,"dt":3142,"tach":3143,"If":3144,"Files":3145,"objects":3146,"Over":3147,"ored":3148,"grid":3149,"686":3150,"Red":3151,"less":3152,"mutation":3153,"tak":3154,"Wid":3155,"without":3156,"ween":3157,"Parameter":3158,"database":3159,"session":3160,"crypt":3161,"a1":3162,"a2":3163,"coming":3164,"Zero":3165,"rdi":3166,"sq":3167,"Nil":3168,"uter":3169,"vide":3170,"member":3171,"8080":3172,"cpu":3173,"Prim":3174,"All":3175,"Back":3176,"ride":3177,"rem":3178,"etime":3179,"SO":3180,"Sort":3181,"ater":3182,"ely":3183,"helper":3184,"ndarray":3185,"millis":3186,"Group":3187,"eval":3188,"apt":3189,"stderr":3190,"counts":3191,"ead":3192,"timestamp":3193,"rbp":3194,"MB":3195,"ds":3196,"attribute":3197,"arc":3198,"ront":3199,"Simple":3200,"differ":3201,"92":3202,"IL":3203,"tid":3204,"increment":3205,"sembly":3206,"appears":3207,"Cache":3208,"ping":3209,"era":3210,"KEY":3211,"cation":3212,"v7":3213,"writ":3214,"oft":3215,"policy":3216,"ship":3217,"dynamic":3218,"options":3219,"Term":3220,"rain":3221,"save":3222,"again":3223,"chunks":3224,"Layout":3225,"WOR":3226,"ions":3227,"iostream":3228,"between":3229,"Random":3230,"95":3231,"ming":3232,"Address":3233,"Pe":3234,"pes":3235,"rel":3236,"termin":3237,"ighb":3238,"Pub":3239,"look":3240,"active":3241,"resolve":3242,"Database":3243,"chang":3244,"ced":3245,"eb":3246,"Dog":3247,"uuid":3248,"VAL":3249,"heap":3250,"llvm":3251,"parameters":3252,"Met":3253,"dk":3254,"musl":3255,"console":3256,"symbol":3257,"control":3258,"serial":3259,"mous":3260,"setup":3261,"playground":3262,"pto":3263,"vas":3264,"ymous":3265,"mail":3266,"prints":3267,"c8":3268,"undefined":3269,"ternal":3270,"day":3271,"exists":3272,"overflow":3273,"Maybe":3274,"ens":3275,"entity":3276,"nom":3277,"Load":3278,"manager":3279,"priate":3280,"uri":3281,"abihf":3282,"intent":3283,"cross":3284,"would":3285,"Match":3286,"Running":3287,"appropriate":3288,"Boo":3289,"i686":3290,"libcore":3291,"direct":3292,"explicit":3293,"binding":3294,"operation":3295,"Windows":3296,"Deco":3297,"eric":3298,"Empty":3299,"jar":3300,"ization":3301,"docs":3302,"inc":3303,"construct":3304,"launch":3305,"arguments":3306,"Callback":3307,"85":3308,"inate":3309,"got":3310,"Shape":3311,"flush":3312,"eded":3313,"mul":3314,"ifest":3315,"syntax":3316,"wd":3317,"instead":3318,"Mult":3319,"PR":3320,"ire":3321,"job":3322,"ways":3323,"Generic":3324,"fc":3325,"stdio":3326,"eft":3327,"E0597":3328,"NAME":3329,"89":3330,"Bind":3331,"Malloc":3332,"spe":3333,"Circle":3334,"bl":3335,"e7":3336,"spr":3337,"since":3338,"123456":3339,"Left":3340,"Prod":3341,"say":3342,"dummy":3343,"statement":3344,"udio":3345,"Visitor":3346,"ED":3347,"Que":3348,"page":3349,"Handsha":3350,"ION":3351,"front":3352,"screen":3353,"Generator":3354,"Iss":3355,"Loop":3356,"compare":3357,"signature":3358,"LL":3359,"You":3360,"fr":3361,"functions":3362,"3d":3363,"Main":3364,"extra":3365,"ilable":3366,"were":3367,"remain":3368,"Vec3":3369,"vec1":3370,"iron":3371,"Weak":3372,"irs":3373,"cted":3374,"meta":3375,"viron":3376,"Build":3377,"anonymous":3378,"dylib":3379,"Naive":3380,"certificate":3381,"Params":3382,"94":3383,"EC":3384,"Fresh":3385,"x1":3386,"cost":3387,"Byte":3388,"Model":3389,"original":3390,"Cat":3391,"Gen":3392,"lear":3393,"reach":3394,"elapsed":3395,"math":3396,"Ready":3397,"trusted":3398,"Module":3399,"Mon":3400,"Pi":3401,"pas":3402,"ually":3403,"E0507":3404,"Role":3405,"Right":3406,"Temp":3407,"holder":3408,"sport":3409,"Channel":3410,"google":3411,"vironment":3412,"ling":3413,"zz":3414,"ily":3415,"partial":3416,"Opt":3417,"simple":3418,"sty":3419,"poss":3420,"E038":3421,"Uni":3422,"PT":3423,"ius":3424,"generator":3425,"ik":3426,"incoming":3427,"never":3428,"force":3429,"dbg":3430,"Closure":3431,"Pixel":3432,"f3":3433,"giv":3434,"sg":3435,"factory":3436,"posit":3437,"allocator":3438,"category":3439,"i16":3440,"ascii":3441,"primes":3442,"Sink":3443,"stride":3444,"Double":3445,"Configuration":3446,"Gre":3447,"Sm":3448,"icate":3449,"Man":3450,"OK":3451,"b2":3452,"did":3453,"tcp":3454,"mean":3455,"usive":3456,"Controller":3457,"73":3458,"Bool":3459,"TLS":3460,"itertools":3461,"near":3462,"plus":3463,"ACE":3464,"failure":3465,"Vertex":3466,"dx":3467,"gnue":3468,"Attribute":3469,"invoke":3470,"gb":3471,"ia":3472,"0x7":3473,"button":3474,"widget":3475,"ULT":3476,"difference":3477,"dll":3478,"ging":3479,"hm":3480,"onig":3481,"admin":3482,"Pair":3483,"512":3484,"ting":3485,"Unable":3486,"inside":3487,"Button":3488,"dp":3489,"icle":3490,"Collection":3491,"OS":3492,"ending":3493,"Deque":3494,"emit":3495,"71":3496,"sized":3497,"itch":3498,"delete":3499,"IG":3500,"cker":3501,"utils":3502,"CR":3503,"sim":3504,"alle":3505,"AA":3506,"adding":3507,"weight":3508,"CF":3509,"authors":3510,"Spec":3511,"legate":3512,"Goo":3513,"SP":3514,"warn":3515,"secret":3516,"Mar":3517,"Sch":3518,"engine":3519,"argv":3520,"collection":3521,"erts":3522,"STR":3523,"downcast":3524,"worker":3525,"sets":3526,"b1":3527,"bc":3528,"pret":3529,"ones":3530,"delt":3531,"actual":3532,"e0":3533,"way":3534,"instant":3535,"Actor":3536,"GPU":3537,"ied":3538,"tm":3539,"shape":3540,"signal":3541,"references":3542,"Dynamic":3543,"MS":3544,"cand":3545,"rot":3546,"entr":3547,"uninitialized":3548,"timeout":3549,"Desk":3550,"Vector3":3551,"500":3552,"ason":3553,"optional":3554,"merge":3555,"fre":3556,"needed":3557,"edition":3558,"graphics":3559,"duration":3560,"tv":3561,"winapi":3562,"Unit":3563,"Settings":3564,"sorted":3565,"E0502":3566,"Bo":3567,"CA":3568,"Use":3569,"plan":3570,"fully":3571,"MP":3572,"RSA":3573,"asis":3574,"120":3575,"character":3576,"complete":3577,"functional":3578,"ponder":3579,"sqrt":3580,"b9":3581,"ansport":3582,"throws":3583,"term":3584,"ified":3585,"ITH":3586,"Memory":3587,"distance":3588,"ensions":3589,"seconds":3590,"Widget":3591,"bose":3592,"Endpoint":3593,"nvcc":3594,"SER":3595,"Tool":3596,"READ":3597,"correct":3598,"0u8":3599,"Uint":3600,"drain":3601,"ties":3602,"iss":3603,"rag":3604,"Const":3605,"reactor":3606,"compatible":3607,"lowercase":3608,"Middleware":3609,"rm":3610,"routes":3611,"domain":3612,"projects":3613,"Cal":3614,"oh":3615,"Unsafe":3616,"87":3617,"Equal":3618,"ML":3619,"bad":3620,"many":3621,"rep":3622,"answer":3623,"style":3624,"BACK":3625,"sol":3626,"delta":3627,"Desktop":3628,"Cach":3629,"soft":3630,"shader":3631,"complex":3632,"DAT":3633,"MO":3634,"uses":3635,"Connector":3636,"logger":3637,"Laz":3638,"mysql":3639,"multi":3640,"Primitive":3641,"Public":3642,"Api":3643,"Tag":3644,"b3":3645,"oasis":3646,"ume":3647,"php":3648,"small":3649,"declared":3650,"Argument":3651,"12345678":3652,"Ass":3653,"Zip":3654,"asm":3655,"icro":3656,"referenc":3657,"Java":3658,"modify":3659,"resolved":3660,"Lazy":3661,"84":3662,"repo":3663,"condition":3664,"variables":3665,"Make":3666,"Show":3667,"TARG":3668,"Hasher":3669,"TARGET":3670,"ea":3671,"redential":3672,"Syn":3673,"car":3674,"always":3675,"foobar":3676,"Counter":3677,"Msg":3678,"medi":3679,"Insert":3680,"Search":3681,"AND":3682,"problem":3683,"Edge":3684,"5c":3685,"CARG":3686,"stract":3687,"Move":3688,"SION":3689,"allowed":3690,"BUG":3691,"camera":3692,"CARGO":3693,"81":3694,"WITH":3695,"cac":3696,"lip":3697,"pipe":3698,"TION":3699,"square":3700,"vec2":3701,"already":3702,"annot":3703,"crete":3704,"remote":3705,"different":3706,"Pg":3707,"python":3708,"available":3709,"Ste":3710,"x2":3711,"ank":3712,"present":3713,"mark":3714,"DEBUG":3715,"gdb":3716,"mutate":3717,"Utc":3718,"Projects":3719,"pository":3720,"5e":3721,"82":3722,"amount":3723,"oid":3724,"urned":3725,"times":3726,"ARY":3727,"Normal":3728,"hook":3729,"proxy":3730,"sink":3731,"Split":3732,"HT":3733,"Take":3734,"serve":3735,"Fail":3736,"HOME":3737,"executor":3738,"las":3739,"ont":3740,"eme":3741,"extract":3742,"apter":3743,"verbose":3744,"foos":3745,"Cond":3746,"E0599":3747,"candid":3748,"NU":3749,"c0":3750,"animal":3751,"Responder":3752,"Coord":3753,"c2":3754,"ABLE":3755,"Network":3756,"mac":3757,"gnueabihf":3758,"unresolved":3759,"perform":3760,"movq":3761,"ROM":3762,"E0382":3763,"Implement":3764,"Heap":3765,"takes":3766,"JS":3767,"VM":3768,"clock":3769,"xor":3770,"deserializer":3771,"Transaction":3772,"NI":3773,"lives":3774,"why":3775,"crypto":3776,"largest":3777,"Hi":3778,"Max":3779,"serv":3780,"Domain":3781,"TRACE":3782,"atomic":3783,"Operation":3784,"Issu":3785,"Either":3786,"exception":3787,"Connect":3788,"layout":3789,"Finish":3790,"Book":3791,"GT":3792,"Uuid":3793,"external":3794,"Direction":3795,"CB":3796,"cook":3797,"LOCK":3798,"allel":3799,"Dummy":3800,"high":3801,"unix":3802,"profile":3803,"interface":3804,"cript":3805,"83":3806,"throw":3807,"exact":3808,"Compat":3809,"network":3810,"Assign":3811,"93":3812,"Pl":3813,"ostream":3814,"Deserializer":3815,"tributes":3816,"mingw":3817,"El":3818,"SU":3819,"combin":3820,"paths":3821,"LEN":3822,"Digest":3823,"Logger":3824,"EP":3825,"LD":3826,"S1":3827,"ores":3828,"mutex":3829,"entic":3830,"blocking":3831,"flatten":3832,"snip":3833,"radius":3834,"FROM":3835,"Sa":3836,"ear":3837,"des":3838,"asure":3839,"wrong":3840,"iteral":3841,"2015":3842,"loading":3843,"Pointer":3844,"Downloaded":3845,"returned":3846,"2D":3847,"Tile":3848,"pthread":3849,"png":3850,"modi":3851,"listen":3852,"uint32":3853,"Secon":3854,"xxx":3855,"Account":3856,"segment":3857,"T1":3858,"unstable":3859,"perties":3860,"methods":3861,"La":3862,"cipher":3863,"jks":3864,"Values":3865,"execution":3866,"API":3867,"bat":3868,"clang":3869,"True":3870,"Graphics":3871,"91":3872,"mm":3873,"erial":3874,"lea":3875,"Real":3876,"────":3877,"VI":3878,"cpp":3879,"far":3880,"MAP":3881,"495":3882,"Ill":3883,"rus":3884,"transaction":3885,"lns":3886,"runner":3887,"Registry":3888,"switch":3889,"xmlns":3890,"Abstract":3891,"constr":3892,"uminate":3893,"fect":3894,"expand":3895,"base64":3896,"E0499":3897,"Illuminate":3898,"commit":3899,"ages":3900,"reachable":3901,"Min":3902,"sig":3903,"adv":3904,"00000":3905,"permutation":3906,"multiple":3907,"Override":3908,"Draw":3909,"Cause":3910,"Last":3911,"Sup":3912,"U32":3913,"ype":3914,"initialize":3915,"Launch":3916,"seed":3917,"Success":3918,"d2":3919,"ni":3920,"v3":3921,"Entrust":3922,"Signature":3923,"Decoder":3924,"middleware":3925,"score":3926,"vol":3927,"unc":3928,"lish":3929,"Encoder":3930,"17h":3931,"needs":3932,"rw":3933,"letter":3934,"ulate":3935,"INFO":3936,"Shader":3937,"chronize":3938,"Root":3939,"Validator":3940,"protocol":3941,"FOR":3942,"boun":3943,"amily":3944,"implementations":3945,"Assembly":3946,"allocate":3947,"three":3948,"come":3949,"velo":3950,"acci":3951,"grade":3952,"single":3953,"Location":3954,"OPEN":3955,"bf":3956,"0x00":3957,"ificates":3958,"OUT":3959,"UE":3960,"ield":3961,"onacci":3962,"E028":3963,"calar":3964,"author":3965,"both":3966,"FAULT":3967,"Packet":3968,"remaining":3969,"BO":3970,"dead":3971,"forget":3972,"verify":3973,"stringify":3974,"implements":3975,"ird":3976,"sudo":3977,"identity":3978,"wasm32":3979,"blah":3980,"JSON":3981,"Her":3982,"Ssl":3983,"d1":3984,"nl":3985,"ather":3986,"unchecked":3987,"DEFAULT":3988,"6c":3989,"d0":3990,"na":3991,"pet":3992,"attemp":3993,"copi":3994,"handles":3995,"cursive":3996,"scoped":3997,"tasks":3998,"IX":3999,"bus":4000,"asy":4001,"COM":4002,"dispatch":4003,"Queue":4004,"Caused":4005,"copied":4006,"e2":4007,"attach":4008,"backend":4009,"validate":4010,"Texture":4011,"uppercase":4012,"Rectangle":4013,"evalu":4014,"LIN":4015,"sca":4016,"unreachable":4017,"E06":4018,"avr":4019,"Serializer":4020,"websocket":4021,"glm":4022,"E00":4023,"Port":4024,"e4":4025,"login":4026,"uler":4027,"2020":4028,"formatter":4029,"Product":4030,"AG":4031,"unable":4032,"master":4033,"neighb":4034,"struction":4035,"linker":4036,"redis":4037,"depth":4038,"itions":4039,"hasher":4040,"Form":4041,"requests":4042,"manifest":4043,"EE":4044,"T2":4045,"roles":4046,"tailed":4047,"E0495":4048,"bars":4049,"Func":4050,"Author":4051,"VERSION":4052,"half":4053,"Finished":4054,"LT":4055,"gg":4056,"lhs":4057,"pip":4058,"lector":4059,"ably":4060,"structor":4061,"prog":4062,"longer":4063,"GET":4064,"roy":4065,"Internal":4066,"digest":4067,"sock":4068,"Allow":4069,"captured":4070,"Ge":4071,"f4":4072,"sto":4073,"Stamp":4074,"0x10":4075,"ibility":4076,"TEX":4077,"Synchronize":4078,"cacerts":4079,"reco":4080,"resize":4081,"Proto":4082,"greet":4083,"TODO":4084,"loyee":4085,"0m":4086,"rou":4087,"beam":4088,"pairs":4089,"branch":4090,"Accept":4091,"crossbeam":4092,"learn":4093,"ece":4094,"cho":4095,"Note":4096,"Holder":4097,"Plan":4098,"literal":4099,"va":4100,"reverse":4101,"encoding":4102,"oth":4103,"Xml":4104,"sdl":4105,"loss":4106,"prote":4107,"who":4108,"question":4109,"Https":4110,"dependency":4111,"ITE":4112,"records":4113,"Br":4114,"Sun":4115,"quick":4116,"nothing":4117,"106":4118,"Reference":4119,"Trace":4120,"Stdio":4121,"BA":4122,"ND":4123,"e1":4124,"fb":4125,"Second":4126,"n1":4127,"Seq":4128,"archive":4129,"SEC":4130,"Flags":4131,"Boolean":4132,"mpt":4133,"atever":4134,"Console":4135,"Column":4136,"Decod":4137,"vs":4138,"successfully":4139,"optimized":4140,"dog":4141,"test1":4142,"pected":4143,"Outer":4144,"specified":4145,"Parameters":4146,"Basic":4147,"Rout":4148,"s3":4149,"x0":4150,"stmt":4151,"chr":4152,"buff":4153,"0x1":4154,"ORT":4155,"stock":4156,"Off":4157,"t5":4158,"rename":4159,"notify":4160,"parsed":4161,"debuginfo":4162,"Calc":4163,"a0":4164,"gst":4165,"them":4166,"clap":4167,"argc":4168,"test2":4169,"iving":4170,"moves":4171,"received":4172,"good":4173,"Step":4174,"Card":4175,"pg":4176,"pil":4177,"r1":4178,"tw":4179,"router":4180,"resources":4181,"account":4182,"configuration":4183,"Worker":4184,"Borrowed":4185,"NOT":4186,"Decodable":4187,"FE":4188,"MD":4189,"aarch":4190,"fx":4191,"environment":4192,"alph":4193,"detailed":4194,"├───":4195,"Timestamp":4196,"X509Trust":4197,"cxf":4198,"Handshake":4199,"instanti":4200,"icrosoft":4201,"aarch64":4202,"Fd":4203,"dup":4204,"dump":4205,"delay":4206,"Env":4207,"connected":4208,"beta":4209,"Transform":4210,"ohn":4211,"Bound":4212,"hist":4213,"k1":4214,"explan":4215,"pkg":4216,"1234567890":4217,"Timer":4218,"cach":4219,"stand":4220,"under":4221,"reading":4222,"extension":4223,"APP":4224,"OPENSSL":4225,"Cry":4226,"recursive":4227,"sections":4228,"workspace":4229,"ATION":4230,"dereference":4231,"b0":4232,"ving":4233,"desc":4234,"made":4235,"Engine":4236,"clean":4237,"ownership":4238,"DATA":4239,"Seek":4240,"fine":4241,"Lines":4242,"Renderer":4243,"Div":4244,"HER":4245,"Ker":4246,"Lif":4247,"Sc":4248,"med":4249,"prim":4250,"these":4251,"ability":4252,"Conn":4253,"rena":4254,"certs":4255,"n2":4256,"UTF":4257,"supported":4258,"Update":4259,"Credential":4260,"tle":4261,"vec3":4262,"107":4263,"being":4264,"separ":4265,"upd":4266,"transfer":4267,"such":4268,"hashmap":4269,"captures":4270,"Ipv4":4271,"Next":4272,"PY":4273,"Squ":4274,"Word":4275,"know":4276,"rate":4277,"ano":4278,"abo":4279,"docker":4280,"crt":4281,"Encod":4282,"ialization":4283,"goes":4284,"BACKTRACE":4285,"Encodable":4286,"Bench":4287,"Cast":4288,"NV":4289,"Wa":4290,"ev":4291,"mask":4292,"structopt":4293,"0x55":4294,"caller":4295,"sumer":4296,"Identity":4297,"Here":4298,"300":4299,"Rel":4300,"soap":4301,"field1":4302,"blocks":4303,"boolean":4304,"changed":4305,"basic":4306,"e8":4307,"proj":4308,"calculation":4309,"2f":4310,"IP":4311,"cv":4312,"ift":4313,"0000000":4314,"vertices":4315,"serialized":4316,"pilot":4317,"UI":4318,"demo":4319,"outside":4320,"testing":4321,"fails":4322,"TEXT":4323,"above":4324,"URE":4325,"c9":4326,"rdr":4327,"atal":4328,"rsi":4329,"ickel":4330,"ADD":4331,"calculate":4332,"Kernel":4333,"Native":4334,"Sco":4335,"every":4336,"0x7f":4337,"messa":4338,"Static":4339,"Leaf":4340,"WORD":4341,"Peek":4342,"explanation":4343,"hint":4344,"attributes":4345,"todo":4346,"MAKE":4347,"Register":4348,"COPY":4349,"possible":4350,"Full":4351,"Sing":4352,"Usize":4353,"eax":4354,"kit":4355,"well":4356,"168":4357,"jection":4358,"Work":4359,"fixed":4360,"Uri":4361,"lossy":4362,"AES":4363,"frustum":4364,"might":4365,"ri":4366,"pem":4367,"Rep":4368,"texture":4369,"ignore":4370,"identifier":4371,"annotations":4372,"Pay":4373,"a9":4374,"bs":4375,"hot":4376,"happ":4377,"uck":4378,"yaml":4379,"edges":4380,"accum":4381,"scale":4382,"pare":4383,"parallel":4384,"Proxy":4385,"Managers":4386,"Car":4387,"Done":4388,"ble":4389,"itude":4390,"structure":4391,"Uninit":4392,"bindings":4393,"idden":4394,"Shared":4395,"S2":4396,"actor":4397,"ffix":4398,"uring":4399,"Incl":4400,"ivot":4401,"Keys":4402,"checkout":4403,"Binding":4404,"Hex":4405,"sz":4406,"Serv":4407,"STAT":4408,"logic":4409,"Subject":4410,"undle":4411,"Glob":4412,"h1":4413,"ima":4414,"Resources":4415,"1111":4416,"ieve":4417,"Interface":4418,"POST":4419,"AS":4420,"BE":4421,"Qt5":4422,"mk":4423,"inl":4424,"leted":4425,"unary":4426,"lim":4427,"mock":4428,"wrapped":4429,"models":4430,"ae":4431,"cing":4432,"ii":4433,"lied":4434,"arg1":4435,"Helper":4436,"configure":4437,"LLVM":4438,"Greater":4439,"3000":4440,"sta":4441,"reset":4442,"boot":4443,"sqlite":4444,"xmm0":4445,"Current":4446,"0x7ff":4447,"Offset":4448,"fely":4449,"wss":4450,"yield":4451,"int32":4452,"peer":4453,"retain":4454,"safely":4455,"ixed":4456,"starting":4457,"ategy":4458,"black":4459,"Documents":4460,"passed":4461,"Cacher":4462,"d7":4463,"ior":4464,"urs":4465,"192":4466,"ENV":4467,"Derived":4468,"Del":4469,"og":4470,"u128":4471,"ypes":4472,"alk":4473,"starts":4474,"TY":4475,"stdlib":4476,"urface":4477,"beh":4478,"been":4479,"Dev":4480,"examples":4481,"Queryable":4482,"3f":4483,"DSIZE":4484,"den":4485,"gebra":4486,"Convert":4487,"canvas":4488,"effect":4489,"encoded":4490,"rough":4491,"alter":4492,"pol":4493,"peri":4494,"glut":4495,"handlers":4496,"Buffered":4497,"How":4498,"Iron":4499,"NE":4500,"i1":4501,"shell":4502,"trustpilot":4503,"Initial":4504,"Bad":4505,"Tls":4506,"ail":4507,"city":4508,"iteration":4509,"Rem":4510,"0x0":4511,"Codec":4512,"FFER":4513,"driver":4514,"compilation":4515,"IGHT":4516,"messages":4517,"Global":4518,"Free":4519,"href":4520,"ency":4521,"apk":4522,"ordered":4523,"columns":4524,"referencing":4525,"mediate":4526,"bounded":4527,"hen":4528,"nix":4529,"sr":4530,"tar":4531,"ug":4532,"imum":4533,"prec":4534,"calling":4535,"Flag":4536,"Lifetime":4537,"Scope":4538,"AV":4539,"CS":4540,"Sample":4541,"dc":4542,"either":4543,"gp":4544,"ian":4545,"ring":4546,"ram":4547,"ulation":4548,"cause":4549,"COUN":4550,"THREAD":4551,"specific":4552,"armv7":4553,"finished":4554,"lookup":4555,"given":4556,"921":4557,"fname":4558,"forward":4559,"suffix":4560,"ITY":4561,"latest":4562,"aaa":4563,"cookie":4564,"CMAKE":4565,"Ign":4566,"stm":4567,"rcx":4568,"ular":4569,"2017":4570,"apped":4571,"processing":4572,"unicode":4573,"assignment":4574,"INTER":4575,"RAY":4576,"OT":4577,"Sdata":4578,"Scalar":4579,"mong":4580,"too":4581,"borrows":4582,"settings":4583,"comment":4584,"0x4":4585,"ives":4586,"ALL":4587,"LIBR":4588,"Less":4589,"val1":4590,"104":4591,"whatever":4592,"111":4593,"ibution":4594,"Assert":4595,"Find":4596,"Microsoft":4597,"ient":4598,"pen":4599,"round":4600,"0x8":4601,"ldap":4602,"alth":4603,"Bla":4604,"bed":4605,"iangle":4606,"r2":4607,"intr":4608,"third":4609,"entities":4610,"odd":4611,"rayon":4612,"activity":4613,"Canvas":4614,"didn":4615,"Scene":4616,"3D":4617,"Ag":4618,"rl":4619,"leaf":4620,"uting":4621,"deriving":4622,"modules":4623,"generated":4624,"candidate":4625,"BY":4626,"d4":4627,"nan":4628,"year":4629,"trunc":4630,"keep":4631,"Stuff":4632,"issue":4633,"Protocol":4634,"Own":4635,"QL":4636,"There":4637,"bng":4638,"vk":4639,"tric":4640,"they":4641,"Forward":4642,"BUFFER":4643,"Template":4644,"protected":4645,"Bencher":4646,"periment":4647,"IS":4648,"give":4649,"pid":4650,"pfe":4651,"sx":4652,"izer":4653,"keytool":4654,"cells":4655,"midi":4656,"ECD":4657,"pfemidi":4658,"cgu":4659,"tun":4660,"Delegate":4661,"nalgebra":4662,"datetime":4663,"predicate":4664,"batik":4665,"Payload":4666,"BIT":4667,"BLOCK":4668,"fy":4669,"incompatible":4670,"ani":4671,"returning":4672,"calls":4673,"ARRAY":4674,"bitrary":4675,"2d2":4676,"peekable":4677,"cublas":4678,"Dispatch":4679,"Meta":4680,"Peekable":4681,"VAR":4682,"a8":4683,"wise":4684,"utdown":4685,"fast":4686,"prop":4687,"Enable":4688,"visible":4689,"Customer":4690,"Multi":4691,"TS":4692,"WID":4693,"Your":4694,"fp":4695,"h3":4696,"pivot":4697,"r2d2":4698,"Items":4699,"locked":4700,"codec":4701,"omit":4702,"framework":4703,"components":4704,"PKIX":4705,"controller":4706,"CRY":4707,"Google":4708,"entries":4709,"CBC":4710,"HERE":4711,"V1":4712,"d8":4713,"e9":4714,"fatal":4715,"mu":4716,"locity":4717,"inclusive":4718,"Loader":4719,"snake":4720,"segments":4721,"0000000000000000000000000000000000000000000000000000000000000000":4722,"Please":4723,"Udp":4724,"bson":4725,"c4":4726,"f7":4727,"unoptimized":4728,"Strategy":4729,"occur":4730,"LOC":4731,"digits":4732,"WIDTH":4733,"b8":4734,"lk":4735,"saml":4736,"tex":4737,"life":4738,"geo":4739,"Small":4740,"Ipv4Addr":4741,"JNI":4742,"KS":4743,"Signed":4744,"a6":4745,"through":4746,"aps":4747,"usec":4748,"Inflat":4749,"Release":4750,"Itertools":4751,"dict":4752,"prepare":4753,"Vector2":4754,"ceptor":4755,"sprite":4756,"Inflater":4757,"0c":4758,"Djavax":4759,"d6":4760,"jni":4761,"w3":4762,"watch":4763,"enu":4764,"loader":4765,"sdl2":4766,"PAR":4767,"Scan":4768,"dv":4769,"oose":4770,"price":4771,"concrete":4772,"END":4773,"receive":4774,"TEST":4775,"coords":4776,"invocation":4777,"whole":4778,"Cpu":4779,"Pre":4780,"Top":4781,"abet":4782,"structs":4783,"lamb":4784,"refs":4785,"indent":4786,"Structure":4787,"truststore":4788,"codon":4789,"LBB0":4790,"mingw32":4791,"rusoto":4792,"920":4793,"Lar":4794,"ired":4795,"np":4796,"ze":4797,"necess":4798,"lies":4799,"connector":4800,"matic":4801,"Invo":4802,"states":4803,"curand":4804,"Unary":4805,"particle":4806,"pretty":4807,"1f":4808,"Ali":4809,"II":4810,"MIN":4811,"ui":4812,"utor":4813,"dequ":4814,"undeclared":4815,"iterate":4816,"Now":4817,"Chunk":4818,"allocated":4819,"groups":4820,"Authentic":4821,"blue":4822,"Board":4823,"LIBRARY":4824,"IAL":4825,"a5":4826,"w64":4827,"zer":4828,"icles":4829,"vectors":4830,"Statement":4831,"substr":4832,"speed":4833,"reply":4834,"Route":4835,"CN":4836,"CRE":4837,"fire":4838,"eln":4839,"addition":4840,"float3":4841,"memcpy":4842,"ignored":4843,"xxxx":4844,"writeln":4845,"tmf":4846,"Case":4847,"MY":4848,"dw":4849,"rdx":4850,"edit":4851,"odb":4852,"Types":4853,"Received":4854,"Before":4855,"Close":4856,"COUNT":4857,"Got":4858,"cnt":4859,"dsl":4860,"e6":4861,"lm":4862,"oring":4863,"isdequ":4864,"ios":4865,"103":4866,"cant":4867,"boisdequ":4868,"Nothing":4869,"ryboisdequ":4870,"jobs":4871,"henryboisdequ":4872,"henryboisdequin":4873,"MT":4874,"PER":4875,"bro":4876,"hidden":4877,"edi":4878,"key1":4879,"sched":4880,"constrain":4881,"nable":4882,"measure":4883,"mutably":4884,"Unpin":4885,"clos":4886,"Html":4887,"click":4888,"Couldn":4889,"destroy":4890,"7b":4891,"Cook":4892,"OL":4893,"PUT":4894,"font":4895,"ose":4896,"Runner":4897,"permissions":4898,"WIN":4899,"c6":4900,"nop":4901,"tick":4902,"recur":4903,"mag":4904,"ets":4905,"ents":4906,"Prob":4907,"validator":4908,"Transport":4909,"384":4910,"SIG":4911,"cycle":4912,"Insertable":4913,"cached":4914,"Square":4915,"lot":4916,"sli":4917,"value1":4918,"Dep":4919,"prevent":4920,"vertex":4921,"Install":4922,"USER":4923,"Single":4924,"VE":4925,"inates":4926,"union":4927,"gets":4928,"senger":4929,"LECT":4930,"partition":4931,"456":4932,"MENT":4933,"OF":4934,"vend":4935,"mutated":4936,"uman":4937,"mation":4938,"shift":4939,"caps":4940,"urls":4941,"DIM":4942,"Identifier":4943,"Multip":4944,"12345678901234567890":4945,"stm32":4946,"2000":4947,"CFLAGS":4948,"bash":4949,"ike":4950,"below":4951,"Rustc":4952,"resolving":4953,"CESS":4954,"freed":4955,"TYPE":4956,"CUR":4957,"CPU":4958,"m2":4959,"rgb":4960,"vv":4961,"umb":4962,"Intent":4963,"ctionary":4964,"coded":4965,"scene":4966,"steps":4967,"direction":4968,"Returns":4969,"Support":4970,"Lex":4971,"Let":4972,"b7":4973,"orter":4974,"alled":4975,"quire":4976,"cos":4977,"109":4978,"pose":4979,"uniper":4980,"Interceptor":4981,"pixels":4982,"Backend":4983,"False":4984,"PORT":4985,"f6":4986,"ous":4987,"rates":4988,"yes":4989,"inf":4990,"igr":4991,"best":4992,"linking":4993,"Elements":4994,"Verifier":4995,"FOO":4996,"ruit":4997,"HOST":4998,"1F":4999,"Mac":5000,"Spr":5001,"bob":5002,"whe":5003,"neg":5004,"Vec2":5005,"Inf":5006,"dian":5007,"3333":5008,"linked":5009,"E0271":5010,"SET":5011,"SELECT":5012,"details":5013,"month":5014,"TIME":5015,"Final":5016,"decimal":5017,"ensive":5018,"Pipe":5019,"Agent":5020,"A1":5021,"Pat":5022,"fter":5023,"foc":5024,"gc":5025,"juniper":5026,"ctl":5027,"conversion":5028,"contract":5029,"ressed":5030,"igger":5031,"properties":5032,"moving":5033,"interval":5034,"Page":5035,"SD":5036,"SY":5037,"ances":5038,"asset":5039,"contrib":5040,"Section":5041,"Weight":5042,"originates":5043,"enabled":5044,"PRE":5045,"f5":5046,"wsp":5047,"ints":5048,"adder":5049,"Select":5050,"dirs":5051,"keyword":5052,"circle":5053,"links":5054,"folder":5055,"extends":5056,"customer":5057,"dotenv":5058,"NUM":5059,"truncate":5060,"Family":5061,"uage":5062,"vl":5063,"vy":5064,"stats":5065,"iston":5066,"aca":5067,"latform":5068,"placeholder":5069,"commands":5070,"COL":5071,"Nullable":5072,"Launcher":5073,"6F":5074,"Cmd":5075,"UP":5076,"utf":5077,"delegate":5078,"transport":5079,"ifact":5080,"Repository":5081,"liballoc":5082,"117":5083,"9999":5084,"Python":5085,"What":5086,"SHA256":5087,"Plane":5088,"lambda":5089,"Fl":5090,"pad":5091,"ines":5092,"reason":5093,"encrypt":5094,"experiment":5095,"prompt":5096,"distr":5097,"Exit":5098,"LOG":5099,"strided":5100,"600":5101,"Area":5102,"tup":5103,"ination":5104,"excl":5105,"loor":5106,"adow":5107,"actually":5108,"Complete":5109,"Does":5110,"Compiler":5111,"Attr":5112,"samples":5113,"renderer":5114,"Headers":5115,"Stdin":5116,"CRYPT":5117,"closures":5118,"1000000":5119,"800":5120,"b4":5121,"norm":5122,"px":5123,"tre":5124,"ended":5125,"ulator":5126,"builds":5127,"Grid":5128,"Cannot":5129,"legal":5130,"Pattern":5131,"Eval":5132,"Flat":5133,"jac":5134,"crement":5135,"Endian":5136,"159":5137,"Named":5138,"LED":5139,"longest":5140,"Good":5141,"3c":5142,"After":5143,"Lim":5144,"center":5145,"icon":5146,"ucer":5147,"ctypes":5148,"deck":5149,"upgrade":5150,"building":5151,"Wrapped":5152,"Observer":5153,"Int32":5154,"fibonacci":5155,"Sha256":5156,"oneshot":5157,"mongodb":5158,"F1":5159,"a7":5160,"eu":5161,"sd":5162,"rome":5163,"opa":5164,"Certificates":5165,"Combin":5166,"XXXX":5167,"Plugin":5168,"Branch":5169,"Guess":5170,"IR":5171,"easy":5172,"hav":5173,"scr":5174,"strap":5175,"ision":5176,"embed":5177,"players":5178,"Points":5179,"Functor":5180,"scheme":5181,"Neighb":5182,"Dist":5183,"Mi":5184,"iro":5185,"ral":5186,"alance":5187,"most":5188,"endpoint":5189,"See":5190,"phantom":5191,"Util":5192,"655":5193,"FFI":5194,"Im":5195,"e3":5196,"fg":5197,"vp":5198,"repository":5199,"units":5200,"Dest":5201,"cessed":5202,"special":5203,"packets":5204,"modifi":5205,"BYTE":5206,"opaque":5207,"Even":5208,"V2":5209,"c3":5210,"c5e":5211,"rss":5212,"reflect":5213,"coll":5214,"weak":5215,"Common":5216,"Interval":5217,"Android":5218,"VALUE":5219,"rotation":5220,"E0282":5221,"Lit":5222,"a4":5223,"p0":5224,"ed2":5225,"data2":5226,"Then":5227,"lifetimes":5228,"logging":5229,"requested":5230,"PIC":5231,"multiply":5232,"omitted":5233,"364":5234,"Anot":5235,"Cor":5236,"Job":5237,"rpc":5238,"tile":5239,"uma":5240,"als":5241,"assembly":5242,"five":5243,"track":5244,"102":5245,"athan":5246,"Apple":5247,"installed":5248,"Timeout":5249,"disable":5250,"readed":5251,"factors":5252,"0x00007f":5253,"THREADS":5254,"0f64":5255,"AM":5256,"Cli":5257,"More":5258,"WR":5259,"d9":5260,"i2":5261,"ua":5262,"ato":5263,"seen":5264,"aries":5265,"esome":5266,"lyph":5267,"Metadata":5268,"STRING":5269,"Issuer":5270,"Another":5271,"CER":5272,"Ctx":5273,"GE":5274,"Rgb":5275,"Sk":5276,"Va":5277,"lib64":5278,"External":5279,"Arr":5280,"subject":5281,"Import":5282,"Mock":5283,"greater":5284,"dimensions":5285,"WORK":5286,"evaluate":5287,"Large":5288,"4e7":5289,"Span":5290,"arena":5291,"d5":5292,"during":5293,"mi":5294,"mmap":5295,"inv":5296,"lems":5297,"ulture":5298,"189":5299,"closed":5300,"scores":5301,"Framed":5302,"bottom":5303,"factorial":5304,"DD":5305,"Jan":5306,"Mach":5307,"hold":5308,"ness":5309,"anced":5310,"topt":5311,"That":5312,"Only":5313,"language":5314,"uniform":5315,"Verify":5316,"Initialize":5317,"radix":5318,"ragment":5319,"Condvar":5320,"attempt":5321,"alphabet":5322,"Limit":5323,"8000":5324,"Using":5325,"sv":5326,"yy":5327,"selector":5328,"utral":5329,"health":5330,"field2":5331,"specifier":5332,"Hostname":5333,"strict":5334,"piped":5335,"Sy":5336,"TW":5337,"mf":5338,"mio":5339,"stage":5340,"doit":5341,"vec4":5342,"codegen":5343,"Evented":5344,"Private":5345,"increase":5346,"Handshaker":5347,"duplic":5348,"214":5349,"CG":5350,"Faca":5351,"stored":5352,"quiv":5353,"quant":5354,"velocity":5355,"tpath":5356,"shutdown":5357,"2016":5358,"Change":5359,"ONE":5360,"boss":5361,"override":5362,"LOB":5363,"certpath":5364,"HEIGHT":5365,"ZN4":5366,"c5e5c":5367,"4e7c5e5c":5368,"Bus":5369,"TA":5370,"ght":5371,"h2":5372,"k2":5373,"pal":5374,"neutral":5375,"ters":5376,"foo2":5377,"pages":5378,"bye":5379,"cairo":5380,"suite":5381,"Secure":5382,"integr":5383,"boost":5384,"PKG":5385,"Piece":5386,"DU":5387,"Many":5388,"Nightly":5389,"brow":5390,"nate":5391,"nickel":5392,"pick":5393,"t0":5394,"wtr":5395,"za":5396,"instruction":5397,"around":5398,"adjac":5399,"val2":5400,"versed":5401,"endif":5402,"avoid":5403,"Thrust":5404,"float2":5405,"byteorder":5406,"rbx":5407,"bigint":5408,"HEAD":5409,"slices":5410,"Culture":5411,"actions":5412,"batch":5413,"tk":5414,"usage":5415,"vided":5416,"divis":5417,"comput":5418,"movl":5419,"intersection":5420,"5555":5421,"Notification":5422,"Attach":5423,"Monster":5424,"Unique":5425,"Scheme":5426,"Dr":5427,"PA":5428,"c7":5429,"gfx":5430,"review":5431,"dete":5432,"lave":5433,"tact":5434,"working":5435,"100000":5436,"vendor":5437,"Ap":5438,"Dsl":5439,"F2":5440,"mesh":5441,"Constructor":5442,"upload":5443,"Seg":5444,"parsing":5445,"shuff":5446,"119":5447,"Trie":5448,"needle":5449,"recogn":5450,"5f":5451,"HA":5452,"John":5453,"cust":5454,"css":5455,"report":5456,"represent":5457,"ensure":5458,"strip":5459,"added":5460,"applied":5461,"Exact":5462,"assertion":5463,"Material":5464,"employee":5465,"Secret":5466,"443":5467,"connections":5468,"FIG":5469,"Character":5470,"green":5471,"modified":5472,"Age":5473,"C0":5474,"DATE":5475,"a3":5476,"Contract":5477,"Mysql":5478,"consts":5479,"creates":5480,"Thunk":5481,"download":5482,"expanded":5483,"E0432":5484,"schemas":5485,"Allocator":5486,"Audio":5487,"B1":5488,"OM":5489,"TABLE":5490,"ga":5491,"hit":5492,"middle":5493,"material":5494,"cloud":5495,"definition":5496,"Prime":5497,"squared":5498,"Uniform":5499,"Failure":5500,"Safe":5501,"instantiation":5502,"quantity":5503,"IMP":5504,"Just":5505,"Math":5506,"Space":5507,"Script":5508,"audio":5509,"v6":5510,"arbitrary":5511,"Seed":5512,"ulk":5513,"comm":5514,"targets":5515,"Serial":5516,"days":5517,"bincode":5518,"convertbng":5519,"Dictionary":5520,"axed":5521,"Visual":5522,"CONFIG":5523,"rupt":5524,"LINE":5525,"Credentials":5526,"Wait":5527,"Relaxed":5528,"Ignoring":5529,"IZE":5530,"Side":5531,"TP":5532,"V4":5533,"aco":5534,"alen":5535,"omt":5536,"pb":5537,"rip":5538,"nex":5539,"their":5540,"series":5541,"artifact":5542,"white":5543,"arrays":5544,"havi":5545,"Numeric":5546,"PRI":5547,"Manifest":5548,"updated":5549,"distribution":5550,"customt":5551,"customtabs":5552,"4c":5553,"400":5554,"glib":5555,"tz":5556,"erenc":5557,"atile":5558,"forms":5559,"foreach":5560,"theme":5561,"Errors":5562,"ixbuf":5563,"Environment":5564,"Unix":5565,"180":5566,"Org":5567,"phone":5568,"sqlx":5569,"ABC":5570,"changeit":5571,"Execution":5572,"Issuers":5573,"behind":5574,"Owner":5575,"CL":5576,"f9":5577,"floor":5578,"jboss":5579,"rer":5580,"quit":5581,"vecs":5582,"Ended":5583,"ibly":5584,"Computer":5585,"Parsed":5586,"going":5587,"coordinates":5588,"relation":5589,"SERIAL":5590,"Crypt":5591,"Reply":5592,"Cookie":5593,"ASE":5594,"Bob":5595,"jon":5596,"ssh":5597,"chip":5598,"numeric":5599,"hostname":5600,"INIT":5601,"Permutation":5602,"packages":5603,"2005":5604,"secure":5605,"ropping":5606,"Utf8":5607,"written":5608,"12042":5609,"Geo":5610,"Boun":5611,"Cam":5612,"Fib":5613,"gba":5614,"hd":5615,"yet":5616,"uty":5617,"alive":5618,"Foobar":5619,"Def":5620,"Delete":5621,"Unsigned":5622,"evented2":5623,"Region":5624,"Redis":5625,"intrins":5626,"focus":5627,"Capt":5628,"Ma":5629,"Sw":5630,"piston":5631,"rle":5632,"rule":5633,"bulk":5634,"borrowing":5635,"150":5636,"Login":5637,"arry":5638,"sha256":5639,"channels":5640,"constructor":5641,"Machine":5642,"Total":5643,"e5":5644,"platform":5645,"leak":5646,"choose":5647,"izes":5648,"Repr":5649,"value2":5650,"Concrete":5651,"waker":5652,"Expected":5653,"streams":5654,"spaces":5655,"4096":5656,"Executor":5657,"Prints":5658,"9c":5659,"Cap":5660,"H3":5661,"Occ":5662,"Sho":5663,"bd":5664,"cmake":5665,"m1":5666,"mx":5667,"unnamed":5668,"escap":5669,"expon":5670,"consumer":5671,"respon":5672,"ople":5673,"Food":5674,"packed":5675,"bbb":5676,"Package":5677,"spring":5678,"history":5679,"magic":5680,"Cy":5681,"Cla":5682,"Ev":5683,"LP":5684,"Site":5685,"XML":5686,"dart":5687,"haps":5688,"vulk":5689,"inp":5690,"allib":5691,"anum":5692,"assets":5693,"ecx":5694,"lier":5695,"adcast":5696,"iour":5697,"Stand":5698,"saved":5699,"tags":5700,"park":5701,"ims":5702,"E0106":5703,"assume":5704,"apping":5705,"Three":5706,"Encoding":5707,"started":5708,"uint8":5709,"large":5710,"Allows":5711,"STATIC":5712,"limiter":5713,"necessary":5714,"CRYPT32":5715,"IF":5716,"Like":5717,"RP":5718,"SQL":5719,"jre":5720,"smo":5721,"tab":5722,"onto":5723,"encoder":5724,"mak":5725,"traverse":5726,"paren":5727,"compiled":5728,"creating":5729,"Enter":5730,"Properties":5731,"Generate":5732,"drive":5733,"substrate":5734,"allible":5735,"anumeric":5736,"CP":5737,"Wall":5738,"b6":5739,"bt":5740,"gues":5741,"naive":5742,"p3":5743,"td":5744,"uda":5745,"xr":5746,"yg":5747,"cover":5748,"rustfmt":5749,"impls":5750,"Develo":5751,"float4":5752,"Under":5753,"clients":5754,"999":5755,"THRE":5756,"smtp":5757,"xyz":5758,"Signer":5759,"Accessor":5760,"Mark":5761,"Arguments":5762,"440":5763,"GTH":5764,"Home":5765,"d3":5766,"imap":5767,"u20":5768,"aly":5769,"del":5770,"thumb":5771,"nest":5772,"chan":5773,"Increment":5774,"librustc":5775,"105":5776,"matching":5777,"matched":5778,"Contin":5779,"191":5780,"expensive":5781,"processor":5782,"ORD":5783,"shown":5784,"Caller":5785,"Fields":5786,"video":5787,"possibly":5788,"solution":5789,"pipeline":5790,"Problem":5791,"Cance":5792,"Sim":5793,"cfi":5794,"flip":5795,"nb":5796,"star":5797,"unexpected":5798,"izaco":5799,"cont":5800,"cla":5801,"Unwind":5802,"background":5803,"anaged":5804,"REG":5805,"bitmap":5806,"Employee":5807,"jonathan":5808,"Pending":5809,"Rhs":5810,"migr":5811,"oct":5812,"seh":5813,"mach":5814,"ech":5815,"ceed":5816,"001":5817,"people":5818,"abel":5819,"provided":5820,"myapp":5821,"share":5822,"observer":5823,"statements":5824,"operations":5825,"country":5826,"Directory":5827,"referenced":5828,"Scanner":5829,"constrained":5830,"Evalu":5831,"havior":5832,"2c":5833,"Ax":5834,"BST":5835,"Cr":5836,"Cst":5837,"b5":5838,"duty":5839,"gli":5840,"enite":5841,"decrypt":5842,"mass":5843,"romise":5844,"Instr":5845,"cls":5846,"data1":5847,"via":5848,"virt":5849,"upied":5850,"criter":5851,"Arch":5852,"waiting":5853,"Force":5854,"THE":5855,"produce":5856,"grep":5857,"repeated":5858,"Adapter":5859,"Elapsed":5860,"Standard":5861,"Mis":5862,"Na":5863,"jump":5864,"o3":5865,"pull":5866,"rank":5867,"removed":5868,"ablish":5869,"doing":5870,"tack":5871,"untu":5872,"239":5873,"copyable":5874,"certification":5875,"CODE":5876,"automatic":5877,"Smtp":5878,"Invoke":5879,"rerun":5880,"I32":5881,"RT":5882,"equiv":5883,"glf":5884,"mv":5885,"stud":5886,"least":5887,"sect":5888,"seek":5889,"algorithm":5890,"str1":5891,"interr":5892,"ilar":5893,"bucket":5894,"160":5895,"anges":5896,"cise":5897,"grams":5898,"certificates":5899,"Matrix4":5900,"Height":5901,"Specific":5902,"COMPI":5903,"Services":5904,"LOCAL":5905,"Lexer":5906,"ASC":5907,"GC":5908,"Gc":5909,"ace":5910,"l2":5911,"sdk":5912,"sieve":5913,"ylib":5914,"repos":5915,"room":5916,"cel":5917,"power":5918,"Defin":5919,"perhaps":5920,"125":5921,"rency":5922,"Apply":5923,"RES":5924,"Alpha":5925,"callbacks":5926,"terminated":5927,"LENGTH":5928,"volatile":5929,"0m0":5930,"Distance":5931,"BAR":5932,"EL":5933,"Sn":5934,"USE":5935,"eh":5936,"gz":5937,"upt":5938,"atable":5939,"alert":5940,"aphe":5941,"Repe":5942,"arg2":5943,"2014":5944,"115":5945,"macro2":5946,"ants":5947,"Ascii":5948,"generics":5949,"DIS":5950,"lank":5951,"destination":5952,"ILD":5953,"measured":5954,"Segment":5955,"110":5956,"PS":5957,"Router":5958,"cn":5959,"qword":5960,"chk":5961,"feed":5962,"250":5963,"occ":5964,"definitions":5965,"movd":5966,"imports":5967,"compiles":5968,"Processor":5969,"Neg":5970,"standard":5971,"happen":5972,"Skip":5973,"Low":5974,"Screen":5975,"TL":5976,"VC":5977,"ny":5978,"vb":5979,"really":5980,"meet":5981,"metric":5982,"ecker":5983,"Req":5984,"tracing":5985,"pyo3":5986,"sums":5987,"logy":5988,"git2":5989,"satisfy":5990,"abcdef":5991,"E0425":5992,"anchor":5993,"Operator":5994,"members":5995,"speak":5996,"fri":5997,"planes":5998,"vulkano":5999,"1u8":6000,"B2":6001,"Bl":6002,"Bat":6003,"CW":6004,"E2":6005,"RG":6006,"four":6007,"family":6008,"nat":6009,"pend":6010,"x4":6011,"trigger":6012,"strong":6013,"light":6014,"ood":6015,"rusty":6016,"indexes":6017,"Units":6018,"otherwise":6019,"eye":6020,"buffered":6021,"FFFF":6022,"assignable":6023,"patterns":6024,"letters":6025,"Accepted":6026,"iority":6027,"zeros":6028,"Should":6029,"interrupt":6030,"7d":6031,"C4":6032,"Dig":6033,"Elem":6034,"Tex":6035,"pwd":6036,"vtable":6037,"ison":6038,"vect":6039,"implicit":6040,"elcome":6041,"ometry":6042,"rsa":6043,"Boxed":6044,"114":6045,"vars":6046,"Compile":6047,"401":6048,"posts":6049,"cdylib":6050,"VALU":6051,"Special":6052,"candidates":6053,"AGE":6054,"twice":6055,"gpio":6056,"ASCII":6057,"Cipher":6058,"Clip":6059,"Label":6060,"Spa":6061,"Stop":6062,"f0":6063,"r14":6064,"sound":6065,"slog":6066,"rase":6067,"refm":6068,"Type1":6069,"Names":6070,"intermediate":6071,"UNK":6072,"listeners":6073,"limited":6074,"dynamically":6075,"PRINTER":6076,"rotate":6077,"leaq":6078,"Authorization":6079,"Enabled":6080,"WINDO":6081,"nexpected":6082,"SERIALIZE":6083,"Continent":6084,"glfw":6085,"VALUES":6086,"Bot":6087,"Bundle":6088,"Cuda":6089,"Det":6090,"Rad":6091,"TER":6092,"Unexpected":6093,"Vir":6094,"bg":6095,"carry":6096,"ken":6097,"surface":6098,"hell":6099,"complet":6100,"mine":6101,"minimum":6102,"graphe":6103,"Member":6104,"IMPL":6105,"THREE":6106,"1i32":6107,"EM":6108,"LC":6109,"NG":6110,"won":6111,"structions":6112,"mouse":6113,"Instruction":6114,"ialog":6115,"combo":6116,"ystack":6117,"allocation":6118,"Extensions":6119,"clipp":6120,"declar":6121,"reshold":6122,"CONST":6123,"brace":6124,"acceptor":6125,"neighbour":6126,"0x7fb9":6127,"Virt":6128,"GLOB":6129,"mime":6130,"nonce":6131,"rte":6132,"uit":6133,"season":6134,"iff":6135,"Inc":6136,"foo1":6137,"provide":6138,"subscri":6139,"authentic":6140,"rectangle":6141,"directly":6142,"stairs":6143,"nested":6144,"Deck":6145,"hard":6146,"nr":6147,"means":6148,"rustling":6149,"parity":6150,"trying":6151,"codes":6152,"avg":6153,"registr":6154,"cpus":6155,"arr2":6156,"stackoverflow":6157,"ROOT":6158,"Decimal":6159,"axis":6160,"Interrupt":6161,"discard":6162,"rbt":6163,"Termin":6164,"powf":6165,"Manually":6166,"CFG":6167,"plane":6168,"TIONS":6169,"combine":6170,"advance":6171,"Delay":6172,"CREATE":6173,"chip8":6174,"intrinsics":6175,"machine":6176,"6D":6177,"Gtk":6178,"HAND":6179,"IA":6180,"Mer":6181,"Sv1":6182,"Zone":6183,"aint":6184,"frequ":6185,"ier":6186,"john":6187,"land":6188,"slave":6189,"turn":6190,"y2":6191,"instructions":6192,"reversed":6193,"arer":6194,"destructor":6195,"rustify":6196,"served":6197,"Consumer":6198,"bar2":6199,"194":6200,"Orig":6201,"helloworld":6202,"handled":6203,"Messenger":6204,"brew":6205,"2004":6206,"inspect":6207,"xmm1":6208,"builtins":6209,"Sqlite":6210,"Marker":6211,"Sprite":6212,"erenced":6213,"Occupied":6214,"1i":6215,"Put":6216,"Wo":6217,"freq":6218,"pd":6219,"slow":6220,"ense":6221,"che":6222,"processed":6223,"num1":6224,"divide":6225,"Mutable":6226,"da9":6227,"startup":6228,"opts":6229,"qlite":6230,"agent":6231,"ACH":6232,"lexer":6233,"aster":6234,"Begin":6235,"CUB":6236,"dimension":6237,"Deploy":6238,"wheel":6239,"shuffle":6240,"132":6241,"Easy":6242,"Pan":6243,"UTH":6244,"ilo":6245,"irect":6246,"jmp":6247,"kill":6248,"ste":6249,"redirect":6250,"ital":6251,"ality":6252,"unsupported":6253,"edx":6254,"gettime":6255,"shorter":6256,"Errchk":6257,"Proc":6258,"positive":6259,"outputs":6260,"Append":6261,"Events":6262,"Certs":6263,"URI":6264,"Spinner":6265,"selected":6266,"RUSTFLAGS":6267,"exports":6268,"cube":6269,"Redirect":6270,"Tools":6271,"leave":6272,"Repeat":6273,"GLOBAL":6274,"Category":6275,"EOF":6276,"Ke":6277,"Long":6278,"Ncols":6279,"pur":6280,"si":6281,"trie":6282,"fact":6283,"colon":6284,"ortex":6285,"167":6286,"others":6287,"formatted":6288,"supp":6289,"369":6290,"Extension":6291,"finalize":6292,"ZN8":6293,"visited":6294,"neighbor":6295,"Calculate":6296,"Crypto":6297,"effects":6298,"occurred":6299,"2F":6300,"QU":6301,"ao":6302,"cut":6303,"fra":6304,"uous":6305,"vor":6306,"x64":6307,"uninit":6308,"strs":6309,"formed":6310,"key2":6311,"pong":6312,"Created":6313,"Phone":6314,"Quack":6315,"CHE":6316,"Contents":6317,"consumed":6318,"E0515":6319,"SHA1":6320,"Quest":6321,"servable":6322,"────────":6323,"TEXTURE":6324,"glutin":6325,"broadcast":6326,"duplicate":6327,"H3Index":6328,"2E":6329,"9f":6330,"CD":6331,"O3":6332,"Surface":6333,"ball":6334,"blob":6335,"dtime":6336,"wl":6337,"walk":6338,"triangle":6339,"roll":6340,"etch":6341,"andro":6342,"dom":6343,"Inv":6344,"Rest":6345,"num2":6346,"207":6347,"company":6348,"callq":6349,"Struct1":6350,"firstname":6351,"transparent":6352,"webpack":6353,"sorting":6354,"general":6355,"piece":6356,"FIX":6357,"CHAR":6358,"BUILD":6359,"FAI":6360,"Execute":6361,"executable":6362,"Servlet":6363,"Vacant":6364,"alent":6365,"0x7fb935":6366,"1b":6367,"A2":6368,"Cho":6369,"Day":6370,"Menu":6371,"centr":6372,"sts":6373,"itr":6374,"reads":6375,"Sequ":6376,"xture":6377,"indexed":6378,"okhttp":6379,"finite":6380,"checks":6381,"sha1":6382,"sha2":6383,"uint64":6384,"tagged":6385,"cmds":6386,"SAML":6387,"issues":6388,"VICE":6389,"respond":6390,"clippy":6391,"EA":6392,"bundle":6393,"mq":6394,"nil":6395,"o2":6396,"pment":6397,"slen":6398,"vd":6399,"x3":6400,"isn":6401,"Ins":6402,"20h":6403,"lying":6404,"spi":6405,"istics":6406,"184":6407,"STS":6408,"ARCH":6409,"Tokens":6410,"Theme":6411,"Their":6412,"LAS":6413,"Methods":6414,"couldn":6415,"ZN3":6416,"Overflow":6417,"animals":6418,"primitive":6419,"Blue":6420,"9e":6421,"FT":6422,"lled":6423,"p12":6424,"t3":6425,"tl":6426,"wide":6427,"elong":6428,"publish":6429,"actus":6430,"INS":6431,"submit":6432,"Ints":6433,"positions":6434,"LAY":6435,"12345":6436,"Updat":6437,"SOME":6438,"changing":6439,"advanced":6440,"Drawable":6441,"Installing":6442,"Clipboard":6443,"2a":6444,"7e":6445,"Fetch":6446,"HS":6447,"Human":6448,"UDE":6449,"cwd":6450,"gate":6451,"m64":6452,"r0":6453,"sizes":6454,"y1":6455,"uster":6456,"ioctl":6457,"lain":6458,"Studio":6459,"myp":6460,"124":6461,"currently":6462,"Triangle":6463,"particles":6464,"keys1":6465,"abcd":6466,"While":6467,"Admin":6468,"PKCS":6469,"gstenite":6470,"ursive":6471,"Black":6472,"tungstenite":6473,"computation":6474,"116":6475,"SR":6476,"U8":6477,"c5":6478,"cvar":6479,"cortex":6480,"eabi":6481,"euler":6482,"fuse":6483,"prefer":6484,"sep":6485,"utc":6486,"cture":6487,"adapter":6488,"artin":6489,"Nodes":6490,"handsha":6491,"234":6492,"0000000000":6493,"checking":6494,"idxs":6495,"Recursive":6496,"373":6497,"based":6498,"populate":6499,"2007":6500,"better":6501,"74c8":6502,"Searcher":6503,"rusqlite":6504,"peter":6505,"choice":6506,"instantiated":6507,"alternative":6508,"precated":6509,"detected":6510,"androide":6511,"handshake":6512,"FC":6513,"Git":6514,"Icon":6515,"WHERE":6516,"eli":6517,"gather":6518,"kv":6519,"lp":6520,"rd":6521,"setopt":6522,"decoder":6523,"develo":6524,"deprecated":6525,"Associated":6526,"funcs":6527,"subset":6528,"filtered":6529,"Recv":6530,"phase":6531,"keys2":6532,"462":6533,"overl":6534,"Sphere":6535,"Behav":6536,"Components":6537,"White":6538,"FILEPATH":6539,"E0596":6540,"similar":6541,"0x5574c8":6542,"bootstrap":6543,"Remote":6544,"negative":6545,"Symbol":6546,"TAIL":6547,"CLUDE":6548,"Utf8Error":6549,"automatically":6550,"androideabi":6551,"Behaviour":6552,"0f32":6553,"1D":6554,"GMT":6555,"Too":6556,"Zizaco":6557,"cord":6558,"dsize":6559,"mary":6560,"pot":6561,"ti":6562,"uc":6563,"x509":6564,"zone":6565,"lived":6566,"uruma":6567,"getter":6568,"notification":6569,"iod":6570,"retq":6571,"establish":6572,"lld":6573,"acters":6574,"sens":6575,"interpret":6576,"Arrays":6577,"storepass":6578,"LOW":6579,"Sched":6580,"Implementor":6581,"Super":6582,"5000":6583,"DY":6584,"GG":6585,"Mask":6586,"P1":6587,"S3":6588,"SK":6589,"Sdk":6590,"ai":6591,"elf":6592,"qa":6593,"raries":6594,"sth":6595,"oops":6596,"uction":6597,"ulus":6598,"122":6599,"Struct2":6600,"vocation":6601,"opengl":6602,"haystack":6603,"Array2":6604,"pointers":6605,"Mouse":6606,"Head":6607,"Quux":6608,"downgrade":6609,"specify":6610,"encil":6611,"labels":6612,"ffffffff":6613,"SCR":6614,"writing":6615,"Connected":6616,"480":6617,"Clock":6618,"Clear":6619,"btree":6620,"pending":6621,"x00":6622,"attack":6623,"itical":6624,"inger":6625,"rout":6626,"prot":6627,"resses":6628,"abr":6629,"filepath":6630,"completed":6631,"Extra":6632,"bert":6633,"runs":6634,"Setup":6635,"lates":6636,"REEN":6637,"DESERIALIZE":6638,"MAIN":6639,"graphql":6640,"slot":6641,"books":6642,"CONT":6643,"Schema":6644,"Click":6645,"springframework":6646,"210":6647,"CAP":6648,"Did":6649,"FUN":6650,"GO":6651,"OU":6652,"PL":6653,"Pred":6654,"Pull":6655,"TRUST":6656,"au":6657,"d64":6658,"hr":6659,"martin":6660,"tc":6661,"removing":6662,"adjust":6663,"dataset":6664,"0x01":6665,"hours":6666,"197":6667,"868":6668,"Username":6669,"arr1":6670,"Width":6671,"Decode":6672,"oniguruma":6673,"separated":6674,"Waker":6675,"Align":6676,"Authentication":6677,"additional":6678,"HANDLE":6679,"1d":6680,"Arena":6681,"MI":6682,"Sol":6683,"fdata":6684,"i3":6685,"kt":6686,"n3":6687,"sur":6688,"eries":6689,"unpack":6690,"ubuntu":6691,"wrapping":6692,"Consu":6693,"statically":6694,"E03":6695,"206":6696,"113":6697,"handling":6698,"STO":6699,"0001":6700,"versions":6701,"zipped":6702,"visitor":6703,"bitflags":6704,"clip":6705,"foreign":6706,"existing":6707,"FORE":6708,"decoded":6709,"Optim":6710,"python3":6711,"Infallible":6712,"virtual":6713,"CUBLAS":6714,"Dbacktrace":6715,"Look":6716,"MQ":6717,"PH":6718,"Sig":6719,"Shell":6720,"cent":6721,"gil":6722,"mc":6723,"nor":6724,"tq":6725,"uchar":6726,"v8":6727,"itable":6728,"allen":6729,"unbounded":6730,"assemb":6731,"cool":6732,"took":6733,"mat4":6734,"arg0":6735,"ambig":6736,"behavior":6737,"expecting":6738,"shadow":6739,"streaming":6740,"ivation":6741,"Compute":6742,"Runnable":6743,"manage":6744,"Validate":6745,"Upper":6746,"kernel32":6747,"Postgres":6748,"symbols":6749,"LINK":6750,"Bounds":6751,"Neighbors":6752,"Camera":6753,"criterion":6754,"Origin":6755,"CXX":6756,"DHE":6757,"Lion":6758,"Light":6759,"Ta":6760,"fit":6761,"gmail":6762,"hat":6763,"hmac":6764,"nx":6765,"inher":6766,"atme":6767,"anization":6768,"deserialized":6769,"mable":6770,"chapter":6771,"priv":6772,"usb":6773,"dout":6774,"igher":6775,"oref":6776,"imate":6777,"characters":6778,"0x2":6779,"0x5":6780,"0x90":6781,"lldb":6782,"INCLUDE":6783,"suc":6784,"ORY":6785,"Modi":6786,"ializing":6787,"Works":6788,"udp":6789,"variants":6790,"E0433":6791,"terminal":6792,"images":6793,"exclusive":6794,"TWA":6795,"Driver":6796,"ORDER":6797,"8d":6798,"Fe":6799,"Ltmp":6800,"MARY":6801,"credential":6802,"fu":6803,"ogram":6804,"sf":6805,"lead":6806,"reserve":6807,"arms":6808,"alg":6809,"tri":6810,"asses":6811,"urer":6812,"urse":6813,"posed":6814,"staticlib":6815,"wnd":6816,"2012":6817,"acy":6818,"Expect":6819,"INPUT":6820,"anything":6821,"cription":6822,"important":6823,"Signal":6824,"plugins":6825,"Rows":6826,"preds":6827,"SOUR":6828,"changes":6829,"Plus":6830,"alphanumeric":6831,"recursion":6832,"COLOR":6833,"7c":6834,"City":6835,"Fixed":6836,"GNU":6837,"Hal":6838,"Nickel":6839,"OFF":6840,"Pen":6841,"Vol":6842,"cg":6843,"fruit":6844,"hide":6845,"lation":6846,"nc":6847,"w1":6848,"xp":6849,"reject":6850,"fno":6851,"ural":6852,"Revocation":6853,"liblibc":6854,"period":6855,"iming":6856,"shot":6857,"jemalloc":6858,"Reflection":6859,"118":6860,"runnable":6861,"memset":6862,"minmax":6863,"ARR":6864,"gene":6865,"afu":6866,"IDIA":6867,"conns":6868,"awesome":6869,"frames":6870,"Permissions":6871,"Starting":6872,"ffffff":6873,"powi":6874,"Implementation":6875,"NVIDIA":6876,"STATUS":6877,"BITS":6878,"scheduler":6879,"Little":6880,"Archive":6881,"6C":6882,"DWORD":6883,"Diff":6884,"F64":6885,"Say":6886,"menu":6887,"stencil":6888,"ensor":6889,"determin":6890,"ross":6891,"esi":6892,"fork":6893,"fibo":6894,"name1":6895,"Type2":6896,"win64":6897,"Traits":6898,"anged":6899,"handlebars":6900,"Asso":6901,"Namespace":6902,"Peripher":6903,"grad":6904,"265":6905,"374":6906,"downloading":6907,"pinned":6908,"optimiz":6909,"ensity":6910,"Save":6911,"alphabetic":6912,"STORE":6913,"SOURCE":6914,"0B":6915,"0u32":6916,"2C":6917,"Bits":6918,"Rot":6919,"ffunction":6920,"r4":6921,"rat":6922,"zlib":6923,"ampler":6924,"itter":6925,"thyst":6926,"quad":6927,"ce2":6928,"racer":6929,"trail":6930,"food":6931,"mytype":6932,"myvec":6933,"E07":6934,"2048":6935,"threadpool":6936,"inputs":6937,"assertions":6938,"Bar2":6939,"Completed":6940,"INSER":6941,"buffers":6942,"Linux":6943,"Derive":6944,"cyg":6945,"UTC":6946,"trimmed":6947,"PATCH":6948,"Allocate":6949,"giving":6950,"solve":6951,"ITEM":6952,"precision":6953,"Letter":6954,"Digit":6955,"FUNC":6956,"INSERT":6957,"AF":6958,"DC":6959,"Go":6960,"NTHREADS":6961,"Rgba":6962,"Tm":6963,"WN":6964,"WINT":6965,"ah":6966,"balance":6967,"wsa":6968,"threshold":6969,"edia":6970,"0010":6971,"rust1":6972,"iters":6973,"movi":6974,"Reset":6975,"libusb":6976,"Selector":6977,"121":6978,"waapp":6979,"Art":6980,"Computing":6981,"INST":6982,"objs":6983,"SETT":6984,"xmm3":6985,"compatibility":6986,"MSG":6987,"Condition":6988,"SUC":6989,"FORM":6990,"Pipeline":6991,"WRITE":6992,"CERT":6993,"integral":6994,"HASH":6995,"CHECK":6996,"FAILED":6997,"okhttp3":6998,"mypwaapp":6999,"WINTRUST":7000,"1e":7001,"4f":7002,"Aw":7003,"Dialog":7004,"FD":7005,"Nrows":7006,"OB":7007,"aux":7008,"fprintf":7009,"hor":7010,"higher":7011,"jo":7012,"ju":7013,"jdk":7014,"ymd":7015,"unlock":7016,"quux":7017,"typeof":7018,"Remove":7019,"libraries":7020,"ulong":7021,"129":7022,"addq":7023,"licable":7024,"0xff":7025,"house":7026,"wake":7027,"finally":7028,"Fast":7029,"region":7030,"containing":7031,"Bean":7032,"Abc":7033,"exported":7034,"updates":7035,"Missing":7036,"CONTENT":7037,"2e":7038,"748":7039,"Bag":7040,"CLI":7041,"FIN":7042,"Master":7043,"Spe":7044,"UID":7045,"War":7046,"ares":7047,"aver":7048,"cred":7049,"eg":7050,"goto":7051,"rv":7052,"eration":7053,"desk":7054,"ch19":7055,"contact":7056,"emon":7057,"apps":7058,"var1":7059,"143":7060,"Desc":7061,"partment":7062,"tuples":7063,"ACT":7064,"Quit":7065,"200512":7066,"Auto":7067,"UND":7068,"absol":7069,"XXX":7070,"p2align":7071,"Producer":7072,"gives":7073,"workers":7074,"services":7075,"BOOL":7076,"petgraph":7077,"TSW":7078,"WORKDIR":7079,"thumbv7":7080,"glium":7081,"RESULT":7082,"213":7083,"E1":7084,"EST":7085,"FAL":7086,"Pt":7087,"Yaml":7088,"elt":7089,"kmf":7090,"stdweb":7091,"oom":7092,"amethyst":7093,"dies":7094,"addresses":7095,"compar":7096,"prepend":7097,"ifiable":7098,"Descript":7099,"RED":7100,"layers":7101,"wsdl":7102,"TIFI":7103,"Variable":7104,"guards":7105,"Such":7106,"fibs":7107,"attrs":7108,"rustd":7109,"Issue":7110,"partials":7111,"progress":7112,"Include":7113,"clicked":7114,"equivalent":7115,"movdqa":7116,"Predicate":7117,"A0":7118,"DN":7119,"HI":7120,"JKS":7121,"MIT":7122,"NET":7123,"Pol":7124,"Why":7125,"belong":7126,"came":7127,"gy":7128,"hb":7129,"ham":7130,"jor":7131,"jav":7132,"swe":7133,"uced":7134,"incorrect":7135,"queries":7136,"coer":7137,"newline":7138,"icates":7139,"Rev":7140,"readline":7141,"derick":7142,"Stdout":7143,"mapper":7144,"mapped":7145,"pers":7146,"addrs":7147,"ases":7148,"precise":7149,"140":7150,"252":7151,"404":7152,"tables":7153,"cases":7154,"ANCE":7155,"Bearer":7156,"Allocated":7157,"remainder":7158,"frederick":7159,"combined":7160,"desired":7161,"happens":7162,"deny":7163,"Chunks":7164,"Destroy":7165,"Captures":7166,"Cycle":7167,"Sequence":7168,"TAILQ":7169,"FOREACH":7170,"absolute":7171,"FALSE":7172,"0u":7173,"432":7174,"BLE":7175,"GIT":7176,"Way":7177,"Wnd":7178,"blank":7179,"eal":7180,"hu":7181,"junit":7182,"marg":7183,"nul":7184,"orwell":7185,"leton":7186,"mex":7187,"tries":7188,"str2":7189,"isan":7190,"ica":7191,"Continue":7192,"shr":7193,"bernate":7194,"134":7195,"winit":7196,"14159":7197,"Cellar":7198,"sensor":7199,"240":7200,"345":7201,"Alph":7202,"lengths":7203,"MEM":7204,"Counts":7205,"Validation":7206,"Download":7207,"dim3":7208,"Boot":7209,"MODE":7210,"mmu":7211,"constraint":7212,"authorized":7213,"E0658":7214,"mkdir":7215,"SIGN":7216,"ontology":7217,"covered":7218,"Instrument":7219,"Lower":7220,"Updating":7221,"Descriptor":7222,"Cif":7223,"EV":7224,"Fruit":7225,"Hist":7226,"Mmu":7227,"Medi":7228,"MCW":7229,"RW":7230,"Ws":7231,"Watch":7232,"aes":7233,"elems":7234,"fragment":7235,"han":7236,"hsets":7237,"jk":7238,"jvm":7239,"lvl":7240,"please":7241,"simp":7242,"uch":7243,"wsu":7244,"╌╌":7245,"relat":7246,"reak":7247,"deg":7248,"dealloc":7249,"raft":7250,"Ind":7251,"1010":7252,"setting":7253,"E0119":7254,"172":7255,"cient":7256,"Face":7257,"Angle":7258,"halt":7259,"gnitude":7260,"eps":7261,"tokenize":7262,"Alg":7263,"Prote":7264,"Enumerate":7265,"Measure":7266,"Succ":7267,"Sorted":7268,"OSX":7269,"Toolkit":7270,"HTML":7271,"uncrustify":7272,"ggie":7273,"primary":7274,"separator":7275,"Attrs":7276,"Modifi":7277,"SUCCESS":7278,"Cifram":7279,"Medium":7280,"relative":7281,"0usize":7282,"100000000":7283,"2b":7284,"766":7285,"Both":7286,"Dot":7287,"Email":7288,"Mixed":7289,"eat":7290,"fur":7291,"hib":7292,"ili":7293,"lc":7294,"oms":7295,"s0":7296,"restri":7297,"ctrl":7298,"dept":7299,"thoth":7300,"stdint":7301,"contin":7302,"Information":7303,"Rejection":7304,"she":7305,"0x000":7306,"136":7307,"winuser":7308,"270":7309,"000000000000":7310,"RESS":7311,"Forms":7312,"lastname":7313,"339":7314,"plot":7315,"visibility":7316,"Country":7317,"warnings":7318,"ANT":7319,"sequent":7320,"Receive":7321,"normalize":7322,"10000000":7323,"Matches":7324,"passes":7325,"Manage":7326,"multipart":7327,"Appear":7328,"Spawn":7329,"Deployment":7330,"6f":7331,"iness":7332,"trip":7333,"threaded":7334,"untagged":7335,"etitions":7336,"328":7337,"printer":7338,"getting":7339,"oney":7340,"romote":7341,"accounts":7342,"lists":7343,"130":7344,"144":7345,"activate":7346,"subsequent":7347,"Parallel":7348,"intern":7349,"devices":7350,"LIC":7351,"OPTIONS":7352,"xmlsoap":7353,"Foundation":7354,"optimize":7355,"E0038":7356,"adjacent":7357,"517":7358,"EF":7359,"Each":7360,"GR":7361,"GIN":7362,"Il":7363,"Lsize":7364,"Ui":7365,"b77":7366,"ftype":7367,"glyph":7368,"omp":7369,"padding":7370,"uation":7371,"xc":7372,"orth":7373,"reet":7374,"mutability":7375,"ubble":7376,"izza":7377,"rustbox":7378,"opher":7379,"readable":7380,"nocapture":7381,"Foo2":7382,"Define":7383,"ipient":7384,"node1":7385,"ystore":7386,"INTO":7387,"templates":7388,"cade":7389,"transpose":7390,"REN":7391,"anyhow":7392,"LOPT":7393,"signer":7394,"Threads":7395,"topic":7396,"Layer":7397,"SCREEN":7398,"taken":7399,"terminate":7400,"Called":7401,"rwlock":7402,"AVA":7403,"nanos":7404,"CURLOPT":7405,"Weighted":7406,"modifier":7407,"Definition":7408,"LCPI":7409,"Question":7410,"overlapping":7411,"cygwin64":7412,"rustdoc":7413,"5b":7414,"Ava":7415,"Break":7416,"Dropping":7417,"Eu":7418,"Fri":7419,"GA":7420,"Glyph":7421,"JAVA":7422,"Must":7423,"Ring":7424,"Xor":7425,"cus":7426,"gi":7427,"hood":7428,"sam":7429,"tles":7430,"xmax":7431,"semi":7432,"entrust":7433,"deque":7434,"thr":7435,"toms":7436,"issu":7437,"priority":7438,"Construct":7439,"orem":7440,"Optional":7441,"comments":7442,"2013":7443,"avig":7444,"antic":7445,"Streaming":7446,"ners":7447,"dbus":7448,"instances":7449,"latz":7450,"grant":7451,"boundary":7452,"bodies":7453,"converted":7454,"specialization":7455,"0399":7456,"ABASE":7457,"declare":7458,"Rendering":7459,"DATABASE":7460,"Castle":7461,"BYTES":7462,"Fibonacci":7463,"exponent":7464,"friends":7465,"frequency":7466,"Half":7467,"380":7468,"7E":7469,"AMP":7470,"Bra":7471,"Ball":7472,"EW":7473,"Ping":7474,"Pdf":7475,"WAR":7476,"jne":7477,"tst":7478,"van":7479,"ym":7480,"analy":7481,"descript":7482,"delimiter":7483,"unfold":7484,"maven":7485,"loops":7486,"ifdef":7487,"Require":7488,"libunwind":7489,"Resol":7490,"travis":7491,"Iterate":7492,"166":7493,"lications":7494,"daemon":7495,"Outcome":7496,"142":7497,"170":7498,"ignite":7499,"deploy":7500,"initialization":7501,"haust":7502,"Todo":7503,"linux64":7504,"229":7505,"Creates":7506,"popq":7507,"8888":7508,"Active":7509,"Numbers":7510,"TRY":7511,"c1e0":7512,"PROG":7513,"concat2":7514,"cards":7515,"srv":7516,"REGION":7517,"declaration":7518,"camel":7519,"hibit":7520,"164":7521,"6B":7522,"LY":7523,"Media":7524,"Pret":7525,"QUE":7526,"Sty":7527,"Usage":7528,"Wextra":7529,"jpg":7530,"kg":7531,"nm":7532,"nn":7533,"nsec":7534,"sib":7535,"tell":7536,"uv":7537,"u7b":7538,"u7d":7539,"repla":7540,"sever":7541,"trl":7542,"ascript":7543,"editor":7544,"exhaust":7545,"ce3":7546,"prag":7547,"fizz":7548,"resume":7549,"gether":7550,"isters":7551,"Readable":7552,"httpbin":7553,"dao":7554,"win32":7555,"bins":7556,"typed":7557,"MAND":7558,"Quad":7559,"Buffers":7560,"2001":7561,"E0506":7562,"pki":7563,"Transfer":7564,"Greet":7565,"Constant":7566,"COMMAND":7567,"greetings":7568,"accumulator":7569,"Fluid":7570,"Immutable":7571,"Facades":7572,"guessed":7573,"DISPATCH":7574,"optimizely":7575,"0i32":7576,"224":7577,"4a":7578,"764":7579,"Atoms":7580,"Distr":7581,"Gl":7582,"Grand":7583,"Push":7584,"Sensor":7585,"WH":7586,"WT":7587,"Whe":7588,"bv":7589,"cents":7590,"grand":7591,"human":7592,"lsum":7593,"pref":7594,"pdf":7595,"scalar":7596,"t8":7597,"itself":7598,"arily":7599,"anana":7600,"rooms":7601,"tect":7602,"rcular":7603,"props":7604,"collatz":7605,"mylib":7606,"pushq":7607,"199":7608,"145":7609,"Prog":7610,"Unordered":7611,"posite":7612,"348":7613,"verts":7614,"Pers":7615,"37d0":7616,"rtn":7617,"ITER":7618,"Thingy":7619,"Extend":7620,"syntect":7621,"products":7622,"personality":7623,"ansactions":7624,"gorithms":7625,"Edit":7626,"0x00007":7627,"Assertion":7628,"Blah":7629,"ECDSA":7630,"Alias":7631,"Facade":7632,"Critical":7633,"further":7634,"pragma":7635,"112":7636,"3A":7637,"3b":7638,"4E":7639,"430":7640,"BF":7641,"GEN":7642,"Ha":7643,"Mu":7644,"Rom":7645,"RHS":7646,"Title":7647,"Zyg":7648,"cactus":7649,"ka":7650,"kil":7651,"l1":7652,"sopher":7653,"tan":7654,"erature":7655,"ley":7656,"reserved":7657,"qux":7658,"eces":7659,"fixture":7660,"els":7661,"maph":7662,"salt":7663,"Results":7664,"artisan":7665,"shal":7666,"compose":7667,"hour":7668,"Prof":7669,"typenum":7670,"ATURE":7671,"func2":7672,"capital":7673,"pieces":7674,"Shadow":7675,"producer":7676,"TED":7677,"ANS":7678,"UNI":7679,"Rawlink":7680,"coordinate":7681,"Abort":7682,"libswe":7683,"SUB":7684,"placeholders":7685,"brown":7686,"Developer":7687,"ilosopher":7688,"Appearance":7689,"Zygote":7690,"1u32":7691,"6d":7692,"AUTH":7693,"B0":7694,"Ctxt":7695,"Ctrl":7696,"Font":7697,"Hor":7698,"Mil":7699,"RRP":7700,"dgram":7701,"pw":7702,"wst":7703,"restore":7704,"unset":7705,"intext":7706,"idge":7707,"rustls":7708,"iterations":7709,"geometry":7710,"amd64":7711,"percent":7712,"currency":7713,"immediate":7714,"plaintext":7715,"Encoded":7716,"137":7717,"Props":7718,"178":7719,"306":7720,"Keyboard":7721,"func1":7722,"ARB":7723,"MASK":7724,"obj1":7725,"postfix":7726,"guar":7727,"swis":7728,"463":7729,"Subscription":7730,"offsets":7731,"Attributes":7732,"Float3":7733,"pump":7734,"senders":7735,"scanner":7736,"sym":7737,"Whitespace":7738,"LBB6":7739,"termion":7740,"Inclusive":7741,"ECDHE":7742,"animation":7743,"browser":7744,"claims":7745,"1C":7746,"C2":7747,"EPO":7748,"FR":7749,"Fragment":7750,"Hold":7751,"Same":7752,"away":7753,"cart":7754,"hms":7755,"hpp":7756,"oauth":7757,"sal":7758,"svc":7759,"��":7760,"decoding":7761,"tried":7762,"trieve":7763,"unboxed":7764,"Inhibit":7765,"Stores":7766,"fake":7767,"208":7768,"song":7769,"appender":7770,"Reading":7771,"iterators":7772,"Listen":7773,"STAR":7774,"summary":7775,"Observable":7776,"subcommand":7777,"ARED":7778,"osite":7779,"Also":7780,"ressani":7781,"MAC":7782,"Metric":7783,"graphy":7784,"stephan":7785,"Children":7786,"xmm5":7787,"merged":7788,"aliases":7789,"EXT":7790,"Uint8":7791,"chris":7792,"everything":7793,"0c27":7794,"prevents":7795,"Multiple":7796,"escape":7797,"migrations":7798,"COMPIL":7799,"Solution":7800,"thumbv7em":7801,"Modifier":7802,"Illegal":7803,"Available":7804,"186":7805,"230":7806,"5i32":7807,"BIN":7808,"CLOCK":7809,"CMD":7810,"DF":7811,"Don":7812,"FN":7813,"JE":7814,"Lam":7815,"Luint":7816,"Pixbuf":7817,"Tw":7818,"Tick":7819,"ZER":7820,"ole":7821,"scat":7822,"lto":7823,"enar":7824,"aligned":7825,"urlen":7826,"tery":7827,"iter1":7828,"opposite":7829,"Reverse":7830,"libfoo":7831,"libgcc":7832,"Demo":7833,"assigned":7834,"bark":7835,"acle":7836,"defaults":7837,"Particle":7838,"substring":7839,"subscription":7840,"26e":7841,"istrator":7842,"phones":7843,"MANI":7844,"Creating":7845,"sources":7846,"requirement":7847,"allows":7848,"Varchar":7849,"fds":7850,"ABI":7851,"Logged":7852,"cores":7853,"7f7f":7854,"Suit":7855,"bottles":7856,"ICE0":7857,"Primary":7858,"ebressani":7859,"PRICE0":7860,"instantiate":7861,"MOD":7862,"multirust":7863,"Normalize":7864,"recovery":7865,"FEST":7866,"2f2d":7867,"AVL":7868,"3c10":7869,"distributions":7870,"Keystore":7871,"ZN3std":7872,"sensitive":7873,"javascript":7874,"DISPATCHPRICE0":7875,"Distribution":7876,"stephanebressani":7877,"scatter":7878,"enario":7879,"MANIFEST":7880,"1c":7881,"3e":7882,"Cub":7883,"Ddata":7884,"FB":7885,"RV":7886,"Rpc":7887,"Tab":7888,"Tom":7889,"crc":7890,"ised":7891,"jax":7892,"mgr":7893,"pressed":7894,"seph":7895,"associ":7896,"chat":7897,"checker":7898,"api32":7899,"apshot":7900,"eta":7901,"serializing":7902,"opcode":7903,"libpanic":7904,"ctories":7905,"ulated":7906,"Deleg":7907,"126c":7908,"Typed":7909,"0x12":7910,"Extract":7911,"winrm":7912,"STATE":7913,"Compar":7914,"00000000000":7915,"messenger":7916,"288":7917,"dependent":7918,"SHARED":7919,"builtin":7920,"MBER":7921,"Hibernate":7922,"Else":7923,"attempted":7924,"goodbye":7925,"underlying":7926,"BEGIN":7927,"SYST":7928,"Combined":7929,"Utils":7930,"invok":7931,"ZN4core":7932,"TPB":7933,"GCM":7934,"graphemes":7935,"assembler":7936,"TIFIC":7937,"c1e0d4":7938,"2f2d126c":7939,"3c102f2d126c":7940,"3c102f2d126c37d0":7941,"BC":7942,"CALL":7943,"GER":7944,"GLE":7945,"Mag":7946,"Pet":7947,"Src":7948,"USA":7949,"bct":7950,"flate":7951,"ires":7952,"pixbuf":7953,"ril":7954,"sand":7955,"wers":7956,"ltype":7957,"reinterpret":7958,"strum":7959,"except":7960,"ceil":7961,"idata":7962,"clause":7963,"mapping":7964,"mystring":7965,"shap":7966,"E0369":7967,"competitions":7968,"istent":7969,"included":7970,"floats":7971,"146":7972,"cudart":7973,"305":7974,"regexp":7975,"LEMENT":7976,"Mesh":7977,"phys":7978,"Handlers":7979,"Direct":7980,"Hosting":7981,"helpers":7982,"pretend":7983,"advapi32":7984,"1234567890123456789012345678901234567890":7985,"palind":7986,"makes":7987,"0D":7988,"2u8":7989,"3a":7990,"746":7991,"BL":7992,"Center":7993,"Crate":7994,"GS":7995,"Ram":7996,"Te":7997,"epo":7998,"eating":7999,"gue":8000,"lua":8001,"oids":8002,"pq":8003,"rpath":8004,"ranges":8005,"went":8006,"att":8007,"relocation":8008,"ec03":8009,"extr":8010,"cluster":8011,"noalias":8012,"endril":8013,"Mapping":8014,"169":8015,"licated":8016,"weather":8017,"modulus":8018,"1824":8019,"179":8020,"STD":8021,"hosts":8022,"Description":8023,"filters":8024,"Doe":8025,"autoref":8026,"Int4":8027,"packing":8028,"Price":8029,"agno":8030,"guid":8031,"THIS":8032,"resolution":8033,"tiny":8034,"cryption":8035,"merch":8036,"Visible":8037,"divid":8038,"documentation":8039,"bracket":8040,"decltype":8041,"SOCK":8042,"smaller":8043,"quickcheck":8044,"NDK":8045,"separate":8046,"Dispatcher":8047,"utf16":8048,"experimental":8049,"recognized":8050,"Bouncy":8051,"462ce3":8052,"Scheduler":8053,"868462ce3":8054,"MQTT":8055,"ce2ec03":8056,"Criticality":8057,"urlencoded":8058,"c1e0d450":8059,"ce2ec03868462ce3":8060,"1a":8061,"Cs":8062,"Folder":8063,"IM":8064,"LLO":8065,"Pop":8066,"Sf":8067,"TCP":8068,"avel":8069,"ode":8070,"press":8071,"tf":8072,"till":8073,"uk":8074,"oracle":8075,"mps":8076,"itness":8077,"ante":8078,"unzip":8079,"00Z":8080,"izable":8081,"ups":8082,"colors":8083,"Dead":8084,"mystruct":8085,"comma":8086,"spin":8087,"Threaded":8088,"13d":8089,"147":8090,"fety":8091,"pyfunction":8092,"242":8093,"33e4":8094,"Alerts":8095,"parents":8096,"responses":8097,"wsl":8098,"Creation":8099,"Phys":8100,"LOOP":8101,"Short":8102,"TEE":8103,"CHUNK":8104,"psz":8105,"multiplier":8106,"Need":8107,"against":8108,"launcher":8109,"hmhs":8110,"SERVER":8111,"123456789":8112,"E0283":8113,"ADDRESS":8114,"ientation":8115,"Primes":8116,"Detail":8117,"Extractor":8118,"desktop":8119,"swisseph":8120,"220":8121,"Ast":8122,"Balance":8123,"Dropped":8124,"DCMAKE":8125,"High":8126,"O2":8127,"PC":8128,"Sent":8129,"TAL":8130,"VID":8131,"dna":8132,"finger":8133,"ini":8134,"inbounds":8135,"ories":8136,"mpf":8137,"memo":8138,"liseconds":8139,"isy":8140,"consum":8141,"map2":8142,"says":8143,"probe":8144,"projection":8145,"preview":8146,"opening":8147,"translation":8148,"defines":8149,"sug":8150,"ARD":8151,"Tokenizer":8152,"intersect":8153,"grind":8154,"Fire":8155,"02x":8156,"passwd":8157,"390":8158,"089":8159,"benchmark":8160,"dereferenced":8161,"6790":8162,"UNIX":8163,"zeroed":8164,"xsd":8165,"xmmword":8166,"768":8167,"constants":8168,"RAW":8169,"equals":8170,"Marshal":8171,"EEE":8172,"0x109":8173,"cvt":8174,"stm32f3":8175,"214748":8176,"recognize":8177,"TPM":8178,"observers":8179,"authentication":8180,"Panic":8181,"credentials":8182,"Assoc":8183,"Awesome":8184,"margin":8185,"descriptor":8186,"JECT":8187,"986":8188,"IMAP":8189,"Mvc":8190,"Managed":8191,"NAN":8192,"O0":8193,"OW":8194,"Pad":8195,"Soft":8196,"bi":8197,"ldd":8198,"nice":8199,"ncols":8200,"pic":8201,"promise":8202,"welcome":8203,"yml":8204,"cth":8205,"think":8206,"strct":8207,"lid":8208,"320":8209,"ulli":8210,"extensions":8211,"keypair":8212,"161":8213,"Chrome":8214,"Addrs":8215,"caused":8216,"Anch":8217,"become":8218,"maximum":8219,"classpath":8220,"gencode":8221,"operand":8222,"DEVICE":8223,"sockets":8224,"477":8225,"Base64":8226,"General":8227,"Without":8228,"kinds":8229,"When":8230,"LBB1":8231,"explicitly":8232,"Vector3D":8233,"Fails":8234,"staff":8235,"eugene":8236,"Warning":8237,"flate2":8238,"212":8239,"225":8240,"8b":8241,"C1":8242,"D2":8243,"Mail":8244,"OC":8245,"Qux":8246,"RAND":8247,"TRU":8248,"VIC":8249,"blog":8250,"cstr":8251,"cfa":8252,"had":8253,"hack":8254,"managed":8255,"siv":8256,"t6":8257,"uw":8258,"y0":8259,"stic":8260,"seat":8261,"asd":8262,"ederation":8263,"cow":8264,"derp":8265,"ofday":8266,"Stage":8267,"itecture":8268,"fac":8269,"refresh":8270,"crim":8271,"Cost":8272,"shl":8273,"Nope":8274,"165":8275,"appassembler":8276,"0x9":8277,"avy":8278,"collect2":8279,"collected":8280,"198":8281,"139":8282,"1337":8283,"148":8284,"Unbounded":8285,"array2":8286,"omic":8287,"minutes":8288,"248":8289,"haha":8290,"Objects":8291,"Array1":8292,"3856":8293,"Collect":8294,"monic":8295,"Contained":8296,"ADER":8297,"disk":8298,"Rocket":8299,"sentence":8300,"chronous":8301,"drawing":8302,"ZN6":8303,"pkcs":8304,"Variants":8305,"c1b":8306,"probably":8307,"sessions":8308,"widgets":8309,"Authority":8310,"greeting":8311,"provides":8312,"subscribe":8313,"gettimeofday":8314,"allenge":8315,"cgmath":8316,"trailing":8317,"c1e0d45051":8318,"TRUE":8319,"Jump":8320,"Ld":8321,"Lint":8322,"Lfloat":8323,"Nat":8324,"PD":8325,"R2":8326,"Tl":8327,"V6":8328,"aer":8329,"bubble":8330,"dur":8331,"fvec":8332,"six":8333,"xcb":8334,"lev":8335,"seem":8336,"itives":8337,"copt":8338,"isoned":8339,"izz":8340,"cks":8341,"ilities":8342,"getelement":8343,"puts":8344,"cancel":8345,"209":8346,"Fnv":8347,"Buzz":8348,"0x02":8349,"obtain":8350,"opened":8351,"Asset":8352,"debugging":8353,"34e":8354,"ccc":8355,"Win10":8356,"Notify":8357,"ACCESS":8358,"Things":8359,"Dict":8360,"Paren":8361,"syncth":8362,"Suites":8363,"HELLO":8364,"Ipv6":8365,"Backtrace":8366,"Caches":8367,"Zipper":8368,"descr":8369,"BASE":8370,"histogram":8371,"00000000000000000000000000000000000000000000000000000000000000000000000000000000000000000000000000000000000000000000000000000000":8372,"Spring":8373,"whether":8374,"SDL":8375,"Bounded":8376,"Bootstrap":8377,"Management":8378,"SYSTEM":8379,"shapes":8380,"214748364":8381,"getelementptr":8382,"syncthreads":8383,"0a":8384,"0s":8385,"F5":8386,"Gz":8387,"Promise":8388,"RIGHT":8389,"Sleep":8390,"du":8391,"dates":8392,"mich":8393,"segs":8394,"department":8395,"coins":8396,"together":8397,"etype":8398,"team":8399,"ifo":8400,"hero":8401,"clamp":8402,"value3":8403,"noun":8404,"aming":8405,"amma":8406,"string2":8407,"Contra":8408,"ulse":8409,"pective":8410,"shim":8411,"Noisy":8412,"applicable":8413,"0x56":8414,"Than":8415,"190":8416,"176":8417,"Wrong":8418,"validation":8419,"iring":8420,"log4":8421,"interior":8422,"idents":8423,"Comment":8424,"5619":8425,"295":8426,"agon":8427,"castle":8428,"Moves":8429,"ACITY":8430,"systems":8431,"House":8432,"200401":8433,"Contains":8434,"awc":8435,"installing":8436,"nonoverlapping":8437,"doesnt":8438,"Counting":8439,"Blocking":8440,"FAIL":8441,"squares":8442,"PROC":8443,"Never":8444,"executed":8445,"RAM":8446,"gnueabi":8447,"media":8448,"annotation":8449,"cleanup":8450,"primitives":8451,"107374":8452,"rier":8453,"Incline":8454,"Ignore":8455,"d633e4":8456,"octets":8457,"mqtt":8458,"CAPACITY":8459,"i386":8460,"INSTANCE":8461,"SETTLEMENT":8462,"WARN":8463,"REGIONID":8464,"killed":8465,"maphore":8466,"Listening":8467,"USAGE":8468,"VIC1":8469,"SETTLEMENTDATE":8470,"1usize":8471,"232":8472,"2i32":8473,"4b":8474,"798":8475,"D1":8476,"Mep":8477,"NONE":8478,"P0":8479,"SN":8480,"Tak":8481,"ama":8482,"ael":8483,"cities":8484,"i128":8485,"por":8486,"alog":8487,"unordered":8488,"lision":8489,"confi":8490,"640":8491,"name2":8492,"000001":8493,"proceed":8494,"file1":8495,"oundio":8496,"rend":8497,"E0463":8498,"heart":8499,"complicated":8500,"codewords":8501,"195":8502,"138":8503,"151":8504,"153":8505,"cuh":8506,"185":8507,"Arbitrary":8508,"care":8509,"Answ":8510,"little":8511,"Point3":8512,"Requested":8513,"released":8514,"pop3":8515,"jsse":8516,"Expand":8517,"Adder":8518,"0x0000000":8519,"Channels":8520,"SECP":8521,"necessarily":8522,"xxxxxxxx":8523,"scratch":8524,"Organization":8525,"Axis":8526,"WINDOW":8527,"Choice":8528,"palindrome":8529,"epoch":8530,"Answer":8531,"011":8532,"1f64":8533,"A3":8534,"Asp":8535,"Bson":8536,"Blob":8537,"D6":8538,"DR":8539,"Ds":8540,"Dns":8541,"Econ":8542,"Ecs":8543,"Fitness":8544,"Rules":8545,"V3":8546,"Yield":8547,"ale":8548,"cz":8549,"dfs":8550,"dropping":8551,"gm":8552,"hv":8553,"hid":8554,"hol":8555,"ians":8556,"kd":8557,"mdb":8558,"padd":8559,"qr":8560,"rnd":8561,"vity":8562,"vcp":8563,"xz":8564,"lef":8565,"deallocate":8566,"though":8567,"fnv":8568,"muta":8569,"apis":8570,"idia":8571,"buzz":8572,"libssl":8573,"classes":8574,"endian":8575,"retval":8576,"testwsl":8577,"Conf":8578,"ref1":8579,"programs":8580,"mywork":8581,"Couple":8582,"result2":8583,"E0373":8584,"204":8585,"0x108":8586,"Expi":8587,"Debugger":8588,"196":8589,"3030":8590,"effi":8591,"questions":8592,"LEASE":8593,"Perform":8594,"recipient":8595,"operate":8596,"Win32":8597,"ROW":8598,"Registr":8599,"789":8600,"module1":8601,"SHADER":8602,"addressing":8603,"ndk":8604,"manip":8605,"xmm4":8606,"GLF":8607,"problems":8608,"libsoundio":8609,"taking":8610,"a2b":8611,"Peer":8612,"Peano":8613,"overflowed":8614,"reached":8615,"Widgets":8616,"VIEW":8617,"Macro":8618,"CERTIFIC":8619,"adjacency":8620,"PASS":8621,"Would":8622,"routines":8623,"Friend":8624,"Delegating":8625,"sandbox":8626,"crimin":8627,"levant":8628,"michael":8629,"Economic":8630,"vcpkg":8631,"223":8632,"6detail":8633,"A5":8634,"Alter":8635,"DS":8636,"EB":8637,"F0":8638,"Fizz":8639,"GCC":8640,"R0":8641,"Twa":8642,"Tabs":8643,"Yes":8644,"bx":8645,"ele":8646,"fm":8647,"fbb":8648,"lpsz":8649,"zv":8650,"stor":8651,"ltk":8652,"utter":8653,"nemonic":8654,"asdf":8655,"lik":8656,"loper":8657,"004":8658,"printable":8659,"abb":8660,"outgoing":8661,"paint":8662,"Mapped":8663,"linear":8664,"computer":8665,"list2":8666,"modbus":8667,"Encrypt":8668,"floating":8669,"149":8670,"Choose":8671,"closing":8672,"Copied":8673,"minus":8674,"temperature":8675,"causes":8676,"809":8677,"LEVE":8678,"sysroot":8679,"Getter":8680,"defer":8681,"DES":8682,"agg":8683,"joined":8684,"visual":8685,"monstr":8686,"satur":8687,"operators":8688,"cycastle":8689,"Logging":8690,"framed":8691,"snafu":8692,"zzz":8693,"Opts":8694,"software":8695,"snipsco":8696,"bouncycastle":8697,"actors":8698,"mockers":8699,"npm":8700,"encrypted":8701,"embedded":8702,"65536":8703,"division":8704,"neighbours":8705,"Merge":8706,"leading":8707,"Protect":8708,"Progress":8709,"guarante":8710,"guest":8711,"LEVEL":8712,"5d":8713,"6E":8714,"6b":8715,"858":8716,"CAC":8717,"F4":8718,"Fill":8719,"FRA":8720,"Gpu":8721,"Hint":8722,"Prev":8723,"Ten":8724,"TAG":8725,"Us":8726,"USECP":8727,"Vide":8728,"dash":8729,"dns":8730,"gla":8731,"nid":8732,"rg":8733,"r15":8734,"simpl":8735,"tabs":8736,"wall":8737,"relevant":8738,"sem":8739,"selection":8740,"ala":8741,"deci":8742,"those":8743,"Stri":8744,"uming":8745,"Star":8746,"upsert":8747,"prof":8748,"crash":8749,"file2":8750,"keyboard":8751,"artist":8752,"ssible":8753,"compressed":8754,"Tracer":8755,"131":8756,"135":8757,"Provide":8758,"254":8759,"174":8760,"175":8761,"minimal":8762,"movable":8763,"Particles":8764,"hashbrown":8765,"358":8766,"Przv":8767,"md5":8768,"Health":8769,"Ship":8770,"Internet":8771,"vcx":8772,"Identifiable":8773,"ZN10":8774,"Dimension":8775,"Started":8776,"equality":8777,"related":8778,"frus":8779,"Elm":8780,"tarpc":8781,"occurren":8782,"Doesn":8783,"parking":8784,"smooth":8785,"Cancel":8786,"SRC":8787,"E0310":8788,"ambiguous":8789,"EVENT":8790,"sheet":8791,"triple":8792,"Style":8793,"CERTIFICATE":8794,"USECPSEC":8795,"0C":8796,"0u64":8797,"5A":8798,"736":8799,"Emit":8800,"Fifo":8801,"I64":8802,"Oct":8803,"Offi":8804,"Px":8805,"PING":8806,"RAN":8807,"Scr":8808,"Tip":8809,"TOP":8810,"UM":8811,"UUID":8812,"XY":8813,"cm":8814,"frag":8815,"nxt":8816,"pulse":8817,"udo":8818,"retrieve":8819,"secp":8820,"seven":8821,"lette":8822,"unavailable":8823,"touch":8824,"lour":8825,"325":8826,"326":8827,"servo":8828,"readonly":8829,"upstream":8830,"126":8831,"E0107":8832,"charset":8833,"redux":8834,"Prop":8835,"Undefined":8836,"Unmovable":8837,"154":8838,"user32":8839,"INDE":8840,"INTE":8841,"243":8842,"ifications":8843,"ARM":8844,"latitude":8845,"222":8846,"REF":8847,"RELEASE":8848,"Linq":8849,"wsse":8850,"Creator":8851,"Attrib":8852,"Framework":8853,"Suite":8854,"pkt":8855,"Downloading":8856,"radians":8857,"PROTO":8858,"musle":8859,"3d7":8860,"Building":8861,"b2e":8862,"Compatibility":8863,"ASM":8864,"ECDH":8865,"Invocation":8866,"schedule":8867,"inesis":8868,"XXXXXXXX":8869,"Claims":8870,"natives":8871,"WINDOWS":8872,"supplied":8873,"Peripheral":8874,"E0716":8875,"degree":8876,"Measurement":8877,"exhaustive":8878,"Software":8879,"Ldap":8880,"0A":8881,"BRO":8882,"F3":8883,"F9":8884,"Play":8885,"Plain":8886,"Tx":8887,"Void":8888,"WM":8889,"a5c":8890,"dvec":8891,"jw":8892,"inator":8893,"reci":8894,"tro":8895,"unic":8896,"ecast":8897,"exc":8898,"ada":8899,"002":8900,"entire":8901,"filled":8902,"conv":8903,"illa":8904,"iter2":8905,"matth":8906,"Incoming":8907,"libpq":8908,"Stud":8909,"out1":8910,"beat":8911,"fee":8912,"E060":8913,"indexer":8914,"acquire":8915,"thing2":8916,"Unwrap":8917,"memchr":8918,"playpen":8919,"Sets":8920,"Fake":8921,"dedup":8922,"LEFT":8923,"interest":8924,"pi2":8925,"population":8926,"788":8927,"bitfield":8928,"Decor":8929,"Decre":8930,"failures":8931,"pedantic":8932,"synchron":8933,"internals":8934,"675":8935,"LIST":8936,"5432":8937,"bigdecimal":8938,"milliseconds":8939,"sprites":8940,"exactly":8941,"ciphertext":8942,"runners":8943,"neighbors":8944,"UTF8":8945,"PREFIX":8946,"pickle":8947,"Appro":8948,"triangles":8949,"abric":8950,"b77a5c":8951,"34e089":8952,"561934e089":8953,"1073741824":8954,"d633e4c1e0d45051":8955,"Student":8956,"b77a5c561934e089":8957,"211":8958,"3u8":8959,"4d":8960,"6e":8961,"Bdynamic":8962,"Cred":8963,"D0":8964,"GB":8965,"Jad":8966,"LF":8967,"M2":8968,"MAT":8969,"Rtl":8970,"Sin":8971,"Slow":8972,"WA":8973,"bstr":8974,"dav":8975,"hp":8976,"hicle":8977,"nll":8978,"nrows":8979,"trend":8980,"vg":8981,"repro":8982,"itto":8983,"arith":8984,"deep":8985,"transactions":8986,"unsized":8987,"stra":8988,"strlen":8989,"ceeded":8990,"ooled":8991,"uby":8992,"concurrent":8993,"imper":8994,"uel":8995,"illegal":8996,"Incomplete":8997,"train":8998,"10f64":8999,"Cont":9000,"updat":9001,"refers":9002,"proguard":9003,"perm":9004,"Coer":9005,"201":9006,"heavy":9007,"0xb":9008,"Thr":9009,"thing1":9010,"17hf":9011,"Futures":9012,"subtract":9013,"anymore":9014,"Mat4":9015,"These":9016,"DEF":9017,"Hosts":9018,"disconnected":9019,"cpython":9020,"Models":9021,"ETA":9022,"NOTE":9023,"bignum":9024,"OPT":9025,"Records":9026,"Validity":9027,"pkgs":9028,"PROVID":9029,"0x00005555":9030,"directed":9031,"partially":9032,"Conduit":9033,"SUM":9034,"combinations":9035,"recover":9036,"Qt5Widgets":9037,"behav":9038,"firebase":9039,"modification":9040,"divisor":9041,"PRIMARY":9042,"making":9043,"btn":9044,"migration":9045,"completion":9046,"Virtual":9047,"cheap":9048,"Alignment":9049,"CLIENT":9050,"cusp":9051,"issuer":9052,"immediately":9053,"ZERO":9054,"criminant":9055,"likely":9056,"Officer":9057,"PROVIDER":9058,"2A":9059,"2B":9060,"4e":9061,"Alice":9062,"C3":9063,"E6":9064,"East":9065,"Hit":9066,"Kit":9067,"MU":9068,"Mmap":9069,"Score":9070,"VT":9071,"Wmissing":9072,"Welcome":9073,"bal":9074,"cbegin":9075,"cstdlib":9076,"egg":9077,"gv":9078,"jj":9079,"mixed":9080,"mnemonic":9081,"rp":9082,"wc":9083,"xlib":9084,"infix":9085,"restrict":9086,"alice":9087,"deb":9088,"fn1":9089,"lost":9090,"usable":9091,"iterable":9092,"iterexample":9093,"Requ":9094,"vim":9095,"splice":9096,"Refs":9097,"streamer":9098,"Unsize":9099,"Unauthorized":9100,"152":9101,"15f":9102,"implementing":9103,"173":9104,"alloca":9105,"nullptr":9106,"splitn":9107,"ghi":9108,"385":9109,"38f":9110,"hygi":9111,"overlay":9112,"Mean":9113,"Shr":9114,"integers":9115,"ceries":9116,"POINT":9117,"Whatever":9118,"milk":9119,"providers":9120,"predicates":9121,"Reduce":9122,"incremental":9123,"relations":9124,"incip":9125,"Monitor":9126,"Green":9127,"MODU":9128,"EPS":9129,"velope":9130,"Acceptor":9131,"much":9132,"0x00007f2d":9133,"bitmapdata":9134,"decrypted":9135,"student":9136,"centroids":9137,"development":9138,"uchar4":9139,"invoked":9140,"Contravariant":9141,"INDEX":9142,"hygiene":9143,"MODULE":9144,"0e":9145,"696":9146,"7D":9147,"Agg":9148,"Bro":9149,"C8":9150,"Drain":9151,"Dao":9152,"EAL":9153,"GLIB":9154,"Jo":9155,"Jun":9156,"KEN":9157,"Mus":9158,"N1":9159,"Pooled":9160,"TB":9161,"VEC":9162,"WND":9163,"har":9164,"hwnd":9165,"nick":9166,"oa":9167,"odata":9168,"r9":9169,"uh":9170,"xpath":9171,"─┼":9172,"alone":9173,"deli":9174,"neon":9175,"lime":9176,"exer":9177,"adb":9178,"adapt":9179,"enticate":9180,"idi":9181,"matt":9182,"heres":9183,"libcrypto":9184,"law1":9185,"tester":9186,"Delimiter":9187,"fft":9188,"203":9189,"reduced":9190,"timeval":9191,"array1":9192,"309":9193,"Changed":9194,"Keyed":9195,"misc":9196,"2398":9197,"phrase":9198,"Phase":9199,"39a":9200,"singleton":9201,"Dice":9202,"6666":9203,"└───":9204,"BUS":9205,"consumes":9206,"Disconnected":9207,"idsulli":9208,"Loading":9209,"frank":9210,"cookies":9211,"atoi":9212,"Swap":9213,"Axes":9214,"registration":9215,"frac":9216,"Rotation":9217,"movie":9218,"comparison":9219,"DNDEBUG":9220,"History":9221,"Uint8Array":9222,"c1bac":9223,"GLFW":9224,"vcxproj":9225,"davidsulli":9226,"Coerce":9227,"davidsullivan":9228,"780":9229,"932":9230,"A4":9231,"B7":9232,"Bstatic":9233,"Banana":9234,"CMS":9235,"Duck":9236,"Hol":9237,"Hero":9238,"HMAC":9239,"OID":9240,"Rule":9241,"Rank":9242,"Sys":9243,"Ts":9244,"Tue":9245,"Walk":9246,"X1":9247,"ja":9248,"jn":9249,"ko":9250,"kr":9251,"pxor":9252,"sb":9253,"tbl":9254,"v5":9255,"zs":9256,"ancy":9257,"otify":9258,"deposit":9259,"uninstall":9260,"unless":9261,"quent":9262,"asci":9263,"loquent":9264,"008":9265,"veggie":9266,"terms":9267,"rcc":9268,"6448":9269,"Inch":9270,"Inline":9271,"libcurl":9272,"libcompiler":9273,"amt":9274,"Street":9275,"map1":9276,"ollow":9277,"bem":9278,"facade":9279,"statistics":9280,"fun2":9281,"somewhere":9282,"ptrs":9283,"crease":9284,"Unsized":9285,"155":9286,"183":9287,"188":9288,"arrayvec":9289,"273":9290,"ERIC":9291,"jsonrpc":9292,"Copyable":9293,"997":9294,"429":9295,"panics":9296,"anagrams":9297,"suit":9298,"autoc":9299,"Messa":9300,"ORS":9301,"Indexes":9302,"Princip":9303,"ague":9304,"367":9305,"448":9306,"392":9307,"replacement":9308,"prodsearch":9309,"666":9310,"888":9311,"sequential":9312,"corners":9313,"Blocks":9314,"alignment":9315,"LIBPATH":9316,"EXEC":9317,"SHA384":9318,"libssh":9319,"f3ce":9320,"MSVC":9321,"business":9322,"0x7fff":9323,"denom":9324,"stm32f":9325,"vvvv":9326,"atoms":9327,"HEADER":9328,"jbossweb":9329,"Development":9330,"Understand":9331,"Homebrew":9332,"Radix":9333,"inherent":9334,"belongs":9335,"shrink":9336,"Instrumentation":9337,"Pretty":9338,"WTD":9339,"EPOCH":9340,"Twitter":9341,"Scrt1":9342,"INTEGER":9343,"Jaden":9344,"7a":9345,"840":9346,"9C":9347,"Ai":9348,"Aand":9349,"B8":9350,"FY":9351,"FLO":9352,"Kee":9353,"Navig":9354,"PLT":9355,"S0":9356,"Sound":9357,"Tmp":9358,"Wire":9359,"blast":9360,"drag":9361,"eth":9362,"gap":9363,"gflip":9364,"gamma":9365,"h0":9366,"mir":9367,"ovy":9368,"ran":9369,"snd":9370,"vin":9371,"ya":9372,"incr":9373,"erase":9374,"attrib":9375,"argt":9376,"algorithms":9377,"rodata":9378,"ecs":9379,"main17hf":9380,"elaer":9381,"getopt":9382,"Stored":9383,"be5":9384,"beuck":9385,"Confi":9386,"Contact":9387,"Debeuck":9388,"extre":9389,"movement":9390,"emscript":9391,"timed":9392,"timezone":9393,"ac88":9394,"Profile":9395,"177":9396,"Copyright":9397,"Applies":9398,"Applications":9399,"SSION":9400,"longitude":9401,"REL":9402,"obj2":9403,"368":9404,"Configur":9405,"groovy":9406,"ACCE":9407,"exited":9408,"RUCT":9409,"views":9410,"Shift":9411,"sine":9412,"faceblast":9413,"manually":9414,"labla":9415,"Currency":9416,"TRI":9417,"TOKEN":9418,"laravel":9419,"Adv":9420,"SOAP":9421,"flushed":9422,"Pixels":9423,"Equality":9424,"listening":9425,"OUTPUT":9426,"dereferenceable":9427,"sqlite3":9428,"alternatives":9429,"inflate":9430,"exclude":9431,"65535":9432,"tiles":9433,"Attachment":9434,"subscriber":9435,"Interrupted":9436,"Indices":9437,"Details":9438,"efficient":9439,"Video":9440,"Keeper":9441,"gflip3d":9442,"Debeuckelaer":9443,"emscripten":9444,"faceblaster":9445,"3bb":9446,"725":9447,"797":9448,"9t8":9449,"CNV":9450,"FET":9451,"GRO":9452,"HR":9453,"Kinesis":9454,"LON":9455,"Migr":9456,"Nest":9457,"North":9458,"Used":9459,"Very":9460,"Wcast":9461,"Wsign":9462,"YY":9463,"bn":9464,"dum":9465,"dword":9466,"fall":9467,"gio":9468,"hw":9469,"hra":9470,"mal":9471,"mip":9472,"npp":9473,"r3":9474,"smp":9475,"san":9476,"tsp":9477,"ye":9478,"inct":9479,"asp":9480,"aspect":9481,"etition":9482,"mosqu":9483,"Infinite":9484,"Report":9485,"Represent":9486,"libloading":9487,"Foo1":9488,"Fooer":9489,"peripher":9490,"curses":9491,"mymap":9492,"addsd":9493,"soup":9494,"163":9495,"computing":9496,"0x40":9497,"aves":9498,"wever":9499,"prebuilt":9500,"stream1":9501,"errno":9502,"ificant":9503,"STAND":9504,"246":9505,"99r4":9506,"34main17hf":9507,"architecture":9508,"tomcat":9509,"sysinfo":9510,"recent":9511,"379":9512,"keysv":9513,"4444":9514,"398":9515,"Enumer":9516,"flam":9517,"utility":9518,"Shutdown":9519,"produ":9520,"school":9521,"discriminant":9522,"player2":9523,"NOWN":9524,"swapchain":9525,"person1":9526,"accepted":9527,"Vertices":9528,"VALID":9529,"Matcher":9530,"Month":9531,"b06448":9532,"NVCC":9533,"configured":9534,"NEW":9535,"broken":9536,"CURREN":9537,"having":9538,"ygon":9539,"Segmentation":9540,"registrar":9541,"ZN8chapter":9542,"elided":9543,"0x5574c8a":9544,"LINKER":9545,"sibling":9546,"ZN3std2":9547,"consuming":9548,"musleabihf":9549,"2398E":9550,"c1bac2398E":9551,"FLOAT":9552,"9t899r4":9553,"mosquitto":9554,"34main17hfb06448":9555,"ZN8chapter34main17hfb06448":9556,"9t899r4h":9557,"ZN8chapter34main17hfb06448c1bac2398E":9558,"1s":9559,"2aa":9560,"5D":9561,"6A":9562,"Cent":9563,"Cass":9564,"DSS":9565,"Eof":9566,"Hmac":9567,"Jul":9568,"LN":9569,"Lang":9570,"PTR":9571,"SZ":9572,"U1":9573,"Will":9574,"bon":9575,"gray":9576,"hc":9577,"hdr":9578,"jmatt":9579,"mg":9580,"nw":9581,"pres":9582,"r8":9583,"rices":9584,"xproto":9585,"major":9586,"urin":9587,"idle":9588,"printme":9589,"maturin":9590,"moment":9591,"Repo":9592,"numer":9593,"fun1":9594,"myvar":9595,"Coin":9596,"0x23":9597,"barry":9598,"node2":9599,"862":9600,"Projection":9601,"activation":9602,"miniz":9603,"231":9604,"238":9605,"transformation":9606,"movb":9607,"Point2":9608,"RET":9609,"Objective":9610,"sending":9611,"arrier":9612,"afka":9613,"296":9614,"txn":9615,"scenario":9616,"gui":9617,"ttf":9618,"previously":9619,"system32":9620,"ordering":9621,"Stats":9622,"topics":9623,"TTOM":9624,"Examples":9625,"9736":9626,"metic":9627,"Integr":9628,"ebx":9629,"Unicode":9630,"AAA":9631,"bc6":9632,"correctly":9633,"solver":9634,"snipped":9635,"authorization":9636,"BOTTOM":9637,"cacher":9638,"11111111":9639,"utorial":9640,"SDK":9641,"Flatten":9642,"Limited":9643,"representation":9644,"stars":9645,"USED":9646,"7eac88":9647,"Tags":9648,"subscriptions":9649,"Magic":9650,"uwtable":9651,"Since":9652,"frankjmatt":9653,"Principal":9654,"frankjmattia":9655,"700":9656,"Au":9657,"Bg":9658,"Dll":9659,"DNS":9660,"Four":9661,"Gra":9662,"Money":9663,"Pas":9664,"RB":9665,"RN":9666,"Ray":9667,"SM":9668,"X86":9669,"cin":9670,"eof":9671,"ftp":9672,"ftime":9673,"fish":9674,"gim":9675,"iation":9676,"micro":9677,"microsoft":9678,"o1":9679,"oi":9680,"rf":9681,"sus":9682,"t4":9683,"tim":9684,"ugh":9685,"ycle":9686,"infinite":9687,"stub":9688,"tran":9689,"unct":9690,"lop":9691,"ooper":9692,"teach":9693,"abul":9694,"notes":9695,"optail":9696,"type1":9697,"roman":9698,"ured":9699,"lace":9700,"test3":9701,"Iterable":9702,"Demand":9703,"permut":9704,"dience":9705,"myfile":9706,"somehow":9707,"compact":9708,"assuming":9709,"cros":9710,"berius":9711,"var2":9712,"ventory":9713,"141":9714,"Probe":9715,"156":9716,"Checker":9717,"minima":9718,"fov":9719,"ording":9720,"Testing":9721,"condvar":9722,"Velocity":9723,"Timed":9724,"ws2":9725,"Creature":9726,"connecting":9727,"Trying":9728,"biguint":9729,"certain":9730,"Initializer":9731,"xmlgraphics":9732,"Processing":9733,"dyon":9734,"EXIT":9735,"fran":9736,"simd":9737,"Cached":9738,"NUMBER":9739,"Implements":9740,"segmentation":9741,"FEATURE":9742,"hotel":9743,"decks":9744,"smol":9745,"students":9746,"Negative":9747,"RGBA":9748,"UNKNOWN":9749,"atmel":9750,"coerc":9751,"replaced":9752,"Wheel":9753,"associations":9754,"Team":9755,"extras":9756,"log4rs":9757,"heartbeat":9758,"GLIBC":9759,"asciis":9760,"getopts":9761,"Migration":9762,"STANDARD":9763,"abulary":9764,"AE":9765,"Avl":9766,"Bs":9767,"Dup":9768,"Drag":9769,"Draft":9770,"Inet":9771,"IMA":9772,"Luma":9773,"PG":9774,"POP":9775,"SQ":9776,"Smo":9777,"Spi":9778,"Tz":9779,"cass":9780,"cors":9781,"gas":9782,"gstreamer":9783,"rk":9784,"u27":9785,"wire":9786,"z0":9787,"sess":9788,"eng":9789,"lets":9790,"lia":9791,"coo":9792,"adfb":9793,"ce8":9794,"celer":9795,"printed":9796,"iline":9797,"iframe":9798,"Intern":9799,"libm":9800,"ami":9801,"Concurrent":9802,"safety":9803,"proper":9804,"lens":9805,"shar":9806,"202":9807,"ssp":9808,"0x08":9809,"0x000000":9810,"weet":9811,"Throw":9812,"preter":9813,"enums":9814,"vention":9815,"energy":9816,"stream2":9817,"answers":9818,"Addition":9819,"237":9820,"244":9821,"249":9822,"translate":9823,"subq":9824,"2222":9825,"RECT":9826,"ONT":9827,"ONLY":9828,"interpol":9829,"ORIG":9830,"depends":9831,"555":9832,"wssecurity":9833,"ACTION":9834,"3913d":9835,"Dereference":9836,"significant":9837,"Submit":9838,"shouldn":9839,"Spider":9840,"sleeping":9841,"bigger":9842,"Near":9843,"HTTPS":9844,"tunnel":9845,"VARI":9846,"PARA":9847,"blueprint":9848,"svg":9849,"ga328":9850,"Seedable":9851,"happened":9852,"grapheme":9853,"seasonals":9854,"194bc6":9855,"fraction":9856,"184af":9857,"btreemap":9858,"atmega328":9859,"Volume":9860,"ratio":9861,"14159265":9862,"semicolon":9863,"Peter":9864,"occurrences":9865,"Decrement":9866,"synchronized":9867,"autocfg":9868,"Nested":9869,"3913d194bc6":9870,"atmega328p":9871,"3913d194bc6184af":9872,"0123456789":9873,"A6":9874,"A8":9875,"A9":9876,"Actions":9877,"BD":9878,"DV":9879,"E5":9880,"Frag":9881,"GPI":9882,"Ki":9883,"Nan":9884,"Press":9885,"Promote":9886,"Pizza":9887,"Room":9888,"T14":9889,"Timing":9890,"VS":9891,"cutil":9892,"fru":9893,"lpthread":9894,"ossible":9895,"pix":9896,"rr":9897,"sse":9898,"stem":9899,"league":9900,"meas":9901,"deal":9902,"rod":9903,"intensity":9904,"essor":9905,"love":9906,"adfs":9907,"forced":9908,"00ms":9909,"rustflags":9910,"abilities":9911,"abb2e":9912,"testlib":9913,"dium":9914,"sodium":9915,"texts":9916,"indexing":9917,"fut1":9918,"301":9919,"302f":9920,"Chan":9921,"Bar1":9922,"f32x4":9923,"808":9924,"Analy":9925,"426":9926,"SSE":9927,"340":9928,"hashvalue":9929,"Help":9930,"part1":9931,"gender":9932,"02be5":9933,"employ":9934,"phi":9935,"365":9936,"Philosopher":9937,"URITY":9938,"LOAD":9939,"57e7":9940,"installation":9941,"cdll":9942,"customers":9943,"xmm2":9944,"BUF":9945,"ARGS":9946,"52f3":9947,"E0412":9948,"globals":9949,"accessible":9950,"drawable":9951,"fluid":9952,"Modify":9953,"braces":9954,"LIBS":9955,"Editor":9956,"Background":9957,"performance":9958,"VIS":9959,"Drawing":9960,"E0281":9961,"SECURITY":9962,"MD5":9963,"dumped":9964,"edited":9965,"months":9966,"UPDATE":9967,"holds":9968,"Seeder":9969,"4c46":9970,"neighborhood":9971,"Consume":9972,"fffffff":9973,"determine":9974,"simpli":9975,"GRID":9976,"COMPILER":9977,"CLOCKS":9978,"merchant":9979,"glade":9980,"3d7adfb":9981,"f3ce3d7adfb":9982,"ACCEPT":9983,"7eac88abb2e":9984,"302f02be5":9985,"57e752f3":9986,"f3ce3d7adfb4":9987,"7eac88abb2e57e752f3":9988,"302f02be5f3ce3d7adfb4":9989,"7eac88abb2e57e752f3302f02be5f3ce3d7adfb4":9990,"1u":9991,"299":9992,"4F":9993,"420":9994,"9E":9995,"900":9996,"AIN":9997,"Amer":9998,"Dump":9999,"EGL":10000,"Flow":10001,"Fish":10002,"HWND":10003,"MV":10004,"Ris":10005,"SPI":10006,"Tbl":10007,"U64":10008,"West":10009,"Wasm":10010,"ave":10011,"alex":10012,"bst":10013,"bor":10014,"bss":10015,"bib":10016,"cend":10017,"cql":10018,"categ":10019,"dz":10020,"gcry":10021,"iet":10022,"mies":10023,"nion":10024,"vinc":10025,"vga":10026,"xe":10027,"lee":10028,"seal":10029,"utable":10030,"delimited":10031,"tr1":10032,"uname":10033,"uncomment":10034,"int2":10035,"003":10036,"useful":10037,"Restri":10038,"liborwell":10039,"verter":10040,"unwrapped":10041,"noise":10042,"tray":10043,"endproc":10044,"testnet":10045,"matcher":10046,"Sep":10047,"crit":10048,"dims":10049,"myfunc":10050,"ff8":10051,"creator":10052,"creation":10053,"dd7":10054,"insertion":10055,"STAMP":10056,"245":10057,"method2":10058,"transformed":10059,"logical":10060,"glue":10061,"289":10062,"copying":10063,"266":10064,"gitlab":10065,"THRUST":10066,"Threading":10067,"cb2":10068,"datum":10069,"benches":10070,"abcabc":10071,"nonblocking":10072,"expressions":10073,"RUSTC":10074,"761":10075,"Absol":10076,"Providers":10077,"Sha1":10078,"Verts":10079,"Circular":10080,"entered":10081,"aternion":10082,"extractor":10083,"scaled":10084,"Geometry":10085,"Planet":10086,"underscore":10087,"evt":10088,"Workspace":10089,"TIMESTAMP":10090,"Neighbor":10091,"Img":10092,"FIXME":10093,"LAYER":10094,"PKCS12":10095,"restricted":10096,"ZN4core3":10097,"Firebase":10098,"Friendly":10099,"saturating":10100,"Strict":10101,"ZN3std2rt":10102,"2aa4c46":10103,"ORIGIN":10104,"vincent":10105,"Absolute":10106,"2aa4c46cf":10107,"7fe":10108,"CLA":10109,"Cross":10110,"Eloquent":10111,"Federation":10112,"Oh":10113,"SV":10114,"Sl":10115,"Sto":10116,"Sampler":10117,"cerr":10118,"cstdio":10119,"dit":10120,"ei":10121,"ees":10122,"g2":10123,"ico":10124,"jb":10125,"lint":10126,"lum":10127,"stores":10128,"atan":10129,"atures":10130,"itation":10131,"ane":10132,"de5":10133,"decor":10134,"decrease":10135,"asing":10136,"cov":10137,"lochain":10138,"lopen":10139,"006":10140,"Strings":10141,"mob":10142,"644":10143,"Invariant":10144,"Reason":10145,"paste":10146,"extended":10147,"line2":10148,"redund":10149,"compress":10150,"spheres":10151,"faultlibs":10152,"okay":10153,"nodefaultlibs":10154,"voc":10155,"193":10156,"pping":10157,"Unhandled":10158,"158":10159,"STRUCT":10160,"504":10161,"circ":10162,"8027":10163,"regenc":10164,"regular":10165,"translat":10166,"trustcacerts":10167,"subs":10168,"subsec":10169,"interact":10170,"Fork":10171,"identities":10172,"Vehicle":10173,"562":10174,"ENSION":10175,"imported":10176,"ALLOW":10177,"scribe":10178,"488":10179,"Ops":10180,"470":10181,"Shl":10182,"Shar":10183,"unistd":10184,"887":10185,"bbbb":10186,"bencher":10187,"goal":10188,"apples":10189,"directories":10190,"supports":10191,"Acquire":10192,"CONN":10193,"lisher":10194,"Catalog":10195,"emitted":10196,"cars":10197,"Coordinates":10198,"volume":10199,"Del3D":10200,"mongo":10201,"watcher":10202,"disabled":10203,"IFY":10204,"joint":10205,"FRONT":10206,"START":10207,"pkcs12":10208,"describ":10209,"measurer":10210,"translatable":10211,"014":10212,"1u64":10213,"350":10214,"5a":10215,"544":10216,"720":10217,"8c":10218,"AX":10219,"C6":10220,"C7":10221,"CAT":10222,"CLE":10223,"Clean":10224,"D5":10225,"Dude":10226,"ELD":10227,"Hey":10228,"NOR":10229,"Rle":10230,"Rob":10231,"Sat":10232,"bum":10233,"bare":10234,"c24":10235,"dma":10236,"dab":10237,"fmin":10238,"hang":10239,"qml":10240,"qrt":10241,"ris":10242,"rgba":10243,"sit":10244,"u2":10245,"vious":10246,"zf":10247,"invariant":10248,"itely":10249,"rompt":10250,"course":10251,"type2":10252,"geon":10253,"gemv":10254,"libopenssl":10255,"derived":10256,"saux":10257,"colas":10258,"result1":10259,"bugs":10260,"Built":10261,"vector3f":10262,"0x00000000":10263,"across":10264,"Excl":10265,"Exchange":10266,"Ensure":10267,"Proj":10268,"1500":10269,"inserted":10270,"271":10271,"ifiers":10272,"Chip":10273,"Arith":10274,"item1":10275,"Orientation":10276,"javaws":10277,"INVALID":10278,"Factor":10279,"method1":10280,"website":10281,"Sock":10282,"403":10283,"407":10284,"567":10285,"contained":10286,"Alert":10287,"Moved":10288,"Win64":10289,"4467":10290,"MESS":10291,"Registers":10292,"FIELD":10293,"bb7":10294,"smart":10295,"E0505":10296,"reade":10297,"BBB":10298,"production":10299,"Accounts":10300,"Closed":10301,"VERY":10302,"VERIFY":10303,"POINTER":10304,"nvidia":10305,"NSURL":10306,"ECTION":10307,"Coordinate":10308,"Connecting":10309,"sigaction":10310,"nicolas":10311,"Multipart":10312,"noprompt":10313,"treat":10314,"scrap":10315,"stage2":10316,"Capture":10317,"delsaux":10318,"friend":10319,"Invok":10320,"fulf":10321,"jdk1":10322,"ulonglong":10323,"FINITY":10324,"creds":10325,"agnostic":10326,"FAILURE":10327,"Music":10328,"dummies":10329,"Enumerable":10330,"employees":10331,"314":10332,"315":10333,"718":10334,"9b":10335,"DEN":10336,"FS":10337,"FACT":10338,"Ir":10339,"IDE":10340,"Lfunc":10341,"Moo":10342,"Middle":10343,"Micro":10344,"NX":10345,"Tmove":10346,"VK":10347,"Wformat":10348,"bing":10349,"dun":10350,"dpt":10351,"density":10352,"ever":10353,"gw":10354,"kub":10355,"ncurses":10356,"pfx":10357,"rmation":10358,"tty":10359,"tendril":10360,"w2":10361,"══":10362,"inverse":10363,"erarch":10364,"stit":10365,"rex":10366,"reload":10367,"revis":10368,"tho":10369,"undef":10370,"unconstrained":10371,"rog":10372,"magnitude":10373,"chmod":10374,"apr":10375,"327":10376,"uris":10377,"newer":10378,"atest":10379,"izont":10380,"matter":10381,"moid":10382,"Review":10383,"librand":10384,"igen":10385,"maps":10386,"ational":10387,"10lang":10388,"Separ":10389,"Iteration":10390,"tpl":10391,"16384":10392,"locations":10393,"spl":10394,"rental":10395,"0x100":10396,"0x1000":10397,"accessed":10398,"includes":10399,"week":10400,"Thu":10401,"mtx":10402,"thingy":10403,"133":10404,"Unsupported":10405,"initializ":10406,"posix":10407,"sslsocket":10408,"ysis":10409,"movups":10410,"logfile":10411,"web3":10412,"subkey":10413,"subprocess":10414,"subsystem":10415,"Docker":10416,"capnp":10417,"uplex":10418,"22T":10419,"405":10420,"333":10421,"388":10422,"35db":10423,"Priority":10424,"tribonacci":10425,"Quaternion":10426,"Based":10427,"according":10428,"Decla":10429,"Websocket":10430,"insur":10431,"Attemp":10432,"Calling":10433,"forever":10434,"Actual":10435,"123123":10436,"snapshot":10437,"itories":10438,"Countings":10439,"postgresql":10440,"Variant1":10441,"Renderable":10442,"Packed":10443,"nvs":10444,"0b0":10445,"Produce":10446,"signals":10447,"planets":10448,"SERVICE":10449,"servlet":10450,"FECT":10451,"ADDR":10452,"Qt5Core":10453,"aeabi":10454,"poly":10455,"lots":10456,"treasure":10457,"Destination":10458,"TWO":10459,"Drive":10460,"whitelist":10461,"Magnitude":10462,"Canceled":10463,"Simulation":10464,"Evaluator":10465,"COMPILE":10466,"RGB":10467,"gpioa":10468,"Termination":10469,"S3Client":10470,"Lookup":10471,"succeeded":10472,"triang":10473,"Expectation":10474,"PROGBITS":10475,"capitalize":10476,"kdtree":10477,"arithmetic":10478,"Aggreg":10479,"Inches":10480,"GROUP":10481,"flammable":10482,"fruits":10483,"categories":10484,"redundant":10485,"0E":10486,"227":10487,"3i":10488,"4000":10489,"727":10490,"755":10491,"8A":10492,"9d":10493,"Alt":10494,"CV":10495,"Cfg":10496,"D3":10497,"Den":10498,"Fst":10499,"Feb":10500,"Flip":10501,"Hook":10502,"I2C":10503,"MON":10504,"PW":10505,"PACK":10506,"RST":10507,"RLE":10508,"Svc":10509,"T0":10510,"Tbs":10511,"WASM":10512,"fmax":10513,"hrase":10514,"jl":10515,"obytes":10516,"qy":10517,"rid":10518,"vcs":10519,"utive":10520,"alpin":10521,"alysis":10522,"ann":10523,"announ":10524,"destruct":10525,"rocks":10526,"int64":10527,"esc":10528,"essent":10529,"esian":10530,"chd":10531,"couple":10532,"ford":10533,"0020":10534,"newtype":10535,"consec":10536,"valgrind":10537,"getr":10538,"clinsur":10539,"Boxable":10540,"ureq":10541,"out2":10542,"bee":10543,"beans":10544,"faces":10545,"poisoned":10546,"procy":10547,"so2":10548,"162":10549,"Fnc":10550,"locale":10551,"places":10552,"sphrase":10553,"includ":10554,"accu":10555,"holochain":10556,"ivial":10557,"implementor":10558,"user1":10559,"503":10560,"236":10561,"dbc":10562,"logo":10563,"Point3D":10564,"weblogic":10565,"succ":10566,"net2":10567,"latforms":10568,"idea":10569,"284":10570,"3515":10571,"35aa":10572,"Wintrust":10573,"SEARCH":10574,"cmpq":10575,"lsx":10576,"chunked":10577,"bitcast":10578,"Dia":10579,"ieved":10580,"consistent":10581,"576":10582,"player1":10583,"owning":10584,"xmm6":10585,"correspond":10586,"rypt":10587,"freedesktop":10588,"CONTEXT":10589,"thereum":10590,"Checking":10591,"appearance":10592,"approx":10593,"Printf":10594,"EXI":10595,"8547":10596,"PRINT":10597,"generators":10598,"README":10599,"problem3":10600,"market":10601,"5ever":10602,"Seconds":10603,"evaluation":10604,"Ipv4Network":10605,"soapenv":10606,"ught":10607,"Multiplier":10608,"reviews":10609,"SCRI":10610,"Difference":10611,"juke":10612,"Alphabet":10613,"Bracket":10614,"Expires":10615,"libssh2":10616,"extrema":10617,"GPIO":10618,"Risp":10619,"fulfill":10620,"Microsystems":10621,"izontal":10622,"essential":10623,"consecutive":10624,"procyclinsur":10625,"including":10626,"010":10627,"1E":10628,"1f32":10629,"518":10630,"B9":10631,"Bor":10632,"Brow":10633,"Blas":10634,"Beta":10635,"CRO":10636,"Carrier":10637,"E35":10638,"EDE":10639,"Fix":10640,"Fatal":10641,"GP":10642,"Known":10643,"Literal":10644,"Opa":10645,"Pot":10646,"PNG":10647,"Sout":10648,"UB":10649,"Wide":10650,"cstring":10651,"ding":10652,"duck":10653,"eabihf":10654,"hk":10655,"nbr":10656,"pus":10657,"qs":10658,"tic":10659,"timing":10660,"umes":10661,"ina":10662,"individ":10663,"orph":10664,"meow":10665,"demand":10666,"quid":10667,"chach":10668,"comes":10669,"324":10670,"fifo":10671,"iface":10672,"645":10673,"Reload":10674,"vers":10675,"aller":10676,"poses":10677,"Semaphore":10678,"indic":10679,"pathbuf":10680,"istic":10681,"licate":10682,"Dataset":10683,"obvious":10684,"prece":10685,"13xor":10686,"Prompt":10687,"angent":10688,"157":10689,"187":10690,"beginning":10691,"Wrapping":10692,"figure":10693,"Compression":10694,"Composite":10695,"INFINITY":10696,"247":10697,"000000000000000":10698,"movaps":10699,"Tests":10700,"subslice":10701,"hashset":10702,"331":10703,"roots":10704,"azul":10705,"568":10706,"Getting":10707,"ENS":10708,"ENABLE":10709,"uint16":10710,"3715":10711,"297":10712,"DEFECT":10713,"double2":10714,"MAG":10715,"objdump":10716,"SEPAR":10717,"brevity":10718,"31BF":10719,"590":10720,"597":10721,"swapped":10722,"Ordered":10723,"AD364":10724,"Decider":10725,"7777":10726,"globalt":10727,"distinct":10728,"SAFE":10729,"corro":10730,"CEL":10731,"programming":10732,"skipped":10733,"CTX":10734,"Programing":10735,"flutter":10736,"realm":10737,"Disk":10738,"Discord":10739,"LBB2":10740,"c858":10741,"Matched":10742,"gotham":10743,"costs":10744,"onigenc":10745,"allest":10746,"AAAA":10747,"CAST":10748,"many1":10749,"83c24":10750,"combinator":10751,"early":10752,"chosen":10753,"e8c858":10754,"destroyed":10755,"folders":10756,"DUCT":10757,"escaped":10758,"Battery":10759,"implicitly":10760,"1b83c24":10761,"tiberius":10762,"480675":10763,"Consumable":10764,"Alphanumeric":10765,"1000000000":10766,"3801b83c24":10767,"QUEST":10768,"764986":10769,"34835aa":10770,"Professor":10771,"0c2734835aa":10772,"26e9736":10773,"fingerprints":10774,"3856AD364":10775,"FRAME":10776,"Messaging":10777,"denominator":10778,"stm32f103":10779,"mipmap":10780,"CURRENT":10781,"Audience":10782,"gimme":10783,"POP3":10784,"dd726e9736":10785,"ZN3std2rt10lang":10786,"2aa4c46cfdd726e9736":10787,"kuba":10788,"rexchange":10789,"3515e8c858":10790,"CROSS":10791,"chacha":10792,"31BF3856AD364":10793,"globaltest":10794,"3801b83c24480675":10795,"764986252":10796,"0c2734835aa3515e8c858":10797,"2aa4c46cfdd726e97360c2734835aa3515e8c858":10798,"31BF3856AD364E35":10799,"0o":10800,"1B":10801,"2nd":10802,"2p0":10803,"3F":10804,"317":10805,"4D":10806,"526":10807,"614":10808,"7A":10809,"7c9":10810,"8B":10811,"Apa":10812,"ASS":10813,"B4":10814,"Blank":10815,"C9":10816,"Clf":10817,"Every":10818,"Far":10819,"GOT":10820,"Hil":10821,"HAS":10822,"Lua":10823,"Nu":10824,"Rus":10825,"TC":10826,"T13":10827,"Xcompiler":10828,"Z0":10829,"bag":10830,"b6c":10831,"eight":10832,"fopen":10833,"hrust":10834,"i0":10835,"mr":10836,"mot":10837,"moo":10838,"pout":10839,"scap":10840,"ufact":10841,"z2":10842,"orable":10843,"onical":10844,"reborrow":10845,"seudo":10846,"arrow":10847,"deleted":10848,"unroll":10849,"macos":10850,"esis":10851,"asyn":10852,"liability":10853,"chart":10854,"cop":10855,"apon":10856,"ado":10857,"iso":10858,"isation":10859,"peg":10860,"32e0":10861,"newslice":10862,"printing":10863,"structures":10864,"Reliability":10865,"libcollections":10866,"verb":10867,"lains":10868,"Storable":10869,"outlives":10870,"bevy":10871,"pac":10872,"dice":10873,"adds":10874,"ools":10875,"shep":10876,"canonical":10877,"locate":10878,"Buff":10879,"Bucket":10880,"sphere":10881,"0x34":10882,"11c4":10883,"Encryption":10884,"1313":10885,"Filename":10886,"14a":10887,"1499":10888,"276":10889,"item2":10890,"235":10891,"worked":10892,"Tri":10893,"tmpx":10894,"Http11":10895,"organ":10896,"ENTRY":10897,"passing":10898,"Die":10899,"cylon":10900,"COD":10901,"aa2a":10902,"downstream":10903,"countered":10904,"html5ever":10905,"ud2":10906,"FFT":10907,"TIFY":10908,"bridge":10909,"repeating":10910,"protobuf":10911,"PRODUCT":10912,"Finder":10913,"FILES":10914,"FILENAME":10915,"therefore":10916,"hallo":10917,"25519":10918,"aliasing":10919,"overflowing":10920,"weights":10921,"cacert":10922,"E0053":10923,"choices":10924,"Words":10925,"WORDS":10926,"Initialized":10927,"aniel":10928,"33333333":10929,"represents":10930,"Capacity":10931,"repositories":10932,"Terminal":10933,"potential":10934,"routine":10935,"GOO":10936,"TRUSTED":10937,"average":10938,"continuation":10939,"Aborted":10940,"cartesian":10941,"seems":10942,"WARNING":10943,"decide":10944,"SUMMARY":10945,"coercion":10946,"interpolate":10947,"lumin":10948,"fmaxf":10949,"announce":10950,"South":10951,"corrode":10952,"Apache":10953,"ufacturer":10954,"cylon2p0":10955,"3E":10956,"5rocks":10957,"7Q":10958,"9a":10959,"B6":10960,"Cb":10961,"D9":10962,"Echo":10963,"Front":10964,"Ic":10965,"Looper":10966,"Mime":10967,"Nop":10968,"RS":10969,"T3":10970,"TQ":10971,"TSA":10972,"aud":10973,"ban":10974,"bzip":10975,"cas":10976,"calloc":10977,"gar":10978,"hun":10979,"lz":10980,"oser":10981,"pkey":10982,"rls":10983,"rfc":10984,"tot":10985,"tutorial":10986,"vid":10987,"x11":10988,"yo":10989,"inotify":10990,"ltest":10991,"it1":10992,"iting":10993,"itoa":10994,"lethrust":10995,"demangle":10996,"decrement":10997,"demonstr":10998,"trived":10999,"unlocked":11000,"ques":11001,"exchange":11002,"toc":11003,"apse":11004,"ad8":11005,"peak":11006,"usion":11007,"abstract":11008,"ometer":11009,"matrices":11010,"648":11011,"libbacktrace":11012,"libpthread":11013,"verification":11014,"vec0":11015,"string1":11016,"States":11017,"outine":11018,"Conversion":11019,"collision":11020,"Foos":11021,"dictionary":11022,"estimate":11023,"shop":11024,"ipv4":11025,"appy":11026,"0xa":11027,"acceler":11028,"Experiment":11029,"wee":11030,"bools":11031,"253":11032,"257":11033,"259":11034,"formats":11035,"caught":11036,"currentchar":11037,"8088":11038,"428":11039,"REV":11040,"Sending":11041,"289e":11042,"Truststore":11043,"caler":11044,"Always":11045,"3549":11046,"photo":11047,"SID":11048,"360":11049,"grammar":11050,"481":11051,"396":11052,"397":11053,"iverse":11054,"flare":11055,"256k1":11056,"43aa2a":11057,"pair2":11058,"CHAIN":11059,"Framebuffer":11060,"xmlpull":11061,"successful":11062,"blake":11063,"PROFILE":11064,"dec289e":11065,"fc11c4":11066,"dxdt":11067,"CRL":11068,"MOV":11069,"b3dec289e":11070,"highest":11071,"attached":11072,"literals":11073,"protector":11074,"0cce8":11075,"lmdb":11076,"SIGINT":11077,"Goodbye":11078,"Combine":11079,"Important":11080,"cloudflare":11081,"Waiting":11082,"INITIAL":11083,"Clause":11084,"ELF":11085,"da9fc11c4":11086,"0x7fb935ad":11087,"DYLD":11088,"PHP":11089,"ambigu":11090,"Lsizei":11091,"analyze":11092,"several":11093,"TALK":11094,"Takes":11095,"Registration":11096,"PASSWORD":11097,"XYZ":11098,"3bb1313":11099,"LNK":11100,"de543aa2a":11101,"8027da9fc11c4":11102,"fminf":11103,"35db0cce8":11104,"trianglethrust":11105,"32e038f":11106,"b3dec289e32e038f":11107,"3bb1313de543aa2a":11108,"8027da9fc11c435db0cce8":11109,"3bb1313de543aa2a8027da9fc11c435db0cce8":11110,"3bb1313de543aa2a8027da9fc11c435db0cce8c0":11111,"215":11112,"Apr":11113,"Acc":11114,"BLOB":11115,"Est":11116,"Fore":11117,"Fmt":11118,"Hu":11119,"Hy":11120,"HRESULT":11121,"IE":11122,"Itr":11123,"JSSE":11124,"Lat":11125,"NN":11126,"NAT":11127,"PM":11128,"Piston":11129,"Platform":11130,"PFN":11131,"Ra":11132,"Rx":11133,"UV":11134,"WL":11135,"Wed":11136,"WER":11137,"Wow":11138,"biter":11139,"cde":11140,"cmt":11141,"fw":11142,"fpath":11143,"fps":11144,"g1":11145,"hg":11146,"jobject":11147,"lu":11148,"lgcc":11149,"nim":11150,"pz":11151,"rrs":11152,"sive":11153,"t12":11154,"talk":11155,"wso2":11156,"incomplete":11157,"retry":11158,"encies":11159,"ots":11160,"meant":11161,"dean":11162,"lio":11163,"liers":11164,"chrome":11165,"edu":11166,"loxe":11167,"quotes":11168,"quoted":11169,"isable":11170,"peers":11171,"useless":11172,"ellow":11173,"ilon":11174,"responder":11175,"rsize":11176,"buy":11177,"typemap":11178,"doub":11179,"party":11180,"expects":11181,"E0207":11182,"reduction":11183,"spider":11184,"futs":11185,"observable":11186,"Unforced":11187,"cud":11188,"304":11189,"sense":11190,"Associ":11191,"subtype":11192,"Comm":11193,"263":11194,"269":11195,"ports":11196,"syscall":11197,"aze":11198,"osity":11199,"wsz":11200,"598":11201,"tts":11202,"URG":11203,"Quick":11204,"451":11205,"889":11206,"resolver":11207,"PIX":11208,"X509v3":11209,"clidean":11210,"Actix":11211,"cdn":11212,"brot":11213,"s2imap":11214,"Expensive":11215,"Functional":11216,"Downloader":11217,"PUB":11218,"anchors":11219,"normalization":11220,"FILENO":11221,"conflict":11222,"Executing":11223,"restype":11224,"EXPE":11225,"Groceries":11226,"cardbox":11227,"ntdll":11228,"Backward":11229,"differences":11230,"eb4":11231,"passphrase":11232,"simulator":11233,"Boat":11234,"CASE":11235,"repetition":11236,"Syntax":11237,"Coords":11238,"thrown":11239,"yields":11240,"NEG":11241,"0x400":11242,"0x800":11243,"iosity":11244,"recurse":11245,"trees":11246,"pallet":11247,"materials":11248,"CPP":11249,"Bottom":11250,"authenticated":11251,"Keep":11252,"purp":11253,"Cryptography":11254,"preferred":11255,"movies":11256,"Watcher":11257,"GAME":11258,"Millis":11259,"Bootstrapper":11260,"paddd":11261,"simply":11262,"BROWS":11263,"Required":11264,"jndi":11265,"Centime":11266,"amilies":11267,"America":11268,"Declare":11269,"Tbsip":11270,"Hilbert":11271,"Diesel":11272,"luminosity":11273,"rrss2imap":11274,"0F":11275,"330":11276,"410":11277,"5f4":11278,"6a":11279,"8E":11280,"Aug":11281,"Craw":11282,"Fra":11283,"Lv3":11284,"MIC":11285,"Our":11286,"OTH":11287,"P6":11288,"Pk":11289,"Pick":11290,"RCC":11291,"Wbem":11292,"X2":11293,"Y1":11294,"YES":11295,"Za":11296,"air":11297,"aws":11298,"ajax":11299,"bp":11300,"border":11301,"eas":11302,"fvisibility":11303,"gold":11304,"ggle":11305,"lr":11306,"m3":11307,"mh":11308,"nf":11309,"ov":11310,"pf":11311,"promote":11312,"sile":11313,"tics":11314,"vx":11315,"xid":11316,"z1":11317,"orange":11318,"it2":11319,"itize":11320,"album":11321,"detach":11322,"lie":11323,"lide":11324,"covery":11325,"toa":11326,"etles":11327,"329":11328,"vels":11329,"idio":11330,"notifications":11331,"raise":11332,"moz":11333,"moder":11334,"oxel":11335,"docopt":11336,"Inside":11337,"libdl":11338,"pts":11339,"arg3":11340,"tracker":11341,"past":11342,"ref2":11343,"urnal":11344,"traittest":11345,"funct":11346,"0x80":11347,"observe":11348,"angling":11349,"Clon":11350,"181":11351,"182":11352,"Arbiter":11353,"Comput":11354,"Keyword":11355,"23456":11356,"cale":11357,"Fault":11358,"child2":11359,"example2":11360,"debugger":11361,"subtree":11362,"cpl":11363,"Forced":11364,"bounding":11365,"generation":11366,"Priv":11367,"phen":11368,"casting":11369,"Configure":11370,"393":11371,"breakpoint":11372,"param1":11373,"DISP":11374,"DIRECT":11375,"Compilation":11376,"Subtract":11377,"Generated":11378,"syntex":11379,"Interop":11380,"779":11381,"owns":11382,"sample1":11383,"TRANS":11384,"Abs":11385,"multiplies":11386,"sides":11387,"tsi":11388,"concaten":11389,"RADI":11390,"Director":11391,"controls":11392,"iki":11393,"Constants":11394,"Makefile":11395,"hashers":11396,"Bridge":11397,"vscode":11398,"Routing":11399,"standalone":11400,"Owning":11401,"Authenticatable":11402,"commun":11403,"LINEAR":11404,"Major":11405,"Claim":11406,"cnbuf":11407,"abcdefghi":11408,"purch":11409,"Administrator":11410,"gradle":11411,"Speed":11412,"Speak":11413,"huge":11414,"Profession":11415,"jaxws":11416,"Anchors":11417,"alacrit":11418,"35897":11419,"ZN10playground":11420,"Emitter":11421,"Creds":11422,"Confirmation":11423,"produces":11424,"862b9":11425,"MESSAGE":11426,"preceded":11427,"bzip2":11428,"URGENT":11429,"Centimeters":11430,"alacritty":11431,"2usize":11432,"334":11433,"500000":11434,"608":11435,"8D":11436,"8F":11437,"Bon":11438,"C5":11439,"D8":11440,"Dom":11441,"E8":11442,"F6":11443,"HM":11444,"Ima":11445,"Imm":11446,"Nonce":11447,"RFC":11448,"Saml":11449,"Vo":11450,"Wal":11451,"Want":11452,"XOR":11453,"bom":11454,"bir":11455,"dil":11456,"dangle":11457,"dpkg":11458,"f36":11459,"father":11460,"gge":11461,"kam":11462,"nu":11463,"nik":11464,"pizza":11465,"rather":11466,"s4":11467,"tur":11468,"tcx":11469,"in1":11470,"ingth":11471,"rei":11472,"reuse":11473,"sexp":11474,"utili":11475,"along":11476,"anta":11477,"unprocessed":11478,"fns":11479,"stringth":11480,"macho":11481,"challenge":11482,"0040":11483,"stdcall":11484,"ooo":11485,"321":11486,"fif":11487,"idr":11488,"contra":11489,"val0":11490,"illy":11491,"Vec2d":11492,"aba":11493,"abbit":11494,"dosomething":11495,"Really":11496,"libtest":11497,"nope":11498,"Error2":11499,"foo3":11500,"fa9":11501,"sales":11502,"perms":11503,"fe6":11504,"add1":11505,"immutably":11506,"shm":11507,"ptr1":11508,"complain":11509,"complains":11510,"codemap":11511,"mscor":11512,"aving":11513,"berry":11514,"Cloned":11515,"memcached":11516,"258":11517,"272":11518,"binaries":11519,"ldl":11520,"0000000042":11521,"dbk":11522,"registers":11523,"trustkit":11524,"logs":11525,"Town":11526,"228":11527,"22c":11528,"338":11529,"reader1":11530,"Trust13":11531,"Connections":11532,"Recover":11533,"378":11534,"298":11535,"plural":11536,"394":11537,"4967":11538,"rngs":11539,"Grant":11540,"orders":11541,"flavor":11542,"Statistics":11543,"disconnect":11544,"receiving":11545,"arm64":11546,"slash":11547,"colored":11548,"Activation":11549,"LIMIT":11550,"manual":11551,"CHO":11552,"scripts":11553,"declspec":11554,"DOM":11555,"successors":11556,"Variant2":11557,"stopped":11558,"metal":11559,"POSE":11560,"PROCESS":11561,"E0594":11562,"bravo":11563,"Expressions":11564,"dont":11565,"ntl":11566,"PEM":11567,"80808080":11568,"Publisher":11569,"E0381":11570,"Smart":11571,"administrator":11572,"conditions":11573,"Steps":11574,"xorl":11575,"volley":11576,"effective":11577,"NEL":11578,"Present":11579,"stm32f4":11580,"rgbs":11581,"TIMEOUT":11582,"e3e9":11583,"Sides":11584,"natvis":11585,"PKCS7":11586,"DYNA":11587,"protot":11588,"clipboard":11589,"Original":11590,"Peripherals":11591,"Rotate":11592,"FUNCTION":11593,"jklm":11594,"Horse":11595,"7f7f7f7f":11596,"crc32":11597,"physical":11598,"Population":11599,"lefrog":11600,"semver":11601,"teacher":11602,"franza":11603,"Robot":11604,"readelf":11605,"corresponding":11606,"Borsh":11607,"Opaque":11608,"stm32f103xx":11609,"NATVIS":11610,"purplefrog":11611,"BROWSABLE":11612,"Fraction":11613,"ggez":11614,"stringthing":11615,"012":11616,"055":11617,"538":11618,"5tests":11619,"6887":11620,"7C":11621,"Cool":11622,"E000":11623,"GN":11624,"Hz":11625,"Ix":11626,"Ide":11627,"ICON":11628,"Lvals":11629,"P2":11630,"POR":11631,"PCRE":11632,"R1":11633,"RD":11634,"Six":11635,"Song":11636,"SPE":11637,"Tsp":11638,"UX":11639,"a27":11640,"cxx":11641,"eff":11642,"ethereum":11643,"fv":11644,"fmap":11645,"fstack":11646,"ku":11647,"lst":11648,"lutil":11649,"lings":11650,"mst":11651,"money":11652,"pent":11653,"pitch":11654,"punct":11655,"qrst":11656,"rint":11657,"spo":11658,"srand":11659,"tor":11660,"u2019":11661,"u2018":11662,"x8":11663,"zl":11664,"inject":11665,"inorder":11666,"rections":11667,"alina":11668,"describe":11669,"unsorted":11670,"rob":11671,"routing":11672,"intel":11673,"coin":11674,"3286":11675,"32da9":11676,"filer":11677,"news":11678,"Strong":11679,"tera":11680,"res2":11681,"wrote":11682,"dol":11683,"iguous":11684,"Convention":11685,"upool":11686,"perator":11687,"few":11688,"mycrate":11689,"myvector":11690,"key3":11691,"Course":11692,"Colour":11693,"ff6":11694,"Mapper":11695,"composite":11696,"spook":11697,"Refer":11698,"0x11":11699,"0xffff":11700,"timespec":11701,"function1":11702,"Enc":11703,"Entries":11704,"memmap":11705,"Adding":11706,"Barrier":11707,"STDO":11708,"807":11709,"foot":11710,"subclass":11711,"substit":11712,"cpupool":11713,"epoll":11714,"Tokio":11715,"vertical":11716,"LETE":11717,"part2":11718,"organization":11719,"txs":11720,"pie":11721,"offer":11722,"08b":11723,"469":11724,"Functions":11725,"Impl1":11726,"COMP":11727,"LAUN":11728,"mitted":11729,"discord":11730,"UTABLE":11731,"Activ":11732,"smth":11733,"games":11734,"970":11735,"followed":11736,"bri":11737,"Binder":11738,"Behavior":11739,"parsers":11740,"Controls":11741,"769":11742,"Visibility":11743,"TRA":11744,"About":11745,"Entities":11746,"Checked":11747,"SOUTH":11748,"looks":11749,"looking":11750,"Meters":11751,"IGN":11752,"sqrt2":11753,"throwing":11754,"EP7Q":11755,"U32Const":11756,"dispatcher":11757,"BAZ":11758,"Transformer":11759,"transferred":11760,"denied":11761,"CRYP":11762,"Jane":11763,"artifacts":11764,"Criter":11765,"Snafu":11766,"EAST":11767,"Fetcher":11768,"gateway":11769,"fuz":11770,"determined":11771,"OBJ":11772,"horse":11773,"averages":11774,"Polygon":11775,"╌╌╌╌":11776,"Breakpoint":11777,"ARBPROC":11778,"Holds":11779,"Directed":11780,"becomes":11781,"Ipv6Addr":11782,"2147483647":11783,"confirm":11784,"unicase":11785,"gvt":11786,"0x00007f2d37":11787,"exerci":11788,"peripheral":11789,"numerator":11790,"IMAGE":11791,"EXISTS":11792,"b6c32da9":11793,"PFNGL":11794,"PIXEL":11795,"utilize":11796,"mscorlib":11797,"STDOUT":11798,"LAUNCH":11799,"2i":11800,"217":11801,"4A":11802,"5C":11803,"534":11804,"556":11805,"Atag":11806,"BI":11807,"CI":11808,"Cmp":11809,"Fli":11810,"ISS":11811,"Jack":11812,"Kx":11813,"Li":11814,"Mot":11815,"Nz":11816,"NON":11817,"Norm":11818,"SW":11819,"Shy":11820,"U2":11821,"YPE":11822,"amo":11823,"aac":11824,"baa":11825,"blabla":11826,"cis":11827,"cum":11828,"cms":11829,"dptr":11830,"dlopen":11831,"e35":11832,"fpin":11833,"fancy":11834,"gab":11835,"grow":11836,"gzip":11837,"hon":11838,"hir":11839,"kw":11840,"march":11841,"qi":11842,"rpi":11843,"sro":11844,"tval":11845,"tlement":11846,"u1":11847,"ulo":11848,"vu":11849,"stro":11850,"orjson":11851,"mp3":11852,"mpro":11853,"mpeg":11854,"rez":11855,"uth":11856,"encountered":11857,"analysis":11858,"otes":11859,"de8":11860,"rope":11861,"negot":11862,"cour":11863,"Strat":11864,"teen":11865,"iller":11866,"notice":11867,"errored":11868,"Injection":11869,"libg":11870,"olver":11871,"00001":11872,"proof":11873,"filesystem":11874,"performs":11875,"article":11876,"som":11877,"immut":11878,"E0243":11879,"205":11880,"2036":11881,"heet":11882,"line1":11883,"gindex":11884,"license":11885,"0x3":11886,"0x09":11887,"barcodes":11888,"acerts":11889,"foundation":11890,"860":11891,"Eng":11892,"251":11893,"spawned":11894,"STACK":11895,"hosting":11896,"INE":11897,"temp2":11898,"00000000000000":11899,"805":11900,"summar":11901,"Annot":11902,"field3":11903,"child1":11904,"ordin":11905,"Parts":11906,"Test2":11907,"State1":11908,"aked":11909,"382":11910,"389":11911,"Fixture":11912,"infos":11913,"catalina":11914,"35c":11915,"Imper":11916,"plug":11917,"drops":11918,"transformer":11919,"468":11920,"Grad":11921,"aa39a":11922,"Verbose":11923,"proced":11924,"insic":11925,"Intersection":11926,"distances":11927,"TIO":11928,"eeee":11929,"encial":11930,"brother":11931,"FOUND":11932,"PROT":11933,"Startup":11934,"brainf":11935,"approach":11936,"EXAMP":11937,"9223":11938,"Matching":11939,"Decoded":11940,"meaning":11941,"Unit4":11942,"b3ff8":11943,"conditional":11944,"Maximum":11945,"attempting":11946,"attachments":11947,"E0015":11948,"b0481":11949,"Squared":11950,"d73715":11951,"Depend":11952,"vendored":11953,"exponencial":11954,"contiguous":11955,"criteria":11956,"Didn":11957,"tqimp":11958,"succeed":11959,"Expecting":11960,"OFFSET":11961,"runnables":11962,"FORMAT":11963,"epsilon":11964,"restricting":11965,"Europe":11966,"0x10877":11967,"CACHE":11968,"PROTOCOL":11969,"interesting":11970,"imperative":11971,"behaviour":11972,"delivery":11973,"LONG":11974,"Duplicate":11975,"NORTH":11976,"Exclude":11977,"erarchy":11978,"purchase":11979,"e3e9d73715":11980,"DYNAMIC":11981,"PCREL":11982,"3286b3ff8":11983,"b6c32da9b0481":11984,"fpinrust":11985,"sroa":11986,"aa39a22c":11987,"brainfuck":11988,"EXAMPLE":11989,"e3e9d737153286b3ff8":11990,"b6c32da9b0481e3e9d737153286b3ff8":11991,"b6c32da9b0481e3e9d737153286b3ff8aa39a22c":11992,"264":11993,"20000":11994,"219":11995,"3C":11996,"312":11997,"4j":11998,"5f64":11999,"AU":12000,"Bank":12001,"Canon":12002,"CIP":12003,"D7":12004,"EU":12005,"Fall":12006,"FACE":12007,"Gp":12008,"Mq":12009,"MSS":12010,"NT":12011,"Nio":12012,"PID":12013,"Pivot":12014,"Place":12015,"QWORD":12016,"RL":12017,"RNG":12018,"SL":12019,"Sdl":12020,"Tup":12021,"VA":12022,"Where":12023,"WEST":12024,"aled":12025,"bell":12026,"c14":12027,"dls":12028,"fltk":12029,"gdk":12030,"hof":12031,"jt":12032,"jdbc":12033,"kk":12034,"mz":12035,"nio":12036,"naming":12037,"ruby":12038,"slic":12039,"tec":12040,"til":12041,"t17":12042,"tweet":12043,"vlog":12044,"wxyz":12045,"yi":12046,"zon":12047,"znear":12048,"inplace":12049,"insensitive":12050,"inventory":12051,"enses":12052,"ctest":12053,"alink":12054,"trivial":12055,"toggle":12056,"fortran":12057,"urf":12058,"usually":12059,"resident":12060,"andre":12061,"notbox":12062,"writes":12063,"oxide":12064,"clink":12065,"verage":12066,"amya":12067,"vie":12068,"proposed":12069,"diction":12070,"curacy":12071,"Hashed":12072,"constexpr":12073,"hey":12074,"pushreg":12075,"spread":12076,"Type3":12077,"0x20":12078,"Valve":12079,"wav":12080,"msb":12081,"aved":12082,"counted":12083,"Envelope":12084,"buildbot":12085,"thingies":12086,"Pogo":12087,"cufft":12088,"memcheck":12089,"17T14":12090,"errer":12091,"278":12092,"STOM":12093,"circular":12094,"Company":12095,"initializer":12096,"handle1":12097,"Asia":12098,"arest":12099,"loads":12100,"spawner":12101,"ATOM":12102,"Statements":12103,"sub1":12104,"Trigger":12105,"226":12106,"Solid":12107,"icky":12108,"tmp2":12109,"partic":12110,"partner":12111,"homedir":12112,"illion":12113,"tomorrow":12114,"orgs":12115,"Veggie":12116,"557":12117,"ENCOD":12118,"370":12119,"377":12120,"MAIL":12121,"sciter":12122,"446":12123,"Phi":12124,"param2":12125,"466":12126,"Matrix2":12127,"lexport":12128,"FILT":12129,"COVERY":12130,"aaaa":12131,"DIST":12132,"DIGIT":12133,"xmld":12134,"Declar":12135,"html5rocks":12136,"resolv":12137,"PIPE":12138,"sinc":12139,"disp":12140,"Graphs":12141,"armv8":12142,"cmd1":12143,"6767":12144,"607":12145,"smallest":12146,"instanceof":12147,"984":12148,"987":12149,"7f45":12150,"CUSTOM":12151,"Sudo":12152,"dllexport":12153,"inferred":12154,"Ability":12155,"PROPER":12156,"Sha512":12157,"WS2007":12158,"0b0000":12159,"Dbax":12160,"Parameteri":12161,"videos":12162,"ikaze":12163,"Controllers":12164,"simulation":12165,"wayland":12166,"smallvec":12167,"cooked":12168,"Assignment":12169,"Packets":12170,"E0623":12171,"Planes":12172,"Columns":12173,"0x7ffe":12174,"checkouts":12175,"0x7ff7c9":12176,"pivots":12177,"Cookies":12178,"normally":12179,"Corpor":12180,"Jobs":12181,"downloads":12182,"Incrementable":12183,"Evaluated":12184,"occured":12185,"completely":12186,"Interrupting":12187,"ZN8fpinrust":12188,"ARRSIZE":12189,"ratic":12190,"Article":12191,"Greetings":12192,"Cube":12193,"IMG":12194,"suggest":12195,"0x000000010000":12196,"dashboard":12197,"updater":12198,"debian":12199,"zscaler":12200,"aspberry":12201,"susan":12202,"properly":12203,"1415926535897":12204,"FIELDS":12205,"dungeon":12206,"brotli":12207,"EXPECT":12208,"OTHER":12209,"Clonable":12210,"abcdefghijklm":12211,"kamikaze":12212,"fifth":12213,"5tests13xor":12214,"exercises":12215,"Flipping":12216,"922337":12217,"FILTER":12218,"ZN8fpinrust5tests13xor":12219,"abcdefghijklmnop":12220,"0i":12221,"1st":12222,"4B":12223,"516":12224,"Ack":12225,"Aws":12226,"Average":12227,"B5":12228,"Cactus":12229,"D4":12230,"Finger":12231,"Fabric":12232,"HV":12233,"Isa":12234,"MPI":12235,"Nx":12236,"Nice":12237,"OIN":12238,"Rat":12239,"Rvals":12240,"RC4":12241,"SFA":12242,"TF":12243,"TON":12244,"Ub":12245,"Who":12246,"WOW":12247,"aker":12248,"aabb":12249,"bk":12250,"bio":12251,"blen":12252,"c47":12253,"c94":12254,"dangling":12255,"ej":12256,"eo":12257,"e56":12258,"e89":12259,"fh":12260,"fed":12261,"fox":12262,"flex":12263,"h7":12264,"k3":12265,"lb":12266,"m4":12267,"oyst":12268,"pv":12269,"pure":12270,"q1":12271,"sid":12272,"slim":12273,"tone":12274,"wchar":12275,"xargo":12276,"oranges":12277,"oning":12278,"remember":12279,"enm":12280,"ctime":12281,"anger":12282,"animate":12283,"robot":12284,"fn2":12285,"intain":12286,"chance":12287,"exam":12288,"apo":12289,"forecast":12290,"007":12291,"009":12292,"00b":12293,"0030":12294,"usters":12295,"newvec":12296,"idna":12297,"serialization":12298,"pubsub":12299,"icmp":12300,"libz":12301,"libgit2":12302,"clusters":12303,"Resume":12304,"noone":12305,"noexec":12306,"law":12307,"10i32":12308,"1048":12309,"beg":12310,"beer":12311,"Constr":12312,"htm":12313,"htt":12314,"pared":12315,"paras":12316,"cron":12317,"mydata":12318,"keywords":12319,"articles":12320,"odu":12321,"E0309":12322,"cesses":12323,"sonation":12324,"spice":12325,"ists":12326,"0x15":12327,"0x30":12328,"bar1":12329,"Vals":12330,"codeha":12331,"oblin":12332,"pped":12333,"Streams":12334,"userenv":12335,"opt2":12336,"ERY":12337,"Writing":12338,"Challenge":12339,"STRE":12340,"opencv":12341,"Setting":12342,"Anon":12343,"expense":12344,"expires":12345,"defining":12346,"definitely":12347,"nets":12348,"221":12349,"RECOVERY":12350,"glsl":12351,"dirname":12352,"interleave":12353,"somethings":12354,"ENO":12355,"352":12356,"DEP":12357,"Movie":12358,"rtfm":12359,"Commands":12360,"785":12361,"bitter":12362,"Funcs":12363,"2008":12364,"457":12365,"474":12366,"906":12367,"cbs":12368,"Handlebars":12369,"Linkable":12370,"abcde":12371,"colorops":12372,"LISH":12373,"ee6":12374,"brad":12375,"CTYPE":12376,"Programming":12377,"persons":12378,"Otherwise":12379,"DOCTYPE":12380,"shows":12381,"payment":12382,"FAH":12383,"POOL":12384,"timer1":12385,"rug":12386,"ATED":12387,"Sha384":12388,"EXPOSE":12389,"controlled":12390,"spell":12391,"frontend":12392,"freetype":12393,"GTK":12394,"SUP":12395,"flattened":12396,"battery":12397,"Calculator":12398,"Working":12399,"years":12400,"sxd":12401,"fastcc":12402,"LOCATION":12403,"Authenticator":12404,"MTP":12405,"Coroutine":12406,"holding":12407,"Maker":12408,"Radiosity":12409,"QUERY":12410,"Choices":12411,"slots":12412,"adjusted":12413,"Artifact":12414,"Histogram":12415,"Euclidean":12416,"Requirements":12417,"Haha":12418,"ANSWER":12419,"Cubes":12420,"Physics":12421,"Anchor":12422,"2147483648":12423,"SNAP":12424,"recoverable":12425,"4294967":12426,"fallback":12427,"leepy":12428,"mobile":12429,"Invoker":12430,"couples":12431,"FRAMEBUFFER":12432,"copies":12433,"Latitude":12434,"MSSQL":12435,"ENCODING":12436,"Corporation":12437,"9223372036":12438,"abcdefghijklmnopqrst":12439,"Ubuntu":12440,"oyster":12441,"codehaus":12442,"216":12443,"399":12444,"419":12445,"532":12446,"8192":12447,"Bins":12448,"Batch":12449,"Da":12450,"DRAW":12451,"EMAIL":12452,"Floor":12453,"Fuel":12454,"GI":12455,"GUID":12456,"IB":12457,"Ips":12458,"Jhon":12459,"KER":12460,"Mix":12461,"MAR":12462,"Ndata":12463,"Odd":12464,"Pong":12465,"SMTP":12466,"Tail":12467,"Xy":12468,"aho":12469,"b64":12470,"bund":12471,"dj":12472,"f50":12473,"fbo":12474,"g3":12475,"h6":12476,"ien":12477,"iproduct":12478,"jpeg":12479,"kall":12480,"nating":12481,"p4":12482,"pty":12483,"pnet":12484,"rmsg":12485,"tech":12486,"wild":12487,"xi":12488,"youn":12489,"zizaco":12490,"└─":12491,"indirect":12492,"deed":12493,"unnecessary":12494,"lism":12495,"tower":12496,"today":12497,"pep":12498,"pest":12499,"oooo":12500,"prg":12501,"ursch":12502,"conc":12503,"impossible":12504,"val3":12505,"opy":12506,"Reversed":12507,"libthread":12508,"derives":12509,"kevy":12510,"trawl":12511,"Contrived":12512,"sake":12513,"pause":12514,"poke":12515,"12c3":12516,"Iterators":12517,"0xc":12518,"0x10000":12519,"barrier":12520,"113549":12521,"Val1":12522,"msys":12523,"Thumb":12524,"preorder":12525,"windef":12526,"Proof":12527,"Unrecoverable":12528,"activ":12529,"171":12530,"1714a":12531,"279":12532,"formatting":12533,"surefire":12534,"Compos":12535,"minify":12536,"validity":12537,"hay":12538,"998":12539,"sublime":12540,"Trip":12541,"343":12542,"346":12543,"347":12544,"REQUEST":12545,"sorts":12546,"hashes":12547,"wasi":12548,"identical":12549,"28a6":12550,"portal":12551,"grace":12552,"351":12553,"sha512":12554,"DELETE":12555,"phf":12556,"philosopher":12557,"ALS":12558,"59b":12559,"MEEP":12560,"authenticate":12561,"085":12562,"populated":12563,"Memo":12564,"Impl2":12565,"THING":12566,"476":12567,"8828a6":12568,"Webservice":12569,"bb2":12570,"583":12571,"Floating":12572,"9704":12573,"CHAN":12574,"scanf":12575,"7f7":12576,"commons":12577,"calculated":12578,"PROJ":12579,"PROJECT":12580,"repeats":12581,"decaddr":12582,"decision":12583,"digital":12584,"atomics":12585,"Disable":12586,"intention":12587,"construction":12588,"Callbacks":12589,"fcntl":12590,"blub":12591,"e7a":12592,"sgbuf":12593,"CRATE":12594,"e0eb4":12595,"Equals":12596,"shaders":12597,"modifying":12598,"nail":12599,"E0631":12600,"Calculation":12601,"twitter":12602,"understand":12603,"e8ee6":12604,"happy":12605,"parallellism":12606,"Devloper":12607,"CSV":12608,"intros":12609,"rlua":12610,"f757":12611,"clickable":12612,"cycles":12613,"Supported":12614,"decimals":12615,"transports":12616,"Contracts":12617,"ABCDEF":12618,"relationship":12619,"guessing":12620,"Simon":12621,"Snapshot":12622,"16712c3":12623,"Questions":12624,"Implementor1":12625,"inherit":12626,"Downloads":12627,"SIGNED":12628,"Resolve":12629,"Quadratic":12630,"WHITE":12631,"0c2716712c3":12632,"MODBUS":12633,"Configurator":12634,"Advanced":12635,"malkevy":12636,"Smol":12637,"PARAMS":12638,"splash":12639,"Attempt":12640,"alpine":12641,"854775":12642,"individual":12643,"SEPARAT":12644,"Rusoto":12645,"scape":12646,"asynchronous":12647,"149998":12648,"cudnn":12649,"DISPLAY":12650,"spoken":12651,"Activator":12652,"LAUNCHER":12653,"Gpio":12654,"Mqtt":12655,"urschrei":12656,"1714ae0eb4":12657,"8828a61714ae0eb4":12658,"0c2716712c3e8ee6":12659,"malkevych":12660,"097":12661,"1UL":12662,"2u64":12663,"3DES":12664,"4s":12665,"580":12666,"9D":12667,"AAB":12668,"BOR":12669,"Dart":12670,"E7":12671,"Eigen":12672,"F7":12673,"F8":12674,"Five":12675,"Fact":12676,"FER":12677,"Hub":12678,"Ij":12679,"IME":12680,"IES":12681,"Lon":12682,"Live":12683,"N4":12684,"NC":12685,"NY":12686,"Padding":12687,"PLAYER":12688,"Sla":12689,"SEND":12690,"Scale":12691,"TZ":12692,"Turn":12693,"Tech":12694,"U16":12695,"Voc":12696,"Wshadow":12697,"Xcode":12698,"a44":12699,"a46":12700,"bdd":12701,"df1":12702,"dialog":12703,"egl":12704,"fec":12705,"f16":12706,"families":12707,"gcd":12708,"hh":12709,"i746":12710,"junk":12711,"kb":12712,"n4":12713,"nh":12714,"nif":12715,"night":12716,"navig":12717,"pcap":12718,"rn":12719,"r10":12720,"r12":12721,"rating":12722,"rdf":12723,"rise":12724,"t10":12725,"venv":12726,"wing":12727,"woo":12728,"zx":12729,"in2":12730,"sthen":12731,"ony":12732,"onic":12733,"onts":12734,"onoi":12735,"algo":12736,"dem":12737,"defect":12738,"trap":12739,"strto":12740,"nelem":12741,"0050":12742,"newstr":12743,"idence":12744,"conrod":12745,"rustac":12746,"rases":12747,"libunicode":12748,"oftrust":12749,"nou":12750,"traver":12751,"endpoints":12752,"Concat":12753,"Semi":12754,"Option2":12755,"myptr":12756,"indicate":12757,"ffmpeg":12758,"Iterator1":12759,"1615":12760,"spire":12761,"locks":12762,"1112":12763,"croll":12764,"Encode":12765,"Trait1":12766,"point2":12767,"memmove":12768,"Value2":12769,"17a":12770,"spacing":12771,"ERT":12772,"508":12773,"rustczf":12774,"Complet":12775,"Ids":12776,"mins":12777,"temp1":12778,"000000000":12779,"sum2":12780,"boxes":12781,"Design":12782,"42u8":12783,"allocations":12784,"transition":12785,"SSH":12786,"example1":12787,"logout":12788,"logged":12789,"Test1":12790,"webpki":12791,"Docopt":12792,"linuxbox":12793,"cccc":12794,"grpc":12795,"identifiers":12796,"anymap":12797,"devloper":12798,"warder":12799,"graded":12800,"idx0":12801,"Weather":12802,"DEV":12803,"SESSION":12804,"485":12805,"offline":12806,"Enum1":12807,"Dereferenced":12808,"lexical":12809,"2003":12810,"specs":12811,"Image2D":12812,"diff1":12813,"shoot":12814,"projectname":12815,"Attack":12816,"Callable":12817,"SHOT":12818,"Logic":12819,"slab":12820,"assigning":12821,"nonnull":12822,"UNUSED":12823,"manent":12824,"Cursive":12825,"great":12826,"Frameworks":12827,"accessing":12828,"tensor":12829,"DOES":12830,"DOMAIN":12831,"increments":12832,"CONNE":12833,"Gui":12834,"receivers":12835,"wards":12836,"accepts":12837,"Added":12838,"Tasks":12839,"Printing":12840,"EXTI":12841,"EXPORT":12842,"Positions":12843,"Summary":12844,"libsolver":12845,"Sorting":12846,"WORLD":12847,"directive":12848,"domains":12849,"mingw64":12850,"snippet":12851,"FORTIFY":12852,"evaluated":12853,"vao":12854,"0x559f":12855,"todos":12856,"Singleton":12857,"a9a":12858,"parallelvor":12859,"h1Y1":12860,"Devices":12861,"gpb":12862,"nannou":12863,"COUNTER":12864,"measurements":12865,"WINSZ":12866,"Multiply":12867,"Combination":12868,"CGWINSZ":12869,"meshes":12870,"erencing":12871,"f9d":12872,"Evt":12873,"cutoff":12874,"vdso":12875,"OBJECT":12876,"MEMORY":12877,"LCPI0":12878,"uvwxyz":12879,"Greeting":12880,"Perspective":12881,"Tomcat":12882,"STDIN":12883,"STDERR":12884,"SOCKET":12885,"secp256k1":12886,"recipe":12887,"Pascal":12888,"CLASS":12889,"CONNECTION":12890,"22T11":12891,"MAGIC":12892,"acceleration":12893,"idiomatic":12894,"CRYPTO":12895,"TIOCGWINSZ":12896,"xmldsig":12897,"Ratio":12898,"Anonymous":12899,"abcdefghijklmnopqrstuvwxyz":12900,"Vocabulary":12901,"i7469704":12902,"sthenes":12903,"rustczfh1Y1":12904,"parallelvoronoi":12905,"0K":12906,"042":12907,"280":12908,"3B":12909,"4exec":12910,"5i":12911,"524":12912,"6handle":12913,"8f":12914,"864":12915,"8200":12916,"Ala":12917,"Cand":12918,"Cors":12919,"Dto":12920,"DMA":12921,"Dense":12922,"Equiv":12923,"Fold":12924,"Follow":12925,"GDB":12926,"IVE":12927,"JOIN":12928,"KHR":12929,"Moun":12930,"Mak":12931,"Marr":12932,"NUL":12933,"Qo":12934,"Rsize":12935,"Sal":12936,"Slave":12937,"Scores":12938,"Tendril":12939,"UINT":12940,"V0":12941,"ZIP":12942,"bod":12943,"f80":12944,"gif":12945,"h4":12946,"hmap":12947,"hurl":12948,"ifn":12949,"lrt":12950,"mdo":12951,"mmetric":12952,"n7":12953,"r16":12954,"sans":12955,"sampler":12956,"uf":12957,"uages":12958,"wal":12959,"wget":12960,"x01":12961,"inconsistent":12962,"street":12963,"ltei":12964,"arsh":12965,"meters":12966,"unspecified":12967,"roar":12968,"strategy":12969,"maker":12970,"asize":12971,"lify":12972,"liquid":12973,"toy":12974,"tour":12975,"adic":12976,"forgot":12977,"fortun":12978,"0060":12979,"prj":12980,"fid":12981,"Stride":12982,"conten":12983,"elded":12984,"tea":12985,"andom":12986,"abox":12987,"abby":12988,"lname":12989,"649":12990,"Retry":12991,"Reaction":12992,"liblmdb":12993,"igrep":12994,"nologo":12995,"trade":12996,"St1":12997,"htable":12998,"favor":12999,"statuses":13000,"Foo3":13001,"extent":13002,"funny":13003,"setter":13004,"indicates":13005,"imm":13006,"E0392":13007,"E0562":13008,"ushort":13009,"spinner":13010,"licies":13011,"0xffffffff":13012,"barcode":13013,"hose":13014,"however":13015,"waiter":13016,"msv":13017,"Threshold":13018,"http6handle":13019,"Structs":13020,"vow":13021,"Trade":13022,"elling":13023,"Outspoken":13024,"point1":13025,"slice1":13026,"Union":13027,"Unrestricted":13028,"Classes":13029,"insertable":13030,"startproc":13031,"275":13032,"Chat":13033,"───":13034,"STU":13035,"502":13036,"50dab":13037,"Orange":13038,"hellobugs":13039,"openvp":13040,"minigrep":13041,"clientc":13042,"summed":13043,"sslcontext":13044,"hair":13045,"submodule":13046,"344":13047,"RESET":13048,"Partially":13049,"Sendable":13050,"40Slow":13051,"reqgen":13052,"toolkit":13053,"1001":13054,"marsh":13055,"260":13056,"261":13057,"560":13058,"linkage":13059,"ENER":13060,"hyphen":13061,"morestack":13062,"Most":13063,"releases":13064,"ACTI":13065,"mbed":13066,"monitor":13067,"monster":13068,"URN":13069,"Dias":13070,"471":13071,"cbor":13072,"LAST":13073,"ffic":13074,"bb8":13075,"582":13076,"587":13077,"slug":13078,"Hashtable":13079,"qualified":13080,"Road":13081,"libstdc":13082,"E0423":13083,"multiplex":13084,"syms":13085,"calculations":13086,"PROBLE":13087,"63fffffff":13088,"prefixing":13089,"Printable":13090,"000000000000000000000000000000000000000000000000":13091,"STRHELLO":13092,"lipse":13093,"annotate":13094,"python2":13095,"c042":13096,"LDER":13097,"Sale":13098,"Successfully":13099,"E0061":13100,"Portal":13101,"roulette":13102,"Benchmark":13103,"shellapi":13104,"ugly":13105,"BLOCKS":13106,"VARS":13107,"throughput":13108,"PARAM":13109,"DIMENSION":13110,"Multiplication":13111,"SYS":13112,"999999":13113,"SHA256with":13114,"mfony":13115,"ZN4http6handle":13116,"computed":13117,"detect":13118,"Capability":13119,"glider":13120,"jumps":13121,"fourth":13122,"C4273":13123,"Dete":13124,"SHA1with":13125,"0x5574c8e3":13126,"Sigmoid":13127,"Feature":13128,"Conditional":13129,"HIST":13130,"Poly":13131,"SIGNATURE":13132,"analyzer":13133,"nnz":13134,"siblings":13135,"0x00007ff":13136,"capitalized":13137,"salary":13138,"fingerprint":13139,"ZN6thrust":13140,"guaranteed":13141,"Representation":13142,"RETURN":13143,"Additional":13144,"Cleanup":13145,"Aggregate":13146,"Fst614":13147,"PWD":13148,"canonicalize":13149,"GAMEDATA":13150,"Crawl":13151,"mozilla":13152,"862b9bc":13153,"niko":13154,"Canonical":13155,"Isaac":13156,"ejabby":13157,"9223372036854775":13158,"KERNEL":13159,"kallsyms":13160,"younger":13161,"Composable":13162,"philosophers":13163,"BORROW":13164,"CONNECT":13165,"Married":13166,"ifndef":13167,"50dab63fffffff":13168,"40Slow149998":13169,"Fst61440Slow149998":13170,"ejabbyqy":13171,"1A":13172,"2number":13173,"5F":13174,"50000":13175,"6e4":13176,"7rc":13177,"9B":13178,"9F":13179,"980":13180,"978":13181,"Afr":13182,"Bert":13183,"DLL":13184,"E4":13185,"Ef":13186,"Gas":13187,"Gray":13188,"Harsh":13189,"I1":13190,"IV":13191,"Kafka":13192,"Lic":13193,"Lkeys":13194,"Lots":13195,"NB":13196,"Ny":13197,"RM":13198,"Rsa":13199,"SB":13200,"Sieve":13201,"Tea":13202,"U80":13203,"V2D":13204,"WEB":13205,"a42":13206,"bh":13207,"baf":13208,"bunch":13209,"bidi":13210,"dust":13211,"dic":13212,"dreq":13213,"e19":13214,"e5c":13215,"fabric":13216,"iq":13217,"krate":13218,"lcs":13219,"lorem":13220,"mix":13221,"nk":13222,"nz":13223,"nav":13224,"tu":13225,"tut":13226,"ula":13227,"wan":13228,"zen":13229,"invert":13230,"indirection":13231,"lel":13232,"leaves":13233,"sest":13234,"strcpy":13235,"ch10":13236,"prng":13237,"fic":13238,"ubforce":13239,"tee":13240,"struct1":13241,"Erato":13242,"Replace":13243,"Retrie":13244,"cloning":13245,"lam":13246,"lax":13247,"Error1":13248,"testq":13249,"propos":13250,"crt2":13251,"athe":13252,"divisible":13253,"mytest":13254,"Maps":13255,"shut":13256,"shif":13257,"E0210":13258,"ptrdiff":13259,"spent":13260,"istream":13261,"0x16":13262,"runmode":13263,"startcom":13264,"303":13265,"erris":13266,"first1":13267,"277":13268,"STER":13269,"Cloneable":13270,"Compare":13271,"sum1":13272,"Asym":13273,"fos":13274,"childs":13275,"buffer2":13276,"submission":13277,"blocked":13278,"ONCE":13279,"checksum":13280,"wasn":13281,"283":13282,"lasts":13283,"warm":13284,"268":13285,"calum":13286,"554":13287,"importcert":13288,"rts":13289,"SECON":13290,"scriber":13291,"31bf":13292,"490":13293,"monte":13294,"connectionstate":13295,"Meow":13296,"utilities":13297,"47e":13298,"Subscriber":13299,"LAND":13300,"ieu":13301,"Borrowing":13302,"consist":13303,"View1":13304,"Leg":13305,"unchanged":13306,"069":13307,"Pinned":13308,"CTOR":13309,"Visitable":13310,"TOOL":13311,"documents":13312,"POS":13313,"lonlat":13314,"Osap":13315,"invalidate":13316,"CKET":13317,"Executable":13318,"shortlived":13319,"Transforms":13320,"Datetime":13321,"Operand":13322,"Bitmap":13323,"95th":13324,"Pear":13325,"simul":13326,"candies":13327,"median":13328,"cryptobox":13329,"GTX":13330,"Miner":13331,"bfp3":13332,"evaluating":13333,"descend":13334,"2f9":13335,"BLOCKSIZE":13336,"p0i8":13337,"integration":13338,"PAIR":13339,"PRIME":13340,"Switch":13341,"RPC":13342,"Snake":13343,"movdqu":13344,"EMPT":13345,"────────────":13346,"broadcaster":13347,"walkdir":13348,"decoders":13349,"SETTING":13350,"HASHMAP":13351,"julia":13352,"Included":13353,"BINARY":13354,"Comparable":13355,"inifile":13356,"OCSP":13357,"seats":13358,"storetype":13359,"004s":13360,"straints":13361,"roman2number":13362,"permutations":13363,"simplified":13364,"Restriction":13365,"initializers":13366,"poutbuf":13367,"tmpxft":13368,"ENTRYPOINT":13369,"Establish":13370,"RADIUS":13371,"turb":13372,"Declaration":13373,"noexecstack":13374,"1048576":13375,"SNAPSHOT":13376,"AABB":13377,"Slacker":13378,"tensorflow":13379,"DIMENSIONS":13380,"7rcbfp3":13381,"Africa":13382,"proposal":13383,"Asymmetric":13384,"7rcbfp3g":13385,"090":13386,"1x":13387,"3f64":13388,"3da":13389,"4C":13390,"656":13391,"737":13392,"741":13393,"ASI":13394,"Auction":13395,"Bed":13396,"BAD":13397,"Bidi":13398,"Ca":13399,"CLO":13400,"CMP":13401,"Duplex":13402,"FL":13403,"Ffi":13404,"Fused":13405,"Gi":13406,"Gold":13407,"Hour":13408,"Hurl":13409,"KV":13410,"Ka":13411,"LV":13412,"LDA":13413,"MM":13414,"MUL":13415,"Mali":13416,"N2":13417,"PN":13418,"Pix":13419,"Pump":13420,"RON":13421,"Rkeys":13422,"Tt":13423,"Tre":13424,"Tun":13425,"Was":13426,"Wsh":13427,"Wfloat":13428,"Wwrite":13429,"Wconversion":13430,"Wundef":13431,"Wredundant":13432,"Year":13433,"a64":13434,"aints":13435,"btail":13436,"bfc":13437,"bank":13438,"dh":13439,"dam":13440,"equ":13441,"eow":13442,"gd":13443,"gmpf":13444,"ivec2":13445,"imation":13446,"l3":13447,"lh":13448,"lcore":13449,"mate":13450,"mnt":13451,"mrusty":13452,"nof":13453,"nathan":13454,"namya":13455,"pch":13456,"prom":13457,"sreq":13458,"slex":13459,"trent":13460,"t11":13461,"t100":13462,"ustr":13463,"vn":13464,"wow":13465,"ztree":13466,"zfar":13467,"zhang":13468,"├─":13469,"instr":13470,"inet":13471,"stors":13472,"orientation":13473,"atype":13474,"reps":13475,"reserv":13476,"retrie":13477,"seperator":13478,"ctr":13479,"ctxt":13480,"destructure":13481,"trial":13482,"unmap":13483,"mutref":13484,"ascription":13485,"lift":13486,"cheng":13487,"lol":13488,"advent":13489,"ad364":13490,"0070":13491,"32768":13492,"urp":13493,"idl":13494,"rustlink":13495,"ello":13496,"getters":13497,"rsync":13498,"atail":13499,"moon":13500,"dos":13501,"dogs":13502,"libnpp":13503,"iovec":13504,"travel":13505,"tracer":13506,"trades":13507,"10i":13508,"beetles":13509,"Constraints":13510,"refused":13511,"prox":13512,"Department":13513,"perl":13514,"borrow2":13515,"diagnostic":13516,"fe3":13517,"myfunction":13518,"odbc":13519,"additions":13520,"soon":13521,"commer":13522,"E0191":13523,"located":13524,"ip2":13525,"index1":13526,"0x6":13527,"0x03":13528,"Val2":13529,"avx":13530,"weird":13531,"callable":13532,"callsite":13533,"Servo":13534,"winnt":13535,"slice2":13536,"Unifier":13537,"Undirected":13538,"18n":13539,"pyclass":13540,"backing":13541,"3046":13542,"kers":13543,"Idle":13544,"Keypair":13545,"minute":13546,"233":13547,"caa":13548,"current1":13549,"Applet":13550,"express":13551,"trusting":13552,"Partition":13553,"logstream":13554,"suitable":13555,"splitter":13556,"intercept":13557,"interactive":13558,"interfaces":13559,"40b":13560,"2820":13561,"Sockets":13562,"bohd":13563,"Vector2d":13564,"hypot":13565,"Algorithms":13566,"375":13567,"Winline":13568,"Winvalid":13569,"plate":13570,"Collector":13571,"487":13572,"596":13573,"492":13574,"4626":13575,"overwrite":13576,"787":13577,"Heart":13578,"Opener":13579,"454":13580,"Subset":13581,"907":13582,"Web3":13583,"filenames":13584,"discovery":13585,"777":13586,"dist2":13587,"distutils":13588,"bazel":13589,"manufacturer":13590,"NOW":13591,"decls":13592,"5456":13593,"xmm7":13594,"CEST":13595,"Programmer":13596,"flows":13597,"legacy":13598,"wanted":13599,"Dimensions":13600,"USD":13601,"USR":13602,"tsr":13603,"Consider":13604,"enemy":13605,"Dynamo":13606,"DBACK":13607,"RUNTIME":13608,"Backup":13609,"learning":13610,"googleapis":13611,"Vertex3d":13612,"dpdk":13613,"CRT":13614,"Actor1":13615,"functionality":13616,"carbon":13617,"Movement":13618,"marked":13619,"exceptions":13620,"constraints":13621,"U32Family":13622,"rwxr":13623,"attempts":13624,"E0621":13625,"recursively":13626,"a924":13627,"pareto":13628,"Dela":13629,"0x850dab63fffffff":13630,"truncated":13631,"Prefix":13632,"bluez":13633,"Depth":13634,"USERNAME":13635,"10923":13636,"Inflate":13637,"SYMB":13638,"Neighbour":13639,"WORKING":13640,"ZN4main":13641,"Swigger":13642,"claim":13643,"abcdefg":13644,"FFFFFFFF":13645,"PLACE":13646,"Optimizer":13647,"Feed":13648,"sfml":13649,"Volley":13650,"quadr":13651,"INSTALL":13652,"FIND":13653,"27017":13654,"LCPI4":13655,"Pretend":13656,"physics":13657,"attis":13658,"3856ad364":13659,"ZN6S":13660,"Encrypted":13661,"jwt":13662,"Decorator":13663,"0xb87":13664,"Broadcast":13665,"Broken":13666,"mirror":13667,"0x5574c8a10":13668,"Analytics":13669,"P6Q":13670,"DIRECTORY":13671,"Granted":13672,"prototypes":13673,"pentagon":13674,"Criterion":13675,"courses":13676,"c14n":13677,"dlsym":13678,"7f45b7":13679,"Sudoku":13680,"STUFF":13681,"PROBLEM":13682,"31bf3856ad364":13683,"LDAP":13684,"nofollow":13685,"slexom":13686,"zhangcheng":13687,"commerce":13688,"bohdan":13689,"DBACKTRACE":13690,"31bf3856ad364e35":13691,"050":13692,"1fb":13693,"2s":13694,"3306":13695,"40000":13696,"4cuda":13697,"7B":13698,"7ae":13699,"919":13700,"924":13701,"Are":13702,"Alive":13703,"Bi":13704,"Bet":13705,"Benite":13706,"Crl":13707,"EK":13708,"FK":13709,"FV":13710,"Fuse":13711,"FMT":13712,"ICE":13713,"I2c":13714,"KB":13715,"Kd":13716,"LATE":13717,"Ms":13718,"Mary":13719,"Noun":13720,"Ngram":13721,"O1":13722,"Old":13723,"OLS":13724,"QY":13725,"Sd":13726,"Sid":13727,"Spl":13728,"Svm":13729,"TM":13730,"Tar":13731,"U256":13732,"Wenum":13733,"Wuninitialized":13734,"aren":13735,"a55":13736,"a53":13737,"blink":13738,"b06":13739,"bcx":13740,"balk":13741,"crustify":13742,"dg":13743,"dro":13744,"dbe":13745,"dnd":13746,"fat":13747,"fml":13748,"fuel":13749,"h8":13750,"hdk":13751,"jim":13752,"km":13753,"kle":13754,"llo":13755,"larg":13756,"lite":13757,"n0":13758,"n8":13759,"nparts":13760,"poop":13761,"q2":13762,"rdata":13763,"ridden":13764,"scl":13765,"sdata":13766,"uated":13767,"vsize":13768,"wb":13769,"wish":13770,"zend":13771,"invol":13772,"ltip":13773,"atre":13774,"reloc":13775,"seas":13776,"eno":13777,"endef":13778,"lettre":13779,"otool":13780,"meth":13781,"devel":13782,"trn":13783,"unay":13784,"rogate":13785,"strace":13786,"colour":13787,"ad0":13788,"adoption":13789,"005":13790,"Strip":13791,"izations":13792,"uss":13793,"conson":13794,"conserv":13795,"impsest":13796,"rustbuild":13797,"rustffi":13798,"Stringable":13799,"abbb":13800,"icycle":13801,"hermes":13802,"mofire":13803,"Reject":13804,"libcfg":13805,"ofish":13806,"iou":13807,"Reser":13808,"linspace":13809,"lineno":13810,"ynum":13811,"end1":13812,"outcome":13813,"testf":13814,"vich":13815,"pau":13816,"refine":13817,"profiler":13818,"crl":13819,"Delim":13820,"dia":13821,"esti":13822,"fe7":13823,"myserver":13824,"mytool":13825,"1200":13826,"addon":13827,"Okay":13828,"rence":13829,"resulting":13830,"tptr":13831,"2021":13832,"iph":13833,"ips":13834,"ipsum":13835,"someval":13836,"somestring":13837,"thisis":13838,"thiserror":13839,"index2":13840,"0x28":13841,"0x78":13842,"1196":13843,"crop":13844,"weapon":13845,"list1":13846,"Data1":13847,"Thang":13848,"mod64":13849,"prep":13850,"callme":13851,"Serde":13852,"Serialization":13853,"Sergio":13854,"damage":13855,"Poison":13856,"Uncrustify":13857,"Clamp":13858,"ignores":13859,"274":13860,"241":13861,"993":13862,"995":13863,"allocs":13864,"formula":13865,"ATA":13866,"ATT":13867,"androidx":13868,"Park":13869,"Doing":13870,"locals":13871,"interpreter":13872,"gry":13873,"4048":13874,"generates":13875,"chains":13876,"Commit":13877,"262":13878,"syncing":13879,"383":13880,"containers":13881,"Gets":13882,"354":13883,"DED":13884,"DESCR":13885,"double4":13886,"Imprint":13887,"Nums":13888,"366":13889,"ALIGN":13890,"444":13891,"converting":13892,"Collision":13893,"Phrase":13894,"391":13895,"494":13896,"overridden":13897,"aae":13898,"479":13899,"Subpixel":13900,"counters":13901,"ADMIN":13902,"Pagin":13903,"datalink":13904,"datathe":13905,"570":13906,"fficient":13907,"Intermediate":13908,"Intersect":13909,"dispose":13910,"bb1":13911,"5864":13912,"UTTON":13913,"UNSIGNED":13914,"Authenticate":13915,"referred":13916,"TIM2":13917,"enc1":13918,"Ending":13919,"snack":13920,"969":13921,"TOTAL":13922,"freeze":13923,"Linear":13924,"timer2":13925,"X509Certificate2":13926,"Checks":13927,"Println":13928,"Transformed":13929,"0x00000":13930,"fullscreen":13931,"Parameterized":13932,"Petro":13933,"relro":13934,"speech":13935,"1234567":13936,"pascal":13937,"0x7F":13938,"emitter":13939,"Specify":13940,"rottle":13941,"ANDRO":13942,"Implemented":13943,"expands":13944,"Launching":13945,"rwx":13946,"deadline":13947,"attachment":13948,"E0034":13949,"branches":13950,"ITEMS":13951,"Timestamptz":13952,"Division":13953,"IPTION":13954,"imag":13955,"imagine":13956,"0x4000":13957,"a5d":13958,"COLUM":13959,"encryptor":13960,"d912":13961,"stage1":13962,"palimpsest":13963,"Attached":13964,"intrinsic":13965,"SQLITE":13966,"guesses":13967,"Evaluate":13968,"study":13969,"declarations":13970,"Wolf":13971,"central":13972,"200702":13973,"developer":13974,"E0312":13975,"management":13976,"periodic":13977,"4321":13978,"unfoldr":13979,"Todoist":13980,"Whether":13981,"GENERIC":13982,"Roman":13983,"Physical":13984,"sugar":13985,"qrcode":13986,"LFU":13987,"TBS":13988,"argtypes":13989,"Grace":13990,"interacting":13991,"revisions":13992,"getrandom":13993,"SCRIPT":13994,"obviously":13995,"GOOGLE":13996,"blake2":13997,"Motive":13998,"English":13999,"tecode":14000,"Constraint":14001,"4294967295":14002,"pep517":14003,"SEPARATORS":14004,"Alamofire":14005,"Effect":14006,"turbofish":14007,"Delaunay":14008,"4cuda6detail":14009,"Benitez":14010,"Splash":14011,"balken":14012,"drogen":14013,"larger":14014,"conservative":14015,"DESCRIPTION":14016,"datatheorem":14017,"Petrovich":14018,"028":14019,"1i64":14020,"1ea":14021,"286":14022,"332":14023,"310":14024,"356":14025,"4main":14026,"442":14027,"530":14028,"540":14029,"5tuple":14030,"547":14031,"6379":14032,"8C":14033,"9v":14034,"9null":14035,"Bur":14036,"Bill":14037,"BKS":14038,"CY":14039,"DH":14040,"Dc":14041,"DONE":14042,"EJ":14043,"Eight":14044,"FPS":14045,"G9":14046,"Gee":14047,"Goblin":14048,"IVER":14049,"Ix2":14050,"Ks":14051,"Lap":14052,"LV2":14053,"MER":14054,"Mong":14055,"NBIN":14056,"Ora":14057,"Oops":14058,"PIN":14059,"PAGE":14060,"Rtsp":14061,"Rational":14062,"Rabbit":14063,"TCHAR":14064,"VIO":14065,"VGA":14066,"Wing":14067,"XP":14068,"Xlsx":14069,"YO":14070,"Yellow":14071,"ZL":14072,"ahead":14073,"a66":14074,"bda":14075,"brand":14076,"bill":14077,"bcrypt":14078,"dwar":14079,"e20":14080,"evm":14081,"fst":14082,"fonts":14083,"gmp":14084,"hz":14085,"irc":14086,"iif":14087,"i18n":14088,"jit":14089,"kfp":14090,"kafka":14091,"m256":14092,"noref":14093,"pher":14094,"pmove":14095,"sname":14096,"tidx":14097,"tdp":14098,"ued":14099,"w0":14100,"yew":14101,"ymax":14102,"世界":14103,"inbound":14104,"stag":14105,"orge":14106,"mpty":14107,"semaphore":14108,"enes":14109,"encryption":14110,"envelope":14111,"arme":14112,"ctype":14113,"otonic":14114,"meh":14115,"designer":14116,"thus":14117,"thesis":14118,"str3":14119,"strftime":14120,"espres":14121,"asick":14122,"ec8":14123,"lisp":14124,"chs":14125,"covari":14126,"loose":14127,"etic":14128,"prb":14129,"filing":14130,"usegs":14131,"converter":14132,"elapse":14133,"Inher":14134,"lib2":14135,"librt":14136,"libhashbrown":14137,"igrate":14138,"clubforce":14139,"verified":14140,"Resize":14141,"Resized":14142,"laz":14143,"traction":14144,"outliers":14145,"bean":14146,"bearer":14147,"tested":14148,"Sections":14149,"critical":14150,"uling":14151,"myself":14152,"keyctl":14153,"shor":14154,"2011":14155,"sonate":14156,"held":14157,"hellow":14158,"licity":14159,"0x54":14160,"0x2c":14161,"hough":14162,"wave":14163,"listex":14164,"obs":14165,"Third":14166,"prepared":14167,"mtiller":14168,"13T":14169,"winrt":14170,"Trait2":14171,"pointing":14172,"Unmanaged":14173,"Cluster":14174,"ocd":14175,"ERM":14176,"ifies":14177,"Lists":14178,"507":14179,"Ortho":14180,"Compound":14181,"hello2":14182,"openocd":14183,"summation":14184,"Ask":14185,"Assets":14186,"child0":14187,"ancestors":14188,"webcord":14189,"Toast":14190,"glu":14191,"dir1":14192,"Soap":14193,"Forecast":14194,"408":14195,"337":14196,"Trustpilot":14197,"worlds":14198,"353":14199,"Printer":14200,"deflate":14201,"empties":14202,"294":14203,"DEC":14204,"scenes":14205,"E0275":14206,"pluck":14207,"Cols":14208,"Photo":14209,"Regular":14210,"mond":14211,"overloaded":14212,"Rustmark":14213,"viewport":14214,"heights":14215,"bitset":14216,"FIER":14217,"However":14218,"cypher":14219,"452":14220,"Decrypt":14221,"Interpreter":14222,"Viewer":14223,"Callers":14224,"fd6":14225,"SHIP":14226,"ANGLE":14227,"dereferencing":14228,"spanned":14229,"UNPACK":14230,"xsi":14231,"PATTER":14232,"gametest":14233,"considered":14234,"matrix1":14235,"eeded":14236,"compiling":14237,"Pooling":14238,"53eb":14239,"sentences":14240,"ryu":14241,"TRAN":14242,"wants":14243,"multiples":14244,"Guild":14245,"POSI":14246,"PROCS":14247,"74ff6":14248,"tsq":14249,"executing":14250,"shortcut":14251,"Edges":14252,"0b00000000":14253,"Disjoint":14254,"ILL":14255,"KEYSTORE":14256,"setuptools":14257,"managers":14258,"googlecommerce":14259,"50013":14260,"Plant":14261,"Plug":14262,"sigma":14263,"Protocols":14264,"Traceback":14265,"dup2":14266,"Boundary":14267,"Scenario":14268,"Payment":14269,"sz1":14270,"ASN1":14271,"Helpers":14272,"wss4j":14273,"polled":14274,"tooltip":14275,"0x8000":14276,"Topics":14277,"Authenticated":14278,"ticks":14279,"VECTOR":14280,"CURAND":14281,"8001":14282,"Symfony":14283,"9c94":14284,"Similar":14285,"Compiles":14286,"Blueprint":14287,"protos":14288,"MIME":14289,"coerce":14290,"Instrumented":14291,"6f57":14292,"Glyphs":14293,"Have":14294,"AUTHOR":14295,"COMPILATION":14296,"BLACK":14297,"BLUE":14298,"xxxxxxxxxxxxxxxx":14299,"E0609":14300,"Journal":14301,"Represents":14302,"sharpen":14303,"VARIABLE":14304,"Sharpen":14305,"Browser":14306,"Foreign":14307,"Pkcs":14308,"Computation":14309,"TRANSFER":14310,"contrast":14311,"Recovery":14312,"Idea":14313,"mstaves":14314,"u2018Output":14315,"spooks":14316,"fuzzy":14317,"summarize":14318,"IMGREL":14319,"c94cf":14320,"parasail":14321,"introspect":14322,"Designer":14323,"msvcrt":14324,"marshaller":14325,"e19c94cf":14326,"EMPTY":14327,"Giant":14328,"282050013":14329,"7ae74ff6":14330,"armeabi":14331,"espresso":14332,"7ae74ff6d912":14333,"2u":14334,"464":14335,"5E":14336,"6system":14337,"6326":14338,"827":14339,"9000":14340,"A7":14341,"Air":14342,"ALE":14343,"B3":14344,"Bec":14345,"BAT":14346,"DK":14347,"DP":14348,"Daniel":14349,"Fr":14350,"Gate":14351,"Gender":14352,"Gene":14353,"Hard":14354,"Hitable":14355,"Happy":14356,"I2":14357,"Isize":14358,"Jim":14359,"KL":14360,"Ljava":14361,"Ldouble":14362,"MN":14363,"Mdb":14364,"Mine":14365,"MMY":14366,"Million":14367,"Needed":14368,"Prec":14369,"Poop":14370,"Pclip":14371,"Rk":14372,"Sans":14373,"Sinc":14374,"Sheet":14375,"Ti":14376,"Tell":14377,"Tough":14378,"TSP":14379,"Ure":14380,"UBLE":14381,"a000":14382,"ags":14383,"bas":14384,"bd0":14385,"banana":14386,"c56":14387,"c88":14388,"cmath":14389,"dm":14390,"dde":14391,"dac":14392,"d04":14393,"gid":14394,"hub":14395,"icode":14396,"j1":14397,"kot":14398,"lion":14399,"lvalue":14400,"lparam":14401,"ncol":14402,"nia":14403,"naked":14404,"pn":14405,"pig":14406,"preference":14407,"psw":14408,"platforms":14409,"qsort":14410,"qwer":14411,"rh":14412,"ridx":14413,"skey":14414,"voxel":14415,"yc":14416,"zn":14417,"╶─┼":14418,"infin":14419,"ltcp":14420,"setr":14421,"enqueue":14422,"ctools":14423,"meili":14424,"unshift":14425,"unhandled":14426,"universe":14427,"strerror":14428,"mutates":14429,"maco":14430,"ed25519":14431,"towers":14432,"adap":14433,"ad38":14434,"adummy":14435,"pe0":14436,"ately":14437,"valor":14438,"ultra":14439,"iffer":14440,"libk":14441,"libcudart":14442,"iomanip":14443,"noinline":14444,"lags":14445,"lindex":14446,"1011":14447,"itempro":14448,"Converter":14449,"pom":14450,"processes":14451,"col1":14452,"ully":14453,"Deep":14454,"Demonstr":14455,"diver":14456,"statics":14457,"curve":14458,"myf":14459,"mystr":14460,"myclass":14461,"add2":14462,"immuta":14463,"result3":14464,"Iterator2":14465,"E0117":14466,"E0451":14467,"char16":14468,"1677":14469,"locities":14470,"thread1":14471,"ipants":14472,"applications":14473,"acb7":14474,"Export":14475,"Exists":14476,"panel":14477,"Data2":14478,"preserved":14479,"callers":14480,"Tracker":14481,"19e":14482,"1999":14483,"Poisoned":14484,"Outside":14485,"ller":14486,"Unmap":14487,"py3":14488,"memblock":14489,"ignoring":14490,"Writable":14491,"Barks":14492,"sentin":14493,"Compact":14494,"workspaces":14495,"000b":14496,"handle2":14497,"irrelevant":14498,"992":14499,"Appender":14500,"child3":14501,"expl":14502,"movzx":14503,"Parsing":14504,"REC":14505,"cfhttp":14506,"grab":14507,"conduit":14508,"identify":14509,"406f57":14510,"tmp1":14511,"last1":14512,"Commission":14513,"267":14514,"Timespec":14515,"563":14516,"afford":14517,"cats":14518,"Already":14519,"357":14520,"DEG":14521,"DESC":14522,"DELAY":14523,"SIGT":14524,"363":14525,"ITS":14526,"ALPH":14527,"447":14528,"SED":14529,"selves":14530,"f89":14531,"heads":14532,"bitflag":14533,"Matrix1":14534,"astien":14535,"signatures":14536,"produced":14537,"uniq":14538,"LANG":14539,"secext":14540,"bb3":14541,"armhf":14542,"SHOP":14543,"template2":14544,"ANY":14545,"Instance0":14546,"Formatted":14547,"E0503":14548,"traits2":14549,"icebox":14550,"SAFET":14551,"outercount":14552,"Signing":14553,"Tuple2":14554,"baud":14555,"kernels":14556,"0700":14557,"destin":14558,"Layers":14559,"midnight":14560,"digit1":14561,"0b11":14562,"stripe":14563,"optimization":14564,"databases":14565,"Groups":14566,"constructed":14567,"94ea":14568,"E0384":14569,"71a924":14570,"Issued":14571,"Books":14572,"authorize":14573,"Herd":14574,"nlu":14575,"COMPAT":14576,"LINES":14577,"LINUX":14578,"MDT":14579,"APPLIC":14580,"tlefield":14581,"knows":14582,"bsd":14583,"Cars":14584,"limits":14585,"aeiou":14586,"Devil":14587,"3fad38":14588,"Converted":14589,"gpus":14590,"rounding":14591,"f7b9":14592,"Topping":14593,"e63046":14594,"c611":14595,"focused":14596,"NUMTHREADS":14597,"65537":14598,"DUMMY":14599,"reported":14600,"PRIV":14601,"4cgab":14602,"hd3fad38":14603,"leaked":14604,"parens":14605,"Cancelled":14606,"TERM":14607,"purposes":14608,"Sequential":14609,"published":14610,"adapters":14611,"potter":14612,"uclibc":14613,"LOWER":14614,"surname":14615,"surrogate":14616,"mcve":14617,"allenger":14618,"Assocc":14619,"simplicity":14620,"Brace":14621,"oleh":14622,"fdsfds":14623,"Comparator":14624,"Comparison":14625,"operands":14626,"SDL2":14627,"lefto":14628,"Alternate":14629,"8584cgab":14630,"73671a924":14631,"Mat4x4":14632,"June":14633,"7804":14634,"Holded":14635,"Configurable":14636,"describable":14637,"FACTOR":14638,"orphic":14639,"GOTPCREL":14640,"pacman":14641,"organizations":14642,"currentcharcount":14643,"Hyper":14644,"birth":14645,"spreadsheet":14646,"favorite":14647,"HISTORY":14648,"9223372036854775809":14649,"Eratosthenes":14650,"simulations":14651,"2f94467":14652,"Treat":14653,"thisisadummy":14654,"1196e63046":14655,"Intersectable":14656,"snacks":14657,"YOUR":14658,"Because":14659,"╶─┼╴":14660,"meilisearch":14661,"macosx":14662,"itemproperty":14663,"sentinel":14664,"406f571196e63046":14665,"SIGTERM":14666,"SHOPPING":14667,"SAFETY":14668,"94ea8584cgab":14669,"APPLICATION":14670,"hd3fad3894ea8584cgab":14671,"73671a9242f94467":14672,"thisisadummyseed":14673,"0100":14674,"2f64":14675,"218":14676,"3new":14677,"418":14678,"717":14679,"880":14680,"9panicking":14681,"ASP":14682,"Bb":14683,"Best":14684,"Bplus":14685,"CAN":14686,"Centr":14687,"DRO":14688,"Differ":14689,"Eon":14690,"Escape":14691,"Embed":14692,"Give":14693,"Imb":14694,"Jar":14695,"JIT":14696,"Ko":14697,"Ln":14698,"Late":14699,"Lorem":14700,"Pxt":14701,"Pages":14702,"QR":14703,"Qt":14704,"Sure":14705,"SENT":14706,"Tim":14707,"Udb":14708,"VOL":14709,"XT":14710,"Zoo":14711,"a32":14712,"auct":14713,"a96":14714,"bage":14715,"bcc":14716,"c20":14717,"dn":14718,"dle":14719,"dox":14720,"dude":14721,"etry":14722,"federation":14723,"gone":14724,"jol":14725,"jclass":14726,"k0":14727,"kq":14728,"mild":14729,"mother":14730,"mule":14731,"mali":14732,"nvm":14733,"nano":14734,"ptype":14735,"p15":14736,"pseudo":14737,"qc":14738,"qq":14739,"sret":14740,"sprintf":14741,"t13":14742,"twid":14743,"xb":14744,"ycb":14745,"zmax":14746,"income":14747,"iniline":14748,"stay":14749,"stimer":14750,"lections":14751,"orer":14752,"atrust":14753,"atlas":14754,"restart":14755,"realloc":14756,"rewriter":14757,"renegot":14758,"alsa":14759,"defs":14760,"trus":14761,"theta":14762,"undo":14763,"mutator":14764,"int3":14765,"intended":14766,"quack":14767,"asn1":14768,"ecl":14769,"tooth":14770,"forall":14771,"0080":14772,"iser":14773,"prices":14774,"urious":14775,"vey":14776,"impro":14777,"rustpress":14778,"theses":14779,"abe":14780,"getcwd":14781,"struct2":14782,"race":14783,"geom":14784,"librust":14785,"clar":14786,"dataframe":14787,"vec32":14788,"Resp":14789,"imessp":14790,"Stu":14791,"Stages":14792,"1028":14793,"outfile":14794,"ret2":14795,"pagin":14796,"pour":14797,"poetry":14798,"propa":14799,"numtype":14800,"perf":14801,"perse":14802,"12pt":14803,"Hashmap":14804,"line3":14805,"reddit":14806,"ssid":14807,"spot":14808,"spurious":14809,"Node3":14810,"0x36":14811,"0x48":14812,"0x04":14813,"hole":14814,"httpclient":14815,"mod1":14816,"presen":14817,"dale":14818,"ertin":14819,"wincon":14820,"Pow":14821,"floatdev":14822,"Progra":14823,"start1":14824,"2518":14825,"begins":14826,"json1":14827,"typing":14828,"depended":14829,"Coplan":14830,"inits":14831,"minor":14832,"24T13":14833,"tempfile":14834,"workaround":14835,"current2":14836,"Settlement":14837,"806":14838,"pos1":14839,"Obs":14840,"transf":14841,"expired":14842,"buffer1":14843,"buffersize":14844,"closure1":14845,"nullable":14846,"ATFORM":14847,"Clients":14848,"maxes":14849,"subvec":14850,"ARIES":14851,"Transactions":14852,"servers":14853,"Loaded":14854,"dir2":14855,"28e":14856,"rootfs":14857,"Combo":14858,"26214":14859,"scopeguard":14860,"depending":14861,"ENVI":14862,"Recieved":14863,"292":14864,"place17h":14865,"cell0":14866,"ACCOUNT":14867,"ializable":14868,"489":14869,"595":14870,"395":14871,"087":14872,"496":14873,"ROLL":14874,"aste":14875,"FIRST":14876,"THAT":14877,"458":14878,"datatype":14879,"Interior":14880,"X509Cert":14881,"searched":14882,"awt":14883,"Autow":14884,"Logon":14885,"FFF":14886,"abc123":14887,"assignments":14888,"playerdata":14889,"bring":14890,"Below":14891,"Signals":14892,"flowc":14893,"765":14894,"protocols":14895,"FLASH":14896,"FLAG1":14897,"FLAG2":14898,"bacon":14899,"bail":14900,"61a6":14901,"Parents":14902,"POLIC":14903,"currid":14904,"USB":14905,"GLUT":14906,"registered":14907,"Transpose":14908,"Db1":14909,"entering":14910,"LBB3":14911,"LBB4":14912,"LBB5":14913,"timestamped":14914,"Publish":14915,"launching":14916,"EDIT":14917,"trustedstores":14918,"frexp":14919,"many0":14920,"Finishing":14921,"LDFLAGS":14922,"Safety":14923,"Drawer":14924,"bf6":14925,"blah2":14926,"d1f7b9":14927,"Allowed":14928,"f4f":14929,"Outer2":14930,"stmts":14931,"a05864":14932,"Bounding":14933,"histories":14934,"Registered":14935,"kitties":14936,"NEAR":14937,"forwardable":14938,"LIBRARIES":14939,"giveback":14940,"controllers":14941,"Topic":14942,"WIN32":14943,"Inflection":14944,"reasons":14945,"p040":14946,"duplicated":14947,"divisors":14948,"Serialisable":14949,"rupted":14950,"exponential":14951,"Evidence":14952,"999u32":14953,"massif":14954,"standards":14955,"vect3":14956,"paritytech":14957,"13204":14958,"balls":14959,"Invitation":14960,"oopsie":14961,"PLATFORM":14962,"ahoo":14963,"perspective":14964,"130px":14965,"ymorphic":14966,"Fluids":14967,"Horizontal":14968,"Holding":14969,"EEEENS":14970,"nouns":14971,"Performance":14972,"0x00005555556":14973,"balances":14974,"adaptor":14975,"93238":14976,"888d1f7b9":14977,"Advance":14978,"sodiumoxide":14979,"ZN4core3ptr":14980,"decorator":14981,"CLEAR":14982,"Dockerfile":14983,"Dialect":14984,"Bracketed":14985,"wso2carbon":14986,"CHOICE":14987,"PORTED":14988,"RDWR":14989,"spellcheck":14990,"Equivalent":14991,"fortunately":14992,"6e4a":14993,"lcsfml":14994,"3daa05864":14995,"RONMENT":14996,"1fb6e4a":14997,"dbe3daa05864":14998,"EJB":14999,"Oracle":15000,"billing":15001,"noreferrer":15002,"kotlin":15003,"3new20h":15004,"Different":15005,"Eonil":15006,"Pxtimessp":15007,"auctions":15008,"ycbcr":15009,"floatdevptr":15010,"Coplanar":15011,"ENVIRONMENT":15012,"61a6dbe3daa05864":15013,"POLICY":15014,
[...]
